{
  "version": "1.0",
  "truncation": null,
  "padding": null,
  "added_tokens": [
    {
      "id": 0,
      "content": "<pad>",
      "single_word": false,
      "lstrip": false,
      "rstrip": false,
      "normalized": false,
      "special": true
    },
    {
      "id": 1,
      "content": "<unk>",
      "single_word": false,
      "lstrip": false,
      "rstrip": false,
      "normalized": false,
      "special": true
    },
    {
      "id": 2,
      "content": "<cls>",
      "single_word": false,
      "lstrip": false,
      "rstrip": false,
      "normalized": false,
      "special": true
    }
  ],
  "normalizer": {
    "type": "Sequence",
    "normalizers": [
      {
        "type": "Nmt"
      },
      {
        "type": "NFKC"
      },
      {
        "type": "Replace",
        "pattern": {
          "Regex": " {2,}"
        },
        "content": " "
      }
    ]
  },
  "pre_tokenizer": {
    "type": "Metaspace",
    "replacement": "▁",
    "prepend_scheme": "always",
    "split": true
  },
  "post_processor": {
    "type": "TemplateProcessing",
    "single": [
      {
        "SpecialToken": {
          "id": "<cls>",
          "type_id": 0
        }
      },
      {
        "Sequence": {
          "id": "A",
          "type_id": 0
        }
      }
    ],
    "pair": [
      {
        "Sequence": {
          "id": "A",
          "type_id": 0
        }
      },
      {
        "Sequence": {
          "id": "B",
          "type_id": 1
        }
      }
    ],
    "special_tokens": {
      "<cls>": {
        "id": "<cls>",
        "ids": [
          2
        ],
        "tokens": [
          "<cls>"
        ]
      }
    }
  },
  "decoder": {
    "type": "Metaspace",
    "replacement": "▁",
    "prepend_scheme": "always",
    "split": true
  },
  "model": {
    "type": "Unigram",
    "unk_id": 1,
    "vocab": [
      [
        "<pad>",
        0.0
      ],
      [
        "<unk>",
        0.0
      ],
      [
        "<cls>",
        0.0
      ],
      [
        "▁",
        -3.5433772194121147
      ],
      [
        "▁mu",
        -3.67515528762633
      ],
      [
        ".",
        -3.7249216988540415
      ],
      [
        "▁ku",
        -3.76258593323381
      ],
      [
        ",",
        -3.8845160036231388
      ],
      [
        "▁nga",
        -4.299722806691316
      ],
      [
        "a",
        -4.3927312787176565
      ],
      [
        "▁nti",
        -4.44627428339885
      ],
      [
        "▁e",
        -4.699333329548707
      ],
      [
        "▁ba",
        -4.709762104041556
      ],
      [
        "▁era",
        -4.7248417526246635
      ],
      [
        "▁oku",
        -4.772913758589171
      ],
      [
        "▁ne",
        -4.999924663014632
      ],
      [
        "▁ya",
        -5.160745377625191
      ],
      [
        "e",
        -5.281808755622254
      ],
      [
        "▁aba",
        -5.283622622850442
      ],
      [
        "▁a",
        -5.3492826347514
      ],
      [
        "mu",
        -5.369356251326689
      ],
      [
        "▁abantu",
        -5.419855921785139
      ],
      [
        "o",
        -5.46944346518819
      ],
      [
        "▁kya",
        -5.472347684104731
      ],
      [
        "▁wa",
        -5.481131164284689
      ],
      [
        "ko",
        -5.6030304088622325
      ],
      [
        "▁bwe",
        -5.673282189967452
      ],
      [
        "wa",
        -5.710298109861508
      ],
      [
        "▁ki",
        -5.822835605883383
      ],
      [
        "▁A",
        -5.952913267380103
      ],
      [
        "sobola",
        -6.032129464236323
      ],
      [
        "▁Museveni",
        -6.066656862422275
      ],
      [
        "▁kino",
        -6.0724238059255375
      ],
      [
        "▁Mu",
        -6.078236261914364
      ],
      [
        "▁kuba",
        -6.0970539964685
      ],
      [
        "▁ka",
        -6.137399812418383
      ],
      [
        "genda",
        -6.137636134027464
      ],
      [
        "wo",
        -6.14796010092114
      ],
      [
        "▁naye",
        -6.1576449081128395
      ],
      [
        "yo",
        -6.188734164545774
      ],
      [
        "▁ye",
        -6.214730904573247
      ],
      [
        "▁bwa",
        -6.215156001758061
      ],
      [
        "▁n",
        -6.227773243330441
      ],
      [
        "▁eno",
        -6.235663487507564
      ],
      [
        "▁gavumenti",
        -6.238806275981388
      ],
      [
        "▁Buganda",
        -6.247508624962849
      ],
      [
        "▁omu",
        -6.262092468383532
      ],
      [
        "dde",
        -6.265534525329825
      ],
      [
        "▁Owek.",
        -6.277699475021884
      ],
      [
        "▁Mayiga",
        -6.289524232500939
      ],
      [
        "n",
        -6.297526398368476
      ],
      [
        "ka",
        -6.299697172666589
      ],
      [
        "▁ate",
        -6.326680397430261
      ],
      [
        "▁Kyagulanyi",
        -6.338570943017795
      ],
      [
        "na",
        -6.354764940227018
      ],
      [
        "▁n’",
        -6.361217242707056
      ],
      [
        "▁E",
        -6.366483589043943
      ],
      [
        "▁n’oku",
        -6.3716923139125115
      ],
      [
        "▁Pulezidenti",
        -6.375270494391427
      ],
      [
        "agamba",
        -6.386902820611235
      ],
      [
        "▁na",
        -6.387636206583131
      ],
      [
        "▁Uganda",
        -6.391077475278777
      ],
      [
        "▁buli",
        -6.410677368864357
      ],
      [
        "▁n’a",
        -6.410780586141409
      ],
      [
        "▁Ono",
        -6.4130525183662535
      ],
      [
        "za",
        -6.424146908483786
      ],
      [
        "ku",
        -6.430181083406025
      ],
      [
        "i",
        -6.438863910721294
      ],
      [
        "ba",
        -6.451496515023643
      ],
      [
        "▁Katikkiro",
        -6.45680670497813
      ],
      [
        "▁bi",
        -6.459723329164796
      ],
      [
        "▁Kabaka",
        -6.470465584936705
      ],
      [
        "▁eri",
        -6.471634539130098
      ],
      [
        "zi",
        -6.471732294891735
      ],
      [
        "s",
        -6.502271203206308
      ],
      [
        "▁Kampala",
        -6.514067016002777
      ],
      [
        ".”",
        -6.5184091110941695
      ],
      [
        "▁bano",
        -6.536221618187641
      ],
      [
        "▁Minisita",
        -6.548112786054312
      ],
      [
        "▁bu",
        -6.555548312073092
      ],
      [
        "▁awamu",
        -6.569664151165587
      ],
      [
        "saba",
        -6.573709082689147
      ],
      [
        "▁wamu",
        -6.590461286523853
      ],
      [
        "▁okuva",
        -6.5950982830223985
      ],
      [
        "▁eki",
        -6.600868706878493
      ],
      [
        "▁ebi",
        -6.614698856667359
      ],
      [
        "▁bya",
        -6.645343525542444
      ],
      [
        "▁guno",
        -6.655896621799256
      ],
      [
        "▁Oku",
        -6.656508767777766
      ],
      [
        "▁n’e",
        -6.666698466938928
      ],
      [
        "▁Omu",
        -6.6769987170018155
      ],
      [
        "▁be",
        -6.681163378071664
      ],
      [
        "t",
        -6.6967770694547415
      ],
      [
        "▁o",
        -6.706308845724206
      ],
      [
        "al",
        -6.709212160990139
      ],
      [
        "▁kye",
        -6.717623742460231
      ],
      [
        "▁aka",
        -6.724339666295654
      ],
      [
        "k",
        -6.751008039441551
      ],
      [
        "badde",
        -6.751686993688479
      ],
      [
        "singa",
        -6.757203785773328
      ],
      [
        "▁ng’a",
        -6.762348566326444
      ],
      [
        "▁lwa",
        -6.764655208151003
      ],
      [
        "▁gye",
        -6.765576331069104
      ],
      [
        "▁gwa",
        -6.777732611824657
      ],
      [
        "▁obu",
        -6.783362531047233
      ],
      [
        "▁kkooti",
        -6.784636616350686
      ],
      [
        "kulira",
        -6.789000437073283
      ],
      [
        "▁eya",
        -6.79909701039085
      ],
      [
        "▁poliisi",
        -6.805971480862311
      ],
      [
        "▁ategeezezza",
        -6.810541122483617
      ],
      [
        ",”",
        -6.814199664380012
      ],
      [
        "▁nnyo",
        -6.8206608852554425
      ],
      [
        "▁lya",
        -6.837143785308972
      ],
      [
        "sinziira",
        -6.840343393016637
      ],
      [
        "ga",
        -6.848781243148767
      ],
      [
        "geri",
        -6.855248157068816
      ],
      [
        "▁tu",
        -6.856979336562215
      ],
      [
        "▁we",
        -6.858851263405871
      ],
      [
        "uma",
        -6.86172318656544
      ],
      [
        "ye",
        -6.863287776046114
      ],
      [
        "▁ssente",
        -6.868018186018677
      ],
      [
        "▁ga",
        -6.868329682454695
      ],
      [
        "u",
        -6.872883705600718
      ],
      [
        "ekirwadde",
        -6.87716526183579
      ],
      [
        "▁bantu",
        -6.87936367295117
      ],
      [
        "ra",
        -6.882875735235126
      ],
      [
        "▁en",
        -6.883738286634528
      ],
      [
        "bi",
        -6.885914355818053
      ],
      [
        "▁O",
        -6.91046852502005
      ],
      [
        "la",
        -6.914670477921737
      ],
      [
        "▁nsonga",
        -6.917403866336945
      ],
      [
        "▁kwe",
        -6.920350083256589
      ],
      [
        "▁y’e",
        -6.955026882300066
      ],
      [
        "sa",
        -6.964334574545975
      ],
      [
        "m",
        -6.967754279075744
      ],
      [
        "lina",
        -6.975177480901338
      ],
      [
        "▁bino",
        -6.981104451902166
      ],
      [
        "ta",
        -6.984516999492413
      ],
      [
        "▁Palamenti",
        -7.0011096302497515
      ],
      [
        "▁zi",
        -7.006691706499992
      ],
      [
        "nteekateeka",
        -7.013056361062506
      ],
      [
        "si",
        -7.015022306839371
      ],
      [
        "kola",
        -7.021223669880781
      ],
      [
        "tu",
        -7.027356642236425
      ],
      [
        "▁b",
        -7.029206385790456
      ],
      [
        "▁ng’",
        -7.039243728525402
      ],
      [
        "jja",
        -7.043250793428498
      ],
      [
        "▁okulaba",
        -7.0476994556764
      ],
      [
        "▁ekya",
        -7.050508603344204
      ],
      [
        "▁wadde",
        -7.05191062609895
      ],
      [
        "▁okukola",
        -7.054493205700622
      ],
      [
        "bu",
        -7.0569158635975775
      ],
      [
        "▁okuba",
        -7.057719193877481
      ],
      [
        "li",
        -7.07624050003904
      ],
      [
        "▁baa",
        -7.080068539348364
      ],
      [
        "le",
        -7.0901645908706445
      ],
      [
        "▁zino",
        -7.096355846860881
      ],
      [
        "▁oluvanny",
        -7.096538824607121
      ],
      [
        "▁n’aba",
        -7.102857423683154
      ],
      [
        "▁okwe",
        -7.103265511697961
      ],
      [
        "nga",
        -7.104811077114485
      ],
      [
        "▁za",
        -7.10644955558519
      ],
      [
        "kubanga",
        -7.109406093341201
      ],
      [
        "’",
        -7.110558815407305
      ],
      [
        "▁bye",
        -7.113479965342877
      ],
      [
        "▁ezi",
        -7.136473760982255
      ],
      [
        "g",
        -7.13796306502127
      ],
      [
        "▁bonna",
        -7.14613849550572
      ],
      [
        "ki",
        -7.147377928741483
      ],
      [
        "no",
        -7.149573553943018
      ],
      [
        "twala",
        -7.153040187385416
      ],
      [
        "▁ng’e",
        -7.166807113282081
      ],
      [
        "▁asabye",
        -7.167222868636842
      ],
      [
        "▁balina",
        -7.171464212336197
      ],
      [
        "▁wabula",
        -7.177226374609292
      ],
      [
        "▁akalulu",
        -7.185159236951312
      ],
      [
        "▁Ssen",
        -7.185259639132453
      ],
      [
        ";",
        -7.193850729304805
      ],
      [
        "▁gwe",
        -7.196022407857805
      ],
      [
        "▁w’",
        -7.19810647194373
      ],
      [
        "▁Ssaabasajja",
        -7.210778376770067
      ],
      [
        "▁si",
        -7.221589971531427
      ],
      [
        "ya",
        -7.226138589210648
      ],
      [
        "▁oba",
        -7.2321082329068
      ],
      [
        "▁K",
        -7.232264986428355
      ],
      [
        "kulembeze",
        -7.233277391752985
      ],
      [
        "we",
        -7.240439595203251
      ],
      [
        "▁Aba",
        -7.244571476034415
      ],
      [
        "▁yagambye",
        -7.247360405663992
      ],
      [
        "▁Nation",
        -7.25240319933089
      ],
      [
        "▁B",
        -7.252619472872815
      ],
      [
        "bwa",
        -7.255172022563445
      ],
      [
        "▁olw’oku",
        -7.258420567349499
      ],
      [
        "ma",
        -7.2609960520577435
      ],
      [
        "▁Dr.",
        -7.2618100568011075
      ],
      [
        "▁bannayuganda",
        -7.2623360210984975
      ],
      [
        "▁emirimu",
        -7.269882746040887
      ],
      [
        "b",
        -7.269962479228381
      ],
      [
        "▁abadde",
        -7.275195652562884
      ],
      [
        "▁yali",
        -7.279896987858149
      ],
      [
        "▁ggwanga",
        -7.279945855165964
      ],
      [
        "▁kati",
        -7.283010459927768
      ],
      [
        "▁agambye",
        -7.283383896540463
      ],
      [
        "▁N",
        -7.288331893515063
      ],
      [
        "▁eggwanga",
        -7.290679922342537
      ],
      [
        "nyiga",
        -7.302246617037829
      ],
      [
        "ri",
        -7.3043547921465715
      ],
      [
        "▁kwa",
        -7.308113018715738
      ],
      [
        "funa",
        -7.310043708351672
      ],
      [
        "▁owa",
        -7.314559757128374
      ],
      [
        "▁wakati",
        -7.31524757173542
      ],
      [
        "▁olu",
        -7.317982675359757
      ],
      [
        "▁akakiiko",
        -7.328844165392076
      ],
      [
        "▁Ka",
        -7.331884176173535
      ],
      [
        "▁Robert",
        -7.332337527276717
      ],
      [
        "▁gu",
        -7.332633703922386
      ],
      [
        "ali",
        -7.3409199483161585
      ],
      [
        "bitundu",
        -7.347044816352323
      ],
      [
        "y",
        -7.357198194012166
      ],
      [
        "▁ekibiina",
        -7.359994309107189
      ],
      [
        "ni",
        -7.363289840213212
      ],
      [
        "▁Obwakabaka",
        -7.363997199336818
      ],
      [
        "gamba",
        -7.365750211341957
      ],
      [
        "▁NUP",
        -7.367776844850958
      ],
      [
        "ira",
        -7.376374200749359
      ],
      [
        "▁Bino",
        -7.378160696099742
      ],
      [
        "▁lu",
        -7.380001648880878
      ],
      [
        "▁bali",
        -7.389938401827844
      ],
      [
        "se",
        -7.397163358605101
      ],
      [
        "▁okubeera",
        -7.399835468138625
      ],
      [
        "▁teba",
        -7.404053357923953
      ],
      [
        "▁li",
        -7.413488999906112
      ],
      [
        "▁NRM",
        -7.414643239526368
      ],
      [
        "ze",
        -7.416653229549654
      ],
      [
        "▁lino",
        -7.425885879488113
      ],
      [
        "ibwa",
        -7.430270218421669
      ],
      [
        "▁Charles",
        -7.433099574104026
      ],
      [
        "▁yategeezezza",
        -7.43515771227496
      ],
      [
        "▁Ku",
        -7.436850819397011
      ],
      [
        "▁(",
        -7.440549283623288
      ],
      [
        "▁basobole",
        -7.44962804787021
      ],
      [
        "▁wano",
        -7.451007801517171
      ],
      [
        "▁ensonga",
        -7.451336058517837
      ],
      [
        "▁maaso",
        -7.452835154530899
      ],
      [
        "▁aga",
        -7.45433053579942
      ],
      [
        "▁kalulu",
        -7.457612936971557
      ],
      [
        "beera",
        -7.457844463548708
      ],
      [
        "▁kano",
        -7.460585358985928
      ],
      [
        "te",
        -7.462934819143247
      ],
      [
        "▁bagenda",
        -7.4664153972605245
      ],
      [
        "tegeeza",
        -7.474153686388042
      ],
      [
        "va",
        -7.477321297639983
      ],
      [
        "▁ono",
        -7.48102237003844
      ],
      [
        "l",
        -7.484245011814307
      ],
      [
        "▁naddala",
        -7.484453378314017
      ],
      [
        "▁gya",
        -7.485367563146154
      ],
      [
        "▁te",
        -7.49605201280244
      ],
      [
        "biri",
        -7.496933227638562
      ],
      [
        "▁omuntu",
        -7.4969368535160985
      ],
      [
        "omwaka",
        -7.496965263225501
      ],
      [
        "amu",
        -7.511113641770286
      ],
      [
        "d",
        -7.512978462301914
      ],
      [
        "kulu",
        -7.513398200296364
      ],
      [
        "ayo",
        -7.516798687545802
      ],
      [
        "▁Kino",
        -7.525527347829245
      ],
      [
        "▁Peter",
        -7.531672118300059
      ],
      [
        "▁lw’oku",
        -7.5384621303567565
      ],
      [
        "w",
        -7.541186088319331
      ],
      [
        "waliwo",
        -7.541348376476811
      ],
      [
        "ddwa",
        -7.54385551055667
      ],
      [
        "ti",
        -7.545843341360044
      ],
      [
        "gi",
        -7.549269096985346
      ],
      [
        "yi",
        -7.551626426372137
      ],
      [
        "▁ttiimu",
        -7.574245183225911
      ],
      [
        "mba",
        -7.574760197406863
      ],
      [
        "▁ky’",
        -7.576712085099242
      ],
      [
        "▁kuno",
        -7.578479964732981
      ],
      [
        "▁embeera",
        -7.583369948989053
      ],
      [
        "zza",
        -7.584312768048388
      ],
      [
        "naku",
        -7.584481732010226
      ],
      [
        "▁Lu",
        -7.5941791420144895
      ],
      [
        "be",
        -7.599951765831616
      ],
      [
        "▁bw’agambye.",
        -7.600324781982192
      ],
      [
        "▁y’",
        -7.6025788609829
      ],
      [
        "kozesa",
        -7.603803532539663
      ],
      [
        "▁obuta",
        -7.607425390529551
      ],
      [
        "▁olw’",
        -7.608003968125155
      ],
      [
        "▁abalala",
        -7.610925067755795
      ],
      [
        ")",
        -7.61241739219397
      ],
      [
        "▁Ki",
        -7.61723323248676
      ],
      [
        "▁Unity",
        -7.618464828150577
      ],
      [
        "▁bannamawulire",
        -7.618716221899303
      ],
      [
        "▁Ssaaba",
        -7.626823186843473
      ],
      [
        "▁omusango",
        -7.628739308475677
      ],
      [
        "▁w’ekibiina",
        -7.633918882964014
      ],
      [
        "nyuma",
        -7.634113549052546
      ],
      [
        "laga",
        -7.637181402482144
      ],
      [
        "▁abamu",
        -7.637648176615651
      ],
      [
        "kuuma",
        -7.641039939513413
      ],
      [
        "▁neba",
        -7.641275956535687
      ],
      [
        "▁Bobi",
        -7.648970011430154
      ],
      [
        "▁T",
        -7.64949281308076
      ],
      [
        "r",
        -7.653802474943304
      ],
      [
        "go",
        -7.654602683215882
      ],
      [
        "h",
        -7.655751365835061
      ],
      [
        "▁yonna",
        -7.655847787134948
      ],
      [
        "▁k’ebyokulonda",
        -7.659308620168474
      ],
      [
        "▁“",
        -7.6622575131791875
      ],
      [
        "▁abavubuka",
        -7.664113702914361
      ],
      [
        "▁Wine",
        -7.668893856287523
      ],
      [
        "▁S",
        -7.66989978044018
      ],
      [
        "lo",
        -7.6707861462249705
      ],
      [
        "▁disitulikiti",
        -7.67273680834101
      ],
      [
        "myuka",
        -7.6757689066972015
      ],
      [
        "▁Ba",
        -7.677641292857537
      ],
      [
        "fu",
        -7.686289733662729
      ],
      [
        "▁emi",
        -7.686828127764297
      ],
      [
        "▁bulungi",
        -7.692883274061932
      ],
      [
        "vu",
        -7.696795078960158
      ],
      [
        "▁Platform",
        -7.696929426682296
      ],
      [
        "▁abali",
        -7.700986324185347
      ],
      [
        "▁kitundu",
        -7.706740414807118
      ],
      [
        "▁annyonnyodde",
        -7.713739529800409
      ],
      [
        "laba",
        -7.713957671490519
      ],
      [
        "▁ddala",
        -7.714140398395098
      ],
      [
        "▁Yoweri",
        -7.721719558015425
      ],
      [
        "nda",
        -7.7314868352371615
      ],
      [
        "▁okuli",
        -7.737679031034051
      ],
      [
        "ke",
        -7.740380772453847
      ],
      [
        "▁abo",
        -7.747818731725008
      ],
      [
        "▁Ye",
        -7.749063690174405
      ],
      [
        "▁Ate",
        -7.750498619737066
      ],
      [
        "▁okufuna",
        -7.755102481342208
      ],
      [
        "kya",
        -7.755387724844867
      ],
      [
        "gu",
        -7.760058739726186
      ],
      [
        "▁ze",
        -7.762297889223724
      ],
      [
        "▁alina",
        -7.763233288562694
      ],
      [
        "▁Corona",
        -7.76407026384609
      ],
      [
        "▁Bulange",
        -7.764183598094723
      ],
      [
        "so",
        -7.764324611062634
      ],
      [
        "wogezi",
        -7.773344880465333
      ],
      [
        "kkiriza",
        -7.773991170103976
      ],
      [
        "▁muntu",
        -7.7742982667951965
      ],
      [
        "maze",
        -7.774500959849811
      ],
      [
        "to",
        -7.774629145259025
      ],
      [
        "kakasa",
        -7.77510533525339
      ],
      [
        "p",
        -7.775424905797801
      ],
      [
        "▁ababaka",
        -7.775709779142843
      ],
      [
        "▁Omubaka",
        -7.776277761714988
      ],
      [
        "▁kimu",
        -7.778696431266152
      ],
      [
        "▁abaana",
        -7.779010649509955
      ],
      [
        "bwe",
        -7.779343020798222
      ],
      [
        "▁ebintu",
        -7.779642569087831
      ],
      [
        "▁yabadde",
        -7.780225615452826
      ],
      [
        "▁bw’",
        -7.782635548016238
      ],
      [
        "▁Masaka",
        -7.79020014433898
      ],
      [
        "▁Minisitule",
        -7.791098270594256
      ],
      [
        "kwata",
        -7.792140726603304
      ],
      [
        "▁leero",
        -7.794825973208074
      ],
      [
        "▁lwe",
        -7.796798870856039
      ],
      [
        "▁z’",
        -7.801523805283694
      ],
      [
        "ro",
        -7.802449376068884
      ],
      [
        "▁kibiina",
        -7.808480229551267
      ],
      [
        "kitongole",
        -7.8127796583732065
      ],
      [
        "▁nteekateeka",
        -7.820257028305046
      ],
      [
        "▁buno",
        -7.821681033821263
      ],
      [
        "▁okwongera",
        -7.821837666565096
      ],
      [
        "▁gw’",
        -7.824375367790907
      ],
      [
        "▁okutuuka",
        -7.825547332281005
      ],
      [
        "lu",
        -7.828479533757914
      ],
      [
        "▁emyaka",
        -7.828544264729266
      ],
      [
        "obukadde",
        -7.83117931845069
      ],
      [
        "▁olwa",
        -7.843913637611114
      ],
      [
        "▁k",
        -7.854212184107624
      ],
      [
        "su",
        -7.856426037773123
      ],
      [
        "▁Kinajjukir",
        -7.865482986563443
      ],
      [
        "▁babadde",
        -7.869048790716744
      ],
      [
        "▁luno",
        -7.870486957411523
      ],
      [
        "piira",
        -7.870561580643922
      ],
      [
        "▁m",
        -7.871649889990143
      ],
      [
        "▁Sse",
        -7.872945617572105
      ],
      [
        "kuba",
        -7.874349160801484
      ],
      [
        "▁Ssentamu",
        -7.875182070036129
      ],
      [
        "▁Ssentebe",
        -7.876266972357898
      ],
      [
        "▁yenna",
        -7.876455050942771
      ],
      [
        "▁banna",
        -7.883107227644784
      ],
      [
        "▁Ma",
        -7.883417071472695
      ],
      [
        "fo",
        -7.884935003329577
      ],
      [
        "▁Sipiika",
        -7.88497601689164
      ],
      [
        "▁Kaguta",
        -7.884976665527574
      ],
      [
        "▁kyokka",
        -7.885102517269683
      ],
      [
        "▁bagamba",
        -7.8868725577493315
      ],
      [
        "yinza",
        -7.893547632695086
      ],
      [
        "▁baagala",
        -7.898233414573927
      ],
      [
        "▁omuli",
        -7.8994132108558945
      ],
      [
        "kibiina",
        -7.903050519835928
      ],
      [
        "▁agenda",
        -7.903575921692833
      ],
      [
        "▁okugenda",
        -7.903588991659689
      ],
      [
        "▁ta",
        -7.904068978753558
      ],
      [
        "▁Mmengo",
        -7.9048879742315465
      ],
      [
        "▁Wabula",
        -7.90503375188512
      ],
      [
        "re",
        -7.905950550146087
      ],
      [
        "▁bweba",
        -7.906209995105497
      ],
      [
        "olukiiko",
        -7.907699883183451
      ],
      [
        "▁Buganda,",
        -7.912855448157736
      ],
      [
        "ebazizza",
        -7.914858858962757
      ],
      [
        "▁Ban",
        -7.918485039520712
      ],
      [
        "endo",
        -7.918578521876156
      ],
      [
        "▁y",
        -7.919118171406468
      ],
      [
        "mpaka",
        -7.9198440163451265
      ],
      [
        "▁byonna",
        -7.92518786743691
      ],
      [
        "▁ogwa",
        -7.935791430127599
      ],
      [
        "▁mwe",
        -7.936414681755431
      ],
      [
        "▁Poliisi",
        -7.9460858867604
      ],
      [
        "ssaza",
        -7.946194140196318
      ],
      [
        "▁COVID-19",
        -7.946392475113856
      ],
      [
        "kakiiko",
        -7.949216592563622
      ],
      [
        "▁omubaka",
        -7.9500406588652925
      ],
      [
        "nge",
        -7.951270481112759
      ],
      [
        "▁ky’e",
        -7.955074486593809
      ],
      [
        "ic",
        -7.955315760673431
      ],
      [
        "▁baba",
        -7.964420307986711
      ],
      [
        "▁olwo",
        -7.966361317064996
      ],
      [
        "bo",
        -7.967089981735216
      ],
      [
        "▁bangi",
        -7.973796524668635
      ],
      [
        "▁abawagizi",
        -7.974332613163901
      ],
      [
        "▁n’obu",
        -7.9746667674918
      ],
      [
        "▁‘",
        -7.983428304133869
      ],
      [
        "el",
        -7.985585403632729
      ],
      [
        "▁bee",
        -7.9876040149532646
      ],
      [
        "▁kino.",
        -7.989155218700947
      ],
      [
        "sabye",
        -7.990465238319039
      ],
      [
        "weebwa",
        -8.000567325645129
      ],
      [
        "▁w’e",
        -8.000783974807593
      ],
      [
        "salawo",
        -8.005625426425699
      ],
      [
        "▁dda",
        -8.005708122909132
      ],
      [
        "ezaako",
        -8.006853318476164
      ],
      [
        "▁Om",
        -8.007461803608322
      ],
      [
        "▁tewali",
        -8.009909388835254
      ],
      [
        "▁ama",
        -8.01456780169734
      ],
      [
        "yita",
        -8.014836017632263
      ],
      [
        "▁bw’e",
        -8.018501659775836
      ],
      [
        "▁bamu",
        -8.020158504217331
      ],
      [
        "▁omulimu",
        -8.020696022614992
      ],
      [
        "▁ebiragiro",
        -8.023724551389368
      ],
      [
        "▁Ssaabasumba",
        -8.023743920663119
      ],
      [
        "kiseera",
        -8.024003490461872
      ],
      [
        "▁ly’e",
        -8.030525832766445
      ],
      [
        "▁obulungi",
        -8.033116906297625
      ],
      [
        "▁lw’",
        -8.033392173893287
      ],
      [
        "▁gino",
        -8.034026139487082
      ],
      [
        "ako",
        -8.041273662212497
      ],
      [
        "ne",
        -8.043495695601992
      ],
      [
        "tebe",
        -8.04438731288771
      ],
      [
        "▁ettaka",
        -8.048187268902561
      ],
      [
        "ntu",
        -8.055670033507852
      ],
      [
        "▁ebyo",
        -8.058182088456833
      ],
      [
        "▁b’",
        -8.064940631858743
      ],
      [
        "ge",
        -8.065300634853635
      ],
      [
        "▁Lwokubiri",
        -8.068281477781806
      ],
      [
        "kaweefube",
        -8.069992629730855
      ],
      [
        "▁2",
        -8.070379866717756
      ],
      [
        "nnamateeka",
        -8.077840100334006
      ],
      [
        "ekitongole",
        -8.078701027672636
      ],
      [
        "▁Mpuuga",
        -8.080186245629816
      ],
      [
        "▁ogu",
        -8.080668047095784
      ],
      [
        "bifo",
        -8.08379523740749
      ],
      [
        "▁mwaka",
        -8.085252619589816
      ],
      [
        "mala",
        -8.085394627406908
      ],
      [
        "▁10",
        -8.086431171905451
      ],
      [
        "iddwa",
        -8.087706518238612
      ],
      [
        "A",
        -8.0884134064762
      ],
      [
        "nsonga",
        -8.089958300024636
      ],
      [
        "mi",
        -8.090046089188249
      ],
      [
        "▁M",
        -8.09290861085621
      ],
      [
        "▁ng’aba",
        -8.09302855100887
      ],
      [
        "▁lye",
        -8.094055178498108
      ],
      [
        "▁eddembe",
        -8.097165060386988
      ],
      [
        "zimba",
        -8.099197035814623
      ],
      [
        "▁okutumbula",
        -8.100297929569457
      ],
      [
        "wangula",
        -8.10239391572752
      ],
      [
        "▁eno,",
        -8.103359189574292
      ],
      [
        "▁Nsibirwa",
        -8.104467814877388
      ],
      [
        "▁yannyonnyodde",
        -8.105039372192195
      ],
      [
        "▁Mukenenya",
        -8.105818291194169
      ],
      [
        "▁nabo",
        -8.106813596399762
      ],
      [
        "▁Omuk.",
        -8.106959339964103
      ],
      [
        "▁lwaki",
        -8.111633409419824
      ],
      [
        "▁okulonda",
        -8.113870418074132
      ],
      [
        "▁mbeera",
        -8.114939647011294
      ],
      [
        "▁maka",
        -8.116248339803633
      ],
      [
        "▁bajja",
        -8.116679929771358
      ],
      [
        "▁ez’enjawulo",
        -8.117106433584928
      ],
      [
        "▁2021",
        -8.117298821418295
      ],
      [
        "koze",
        -8.117848034572646
      ],
      [
        "▁ennyo",
        -8.118359322226542
      ],
      [
        "kago",
        -8.118435314671729
      ],
      [
        "teeka",
        -8.120229878098833
      ],
      [
        "▁bw’a",
        -8.124162666978364
      ],
      [
        "ngira",
        -8.124313880058573
      ],
      [
        "walo",
        -8.12504423333921
      ],
      [
        "0",
        -8.126600195473827
      ],
      [
        "▁Ssekabembe",
        -8.12927527326427
      ],
      [
        "▁100",
        -8.13420705360099
      ],
      [
        "nya",
        -8.134277408076235
      ],
      [
        "ero",
        -8.136462630660152
      ],
      [
        "bantu",
        -8.139728950933502
      ],
      [
        "di",
        -8.141487794525592
      ],
      [
        "▁obululu",
        -8.142002765187312
      ],
      [
        "▁w’eggwanga",
        -8.142164277317416
      ],
      [
        "▁kiddiridde",
        -8.142363526163503
      ],
      [
        "▁Mao",
        -8.147515790680758
      ],
      [
        "gaana",
        -8.148589222151578
      ],
      [
        "▁kisaawe",
        -8.154754139443973
      ],
      [
        "tya",
        -8.155501000323504
      ],
      [
        "▁okuli;",
        -8.155923432121938
      ],
      [
        "tandise",
        -8.163158216501579
      ],
      [
        "ndagaano",
        -8.164114933756167
      ],
      [
        "manyi",
        -8.164981465595758
      ],
      [
        "▁Na",
        -8.166177768494634
      ],
      [
        "tuuka",
        -8.167473005507778
      ],
      [
        "▁ggoolo",
        -8.167740987842599
      ],
      [
        "▁Mmande",
        -8.167741071293843
      ],
      [
        "▁Buddu",
        -8.169835665756793
      ],
      [
        "▁ekintu",
        -8.17040136894645
      ],
      [
        "”",
        -8.172205107618872
      ],
      [
        "tangira",
        -8.173018556595252
      ],
      [
        "▁amateeka",
        -8.17437725437512
      ],
      [
        "labirizi",
        -8.17505110237288
      ],
      [
        "redde",
        -8.17674919417979
      ],
      [
        "on",
        -8.177907426509318
      ],
      [
        "▁eno.",
        -8.179385549642959
      ],
      [
        "▁ebya",
        -8.182615823567755
      ],
      [
        "▁eyali",
        -8.182694932204923
      ],
      [
        "idde",
        -8.182837063527689
      ],
      [
        "era",
        -8.183351682328187
      ],
      [
        "fa",
        -8.184210770424718
      ],
      [
        "1",
        -8.185537015911352
      ],
      [
        "is",
        -8.185913616929206
      ],
      [
        "▁mateeka",
        -8.18624670071117
      ],
      [
        "▁nsi",
        -8.193627607585128
      ],
      [
        "▁kkaadi",
        -8.194270036938127
      ],
      [
        "▁Ssemateeka",
        -8.19428208234909
      ],
      [
        "▁kif",
        -8.196208435976839
      ],
      [
        "▁n’abantu",
        -8.198132517401508
      ],
      [
        "▁I",
        -8.20098422117254
      ],
      [
        "▁yasabye",
        -8.201202258609008
      ],
      [
        "▁kuliko",
        -8.207003021820753
      ],
      [
        "gambibwa",
        -8.207632043947843
      ],
      [
        "▁Kamalabyon",
        -8.20774574857067
      ],
      [
        "▁okudda",
        -8.207787558571951
      ],
      [
        "wandiisi",
        -8.210353537658284
      ],
      [
        "▁obwa",
        -8.218790844436386
      ],
      [
        "▁omusaayi",
        -8.220524204859373
      ],
      [
        "▁Joseph",
        -8.221444540090218
      ],
      [
        "▁wiiki",
        -8.221465603555874
      ],
      [
        "▁banne",
        -8.221465980052724
      ],
      [
        "▁Oweek",
        -8.221524002534906
      ],
      [
        "▁okumu",
        -8.222186497388051
      ],
      [
        "▁Wa",
        -8.222376486642798
      ],
      [
        "▁okumala",
        -8.222869363062225
      ],
      [
        "▁bannakibiina",
        -8.224757482993436
      ],
      [
        "▁amaanyi",
        -8.224767027287566
      ],
      [
        "▁okutuusa",
        -8.226567618066529
      ],
      [
        "▁byabwe",
        -8.227777206386712
      ],
      [
        "▁obulamu",
        -8.228774594560463
      ],
      [
        "ggya",
        -8.229227634015672
      ],
      [
        "▁ensi",
        -8.231503252159325
      ],
      [
        "tandika",
        -8.234949002102015
      ],
      [
        "▁ddwaliro",
        -8.238730612305716
      ],
      [
        "▁ayagala",
        -8.24015902408949
      ],
      [
        "kubiriza",
        -8.245582078947027
      ],
      [
        "▁kw’",
        -8.248381015839993
      ],
      [
        "baka",
        -8.24993011719093
      ],
      [
        "▁oluvuganya",
        -8.249977461347793
      ],
      [
        "wera",
        -8.250094875461091
      ],
      [
        "▁gi",
        -8.250997843052865
      ],
      [
        "▁ebiri",
        -8.251749394187126
      ],
      [
        "▁ensimbi",
        -8.252407477742626
      ],
      [
        "▁olunaku",
        -8.25258318466106
      ],
      [
        "▁bakola",
        -8.254954445260536
      ],
      [
        "-",
        -8.257141639261746
      ],
      [
        "kirwadde",
        -8.258362016841488
      ],
      [
        "▁baali",
        -8.258521091618688
      ],
      [
        "ala",
        -8.260498104352576
      ],
      [
        "▁Oluvan",
        -8.263972732634835
      ],
      [
        "ngi",
        -8.264315135193268
      ],
      [
        "▁eza",
        -8.265297597240716
      ],
      [
        "labula",
        -8.266079228209069
      ],
      [
        "▁olw’e",
        -8.266556021631356
      ],
      [
        "▁ali",
        -8.270954848670538
      ],
      [
        "▁egi",
        -8.273299891565829
      ],
      [
        "yagala",
        -8.275802630211103
      ],
      [
        "▁Henry",
        -8.278196255641053
      ],
      [
        "tegeka",
        -8.278912993871934
      ],
      [
        "▁erya",
        -8.280174579327063
      ],
      [
        "▁okulwanyisa",
        -8.282010245676208
      ],
      [
        "▁b’e",
        -8.28451875882358
      ],
      [
        "▁abakozi",
        -8.285416964715306
      ],
      [
        "▁baabwe",
        -8.286415852587115
      ],
      [
        "tuula",
        -8.287280210112652
      ],
      [
        "▁naba",
        -8.287295859933536
      ],
      [
        "sobole",
        -8.289185908050356
      ],
      [
        "ndi",
        -8.290444699563029
      ],
      [
        "yambako",
        -8.29207283671381
      ],
      [
        "▁woofiisi",
        -8.29290924156859
      ],
      [
        "▁oguwedde",
        -8.293090308754671
      ],
      [
        "▁Mukono",
        -8.293363653166082
      ],
      [
        "ru",
        -8.293611340547091
      ],
      [
        "uni",
        -8.293775605071364
      ],
      [
        "▁Kadaga",
        -8.294035307568151
      ],
      [
        "▁Katonda",
        -8.294039792283758
      ],
      [
        "▁Omulamuzi",
        -8.294491033997577
      ],
      [
        "▁bw’abadde",
        -8.295325876128837
      ],
      [
        "▁Tu",
        -8.295747607334377
      ],
      [
        "weereza",
        -8.296644436092803
      ],
      [
        "noonya",
        -8.30304169148539
      ],
      [
        "lwanyisa",
        -8.304054773701951
      ],
      [
        "yamba",
        -8.304688428313117
      ],
      [
        "▁Kiyimba",
        -8.30797879870201
      ],
      [
        "▁3",
        -8.310592778735533
      ],
      [
        "▁by’",
        -8.311442272787982
      ],
      [
        "▁obulwadde",
        -8.311764407338483
      ],
      [
        "▁myaka",
        -8.312973059065556
      ],
      [
        "kolebwa",
        -8.31428029689932
      ],
      [
        "▁ssentebe",
        -8.314870764353625
      ],
      [
        "nze",
        -8.317152234384842
      ],
      [
        "dda",
        -8.317166445009606
      ],
      [
        "▁kubeera",
        -8.318722395163428
      ],
      [
        "▁mulimu",
        -8.322134091660043
      ],
      [
        "soose",
        -8.32280810092611
      ],
      [
        "▁bw’ategeezezza",
        -8.323491899345669
      ],
      [
        "faayo",
        -8.323640322905955
      ],
      [
        "londa",
        -8.326658590767638
      ],
      [
        "▁nkola",
        -8.32868609396865
      ],
      [
        "mukolo",
        -8.333259123496301
      ],
      [
        "▁n’o",
        -8.334106723028322
      ],
      [
        "me",
        -8.334816837381215
      ],
      [
        "kolera",
        -8.33505637031187
      ],
      [
        "waayo",
        -8.336467245576868
      ],
      [
        "▁mukolo",
        -8.337251257173445
      ],
      [
        "lowooza",
        -8.337365471304514
      ],
      [
        "▁Omula",
        -8.338744667193014
      ],
      [
        "▁bannabyabufuzi",
        -8.34042693376234
      ],
      [
        "▁omupiira",
        -8.341431221863289
      ],
      [
        "▁wansi",
        -8.342162861194032
      ],
      [
        "wakanya",
        -8.346255139440677
      ],
      [
        "2",
        -8.346961867556136
      ],
      [
        "▁Corona.",
        -8.347470531607467
      ],
      [
        "siima",
        -8.347637985526353
      ],
      [
        "▁bwabwe",
        -8.34985000796018
      ],
      [
        "bintu",
        -8.350294728751699
      ],
      [
        "nna",
        -8.353178604506095
      ],
      [
        "▁Patrick",
        -8.353988631409445
      ],
      [
        "▁Abamu",
        -8.356445089623968
      ],
      [
        "▁yee",
        -8.363706587659934
      ],
      [
        "gula",
        -8.364234643445215
      ],
      [
        "▁gw’oku",
        -8.365540324534866
      ],
      [
        "6",
        -8.369193333998316
      ],
      [
        "▁Lukwago",
        -8.369861627554382
      ],
      [
        "▁Ronald",
        -8.3698616652968
      ],
      [
        "wadde",
        -8.370458012843915
      ],
      [
        "▁omukisa",
        -8.37058110385863
      ],
      [
        "▁Gen.",
        -8.371607114090818
      ],
      [
        "bitongole",
        -8.37378736429299
      ],
      [
        "▁ssaawa",
        -8.374604975639706
      ],
      [
        "lwa",
        -8.377107998410747
      ],
      [
        "funye",
        -8.37809213270484
      ],
      [
        "▁bwapulezidenti",
        -8.386077330467007
      ],
      [
        "menya",
        -8.386290268106121
      ],
      [
        "▁amagezi",
        -8.386682149434705
      ],
      [
        "nyi",
        -8.387263794695887
      ],
      [
        "▁aku",
        -8.389544052353727
      ],
      [
        "▁ebyenjawulo",
        -8.393942317492872
      ],
      [
        "▁bannansi",
        -8.394416934277046
      ],
      [
        "▁zaabwe",
        -8.39693953776374
      ],
      [
        "▁ge",
        -8.399032277549246
      ],
      [
        "O",
        -8.399228946580761
      ],
      [
        "▁“N",
        -8.399598917607708
      ],
      [
        "▁P",
        -8.39996701822287
      ],
      [
        "▁mpaka",
        -8.40137844633605
      ],
      [
        "▁Kyewalabye",
        -8.402384099216825
      ],
      [
        "▁Fred",
        -8.402389762652206
      ],
      [
        "▁North",
        -8.40239899592996
      ],
      [
        "▁zonna",
        -8.402433717427805
      ],
      [
        "▁Lwanga",
        -8.402553152020804
      ],
      [
        "kiwandiiko",
        -8.40255445914603
      ],
      [
        "▁y’ebyobulamu",
        -8.402715392996079
      ],
      [
        "▁okusaba",
        -8.405131887327922
      ],
      [
        "tyo",
        -8.405367640783876
      ],
      [
        "▁DP",
        -8.405573832310406
      ],
      [
        "▁y’oku",
        -8.40658087547711
      ],
      [
        "goba",
        -8.408493535460035
      ],
      [
        "▁asiim",
        -8.408896629980593
      ],
      [
        "▁g",
        -8.40905712153794
      ],
      [
        "▁okuddamu",
        -8.41423612095345
      ],
      [
        "vuganya",
        -8.414495930105428
      ],
      [
        "mbe",
        -8.414770102181667
      ],
      [
        "pya",
        -8.415553364245948
      ],
      [
        "▁Lwokusatu",
        -8.419050827455761
      ],
      [
        "▁mirimu",
        -8.419053873558877
      ],
      [
        "▁Lwokutaano",
        -8.419091968492202
      ],
      [
        "▁olwaleero",
        -8.419102445324938
      ],
      [
        "▁South",
        -8.419110743263573
      ],
      [
        "somo",
        -8.42008476564274
      ],
      [
        "▁Democrat",
        -8.420847625661077
      ],
      [
        "▁Bu",
        -8.421182358270087
      ],
      [
        "▁okukozesa",
        -8.421308719128879
      ],
      [
        "mwa",
        -8.427532477887112
      ],
      [
        "▁ng’omu",
        -8.427538864570096
      ],
      [
        "amawulire",
        -8.428256311438332
      ],
      [
        "fuga",
        -8.432007231898396
      ],
      [
        "ula",
        -8.435104155212139
      ],
      [
        "▁ab’enjawulo",
        -8.436079928108756
      ],
      [
        "in",
        -8.436188321899088
      ],
      [
        "da",
        -8.43703705334768
      ],
      [
        "▁kiyambe",
        -8.437144843652629
      ],
      [
        "▁bweyagambye",
        -8.439199781123419
      ],
      [
        "▁so",
        -8.44057812079272
      ],
      [
        "▁bwangu",
        -8.442770614778007
      ],
      [
        "▁of",
        -8.443387337514208
      ],
      [
        "tuuse",
        -8.443602590511643
      ],
      [
        "de",
        -8.444452986477838
      ],
      [
        "▁gy’a",
        -8.447816489273308
      ],
      [
        "nsi",
        -8.448044764478336
      ],
      [
        "banga",
        -8.451041445901359
      ],
      [
        "▁ttaka",
        -8.45152353551714
      ],
      [
        "vudde",
        -8.453145005039007
      ],
      [
        "▁–",
        -8.45324130160949
      ],
      [
        "▁bw’annyonnyodde",
        -8.45328619447539
      ],
      [
        "▁R",
        -8.453469700507519
      ],
      [
        "er",
        -8.455985868912201
      ],
      [
        "bula",
        -8.457049560538355
      ],
      [
        "▁Omusumba",
        -8.45723704266878
      ],
      [
        "▁omutindo",
        -8.459837362801402
      ],
      [
        "▁ababadde",
        -8.467676032900748
      ],
      [
        "▁kino,",
        -8.467826910902104
      ],
      [
        "▁ly’",
        -8.469485314779856
      ],
      [
        "▁Oulanyah",
        -8.47078515669739
      ],
      [
        "▁eddagala",
        -8.470882045521243
      ],
      [
        "▁oluva",
        -8.471761641553986
      ],
      [
        "▁enkulu",
        -8.473524271036037
      ],
      [
        "▁“Tu",
        -8.473618789291692
      ],
      [
        "▁ekitiibwa",
        -8.474944184794241
      ],
      [
        "alaze",
        -8.475717156445896
      ],
      [
        "▁teki",
        -8.476692983876553
      ],
      [
        "emu",
        -8.477384555117943
      ],
      [
        "▁5",
        -8.478712714191701
      ],
      [
        "▁Era",
        -8.480302184111181
      ],
      [
        "▁Bwe",
        -8.48156120814053
      ],
      [
        "ny",
        -8.481905664282216
      ],
      [
        "▁ebitundu",
        -8.482957763830731
      ],
      [
        "wala",
        -8.484662181116677
      ],
      [
        "4",
        -8.484724896017251
      ],
      [
        "▁n’asab",
        -8.486624169240557
      ],
      [
        "▁Beene",
        -8.488661377102197
      ],
      [
        "▁Enanga",
        -8.488696511949533
      ],
      [
        "somesa",
        -8.48874264564258
      ],
      [
        "kakasizza",
        -8.488751043917311
      ],
      [
        "▁z’abantu",
        -8.489089398588533
      ],
      [
        "▁ab’ebyokwerinda",
        -8.490262338373029
      ],
      [
        "tegeezezza",
        -8.490464526772843
      ],
      [
        "▁buyinza",
        -8.491264985073096
      ],
      [
        "tali",
        -8.495107482854348
      ],
      [
        "bba",
        -8.495574934689781
      ],
      [
        "yogerako",
        -8.495929904883509
      ],
      [
        "kungu",
        -8.496906810753101
      ],
      [
        "f",
        -8.497439821195472
      ],
      [
        "▁ekif",
        -8.498341007168065
      ],
      [
        "▁okwewal",
        -8.50110923856485
      ],
      [
        "▁ebirala",
        -8.502403582532661
      ],
      [
        "byo",
        -8.503631258288635
      ],
      [
        "▁emmwanyi",
        -8.503931629548134
      ],
      [
        "▁om",
        -8.504233533644875
      ],
      [
        "▁twa",
        -8.505493388668098
      ],
      [
        "▁Bulemeezi",
        -8.506886048523455
      ],
      [
        "▁Kaawaase",
        -8.506938354453105
      ],
      [
        "▁kkampu",
        -8.506970834972913
      ],
      [
        "mwezi",
        -8.50740034167912
      ],
      [
        "▁8",
        -8.508150199166346
      ],
      [
        "gatta",
        -8.50979955374621
      ],
      [
        "▁tebalina",
        -8.510299854444693
      ],
      [
        "lemesa",
        -8.511849142407197
      ],
      [
        "▁eddwaliro",
        -8.512212980172306
      ],
      [
        "▁ebikolwa",
        -8.513274369668625
      ],
      [
        "zo",
        -8.514016160115673
      ],
      [
        "▁tetu",
        -8.514812108559346
      ],
      [
        "▁ebifo",
        -8.523450817650174
      ],
      [
        "▁2021.",
        -8.524584272386576
      ],
      [
        "▁Amuriat",
        -8.525342636710445
      ],
      [
        "▁FDC",
        -8.525342638200279
      ],
      [
        "▁Ya",
        -8.525755250913942
      ],
      [
        "pa",
        -8.525827103816212
      ],
      [
        "▁lw’e",
        -8.52684174753422
      ],
      [
        "▁20",
        -8.528812335648478
      ],
      [
        "sajja",
        -8.529172904848503
      ],
      [
        "▁mawanga",
        -8.529495322332437
      ],
      [
        "▁gyeba",
        -8.530213091869982
      ],
      [
        "▁okwa",
        -8.534509350063178
      ],
      [
        "▁okuvuganya",
        -8.534723564735886
      ],
      [
        "tta",
        -8.534886760114823
      ],
      [
        "▁n’ategeez",
        -8.5353034426332
      ],
      [
        "▁mi",
        -8.536957190189767
      ],
      [
        "▁6",
        -8.538106015842196
      ],
      [
        "obuvunaanyizibwa",
        -8.539169019780209
      ],
      [
        "▁Re",
        -8.540337173948796
      ],
      [
        "son",
        -8.543681201052568
      ],
      [
        "▁Besigye",
        -8.544210577160646
      ],
      [
        "pula",
        -8.544696275286398
      ],
      [
        "sinze",
        -8.544965841598456
      ],
      [
        "▁Paul",
        -8.545096766430273
      ],
      [
        "▁okutandika",
        -8.549692408145823
      ],
      [
        "▁“E",
        -8.55037906282693
      ],
      [
        "▁okuteeka",
        -8.550748887833695
      ],
      [
        "wenda",
        -8.553179997617542
      ],
      [
        "fudde",
        -8.553289630716826
      ],
      [
        "ama",
        -8.56211723410086
      ],
      [
        "▁John",
        -8.563441645973619
      ],
      [
        "▁kibuga",
        -8.56418891566448
      ],
      [
        "kwatiddwa",
        -8.564671879750048
      ],
      [
        "▁erina",
        -8.5650016107147
      ],
      [
        "▁ajja",
        -8.565954737589237
      ],
      [
        "▁akawuka",
        -8.566071182371331
      ],
      [
        "▁okutuukiriza",
        -8.566528753019107
      ],
      [
        "▁asinzidde",
        -8.567381932704514
      ],
      [
        "tambula",
        -8.567797059505569
      ],
      [
        "▁obuyinza",
        -8.567816564759871
      ],
      [
        "sooka",
        -8.56826018697727
      ],
      [
        "bya",
        -8.568277983917886
      ],
      [
        "▁okunyweza",
        -8.568288806048
      ],
      [
        "▁abalwadde",
        -8.56845461761308
      ],
      [
        "▁ewedde",
        -8.570823069362229
      ],
      [
        "wagira",
        -8.571213798063745
      ],
      [
        "ance",
        -8.57234144483252
      ],
      [
        "ola",
        -8.572508954702755
      ],
      [
        "ly",
        -8.57278285167214
      ],
      [
        "▁maaso.",
        -8.57311088300827
      ],
      [
        "misinde",
        -8.574622103325318
      ],
      [
        "▁ebitongole",
        -8.575185936176513
      ],
      [
        "abantu",
        -8.575719205057622
      ],
      [
        "▁okunoonyereza",
        -8.576116014223254
      ],
      [
        "▁kulonda",
        -8.579432609384423
      ],
      [
        "▁okuwa",
        -8.582719588656461
      ],
      [
        "▁Bwakabaka",
        -8.58304941766151
      ],
      [
        "▁Waggwa",
        -8.584224161682181
      ],
      [
        "tadde",
        -8.586365319288722
      ],
      [
        "▁okutaasa",
        -8.586699541050638
      ],
      [
        "▁ab’e",
        -8.586922363926249
      ],
      [
        "kulembera",
        -8.587352602466009
      ],
      [
        "c",
        -8.587956803900195
      ],
      [
        "awo",
        -8.588703326098603
      ],
      [
        "▁baffe",
        -8.590280640618493
      ],
      [
        "▁k’",
        -8.591226031387954
      ],
      [
        "gwa",
        -8.591635566718212
      ],
      [
        "7",
        -8.592438327461899
      ],
      [
        "3",
        -8.595823527779562
      ],
      [
        "▁abakulu",
        -8.598017690965987
      ],
      [
        "8",
        -8.598694195969486
      ],
      [
        "▁W",
        -8.600969014039652
      ],
      [
        "teekawo",
        -8.602950646921396
      ],
      [
        "▁David",
        -8.603049173431234
      ],
      [
        "▁Mutebi",
        -8.6030562502327
      ],
      [
        "sukka",
        -8.603920467125855
      ],
      [
        "E",
        -8.604554680125384
      ],
      [
        "▁mulundi",
        -8.605340528456054
      ],
      [
        "▁okukomya",
        -8.60567861101451
      ],
      [
        "▁beba",
        -8.606038676409506
      ],
      [
        "▁musango",
        -8.607870660602606
      ],
      [
        "sangibwa",
        -8.609231198703094
      ],
      [
        "▁tulina",
        -8.609486409048461
      ],
      [
        "aka",
        -8.61071544350802
      ],
      [
        "ssa",
        -8.611860254262329
      ],
      [
        "bibiina",
        -8.612170434830746
      ],
      [
        "▁omumyuka",
        -8.612952362490933
      ],
      [
        "bye",
        -8.618456044397583
      ],
      [
        "▁ekyo",
        -8.619151678597776
      ],
      [
        "ngo",
        -8.62024245691591
      ],
      [
        "rwa",
        -8.62148433975523
      ],
      [
        "▁(NUP)",
        -8.62336268779319
      ],
      [
        "▁palamenti",
        -8.623457336245597
      ],
      [
        "▁omukono",
        -8.623993678462137
      ],
      [
        "▁eggulo",
        -8.62539445262137
      ],
      [
        "fuuka",
        -8.62556748516402
      ],
      [
        "▁emmotoka",
        -8.62715367205201
      ],
      [
        "zimbe",
        -8.628298868296444
      ],
      [
        "▁ayogera",
        -8.630531311634412
      ],
      [
        "▁yeemu",
        -8.63212864036115
      ],
      [
        "▁ggwanga.",
        -8.63379456950908
      ],
      [
        "▁ng’o",
        -8.6362217523571
      ],
      [
        "twalibwa",
        -8.640006773208464
      ],
      [
        "▁Lwokuna",
        -8.64014236941437
      ],
      [
        "▁awat",
        -8.64417576462359
      ],
      [
        "wolerez",
        -8.644314394894202
      ],
      [
        "▁eby’enjawulo",
        -8.644370679310658
      ],
      [
        "▁(NUP),",
        -8.644387332478884
      ],
      [
        "▁12",
        -8.64488256151931
      ],
      [
        "▁g’",
        -8.645529320549574
      ],
      [
        "▁Kenya",
        -8.64570364729374
      ],
      [
        "▁alabudde",
        -8.645900294872503
      ],
      [
        "mmwe",
        -8.645955788077078
      ],
      [
        "▁lunaku",
        -8.646151519821135
      ],
      [
        "▁bungi",
        -8.646401860119422
      ],
      [
        "suubirwa",
        -8.648078011405367
      ],
      [
        "ggwa",
        -8.648374182029574
      ],
      [
        "yongera",
        -8.650034382290011
      ],
      [
        "mujju",
        -8.650335294595884
      ],
      [
        "▁okuki",
        -8.650800444536884
      ],
      [
        "▁ke",
        -8.65098007221207
      ],
      [
        "▁bulijjo",
        -8.651060152924007
      ],
      [
        "▁okumanya",
        -8.65143128924321
      ],
      [
        "▁ekizibu",
        -8.651833755179485
      ],
      [
        "do",
        -8.653178080964667
      ],
      [
        "izza",
        -8.65472167900056
      ],
      [
        "en",
        -8.65560078698553
      ],
      [
        "tundu",
        -8.656673448061797
      ],
      [
        "gaba",
        -8.657760173348269
      ],
      [
        "▁budde",
        -8.660928853070356
      ],
      [
        "▁z’e",
        -8.663204455999862
      ],
      [
        "azeewo",
        -8.663377632650974
      ],
      [
        "mye",
        -8.664341484798022
      ],
      [
        "an",
        -8.665274675920418
      ],
      [
        "▁Kyaddondo",
        -8.665567269719777
      ],
      [
        "▁egy’enjawulo",
        -8.665590476280109
      ],
      [
        "rundi",
        -8.66592147906513
      ],
      [
        "koledde",
        -8.667278307025175
      ],
      [
        "▁4",
        -8.667963464285867
      ],
      [
        "ngu",
        -8.667998893123109
      ],
      [
        "▁D",
        -8.668280524327114
      ],
      [
        "▁ez’",
        -8.670629967114268
      ],
      [
        "▁ntikko",
        -8.672591004264655
      ],
      [
        "▁eby",
        -8.673267987329389
      ],
      [
        "▁ggombolola",
        -8.673556053684425
      ],
      [
        "omukulembeze",
        -8.673779159269113
      ],
      [
        "▁y’a",
        -8.675297950779779
      ],
      [
        "ire",
        -8.677618993389027
      ],
      [
        "▁L",
        -8.678704817407734
      ],
      [
        "tambuza",
        -8.680076758687338
      ],
      [
        "iza",
        -8.681127952366687
      ],
      [
        "▁eky’oku",
        -8.681357373756024
      ],
      [
        "▁abasawo",
        -8.681833960451645
      ],
      [
        "kutu",
        -8.685132277844646
      ],
      [
        "▁Gen",
        -8.685228011300415
      ],
      [
        "basabye",
        -8.685587016226815
      ],
      [
        "ggye",
        -8.686645677619335
      ],
      [
        "▁emmwaanyi",
        -8.687306402894748
      ],
      [
        "▁n’okuba",
        -8.687308563389273
      ],
      [
        "▁abeesimbyewo",
        -8.688842397887154
      ],
      [
        "bira",
        -8.689839109800973
      ],
      [
        "▁abyoge",
        -8.690562283465434
      ],
      [
        "▁Kati",
        -8.69074757209562
      ],
      [
        "▁emisango",
        -8.690903816567705
      ],
      [
        "▁ag",
        -8.69346654011808
      ],
      [
        "zze",
        -8.694699600016696
      ],
      [
        "koleddwa",
        -8.7003967175141
      ],
      [
        "gambye",
        -8.701812099882785
      ],
      [
        "▁baku",
        -8.702398643548205
      ],
      [
        "▁7",
        -8.705627743036256
      ],
      [
        "kirina",
        -8.707504109833785
      ],
      [
        "▁lyonna",
        -8.709528718848288
      ],
      [
        "▁Nabbanja",
        -8.709528818417384
      ],
      [
        "▁Mayanja",
        -8.709583325106976
      ],
      [
        "▁Busiro",
        -8.709588007978272
      ],
      [
        "▁nnamba",
        -8.709705519929622
      ],
      [
        "▁II",
        -8.709724906939812
      ],
      [
        "▁bulamu",
        -8.70975183380322
      ],
      [
        "▁ab",
        -8.710477940358496
      ],
      [
        "▁obuwanguzi",
        -8.711852501035713
      ],
      [
        "yingira",
        -8.712897114601395
      ],
      [
        "▁abaagala",
        -8.713377016081177
      ],
      [
        "agasseeko",
        -8.713553582037747
      ],
      [
        "op",
        -8.713559971463539
      ],
      [
        "▁omukyala",
        -8.71400477523979
      ],
      [
        "j",
        -8.714209444207402
      ],
      [
        "▁omukulu",
        -8.715920742917858
      ],
      [
        "▁obukulembeze",
        -8.718581114770233
      ],
      [
        "kugu",
        -8.719067887060206
      ],
      [
        "naaba",
        -8.719136969559665
      ],
      [
        "gala",
        -8.721478892189268
      ],
      [
        "tuusa",
        -8.721651840709207
      ],
      [
        "wami",
        -8.72244597247973
      ],
      [
        "▁okusinga",
        -8.724225762881302
      ],
      [
        "ani",
        -8.726778022660417
      ],
      [
        "▁by’e",
        -8.729861837054985
      ],
      [
        "▁bbendera",
        -8.732256039615182
      ],
      [
        "▁Kiberu",
        -8.732256264703832
      ],
      [
        "▁Dr",
        -8.732466180922284
      ],
      [
        "mbuga",
        -8.732893916689841
      ],
      [
        "▁bweya",
        -8.733166857897965
      ],
      [
        "rey",
        -8.733723265288475
      ],
      [
        "▁pulezidenti",
        -8.734036912214666
      ],
      [
        "▁n’omu",
        -8.734372744899332
      ],
      [
        "▁ejja",
        -8.735238704565846
      ],
      [
        "Hajji",
        -8.735461117643972
      ],
      [
        "▁okuleeta",
        -8.73825100492839
      ],
      [
        "▁ludda",
        -8.738872714710464
      ],
      [
        "ana",
        -8.742149427223215
      ],
      [
        "tumbula",
        -8.742383773028006
      ],
      [
        "▁biragiro",
        -8.743301032983718
      ],
      [
        "v",
        -8.746585036444893
      ],
      [
        "▁tugenda",
        -8.746797022642875
      ],
      [
        "lagira",
        -8.747602430769447
      ],
      [
        "ddamu",
        -8.749145549450699
      ],
      [
        "▁zaa",
        -8.749616440639663
      ],
      [
        "mpi",
        -8.750360856222754
      ],
      [
        "and",
        -8.750953679994726
      ],
      [
        "▁kukola",
        -8.751502245339582
      ],
      [
        "▁kakiiko",
        -8.751928507256933
      ],
      [
        "buli",
        -8.752968395894747
      ],
      [
        "mitendera",
        -8.753013146795492
      ],
      [
        "baako",
        -8.754777910226387
      ],
      [
        "ary",
        -8.754824482760366
      ],
      [
        "▁minisita",
        -8.755511733829422
      ],
      [
        "▁(NRM)",
        -8.755511757586573
      ],
      [
        "▁kyonna",
        -8.755592909814068
      ],
      [
        "▁boda",
        -8.755711624091303
      ],
      [
        "▁amanyiddwa",
        -8.759663463313295
      ],
      [
        "kutte",
        -8.760133347876199
      ],
      [
        "▁gano",
        -8.760658005678668
      ],
      [
        "omubaka",
        -8.761126979769454
      ],
      [
        "▁enkola",
        -8.76136906968794
      ],
      [
        "▁ndagaano",
        -8.762071882506417
      ],
      [
        "▁gy’",
        -8.763592754558054
      ],
      [
        "laze",
        -8.765189864559762
      ],
      [
        "▁Si",
        -8.767516498320774
      ],
      [
        "▁n’okwe",
        -8.768552986768132
      ],
      [
        "amaanyi",
        -8.769311093301216
      ],
      [
        "ebwa",
        -8.770975889938349
      ],
      [
        "▁gw’e",
        -8.771751254312804
      ],
      [
        "wangudde",
        -8.77280436503467
      ],
      [
        "▁Africa",
        -8.772995238667244
      ],
      [
        "man",
        -8.773077265473548
      ],
      [
        "▁omuw",
        -8.774872680175145
      ],
      [
        "▁emu",
        -8.775454359238115
      ],
      [
        "babaka",
        -8.775457880315102
      ],
      [
        "lya",
        -8.776943218739023
      ],
      [
        "▁Ssembabule",
        -8.779321230354965
      ],
      [
        "▁masaza",
        -8.779322957790107
      ],
      [
        "▁gonna",
        -8.779345178303682
      ],
      [
        "▁for",
        -8.779349761608827
      ],
      [
        "▁endala",
        -8.779350324962834
      ],
      [
        "yongedde",
        -8.779929843804666
      ],
      [
        "▁gyabwe",
        -8.78087366174445
      ],
      [
        "▁okulaga",
        -8.780996704938108
      ],
      [
        "▁Moses",
        -8.781174341223446
      ],
      [
        "▁bingi",
        -8.781950480242775
      ],
      [
        "S",
        -8.78237838437072
      ],
      [
        "▁okusigala",
        -8.783188936336897
      ],
      [
        "▁emit",
        -8.783581368402555
      ],
      [
        "▁18",
        -8.785042340676503
      ],
      [
        "as",
        -8.785567433943177
      ],
      [
        "),",
        -8.785611015365852
      ],
      [
        "baami",
        -8.786400057102124
      ],
      [
        "▁eby’",
        -8.787819777685545
      ],
      [
        "baddewo",
        -8.788309167877093
      ],
      [
        "▁okunoonya",
        -8.792753089739778
      ],
      [
        "ob",
        -8.795013566270168
      ],
      [
        "▁bubaka",
        -8.795753636445935
      ],
      [
        "▁mwezi",
        -8.798083323445937
      ],
      [
        "nsisinkan",
        -8.798539912653627
      ],
      [
        "sinzidde",
        -8.79877264464849
      ],
      [
        "amula",
        -8.801341537396805
      ],
      [
        "▁Movement",
        -8.803711476960496
      ],
      [
        "▁Muhoozi",
        -8.803711479822587
      ],
      [
        "kula",
        -8.804270171623589
      ],
      [
        "▁2022",
        -8.806229979714127
      ],
      [
        "▁Twah",
        -8.806652108583378
      ],
      [
        "wedde",
        -8.808192402773233
      ],
      [
        "▁n’abalala",
        -8.80844469233147
      ],
      [
        "C",
        -8.808667577875717
      ],
      [
        "manya",
        -8.810680977013483
      ],
      [
        "▁mutimbagano",
        -8.810886202915666
      ],
      [
        "▁baleme",
        -8.811449410413028
      ],
      [
        "▁guno.",
        -8.811769887836974
      ],
      [
        "▁kamp",
        -8.813244047638694
      ],
      [
        "sobo",
        -8.813289948672152
      ],
      [
        "kulaakulanya",
        -8.814046378190085
      ],
      [
        "abazadde",
        -8.814517176872066
      ],
      [
        "es",
        -8.81623730959208
      ],
      [
        "▁baaku",
        -8.816591547372909
      ],
      [
        "oku",
        -8.817000409301171
      ],
      [
        "ffe",
        -8.817062928333034
      ],
      [
        "▁abalimi",
        -8.819419250412803
      ],
      [
        "tunda",
        -8.820239068617418
      ],
      [
        "im",
        -8.820299164132729
      ],
      [
        "▁okukuba",
        -8.820724081433635
      ],
      [
        "▁okuzimba",
        -8.821511208113025
      ],
      [
        "vunaanibwa",
        -8.821740285770275
      ],
      [
        "▁Buganda.",
        -8.82219295712442
      ],
      [
        "▁okuwangula",
        -8.822751976184568
      ],
      [
        "baddemu",
        -8.823521521260426
      ],
      [
        "▁Y",
        -8.825134942582388
      ],
      [
        "▁essaza",
        -8.826433372931664
      ],
      [
        "▁y’omu",
        -8.828468200601707
      ],
      [
        "▁Nankindu",
        -8.828711517882954
      ],
      [
        "▁Nsubuga",
        -8.828711568877138
      ],
      [
        "▁mukenenya",
        -8.828714567373783
      ],
      [
        "▁Mawogola",
        -8.828731422340919
      ],
      [
        "▁lukiiko",
        -8.829039131962514
      ],
      [
        "▁w’essaza",
        -8.82952928192189
      ],
      [
        "▁alipoota",
        -8.830300598374809
      ],
      [
        "ce",
        -8.830637492507913
      ],
      [
        "▁obwenkanya",
        -8.831444896718613
      ],
      [
        "kyali",
        -8.832130459045962
      ],
      [
        "kwatibwa",
        -8.832524433386064
      ],
      [
        "tandikira",
        -8.832591411712603
      ],
      [
        "▁Obuganda",
        -8.833558091966655
      ],
      [
        "londeddwa",
        -8.834947659533857
      ],
      [
        "▁byeba",
        -8.835852625647007
      ],
      [
        "ss",
        -8.837518569783752
      ],
      [
        "nene",
        -8.838416187841215
      ],
      [
        "5",
        -8.842113631852552
      ],
      [
        "▁munnakibiina",
        -8.843545622635498
      ],
      [
        "▁kyalo",
        -8.844417023884684
      ],
      [
        "/",
        -8.8446710319523
      ],
      [
        "tendera",
        -8.846264921908514
      ],
      [
        "ewo",
        -8.848476789410519
      ],
      [
        "londebwa",
        -8.848702072009186
      ],
      [
        "eko",
        -8.848826846429848
      ],
      [
        "▁emabega",
        -8.85037262596107
      ],
      [
        "▁ebadde",
        -8.85114429424697
      ],
      [
        "▁n’en",
        -8.85287894311776
      ],
      [
        "zibwa",
        -8.85366062658315
      ],
      [
        "▁Ssaabaminisita",
        -8.854352498027199
      ],
      [
        "▁KCCA",
        -8.854352536652991
      ],
      [
        "▁gyonna",
        -8.854353737375433
      ],
      [
        "tuufu",
        -8.854554910474143
      ],
      [
        "▁okuyamba",
        -8.854579381446111
      ],
      [
        "▁bokka",
        -8.854692068552739
      ],
      [
        "▁Uganda.",
        -8.8547361414345
      ],
      [
        "us",
        -8.855274427646098
      ],
      [
        "▁ekiragiro",
        -8.85550709723231
      ],
      [
        "rina",
        -8.856352806867132
      ],
      [
        "lwanirira",
        -8.856915890304723
      ],
      [
        "kubye",
        -8.858178524952937
      ],
      [
        "▁Resis",
        -8.85907414012121
      ],
      [
        "kwasa",
        -8.859413122547021
      ],
      [
        "▁obwavu",
        -8.859773649098003
      ],
      [
        "limu",
        -8.860142408996019
      ],
      [
        "▁De",
        -8.862052925923761
      ],
      [
        "ekibuga",
        -8.865746222603445
      ],
      [
        "▁abee",
        -8.868769582165207
      ],
      [
        "▁obudde",
        -8.870325485259542
      ],
      [
        "▁by",
        -8.873186578434396
      ],
      [
        "ule",
        -8.87348519677798
      ],
      [
        "sanga",
        -8.875695561486
      ],
      [
        "kwogera",
        -8.876036055395133
      ],
      [
        "vunaanyizibwa",
        -8.878271272988677
      ],
      [
        "mulundi",
        -8.87827831752387
      ],
      [
        "▁Foundation",
        -8.880668287782182
      ],
      [
        "▁Terimba",
        -8.880668588901488
      ],
      [
        "▁olw’okuba",
        -8.881331499778259
      ],
      [
        "▁oludda",
        -8.88173900884427
      ],
      [
        "ngula",
        -8.884249202942877
      ],
      [
        "▁kaseera",
        -8.884371630709992
      ],
      [
        "▁yagasseeko",
        -8.884898342352958
      ],
      [
        "▁30",
        -8.886110412686156
      ],
      [
        "’emyaka",
        -8.88875553360871
      ],
      [
        "ty",
        -8.889622368719571
      ],
      [
        "avunaanyizibwa",
        -8.889908226418118
      ],
      [
        "tudde",
        -8.890007202907704
      ],
      [
        "▁ekitundu",
        -8.891408268446376
      ],
      [
        "▁bakya",
        -8.892843597168035
      ],
      [
        "▁NUP,",
        -8.89386778824662
      ],
      [
        "▁ma",
        -8.895085220389426
      ],
      [
        "▁Ssa",
        -8.895150568711422
      ],
      [
        "yisa",
        -8.896142133900991
      ],
      [
        "tambulira",
        -8.897620133150088
      ],
      [
        "▁11",
        -8.89777152523533
      ],
      [
        "kyusa",
        -8.900098047548205
      ],
      [
        "amazaalibwa",
        -8.900422841609528
      ],
      [
        "sisinkana",
        -8.902337303488727
      ],
      [
        "▁awa",
        -8.902807402741457
      ],
      [
        "genyi",
        -8.904923789635458
      ],
      [
        "▁“A",
        -8.905323059880065
      ],
      [
        "▁okukwata",
        -8.905633665346917
      ],
      [
        "▁Nnaabagereka",
        -8.90769531450539
      ],
      [
        "▁Wakiso",
        -8.907695973951109
      ],
      [
        "▁Kawempe",
        -8.90774666905627
      ],
      [
        "▁omubeezi",
        -8.908115702228898
      ],
      [
        "teekeddwa",
        -8.90830007992681
      ],
      [
        "▁15",
        -8.90889026148561
      ],
      [
        "▁okwogera",
        -8.909628116357847
      ],
      [
        "gga",
        -8.911132711452984
      ],
      [
        "kitundu",
        -8.911266332605887
      ],
      [
        "▁Bannayuganda",
        -8.912321174537293
      ],
      [
        "▁Gavumenti",
        -8.913162665166272
      ],
      [
        "▁gy’e",
        -8.914362955350363
      ],
      [
        "▁okuzi",
        -8.914404939348648
      ],
      [
        "▁okutegeeza",
        -8.914511111835928
      ],
      [
        "ggyako",
        -8.915397805626913
      ],
      [
        "▁Kampala,",
        -8.916187168775984
      ],
      [
        "▁okuggya",
        -8.916586095616214
      ],
      [
        "jagala",
        -8.917187280168942
      ],
      [
        "kira",
        -8.921130810252727
      ],
      [
        "▁bategeezezza",
        -8.921646596093499
      ],
      [
        "▁okugi",
        -8.92328194424374
      ],
      [
        "ensonga",
        -8.92371930207366
      ],
      [
        "ono",
        -8.92415394857024
      ],
      [
        "mbo",
        -8.925954965256468
      ],
      [
        "banja",
        -8.927024072159085
      ],
      [
        "dd",
        -8.927743076876057
      ],
      [
        "ggyayo",
        -8.92952348433387
      ],
      [
        "ha",
        -8.931961719940984
      ],
      [
        "genze",
        -8.933314131740229
      ],
      [
        "▁9",
        -8.933452808800219
      ],
      [
        "mbi",
        -8.9340977670469
      ],
      [
        "ko.",
        -8.934712468013847
      ],
      [
        "▁bayita",
        -8.935379499362273
      ],
      [
        "▁Byabakama",
        -8.935473224223411
      ],
      [
        "▁ebweru",
        -8.935480548018054
      ],
      [
        "ddukanya",
        -8.93672676464798
      ],
      [
        "▁obubaka",
        -8.938245910701099
      ],
      [
        "▁b’ekibiina",
        -8.940309909915904
      ],
      [
        "▁Owek",
        -8.940370509198168
      ],
      [
        "aba",
        -8.94385925805113
      ],
      [
        "▁ey’",
        -8.94393183021057
      ],
      [
        "▁okukolagana",
        -8.94395661971449
      ],
      [
        "kizibu",
        -8.945374059776942
      ],
      [
        "her",
        -8.946961472766171
      ],
      [
        "▁13",
        -8.947678643540037
      ],
      [
        "nzi",
        -8.94842713108785
      ],
      [
        "wanika",
        -8.949112254924323
      ],
      [
        "▁talina",
        -8.949409876402955
      ],
      [
        "kalala",
        -8.952289708729499
      ],
      [
        "▁nsisinkan",
        -8.953121968945414
      ],
      [
        "leka",
        -8.955427414661868
      ],
      [
        "tendeker",
        -8.960985017959523
      ],
      [
        "T",
        -8.9632681867323
      ],
      [
        "▁eziri",
        -8.963524160726086
      ],
      [
        "▁Tumukunde",
        -8.964044520859938
      ],
      [
        "▁Zaake",
        -8.964045579034606
      ],
      [
        "▁Omutanda",
        -8.964048703437921
      ],
      [
        "▁Noah",
        -8.96408771904482
      ],
      [
        "duumizi",
        -8.964089180886543
      ],
      [
        "▁w’akakiiko",
        -8.964137482610113
      ],
      [
        "▁Muhammad",
        -8.96414701653948
      ],
      [
        "▁banaa",
        -8.9641706764032
      ],
      [
        "▁bwonna",
        -8.964180623433831
      ],
      [
        "▁waggulu",
        -8.966280327422812
      ],
      [
        "manyiddwa",
        -8.966376127313783
      ],
      [
        "▁eky",
        -8.966452748813257
      ],
      [
        "▁ogw’",
        -8.967599668299878
      ],
      [
        "gema",
        -8.968481833225816
      ],
      [
        "▁endwadde",
        -8.968512584758413
      ],
      [
        "▁bavubuka",
        -8.968872847844368
      ],
      [
        "▁ebyobulamu",
        -8.96908609288103
      ],
      [
        "▁eky’",
        -8.971168840459999
      ],
      [
        "▁UPDF",
        -8.971337221585419
      ],
      [
        "irwa",
        -8.972718826725858
      ],
      [
        "kimanyi",
        -8.973568412942273
      ],
      [
        "mizannyo",
        -8.975685354485563
      ],
      [
        "▁kyali",
        -8.976127371163237
      ],
      [
        "kkirizibwa",
        -8.976474108487796
      ],
      [
        "goberera",
        -8.977586225857838
      ],
      [
        "anya",
        -8.979240516307684
      ],
      [
        "taba",
        -8.982240426680718
      ],
      [
        "teekebwa",
        -8.983834562591827
      ],
      [
        "▁to",
        -8.984333722928636
      ],
      [
        "ziika",
        -8.985057590183878
      ],
      [
        "yu",
        -8.985533023939379
      ],
      [
        "9",
        -8.98634507131449
      ],
      [
        "ijjidde",
        -8.986975638294332
      ],
      [
        "zannyi",
        -8.989314999181769
      ],
      [
        "▁Sa",
        -8.989882291641496
      ],
      [
        "▁abata",
        -8.990560504877823
      ],
      [
        "▁Lwomukaaga",
        -8.993456322794902
      ],
      [
        "▁Mugumbule",
        -8.993456447287725
      ],
      [
        "▁Godf",
        -8.993457051714946
      ],
      [
        "yise",
        -8.993854821596514
      ],
      [
        "▁Eria",
        -8.994461848595886
      ],
      [
        "lembe",
        -8.994488104629855
      ],
      [
        "▁kibayambe",
        -8.99460586867122
      ],
      [
        "sirika",
        -8.995156181772272
      ],
      [
        "▁bo",
        -8.997022372032486
      ],
      [
        "▁enkya",
        -8.997092038172429
      ],
      [
        "▁emmere",
        -8.99727775527619
      ],
      [
        "▁ow’",
        -8.998432348106252
      ],
      [
        "▁okug",
        -9.000181970380718
      ],
      [
        "▁kuddamu",
        -9.001135480083477
      ],
      [
        "▁w’oku",
        -9.00254806759284
      ],
      [
        "buuza",
        -9.002818157883905
      ],
      [
        "▁ekikopo",
        -9.004430865043679
      ],
      [
        "▁em",
        -9.004839023209474
      ],
      [
        "▁okutambuza",
        -9.00521723321662
      ],
      [
        "▁emisinde",
        -9.007819317788853
      ],
      [
        "yabadde",
        -9.009355529252414
      ],
      [
        "agala",
        -9.01021978392506
      ],
      [
        "▁azze",
        -9.013456807174707
      ],
      [
        "keber",
        -9.01362673038822
      ],
      [
        "▁okukendee",
        -9.014768300413508
      ],
      [
        "▁eby’oku",
        -9.016224535464675
      ],
      [
        "kadde",
        -9.01878366148872
      ],
      [
        "▁ky’oku",
        -9.020285155353294
      ],
      [
        "▁Se",
        -9.020989231759346
      ],
      [
        "▁egya",
        -9.021516728348397
      ],
      [
        "kolagana",
        -9.022476031189921
      ],
      [
        "?",
        -9.02343820298811
      ],
      [
        "▁ow’e",
        -9.02368506576034
      ],
      [
        "▁Party",
        -9.023759336094429
      ],
      [
        "▁ag’enjawulo",
        -9.023759423072889
      ],
      [
        "tereeza",
        -9.023762076192634
      ],
      [
        "kulirwa",
        -9.02376240470216
      ],
      [
        "▁bikolwa",
        -9.023770187970584
      ],
      [
        "▁essira",
        -9.023771576860156
      ],
      [
        "▁by’obufuzi",
        -9.023799934243616
      ],
      [
        "▁Kawuki",
        -9.023819867877146
      ],
      [
        "▁yabyoge",
        -9.023862963534794
      ],
      [
        "▁omulamuzi",
        -9.023880081234918
      ],
      [
        "abasabye",
        -9.023998539391552
      ],
      [
        "▁gwetabiddwako",
        -9.024029388211034
      ],
      [
        "▁Lubaga",
        -9.024153086413971
      ],
      [
        "N",
        -9.0245596256473
      ],
      [
        "▁Gomba",
        -9.02479227950414
      ],
      [
        "Bobi",
        -9.025254518373723
      ],
      [
        "fube",
        -9.025598108194753
      ],
      [
        "▁abayizi",
        -9.02653726291004
      ],
      [
        "▁w’ekitongole",
        -9.026945747977429
      ],
      [
        "yezi",
        -9.027045518804417
      ],
      [
        "▁enkolagana",
        -9.027056550955217
      ],
      [
        "▁ssaa",
        -9.027619243642105
      ],
      [
        "▁“Aba",
        -9.027638213945895
      ],
      [
        "▁essuubi",
        -9.028886405705224
      ],
      [
        "ous",
        -9.028959261489794
      ],
      [
        "▁tebi",
        -9.030033521158568
      ],
      [
        "▁ebbanga",
        -9.030406258223438
      ],
      [
        "▁ly’obuntu",
        -9.030879565122882
      ],
      [
        "▁Masaka,",
        -9.03169974344991
      ],
      [
        "▁okulima",
        -9.033170172232513
      ],
      [
        "jje",
        -9.034019785426494
      ],
      [
        "▁w",
        -9.034045424893232
      ],
      [
        "balala",
        -9.037023926754744
      ],
      [
        "abatuuze",
        -9.038460700729068
      ],
      [
        "▁kyabwe",
        -9.03865301081891
      ],
      [
        "▁obumu",
        -9.040684156620028
      ],
      [
        "taano",
        -9.040942662679804
      ],
      [
        "▁batandise",
        -9.042121307187156
      ],
      [
        "▁ebimu",
        -9.04400844706915
      ],
      [
        "▁14",
        -9.047395554085886
      ],
      [
        "sobozes",
        -9.050864042040605
      ],
      [
        "▁obw",
        -9.051235184179774
      ],
      [
        "▁50",
        -9.051827959894943
      ],
      [
        "abalina",
        -9.05315959086461
      ],
      [
        "tteeka",
        -9.05340854891781
      ],
      [
        "wumbi",
        -9.0548752036436
      ],
      [
        "▁Ssaabalamuzi",
        -9.055010098401088
      ],
      [
        "obwakabaka",
        -9.055024254432348
      ],
      [
        "▁Forum",
        -9.055024696527155
      ],
      [
        "▁Ssejjengo",
        -9.055029542967032
      ],
      [
        "▁School",
        -9.05504767449608
      ],
      [
        "fiirwa",
        -9.055099949921447
      ],
      [
        "▁by’obulamu",
        -9.05515442597518
      ],
      [
        "▁Kakomo",
        -9.055191822871034
      ],
      [
        "menye",
        -9.05530838789711
      ],
      [
        "kyuka",
        -9.05577978549869
      ],
      [
        "▁ebitone",
        -9.056066225490031
      ],
      [
        "▁by’oku",
        -9.056454507741522
      ],
      [
        "▁nsimbi",
        -9.056727584642896
      ],
      [
        "I",
        -9.057082931324478
      ],
      [
        "▁okwesimbawo",
        -9.057637637686472
      ],
      [
        "▁obujulizi",
        -9.058107682045417
      ],
      [
        "kkaanya",
        -9.059546001695608
      ],
      [
        "inisitule",
        -9.059726566590676
      ],
      [
        "▁lukung’aana",
        -9.060405958191765
      ],
      [
        "▁Muntu",
        -9.061170010822773
      ],
      [
        "▁abaami",
        -9.061773349153583
      ],
      [
        "ganda",
        -9.06695993016568
      ],
      [
        "▁Luweero",
        -9.06772462702853
      ],
      [
        "▁n’ebi",
        -9.068351537691083
      ],
      [
        "am",
        -9.069326586507895
      ],
      [
        "▁okuzza",
        -9.069874497741369
      ],
      [
        "▁bagi",
        -9.070933324470802
      ],
      [
        "suubiza",
        -9.071645838023516
      ],
      [
        "▁ggwanga,",
        -9.074444282800455
      ],
      [
        "▁Bet",
        -9.074900904968127
      ],
      [
        "▁malwaliro",
        -9.075012710260383
      ],
      [
        "leeta",
        -9.076341010256746
      ],
      [
        "▁ky’a",
        -9.07709878366788
      ],
      [
        "▁kigenda",
        -9.07775836364734
      ],
      [
        "▁Male",
        -9.078516280592995
      ],
      [
        "zannya",
        -9.079544724503862
      ],
      [
        "mikono",
        -9.081421041643768
      ],
      [
        "▁baayo",
        -9.082773476796447
      ],
      [
        "▁y’o",
        -9.085267286316457
      ],
      [
        "th",
        -9.085532220928949
      ],
      [
        "amasaza",
        -9.085993327778848
      ],
      [
        "buwumbi",
        -9.086596321193252
      ],
      [
        "▁Kiwanuka",
        -9.087267382196647
      ],
      [
        "▁Ssingo",
        -9.08726826116477
      ],
      [
        "▁n’ebirala",
        -9.087270614466476
      ],
      [
        "▁Ssenyonyi",
        -9.087344932656643
      ],
      [
        "▁okwenyigira",
        -9.087623227959845
      ],
      [
        "ndu",
        -9.087755121921832
      ],
      [
        "▁amawanga",
        -9.088510030365343
      ],
      [
        "▁okwetaba",
        -9.088626697358954
      ],
      [
        "wamba",
        -9.088913154627548
      ],
      [
        "ttaka",
        -9.089690351742643
      ],
      [
        "▁Pp",
        -9.090104204500255
      ],
      [
        "▁omuliro",
        -9.090353349131842
      ],
      [
        "▁G",
        -9.090417690877837
      ],
      [
        "▁Kizza",
        -9.090653664520719
      ],
      [
        "beere",
        -9.091409593857176
      ],
      [
        "▁kwogera",
        -9.091471889207881
      ],
      [
        "▁abapoliisi",
        -9.091973582858264
      ],
      [
        "▁bbiri",
        -9.092013467270672
      ],
      [
        "▁1",
        -9.09434649447892
      ],
      [
        "▁beetaaga",
        -9.094733223386665
      ],
      [
        "▁Kyaggwe",
        -9.098646360025343
      ],
      [
        "▁eb",
        -9.101427393830926
      ],
      [
        "▁zino.",
        -9.102323443006973
      ],
      [
        "▁bafunye",
        -9.106798087136685
      ],
      [
        "sumba",
        -9.107414507006734
      ],
      [
        "lutalo",
        -9.108699162166342
      ],
      [
        "gaanye",
        -9.109259773753
      ],
      [
        "▁Jac",
        -9.110056337863114
      ],
      [
        "vaamu",
        -9.111135452647789
      ],
      [
        "ggulawo",
        -9.112075737967276
      ],
      [
        "sse",
        -9.114501014189324
      ],
      [
        "nja",
        -9.118204471392795
      ],
      [
        "▁January",
        -9.120600713734014
      ],
      [
        "▁Centre",
        -9.120600734213008
      ],
      [
        "wanguddwa",
        -9.12060512110073
      ],
      [
        "▁West",
        -9.120681307234038
      ],
      [
        "▁kkomera",
        -9.12071481184909
      ],
      [
        "tiimu",
        -9.120756447224696
      ],
      [
        "▁omulonde",
        -9.121770447854843
      ],
      [
        "noonyereza",
        -9.122018191529238
      ],
      [
        "▁“Mu",
        -9.122309348976733
      ],
      [
        "▁bw’abantu",
        -9.122380512019284
      ],
      [
        "▁mutindo",
        -9.12239446027402
      ],
      [
        "▁tuli",
        -9.122618946269858
      ],
      [
        "▁mirembe",
        -9.123024834654698
      ],
      [
        "▁FUFA",
        -9.123220948972005
      ],
      [
        "▁obujjanjabi",
        -9.123528164364782
      ],
      [
        "P",
        -9.124302623253506
      ],
      [
        "▁kituufu",
        -9.124437986146576
      ],
      [
        "▁empa",
        -9.124943913645195
      ],
      [
        "▁Sim",
        -9.126354441880448
      ],
      [
        "ve",
        -9.12749407187486
      ],
      [
        "nnyini",
        -9.127906691442444
      ],
      [
        "▁Bwa",
        -9.128334424170985
      ],
      [
        "▁kiri",
        -9.130139458976236
      ],
      [
        "Uganda",
        -9.130644949737352
      ],
      [
        "▁okubaawo",
        -9.13085630572435
      ],
      [
        "ng",
        -9.131140817013756
      ],
      [
        "▁kamyufu",
        -9.13157761315899
      ],
      [
        "▁To",
        -9.132644254520258
      ],
      [
        "nti",
        -9.13300578311145
      ],
      [
        "▁okusooka",
        -9.135310551614118
      ],
      [
        "▁Bw’a",
        -9.135513633597746
      ],
      [
        "kwe",
        -9.136564584283555
      ],
      [
        "▁bw’o",
        -9.137036333412013
      ],
      [
        "▁Wine)",
        -9.138847425937094
      ],
      [
        "▁ekkanisa",
        -9.14218344579952
      ],
      [
        "kijja",
        -9.142660706724548
      ],
      [
        "▁Bya",
        -9.14324829811251
      ],
      [
        "kyo",
        -9.149193818354659
      ],
      [
        "▁bafuna",
        -9.149674622091055
      ],
      [
        "▁Mw",
        -9.14997492155018
      ],
      [
        "▁by’a",
        -9.150611661983117
      ],
      [
        "▁bulungi.",
        -9.150885565357054
      ],
      [
        "emmwanyi",
        -9.151938656397892
      ],
      [
        "lira",
        -9.153383513923506
      ],
      [
        "baawo",
        -9.153459968747502
      ],
      [
        "▁Kamya",
        -9.155507126201128
      ],
      [
        "▁enkung’aana",
        -9.155537627841204
      ],
      [
        "▁emirembe",
        -9.15587484095393
      ],
      [
        "▁akaseera",
        -9.155908531273925
      ],
      [
        "kalulu",
        -9.156183599103807
      ],
      [
        "▁okwewandiisa",
        -9.156659465629522
      ],
      [
        "▁Wano",
        -9.157080140125927
      ],
      [
        "▁Franc",
        -9.157565772868116
      ],
      [
        "▁n’ebintu",
        -9.158428708551114
      ],
      [
        "weereddwa",
        -9.158896429778933
      ],
      [
        "kedde",
        -9.158947042533011
      ],
      [
        "▁yaabwe",
        -9.159671284380753
      ],
      [
        "R",
        -9.159953704230233
      ],
      [
        "kuza",
        -9.161884349960253
      ],
      [
        "▁n’abo",
        -9.162062761608981
      ],
      [
        "jjidde",
        -9.163103777788479
      ],
      [
        "▁abakugu",
        -9.163182709934848
      ],
      [
        "▁okwegatta",
        -9.163690014341894
      ],
      [
        "▁abawera",
        -9.163743405921059
      ],
      [
        "▁okusa",
        -9.163801752989109
      ],
      [
        "▁ssi",
        -9.164294751059185
      ],
      [
        "▁Rev.",
        -9.164934859499063
      ],
      [
        "▁aliko",
        -9.165010339096776
      ],
      [
        "▁okukyusa",
        -9.166118632277362
      ],
      [
        "▁okulondebwa",
        -9.166723435050029
      ],
      [
        "▁En",
        -9.167171423740076
      ],
      [
        "koma",
        -9.16775328964986
      ],
      [
        "▁19",
        -9.168087783839848
      ],
      [
        "teekateeka",
        -9.16827488668504
      ],
      [
        "▁baliko",
        -9.168376111835714
      ],
      [
        "kunga",
        -9.170035777337782
      ],
      [
        "kwatagana",
        -9.17069388141338
      ],
      [
        "ment",
        -9.170730094678255
      ],
      [
        "abavubuka",
        -9.171522142280526
      ],
      [
        "▁C",
        -9.171776706038377
      ],
      [
        "%",
        -9.173864432345084
      ],
      [
        "z",
        -9.174487717291004
      ],
      [
        "▁bazi",
        -9.17623532111601
      ],
      [
        "gambye.",
        -9.177471225180263
      ],
      [
        "ddiza",
        -9.179964703325023
      ],
      [
        "gira",
        -9.181007745490147
      ],
      [
        "je",
        -9.181247509933756
      ],
      [
        "▁Kya",
        -9.1830681233385
      ],
      [
        "▁ekiseera",
        -9.18461743461286
      ],
      [
        "▁ab’",
        -9.185959274203308
      ],
      [
        "▁eziwera",
        -9.186772915256327
      ],
      [
        "semba",
        -9.187007323881737
      ],
      [
        "▁ng’oku",
        -9.187490301687927
      ],
      [
        "kwasi",
        -9.187556650998348
      ],
      [
        "▁lino.",
        -9.18768815131245
      ],
      [
        "biraga",
        -9.189800428735188
      ],
      [
        "ookino",
        -9.190797863321603
      ],
      [
        "▁Nkalubo",
        -9.190797941795143
      ],
      [
        "▁Kibalama",
        -9.190798100732874
      ],
      [
        "▁Mathi",
        -9.190798439756296
      ],
      [
        "▁Mengo",
        -9.190800850912503
      ],
      [
        "▁Kavuma",
        -9.191039282635785
      ],
      [
        "twaliddwa",
        -9.191063066747594
      ],
      [
        "▁Oboi",
        -9.191305723210501
      ],
      [
        "tunuulira",
        -9.19133574264284
      ],
      [
        "▁Ssande",
        -9.191662206028491
      ],
      [
        "▁Kaggwa",
        -9.191928772340601
      ],
      [
        "▁babwe",
        -9.192387332002832
      ],
      [
        "▁ennyumba",
        -9.192761285249938
      ],
      [
        "▁ebigambo",
        -9.19280139908
      ],
      [
        "▁kikyamu",
        -9.192849254084758
      ],
      [
        "weze",
        -9.193957437747951
      ],
      [
        "bakozi",
        -9.194402972061317
      ],
      [
        "bala",
        -9.194537793727088
      ],
      [
        "linnya",
        -9.195024231222886
      ],
      [
        "yokka",
        -9.195451947126333
      ],
      [
        "ical",
        -9.196179196186065
      ],
      [
        "gul",
        -9.19715801988875
      ],
      [
        "omusaayi",
        -9.197719512698903
      ],
      [
        "▁2019",
        -9.198053089631012
      ],
      [
        "▁nguudo",
        -9.198410069022096
      ],
      [
        "▁bakulembeddwamu",
        -9.198670074034084
      ],
      [
        "▁Olukiiko",
        -9.19929735773601
      ],
      [
        "mbeera",
        -9.199477839441444
      ],
      [
        "▁guno,",
        -9.199749967797452
      ],
      [
        "samba",
        -9.201997574917064
      ],
      [
        "gana",
        -9.20319413428557
      ],
      [
        "bizibu",
        -9.203398888884864
      ],
      [
        "soma",
        -9.204283272711892
      ],
      [
        "▁Li",
        -9.204378513581261
      ],
      [
        "▁Naka",
        -9.205365730511415
      ],
      [
        "▁okugaba",
        -9.205620215409596
      ],
      [
        "▁Uganda,",
        -9.208007054606693
      ],
      [
        "▁bawagizi",
        -9.208654224725596
      ],
      [
        "▁waabwe",
        -9.208687214708423
      ],
      [
        "▁Bo",
        -9.210313242292731
      ],
      [
        "▁kugenda",
        -9.210818225111062
      ],
      [
        "iro",
        -9.211924682190636
      ],
      [
        "balina",
        -9.212542921158686
      ],
      [
        "ing",
        -9.21343418056907
      ],
      [
        "bika",
        -9.214644508578669
      ],
      [
        "▁amagye",
        -9.215282509315957
      ],
      [
        "zzaawo",
        -9.215337594904465
      ],
      [
        "▁25",
        -9.218246811066901
      ],
      [
        "▁2020",
        -9.218976540118323
      ],
      [
        "wamu",
        -9.21974435785912
      ],
      [
        "kiti",
        -9.220162028239898
      ],
      [
        "▁yafuna",
        -9.220954550589815
      ],
      [
        "kye",
        -9.220983100099723
      ],
      [
        "pi",
        -9.222596019822433
      ],
      [
        "faananyi",
        -9.222654760551404
      ],
      [
        "weza",
        -9.223545727123827
      ],
      [
        "kozesebwa",
        -9.224085447751081
      ],
      [
        "▁bazze",
        -9.224712611473096
      ],
      [
        "tuba",
        -9.225571777006211
      ],
      [
        "▁ttiyaggaasi",
        -9.227834795173235
      ],
      [
        "▁Health",
        -9.227834800594252
      ],
      [
        "▁William",
        -9.227834860923736
      ],
      [
        "▁Onyango",
        -9.227835350747755
      ],
      [
        "▁muggalo",
        -9.227851376538926
      ],
      [
        "teereddwa",
        -9.227869587516647
      ],
      [
        "▁(FDC)",
        -9.228043125923186
      ],
      [
        "kooti",
        -9.228184319297958
      ],
      [
        "▁teya",
        -9.228237595440614
      ],
      [
        "▁n’Obwakabaka",
        -9.229246846664557
      ],
      [
        "▁ewaka",
        -9.229315729113093
      ],
      [
        "▁eby’obulamu",
        -9.22968475273651
      ],
      [
        "iti",
        -9.22972863929213
      ],
      [
        "▁teri",
        -9.230012489300414
      ],
      [
        "▁asisinkanye",
        -9.230296401771158
      ],
      [
        "baga",
        -9.23051325698366
      ],
      [
        "nunula",
        -9.230851759251728
      ],
      [
        "▁y’essaza",
        -9.23133947169888
      ],
      [
        "▁St",
        -9.2315064938119
      ],
      [
        "▁kiba",
        -9.232247022703149
      ],
      [
        "tegese",
        -9.232358527180786
      ],
      [
        "kuumadd",
        -9.233658586463182
      ],
      [
        "kkulu",
        -9.233946903763261
      ],
      [
        "▁babiri",
        -9.234028032476349
      ],
      [
        "▁ssomero",
        -9.23417758585186
      ],
      [
        "▁Olu",
        -9.234772228107376
      ],
      [
        "ere",
        -9.235638816826764
      ],
      [
        "▁twe",
        -9.2388767206947
      ],
      [
        "twagala",
        -9.240467168047383
      ],
      [
        "▁et",
        -9.242062254193279
      ],
      [
        "kubwa",
        -9.243260007284826
      ],
      [
        "▁edda",
        -9.244166690906164
      ],
      [
        "▁ak’",
        -9.244177288713447
      ],
      [
        "▁okutambula",
        -9.244413077148263
      ],
      [
        "▁Obu",
        -9.247752633717688
      ],
      [
        "yali",
        -9.248256657944365
      ],
      [
        "▁byalo",
        -9.248581520384509
      ],
      [
        "▁lyabwe",
        -9.248892736274847
      ],
      [
        "lonze",
        -9.249306933081407
      ],
      [
        "bbula",
        -9.249406975948792
      ],
      [
        "boozi",
        -9.250755445991604
      ],
      [
        "▁amazzi",
        -9.252064030544954
      ],
      [
        "▁olw",
        -9.252967740504443
      ],
      [
        "zudde",
        -9.253709572740737
      ],
      [
        "ation",
        -9.254006412338255
      ],
      [
        "lidde",
        -9.25450556460545
      ],
      [
        "ddu",
        -9.256061217372777
      ],
      [
        "▁okubi",
        -9.258086336671095
      ],
      [
        "▁bag",
        -9.258291626140746
      ],
      [
        "ggwanga",
        -9.258917094008872
      ],
      [
        "jj",
        -9.259734329228845
      ],
      [
        "▁bubi",
        -9.260946290957708
      ],
      [
        "ddusi",
        -9.261000181797993
      ],
      [
        "▁n’abalala.",
        -9.261655613925932
      ],
      [
        "▁okufa",
        -9.26318023572577
      ],
      [
        "▁“Omu",
        -9.265023154988354
      ],
      [
        "▁Rotary",
        -9.266296443702025
      ],
      [
        "▁Kamwokya",
        -9.26629658011268
      ],
      [
        "▁Coffee",
        -9.26629732561383
      ],
      [
        "▁Busoga",
        -9.266297365487567
      ],
      [
        "▁East",
        -9.266300380991868
      ],
      [
        "▁Nnyinimu",
        -9.266302900135463
      ],
      [
        "▁okwettanira",
        -9.266307318587087
      ],
      [
        "▁Lumumba",
        -9.266309296124302
      ],
      [
        "▁ez’ebitundu",
        -9.266319856387947
      ],
      [
        "▁Kigongo",
        -9.26632866993704
      ],
      [
        "▁lw’eggulo",
        -9.26638241877207
      ],
      [
        "▁Munisipa",
        -9.266527568690819
      ],
      [
        "teebeddwa",
        -9.266597749863086
      ],
      [
        "▁Richard",
        -9.266972289592353
      ],
      [
        "▁Jam",
        -9.267420091729173
      ],
      [
        "▁ekituufu",
        -9.268340326618347
      ],
      [
        "lumiriza",
        -9.268597500679931
      ],
      [
        "▁y’eggwanga",
        -9.268678496539486
      ],
      [
        "▁Banna",
        -9.268944133961199
      ],
      [
        "▁y’ekibiina",
        -9.27009551628386
      ],
      [
        "▁obuli",
        -9.270462438442085
      ],
      [
        "irira",
        -9.270763543292826
      ],
      [
        "lambika",
        -9.271463661957215
      ],
      [
        "▁yonna.",
        -9.271833098102856
      ],
      [
        "▁okwekuuma",
        -9.27256292197962
      ],
      [
        "wangulwa",
        -9.272592648347754
      ],
      [
        "vaako",
        -9.27459043722844
      ],
      [
        "bwetaavu",
        -9.27524890831403
      ],
      [
        "K",
        -9.275675005984677
      ],
      [
        "emirimu",
        -9.276044568288004
      ],
      [
        "lumba",
        -9.276328297948746
      ],
      [
        "▁nayo",
        -9.277801880886422
      ],
      [
        "ddukira",
        -9.277913970116854
      ],
      [
        "▁nze",
        -9.278008363862114
      ],
      [
        "wandiik",
        -9.278235168655495
      ],
      [
        "aga",
        -9.27986564742072
      ],
      [
        "▁awadde",
        -9.281692607384665
      ],
      [
        "bukadde",
        -9.282126154449388
      ],
      [
        "nye",
        -9.28270584539731
      ],
      [
        "▁ey’e",
        -9.287320950207901
      ],
      [
        "uza",
        -9.287877780450696
      ],
      [
        "gasseeko",
        -9.288300567414524
      ],
      [
        "▁okugu",
        -9.288726994674901
      ],
      [
        "▁mmotoka",
        -9.288974444275905
      ],
      [
        "bibwa",
        -9.289471470490232
      ],
      [
        "▁ebye",
        -9.291523255036704
      ],
      [
        "waliriz",
        -9.29659818088811
      ],
      [
        "▁bakulembeze",
        -9.297271922449857
      ],
      [
        "tege",
        -9.298363807865348
      ],
      [
        "teeke",
        -9.298777477695612
      ],
      [
        "▁atongoz",
        -9.299071696094696
      ],
      [
        "suubizza",
        -9.299882967987937
      ],
      [
        "suubira",
        -9.300368262794478
      ],
      [
        "senge",
        -9.30095316256822
      ],
      [
        "langirira",
        -9.301109211151783
      ],
      [
        "labik",
        -9.301173753226541
      ],
      [
        "▁Naki",
        -9.301348097809319
      ],
      [
        "lagidde",
        -9.30138415567897
      ],
      [
        "▁Christ",
        -9.302078850736143
      ],
      [
        "yanyonyodde",
        -9.304392188293281
      ],
      [
        "▁ky",
        -9.30520002362716
      ],
      [
        "▁bal",
        -9.305544095047132
      ],
      [
        "▁pulo",
        -9.306264574451873
      ],
      [
        "▁coronavirus",
        -9.306296333552329
      ],
      [
        "▁Airtel",
        -9.306296334636171
      ],
      [
        "▁Limited",
        -9.306296335288273
      ],
      [
        "▁Mawokota",
        -9.30629636618175
      ],
      [
        "▁Prosper",
        -9.306296367843908
      ],
      [
        "▁Federo",
        -9.306296385046451
      ],
      [
        "▁siriimu",
        -9.306296664637863
      ],
      [
        "▁Nyanzi",
        -9.306297082878878
      ],
      [
        "▁Change",
        -9.306297237310027
      ],
      [
        "▁bigere",
        -9.306299684844824
      ],
      [
        "▁Afirika",
        -9.306302741362385
      ],
      [
        "▁Rubongoya",
        -9.30631021391444
      ],
      [
        "▁Jud",
        -9.30634715141264
      ],
      [
        "kwate",
        -9.306376044846985
      ],
      [
        "▁Emman",
        -9.306387277564568
      ],
      [
        "sunsula",
        -9.30647656102477
      ],
      [
        "jeemera",
        -9.306507552137106
      ],
      [
        "lala",
        -9.306759347215152
      ],
      [
        "obwapulezidenti",
        -9.306813868444396
      ],
      [
        "ebyensimbi",
        -9.307556273403064
      ],
      [
        "▁omugenzi",
        -9.307950332484515
      ],
      [
        "▁katale",
        -9.308376155055596
      ],
      [
        "tiisatiisa",
        -9.308648949216376
      ],
      [
        "bbiit",
        -9.309506062689781
      ],
      [
        "yambeko",
        -9.309621069097364
      ],
      [
        "fuba",
        -9.311183733715286
      ],
      [
        "▁noku",
        -9.311698011393844
      ],
      [
        "akamala",
        -9.312107834978935
      ],
      [
        "aggale",
        -9.312934532488395
      ],
      [
        "▁Am",
        -9.313725986007348
      ],
      [
        "▁akola",
        -9.314014158939202
      ],
      [
        "▁anaa",
        -9.314179854100843
      ],
      [
        "▁t",
        -9.315531162954416
      ],
      [
        "ndo",
        -9.315751710020988
      ],
      [
        "▁200",
        -9.316527868780957
      ],
      [
        "▁mbalirira",
        -9.317085093833867
      ],
      [
        "▁kwongera",
        -9.317230572145384
      ],
      [
        "wulira",
        -9.317259490208997
      ],
      [
        "oop",
        -9.317521615879524
      ],
      [
        "B",
        -9.318254241326152
      ],
      [
        "▁etteeka",
        -9.318863455225113
      ],
      [
        "▁bana",
        -9.319516091573817
      ],
      [
        "kawuka",
        -9.319847474620179
      ],
      [
        "omuntu",
        -9.32083776268376
      ],
      [
        "co",
        -9.321452546832573
      ],
      [
        "eereza",
        -9.322223501421497
      ],
      [
        "▁Maj",
        -9.32288668542561
      ],
      [
        "▁embuga",
        -9.323259557783313
      ],
      [
        "enjawulo",
        -9.323614250241361
      ],
      [
        "sasula",
        -9.324650152697826
      ],
      [
        "▁2016",
        -9.326239019716738
      ],
      [
        "tegefu",
        -9.32695705786693
      ],
      [
        "ebibiina",
        -9.32902470306141
      ],
      [
        "▁okukolera",
        -9.329134017075743
      ],
      [
        "▁okukolebwa",
        -9.329385991806438
      ],
      [
        "kiri",
        -9.33072951034625
      ],
      [
        "▁abakyala",
        -9.331271223100373
      ],
      [
        "songa",
        -9.332174144007567
      ],
      [
        "▁abaali",
        -9.333174811188737
      ],
      [
        "▁z’oku",
        -9.333265357548886
      ],
      [
        "alumiriza",
        -9.334835330675292
      ],
      [
        "▁z",
        -9.336632453663263
      ],
      [
        "▁yaba",
        -9.337055249765573
      ],
      [
        "ganya",
        -9.338658953165858
      ],
      [
        "kikola",
        -9.338713794029143
      ],
      [
        "jjanjab",
        -9.339671874557485
      ],
      [
        "labirira",
        -9.340335889182585
      ],
      [
        "▁H",
        -9.340643688561563
      ],
      [
        "muli",
        -9.341881913305693
      ],
      [
        "▁bizibu",
        -9.341980774602035
      ],
      [
        "fiira",
        -9.342391317175775
      ],
      [
        "▁ssen",
        -9.343313471328328
      ],
      [
        "▁baki",
        -9.345007817341047
      ],
      [
        "wagizi",
        -9.34529231690237
      ],
      [
        "▁okujja",
        -9.345662743991427
      ],
      [
        "▁okukkiriza",
        -9.346568438506225
      ],
      [
        "tambi",
        -9.34676442116019
      ],
      [
        "yindi",
        -9.347372378737841
      ],
      [
        "▁Buweekula",
        -9.347963027044045
      ],
      [
        "▁Makindye",
        -9.34796305653418
      ],
      [
        "▁Busujju",
        -9.347963072973252
      ],
      [
        "▁ennungi",
        -9.347963084750024
      ],
      [
        "▁ebyenfuna",
        -9.347964540278316
      ],
      [
        "lemererwa",
        -9.347972098030866
      ],
      [
        "▁Authority",
        -9.347978862985222
      ],
      [
        "▁munne",
        -9.348138172722079
      ],
      [
        "▁emijoozi",
        -9.348193890922238
      ],
      [
        "sangiddwa",
        -9.348229575714306
      ],
      [
        "▁16",
        -9.348290445720613
      ],
      [
        "▁by’ebyokwerinda",
        -9.348310548808666
      ],
      [
        "▁by’eggwanga",
        -9.348320248176838
      ],
      [
        "tulugunyizibwa",
        -9.348451583475937
      ],
      [
        "jjukira",
        -9.348523765371354
      ],
      [
        "▁okujjumbira",
        -9.348999615655925
      ],
      [
        "▁empya",
        -9.349017038079847
      ],
      [
        "▁bw’agasseeko",
        -9.349102760313176
      ],
      [
        "▁akatale",
        -9.349156634931665
      ],
      [
        "▁obukugu",
        -9.350125586671352
      ],
      [
        "ns",
        -9.350181148777448
      ],
      [
        "susse",
        -9.350216802238974
      ],
      [
        "▁babi",
        -9.350302826944917
      ],
      [
        "▁essaawa",
        -9.350531124654589
      ],
      [
        "▁ery’e",
        -9.35096692346622
      ],
      [
        "▁Naye",
        -9.351437319557615
      ],
      [
        "ababaka",
        -9.352437960609434
      ],
      [
        "▁Bis",
        -9.352996423867726
      ],
      [
        "▁enguzi",
        -9.353174046450036
      ],
      [
        "▁abakiise",
        -9.353237634021133
      ],
      [
        "▁omuggya",
        -9.353883446924803
      ],
      [
        "▁abazannyi",
        -9.355367465536485
      ],
      [
        "▁basuubira",
        -9.357548605693559
      ],
      [
        "▁y’emu",
        -9.357927265594297
      ],
      [
        "▁ey’oku",
        -9.358081593133337
      ],
      [
        "▁butereevu",
        -9.363173259550285
      ],
      [
        "▁ng’en",
        -9.364328252427192
      ],
      [
        "budde",
        -9.364873792068872
      ],
      [
        "▁balamu",
        -9.369264093297902
      ],
      [
        "saale",
        -9.369833144542213
      ],
      [
        "▁ok",
        -9.372052027321374
      ],
      [
        "▁Nga",
        -9.372224778835772
      ],
      [
        "ddako",
        -9.376193806106317
      ],
      [
        "▁St.",
        -9.376467069611678
      ],
      [
        "▁ekimu",
        -9.377616045680588
      ],
      [
        "oludda",
        -9.37827638742764
      ],
      [
        "▁ak",
        -9.378508114874597
      ],
      [
        "guli",
        -9.378572538239633
      ],
      [
        "okuwaayo",
        -9.380122685602547
      ],
      [
        "▁Mi",
        -9.380565550071777
      ],
      [
        "▁kweku",
        -9.381663799667596
      ],
      [
        "sawo",
        -9.382748984059125
      ],
      [
        "▁kano.",
        -9.382957447461367
      ],
      [
        "kisa",
        -9.383580023114776
      ],
      [
        "malira",
        -9.388708405173798
      ],
      [
        "sigansimbi",
        -9.391046566507253
      ],
      [
        "’Obwapulezidenti",
        -9.3914412887092
      ],
      [
        "▁Mityana",
        -9.391441825107131
      ],
      [
        "▁byabufuzi",
        -9.391442190246444
      ],
      [
        "tyoboola",
        -9.391481370058596
      ],
      [
        "brah",
        -9.391493746078023
      ],
      [
        "▁Bukenya",
        -9.391568262500396
      ],
      [
        "▁okweyimirirwa",
        -9.391659650786881
      ],
      [
        "leese",
        -9.391822646733061
      ],
      [
        "▁amalala",
        -9.391848285605253
      ],
      [
        "▁“O",
        -9.39198871249567
      ],
      [
        "▁ddagala",
        -9.392106526187582
      ],
      [
        "▁Muteesa",
        -9.392338754582676
      ],
      [
        "▁Bwanika",
        -9.392623909814574
      ],
      [
        "▁Nganda",
        -9.392874221671292
      ],
      [
        "tale",
        -9.393196314801308
      ],
      [
        "▁Kintu",
        -9.393279098017468
      ],
      [
        "▁United",
        -9.39353484590088
      ],
      [
        "sembayo",
        -9.394096360189133
      ],
      [
        "kulembeddemu",
        -9.394708293943697
      ],
      [
        "bali",
        -9.395648596158491
      ],
      [
        "taka",
        -9.395906926625479
      ],
      [
        "mbiddwa",
        -9.396038670668705
      ],
      [
        "kuumi",
        -9.396200062468202
      ],
      [
        "▁abatalina",
        -9.396479166763195
      ],
      [
        "▁Prof.",
        -9.396520660095836
      ],
      [
        "▁alagidde",
        -9.396968643318868
      ],
      [
        "▁ebiseera",
        -9.397171595881337
      ],
      [
        "birina",
        -9.398046395828736
      ],
      [
        "▁obukulu",
        -9.39927631529519
      ],
      [
        "lungi",
        -9.400227491569659
      ],
      [
        "kuumirwa",
        -9.40023588281788
      ],
      [
        "▁abangi",
        -9.40116451503262
      ],
      [
        "▁abakungu",
        -9.404115395987983
      ],
      [
        "▁ffe",
        -9.405610497610013
      ],
      [
        "▁obubon",
        -9.405636299846474
      ],
      [
        "nira",
        -9.405986528303579
      ],
      [
        "▁lino,",
        -9.406760008304383
      ],
      [
        "tongoz",
        -9.407487450008999
      ],
      [
        "▁abe",
        -9.407591312471677
      ],
      [
        "bbanga",
        -9.407815733275655
      ],
      [
        "▁okuyingira",
        -9.408492233288483
      ],
      [
        "baweebwa",
        -9.410257115424706
      ],
      [
        "▁asooka",
        -9.411481469828365
      ],
      [
        "amagye",
        -9.413949900525942
      ],
      [
        "ene",
        -9.414291390916244
      ],
      [
        "▁misango",
        -9.414479795246146
      ],
      [
        "eyo",
        -9.415534550986997
      ],
      [
        "nnakibiina",
        -9.416044281215806
      ],
      [
        "asobole",
        -9.416141470225929
      ],
      [
        "▁“T",
        -9.416856605845323
      ],
      [
        "kyuusa",
        -9.418191000070209
      ],
      [
        "gye",
        -9.418816132805082
      ],
      [
        "▁okuyita",
        -9.419549918404101
      ],
      [
        "▁amyuka",
        -9.419823144733535
      ],
      [
        "▁zino,",
        -9.420470669494778
      ],
      [
        "▁abeetab",
        -9.420776865113552
      ],
      [
        "▁olw’obu",
        -9.421285025227276
      ],
      [
        "kiikirira",
        -9.422501904639667
      ],
      [
        "F",
        -9.42381371179366
      ],
      [
        "nt",
        -9.427784384700171
      ],
      [
        "▁mwa",
        -9.427971785111216
      ],
      [
        "▁emp",
        -9.428871705590277
      ],
      [
        "taasa",
        -9.429025666388922
      ],
      [
        "▁gumu",
        -9.429422577911716
      ],
      [
        "tulugunya",
        -9.429975223079934
      ],
      [
        "▁yategeeza",
        -9.43059090951561
      ],
      [
        "tikko",
        -9.434776654078384
      ],
      [
        "olwekyo",
        -9.435043459160081
      ],
      [
        "zaamu",
        -9.436234549961865
      ],
      [
        "▁Nagginda",
        -9.43689580718096
      ],
      [
        "▁URN",
        -9.436895816465322
      ],
      [
        "▁Nakaseke",
        -9.4368961540057
      ],
      [
        "▁takisi",
        -9.43689920178901
      ],
      [
        "▁Power",
        -9.436899861644022
      ],
      [
        "▁Kizito",
        -9.436899982625537
      ],
      [
        "▁makomera",
        -9.436951574730536
      ],
      [
        "▁Ssegiriinya",
        -9.437012770117263
      ],
      [
        "▁Sulai",
        -9.437018669910172
      ],
      [
        "▁okusaasaana",
        -9.437059781568065
      ],
      [
        "▁Mmeeya",
        -9.437072617481386
      ],
      [
        "▁Muwanga",
        -9.437424857142636
      ],
      [
        "▁bannaddiini",
        -9.437986184281428
      ],
      [
        "▁gw’abantu",
        -9.438125534364337
      ],
      [
        "gendera",
        -9.43828267008439
      ],
      [
        "▁omulala",
        -9.439186664257328
      ],
      [
        "jjudde",
        -9.439350163816176
      ],
      [
        "okuwagira",
        -9.439413461653983
      ],
      [
        "▁olutalo",
        -9.439439527115631
      ],
      [
        "satu",
        -9.439765974511557
      ],
      [
        "▁ebiwandiiko",
        -9.44051361191907
      ],
      [
        "fi",
        -9.441603549988956
      ],
      [
        "kukola",
        -9.441969036280533
      ],
      [
        "▁obulungi.",
        -9.44223280771715
      ],
      [
        "▁17",
        -9.443166849908861
      ],
      [
        "▁okwekalakaasa",
        -9.443401175903064
      ],
      [
        "zuula",
        -9.44389776359064
      ],
      [
        "kubadde",
        -9.445137333140885
      ],
      [
        "▁Ssenk",
        -9.445423238102785
      ],
      [
        "▁Fr.",
        -9.446411157082904
      ],
      [
        "leete",
        -9.448800639298227
      ],
      [
        "▁abawala",
        -9.450470707192984
      ],
      [
        "abadde",
        -9.450661157575814
      ],
      [
        "mira",
        -9.450847580661112
      ],
      [
        "abasawo",
        -9.45107811961282
      ],
      [
        "▁“Oku",
        -9.45232644105765
      ],
      [
        "ezza",
        -9.452459423999203
      ],
      [
        "uu",
        -9.45281637884171
      ],
      [
        "▁aki",
        -9.453224815739233
      ],
      [
        "ekiti",
        -9.453419522627687
      ],
      [
        "D",
        -9.453752465498397
      ],
      [
        "▁olw’o",
        -9.4539516776059
      ],
      [
        "ekkanisa",
        -9.454437590941927
      ],
      [
        "L",
        -9.454570407152206
      ],
      [
        "▁“Ki",
        -9.454636158259788
      ],
      [
        "okwemulugunya",
        -9.45559894700321
      ],
      [
        "w’abadde",
        -9.457997166961494
      ],
      [
        "▁akaa",
        -9.458093346765033
      ],
      [
        "amazzi",
        -9.458366474849914
      ],
      [
        "▁Ab",
        -9.459840016904344
      ],
      [
        "baza",
        -9.459905984856938
      ],
      [
        "langiriddwa",
        -9.460665116807506
      ],
      [
        "’s",
        -9.461342842967502
      ],
      [
        "ecc",
        -9.461404831765492
      ],
      [
        "fulumya",
        -9.462019966810411
      ],
      [
        "▁kkooti.",
        -9.462286120523563
      ],
      [
        "▁bimu",
        -9.462522259981256
      ],
      [
        "malwaliro",
        -9.462756985227166
      ],
      [
        "simbi",
        -9.464060526488442
      ],
      [
        "▁okugula",
        -9.464159555440052
      ],
      [
        "▁kamu",
        -9.465229864714857
      ],
      [
        "▁ekiri",
        -9.466727734546103
      ],
      [
        "▁No",
        -9.466790775411676
      ],
      [
        "▁buno.",
        -9.467141659009162
      ],
      [
        "iiti",
        -9.467334781645713
      ],
      [
        "kisoboka",
        -9.467368912591446
      ],
      [
        "▁ek",
        -9.468426528313039
      ],
      [
        "▁mupiira",
        -9.468965296902919
      ],
      [
        "kisobozese",
        -9.469214115860616
      ],
      [
        "genzi",
        -9.470380838601258
      ],
      [
        "ulu",
        -9.47109301247323
      ],
      [
        "kumi",
        -9.471544591327378
      ],
      [
        "▁y’aba",
        -9.472675132845767
      ],
      [
        "▁baabadde",
        -9.472695516767136
      ],
      [
        "kalu",
        -9.47520458300535
      ],
      [
        "▁yasiim",
        -9.476818400226822
      ],
      [
        "▁abavu",
        -9.477446359601785
      ],
      [
        "fuluma",
        -9.478428879546652
      ],
      [
        "kiiko",
        -9.480709076876527
      ],
      [
        "▁eyo",
        -9.48306504737189
      ],
      [
        "nnyonnyola",
        -9.483451705819208
      ],
      [
        "▁Twitter",
        -9.484514854182072
      ],
      [
        "▁Edward",
        -9.484514872696622
      ],
      [
        "▁RDC",
        -9.484514888716003
      ],
      [
        "▁Sudan",
        -9.484514892267626
      ],
      [
        "▁Kalangala",
        -9.48451493875566
      ],
      [
        "▁Jane",
        -9.484519596942516
      ],
      [
        "▁Road",
        -9.484519627217722
      ],
      [
        "▁Jjumba",
        -9.484520992490882
      ],
      [
        "▁Ennanga",
        -9.484521516021667
      ],
      [
        "▁Board",
        -9.48458945731035
      ],
      [
        "masiro",
        -9.484665331317618
      ],
      [
        "▁Union",
        -9.484670572146829
      ],
      [
        "▁Joel",
        -9.484833045570245
      ],
      [
        "▁gw",
        -9.485198998454416
      ],
      [
        "labikako",
        -9.485228462964585
      ],
      [
        "▁omuzannyo",
        -9.485264929460142
      ],
      [
        "▁Bugerere",
        -9.485359792042486
      ],
      [
        "loodi",
        -9.485716396420585
      ],
      [
        "▁Kasana",
        -9.486135724006411
      ],
      [
        "ddira",
        -9.486569131189306
      ],
      [
        "▁Pri",
        -9.48657484428036
      ],
      [
        "gondera",
        -9.486815199197562
      ],
      [
        "yimba",
        -9.487867590828593
      ],
      [
        "▁Omukungu",
        -9.487999180795581
      ],
      [
        "▁erinnya",
        -9.48832494520957
      ],
      [
        "▁n’abaana",
        -9.488376857081406
      ],
      [
        "▁embalirira",
        -9.48858310653512
      ],
      [
        "Obwakabaka",
        -9.489242016492037
      ],
      [
        "▁ebigendererwa",
        -9.489827611804271
      ],
      [
        "▁baana",
        -9.48991923403197
      ],
      [
        "▁amaka",
        -9.490306184265746
      ],
      [
        "yingiza",
        -9.490492660464751
      ],
      [
        "okulwanyisa",
        -9.491807634853453
      ],
      [
        "▁Ssem",
        -9.491919192254327
      ],
      [
        "gendereddwamu",
        -9.492150113893684
      ],
      [
        "▁ebbaluwa",
        -9.492509549435074
      ],
      [
        "▁bigambo",
        -9.49311565883396
      ],
      [
        "▁mukaaga",
        -9.493624620967214
      ],
      [
        "▁endowooza",
        -9.49367271671414
      ],
      [
        "▁Alla",
        -9.494614710818203
      ],
      [
        "boner",
        -9.494911196505896
      ],
      [
        "ol",
        -9.495092515671004
      ],
      [
        "abani",
        -9.49761616991881
      ],
      [
        "yingidde",
        -9.497744420754007
      ],
      [
        "siim",
        -9.498079014291484
      ],
      [
        "iika",
        -9.498549623634377
      ],
      [
        "▁enkulaakulana",
        -9.499175132649361
      ],
      [
        "▁okukwatibwa",
        -9.500881029142358
      ],
      [
        "▁35",
        -9.50095179674984
      ],
      [
        "▁Ali",
        -9.502524079965092
      ],
      [
        "▁ow",
        -9.502526180507799
      ],
      [
        "▁ebisinga",
        -9.50570010777155
      ],
      [
        "▁abasob",
        -9.507099507966057
      ],
      [
        "tto",
        -9.507216921010274
      ],
      [
        "▁Nan",
        -9.5074596688546
      ],
      [
        "abasajja",
        -9.508584698439869
      ],
      [
        "gudde",
        -9.509130472819505
      ],
      [
        "iriza",
        -9.510109852815361
      ],
      [
        "simbye",
        -9.511202478217527
      ],
      [
        "▁okuweereza",
        -9.512803370770046
      ],
      [
        "▁kyeba",
        -9.513279977161616
      ],
      [
        "▁obubi",
        -9.515066146454274
      ],
      [
        "zibu",
        -9.517253385159549
      ],
      [
        "▁okul",
        -9.517517786111874
      ],
      [
        "Amasaza",
        -9.518158976811346
      ],
      [
        "gattako",
        -9.518892906781875
      ],
      [
        "isa",
        -9.520137779155732
      ],
      [
        "tan",
        -9.521728750279715
      ],
      [
        "▁yalina",
        -9.523134202662563
      ],
      [
        "▁ababeera",
        -9.523746999185281
      ],
      [
        "▁bas",
        -9.523827373680492
      ],
      [
        "▁Mba",
        -9.524904584963394
      ],
      [
        "▁ewa",
        -9.524981513803743
      ],
      [
        "▁munna",
        -9.525602802158158
      ],
      [
        "vi",
        -9.525728002053045
      ],
      [
        "▁We",
        -9.525917205804806
      ],
      [
        "kulembeddwamu",
        -9.526879037683322
      ],
      [
        "▁Te",
        -9.528214816657785
      ],
      [
        "yuma",
        -9.530341827566776
      ],
      [
        "gasa",
        -9.531681624316413
      ],
      [
        "kikolwa",
        -9.531710775883893
      ],
      [
        "▁baamu",
        -9.532438211709547
      ],
      [
        "komye",
        -9.532605164740705
      ],
      [
        "saako",
        -9.534152890831379
      ],
      [
        "▁boodabooda",
        -9.5345148542886
      ],
      [
        "▁Ssemwogerere",
        -9.534514890009728
      ],
      [
        "▁Aceng",
        -9.534515422968163
      ],
      [
        "▁ddakiika",
        -9.534515804172988
      ],
      [
        "▁Jinja",
        -9.534539787881634
      ],
      [
        "sigadde",
        -9.534556248467116
      ],
      [
        "▁Mukasa",
        -9.534572250610703
      ],
      [
        "▁Arua",
        -9.534630340092134
      ],
      [
        "▁obutonde",
        -9.534657372240163
      ],
      [
        "▁wonna",
        -9.534729130872737
      ],
      [
        "▁Ochola",
        -9.534808543400578
      ],
      [
        "▁ffenna",
        -9.534809252136453
      ],
      [
        "▁k’ekibiina",
        -9.534845809286915
      ],
      [
        "sanyufu",
        -9.534898447922771
      ],
      [
        "▁balwadde",
        -9.534903081220449
      ],
      [
        "▁bannaabwe",
        -9.53491504553599
      ],
      [
        "zuuliddwa",
        -9.534948912167815
      ],
      [
        "kuma",
        -9.5349535175305
      ],
      [
        "atenderezza",
        -9.535071475325132
      ],
      [
        "leeteddwa",
        -9.535172199814761
      ],
      [
        "▁ennongoosereza",
        -9.535288349454643
      ],
      [
        "▁w’Obwakabaka",
        -9.535328590586046
      ],
      [
        "▁ennono",
        -9.535335212391796
      ],
      [
        "▁Sekabembe",
        -9.535404168368808
      ],
      [
        "▁makulu",
        -9.535736162921728
      ],
      [
        "▁Med",
        -9.535799468034568
      ],
      [
        "ttunk",
        -9.535830105532654
      ],
      [
        "▁ky’ekibiina",
        -9.536351365953632
      ],
      [
        "sabiddwa",
        -9.536437009348539
      ],
      [
        "ndowooza",
        -9.536499533431485
      ],
      [
        "▁ogw",
        -9.53777923873065
      ],
      [
        "▁n’amu",
        -9.538393502397005
      ],
      [
        "▁obungi",
        -9.538569178882584
      ],
      [
        "▁buwanguzi",
        -9.540194914858203
      ],
      [
        "▁abawerako",
        -9.540487512863162
      ],
      [
        "▁tuba",
        -9.541350857763682
      ],
      [
        "▁gwabwe",
        -9.541354337806613
      ],
      [
        "▁bw",
        -9.543665618896208
      ],
      [
        "kulwanyisa",
        -9.544717205738525
      ],
      [
        "▁enguudo",
        -9.54477198947004
      ],
      [
        "ho",
        -9.545200004063911
      ],
      [
        "▁28",
        -9.546181482713122
      ],
      [
        "nganda",
        -9.54697373726691
      ],
      [
        "▁Ebi",
        -9.547618768576122
      ],
      [
        "▁abalonzi",
        -9.548178406822922
      ],
      [
        "waabi",
        -9.550141859053776
      ],
      [
        "▁bw’aba",
        -9.551321902834477
      ],
      [
        "sabira",
        -9.55150489504348
      ],
      [
        "mmotoka",
        -9.551930138294889
      ],
      [
        "▁Musa",
        -9.552718258879898
      ],
      [
        "ggalawo",
        -9.553869207065183
      ],
      [
        "talo",
        -9.554613604642073
      ],
      [
        "byobulamu",
        -9.555879347725682
      ],
      [
        "▁wali",
        -9.556370678777682
      ],
      [
        "(",
        -9.5572994049431
      ],
      [
        "▁gweba",
        -9.557400204540237
      ],
      [
        "▁okussa",
        -9.558713382022177
      ],
      [
        "0,000",
        -9.558749954176772
      ],
      [
        "bubaka",
        -9.559228358983678
      ],
      [
        "▁Lo",
        -9.559535466467024
      ],
      [
        "▁batadde",
        -9.56037082968823
      ],
      [
        "▁Ben",
        -9.56092922055284
      ],
      [
        "kiise",
        -9.562267130509019
      ],
      [
        "kyaliwo",
        -9.56297114559517
      ],
      [
        "▁kusigala",
        -9.564535120774966
      ],
      [
        "saasaany",
        -9.564686864310689
      ],
      [
        "ca",
        -9.565234619199302
      ],
      [
        "▁kibinja",
        -9.565764479230255
      ],
      [
        "ttu",
        -9.565822780638777
      ],
      [
        "▁Namu",
        -9.568333696059728
      ],
      [
        "zee",
        -9.57206079980905
      ],
      [
        "wi",
        -9.57225291852213
      ],
      [
        "▁tanna",
        -9.572741146208207
      ],
      [
        "▁bwo",
        -9.573339959507347
      ],
      [
        "▁okutu",
        -9.573778128722353
      ],
      [
        "ende",
        -9.574669548516841
      ],
      [
        "▁Jo",
        -9.575946060851134
      ],
      [
        "▁akadde",
        -9.576447739311034
      ],
      [
        "biddwa",
        -9.578417509023918
      ],
      [
        "ur",
        -9.580730373111642
      ],
      [
        "mwe",
        -9.580941396949193
      ],
      [
        "▁tezi",
        -9.581929713908664
      ],
      [
        "zira",
        -9.582272427201868
      ],
      [
        "tuukiriza",
        -9.58257241854628
      ],
      [
        "bbi",
        -9.582887094288708
      ],
      [
        "gagga",
        -9.583737733031008
      ],
      [
        "ttibwa",
        -9.584922370412599
      ],
      [
        "▁Co",
        -9.58561060729871
      ],
      [
        "▁munda",
        -9.586272612286624
      ],
      [
        "▁mit",
        -9.586282407452844
      ],
      [
        "yogera",
        -9.586506737027728
      ],
      [
        "▁Eki",
        -9.58679604028519
      ],
      [
        "kulaba",
        -9.587097568496606
      ],
      [
        "▁Entebbe",
        -9.587146433415208
      ],
      [
        "▁ebyenjigiriza",
        -9.587146457200738
      ],
      [
        "▁Vinc",
        -9.587146490881857
      ],
      [
        "▁Kidandala",
        -9.587146513617933
      ],
      [
        "tegekeddwa",
        -9.587146750592588
      ],
      [
        "▁(DP)",
        -9.587147229732743
      ],
      [
        "▁kolona",
        -9.587147820380052
      ],
      [
        "’obwegassi",
        -9.58715580884662
      ],
      [
        "▁Namirembe",
        -9.587184044327635
      ],
      [
        "▁Bungereza",
        -9.587200688756319
      ],
      [
        "▁City",
        -9.58720203379919
      ],
      [
        "buusa",
        -9.587219157531594
      ],
      [
        "▁Mariam",
        -9.587438409287982
      ],
      [
        "▁n’obululu",
        -9.587453107123045
      ],
      [
        "▁by’emizannyo",
        -9.587453418616501
      ],
      [
        "malirivu",
        -9.587493381645226
      ],
      [
        "▁Gulu",
        -9.587507856287228
      ],
      [
        "ju",
        -9.587575344452368
      ],
      [
        "jaguza",
        -9.587646148663314
      ],
      [
        "werera",
        -9.587691123802093
      ],
      [
        "▁kabineeti",
        -9.587824749986368
      ],
      [
        "▁olukung’aana",
        -9.588002958352895
      ],
      [
        "▁UNAIDS",
        -9.588085114557103
      ],
      [
        "▁ezimu",
        -9.588171077907715
      ],
      [
        "▁w’abavubuka",
        -9.588323281437216
      ],
      [
        "▁21",
        -9.588489423881478
      ],
      [
        "▁Muleke",
        -9.588538563128871
      ],
      [
        "gobye",
        -9.58868625314695
      ],
      [
        "tondawo",
        -9.588814373508932
      ],
      [
        "▁omusolo",
        -9.589070860169791
      ],
      [
        "▁bw’atyo",
        -9.589071946186145
      ],
      [
        "zoni",
        -9.589169428736604
      ],
      [
        "▁okweyongera",
        -9.589242849969878
      ],
      [
        "▁Mugisha",
        -9.589705769545557
      ],
      [
        "▁42",
        -9.590542010674966
      ],
      [
        "▁Ssese",
        -9.590593961393484
      ],
      [
        "zuulibwa",
        -9.59062779387444
      ],
      [
        "▁Amis",
        -9.590666038780082
      ],
      [
        "malawo",
        -9.590868462417859
      ],
      [
        "abwe",
        -9.59090295274294
      ],
      [
        "▁Amerika",
        -9.591370496877209
      ],
      [
        "▁Amakula",
        -9.591377027050951
      ],
      [
        "▁Ruto",
        -9.591377669080652
      ],
      [
        "wagala",
        -9.591476132485255
      ],
      [
        "▁essanyu",
        -9.591546672245382
      ],
      [
        "bir",
        -9.591941946587236
      ],
      [
        "▁abalamuzi",
        -9.592065237333449
      ],
      [
        "▁Ste",
        -9.592511606445104
      ],
      [
        "▁obuwagizi",
        -9.593207933755535
      ],
      [
        "▁nabyo",
        -9.593222433336683
      ],
      [
        "▁kufuna",
        -9.59575328862141
      ],
      [
        "▁babeera",
        -9.596755432554563
      ],
      [
        "kyamu",
        -9.597160739684075
      ],
      [
        "M",
        -9.597395619061631
      ],
      [
        "ddi",
        -9.597958818405726
      ],
      [
        "▁kusooka",
        -9.598223158201181
      ],
      [
        "ar",
        -9.59840003338056
      ],
      [
        "anga",
        -9.599043730220345
      ],
      [
        "yaga",
        -9.599070357533822
      ],
      [
        "mm",
        -9.59944906468489
      ],
      [
        "▁40",
        -9.599475133885605
      ],
      [
        "▁Sha",
        -9.599576273528243
      ],
      [
        "▁terin",
        -9.599611665985652
      ],
      [
        "fuzi",
        -9.599978792616536
      ],
      [
        "▁balumiriza",
        -9.600858174291327
      ],
      [
        "▁V",
        -9.601191705428118
      ],
      [
        "▁bukulembeze",
        -9.602655613433743
      ],
      [
        "▁abalala.",
        -9.602818648643996
      ],
      [
        "▁ddembe",
        -9.603742797023415
      ],
      [
        "ebyokwerinda",
        -9.604410337216063
      ],
      [
        "▁Kabaka.",
        -9.605451009222334
      ],
      [
        "▁okubu",
        -9.605555571854364
      ],
      [
        "vubuka",
        -9.605875970157104
      ],
      [
        "▁People",
        -9.605883510765116
      ],
      [
        "▁okutunda",
        -9.606608763586001
      ],
      [
        "solo",
        -9.60766195887203
      ],
      [
        "▁ogw’oku",
        -9.608734721056756
      ],
      [
        "saanidde",
        -9.60907693067248
      ],
      [
        "obusobozi",
        -9.609092120721048
      ],
      [
        "▁J",
        -9.609479587100662
      ],
      [
        "kibinja",
        -9.60949555361686
      ],
      [
        "yiza",
        -9.609805115087319
      ],
      [
        "▁ekirim",
        -9.610224377834843
      ],
      [
        "bayizi",
        -9.611068785493195
      ],
      [
        "musa",
        -9.611229246772648
      ],
      [
        "▁s",
        -9.612042424473955
      ],
      [
        "kisanja",
        -9.612192024180626
      ],
      [
        "▁bakoze",
        -9.612760167122467
      ],
      [
        "▁nnyingi",
        -9.61307414698469
      ],
      [
        "▁60",
        -9.613952084002323
      ],
      [
        "binja",
        -9.615352882983142
      ],
      [
        "▁Rut",
        -9.615561344269095
      ],
      [
        "▁“Twa",
        -9.616247573906652
      ],
      [
        "▁Le",
        -9.617112229380272
      ],
      [
        ",000",
        -9.617809891251396
      ],
      [
        "▁“Ba",
        -9.61871502821728
      ],
      [
        "lekera",
        -9.61931689375634
      ],
      [
        "▁ebitali",
        -9.619533267978783
      ],
      [
        "sigala",
        -9.620531105824885
      ],
      [
        "▁n’ama",
        -9.62152942405574
      ],
      [
        "londe",
        -9.622536491482796
      ],
      [
        "▁Kat",
        -9.622616604937107
      ],
      [
        "webaza",
        -9.623467539935703
      ],
      [
        "00",
        -9.624604720270002
      ],
      [
        "wee",
        -9.624850234161082
      ],
      [
        "▁byabwe.",
        -9.625279082124734
      ],
      [
        "yiro",
        -9.625486496756576
      ],
      [
        "yanjul",
        -9.625854373183703
      ],
      [
        "▁lukya",
        -9.625881434573571
      ],
      [
        "via",
        -9.625881703906355
      ],
      [
        "▁bafun",
        -9.628063454762328
      ],
      [
        "tunula",
        -9.629256275426222
      ],
      [
        "▁kadde",
        -9.630513639875177
      ],
      [
        "▁k’e",
        -9.631083428981867
      ],
      [
        "amaze",
        -9.631770084317175
      ],
      [
        "▁ata",
        -9.635186613771618
      ],
      [
        "▁obutee",
        -9.635949263978322
      ],
      [
        "▁Mukenenya.",
        -9.636262002591728
      ],
      [
        "atongozza",
        -9.637350957935457
      ],
      [
        "sanze",
        -9.638501179476046
      ],
      [
        "▁yaku",
        -9.639523788646022
      ],
      [
        "mpa",
        -9.639678437391698
      ],
      [
        "▁mweba",
        -9.640653639004103
      ],
      [
        "yimirira",
        -9.641674550019022
      ],
      [
        "▁Terefayina",
        -9.642701988659281
      ],
      [
        "▁baminisita",
        -9.642701989600265
      ],
      [
        "▁mmwaanyi",
        -9.642702047461409
      ],
      [
        "▁Cranes",
        -9.642702078474496
      ],
      [
        "▁Kkooki",
        -9.642702131145793
      ],
      [
        "▁Ssebaggala",
        -9.64270222135895
      ],
      [
        "▁Owiny",
        -9.64270222520285
      ],
      [
        "▁Nakibinge",
        -9.64270250509843
      ],
      [
        "▁Martin",
        -9.642703909855737
      ],
      [
        "▁2018",
        -9.642704507204863
      ],
      [
        "oodimmeeya",
        -9.642743465587436
      ],
      [
        "▁Dollo",
        -9.642747791827137
      ],
      [
        "▁Opozisoni",
        -9.64275527925572
      ],
      [
        "▁Kyambogo",
        -9.642776082288787
      ],
      [
        "▁mulamwa",
        -9.642786793350124
      ],
      [
        "BS",
        -9.642807310340682
      ],
      [
        "▁zokka",
        -9.642840572069268
      ],
      [
        "tangaaz",
        -9.642881910386535
      ],
      [
        "▁newan",
        -9.642920348723072
      ],
      [
        "▁by’Obwakabaka",
        -9.6430047410885
      ],
      [
        "wulirwa",
        -9.643122153089074
      ],
      [
        "gemebwa",
        -9.643282610443372
      ],
      [
        "▁Cheptegei",
        -9.64369583444809
      ],
      [
        "▁yeetabiddwamu",
        -9.643748323800795
      ],
      [
        "▁Mary",
        -9.643904141644732
      ],
      [
        "zzee",
        -9.643912084161483
      ],
      [
        "kkolero",
        -9.644477065980677
      ],
      [
        "▁ng’eggwanga",
        -9.644712556648924
      ],
      [
        "▁Aine",
        -9.64487670889734
      ],
      [
        "b’ebyokwerinda",
        -9.64496045106652
      ],
      [
        "▁yaaku",
        -9.644986158969605
      ],
      [
        "▁In",
        -9.645197475293685
      ],
      [
        "▁gavumenti.",
        -9.645301348176954
      ],
      [
        "▁y’abantu",
        -9.645463852876315
      ],
      [
        "▁bimuli",
        -9.646018655286897
      ],
      [
        "▁obuzibu",
        -9.646872447655882
      ],
      [
        "▁Rt",
        -9.647035438529972
      ],
      [
        "sonyiwa",
        -9.647190923093856
      ],
      [
        "mikag",
        -9.647207330292428
      ],
      [
        "▁Kasu",
        -9.647577369438878
      ],
      [
        "▁kulwa",
        -9.64768496557568
      ],
      [
        "bakyala",
        -9.647996412892457
      ],
      [
        "irwe",
        -9.648618705868214
      ],
      [
        "okuzuula",
        -9.648722135675435
      ],
      [
        "▁empisa",
        -9.649050813804747
      ],
      [
        "kwasibwa",
        -9.650225553297075
      ],
      [
        "▁Abakulembeze",
        -9.65090916741082
      ],
      [
        "akubirizza",
        -9.652176838468488
      ],
      [
        "byamizannyo",
        -9.652333964984122
      ],
      [
        "nyizibwa",
        -9.652345549048675
      ],
      [
        "koseddwa",
        -9.653211089449439
      ],
      [
        "gabira",
        -9.653434299078018
      ],
      [
        "wakanyizza",
        -9.65349348903201
      ],
      [
        "yimbi",
        -9.653628896801676
      ],
      [
        "▁esatu",
        -9.65389688574177
      ],
      [
        "▁nnyo.",
        -9.655287805339261
      ],
      [
        "labye",
        -9.655428972684808
      ],
      [
        "eeyo",
        -9.656356226904867
      ],
      [
        "sindika",
        -9.6564631129391
      ],
      [
        "omuwaabi",
        -9.657200226747367
      ],
      [
        "▁bagu",
        -9.657454062307382
      ],
      [
        "▁yeya",
        -9.658677881176406
      ],
      [
        "tion",
        -9.659237525872749
      ],
      [
        "▁okuziika",
        -9.659379374606226
      ],
      [
        "bbaluwa",
        -9.66050307694232
      ],
      [
        "▁neki",
        -9.6605050276606
      ],
      [
        "▁okutambulira",
        -9.660882855311705
      ],
      [
        "phe",
        -9.661169239856346
      ],
      [
        "uka",
        -9.663441804041012
      ],
      [
        "▁yafunye",
        -9.663833914669027
      ],
      [
        "eri",
        -9.664934076278978
      ],
      [
        "▁batu",
        -9.665490139220479
      ],
      [
        "▁abawadde",
        -9.665788652134694
      ],
      [
        "U",
        -9.66657417050037
      ],
      [
        "tabula",
        -9.66798232163039
      ],
      [
        "misango",
        -9.669570562876869
      ],
      [
        "yeesimbyewo",
        -9.669880178871917
      ],
      [
        "▁mazima",
        -9.670620806756585
      ],
      [
        "▁okuku",
        -9.673599487264013
      ],
      [
        "teekebwawo",
        -9.674228392715397
      ],
      [
        "um",
        -9.674303327733831
      ],
      [
        "▁mpa",
        -9.674901451095476
      ],
      [
        "▁gy’abadde",
        -9.675242718211438
      ],
      [
        "zirina",
        -9.675249147364678
      ],
      [
        "▁zaali",
        -9.680086888332374
      ],
      [
        "uli",
        -9.680353989884626
      ],
      [
        "▁kunoonyereza",
        -9.680538124009583
      ],
      [
        "nsonda",
        -9.68179474199653
      ],
      [
        "▁bannayuganda.",
        -9.682353780534315
      ],
      [
        "▁ziri",
        -9.682356699440401
      ],
      [
        "kung’aanya",
        -9.683470168949253
      ],
      [
        "▁kukkiriza",
        -9.683607168758037
      ],
      [
        "▁Sam",
        -9.684480108086326
      ],
      [
        "▁ngalo",
        -9.686581708720183
      ],
      [
        "kali",
        -9.687110178597969
      ],
      [
        "▁oyo",
        -9.688039378844481
      ],
      [
        "▁bata",
        -9.689441503325238
      ],
      [
        "lwana",
        -9.689564420857726
      ],
      [
        "ond",
        -9.690340650273269
      ],
      [
        "gubadde",
        -9.69049285325142
      ],
      [
        "▁bweyali",
        -9.69057663731121
      ],
      [
        "rabo",
        -9.69161417935271
      ],
      [
        "emeddwa",
        -9.6928866250271
      ],
      [
        "londoola",
        -9.692945264537958
      ],
      [
        "wummula",
        -9.693616775612634
      ],
      [
        "jju",
        -9.694129349476
      ],
      [
        "kungaany",
        -9.694302659611422
      ],
      [
        "▁gyeya",
        -9.6962433756491
      ],
      [
        "▁wabee",
        -9.696794996306487
      ],
      [
        "sezza",
        -9.697336817433252
      ],
      [
        "bwedda",
        -9.698887966371332
      ],
      [
        "▁Among",
        -9.69986375308964
      ],
      [
        "▁byali",
        -9.69995314941469
      ],
      [
        "ji",
        -9.701044111222163
      ],
      [
        "▁kkampeyini",
        -9.701525518070937
      ],
      [
        "▁Uhuru",
        -9.70152551823358
      ],
      [
        "▁Hospital",
        -9.701525518408836
      ],
      [
        "▁Council",
        -9.701525529287583
      ],
      [
        "▁kyekubiira",
        -9.701525539100626
      ],
      [
        "▁Kiryowa",
        -9.70152554897065
      ],
      [
        "▁Andrew",
        -9.70152555733449
      ],
      [
        "▁Olwaleero",
        -9.701525755182395
      ],
      [
        "▁Namayanja",
        -9.701526120845605
      ],
      [
        "▁Mbarara",
        -9.70152679152645
      ],
      [
        "▁okwetolo",
        -9.701528815103517
      ],
      [
        "▁Ggoo",
        -9.701530103214612
      ],
      [
        "▁Musoke",
        -9.701532638581828
      ],
      [
        "tutte",
        -9.701573185903458
      ],
      [
        "▁eby’obufuzi",
        -9.701575747944396
      ],
      [
        "▁obulemu",
        -9.701598752819436
      ],
      [
        "▁Life",
        -9.70159915771374
      ],
      [
        "▁Ndagala",
        -9.701638999452436
      ],
      [
        "▁Kira",
        -9.701695535441132
      ],
      [
        "▁yeeyamye",
        -9.701760721378225
      ],
      [
        "▁Oluwalo",
        -9.701992629427302
      ],
      [
        "▁Joy",
        -9.702270302643713
      ],
      [
        "▁Act",
        -9.702426784578751
      ],
      [
        "taase",
        -9.702512837165559
      ],
      [
        "▁bujulizi",
        -9.702727874876256
      ],
      [
        "▁gaabwe",
        -9.7028697888547
      ],
      [
        "▁Amongi",
        -9.703193102274684
      ],
      [
        "▁okut",
        -9.70351434267705
      ],
      [
        "▁eky’okulabirako",
        -9.703568834259535
      ],
      [
        "▁n’olwekyo",
        -9.70394474271305
      ],
      [
        "▁ng’omuntu",
        -9.70407864777983
      ],
      [
        "▁butale",
        -9.704330246638126
      ],
      [
        "▁n’abamu",
        -9.704447493434294
      ],
      [
        "okusoomoozebwa",
        -9.704482610199172
      ],
      [
        "yongeddeko",
        -9.704534194126234
      ],
      [
        "▁buvunaanyizibwa",
        -9.70480438611547
      ],
      [
        "▁egy",
        -9.70535436411659
      ],
      [
        "▁ebirowoozo",
        -9.706040520043437
      ],
      [
        "yitiridde",
        -9.706115212969541
      ],
      [
        "ells",
        -9.706280168157852
      ],
      [
        "▁bakkansala",
        -9.70632874248225
      ],
      [
        "▁yekka",
        -9.70655302945054
      ],
      [
        "▁Ebola",
        -9.70673435038753
      ],
      [
        "▁obuggya",
        -9.7069880423633
      ],
      [
        "▁okwagala",
        -9.708983727262734
      ],
      [
        "eggombolola",
        -9.709577102404921
      ],
      [
        "ah",
        -9.710999387566044
      ],
      [
        "▁waaku",
        -9.711225602601266
      ],
      [
        "▁obwe",
        -9.711345736390403
      ],
      [
        "kampu",
        -9.711388769797507
      ],
      [
        "▁kiraga",
        -9.711391733063499
      ],
      [
        "▁ntebe",
        -9.71251284436671
      ],
      [
        "▁embi",
        -9.712675318345841
      ],
      [
        "▁basatu",
        -9.71316460100382
      ],
      [
        "▁bwavu.",
        -9.713413761327988
      ],
      [
        "▁okubangul",
        -9.713814121888236
      ],
      [
        "▁abaabadde",
        -9.713967176566783
      ],
      [
        "malidde",
        -9.714041250045817
      ],
      [
        "▁omutimbagano",
        -9.714445373807338
      ],
      [
        "▁n’obukadde",
        -9.71476277129974
      ],
      [
        "▁ebirala.",
        -9.716515058484164
      ],
      [
        "▁abi",
        -9.716592229883778
      ],
      [
        "▁mukyala",
        -9.716743000589172
      ],
      [
        "▁kikopo",
        -9.716773452974374
      ],
      [
        "zzi",
        -9.71688356375997
      ],
      [
        "▁okuggulawo",
        -9.717192098268088
      ],
      [
        "sula",
        -9.718002539447216
      ],
      [
        "▁ddoo",
        -9.718510364519005
      ],
      [
        "▁n’ebyo",
        -9.719164581343051
      ],
      [
        "▁n’eki",
        -9.719433635658755
      ],
      [
        "▁akabon",
        -9.719830254439946
      ],
      [
        "’akakiiko",
        -9.721777185138176
      ],
      [
        "▁omulamb",
        -9.721781398241133
      ],
      [
        "▁Eya",
        -9.722167623260473
      ],
      [
        "▁olwoku",
        -9.722727350989468
      ],
      [
        "maliriz",
        -9.72390880031758
      ],
      [
        "amateeka",
        -9.724133049587378
      ],
      [
        "biragiro",
        -9.72434874273278
      ],
      [
        "rabira",
        -9.724872877329986
      ],
      [
        "▁bava",
        -9.725051508808779
      ],
      [
        "▁ng’eki",
        -9.725999710523778
      ],
      [
        "▁24",
        -9.726500409548501
      ],
      [
        "▁abakola",
        -9.728005426670356
      ],
      [
        "sanyu",
        -9.728492943344216
      ],
      [
        "▁kikulu",
        -9.728551116625038
      ],
      [
        "sobozese",
        -9.729247288300435
      ],
      [
        "▁amasomero",
        -9.730117744352789
      ],
      [
        "▁U",
        -9.731179503971983
      ],
      [
        "▁bwabwe.",
        -9.731834281793242
      ],
      [
        "bakutte",
        -9.732824797923483
      ],
      [
        "▁ebyenjawulo.",
        -9.73342855655709
      ],
      [
        "mazima",
        -9.73375261872985
      ],
      [
        "▁afunye",
        -9.735106711866248
      ],
      [
        "▁obwo",
        -9.736468407410479
      ],
      [
        "▁ezo",
        -9.73715920285159
      ],
      [
        "▁Mo",
        -9.737546514050706
      ],
      [
        "soboka",
        -9.737933952396638
      ],
      [
        "▁mubaka",
        -9.738212265763583
      ],
      [
        "yalaze",
        -9.739074687005068
      ],
      [
        "▁mateeka.",
        -9.73918359185781
      ],
      [
        "kebe",
        -9.739632357609436
      ],
      [
        "▁kuva",
        -9.740478106274288
      ],
      [
        "▁Tanzania",
        -9.741799304474952
      ],
      [
        "funira",
        -9.74188930954187
      ],
      [
        "abawagizi",
        -9.74459546398177
      ],
      [
        "▁k’ebyokulonda,",
        -9.744757998501068
      ],
      [
        "sizza",
        -9.745518973913278
      ],
      [
        "tongole",
        -9.74607532770994
      ],
      [
        "igi",
        -9.746925161770958
      ],
      [
        "▁bwenkanya",
        -9.747031553734546
      ],
      [
        "eredde",
        -9.751151474610054
      ],
      [
        "▁zaaku",
        -9.751762581703554
      ],
      [
        "labudde",
        -9.75273948942083
      ],
      [
        "▁Nu",
        -9.753425863311797
      ],
      [
        "teekamu",
        -9.755427638553474
      ],
      [
        "tegeera",
        -9.755704987381236
      ],
      [
        "kubira",
        -9.757013572814943
      ],
      [
        "ngako",
        -9.757082779544227
      ],
      [
        "rowoozo",
        -9.759287887764856
      ],
      [
        "saana",
        -9.759287919892646
      ],
      [
        "kulembedde",
        -9.759674297915478
      ],
      [
        "▁100.",
        -9.759890497408025
      ],
      [
        "fiiridde",
        -9.760107746651371
      ],
      [
        "▁yategeezezza.",
        -9.762300474498963
      ],
      [
        "yonjo",
        -9.762502650805118
      ],
      [
        "obert",
        -9.763692418212083
      ],
      [
        "AC",
        -9.763971244682713
      ],
      [
        "▁UMEME",
        -9.764025518070744
      ],
      [
        "▁Association",
        -9.764025518070746
      ],
      [
        "▁Commission",
        -9.764025518202768
      ],
      [
        "▁obukookolo",
        -9.764025518616918
      ],
      [
        "▁kkanso",
        -9.76402553527058
      ],
      [
        "▁ensukkulumu",
        -9.764025774276547
      ],
      [
        "▁Nsereko",
        -9.764025793905564
      ],
      [
        "▁July",
        -9.764025801724651
      ],
      [
        "▁Mirembe",
        -9.764025850600884
      ],
      [
        "▁Kisakye",
        -9.764026413561032
      ],
      [
        "langirirwa",
        -9.76402654930104
      ],
      [
        "tegekera",
        -9.764026814564096
      ],
      [
        "dduukirir",
        -9.76402891685202
      ],
      [
        "▁Rwanda",
        -9.764031141575652
      ],
      [
        "▁Sodo",
        -9.76403200508118
      ],
      [
        "akamalirizo",
        -9.764032825971029
      ],
      [
        "▁Kasese",
        -9.764033115347562
      ],
      [
        "▁Luutu",
        -9.76403393260182
      ],
      [
        "sookerwako",
        -9.764034420697595
      ],
      [
        "▁Mulago",
        -9.764046138750166
      ],
      [
        "▁amaaso",
        -9.764062116440918
      ],
      [
        "▁eby’okwerinda",
        -9.764091974703557
      ],
      [
        "▁ssabb",
        -9.764200304653091
      ],
      [
        "▁Congo",
        -9.764246474262828
      ],
      [
        "▁ssatu",
        -9.764260923581421
      ],
      [
        "▁obwenjawulo",
        -9.764262399529859
      ],
      [
        "▁omwenge",
        -9.764314384067568
      ],
      [
        "▁ggwe",
        -9.764329963622227
      ],
      [
        "▁Kamisona",
        -9.764392753813398
      ],
      [
        "▁konna",
        -9.764498707548162
      ],
      [
        "▁z’Obwakabaka",
        -9.764586490061557
      ],
      [
        "▁bweyategeezezza",
        -9.764620277849254
      ],
      [
        "▁z’amasaza",
        -9.764864248749307
      ],
      [
        "▁mingi",
        -9.76497306777087
      ],
      [
        "▁Nayikondo",
        -9.765151704974093
      ],
      [
        "▁bw’ensi",
        -9.765179717664855
      ],
      [
        "tegesi",
        -9.76545007870984
      ],
      [
        "tendeka",
        -9.765467950675792
      ],
      [
        "▁Wamala",
        -9.765506762445327
      ],
      [
        "▁Nabil",
        -9.765539705185105
      ],
      [
        "▁Red",
        -9.765700710424131
      ],
      [
        "eeso",
        -9.765743660347576
      ],
      [
        "fuula",
        -9.766781643411441
      ],
      [
        "komya",
        -9.767292524344716
      ],
      [
        "▁29",
        -9.767354032450559
      ],
      [
        "buulir",
        -9.767864078189199
      ],
      [
        "▁butaka",
        -9.768079344135225
      ],
      [
        "▁abasibe",
        -9.768130237597068
      ],
      [
        "▁tekinologiya",
        -9.769094949904837
      ],
      [
        "mbula",
        -9.76967576748535
      ],
      [
        "▁ndwadde",
        -9.769991713990212
      ],
      [
        "alina",
        -9.77061850127837
      ],
      [
        "▁luguudo",
        -9.771109406565568
      ],
      [
        "▁gavumenti,",
        -9.771200683429736
      ],
      [
        "beerawo",
        -9.771211702995371
      ],
      [
        "▁okutwal",
        -9.771843828168663
      ],
      [
        "▁Fa",
        -9.773139836257927
      ],
      [
        "it",
        -9.775889540860566
      ],
      [
        "▁okufulumya",
        -9.77593831917219
      ],
      [
        "yimbulwa",
        -9.775974145217189
      ],
      [
        "▁munnamateeka",
        -9.777245944130906
      ],
      [
        "taddeko",
        -9.77809359603958
      ],
      [
        "▁Emmwaanyi",
        -9.779236236590204
      ],
      [
        "▁Lt.",
        -9.779820621153757
      ],
      [
        "noonyeza",
        -9.779876308218967
      ],
      [
        "edde",
        -9.780013751226548
      ],
      [
        "siba",
        -9.780211969959868
      ],
      [
        "▁kika",
        -9.780828808197164
      ],
      [
        "▁baweze",
        -9.780838263020467
      ],
      [
        "▁mawulire",
        -9.782172519766899
      ],
      [
        "ver",
        -9.785406314827098
      ],
      [
        "’amawanga",
        -9.785473542274593
      ],
      [
        "bakkiriza",
        -9.785513989727889
      ],
      [
        "▁ng’ali",
        -9.786367550899552
      ],
      [
        "▁kudda",
        -9.787076812728742
      ],
      [
        "gatte",
        -9.787605297009396
      ],
      [
        "▁buta",
        -9.787625727136367
      ],
      [
        "▁okugoberera",
        -9.787954735245014
      ],
      [
        "okwekulaakulanya",
        -9.788517029056182
      ],
      [
        "▁n’emi",
        -9.788822948093436
      ],
      [
        "okukung’aanya",
        -9.789124670323979
      ],
      [
        "ulira",
        -9.789617303558973
      ],
      [
        "▁agi",
        -9.790372176120158
      ],
      [
        "▁fam",
        -9.790796296760469
      ],
      [
        "tuukirira",
        -9.7911651577603
      ],
      [
        "abakyala",
        -9.791565026147197
      ],
      [
        "emikono",
        -9.792413201208898
      ],
      [
        "alim",
        -9.792848522163656
      ],
      [
        "▁tegu",
        -9.793311960076679
      ],
      [
        "▁ebyali",
        -9.793319836221547
      ],
      [
        "▁tewa",
        -9.7938012177339
      ],
      [
        "▁Col",
        -9.794891731857886
      ],
      [
        "▁abalonde",
        -9.794905110125729
      ],
      [
        "nywa",
        -9.796226192325648
      ],
      [
        "fuu",
        -9.796862250949872
      ],
      [
        "▁Eng",
        -9.798171573909048
      ],
      [
        "▁ez’oku",
        -9.798650013458142
      ],
      [
        "atikk",
        -9.798818199641271
      ],
      [
        "twalira",
        -9.799026857524499
      ],
      [
        "▁ebyava",
        -9.799187490096983
      ],
      [
        "abeera",
        -9.800394752193359
      ],
      [
        "▁Sseg",
        -9.801066378477072
      ],
      [
        "▁abato",
        -9.801414439517742
      ],
      [
        "▁babu",
        -9.80151270776489
      ],
      [
        "▁May",
        -9.802674970239858
      ],
      [
        "▁bak",
        -9.803129114751924
      ],
      [
        "twale",
        -9.80387861442933
      ],
      [
        "▁mukisa",
        -9.804488117437948
      ],
      [
        "gattira",
        -9.804555148971282
      ],
      [
        "▁ey",
        -9.804811971367144
      ],
      [
        "ogerwako",
        -9.805610107200796
      ],
      [
        "▁yaki",
        -9.806299731563138
      ],
      [
        "situl",
        -9.806372984364101
      ],
      [
        "▁kutandika",
        -9.806546928683519
      ],
      [
        "▁eriri",
        -9.80732169043267
      ],
      [
        "yambye",
        -9.807669129484761
      ],
      [
        "▁mulala",
        -9.80776142624552
      ],
      [
        "▁2020.",
        -9.808005082169696
      ],
      [
        "kuumir",
        -9.808264363668018
      ],
      [
        "▁ekika",
        -9.80861418324052
      ],
      [
        "▁bakole",
        -9.809402037055168
      ],
      [
        "▁kusaba",
        -9.814624379685283
      ],
      [
        "bawangaalira",
        -9.815207371033539
      ],
      [
        "benje",
        -9.815415612033581
      ],
      [
        "layi",
        -9.816480137524273
      ],
      [
        "▁okukoma",
        -9.816632806756523
      ],
      [
        "▁mukutu",
        -9.816874528678706
      ],
      [
        "▁atu",
        -9.817150928223144
      ],
      [
        "ondo",
        -9.81725286104037
      ],
      [
        "▁yokka",
        -9.81931983203419
      ],
      [
        "▁Kit",
        -9.819678992007148
      ],
      [
        "▁bwavu",
        -9.821187380835955
      ],
      [
        "nnabyabufuzi",
        -9.821568593268754
      ],
      [
        "ch",
        -9.823891744176434
      ],
      [
        "lf",
        -9.826550449098992
      ],
      [
        "zimbibwa",
        -9.826744181171524
      ],
      [
        "▁awaka",
        -9.827049789418492
      ],
      [
        "▁bakomye",
        -9.828058215772083
      ],
      [
        "▁okugatta",
        -9.828403950230284
      ],
      [
        "▁batandika",
        -9.828684828999378
      ],
      [
        "amasasi",
        -9.828876820931974
      ],
      [
        "▁erimu",
        -9.829086450214703
      ],
      [
        "ent",
        -9.829448251429673
      ],
      [
        "▁abalamu",
        -9.829633748787275
      ],
      [
        ":",
        -9.830683286016448
      ],
      [
        "▁ez’olweggulo",
        -9.830692184755353
      ],
      [
        "▁Anthony",
        -9.830692184810097
      ],
      [
        "▁Central",
        -9.830692184871046
      ],
      [
        "▁Coronavirus",
        -9.830692185003056
      ],
      [
        "▁Bukomansimbi",
        -9.830692185039034
      ],
      [
        "▁Kabuleta",
        -9.830692194449679
      ],
      [
        "▁Kololo",
        -9.830692200470748
      ],
      [
        "▁League",
        -9.83069221969428
      ],
      [
        "▁Hassan",
        -9.830692228934353
      ],
      [
        "▁Bulaaya",
        -9.83069225199422
      ],
      [
        "▁Butambala",
        -9.83069226550733
      ],
      [
        "▁Novemba",
        -9.830692270088052
      ],
      [
        "▁Siriimu",
        -9.830692316359247
      ],
      [
        "njawukana",
        -9.830692352918764
      ],
      [
        "▁Masengere",
        -9.830692425090229
      ],
      [
        "▁ekisaawe",
        -9.830692540236313
      ],
      [
        "▁leediyo",
        -9.830693949938993
      ],
      [
        "▁omuggalo",
        -9.830694489092714
      ],
      [
        "▁2017",
        -9.830695288630102
      ],
      [
        "▁ekyokubiri",
        -9.830695441682773
      ],
      [
        "▁Luwalira",
        -9.830695540464045
      ],
      [
        "▁ensobi",
        -9.830700835353973
      ],
      [
        "▁zzaabu",
        -9.830710890192682
      ],
      [
        "gumya",
        -9.830726858907052
      ],
      [
        "▁Mpanga",
        -9.830734364956548
      ],
      [
        "▁zombi",
        -9.830808650970818
      ],
      [
        "▁wabweru",
        -9.830842399803178
      ],
      [
        "▁Kabineeti",
        -9.830947963480387
      ],
      [
        "fulumizza",
        -9.830962467104401
      ],
      [
        "▁obutali",
        -9.831067694836989
      ],
      [
        "▁ly’emirimu",
        -9.831070951167327
      ],
      [
        "▁w’Olukiiko",
        -9.8311106578456
      ],
      [
        "zukulu",
        -9.83111262281839
      ],
      [
        "▁ekitees",
        -9.831176301041488
      ],
      [
        "▁egiyise",
        -9.831315024718037
      ],
      [
        "▁Land",
        -9.83132884676391
      ],
      [
        "vumirira",
        -9.831707282342528
      ],
      [
        "jingirira",
        -9.831749123999781
      ],
      [
        "▁Eggulo",
        -9.831927246698239
      ],
      [
        "▁Br",
        -9.831957985010153
      ],
      [
        "▁22",
        -9.8321470857687
      ],
      [
        "layira",
        -9.832189886710319
      ],
      [
        "sigaza",
        -9.832566883994357
      ],
      [
        "ganyula",
        -9.832971070677026
      ],
      [
        "▁lw’okulonda",
        -9.833260604701705
      ],
      [
        "rian",
        -9.833289076597586
      ],
      [
        "▁ebirayiro",
        -9.833727735420876
      ],
      [
        "▁kakalu",
        -9.833954727744537
      ],
      [
        "▁essomero",
        -9.834401235718374
      ],
      [
        "▁n’ekitundu",
        -9.835066406798251
      ],
      [
        "▁abasuubuzi",
        -9.835243541775629
      ],
      [
        "▁ekirala",
        -9.835366008760102
      ],
      [
        "ard",
        -9.835480943834202
      ],
      [
        "▁naffe",
        -9.83567672346077
      ],
      [
        "sindikibw",
        -9.836248609700803
      ],
      [
        "▁obuweerez",
        -9.836645649298095
      ],
      [
        "▁bakimany",
        -9.83671220117229
      ],
      [
        "▁yalabudde",
        -9.836976811599154
      ],
      [
        "▁entebe",
        -9.837347638426849
      ],
      [
        "boodi",
        -9.837874103041232
      ],
      [
        "tuuze",
        -9.838841145207283
      ],
      [
        "▁asuubizza",
        -9.839362044823634
      ],
      [
        "▁lwabwe",
        -9.84008165873794
      ],
      [
        "▁Asooka",
        -9.840144882990618
      ],
      [
        "▁okwo",
        -9.840339884878135
      ],
      [
        "▁yagamba",
        -9.840451929936691
      ],
      [
        "ekigendererwa",
        -9.8405702846852
      ],
      [
        "iridde",
        -9.841713167937366
      ],
      [
        "lambudde",
        -9.842232083596388
      ],
      [
        "▁ebikozesebwa",
        -9.842268978070186
      ],
      [
        "▁waffe",
        -9.842882883883693
      ],
      [
        "kulembez",
        -9.843508469856243
      ],
      [
        "kiro",
        -9.844350375944018
      ],
      [
        "tund",
        -9.844440610999527
      ],
      [
        "▁lw",
        -9.845436583503766
      ],
      [
        "zaako",
        -9.846389437459727
      ],
      [
        "▁yaffe",
        -9.847171329145716
      ],
      [
        "▁ezaali",
        -9.84724627613016
      ],
      [
        "tera",
        -9.847675831737302
      ],
      [
        "▁eye",
        -9.84824178652925
      ],
      [
        "eyambis",
        -9.848891846454212
      ],
      [
        "ayi",
        -9.849689300274964
      ],
      [
        "’eddagala",
        -9.849848174136191
      ],
      [
        "wetaaga",
        -9.850630499595683
      ],
      [
        "funamu",
        -9.85133326636273
      ],
      [
        "▁Je",
        -9.851438902373651
      ],
      [
        "▁sse",
        -9.851940562535821
      ],
      [
        "▁3,",
        -9.852876992072082
      ],
      [
        "▁n’Omu",
        -9.852986576642568
      ],
      [
        "lah",
        -9.852995504033327
      ],
      [
        "mbye",
        -9.853149842822084
      ],
      [
        "▁Ssekaba",
        -9.853547256030891
      ],
      [
        "▁Kato",
        -9.853565994330467
      ],
      [
        "amasomero",
        -9.854086624998898
      ],
      [
        "kati",
        -9.854465630545356
      ],
      [
        "tonda",
        -9.854900415895232
      ],
      [
        "wandiikira",
        -9.855707275738427
      ],
      [
        "▁kuyamba",
        -9.856553807316729
      ],
      [
        "▁ez",
        -9.857879301795627
      ],
      [
        "▁n’asuubiz",
        -9.859084371749425
      ],
      [
        "▁bwali",
        -9.860609581521391
      ],
      [
        "zimbir",
        -9.860759185118058
      ],
      [
        "▁yafa",
        -9.86080698680595
      ],
      [
        "▁z’omwe",
        -9.861387094076017
      ],
      [
        "misa",
        -9.861746302407113
      ],
      [
        "kambwe",
        -9.861956131624444
      ],
      [
        "▁teb",
        -9.862204902659645
      ],
      [
        "▁olw’en",
        -9.864002002865472
      ],
      [
        "beesimbyewo",
        -9.866095429817603
      ],
      [
        "yisibw",
        -9.866217019476824
      ],
      [
        "▁okukunga",
        -9.866378879989076
      ],
      [
        "▁y’en",
        -9.867449522476033
      ],
      [
        "▁n’emit",
        -9.868021872090534
      ],
      [
        "saanye",
        -9.8688698178939
      ],
      [
        "▁kisanja",
        -9.86919580877299
      ],
      [
        "ebyafaayo",
        -9.869948056993435
      ],
      [
        "izibwa",
        -9.870233239063666
      ],
      [
        "abiddwako",
        -9.872170297263485
      ],
      [
        "▁okusala",
        -9.872202192201492
      ],
      [
        "▁akya",
        -9.872202268254624
      ],
      [
        "G",
        -9.872347185876201
      ],
      [
        "ist",
        -9.872412989751087
      ],
      [
        "Nation",
        -9.87256981178367
      ],
      [
        "▁bandi",
        -9.873313711143071
      ],
      [
        "maliri",
        -9.874490685691352
      ],
      [
        "▁Ca",
        -9.87463330126454
      ],
      [
        "sosola",
        -9.877340949907243
      ],
      [
        "▁1,",
        -9.87781979580347
      ],
      [
        "▁w’o",
        -9.878043506610753
      ],
      [
        "▁yabwe",
        -9.878078059051418
      ],
      [
        "lumiziddwa",
        -9.87918563206837
      ],
      [
        "langi",
        -9.879588304440873
      ],
      [
        "yigiriz",
        -9.879872037394923
      ],
      [
        "▁yaka",
        -9.881859182263671
      ],
      [
        "▁Ro",
        -9.882558426171993
      ],
      [
        "▁ezitali",
        -9.882790809214285
      ],
      [
        "sika",
        -9.8828846149078
      ],
      [
        "kuume",
        -9.884200142234222
      ],
      [
        "▁gwali",
        -9.884528587816009
      ],
      [
        "▁ensala",
        -9.884635386894752
      ],
      [
        "▁ddu",
        -9.885791968140996
      ],
      [
        "usi",
        -9.88595739875202
      ],
      [
        "yitamu",
        -9.88650158533081
      ],
      [
        "nnyo",
        -9.886956935927387
      ],
      [
        "▁abava",
        -9.887306188020135
      ],
      [
        "mmere",
        -9.888177185253149
      ],
      [
        "ph",
        -9.888943079187
      ],
      [
        "sente",
        -9.888947950833703
      ],
      [
        "kidde",
        -9.889934175231694
      ],
      [
        "▁Bak",
        -9.89041248272569
      ],
      [
        "ine",
        -9.890612922071089
      ],
      [
        "nes",
        -9.891797787469267
      ],
      [
        "biseera",
        -9.89282164827259
      ],
      [
        "▁enzi",
        -9.893413054978621
      ],
      [
        "▁199",
        -9.897249383240323
      ],
      [
        "bikozesebwa",
        -9.897443721523034
      ],
      [
        "julizi",
        -9.898281595116455
      ],
      [
        "’ebyenjigiriza",
        -9.899711939601971
      ],
      [
        "riddwa",
        -9.899798092122378
      ],
      [
        "▁kubaawo",
        -9.900457822749969
      ],
      [
        "▁ez’enjawulo.",
        -9.900460488878249
      ],
      [
        "lood",
        -9.900485033181676
      ],
      [
        "tendesi",
        -9.90081911683205
      ],
      [
        "▁Dani",
        -9.900954731413567
      ],
      [
        "▁Bi",
        -9.901855944065625
      ],
      [
        "q",
        -9.902114830905756
      ],
      [
        "▁Rukungiri",
        -9.902120756187042
      ],
      [
        "teesiteesi",
        -9.902120756196481
      ],
      [
        "▁Kainerugaba",
        -9.902120756196492
      ],
      [
        "▁Julius",
        -9.902120769817913
      ],
      [
        "▁Ensukkulumu",
        -9.902120786445339
      ],
      [
        "▁Buikwe",
        -9.902121524928559
      ],
      [
        "▁Robina",
        -9.902122901035504
      ],
      [
        "▁Nansana",
        -9.90212378268149
      ],
      [
        "▁kwekalakaasa",
        -9.902124900653954
      ],
      [
        "▁lulwe",
        -9.902125949208328
      ],
      [
        "▁Lubega",
        -9.90212612916481
      ],
      [
        "gumizza",
        -9.90212726305597
      ],
      [
        "tegekebwa",
        -9.902127399548439
      ],
      [
        "ttiddwa",
        -9.902138024838052
      ],
      [
        "ruubirirwa",
        -9.902138262964442
      ],
      [
        "faanana",
        -9.90214002085131
      ],
      [
        "▁Mugalu",
        -9.902140264088015
      ],
      [
        "▁emirala",
        -9.902147938607634
      ],
      [
        "▁Ppaapa",
        -9.902151210682062
      ],
      [
        "kwasizaako",
        -9.902234680012544
      ],
      [
        "▁“Tetu",
        -9.902238752471225
      ],
      [
        "▁Abdul",
        -9.902270304350075
      ],
      [
        "▁March",
        -9.902298451749196
      ],
      [
        "▁IV",
        -9.902311902673066
      ],
      [
        "▁mutima",
        -9.902315551743598
      ],
      [
        "ddirira",
        -9.902378885943907
      ],
      [
        "▁ettaano",
        -9.90239091835015
      ],
      [
        "▁ennim",
        -9.902504456030332
      ],
      [
        "ggulwa",
        -9.902525644757468
      ],
      [
        "▁omusaala",
        -9.902597127092303
      ],
      [
        "▁y’amagye",
        -9.902982973637307
      ],
      [
        "▁oluwaabi",
        -9.903076400035417
      ],
      [
        "▁Abavubuka",
        -9.903122495101686
      ],
      [
        "▁Wasajja",
        -9.90322890366991
      ],
      [
        "▁amafuta",
        -9.903462094078034
      ],
      [
        "▁by’abantu",
        -9.903788184299787
      ],
      [
        "▁butongole",
        -9.903847527053234
      ],
      [
        "▁Luwag",
        -9.903899259143058
      ],
      [
        "lwanagana",
        -9.90395258349639
      ],
      [
        "gir",
        -9.90400322232237
      ],
      [
        "▁okwambala",
        -9.904276111944622
      ],
      [
        "ech",
        -9.904589376704333
      ],
      [
        "▁Ng’",
        -9.905452445313767
      ],
      [
        "▁June",
        -9.905663894359582
      ],
      [
        "▁tebamanyi",
        -9.905725490703805
      ],
      [
        "▁entambula",
        -9.906217611555627
      ],
      [
        "▁abajaasi",
        -9.906359787661113
      ],
      [
        "▁amannya",
        -9.906890502559905
      ],
      [
        "jjukiz",
        -9.90801120839345
      ],
      [
        "▁bukya",
        -9.908229297081657
      ],
      [
        "taaga",
        -9.908929389799326
      ],
      [
        "balamuzi",
        -9.909392879706083
      ],
      [
        "ogere",
        -9.90942409092708
      ],
      [
        "imu",
        -9.909754708658786
      ],
      [
        "izi",
        -9.909794694399944
      ],
      [
        "▁okuziyiza",
        -9.910429645449561
      ],
      [
        "wanguzi",
        -9.910455093093002
      ],
      [
        "▁biri",
        -9.910725430082548
      ],
      [
        "▁kwali",
        -9.911303508118513
      ],
      [
        "▁Bank",
        -9.911317205058559
      ],
      [
        "▁okulayira",
        -9.911472754023938
      ],
      [
        "▁essimu",
        -9.911600533182867
      ],
      [
        "▁eg",
        -9.912542393461493
      ],
      [
        "raga",
        -9.91319158826316
      ],
      [
        "▁n’okumu",
        -9.91321928090551
      ],
      [
        "talina",
        -9.913831385658423
      ],
      [
        "▁Jess",
        -9.914764659108767
      ],
      [
        "▁olugend",
        -9.914969608330319
      ],
      [
        "▁w’E",
        -9.915106949709637
      ],
      [
        "▁waka",
        -9.915192299602849
      ],
      [
        "▁gw’aba",
        -9.915249313361095
      ],
      [
        "▁balimi",
        -9.915331130775211
      ],
      [
        "▁obulimi",
        -9.916468765057115
      ],
      [
        "▁okutongoz",
        -9.916933142642202
      ],
      [
        "▁as",
        -9.917253544655699
      ],
      [
        "▁Buli",
        -9.917722161621946
      ],
      [
        "▁okuwulira",
        -9.917775647729528
      ],
      [
        "▁mut",
        -9.918683932699242
      ],
      [
        "ggombolola",
        -9.91905363478616
      ],
      [
        "atabuki",
        -9.921161477821105
      ],
      [
        "unyisa",
        -9.921667399856238
      ],
      [
        "▁afudde",
        -9.922035455790366
      ],
      [
        "▁kano,",
        -9.924292708197102
      ],
      [
        "▁Bw’at",
        -9.925004723184257
      ],
      [
        "omukaaga",
        -9.92537312315018
      ],
      [
        "▁abapya",
        -9.925523561361882
      ],
      [
        "▁awo",
        -9.926396944428886
      ],
      [
        "CO",
        -9.927256733778716
      ],
      [
        "▁abakolera",
        -9.927536409322354
      ],
      [
        "apt",
        -9.927586457474817
      ],
      [
        "bawadde",
        -9.92907182558524
      ],
      [
        "byalo",
        -9.93016845165825
      ],
      [
        "gulu",
        -9.9310368122856
      ],
      [
        "▁kyo",
        -9.931208259847228
      ],
      [
        "ayansi",
        -9.931665057648946
      ],
      [
        "kamala",
        -9.931972180404397
      ],
      [
        "ssimu",
        -9.932273447574868
      ],
      [
        "salira",
        -9.93396441637656
      ],
      [
        "▁beesimbyewo",
        -9.934141289408398
      ],
      [
        "0.",
        -9.934881331818461
      ],
      [
        "ekuusa",
        -9.935833905982207
      ],
      [
        "basiraamu",
        -9.936310640916759
      ],
      [
        "ir",
        -9.936759538573687
      ],
      [
        "▁okukeber",
        -9.937540676831247
      ],
      [
        "▁bwetu",
        -9.937696826934054
      ],
      [
        "▁Man",
        -9.937753483501812
      ],
      [
        "▁okw",
        -9.938170968233312
      ],
      [
        "▁zaabwe.",
        -9.938632710670005
      ],
      [
        "▁yakola",
        -9.939369654573436
      ],
      [
        "abu",
        -9.939517924905962
      ],
      [
        "komawo",
        -9.940735744741993
      ],
      [
        "ewali",
        -9.940939694860344
      ],
      [
        "koler",
        -9.940964436706828
      ],
      [
        "sisinkanye",
        -9.941671854724978
      ],
      [
        "▁baaki",
        -9.942339407048497
      ],
      [
        "bayamba",
        -9.943308671962239
      ],
      [
        "▁ekigendererwa",
        -9.943400536774984
      ],
      [
        "ago",
        -9.944730556455205
      ],
      [
        "▁Nn",
        -9.94490300247999
      ],
      [
        "ganye",
        -9.945039851375011
      ],
      [
        "▁kwe,",
        -9.945759358607647
      ],
      [
        "nyweza",
        -9.945885946998668
      ],
      [
        "▁namu",
        -9.946172628679271
      ],
      [
        "guze",
        -9.947027154705978
      ],
      [
        "▁wee",
        -9.9491440942693
      ],
      [
        "▁Di",
        -9.949452623635072
      ],
      [
        "somese",
        -9.950182577739689
      ],
      [
        "aganya",
        -9.951891116329803
      ],
      [
        "nguzi",
        -9.952340025449633
      ],
      [
        "nnyi",
        -9.952629655237299
      ],
      [
        "▁Ni",
        -9.952688289109421
      ],
      [
        "▁kisoboka",
        -9.954395266788602
      ],
      [
        "kenya",
        -9.954438308143242
      ],
      [
        "kulisitaayo",
        -9.954563316351482
      ],
      [
        "▁bw’oku",
        -9.955891880921282
      ],
      [
        "▁Twa",
        -9.95591989716506
      ],
      [
        "seeko",
        -9.957209681948326
      ],
      [
        "▁mbi",
        -9.957747436746981
      ],
      [
        "kosa",
        -9.959961398338518
      ],
      [
        "etaaga",
        -9.960389236143163
      ],
      [
        "mwaka",
        -9.961143311749026
      ],
      [
        "▁Em",
        -9.962246508900394
      ],
      [
        "omutindo",
        -9.962922081936721
      ],
      [
        "mulemesa",
        -9.964231483758997
      ],
      [
        "tambu",
        -9.966467645546317
      ],
      [
        "▁temu",
        -9.9665451207873
      ],
      [
        "▁2,",
        -9.96706708927424
      ],
      [
        "ers",
        -9.968273570406438
      ],
      [
        "bweggasi",
        -9.969892790368512
      ],
      [
        "tema",
        -9.970477568664109
      ],
      [
        "bibuga",
        -9.970805877232204
      ],
      [
        "suubuzi",
        -9.970867683950962
      ],
      [
        "kung’aana",
        -9.971181465614105
      ],
      [
        "siiba",
        -9.971717088896279
      ],
      [
        "kono",
        -9.971841089750479
      ],
      [
        "▁Kal",
        -9.972284705088295
      ],
      [
        "▁bwebaba",
        -9.972385115463334
      ],
      [
        "▁olw’okwe",
        -9.972984008562912
      ],
      [
        "makubo",
        -9.973965571560116
      ],
      [
        "lipoota",
        -9.974041117496744
      ],
      [
        "ongera",
        -9.974297679672
      ],
      [
        "▁okujjanjab",
        -9.974349941777097
      ],
      [
        "kiriza",
        -9.974382506742124
      ],
      [
        "awul",
        -9.974468724119848
      ],
      [
        "▁Kaf",
        -9.975014584746859
      ],
      [
        "mannya",
        -9.97509484782785
      ],
      [
        "ziyiza",
        -9.975370899003938
      ],
      [
        "kiikiridde",
        -9.975731463773196
      ],
      [
        "▁kibadde",
        -9.976014114192056
      ],
      [
        "dduka",
        -9.976068769706972
      ],
      [
        "▁Syl",
        -9.976384007857327
      ],
      [
        "▁liri",
        -9.976473518380278
      ],
      [
        "kwatidd",
        -9.977252363406944
      ],
      [
        "▁Ti",
        -9.978962065164442
      ],
      [
        "▁“Si",
        -9.979036464953762
      ],
      [
        "]",
        -9.97904383308913
      ],
      [
        "▁Zziwa",
        -9.979043833089243
      ],
      [
        "▁Najjanankumbi",
        -9.979043833177435
      ],
      [
        "▁Sseggirinya",
        -9.97904383329223
      ],
      [
        "▁Covid-19",
        -9.97904383779002
      ],
      [
        "▁Dubai",
        -9.97904384307952
      ],
      [
        "▁[",
        -9.979043855562733
      ],
      [
        "▁URA",
        -9.979043877316267
      ],
      [
        "▁Mpalanyi",
        -9.979043897887959
      ],
      [
        "▁fayinolo",
        -9.979043946241838
      ],
      [
        "▁enkyukakyuka",
        -9.979044151558295
      ],
      [
        "▁Nakifuma",
        -9.979044933350801
      ],
      [
        "▁Kalungu",
        -9.9790450005334
      ],
      [
        "▁Ssewanyana",
        -9.979045145338599
      ],
      [
        "▁Kassanda",
        -9.979045414439828
      ],
      [
        "▁Kyotera",
        -9.979045678312396
      ],
      [
        "▁eby’emizannyo",
        -9.979046082464341
      ],
      [
        "▁masiki",
        -9.979046161630656
      ],
      [
        "▁alimanda",
        -9.979046206327885
      ],
      [
        "▁Munyagwa",
        -9.979046695797395
      ],
      [
        "▁Jjajja",
        -9.97904689166796
      ],
      [
        "gumbulula",
        -9.979047127433624
      ],
      [
        "▁Mulondo",
        -9.97904746530177
      ],
      [
        "▁eyawakati",
        -9.979048322753133
      ],
      [
        "▁Kitalya",
        -9.979049066301492
      ],
      [
        "▁mmita",
        -9.979050643969215
      ],
      [
        "orld",
        -9.979063260369854
      ],
      [
        "▁okubalibwa",
        -9.979074325572896
      ],
      [
        "tukuvu",
        -9.9791489790495
      ],
      [
        "▁Kaweesa",
        -9.979233613953342
      ],
      [
        "▁mpaaba",
        -9.97926850434158
      ],
      [
        "bisanja",
        -9.979271935775355
      ],
      [
        "▁kwesimbawo",
        -9.979347857784742
      ],
      [
        "▁olulimi",
        -9.979444139425528
      ],
      [
        "bategeeza",
        -9.979606092466543
      ],
      [
        "somera",
        -9.979776436085183
      ],
      [
        "▁Nagga",
        -9.979896113783196
      ],
      [
        "▁bannannyini",
        -9.979970327558934
      ],
      [
        "wereddwa",
        -9.979986321013195
      ],
      [
        "▁olukungaana",
        -9.979992396189052
      ],
      [
        "▁y’emirimu",
        -9.980113439905566
      ],
      [
        "▁eyaawakati",
        -9.980225998309628
      ],
      [
        "▁BUCADEF",
        -9.980450930497968
      ],
      [
        "▁Aga",
        -9.980494356409793
      ],
      [
        "▁nkulaakulana",
        -9.98053500642806
      ],
      [
        "▁Ex",
        -9.980602114963576
      ],
      [
        "▁Cy",
        -9.980616169617116
      ],
      [
        "nkana",
        -9.980961886310316
      ],
      [
        "▁ayogerer",
        -9.981057510804424
      ],
      [
        "▁buzibu",
        -9.981249624020705
      ],
      [
        "soomooza",
        -9.981898118714735
      ],
      [
        "okwongera",
        -9.982088718033705
      ],
      [
        "▁ky’abantu",
        -9.982218128907279
      ],
      [
        "▁lw’okumala",
        -9.9826705394381
      ],
      [
        "▁makaage",
        -9.98285457738631
      ],
      [
        "▁okwekebeza",
        -9.982960166375552
      ],
      [
        "▁90",
        -9.982980139406536
      ],
      [
        "est",
        -9.983087512304525
      ],
      [
        "nyonyodde",
        -9.983207293908999
      ],
      [
        "▁tebanna",
        -9.983458929842975
      ],
      [
        "tandikidde",
        -9.983550574610367
      ],
      [
        "nvu",
        -9.983803132885019
      ],
      [
        "▁Ntebe",
        -9.984011230068258
      ],
      [
        "▁balonde",
        -9.984934003452508
      ],
      [
        "20",
        -9.985681128459113
      ],
      [
        "onse",
        -9.986001276918367
      ],
      [
        "▁bukyamu",
        -9.986478475298519
      ],
      [
        "tandi",
        -9.986724435004083
      ],
      [
        "▁ebyemizannyo",
        -9.987502088686249
      ],
      [
        "▁tebakya",
        -9.988283421317938
      ],
      [
        "▁kirim",
        -9.98897333060318
      ],
      [
        "▁okunywa",
        -9.98933940571284
      ],
      [
        "poliisi",
        -9.98936733461652
      ],
      [
        "▁nna",
        -9.99006182635638
      ],
      [
        "▁munaana",
        -9.990077511737361
      ],
      [
        "▁baf",
        -9.990880577381397
      ],
      [
        "ld",
        -9.9908849884408
      ],
      [
        "logo",
        -9.990964522143546
      ],
      [
        "tegedde",
        -9.991060429530128
      ],
      [
        "▁masomero",
        -9.991514742473772
      ],
      [
        "▁Palamenti.",
        -9.991522940077664
      ],
      [
        "▁ekira",
        -9.992616323639918
      ],
      [
        "▁by’o",
        -9.993417610626551
      ],
      [
        "nnanyini",
        -9.993665833325412
      ],
      [
        "▁lw’o",
        -9.994453935100175
      ],
      [
        "▁Kas",
        -9.994944476815778
      ],
      [
        "▁Lwokuna.",
        -9.994958211100233
      ],
      [
        "▁weba",
        -9.994977499705527
      ],
      [
        "▁yavaa",
        -9.995043975141378
      ],
      [
        "nyo",
        -9.995142790238681
      ],
      [
        "▁ababa",
        -9.99534604593589
      ],
      [
        "▁abakwatibwa",
        -9.995509353997367
      ],
      [
        "▁Lwa",
        -9.995978350696461
      ],
      [
        "emidaali",
        -9.996458215551902
      ],
      [
        "y’okugaba",
        -9.99678257030885
      ],
      [
        "▁basawo",
        -9.996903462615688
      ],
      [
        "▁baz",
        -9.99692524605169
      ],
      [
        "▁tebali",
        -9.997002680095873
      ],
      [
        "▁Ssema",
        -9.997425640482387
      ],
      [
        "ande",
        -9.99808906321125
      ],
      [
        "kusa",
        -9.998634873278379
      ],
      [
        "▁okukwatagana",
        -9.9989901381246
      ],
      [
        "yingir",
        -9.999329716051516
      ],
      [
        "▁yalagira",
        -9.999658702250677
      ],
      [
        "▁Emmwanyi",
        -9.999840194652798
      ],
      [
        "mbogo",
        -10.000042196500262
      ],
      [
        "▁beewal",
        -10.000101865628695
      ],
      [
        "▁bbo",
        -10.000182836578837
      ],
      [
        "komyewo",
        -10.000393063734347
      ],
      [
        "▁egg",
        -10.000713252732115
      ],
      [
        "oj",
        -10.002228336451456
      ],
      [
        "zzaayo",
        -10.003696515850429
      ],
      [
        "▁Sen",
        -10.004426294351028
      ],
      [
        "▁n’afuna",
        -10.004865422659417
      ],
      [
        "▁“Bwe",
        -10.00580550542444
      ],
      [
        "▁Ed",
        -10.006605318331237
      ],
      [
        "▁yavudde",
        -10.006780188049905
      ],
      [
        "kulemberamu",
        -10.009489890248645
      ],
      [
        "ggyibwa",
        -10.009614726591806
      ],
      [
        "▁akubiriza",
        -10.010180165351173
      ],
      [
        "▁ekita",
        -10.011618282305058
      ],
      [
        "▁bamany",
        -10.013328361372178
      ],
      [
        "▁w’eki",
        -10.013670755464775
      ],
      [
        "H",
        -10.014840292485587
      ],
      [
        "bulwadde",
        -10.01541638863411
      ],
      [
        "▁okutta",
        -10.015510494273848
      ],
      [
        "meeya",
        -10.015637568225166
      ],
      [
        "▁70",
        -10.018837712485833
      ],
      [
        "wuka",
        -10.019016609739603
      ],
      [
        "sibe",
        -10.019248945305533
      ],
      [
        "kulonda",
        -10.020290100450378
      ],
      [
        "obulamu",
        -10.020834107644328
      ],
      [
        "▁beegatt",
        -10.022269719839667
      ],
      [
        "ibwako",
        -10.022686278447617
      ],
      [
        "▁ebitu",
        -10.023083279653752
      ],
      [
        "abasiraamu",
        -10.023701981370918
      ],
      [
        "▁bavudde",
        -10.0242792207025
      ],
      [
        "kwano",
        -10.025420873430054
      ],
      [
        "▁lyabwe.",
        -10.025768415199416
      ],
      [
        "▁2020,",
        -10.025930898518048
      ],
      [
        "omugaso",
        -10.02666165141212
      ],
      [
        "▁okulambul",
        -10.027389605945057
      ],
      [
        "▁kabon",
        -10.029084274615482
      ],
      [
        "ul",
        -10.0291476412016
      ],
      [
        "alambuludde",
        -10.029397158528518
      ],
      [
        "▁banoonya",
        -10.03026214475274
      ],
      [
        "▁n’alag",
        -10.030571499462702
      ],
      [
        "eal",
        -10.030894904575293
      ],
      [
        "butereevu",
        -10.032012219336789
      ],
      [
        "bidde",
        -10.032538872121291
      ],
      [
        "ebikolwa",
        -10.033039860336366
      ],
      [
        "lubiri",
        -10.033713437305046
      ],
      [
        "▁Al",
        -10.034449671007684
      ],
      [
        "eggwanga",
        -10.036205281722856
      ],
      [
        "▁muw",
        -10.03697638049907
      ],
      [
        "guza",
        -10.037096331101777
      ],
      [
        "leeter",
        -10.038904757904803
      ],
      [
        "▁n’okwewummuza",
        -10.038993177037376
      ],
      [
        "▁Kayunga",
        -10.04060217797499
      ],
      [
        "▁byaku",
        -10.040893579173082
      ],
      [
        "▁egy’",
        -10.041059654683385
      ],
      [
        "▁gyali",
        -10.041171797112979
      ],
      [
        "▁nsala",
        -10.04171100516693
      ],
      [
        "ludde",
        -10.042228447278555
      ],
      [
        "▁bwetaavu",
        -10.04282193076902
      ],
      [
        "ayiro",
        -10.043480863563865
      ],
      [
        "▁“Eki",
        -10.043805370147412
      ],
      [
        "▁okubawa",
        -10.044566402575304
      ],
      [
        "bazi",
        -10.046197095544173
      ],
      [
        "gya",
        -10.046303796678412
      ],
      [
        "abaana",
        -10.0468907932762
      ],
      [
        "▁Ag",
        -10.04765002115602
      ],
      [
        "▁ekola",
        -10.04769482671875
      ],
      [
        "tende",
        -10.048270793843805
      ],
      [
        "▁by’omu",
        -10.048513041073125
      ],
      [
        "nzir",
        -10.049237037180799
      ],
      [
        "giwa",
        -10.049607905949955
      ],
      [
        "▁asooke",
        -10.049790877992839
      ],
      [
        "▁yeebaziz",
        -10.049972018734843
      ],
      [
        "zaala",
        -10.05003012125454
      ],
      [
        "nis",
        -10.050039526604904
      ],
      [
        "ise",
        -10.050167196042185
      ],
      [
        "zaalibwa",
        -10.051123053295397
      ],
      [
        "abakozi",
        -10.052037539551693
      ],
      [
        "aliwo",
        -10.0523876970225
      ],
      [
        "▁August",
        -10.05255358784395
      ],
      [
[...]
