{
  "version": "1.0",
  "truncation": null,
  "padding": null,
  "added_tokens": [
    {
      "id": 0,
      "content": "<pad>",
      "single_word": false,
      "lstrip": false,
      "rstrip": false,
      "normalized": false,
      "special": true
    },
    {
      "id": 1,
      "content": "<unk>",
      "single_word": false,
      "lstrip": false,
      "rstrip": false,
      "normalized": false,
      "special": true
    },
    {
      "id": 2,
      "content": "<cls>",
      "single_word": false,
      "lstrip": false,
      "rstrip": false,
      "normalized": false,
      "special": true
    }
  ],
  "normalizer": {
    "type": "Sequence",
    "normalizers": [
      {
        "type": "Nmt"
      },
      {
        "type": "NFKC"
      },
      {
        "type": "Replace",
        "pattern": {
          "Regex": " {2,}"
        },
        "content": " "
      }
    ]
  },
  "pre_tokenizer": {
    "type": "Metaspace",
    "replacement": "▁",
    "prepend_scheme": "always",
    "split": true
  },
  "post_processor": {
    "type": "TemplateProcessing",
    "single": [
      {
        "SpecialToken": {
          "id": "<cls>",
          "type_id": 0
        }
      },
      {
        "Sequence": {
          "id": "A",
          "type_id": 0
        }
      }
    ],
    "pair": [
      {
        "Sequence": {
          "id": "A",
          "type_id": 0
        }
      },
      {
        "Sequence": {
          "id": "B",
          "type_id": 1
        }
      }
    ],
    "special_tokens": {
      "<cls>": {
        "id": "<cls>",
        "ids": [
          2
        ],
        "tokens": [
          "<cls>"
        ]
      }
    }
  },
  "decoder": {
    "type": "Metaspace",
    "replacement": "▁",
    "prepend_scheme": "always",
    "split": true
  },
  "model": {
    "type": "Unigram",
    "unk_id": 1,
    "vocab": [
      [
        "<pad>",
        0.0
      ],
      [
        "<unk>",
        0.0
      ],
      [
        "<cls>",
        0.0
      ],
      [
        ",",
        -3.4796715423694327
      ],
      [
        "▁mu",
        -3.674908910485316
      ],
      [
        ".",
        -3.7050200849247457
      ],
      [
        "▁",
        -4.1451040526190575
      ],
      [
        "▁ko",
        -4.175832319146544
      ],
      [
        "▁ku",
        -4.293888379631014
      ],
      [
        "▁ya",
        -4.653889298401458
      ],
      [
        "▁i",
        -4.69984152389755
      ],
      [
        "▁muri",
        -4.773722217087268
      ],
      [
        "▁wa",
        -4.880198701520442
      ],
      [
        "▁ba",
        -4.981682146875237
      ],
      [
        "▁na",
        -5.020099376374684
      ],
      [
        "▁a",
        -5.150611809055212
      ],
      [
        "a",
        -5.275741500249016
      ],
      [
        "▁ari",
        -5.450261750156609
      ],
      [
        "ko",
        -5.460524817558145
      ],
      [
        "▁u",
        -5.498524238454731
      ],
      [
        "▁yo",
        -5.542034975614365
      ],
      [
        "▁ca",
        -5.597983671670321
      ],
      [
        "e",
        -5.626921393635083
      ],
      [
        "▁kandi",
        -5.65018901731999
      ],
      [
        "▁bi",
        -5.662237021827883
      ],
      [
        "▁I",
        -5.694007431995727
      ],
      [
        "\".",
        -5.754806289056404
      ],
      [
        "▁ni",
        -5.828979666835164
      ],
      [
        "▁mbere",
        -5.915479760476118
      ],
      [
        "▁gihe",
        -5.916066851096243
      ],
      [
        "shobora",
        -5.950170645590955
      ],
      [
        "▁ariko",
        -5.958745275540619
      ],
      [
        "ra",
        -5.96593935949763
      ],
      [
        "▁cane",
        -5.977027643751703
      ],
      [
        "ri",
        -5.980812991755153
      ],
      [
        "▁vya",
        -5.985523747075539
      ],
      [
        "▁aba",
        -5.988908041065672
      ],
      [
        "n",
        -6.0057496597991955
      ],
      [
        "na",
        -6.035186001034198
      ],
      [
        "▁za",
        -6.061996734357104
      ],
      [
        "▁avuga",
        -6.071326861604538
      ],
      [
        "s",
        -6.076115189398681
      ],
      [
        "ka",
        -6.082380487072152
      ],
      [
        "▁Mu",
        -6.092957031422301
      ],
      [
        "▁U",
        -6.099013426174941
      ],
      [
        "▁kuri",
        -6.100614106028263
      ],
      [
        "▁yari",
        -6.114774484013662
      ],
      [
        "▁kugira",
        -6.11919252751927
      ],
      [
        "we",
        -6.134645215302021
      ],
      [
        "▁bwa",
        -6.14162011382813
      ],
      [
        ")",
        -6.147093896220487
      ],
      [
        "▁aho",
        -6.167117676340434
      ],
      [
        "▁bu",
        -6.191573676003385
      ],
      [
        "o",
        -6.2007044266295
      ],
      [
        "▁ico",
        -6.211818887658211
      ],
      [
        "▁zi",
        -6.234757981497167
      ],
      [
        "▁-",
        -6.235482859451962
      ],
      [
        "▁gu",
        -6.23692679946162
      ],
      [
        "▁wo",
        -6.240863351019073
      ],
      [
        "i",
        -6.2541829461608645
      ],
      [
        "▁no",
        -6.261393321433899
      ],
      [
        "▁ngo",
        -6.305813577987417
      ],
      [
        "▁hamwe",
        -6.309180379731365
      ],
      [
        "ho",
        -6.330043516107725
      ],
      [
        "yo",
        -6.332619226158258
      ],
      [
        "▁A",
        -6.3419568753424205
      ],
      [
        "▁rya",
        -6.352801246188208
      ],
      [
        "re",
        -6.368029418176824
      ],
      [
        "ba",
        -6.377117950148641
      ],
      [
        "▁ubu",
        -6.385419628442157
      ],
      [
        "▁ki",
        -6.391834575375686
      ],
      [
        "▁abantu",
        -6.392144473952602
      ],
      [
        "▁inyuma",
        -6.405190866968341
      ],
      [
        "▁n'i",
        -6.409086041628767
      ],
      [
        "▁vyo",
        -6.4245389712327095
      ],
      [
        "▁rwa",
        -6.454701546029497
      ],
      [
        "▁ati:",
        -6.464022570979104
      ],
      [
        "▁hagati",
        -6.477235558030238
      ],
      [
        "▁(",
        -6.486772355722138
      ],
      [
        "▁ata",
        -6.490911939233488
      ],
      [
        "▁w'imyaka",
        -6.493726980690171
      ],
      [
        "▁n'",
        -6.500814255867243
      ],
      [
        "▁ivyo",
        -6.512896895374885
      ],
      [
        "▁ha",
        -6.5407636999707535
      ],
      [
        "▁kuba",
        -6.546378391352682
      ],
      [
        "▁\"",
        -6.551403920864837
      ],
      [
        "▁ri",
        -6.5595521026586825
      ],
      [
        "▁y",
        -6.565967433557062
      ],
      [
        "ro",
        -6.566334544601833
      ],
      [
        "▁Amerika",
        -6.5786308771534
      ],
      [
        "▁gihugu",
        -6.588220374236574
      ],
      [
        "ha",
        -6.588314567085585
      ],
      [
        "▁iyo",
        -6.5927269010188505
      ],
      [
        "ta",
        -6.593601265926629
      ],
      [
        "▁kwa",
        -6.599043722128946
      ],
      [
        "▁bari",
        -6.604971301157149
      ],
      [
        "▁hari",
        -6.6148384617046005
      ],
      [
        "mwo",
        -6.619196618426068
      ],
      [
        "▁canke",
        -6.652571752908333
      ],
      [
        "za",
        -6.658107688766338
      ],
      [
        "bi",
        -6.685024819584918
      ],
      [
        "▁murwi",
        -6.686863366876451
      ],
      [
        "▁uyu",
        -6.6881889074246255
      ],
      [
        "▁kuva",
        -6.694940029133707
      ],
      [
        "ma",
        -6.7074990015812235
      ],
      [
        "zi",
        -6.709037575875414
      ],
      [
        "r",
        -6.709251697577062
      ],
      [
        "u",
        -6.712156979593723
      ],
      [
        "▁Afrika",
        -6.71508259577393
      ],
      [
        "▁co",
        -6.717774927093867
      ],
      [
        "▁ibi",
        -6.729927717084296
      ],
      [
        "▁ka",
        -6.7304715150089685
      ],
      [
        "▁gushika",
        -6.734546324468304
      ],
      [
        "▁umu",
        -6.741480334974213
      ],
      [
        "\"",
        -6.741573301936781
      ],
      [
        "wa",
        -6.744875263860989
      ],
      [
        "▁bo",
        -6.746825074121973
      ],
      [
        "y",
        -6.747335259167624
      ],
      [
        "co",
        -6.748009791400234
      ],
      [
        "▁igihe",
        -6.753127920847454
      ],
      [
        "▁iri",
        -6.755115916377008
      ],
      [
        "▁bara",
        -6.755460702936368
      ],
      [
        "▁ru",
        -6.764875963657474
      ],
      [
        "▁imbere",
        -6.784918157376586
      ],
      [
        "▁Aba",
        -6.791221744094993
      ],
      [
        "ye",
        -6.802095372464212
      ],
      [
        "▁nta",
        -6.805465763244001
      ],
      [
        "ya",
        -6.807058699039871
      ],
      [
        "mu",
        -6.811987159358816
      ],
      [
        "▁kubera",
        -6.834555088055838
      ],
      [
        "▁n",
        -6.837626579925176
      ],
      [
        "▁Ariko",
        -6.839036543303611
      ],
      [
        "▁yavuze",
        -6.848481436720335
      ],
      [
        "▁uwo",
        -6.849613114609779
      ],
      [
        "ni",
        -6.851184240784549
      ],
      [
        "riko",
        -6.855952104423558
      ],
      [
        "▁iki",
        -6.871096537070373
      ],
      [
        "▁gi",
        -6.881849772232977
      ],
      [
        "jejwe",
        -6.92396027540662
      ],
      [
        "ga",
        -6.934255789139265
      ],
      [
        "t",
        -6.952364931806682
      ],
      [
        "▁bwo",
        -6.9542835283148134
      ],
      [
        "▁Ukraine",
        -6.958928720777061
      ],
      [
        "mba",
        -6.970999091234532
      ],
      [
        "▁mwaka",
        -6.971939843854642
      ],
      [
        "▁reta",
        -6.971970903218579
      ],
      [
        "▁y'i",
        -6.981823897458801
      ],
      [
        "▁b",
        -6.984912141937466
      ],
      [
        "ne",
        -6.988277573326707
      ],
      [
        "ki",
        -6.999080002993574
      ],
      [
        "ca",
        -7.0058843122505685
      ],
      [
        "shikiranganji",
        -7.007137659683145
      ],
      [
        "yi",
        -7.009969089073369
      ],
      [
        "▁yara",
        -7.010273900486263
      ],
      [
        "▁ara",
        -7.013212247432598
      ],
      [
        "▁umukinyi",
        -7.023329669998741
      ],
      [
        "▁yi",
        -7.029547021680136
      ],
      [
        "▁kwi",
        -7.030108285792912
      ],
      [
        "ti",
        -7.030527649472401
      ],
      [
        "no",
        -7.033557124191133
      ],
      [
        "▁uko",
        -7.037919836018638
      ],
      [
        "zo",
        -7.0436901392403914
      ],
      [
        "▁Umu",
        -7.043799645613004
      ],
      [
        "▁y'u",
        -7.056891219927059
      ],
      [
        "▁akaba",
        -7.05701511445455
      ],
      [
        "m",
        -7.057482753208122
      ],
      [
        "je",
        -7.076331530862719
      ],
      [
        ".\"",
        -7.077290846431651
      ],
      [
        "▁neza",
        -7.085564534010162
      ],
      [
        "▁ingingo",
        -7.0857188756130824
      ],
      [
        "maze",
        -7.089087686244971
      ],
      [
        "ru",
        -7.0928164787640435
      ],
      [
        "bwiye",
        -7.106506660449721
      ],
      [
        "sa",
        -7.1083373519183715
      ],
      [
        "▁BBC",
        -7.13699054720465
      ],
      [
        "te",
        -7.137762191353022
      ],
      [
        "▁nyene",
        -7.138123717005337
      ],
      [
        "▁kabiri",
        -7.138618353656473
      ],
      [
        "▁y'",
        -7.152108280706993
      ],
      [
        "si",
        -7.1543777372084065
      ],
      [
        "▁ibintu",
        -7.15557485476249
      ],
      [
        "ntu",
        -7.15875332044757
      ],
      [
        "▁bihugu",
        -7.163455528369093
      ],
      [
        "▁nk'uko",
        -7.163964525389852
      ],
      [
        "▁afise",
        -7.168041877793249
      ],
      [
        "▁nyuma",
        -7.171473855454951
      ],
      [
        "umukuru",
        -7.178879630916613
      ],
      [
        "▁c",
        -7.183062736587528
      ],
      [
        "l",
        -7.193912423755283
      ],
      [
        "▁n'aba",
        -7.195275474980897
      ],
      [
        "gira",
        -7.196947567727585
      ],
      [
        "▁Ya",
        -7.200024101002899
      ],
      [
        "▁N",
        -7.207108780730378
      ],
      [
        "▁Manchester",
        -7.2085020556618655
      ],
      [
        "-",
        -7.208841482023528
      ],
      [
        "nye",
        -7.21342883583941
      ],
      [
        "▁wiwe",
        -7.2140313165055545
      ],
      [
        "go",
        -7.2165335936831125
      ],
      [
        "ciye",
        -7.228288254852787
      ],
      [
        "▁kwezi",
        -7.229993749374788
      ],
      [
        "”",
        -7.230671067013327
      ],
      [
        "▁kuko",
        -7.233875795887754
      ],
      [
        "▁zo",
        -7.235513914093775
      ],
      [
        "▁ama",
        -7.237679012053979
      ],
      [
        "ke",
        -7.238777857897728
      ],
      [
        "se",
        -7.247598672994963
      ],
      [
        "k",
        -7.253656429849476
      ],
      [
        "▁Burundi",
        -7.259810631151544
      ],
      [
        "tegerezwa",
        -7.261626048076143
      ],
      [
        "▁Ku",
        -7.261986971145859
      ],
      [
        "▁gusa",
        -7.271133507794803
      ],
      [
        "▁ingene",
        -7.2801245482484545
      ],
      [
        "▁tu",
        -7.297645026571666
      ],
      [
        "to",
        -7.300529620230864
      ],
      [
        "ndi",
        -7.308765593990529
      ],
      [
        "▁we",
        -7.314196103594402
      ],
      [
        "gi",
        -7.317653039257835
      ],
      [
        "▁imyaka",
        -7.319367845626737
      ],
      [
        "▁iyi",
        -7.321807946477829
      ],
      [
        "▁rwo",
        -7.325162949290359
      ],
      [
        "bo",
        -7.328887556326012
      ],
      [
        "▁United",
        -7.336960848892307
      ],
      [
        "▁du",
        -7.337659086663152
      ],
      [
        "bu",
        -7.340084635230601
      ],
      [
        "▁hafi",
        -7.341974129046905
      ],
      [
        "nya",
        -7.3439109344682665
      ],
      [
        "▁harimwo",
        -7.344358622996818
      ],
      [
        "rwa",
        -7.370982192482425
      ],
      [
        "▁benshi",
        -7.373693651825814
      ],
      [
        "▁bavuga",
        -7.375900609636105
      ],
      [
        "gu",
        -7.380736779382723
      ],
      [
        "shirahamwe",
        -7.38588033178448
      ],
      [
        "▁umwe",
        -7.387284114941735
      ],
      [
        "▁mukuru",
        -7.387745387618806
      ],
      [
        "▁yose",
        -7.396289469686533
      ],
      [
        "▁izo",
        -7.413508331607973
      ],
      [
        "'",
        -7.4199146009048285
      ],
      [
        "▁w'i",
        -7.42840696964687
      ],
      [
        "giye",
        -7.436313360817873
      ],
      [
        "▁ira",
        -7.437191703335839
      ],
      [
        "▁Perezida",
        -7.439293653796285
      ],
      [
        "ja",
        -7.455535052121367
      ],
      [
        "kuru",
        -7.456013730025944
      ],
      [
        "▁Uburusiya",
        -7.46369711681708
      ],
      [
        "▁igihugu",
        -7.4708876899440515
      ],
      [
        "▁Ni",
        -7.474744450799835
      ],
      [
        "▁mukinyi",
        -7.478703293570942
      ],
      [
        "▁kimwe",
        -7.48473664932876
      ],
      [
        "he",
        -7.4863198391098305
      ],
      [
        "▁n'u",
        -7.489488657203392
      ],
      [
        "▁bose",
        -7.491502373611405
      ],
      [
        "hoze",
        -7.492203494966738
      ],
      [
        "▁y'aho",
        -7.494473291319498
      ],
      [
        "hi",
        -7.4962436221233135
      ],
      [
        "g",
        -7.510891149782696
      ],
      [
        "▁z",
        -7.512701565036345
      ],
      [
        "▁nka",
        -7.513712138268784
      ],
      [
        "▁vyose",
        -7.516758413505841
      ],
      [
        "▁E",
        -7.5171967248533695
      ],
      [
        "ze",
        -7.519003866245882
      ],
      [
        "▁abo",
        -7.520694106408958
      ],
      [
        "▁w'igihugu",
        -7.524971058041602
      ],
      [
        "▁c'",
        -7.525978259842919
      ],
      [
        "▁Avuga",
        -7.528241377154987
      ],
      [
        "▁bafise",
        -7.53039510403348
      ],
      [
        "▁ngingo",
        -7.5337056197752155
      ],
      [
        "vuga",
        -7.53545370706263
      ],
      [
        "▁ma",
        -7.537000056392662
      ],
      [
        "p",
        -7.542190668136143
      ],
      [
        "ryo",
        -7.543285299254426
      ],
      [
        "mi",
        -7.548915046372398
      ],
      [
        "shaka",
        -7.552659307622618
      ],
      [
        "rwo",
        -7.552822171165692
      ],
      [
        "▁buryo",
        -7.5580479090993755
      ],
      [
        "c",
        -7.559789410881302
      ],
      [
        "▁n’",
        -7.5632074949509
      ],
      [
        "▁Ba",
        -7.568538052434282
      ],
      [
        "tu",
        -7.572342753866262
      ],
      [
        "▁akina",
        -7.572860522517189
      ],
      [
        "▁aka",
        -7.575500141034095
      ],
      [
        "▁Ati:",
        -7.579110908868887
      ],
      [
        "▁karere",
        -7.587670839736573
      ],
      [
        "tanguye",
        -7.591229966524966
      ],
      [
        "h",
        -7.5927646422580946
      ],
      [
        "va",
        -7.599283921527435
      ],
      [
        "/",
        -7.601349566470417
      ],
      [
        "▁y'abantu",
        -7.6055090215795875
      ],
      [
        "gize",
        -7.605757555646208
      ],
      [
        "hu",
        -7.612443758978084
      ],
      [
        "nga",
        -7.615316533314786
      ],
      [
        "▁bijanye",
        -7.615662328536141
      ],
      [
        "li",
        -7.624108188350189
      ],
      [
        "▁ruhande",
        -7.625726089749465
      ],
      [
        "▁uru",
        -7.63381848283473
      ],
      [
        "b",
        -7.635173880093318
      ],
      [
        "▁n’i",
        -7.6387988963681925
      ],
      [
        "▁ingabo",
        -7.644217923302188
      ],
      [
        "▁in",
        -7.644296834607331
      ],
      [
        "▁ntara",
        -7.646340199790412
      ],
      [
        "zwi",
        -7.649639303101555
      ],
      [
        "▁w'",
        -7.653833617060236
      ],
      [
        "▁ndwi",
        -7.654903527620498
      ],
      [
        "▁abandi",
        -7.658242959752823
      ],
      [
        "▁gatatu",
        -7.660359869925493
      ],
      [
        "▁gisagara",
        -7.667246574487876
      ],
      [
        "gera",
        -7.667290900754416
      ],
      [
        "▁ry'",
        -7.6693979321274695
      ],
      [
        "▁umuntu",
        -7.669692330378271
      ],
      [
        "▁myaka",
        -7.672163125137677
      ],
      [
        "▁masezerano",
        -7.67370833887115
      ],
      [
        "▁bantu",
        -7.674226359301067
      ],
      [
        "▁rukino",
        -7.678686875793688
      ],
      [
        "▁gukora",
        -7.680918046729361
      ],
      [
        "▁ci",
        -7.683150257901393
      ],
      [
        "be",
        -7.6856379645698665
      ],
      [
        "ku",
        -7.686911031523514
      ],
      [
        "mwe",
        -7.690527815607875
      ],
      [
        "▁bira",
        -7.695198369758779
      ],
      [
        "d",
        -7.696996719251611
      ],
      [
        "▁C",
        -7.697648476023709
      ],
      [
        "saba",
        -7.702768982871017
      ],
      [
        "▁bariko",
        -7.703379620598273
      ],
      [
        "▁vy",
        -7.706475171894111
      ],
      [
        "▁M",
        -7.70887385777823
      ],
      [
        "▁ivuga",
        -7.70999123573521
      ],
      [
        "▁bivugwa",
        -7.711442110715378
      ],
      [
        "▁vy'",
        -7.718471757455052
      ],
      [
        "▁nti",
        -7.7192711491251895
      ],
      [
        "bandanya",
        -7.7197093423493275
      ],
      [
        "da",
        -7.721325090206836
      ],
      [
        "▁mugera",
        -7.727524131242675
      ],
      [
        "▁Muri",
        -7.730156771292798
      ],
      [
        "▁atari",
        -7.731332351628912
      ],
      [
        "▁w’imya",
        -7.73303620416923
      ],
      [
        "▁umurwi",
        -7.733459849169589
      ],
      [
        "▁rero",
        -7.734158731694607
      ],
      [
        "A",
        -7.735594565898682
      ],
      [
        "▁yiwe",
        -7.744400755590202
      ],
      [
        "▁ibihugu",
        -7.744875215834525
      ],
      [
        "shi",
        -7.748131605222809
      ],
      [
        "▁kw'isi",
        -7.75201280704603
      ],
      [
        "▁Barcelona",
        -7.757881230695653
      ],
      [
        "▁c'i",
        -7.759326309121976
      ],
      [
        "me",
        -7.759833232006827
      ],
      [
        "▁Ha",
        -7.7614655712991345
      ],
      [
        "▁imi",
        -7.765458229025806
      ],
      [
        "baye",
        -7.765680866435416
      ],
      [
        "▁twa",
        -7.766655620880513
      ],
      [
        "▁iheze",
        -7.777977751213688
      ],
      [
        "tera",
        -7.778861568274335
      ],
      [
        "▁\"I",
        -7.779613244839773
      ],
      [
        "▁nkino",
        -7.781864716887012
      ],
      [
        "▁w'amaguru",
        -7.785806519049685
      ],
      [
        "▁vyinshi",
        -7.785810640047473
      ],
      [
        "▁kuja",
        -7.787847515690422
      ],
      [
        "▁hanyuma",
        -7.79043609316438
      ],
      [
        "▁umunya",
        -7.7925864879604285
      ],
      [
        "▁amaze",
        -7.794993366982266
      ],
      [
        "la",
        -7.795335386009032
      ],
      [
        "mo",
        -7.795505064667863
      ],
      [
        "▁munsi",
        -7.799814565759713
      ],
      [
        "vyo",
        -7.80201303966055
      ],
      [
        ":",
        -7.8029676791904405
      ],
      [
        "▁ONU",
        -7.803663866185872
      ],
      [
        "nda",
        -7.803750709607912
      ],
      [
        "▁bimwe",
        -7.803941190413724
      ],
      [
        "fata",
        -7.812529426427814
      ],
      [
        "ge",
        -7.81412806017821
      ],
      [
        "▁kurondera",
        -7.816272845225122
      ],
      [
        "le",
        -7.818616478218812
      ],
      [
        "tuma",
        -7.822669408321744
      ],
      [
        "geze",
        -7.823727246246504
      ],
      [
        "▁R",
        -7.82455676180705
      ],
      [
        "▁uku",
        -7.825653932569474
      ],
      [
        "▁Ibi",
        -7.830982437676848
      ],
      [
        "sha",
        -7.831915999341219
      ],
      [
        "▁mpuzamakungu",
        -7.83291854425397
      ],
      [
        "▁ryo",
        -7.841098957753835
      ],
      [
        "▁Chelsea",
        -7.847869868905422
      ],
      [
        "▁aga",
        -7.848383424064185
      ],
      [
        "▁P",
        -7.848667464556314
      ],
      [
        "▁asanzwe",
        -7.850403739153025
      ],
      [
        "▁gisirikare",
        -7.853101487175148
      ],
      [
        "kora",
        -7.8546034599864685
      ],
      [
        "wo",
        -7.855927880011233
      ],
      [
        "▁ry",
        -7.856365023655752
      ],
      [
        "▁muntu",
        -7.857479989679684
      ],
      [
        "▁biri",
        -7.857934920920089
      ],
      [
        "▁Uyu",
        -7.860016888945847
      ],
      [
        "ce",
        -7.860347376703889
      ],
      [
        "wi",
        -7.860757076757935
      ],
      [
        "▁S",
        -7.862062289753979
      ],
      [
        "▁ntambara",
        -7.863233751548432
      ],
      [
        "fise",
        -7.863863421156306
      ],
      [
        "▁uwu",
        -7.872186973111449
      ],
      [
        "▁iryo",
        -7.873794978571188
      ],
      [
        "▁amagara",
        -7.879651883431846
      ],
      [
        "rondera",
        -7.8813577245714574
      ],
      [
        "▁gufata",
        -7.885578261294944
      ],
      [
        "▁ubwa",
        -7.88621849003911
      ],
      [
        "▁City",
        -7.88631121456562
      ],
      [
        "▁bamwe",
        -7.886993334478701
      ],
      [
        "w",
        -7.888845152120994
      ],
      [
        "▁bamaze",
        -7.889807146670327
      ],
      [
        "f",
        -7.8911120631048295
      ],
      [
        "▁20",
        -7.89386404154108
      ],
      [
        "▁n'umu",
        -7.894541515015847
      ],
      [
        "er",
        -7.896072136865643
      ],
      [
        "▁Hagati",
        -7.898495069629037
      ],
      [
        "▁y’",
        -7.89908363842081
      ],
      [
        "shoboye",
        -7.901060636557376
      ],
      [
        "▁amasezerano",
        -7.901066411881256
      ],
      [
        "▁buri",
        -7.907666278211131
      ],
      [
        "▁gatandatu",
        -7.910030949618068
      ],
      [
        "▁Kenya",
        -7.910186447916124
      ],
      [
        "shika",
        -7.91236906007394
      ],
      [
        "▁n'a",
        -7.915202266624714
      ],
      [
        "ngo",
        -7.921759950866928
      ],
      [
        "?",
        -7.92731393408514
      ],
      [
        "▁nda",
        -7.927684272895268
      ],
      [
        "▁kugura",
        -7.932211258087413
      ],
      [
        "bwo",
        -7.935825555785087
      ],
      [
        "▁Rwanda",
        -7.93593135145824
      ],
      [
        "▁bw",
        -7.936651257778371
      ],
      [
        "▁vyari",
        -7.938070898963179
      ],
      [
        "nwa",
        -7.939944798937711
      ],
      [
        "▁umutekano",
        -7.941337509939697
      ],
      [
        "miriyoni",
        -7.943045416584249
      ],
      [
        "▁Ubu",
        -7.94371366722607
      ],
      [
        "▁nayo",
        -7.94697181275996
      ],
      [
        "▁Covid-19",
        -7.948787037004336
      ],
      [
        "▁coronavirus",
        -7.949594590024256
      ],
      [
        "▁abanyagihugu",
        -7.9514252089656345
      ],
      [
        "▁Arsenal",
        -7.955115258200707
      ],
      [
        "▁gatanu",
        -7.955115260234552
      ],
      [
        "▁Trump",
        -7.955424660240354
      ],
      [
        "▁kurwanya",
        -7.956402114919941
      ],
      [
        "▁rimwe",
        -7.957470929264181
      ],
      [
        "▁Ma",
        -7.958357152558348
      ],
      [
        "▁Bwongereza",
        -7.958879599735442
      ],
      [
        "vuze",
        -7.964158393697092
      ],
      [
        "▁“",
        -7.967904683494783
      ],
      [
        "▁T",
        -7.9680398544319315
      ],
      [
        "▁Na",
        -7.968324860094754
      ],
      [
        "▁kw",
        -7.969689982769043
      ],
      [
        "▁ica",
        -7.971305639463827
      ],
      [
        "uko",
        -7.97294550253359
      ],
      [
        "▁amafaranga",
        -7.975486513243415
      ],
      [
        "–",
        -7.976302459361256
      ],
      [
        "▁z'",
        -7.977775932465767
      ],
      [
        "▁Reta",
        -7.9806008336956005
      ],
      [
        "▁leta",
        -7.980619976510691
      ],
      [
        "▁bakaba",
        -7.984476406415177
      ],
      [
        "▁ayo",
        -7.985141841360321
      ],
      [
        "kira",
        -7.986576200767731
      ],
      [
        "▁uyo",
        -7.988992590491731
      ],
      [
        "▁kiringo",
        -7.989549296430303
      ],
      [
        "▁azo",
        -7.98972047232434
      ],
      [
        "▁ciwe",
        -7.990291867114128
      ],
      [
        "baza",
        -7.992447593421278
      ],
      [
        "▁w'inyuma",
        -7.994109337389027
      ],
      [
        "▁zibiri",
        -7.994450836169396
      ],
      [
        "▁mw'i",
        -7.995136557726817
      ],
      [
        "cu",
        -7.997684407686057
      ],
      [
        "bera",
        -7.999492476546462
      ],
      [
        "▁ubwo",
        -8.002394281695745
      ],
      [
        "ngene",
        -8.003304780229328
      ],
      [
        "▁kiza",
        -8.015262006874519
      ],
      [
        "bona",
        -8.015648632272086
      ],
      [
        "I",
        -8.017304280901266
      ],
      [
        "z",
        -8.023882101317291
      ],
      [
        "▁Bwan",
        -8.02997946437708
      ],
      [
        "▁B",
        -8.032515217479373
      ],
      [
        "▁cumi",
        -8.033597527816552
      ],
      [
        "▁baba",
        -8.034181549475683
      ],
      [
        "▁incanco",
        -8.040597362128032
      ],
      [
        "ngabo",
        -8.043668185750876
      ],
      [
        "▁Liverpool",
        -8.043710069497891
      ],
      [
        "▁umusatirizi",
        -8.04476972088753
      ],
      [
        "zwa",
        -8.04541021518818
      ],
      [
        "▁K",
        -8.04629440941671
      ],
      [
        "▁si",
        -8.047052402179261
      ],
      [
        "▁Congo",
        -8.052108308446726
      ],
      [
        "tangaje",
        -8.052589543223378
      ],
      [
        "▁ubutegetsi",
        -8.052732443803087
      ],
      [
        "▁gutanga",
        -8.05672604016941
      ],
      [
        "%",
        -8.06022502734428
      ],
      [
        "▁ngombwa",
        -8.061175565392109
      ],
      [
        "▁ntumbero",
        -8.062985565521958
      ],
      [
        "▁cose",
        -8.063910586214515
      ],
      [
        "▁w",
        -8.06397248447518
      ],
      [
        "▁ikibazo",
        -8.064467978925641
      ],
      [
        "0",
        -8.06488989984885
      ],
      [
        "▁Ka",
        -8.069531786853695
      ],
      [
        "herutse",
        -8.070677896130837
      ],
      [
        "du",
        -8.071647725241975
      ],
      [
        "▁ifise",
        -8.072307359077133
      ],
      [
        "ci",
        -8.073738264400347
      ],
      [
        "▁amakuru",
        -8.08007664576598
      ],
      [
        "▁rumwe",
        -8.081715859613812
      ],
      [
        "teye",
        -8.081904343940469
      ],
      [
        "▁'",
        -8.083231410109363
      ],
      [
        "▁ubuzima",
        -8.08427111389678
      ],
      [
        "▁ishobora",
        -8.085108934641177
      ],
      [
        "▁kane",
        -8.085854987196559
      ],
      [
        "aho",
        -8.08964004201504
      ],
      [
        "▁gusumba",
        -8.090748836047474
      ],
      [
        "▁yaciye",
        -8.092959763698328
      ],
      [
        "vugwa",
        -8.09302757426476
      ],
      [
        "▁gutera",
        -8.09315135400934
      ],
      [
        "nyuma",
        -8.093516216391606
      ],
      [
        "el",
        -8.098702220414324
      ],
      [
        "lo",
        -8.100217921135144
      ],
      [
        "▁bata",
        -8.101407780473053
      ],
      [
        "▁n'ama",
        -8.101499062885075
      ],
      [
        "▁Ubumwe",
        -8.103292318821861
      ],
      [
        "▁Hari",
        -8.106804139753883
      ],
      [
        "▁uburenganzira",
        -8.110237784312996
      ],
      [
        "5",
        -8.112503383865167
      ],
      [
        "▁mi",
        -8.117309949836216
      ],
      [
        "ngu",
        -8.117859960992899
      ],
      [
        "▁Tottenham",
        -8.118744398034778
      ],
      [
        "▁kibuga",
        -8.118747934060535
      ],
      [
        "▁ati",
        -8.119573635070601
      ],
      [
        "kw",
        -8.120117904604468
      ],
      [
        "C",
        -8.120138629448466
      ],
      [
        "▁abakinyi",
        -8.121082166462475
      ],
      [
        "gerageza",
        -8.121523961835138
      ],
      [
        "mukinyi",
        -8.123982943034523
      ],
      [
        "▁kuronka",
        -8.12411846422808
      ],
      [
        "nama",
        -8.12424517992731
      ],
      [
        "imirwi",
        -8.124291551130206
      ],
      [
        "boneka",
        -8.12493499694262
      ],
      [
        "▁League",
        -8.125654872232818
      ],
      [
        "▁\"i",
        -8.126645152933383
      ],
      [
        "di",
        -8.129017792805884
      ],
      [
        "▁z'i",
        -8.135765716387205
      ],
      [
        "▁yabaye",
        -8.137911653208336
      ],
      [
        "▁30",
        -8.139196907990655
      ],
      [
        "▁bashobora",
        -8.139500560345379
      ],
      [
        "▁y'Epfo",
        -8.142575673879643
      ],
      [
        "▁OMS",
        -8.14374568129741
      ],
      [
        "▁rw'i",
        -8.143968538405566
      ],
      [
        "▁kubona",
        -8.144195027711834
      ],
      [
        "▁ibibazo",
        -8.15203448682751
      ],
      [
        "▁zose",
        -8.160883165666494
      ],
      [
        "▁amategeko",
        -8.161830336267409
      ],
      [
        "habwa",
        -8.164452314753394
      ],
      [
        "in",
        -8.165957430692451
      ],
      [
        "▁uheze",
        -8.16602361077711
      ],
      [
        "▁nama",
        -8.166686819903266
      ],
      [
        "▁sentare",
        -8.16994142075329
      ],
      [
        "▁gihugu.",
        -8.1738730769558
      ],
      [
        "▁Tanzania",
        -8.17515257947468
      ],
      [
        ").",
        -8.175497969225209
      ],
      [
        "giriza",
        -8.17586409219458
      ],
      [
        "▁abategetsi",
        -8.176096843286176
      ],
      [
        "▁kiri",
        -8.177188792703731
      ],
      [
        "ng",
        -8.177326858667396
      ],
      [
        "▁mugwi",
        -8.180765096266862
      ],
      [
        "tanga",
        -8.181172022852634
      ],
      [
        "v",
        -8.184783401525653
      ],
      [
        "▁imaze",
        -8.185961646322067
      ],
      [
        "▁musi",
        -8.187882842349584
      ],
      [
        "▁ry'i",
        -8.188392282497514
      ],
      [
        "gice",
        -8.189942732683186
      ],
      [
        "koresha",
        -8.19152077006655
      ],
      [
        "▁indwi",
        -8.19212872185745
      ],
      [
        "▁D",
        -8.192558690005178
      ],
      [
        "▁Madrid",
        -8.1936051172305
      ],
      [
        "▁y'aba",
        -8.197141435894048
      ],
      [
        "▁ibiri",
        -8.197873683079504
      ],
      [
        "▁nawe",
        -8.199835138128087
      ],
      [
        "▁ikaba",
        -8.202578600202918
      ],
      [
        "vuye",
        -8.205863362998244
      ],
      [
        "▁ajejwe",
        -8.205975808559877
      ],
      [
        "▁kiganiro",
        -8.207632844779805
      ],
      [
        "nze",
        -8.208098024618991
      ],
      [
        "pfuza",
        -8.209896709104324
      ],
      [
        "▁bazo",
        -8.210552227678711
      ],
      [
        "Uwo",
        -8.211760242113083
      ],
      [
        "fitaniye",
        -8.211834741634572
      ],
      [
        "she",
        -8.212675026085584
      ],
      [
        "rya",
        -8.21336342806028
      ],
      [
        "▁nk'i",
        -8.214904727158572
      ],
      [
        "8",
        -8.216420536496733
      ],
      [
        "▁Putin",
        -8.217269450336119
      ],
      [
        "▁intambara",
        -8.217385159894636
      ],
      [
        "▁vy'i",
        -8.218145945371488
      ],
      [
        "▁hanze",
        -8.218754118626773
      ],
      [
        "mbere",
        -8.221149533288578
      ],
      [
        "▁y’i",
        -8.22184677825405
      ],
      [
        "▁n'uko",
        -8.222777755995377
      ],
      [
        "gwa",
        -8.223286340399909
      ],
      [
        "▁uruhara",
        -8.223591753824929
      ],
      [
        "renga",
        -8.224381513097555
      ],
      [
        "▁rubuga",
        -8.225203854202537
      ],
      [
        "wu",
        -8.22532561349448
      ],
      [
        "▁Zunz",
        -8.225807149614031
      ],
      [
        "▁24",
        -8.228316889533023
      ],
      [
        "▁yabo",
        -8.230700720237621
      ],
      [
        "▁kw'i",
        -8.232758601447834
      ],
      [
        "▁haba",
        -8.233839964298113
      ],
      [
        "▁gusubira",
        -8.235011029188597
      ],
      [
        "é",
        -8.235176137688462
      ],
      [
        "),",
        -8.237546037649299
      ],
      [
        "▁butegetsi",
        -8.237714987952753
      ],
      [
        "uyu",
        -8.238241978792242
      ],
      [
        "▁Real",
        -8.239309867264645
      ],
      [
        "do",
        -8.239417461324802
      ],
      [
        "▁izi",
        -8.239478241155082
      ],
      [
        "▁ibikorwa",
        -8.239736183743386
      ],
      [
        "gura",
        -8.242095491774126
      ],
      [
        "▁rwego",
        -8.25258925336384
      ],
      [
        "\",",
        -8.252594336244865
      ],
      [
        "▁Ama",
        -8.254073133399109
      ],
      [
        "▁ntango",
        -8.254516886631457
      ],
      [
        "▁kumwe",
        -8.257557978374297
      ],
      [
        "fashe",
        -8.265606009283694
      ],
      [
        "▁baka",
        -8.266776889069686
      ],
      [
        "U",
        -8.272228930554665
      ],
      [
        "tse",
        -8.27246652658745
      ],
      [
        "janye",
        -8.272594063930052
      ],
      [
        "huza",
        -8.272647026733921
      ],
      [
        "ganga",
        -8.273013658309702
      ],
      [
        "kiri",
        -8.274490621360922
      ],
      [
        "▁O",
        -8.275340039409803
      ],
      [
        "▁nabo",
        -8.280022749797768
      ],
      [
        "▁kibazo",
        -8.28068612585436
      ],
      [
        "▁rivuga",
        -8.282068927841785
      ],
      [
        "1",
        -8.284480486489837
      ],
      [
        "liyoni",
        -8.284904257555874
      ],
      [
        "▁ejo",
        -8.284925789944019
      ],
      [
        "▁yagize",
        -8.28626771413034
      ],
      [
        "bereye",
        -8.290213083007
      ],
      [
        "subira",
        -8.290556646859667
      ],
      [
        "fatiye",
        -8.29085202221672
      ],
      [
        "▁ihiganwa",
        -8.293052711061485
      ],
      [
        "▁ivya",
        -8.29398083255424
      ],
      [
        "▁aca",
        -8.294213800700733
      ],
      [
        "▁Ivyo",
        -8.296283120835472
      ],
      [
        "9",
        -8.296986617671132
      ],
      [
        "▁kuvuga",
        -8.299215435969892
      ],
      [
        "▁k",
        -8.29929440112976
      ],
      [
        "▁ubwoba",
        -8.30483087576344
      ],
      [
        "N",
        -8.30598994560572
      ],
      [
        "▁kure",
        -8.306128395460608
      ],
      [
        "▁mw'ihiganwa",
        -8.308809444900476
      ],
      [
        "▁babiri",
        -8.308926098917668
      ],
      [
        "uno",
        -8.310261786862092
      ],
      [
        "▁G",
        -8.313510248436796
      ],
      [
        "▁menshi",
        -8.314490650953251
      ],
      [
        "▁bikorwa",
        -8.314707443046412
      ],
      [
        "raba",
        -8.315100466225251
      ],
      [
        "kunda",
        -8.31512329676005
      ],
      [
        "▁Nta",
        -8.315407169599244
      ],
      [
        "su",
        -8.315535141254461
      ],
      [
        "▁bw'i",
        -8.3172128267821
      ],
      [
        "▁inkino",
        -8.31746342248994
      ],
      [
        "▁incuro",
        -8.318715734483254
      ],
      [
        "hora",
        -8.319725660013162
      ],
      [
        "▁Uganda",
        -8.319925146319363
      ],
      [
        "▁kwinjira",
        -8.321857263690537
      ],
      [
        "shira",
        -8.323281887042606
      ],
      [
        "hari",
        -8.324439721891247
      ],
      [
        "▁Bi",
        -8.32762447351556
      ],
      [
        "▁bita",
        -8.328272124205343
      ],
      [
        "genda",
        -8.328398563482851
      ],
      [
        "▁rw",
        -8.329640030081213
      ],
      [
        "▁bitaro",
        -8.32965002009362
      ],
      [
        "fasha",
        -8.329845383055504
      ],
      [
        "bice",
        -8.333499570349833
      ],
      [
        "▁hejuru",
        -8.335432282998715
      ],
      [
        "▁higanwa",
        -8.33552212104943
      ],
      [
        "ry",
        -8.337739045989064
      ],
      [
        "2",
        -8.3395440753964
      ],
      [
        "vi",
        -8.340626216037286
      ],
      [
        "▁umugera",
        -8.341114745484969
      ],
      [
        "shigikiye",
        -8.34144173533723
      ],
      [
        "▁Ethiopia",
        -8.344978560519326
      ],
      [
        "▁Buraya",
        -8.34498317586571
      ],
      [
        "▁ntiba",
        -8.345267033064545
      ],
      [
        "E",
        -8.3459876376327
      ],
      [
        "▁Dr",
        -8.3470992199579
      ],
      [
        "igikombe",
        -8.347504484675035
      ],
      [
        "tewe",
        -8.348778161962791
      ],
      [
        "▁cane.",
        -8.34970826049986
      ],
      [
        "agateka",
        -8.349853932495435
      ],
      [
        "▁mbuga",
        -8.350215908292036
      ],
      [
        "tangura",
        -8.351418140296254
      ],
      [
        "tegura",
        -8.351600804059927
      ],
      [
        "▁bake",
        -8.35411422856011
      ],
      [
        "▁Bu",
        -8.354138383563502
      ],
      [
        "▁nabi",
        -8.355663787863918
      ],
      [
        "▁arongoye",
        -8.355986324266544
      ],
      [
        "nge",
        -8.356198726228174
      ],
      [
        "pa",
        -8.357722229921162
      ],
      [
        "▁abana",
        -8.358102497664417
      ],
      [
        "buza",
        -8.35825259153697
      ],
      [
        "▁ingaruka",
        -8.359735541637153
      ],
      [
        "▁w'aba",
        -8.360601730158612
      ],
      [
        "▁de",
        -8.360898173780058
      ],
      [
        "▁ikintu",
        -8.360912949829165
      ],
      [
        "▁bwiwe",
        -8.361032397137112
      ],
      [
        "▁matora",
        -8.364427513204996
      ],
      [
        "▁aya",
        -8.365656102994684
      ],
      [
        "▁\"Ni",
        -8.365797067362404
      ],
      [
        "ch",
        -8.368980536972707
      ],
      [
        "▁Bulaya",
        -8.370606757715557
      ],
      [
        "vu",
        -8.371123786713078
      ],
      [
        "▁Covid",
        -8.371505780225565
      ],
      [
        "▁ugu",
        -8.371910229848186
      ],
      [
        "▁baga",
        -8.374654487222163
      ],
      [
        "riye",
        -8.375208821405177
      ],
      [
        "▁Biden",
        -8.376515260299684
      ],
      [
        "▁n'abandi",
        -8.378575325545041
      ],
      [
        "▁umupira",
        -8.38317821915631
      ],
      [
        "▁bwoko",
        -8.384743055671326
      ],
      [
        "en",
        -8.386602760796318
      ],
      [
        "an",
        -8.387236572998447
      ],
      [
        "▁19",
        -8.389969680284835
      ],
      [
        "▁guha",
        -8.39197619245075
      ],
      [
        "keneye",
        -8.393167391938622
      ],
      [
        "▁25",
        -8.396996535781124
      ],
      [
        "▁11",
        -8.397223390135036
      ],
      [
        "menyesha",
        -8.398073128162677
      ],
      [
        "higanwa",
        -8.399209731410323
      ],
      [
        "▁m",
        -8.3998088036449
      ],
      [
        "▁bikomeye",
        -8.403159027021168
      ],
      [
        "▁guhagarika",
        -8.40361941125541
      ],
      [
        "ronka",
        -8.403951440428317
      ],
      [
        "▁uri",
        -8.404843190067659
      ],
      [
        "nde",
        -8.405210000308859
      ],
      [
        "4",
        -8.405243791349694
      ],
      [
        "▁abagore",
        -8.405842760394968
      ],
      [
        "shobore",
        -8.40852898235925
      ],
      [
        "▁n’u",
        -8.4120253902421
      ],
      [
        "▁gato",
        -8.41644212490483
      ],
      [
        "▁n'umwe",
        -8.416683227433998
      ],
      [
        "▁biga",
        -8.416853842152012
      ],
      [
        "3",
        -8.417138775367828
      ],
      [
        "jwe",
        -8.418212320282706
      ],
      [
        "tariki",
        -8.419609142084362
      ],
      [
        "S",
        -8.419727808790821
      ],
      [
        "▁ako",
        -8.420461381899932
      ],
      [
        "menyeshamakuru",
        -8.422188216944193
      ],
      [
        "▁rugero",
        -8.42398996376787
      ],
      [
        "es",
        -8.424419110002425
      ],
      [
        "’",
        -8.425748051022541
      ],
      [
        "shitse",
        -8.427106338212969
      ],
      [
        "▁yagiye",
        -8.427788978485324
      ],
      [
        "▁nk'",
        -8.428040840331597
      ],
      [
        "▁imigenderanire",
        -8.43160769638987
      ],
      [
        "erekana",
        -8.432707359142562
      ],
      [
        "▁kumu",
        -8.433740256012396
      ],
      [
        "koze",
        -8.43558267686286
      ],
      [
        "▁mugabane",
        -8.435665423513363
      ],
      [
        "ve",
        -8.437488023600666
      ],
      [
        "▁vyara",
        -8.439773183897653
      ],
      [
        "▁hwaniro",
        -8.442850632326317
      ],
      [
        "teguye",
        -8.445122655750307
      ],
      [
        "▁urukino",
        -8.445777087052141
      ],
      [
        "B",
        -8.448871145949584
      ],
      [
        "▁urucanco",
        -8.44979594489319
      ],
      [
        "▁kubandanya",
        -8.450216144670419
      ],
      [
        "mukuru",
        -8.452239810018913
      ],
      [
        "jambo",
        -8.453191068826909
      ],
      [
        "gisata",
        -8.453915270392706
      ],
      [
        "▁akazi",
        -8.455380815066196
      ],
      [
        "▁''",
        -8.457860272905322
      ],
      [
        "▁Paris",
        -8.463150526620122
      ],
      [
        "mpera",
        -8.46325933351337
      ],
      [
        "on",
        -8.464524446543372
      ],
      [
        "▁kibanza",
        -8.46462349668403
      ],
      [
        "▁bikaba",
        -8.464897508061485
      ],
      [
        "▁barenga",
        -8.464942074770736
      ],
      [
        "tumye",
        -8.465942305538166
      ],
      [
        "▁inguvu",
        -8.46594959487211
      ],
      [
        "▁ibindi",
        -8.469124017416455
      ],
      [
        "gabisha",
        -8.470177955142812
      ],
      [
        "▁18",
        -8.470311499810485
      ],
      [
        "guma",
        -8.471158023560312
      ],
      [
        "sigaye",
        -8.471676479160458
      ],
      [
        "▁rugamba",
        -8.47170359985405
      ],
      [
        "▁kigo",
        -8.473433469547231
      ],
      [
        "mye",
        -8.476618125071806
      ],
      [
        "▁ndwara",
        -8.477190009606097
      ],
      [
        "koreshwa",
        -8.480323201909439
      ],
      [
        "▁zina",
        -8.48135185191979
      ],
      [
        "kina",
        -8.482978845649868
      ],
      [
        "vyi",
        -8.482998808066352
      ],
      [
        "▁nkuru",
        -8.483384891609909
      ],
      [
        "▁miriyoni",
        -8.483537345657378
      ],
      [
        "▁Twitter",
        -8.484275701248485
      ],
      [
        "▁kaminuza",
        -8.484305108751517
      ],
      [
        "▁n'ubu",
        -8.484461164548353
      ],
      [
        "▁nk’u",
        -8.485030948916874
      ],
      [
        "▁F",
        -8.485384740725667
      ],
      [
        "▁12",
        -8.485566601097068
      ],
      [
        "kura",
        -8.485944929153778
      ],
      [
        "▁ibiganiro",
        -8.486754701351607
      ],
      [
        "mwa",
        -8.48826433745916
      ],
      [
        "dashobora",
        -8.49128376133271
      ],
      [
        "▁ziri",
        -8.493931300407766
      ],
      [
        "▁imiti",
        -8.494587336643997
      ],
      [
        "▁Messi",
        -8.498614220216158
      ],
      [
        "▁Kuva",
        -8.499727296280827
      ],
      [
        "▁ibitsindo",
        -8.500305503448045
      ],
      [
        "▁gushira",
        -8.500517683797506
      ],
      [
        "▁amatora",
        -8.502899743846198
      ],
      [
        "▁zira",
        -8.502957975510778
      ],
      [
        "▁Bo",
        -8.50332595878421
      ],
      [
        "▁inama",
        -8.505186842139594
      ],
      [
        "▁uburyo",
        -8.50551428586741
      ],
      [
        "▁nyinshi",
        -8.505973499656339
      ],
      [
        "▁nshingamateka",
        -8.50657388670918
      ],
      [
        "▁uwa",
        -8.507125455743491
      ],
      [
        ".000",
        -8.508221513459581
      ],
      [
        "▁rw'",
        -8.509728204430193
      ],
      [
        "▁La",
        -8.510394372500011
      ],
      [
        "▁two",
        -8.512221372649154
      ],
      [
        "▁Iki",
        -8.51294718984479
      ],
      [
        "bitigiri",
        -8.513185569024984
      ],
      [
        "▁z'ukw",
        -8.518304843271807
      ],
      [
        "▁abakozi",
        -8.518418878630065
      ],
      [
        "▁kino",
        -8.51877037527162
      ],
      [
        "bura",
        -8.51946701211225
      ],
      [
        "bihugu",
        -8.519630114916975
      ],
      [
        "savye",
        -8.52018632481905
      ],
      [
        "▁vuba",
        -8.520574506823973
      ],
      [
        "▁Ronaldo",
        -8.520701927293757
      ],
      [
        "serukira",
        -8.520767004258488
      ],
      [
        "rundi",
        -8.520923516203993
      ],
      [
        "sh",
        -8.522287328642488
      ],
      [
        "▁gukoresha",
        -8.523206959358385
      ],
      [
        "▁imwe",
        -8.523969526349708
      ],
      [
        "▁Afghanistan",
        -8.525933903438155
      ],
      [
        "retse",
        -8.526163221391085
      ],
      [
        "▁\"N",
        -8.527684147496997
      ],
      [
        "▁gufasha",
        -8.529606537396477
      ],
      [
        "▁w’",
        -8.53042997729805
      ],
      [
        "▁kumenya",
        -8.530640221296228
      ],
      [
        "''",
        -8.531586562171832
      ],
      [
        "▁gutuma",
        -8.531838187015337
      ],
      [
        "fa",
        -8.532585043666348
      ],
      [
        "▁kazoza",
        -8.534484814609506
      ],
      [
        "▁Si",
        -8.534555742313643
      ],
      [
        "ar",
        -8.535446717451949
      ],
      [
        "▁n'ibindi",
        -8.536360710223814
      ],
      [
        "▁gukina",
        -8.537447562254936
      ],
      [
        "▁umumenyereza",
        -8.540168920819584
      ],
      [
        "▁Espagne",
        -8.54444782585539
      ],
      [
        "▁H",
        -8.547365605721838
      ],
      [
        "▁biba",
        -8.548221840769216
      ],
      [
        "▁nzira",
        -8.551331768325646
      ],
      [
        "▁amatohoza",
        -8.552293136866378
      ],
      [
        "rongoye",
        -8.552436733428635
      ],
      [
        "vya",
        -8.553782106404967
      ],
      [
        "▁gitero",
        -8.554023997458572
      ],
      [
        "kwa",
        -8.554432815858085
      ],
      [
        "▁amajambo",
        -8.558917994624135
      ],
      [
        "▁kivuga",
        -8.562711447155799
      ],
      [
        "hakana",
        -8.564982507062243
      ],
      [
        "hinga",
        -8.566985562406071
      ],
      [
        "imyaka",
        -8.56956521075271
      ],
      [
        "▁V",
        -8.5699742023804
      ],
      [
        "▁cane,",
        -8.570534590851404
      ],
      [
        "6",
        -8.573275330680843
      ],
      [
        "▁buseruko",
        -8.573556362081325
      ],
      [
        "▁Tigray",
        -8.574001813007978
      ],
      [
        "twa",
        -8.574038874980129
      ],
      [
        "▁ingorane",
        -8.575994308745614
      ],
      [
        "haye",
        -8.576764156502962
      ],
      [
        "R",
        -8.57720908543983
      ],
      [
        "▁mugambwe",
        -8.578031406441166
      ],
      [
        "▁10",
        -8.578798149872597
      ],
      [
        "al",
        -8.580148607937868
      ],
      [
        "▁yoba",
        -8.580222323870926
      ],
      [
        "▁rwiwe",
        -8.581558374566072
      ],
      [
        "▁be",
        -8.585345302905349
      ],
      [
        "sho",
        -8.586789669162071
      ],
      [
        "P",
        -8.587305048239775
      ],
      [
        "▁igi",
        -8.588286072368762
      ],
      [
        "]",
        -8.589238566877206
      ],
      [
        "▁Ndayishimiye",
        -8.589245867435814
      ],
      [
        "▁kahise",
        -8.589259058905164
      ],
      [
        "'aho",
        -8.589473869554379
      ],
      [
        "▁banduye",
        -8.59094758440485
      ],
      [
        "yamiriza",
        -8.59197416260621
      ],
      [
        "▁\"Mu",
        -8.592049299079665
      ],
      [
        "▁bato",
        -8.592334318900736
      ],
      [
        "▁tura",
        -8.596458513954984
      ],
      [
        "▁umwanya",
        -8.597180534965503
      ],
      [
        "bwa",
        -8.597703053636241
      ],
      [
        "terwa",
        -8.598428726987084
      ],
      [
        "nd",
        -8.598490543388518
      ],
      [
        "sanga",
        -8.60085995856672
      ],
      [
        "banza",
        -8.601506281067415
      ],
      [
        "kinyamakuru",
        -8.605077183631456
      ],
      [
        "mbo",
        -8.605420781280676
      ],
      [
        "▁bindi",
        -8.606068915737143
      ],
      [
        "7",
        -8.606316988740593
      ],
      [
        "▁cari",
        -8.607247049174468
      ],
      [
        "▁Sa",
        -8.60803778833876
      ],
      [
        "▁c'u",
        -8.611973126299315
      ],
      [
        "mumenyereza",
        -8.613628180460946
      ],
      [
        "▁kwivuna",
        -8.613774439791928
      ],
      [
        "▁tw",
        -8.615176171828153
      ],
      [
        "▁indwara",
        -8.615235885987822
      ],
      [
        "▁yerekana",
        -8.6156900301958
      ],
      [
        "de",
        -8.620192377253654
      ],
      [
        "▁[",
        -8.62136961610766
      ],
      [
        "▁rurangiranwa",
        -8.621371752848663
      ],
      [
        "tsinda",
        -8.621401664470485
      ],
      [
        "kompanyi",
        -8.621538279929723
      ],
      [
        "▁gikomeye",
        -8.621682724633153
      ],
      [
        "st",
        -8.622263456865818
      ],
      [
        "▁ntibi",
        -8.62306840208553
      ],
      [
        "menye",
        -8.624836051515555
      ],
      [
        "▁ga",
        -8.626556677433136
      ],
      [
        "▁hasi",
        -8.628251550695296
      ],
      [
        "▁biwe",
        -8.631043742697944
      ],
      [
        "▁amahirwe",
        -8.6311211990757
      ],
      [
        "▁bitari",
        -8.633000809202398
      ],
      [
        "▁Pre",
        -8.633348788400486
      ],
      [
        "'imyaka",
        -8.634650134689148
      ],
      [
        "▁bura",
        -8.634903958870884
      ],
      [
        "▁ura",
        -8.634961465572637
      ],
      [
        "fatwa",
        -8.635225651702827
      ],
      [
        "▁bizo",
        -8.636234929284628
      ],
      [
        "▁Ham",
        -8.636432078634321
      ],
      [
        "D",
        -8.637953443443221
      ],
      [
        "mabanga",
        -8.639538726650137
      ],
      [
        "▁wayo",
        -8.639843855433671
      ],
      [
        "sigura",
        -8.639940223428711
      ],
      [
        "▁urugero",
        -8.639989030514332
      ],
      [
        "▁wese",
        -8.64065971178225
      ],
      [
        "▁bashika",
        -8.641151150379677
      ],
      [
        "fi",
        -8.642036350543943
      ],
      [
        "▁mushasha",
        -8.643098787861476
      ],
      [
        "minsi",
        -8.645656254176394
      ],
      [
        "nywa",
        -8.646125096730085
      ],
      [
        "▁igitigiri",
        -8.648713390841015
      ],
      [
        "▁ngorane",
        -8.650840311995587
      ],
      [
        "ndu",
        -8.652241286266293
      ],
      [
        "twara",
        -8.652506067388593
      ],
      [
        "▁w'u",
        -8.654282549458602
      ],
      [
        "▁Juventus",
        -8.654569373075848
      ],
      [
        "▁prezida",
        -8.65457552641874
      ],
      [
        "▁umwaka",
        -8.654596049801537
      ],
      [
        "▁bwi",
        -8.655837424675408
      ],
      [
        "mier",
        -8.656040961849595
      ],
      [
        "▁umwongereza",
        -8.656301528973822
      ],
      [
        "▁West",
        -8.657960384873292
      ],
      [
        "▁yamaze",
        -8.658488227871471
      ],
      [
        "▁naho",
        -8.660993570040311
      ],
      [
        "▁yanditse",
        -8.661151697014322
      ],
      [
        "son",
        -8.664009104336394
      ],
      [
        "▁ndi",
        -8.665399108204255
      ],
      [
        "mw",
        -8.667304684136205
      ],
      [
        "▁bike",
        -8.670348433340877
      ],
      [
        "▁yariko",
        -8.670896771439036
      ],
      [
        "▁Taliban",
        -8.671590982510441
      ],
      [
        "▁kwandura",
        -8.672209930896877
      ],
      [
        "rira",
        -8.672254566286345
      ],
      [
        "▁maze",
        -8.674902415881814
      ],
      [
        "▁abasirikare",
        -8.675867532362407
      ],
      [
        "mara",
        -8.677394745377537
      ],
      [
        "zoba",
        -8.678589076666993
      ],
      [
        "▁21",
        -8.679829380649046
      ],
      [
        "sanzwe",
        -8.679853641964385
      ],
      [
        "▁Ubushinwa",
        -8.680157131301314
      ],
      [
        "▁mugambi",
        -8.680234264688538
      ],
      [
        "▁rusangi",
        -8.680238959054547
      ],
      [
        "▁mike",
        -8.681514171290443
      ],
      [
        "M",
        -8.681870353381283
      ],
      [
        "tsi",
        -8.686276301897355
      ],
      [
        "zu",
        -8.687279454221176
      ],
      [
        "ruka",
        -8.68846739255734
      ],
      [
        "▁rutonde",
        -8.688945608861738
      ],
      [
        "▁guheze",
        -8.690361940477938
      ],
      [
        "▁akinira",
        -8.690771127991319
      ],
      [
        "▁ibihumbi",
        -8.69168584760784
      ],
      [
        "nyu",
        -8.694044078680495
      ],
      [
        "▁igikombe",
        -8.694098198206024
      ],
      [
        "▁basanzwe",
        -8.695814676727517
      ],
      [
        "ny",
        -8.695938314842785
      ],
      [
        "▁mbi",
        -8.696759316764826
      ],
      [
        "▁nserukiragihugu",
        -8.697679321995206
      ],
      [
        "▁Iyi",
        -8.698113898156912
      ],
      [
        "▁amezi",
        -8.700959480520941
      ],
      [
        "▁27",
        -8.70174107466718
      ],
      [
        "bivuga",
        -8.70237190861735
      ],
      [
        "▁26",
        -8.703235719355794
      ],
      [
        "▁n'umurwi",
        -8.707618989855069
      ],
      [
        "▁ikibanza",
        -8.707700222802174
      ],
      [
        "▁Leta",
        -8.707783552858027
      ],
      [
        "nyi",
        -8.709209971018057
      ],
      [
        "▁bisanzwe",
        -8.710140710150142
      ],
      [
        "▁Ki",
        -8.711359818286235
      ],
      [
        "▁15",
        -8.71192057988184
      ],
      [
        "aba",
        -8.713058165758945
      ],
      [
        "▁bw'",
        -8.715223544628788
      ],
      [
        "th",
        -8.715742105959148
      ],
      [
        "igeze",
        -8.716893643373496
      ],
      [
        "O",
        -8.71727950557375
      ],
      [
        "▁intumbero",
        -8.717431006044546
      ],
      [
        "...",
        -8.718052572604126
      ],
      [
        "▁c’",
        -8.718463019312015
      ],
      [
        "▁b'i",
        -8.718797806692269
      ],
      [
        "hura",
        -8.71883123570174
      ],
      [
        "fu",
        -8.720937650916717
      ],
      [
        "▁wari",
        -8.721704264880277
      ],
      [
        "▁wose",
        -8.723989227098473
      ],
      [
        "▁politike",
        -8.72446636792986
      ],
      [
        "▁yipfuza",
        -8.725949269967462
      ],
      [
        "▁n'ibi",
        -8.72671034766541
      ],
      [
        "▁\"U",
        -8.727753200848289
      ],
      [
        "korera",
        -8.727890153988913
      ],
      [
        "▁Ga",
        -8.728441918875042
      ],
      [
        "▁ubuhinga",
        -8.73099238673054
      ],
      [
        "▁bifise",
        -8.732724916637707
      ],
      [
        "▁minsi",
        -8.733057061711783
      ],
      [
        "▁bakora",
        -8.733239362572544
      ],
      [
        "ur",
        -8.733420134133652
      ],
      [
        "▁poritike",
        -8.733557278046526
      ],
      [
        "▁agira",
        -8.733803841995606
      ],
      [
        "bonye",
        -8.733868643903357
      ],
      [
        "▁ibirwanisho",
        -8.736170913596673
      ],
      [
        "▁igikorwa",
        -8.736208014904616
      ],
      [
        "▁kwerekana",
        -8.736320269174172
      ],
      [
        "▁Portugal",
        -8.736482662530527
      ],
      [
        "▁gisata",
        -8.736668075055928
      ],
      [
        "▁n’aba",
        -8.7415138299991
      ],
      [
        "kwiye",
        -8.741996957446187
      ],
      [
        "haranira",
        -8.742805568905577
      ],
      [
        "▁29",
        -8.742898029648767
      ],
      [
        "▁umufaransa",
        -8.743336247464146
      ],
      [
        "▁Korea",
        -8.744626320153376
      ],
      [
        "▁13",
        -8.74477859956987
      ],
      [
        "▁guca",
        -8.74488196346686
      ],
      [
        "▁b'",
        -8.744932708705669
      ],
      [
        "buri",
        -8.74614918373683
      ],
      [
        "▁agiye",
        -8.746193084500007
      ],
      [
        "jana",
        -8.747776181149883
      ],
      [
        "▁bamu",
        -8.747840597298698
      ],
      [
        "▁akavuga",
        -8.749151725654109
      ],
      [
        "▁babona",
        -8.75000864824434
      ],
      [
        "▁23",
        -8.75156597922129
      ],
      [
        "hagaritse",
        -8.75199164687704
      ],
      [
        "koresheje",
        -8.751993963245177
      ],
      [
        "▁turi",
        -8.752565447018053
      ],
      [
        "▁22",
        -8.755016601444698
      ],
      [
        "▁mw’i",
        -8.755269438729044
      ],
      [
        "▁Mo",
        -8.75580705177929
      ],
      [
        "▁bibiri",
        -8.75594705024958
      ],
      [
        "▁kubi",
        -8.758043302253975
      ],
      [
        "via",
        -8.758482235200901
      ],
      [
        "▁aha",
        -8.758941289325605
      ],
      [
        "▁ho",
        -8.76001264450166
      ],
      [
        "▁Nigeria",
        -8.761336660909558
      ],
      [
        "▁ryiwe",
        -8.7616689225549
      ],
      [
        "▁zitatu",
        -8.761920020831216
      ],
      [
        "▁Ri",
        -8.762298125856478
      ],
      [
        "▁make",
        -8.762931232400305
      ],
      [
        "▁biro",
        -8.765677990380631
      ],
      [
        "▁gikorwa",
        -8.766797961378902
      ],
      [
        "▁vyerekana",
        -8.767686403468666
      ],
      [
        "gara",
        -8.76781914874542
      ],
      [
        "mbi",
        -8.7689191266503
      ],
      [
        "bikorwa",
        -8.769633209756936
      ],
      [
        "▁iya",
        -8.769663781278977
      ],
      [
        "gendera",
        -8.77080285249035
      ],
      [
        "▁Milan",
        -8.770812083320822
      ],
      [
        "▁Bushinwa",
        -8.770832834398124
      ],
      [
        "▁y'abanyamerika",
        -8.770840770440579
      ],
      [
        "▁cegeranyo",
        -8.771384158849632
      ],
      [
        "▁bibazo",
        -8.771900894717525
      ],
      [
        "▁Igihe",
        -8.772645967321328
      ],
      [
        "▁icizere",
        -8.772646113748397
      ],
      [
        "▁umugambi",
        -8.773650414816384
      ],
      [
        "bwira",
        -8.774011190843847
      ],
      [
        "j",
        -8.77413950814114
      ],
      [
        "kozwe",
        -8.774548033897592
      ],
      [
        "ngi",
        -8.774853968373792
      ],
      [
        "▁Gu",
        -8.774966433960422
      ],
      [
        "▁Mungu",
        -8.775126855592958
      ],
      [
        "▁itari",
        -8.776211356207282
      ],
      [
        "▁ikiza",
        -8.776584111735257
      ],
      [
        "▁shirahamwe",
        -8.777982636129366
      ],
      [
        "▁Ebola",
        -8.78029537264833
      ],
      [
        "▁14",
        -8.780485719025197
      ],
      [
        "T",
        -8.78120899363204
      ],
      [
        "▁ry’",
        -8.782219190997017
      ],
      [
        "ntwaro",
        -8.783530517193734
      ],
      [
        "▁myiyerekano",
        -8.784931040019085
      ],
      [
        "pfu",
        -8.786107609732362
      ],
      [
        "vye",
        -8.789900008646963
      ],
      [
        "▁Abategetsi",
        -8.789909798849765
      ],
      [
        "▁Prezida",
        -8.789943275410371
      ],
      [
        "▁gihugu,",
        -8.790645612427912
      ],
      [
        "▁abansi",
        -8.79095873245907
      ],
      [
        "▁bitandukanye",
        -8.791460046903381
      ],
      [
        "▁17",
        -8.791946773392981
      ],
      [
        "▁imfashanyo",
        -8.792370079630073
      ],
      [
        "kurikirana",
        -8.793187100218539
      ],
      [
        "▁muganga",
        -8.79408104612202
      ],
      [
        "▁muryango",
        -8.795373370453763
      ],
      [
        "▁Le",
        -8.795401327834421
      ],
      [
        "shoboka",
        -8.796546834429742
      ],
      [
        "▁Ru",
        -8.796755330596245
      ],
      [
        "▁mirwi",
        -8.796970853466284
      ],
      [
        "kazi",
        -8.797707586701243
      ],
      [
        "▁Man",
        -8.798687083356885
      ],
      [
        "hagarika",
        -8.798977884594336
      ],
      [
        "▁Everton",
        -8.79961858534893
      ],
      [
        "▁2015",
        -8.799618729435409
      ],
      [
        "▁z'amadorari",
        -8.799743790421328
      ],
      [
        "zwe",
        -8.80070154625692
      ],
      [
        "pi",
        -8.800939275025648
      ],
      [
        "▁ibijanye",
        -8.80166843184405
      ],
      [
        "gipolisi",
        -8.802018095535283
      ],
      [
        "▁baciye",
        -8.803630658188967
      ],
      [
        "▁bakiri",
        -8.804689412958512
      ],
      [
        "▁abi",
        -8.805623379638622
      ],
      [
        "▁2020",
        -8.80938397265258
      ],
      [
        "▁kinini",
        -8.809435039666543
      ],
      [
        "▁bitero",
        -8.80945413226361
      ],
      [
        "pfa",
        -8.809572035498697
      ],
      [
        "▁vyabaye",
        -8.809757106739099
      ],
      [
        "▁Islam",
        -8.811416778831846
      ],
      [
        "hejeje",
        -8.811416961848375
      ],
      [
        "reka",
        -8.812879764366425
      ],
      [
        "▁z'u",
        -8.814416000977715
      ],
      [
        "▁igikumu",
        -8.819324169042815
      ],
      [
        "▁mashasha",
        -8.819459883043496
      ],
      [
        "▁Ubufaransa",
        -8.819520957002423
      ],
      [
        "▁umugwi",
        -8.819749539519012
      ],
      [
        "▁Sport",
        -8.820300885027104
      ],
      [
        "musatirizi",
        -8.821081023635632
      ],
      [
        "▁igitsindo",
        -8.821660398033526
      ],
      [
        "▁igitero",
        -8.8219472932444
      ],
      [
        "▁w'umu",
        -8.823153145339134
      ],
      [
        "menyereza",
        -8.823648986757304
      ],
      [
        "▁bwari",
        -8.824793760878727
      ],
      [
        "▁yagirizwa",
        -8.825204901402508
      ],
      [
        "▁wi",
        -8.825789104526745
      ],
      [
        "ndo",
        -8.826082049242098
      ],
      [
        "▁vyerekeye",
        -8.827283122055778
      ],
      [
        "▁batari",
        -8.827372782021062
      ],
      [
        "menya",
        -8.827914482349708
      ],
      [
        "▁Se",
        -8.828373572684853
      ],
      [
        "▁amakenga",
        -8.83012764110634
      ],
      [
        "rwanira",
        -8.830537410563156
      ],
      [
        "▁De",
        -8.832390681380677
      ],
      [
        "▁w’i",
        -8.834070963190769
      ],
      [
        "mp",
        -8.835385239579574
      ],
      [
        "▁biganiro",
        -8.835534411817296
      ],
      [
        "▁Tu",
        -8.839274536284236
      ],
      [
        "▁2021",
        -8.839514294937485
      ],
      [
        "▁Bufaransa",
        -8.839557236696995
      ],
      [
        "▁\"A",
        -8.839786984994872
      ],
      [
        "▁kw'isi,",
        -8.84010751646236
      ],
      [
        "▁gukinira",
        -8.840124470118317
      ],
      [
        "mpande",
        -8.840587325352162
      ],
      [
        "▁uwundi",
        -8.841169185293097
      ],
      [
        "▁kurusha",
        -8.842513672363138
      ],
      [
        "▁ikomeye",
        -8.842840735463149
      ],
      [
        "s)",
        -8.844603306119378
      ],
      [
        "▁Ukraine.",
        -8.845329651491394
      ],
      [
        "biri",
        -8.846186700495648
      ],
      [
        "▁kira",
        -8.847431848418864
      ],
      [
        "niye",
        -8.84795874927408
      ],
      [
        "▁abari",
        -8.848115325044457
      ],
      [
        "▁ino",
        -8.848126683897881
      ],
      [
        "▁bituma",
        -8.849101681758224
      ],
      [
        "▁Moscou",
        -8.849628543226345
      ],
      [
        "ira",
        -8.849828766021947
      ],
      [
        "r)",
        -8.849908110331526
      ],
      [
        "tangaza",
        -8.850856589306044
      ],
      [
        "F",
        -8.85087367872761
      ],
      [
        "ama",
        -8.850942914423266
      ],
      [
        "▁z'uku",
        -8.850997640111967
      ],
      [
        "▁ita",
        -8.85255247673132
      ],
      [
        "▁\"ku",
        -8.85477571861338
      ],
      [
        "um",
        -8.856010735824736
      ],
      [
        "▁vyi",
        -8.856765010465388
      ],
      [
        "duka",
        -8.857131347061484
      ],
      [
        "▁Uburundi",
        -8.858224635466804
      ],
      [
        "mupfasoni",
        -8.858372990026268
      ],
      [
        "ji",
        -8.858612772509616
      ],
      [
        "nzwe",
        -8.858813199116206
      ],
      [
        "▁Australia",
        -8.859937818114286
      ],
      [
        "▁nguvu",
        -8.859946664638901
      ],
      [
        "▁Newcastle",
        -8.860535123199867
      ],
      [
        "▁buzima",
        -8.86055194911332
      ],
      [
        "▁Irani",
        -8.860720715969919
      ],
      [
        "gumye",
        -8.861731075661595
      ],
      [
        "▁isi",
        -8.862165253694183
      ],
      [
        "▁vy'aba",
        -8.86696804055474
      ],
      [
        "▁babo",
        -8.86743228350974
      ],
      [
        "que",
        -8.870262721048364
      ],
      [
        "▁16",
        -8.87053283173173
      ],
      [
        "▁yemeye",
        -8.870905667252188
      ],
      [
        "kozi",
        -8.870924165199703
      ],
      [
        "▁Mali",
        -8.871572085560427
      ],
      [
        "kunze",
        -8.87166279991229
      ],
      [
        "rwanya",
        -8.874972894511274
      ],
      [
        "emeza",
        -8.875668743634952
      ],
      [
        "korwa",
        -8.878460556689053
      ],
      [
        "▁kintu",
        -8.879717972485958
      ],
      [
        "▁kompanyi",
        -8.880666992207416
      ],
      [
        "▁St-Germain",
        -8.880880800483986
      ],
      [
        "▁b'aba",
        -8.882024515264213
      ],
      [
        "▁gukingira",
        -8.882059021900446
      ],
      [
        "▁abona",
        -8.883107852558975
      ],
      [
        "meze",
        -8.889649722746512
      ],
      [
        "▁asaba",
        -8.890329740831087
      ],
      [
        "▁zikomeye",
        -8.892301335939678
      ],
      [
        "▁Africa",
        -8.892310907488394
      ],
      [
        "▁2019",
        -8.892380129356155
      ],
      [
        "▁inyishu",
        -8.893435403143448
      ],
      [
        "▁Ro",
        -8.89375489594833
      ],
      [
        "▁c'aba",
        -8.894123760493647
      ],
      [
        "▁hara",
        -8.89427314168692
      ],
      [
        "▁rucanco",
        -8.894517917022982
      ],
      [
        "▁gutangura",
        -8.89484073660753
      ],
      [
        "▁bimeze",
        -8.895018426354046
      ],
      [
        "▁ingendo",
        -8.895185054866594
      ],
      [
        "▁mategeko",
        -8.895391026568008
      ],
      [
        "is",
        -8.89655236040429
      ],
      [
        "ronse",
        -8.897498503340186
      ],
      [
        "▁navyo",
        -8.900755899008834
      ],
      [
        "ntara",
        -8.901116963254417
      ],
      [
        "or",
        -8.902086545204366
      ],
      [
        "shirwa",
        -8.902297568705094
      ],
      [
        "▁z'Uburusiya",
        -8.90241296833321
      ],
      [
        "▁Ja",
        -8.902958676250359
      ],
      [
        "▁mupira",
        -8.903804220804847
      ],
      [
        "▁abahinga",
        -8.905820980409848
      ],
      [
        "▁yakoze",
        -8.906835368018825
      ],
      [
        "▁yafashe",
        -8.90961972724456
      ],
      [
        "▁imisi",
        -8.90981371072799
      ],
      [
        "sanze",
        -8.910166124414122
      ],
      [
        "▁misi",
        -8.911322671828497
      ],
      [
        "guye",
        -8.91159119894801
      ],
      [
        "us",
        -8.912964736767016
      ],
      [
        "▁Co",
        -8.913170488774028
      ],
      [
        "▁ahabona",
        -8.913551931205811
      ],
      [
        "▁avuye",
        -8.914039055301444
      ],
      [
        "▁z’",
        -8.917542365130885
      ],
      [
        "rwe",
        -8.917678371213874
      ],
      [
        "po",
        -8.918278904580053
      ],
      [
        "▁ibitero",
        -8.918633017434722
      ],
      [
        "▁akora",
        -8.921932793864077
      ],
      [
        "▁Papa",
        -8.924282302857533
      ],
      [
        "▁Gushik",
        -8.926988948272832
      ],
      [
        "zana",
        -8.928702014566579
      ],
      [
        "tavuga",
        -8.930174978169132
      ],
      [
        "▁bakinyi",
        -8.930732954284785
      ],
      [
        "▁Mi",
        -8.930836593585031
      ],
      [
        "▁ry'u",
        -8.931300727691683
      ],
      [
        "▁bagiye",
        -8.933003147472478
      ],
      [
        "tora",
        -8.934451776275706
      ],
      [
        "▁zari",
        -8.93507479869324
      ],
      [
        "ns",
        -8.935196555534903
      ],
      [
        "▁buraruko",
        -8.935247107068953
      ],
      [
        "▁ibihano",
        -8.93525341292007
      ],
      [
        "▁Bayern",
        -8.935586384421192
      ],
      [
        "▁(Mail)",
        -8.93569642229578
      ],
      [
        "havuye",
        -8.937284147088983
      ],
      [
        "▁gutsinda",
        -8.937906910289936
      ],
      [
        "shingamateka",
        -8.941586337245116
      ],
      [
        "▁umunya-",
        -8.941638021855866
      ],
      [
        "▁izina",
        -8.942663358492002
      ],
      [
        "▁ada",
        -8.943763481996424
      ],
      [
        "kinyi",
        -8.944320469343928
      ],
      [
        "▁minwe",
        -8.946505838253692
      ],
      [
        "▁turere",
        -8.946834519826334
      ],
      [
        "▁vyatumye",
        -8.947039127818393
      ],
      [
        "▁umugore",
        -8.95150610273458
      ],
      [
        "metero",
        -8.953027225848018
      ],
      [
        "▁riza",
        -8.953730702928684
      ],
      [
        "kenewe",
        -8.95417879526872
      ],
      [
        "▁Inter",
        -8.955080661220595
      ],
      [
        "▁aja",
        -8.955321330081984
      ],
      [
        "▁2017",
        -8.957892905910208
      ],
      [
        "▁Burusiya",
        -8.957978150633863
      ],
      [
        "▁ubutunzi",
        -8.958251424693657
      ],
      [
        "▁bushasha",
        -8.958425206695173
      ],
      [
        "▁kibi",
        -8.958728105599077
      ],
      [
        "▁mahiganwa",
        -8.958807094072307
      ],
      [
        "▁gupfa",
        -8.960088906261511
      ],
      [
        "dari",
        -8.961342993044742
      ],
      [
        "▁ukuri",
        -8.965065984618505
      ],
      [
        "muvugizi",
        -8.965231272856354
      ],
      [
        "riza",
        -8.965391041041784
      ],
      [
        "heruka",
        -8.96645748848595
      ],
      [
        "▁1",
        -8.967023217930091
      ],
      [
        "00",
        -8.968274404248085
      ],
      [
        "▁kirekire",
        -8.969336926073844
      ],
      [
        "▁ahubwo",
        -8.969343465138278
      ],
      [
        "▁majambo",
        -8.970261012283952
      ],
      [
        "nka",
        -8.971286411208215
      ],
      [
        "rangiye",
        -8.971407552467838
      ],
      [
        "shize",
        -8.971582195396199
      ],
      [
        "kavuga",
        -8.97209716950075
      ],
      [
        "▁\"Nta",
        -8.972243486221043
      ],
      [
        "hera",
        -8.974962301192036
      ],
      [
        "negura",
        -8.975618482846905
      ],
      [
        "L",
        -8.976045627162687
      ],
      [
        "wanyi",
        -8.976689026775677
      ],
      [
        "nywe",
        -8.977239521335932
      ],
      [
        "heze",
        -8.978554312974994
      ],
      [
        "▁y’u",
        -8.97876511600511
      ],
      [
        "shingiye",
        -8.97930949925657
      ],
      [
        "▁bida",
        -8.980194054605604
      ],
      [
        "▁Mw'i",
        -8.980869036014163
      ],
      [
        "teka",
        -8.98197489541311
      ],
      [
        "▁urubanza",
        -8.982501345516205
      ],
      [
        "▁intambwe",
        -8.9827389619758
      ],
      [
        "genga",
        -8.98292046853636
      ],
      [
        "▁28",
        -8.983234618669158
      ],
      [
        "▁usanga",
        -8.985551640080363
      ],
      [
        "▁inzira",
        -8.987342839741897
      ],
      [
        "▁Ubwongereza",
        -8.987536985495362
      ],
      [
        "▁mugwa",
        -8.988117064972057
      ],
      [
        "▁y'ama",
        -8.988172551695161
      ],
      [
        "amezi",
        -8.988641409744416
      ],
      [
        "rwego",
        -8.989224468609969
      ],
      [
        "nt",
        -8.9913000639929
      ],
      [
        "▁rijejwe",
        -8.992373763308315
      ],
      [
        "tsindiye",
        -8.99276793921975
      ],
      [
        "bonetse",
        -8.992768883007999
      ],
      [
        "harurwa",
        -8.992792990187507
      ],
      [
        "▁w'Ubwongereza",
        -8.992921646318845
      ],
      [
        "▁w'inkino",
        -8.993085405314801
      ],
      [
        "▁ufise",
        -8.993586786299812
      ],
      [
        "▁akamo",
        -8.994490292953259
      ],
      [
        "▁makuru",
        -8.995160169407852
      ],
      [
        "iwe",
        -8.995292731939642
      ],
      [
        "▁ijambo",
        -8.99661874739975
      ],
      [
        "ts",
        -8.998411440847564
      ],
      [
        "▁n'iki",
        -8.998800221298872
      ],
      [
        "gisha",
        -8.99883798430152
      ],
      [
        "ste",
        -8.999291506608591
      ],
      [
        "▁k'",
        -8.999483590158901
      ],
      [
        "▁ngabo",
        -8.999842316662281
      ],
      [
        "▁igisirikare",
        -9.001895242939236
      ],
      [
        "banje",
        -9.002100155387144
      ],
      [
        "gisirikare",
        -9.002829471116558
      ],
      [
        "▁Imana",
        -9.00290439859795
      ],
      [
        "▁bumanuko",
        -9.004633399152098
      ],
      [
        "▁bw'u",
        -9.004823680661087
      ],
      [
        "▁muhira",
        -9.004988798890015
      ],
      [
        "▁ry'aba",
        -9.005649316072788
      ],
      [
        "▁hose",
        -9.005699693602455
      ],
      [
        "▁Lo",
        -9.00654200887555
      ],
      [
        "gizwe",
        -9.006778942529962
      ],
      [
        "▁akomeye",
        -9.007226640257501
      ],
      [
        "zeye",
        -9.007852356986247
      ],
      [
        "▁kuraba",
        -9.00876976925381
      ],
      [
        "▁mugabo",
        -9.009449339129596
      ],
      [
        "▁2018",
        -9.009532355576646
      ],
      [
        "mwo.",
        -9.011545164686115
      ],
      [
        "tswe",
        -9.013313027451048
      ],
      [
        "▁z'ama",
        -9.013363266556109
      ],
      [
        "▁igice",
        -9.014062642262402
      ],
      [
        "x",
        -9.014572550670625
      ],
      [
        "▁nko",
        -9.01653294894847
      ],
      [
        "▁gikombe",
        -9.016685344686117
      ],
      [
        "▁(Sky",
        -9.016876659205273
      ],
      [
        "▁yiteze",
        -9.017100216707343
      ],
      [
        "goye",
        -9.01776851346655
      ],
      [
        "▁vyiza",
        -9.01909972136498
      ],
      [
        "▁rugendo",
        -9.022215656888942
      ],
      [
        "▁Do",
        -9.022471150471194
      ],
      [
        "▁twi",
        -9.022842154014953
      ],
      [
        "▁isaha",
        -9.023800053242852
      ],
      [
        "tangwa",
        -9.026266913642583
      ],
      [
        "▁bintu",
        -9.026832007278859
      ],
      [
        "▁yitwa",
        -9.027386887219048
      ],
      [
        "▁kuvura",
        -9.028617538751993
      ],
      [
        "▁(Sun)",
        -9.029017220250314
      ],
      [
        "▁mafaranga",
        -9.029070160112056
      ],
      [
        "rwi",
        -9.029970419303076
      ],
      [
        "▁\"Ku",
        -9.030388035356587
      ],
      [
        "miriyaridi",
        -9.031278684446525
      ],
      [
        "▁n'abo",
        -9.031389503587889
      ],
      [
        "▁vy’",
        -9.031619238133135
      ],
      [
        "▁c'isi",
        -9.031667057471367
      ],
      [
        "▁umugambwe",
        -9.032593527838298
      ],
      [
        "shatse",
        -9.033285330587312
      ],
      [
        "taba",
        -9.033358670490887
      ],
      [
        "▁nari",
        -9.035703340892894
      ],
      [
        "▁kwemera",
        -9.035865653156845
      ],
      [
        "ronderwa",
        -9.037747370804391
      ],
      [
        "▁50",
        -9.039621858728246
      ],
      [
        "G",
        -9.040292582081126
      ],
      [
        "bandanije",
        -9.04125637362728
      ],
      [
        "▁tangazo",
        -9.041481156108988
      ],
      [
        "▁of",
        -9.043027251333385
      ],
      [
        "▁Kuri",
        -9.043620642116563
      ],
      [
        "et",
        -9.043650913149445
      ],
      [
        "▁ataco",
        -9.043734842461188
      ],
      [
        "▁Brezili",
        -9.044145466328159
      ],
      [
        "▁gusaba",
        -9.04615752093585
      ],
      [
        "mbe",
        -9.046931789422104
      ],
      [
        "▁umuti",
        -9.04880795523139
      ],
      [
        "ntumwa",
        -9.049485186988807
      ],
      [
        "man",
        -9.049495982975351
      ],
      [
        "nditse",
        -9.051119822997522
      ],
      [
        "garagara",
        -9.05208428264746
      ],
      [
        "▁Bujumbura",
        -9.053721686661905
      ],
      [
        "gereranije",
        -9.053721872652467
      ],
      [
        "▁intege",
        -9.053727144677293
      ],
      [
        "masaha",
        -9.053979611347286
      ],
      [
        "▁Me",
        -9.054894573238553
      ],
      [
        "rere",
        -9.055564128605601
      ],
      [
        "▁iyindi",
        -9.057518261128404
      ],
      [
        "▁indege",
        -9.057584005317036
      ],
      [
        "▁W",
        -9.058618124417254
      ],
      [
        "▁Be",
        -9.058640400884174
      ],
      [
        "▁8",
        -9.059129092603103
      ],
      [
        "K",
        -9.061422432833847
      ],
      [
        "▁gute",
        -9.06374527344764
      ],
      [
        "hagaze",
        -9.0656950564157
      ],
      [
        "▁CNL",
        -9.06638003936574
      ],
      [
        "▁2014",
        -9.066380102743754
      ],
      [
        "▁nibo",
        -9.067562344034913
      ],
      [
        "▁y’aho",
        -9.06806164683793
      ],
      [
        "▁umunani",
        -9.068761718643328
      ],
      [
        "▁ikiringo",
        -9.06962963899636
      ],
      [
        "▁Du",
        -9.069994215488428
      ],
      [
        "▁zirenga",
        -9.071002860780819
      ],
      [
        "▁100",
        -9.071198639561512
      ],
      [
        "renze",
        -9.07160364796595
      ],
      [
        "▁baki",
        -9.074542231305209
      ],
      [
        "nte",
        -9.07585953819735
      ],
      [
        "▁umugabo",
        -9.075904001061991
      ],
      [
        "▁itatu",
        -9.076791940517236
      ],
      [
        "▁Ca",
        -9.076840599610872
      ],
      [
        "▁Joe",
        -9.0769952779956
      ],
      [
        "mera",
        -9.077236102158865
      ],
      [
        "gire",
        -9.077644896217976
      ],
      [
        "koreshejwe",
        -9.079201436555316
      ],
      [
        "▁itanu",
        -9.079204667962347
      ],
      [
        "▁kikaba",
        -9.08021865982112
      ],
      [
        "▁guhangana",
        -9.080295369578158
      ],
      [
        "kibazo",
        -9.080625805127077
      ],
      [
        "subiye",
        -9.081410864258984
      ],
      [
        "▁bayo",
        -9.083310443772708
      ],
      [
        "ncuro",
        -9.083313809792438
      ],
      [
        "kiza",
        -9.084132806424943
      ],
      [
        "▁metero",
        -9.084668163734708
      ],
      [
        "tari",
        -9.085356367395125
      ],
      [
        "▁umuryango",
        -9.085453710815148
      ],
      [
        "ation",
        -9.085685485498134
      ],
      [
        "mana",
        -9.087532603793937
      ],
      [
        "▁\"Na",
        -9.087685333898188
      ],
      [
        "▁Al",
        -9.090156407435776
      ],
      [
        "▁ncanco",
        -9.091618659707951
      ],
      [
        "▁Vlad",
        -9.0921878698042
      ],
      [
        "ronswa",
        -9.092192579114684
      ],
      [
        "▁nyamukuru",
        -9.092210636326067
      ],
      [
        "hanganye",
        -9.09226972605413
      ],
      [
        "▁gutyo",
        -9.092276644624523
      ],
      [
        "▁isanzwe",
        -9.092768696662212
      ],
      [
        "▁w'imbere",
        -9.093591118670098
      ],
      [
        "▁misire",
        -9.094261270771177
      ],
      [
        "shure",
        -9.095922954616755
      ],
      [
        "ti:",
        -9.096278503440953
      ],
      [
        "▁bagize",
        -9.096776653603513
      ],
      [
        "▁yaba",
        -9.09729560175001
      ],
      [
        "ut",
        -9.099458176288008
      ],
      [
        "▁z'aba",
        -9.099660410425482
      ],
      [
        "▁ava",
        -9.100558235504248
      ],
      [
        "▁se",
        -9.10072594161105
      ],
      [
        "▁kuguma",
        -9.102448221420248
      ],
      [
        "▁40",
        -9.102516178383944
      ],
      [
        "imir",
        -9.102520324379963
      ],
      [
        "▁kuyi",
        -9.104610752648679
      ],
      [
        "▁New",
        -9.105066410003733
      ],
      [
        "genzi",
        -9.105319049021755
      ],
      [
        "▁SIDA",
        -9.105345335119285
      ],
      [
        "▁Mw'itangazo",
        -9.105451338033294
      ],
      [
        "korewe",
        -9.10551082501355
      ],
      [
        "▁jewe",
        -9.105610445932816
      ],
      [
        "▁ashaka",
        -9.106707809371821
      ],
      [
        "▁n'uwo",
        -9.107580018801816
      ],
      [
        "▁k'i",
        -9.108579738143135
      ],
      [
        "▁Sports",
        -9.108847722580062
      ],
      [
        "▁bagore",
        -9.110781901214569
      ],
      [
        "tara",
        -9.110816937158397
      ],
      [
        "vy",
        -9.111340686631383
      ],
      [
        "▁kurya",
        -9.112324088408414
      ],
      [
        "▁c’i",
        -9.114398059684003
      ],
      [
        "▁kera",
        -9.11502949733567
      ],
      [
        "▁Gi",
        -9.115078740217989
      ],
      [
        "▁azoba",
        -9.117251919549215
      ],
      [
        "▁uta",
        -9.118034029119631
      ],
      [
        "▁ukwi",
        -9.118091810570343
      ],
      [
        "▁ziwe",
        -9.118165203203146
      ],
      [
        "gere",
        -9.118527949159692
      ],
      [
        "▁Nkurunziza",
        -9.11867869762871
      ],
      [
        "▁2016",
        -9.11867883734501
      ],
      [
        "▁Champions",
        -9.118681422655934
      ],
      [
        "▁impungenge",
        -9.118697793221562
      ],
      [
        "ngereza",
        -9.119088500686466
      ],
      [
        "▁nk'u",
        -9.119221897458598
      ],
      [
        "▁umwana",
        -9.12098034165361
      ],
      [
        "▁yacu",
        -9.121180006297669
      ],
      [
        "▁batatu",
        -9.121986635208845
      ],
      [
        "tangajwe",
        -9.122830640288129
      ],
      [
        "twaye",
        -9.123984783776976
      ],
      [
        "▁rw'aba",
        -9.124900109753906
      ],
      [
        "▁ikigo",
        -9.12565241209876
      ],
      [
        "▁yafashwe",
        -9.127344120268415
      ],
      [
        "shami",
        -9.12788578878119
      ],
      [
        "ic",
        -9.129995517762822
      ],
      [
        "▁Zelensky",
        -9.132192181877098
      ],
      [
        "▁Spanish)",
        -9.132192181877532
      ],
      [
        "▁gito",
        -9.132334332334995
      ],
      [
        "▁Ruguru",
        -9.132495377274356
      ],
      [
        "rindiriye",
        -9.13267143198114
      ],
      [
        "jo",
        -9.132813871636833
      ],
      [
        "▁n'amategeko",
        -9.13302962399355
      ],
      [
        "kuri",
        -9.133903437384646
      ],
      [
        "▁kwirinda",
        -9.134082677225518
      ],
      [
        "▁5",
        -9.134523734401444
      ],
      [
        "girije",
        -9.135039054091143
      ],
      [
        "▁ibiharuro",
        -9.136091565883698
      ],
      [
        "▁muto",
        -9.137054568614072
      ],
      [
        "▁bihe",
        -9.137297470902443
      ],
      [
        "ngere",
        -9.139474843155195
      ],
      [
        "▁cabo",
        -9.139502081355776
      ],
      [
        "0.000",
        -9.139643910716538
      ],
      [
        "▁vy'u",
        -9.140182977081167
      ],
      [
        "▁Umwe",
        -9.144677763497246
      ],
      [
        "tanze",
        -9.145767058454148
      ],
      [
        "▁n'ubutegetsi",
        -9.14623618736576
      ],
      [
        "▁c’isi",
        -9.146701591997275
      ],
      [
        "▁amahera",
        -9.146763165803444
      ],
      [
        "huye",
        -9.146987439375152
      ],
      [
        "ston",
        -9.147014484947942
      ],
      [
        "▁wabo",
        -9.147628630300089
      ],
      [
        "▁gishira",
        -9.14826051447308
      ],
      [
        "umugambwe",
        -9.148492562386842
      ],
      [
        "▁baca",
        -9.148720816998768
      ],
      [
        "▁babi",
        -9.149811014494631
      ],
      [
        "▁\"gu",
        -9.149889188076456
      ],
      [
        "zokwi",
        -9.150171833402307
      ],
      [
        "subirira",
        -9.151265392170895
      ],
      [
        "▁iga",
        -9.152087302758748
      ],
      [
        "rangira",
        -9.15412772232574
      ],
      [
        "▁(C",
        -9.154693579974182
      ],
      [
        "▁To",
        -9.154844392665428
      ],
      [
        "girwa",
        -9.155500720508066
      ],
      [
        "▁kugerageza",
        -9.156644859282077
      ],
      [
        "hagarara",
        -9.157333041775608
      ],
      [
        "▁Yavuz",
        -9.157775662796888
      ],
      [
        "▁ntaco",
        -9.158057402173336
      ],
      [
        "▁Uru",
        -9.15913521637145
      ],
      [
        "▁OTAN",
        -9.159779700943794
      ],
      [
        "▁Mourinho",
        -9.159779701438847
      ],
      [
        "▁(Mirror",
        -9.1603583570108
      ],
      [
        "▁31",
        -9.160861351757184
      ],
      [
        "▁ibimenyetso",
        -9.161552885207085
      ],
      [
        "▁bada",
        -9.163823221099657
      ],
      [
        "▁coronavirus.",
        -9.164269726424815
      ],
      [
        "▁iza",
        -9.164763821278996
      ],
      [
        "tagira",
        -9.16524228528207
      ],
      [
        "▁ntiya",
        -9.165359689959566
      ],
      [
        "▁habaye",
        -9.168607576865176
      ],
      [
        "▁gukorwa",
        -9.168909818135063
      ],
      [
        "vura",
        -9.169521224145122
      ],
      [
        "▁abiri",
        -9.171715885266659
      ],
      [
        "▁ibiro",
        -9.173430228417587
      ],
      [
        "▁Munich",
        -9.173869528955677
      ],
      [
        "korerwa",
        -9.173950282093951
      ],
      [
        "▁Argentina",
        -9.175382741025805
      ],
      [
        "▁vyabo",
        -9.175520866495228
      ],
      [
        "▁gushigikira",
        -9.175648826230564
      ],
      [
        "▁Abo",
        -9.17598386761195
      ],
      [
        "▁dufise",
        -9.176308315103427
      ],
      [
        "munota",
        -9.176328603359462
      ],
      [
        "▁none",
        -9.176930182743014
      ],
      [
        "kiye",
        -9.177151800346714
      ],
      [
        "ngana",
        -9.177279652850995
      ],
      [
        "▁zimwe",
        -9.17943792161094
      ],
      [
        "▁bwose",
        -9.17962168980404
      ],
      [
        "▁izindi",
        -9.179892457139292
      ],
      [
        "foto",
        -9.179898801956554
      ],
      [
        "▁rwandiko",
        -9.181046431745738
      ],
      [
        "▁akiri",
        -9.183792746457115
      ],
      [
        "ed",
        -9.184664736325178
      ],
      [
        "H",
        -9.184669646512615
      ],
      [
        "▁kuboneka",
        -9.184780785071556
      ],
      [
        "▁Nk'u",
        -9.185784044757185
      ],
      [
        "▁bisa",
        -9.186068741101568
      ],
      [
        "▁kugurisha",
        -9.186296936468645
      ],
      [
        "▁mugaragaro",
        -9.188149974749455
      ],
      [
        "▁imihoho",
        -9.188162907929371
      ],
      [
        "▁bisagara",
        -9.1883116714713
      ],
      [
        "nta",
        -9.18936156943021
      ],
      [
        "▁ukaba",
        -9.190217407595505
      ],
      [
        "▁ubutumwa",
        -9.191552370588
      ],
      [
        "▁buke",
        -9.19224952012478
      ],
      [
        "yumva",
        -9.193714494731818
      ],
      [
        "▁Wa",
        -9.19616536890345
      ],
      [
        "▁kugabanya",
        -9.196172607966552
      ],
      [
        "mpa",
        -9.198650402695407
      ],
      [
        "▁ika",
        -9.199151141578636
      ],
      [
        "▁2",
        -9.199443445100846
      ],
      [
        "▁\"Aba",
        -9.199991758110517
      ],
      [
        "▁Su",
        -9.201112937913948
      ],
      [
        "▁bimaze",
        -9.202355221184785
      ],
      [
        "▁John",
        -9.202471318215377
      ],
      [
        "▁Atletico",
        -9.202642675861465
      ],
      [
        "▁burundu",
        -9.20264573556872
      ],
      [
        "▁Johnson",
        -9.202816115575516
      ],
      [
        "▁bategetsi",
        -9.2028790215303
      ],
      [
        "▁y'igihugu",
        -9.20329346191534
      ],
      [
        "▁n'Uburusiya",
        -9.203527289795023
      ],
      [
        "rangwa",
        -9.203655250305943
      ],
      [
        "joro",
        -9.204703213909838
      ],
      [
        "▁gukorera",
        -9.205772712410429
      ],
      [
        "riwe",
        -9.206910469345537
      ],
      [
        "▁ubushobozi",
        -9.20722036744575
      ],
      [
        "▁baja",
        -9.20824703470766
      ],
      [
        "▁rubanza",
        -9.208819469361181
      ],
      [
        "▁kenshi",
        -9.21290409544951
      ],
      [
        "buka",
        -9.213161236820564
      ],
      [
        "rino",
        -9.214611885741647
      ],
      [
        "shikira",
        -9.216327787660864
      ],
      [
        "▁n'iyo",
        -9.217230721473578
      ],
      [
        "▁(Football",
        -9.217348572727538
      ],
      [
        "▁myinshi",
        -9.217398655922434
      ],
      [
        "himiriz",
        -9.217422569042448
      ],
      [
        "▁kwinjiza",
        -9.217478349916446
      ],
      [
        "▁ry'umupira",
        -9.217593264490255
      ],
      [
        "▁Li",
        -9.217683961532673
      ],
      [
        "▁mutwe",
        -9.217876863931384
      ],
      [
        "▁Ekleziya",
        -9.218204519792499
      ],
      [
        "▁impunzi",
        -9.219389339242886
      ],
      [
        "▁zine",
        -9.22006848686188
      ],
      [
        "▁vyiwe",
        -9.221084874873439
      ],
      [
        "▁ishaka",
        -9.221338880477226
      ],
      [
        "▁gusa.",
        -9.22203890440366
      ],
      [
        "▁intsinzi",
        -9.222622449924174
      ],
      [
        "fashwe",
        -9.225639860218294
      ],
      [
        "▁N'",
        -9.226813761863221
      ],
      [
        "▁inda",
        -9.227307147254564
      ],
      [
        "ubushikiranganji",
        -9.227457793597694
      ],
      [
        "▁9",
        -9.229575733003953
      ],
      [
        "▁Paul",
        -9.230272300702275
      ],
      [
        "hinduka",
        -9.230309543996077
      ],
      [
        "▁ivyaha",
        -9.231619635291302
      ],
      [
        "▁meza",
        -9.232374924711507
      ],
      [
        "▁News",
        -9.232847639971165
      ],
      [
        "▁kama",
        -9.233209144552085
      ],
      [
        "▁butumwa",
        -9.235385132201614
      ],
      [
        "▁(M",
        -9.235628321550136
      ],
      [
        "▁uvuga",
        -9.236466897174601
      ],
      [
        "▁\"u",
        -9.236882996589173
      ],
      [
        "hagaritswe",
        -9.237758748512757
      ],
      [
        "▁n'abantu",
        -9.239474694820288
      ],
      [
        "▁yamu",
        -9.241157685703605
      ],
      [
        "ngwa",
        -9.245009750217012
      ],
      [
        "▁twebwe",
        -9.247426008880677
      ],
      [
        "▁mwanya",
        -9.247449582092766
      ],
      [
        "▁kw'indwi",
        -9.247569385525027
      ],
      [
        "▁Fa",
        -9.247732166247584
      ],
      [
        "cegeranyo",
        -9.247741361093151
      ],
      [
        "'umwaka",
        -9.24807251142238
      ],
      [
        "▁miti",
        -9.248201682345096
      ],
      [
        "▁niba",
        -9.249663227878727
      ],
      [
        "hawe",
        -9.25017428163894
      ],
      [
        "▁buhinga",
        -9.251504125350774
      ],
      [
        "koreye",
        -9.251584800439755
      ],
      [
        "▁Ko",
        -9.252123771305357
      ],
      [
        "▁musatirizi",
        -9.25237292737955
      ],
      [
        "▁indirimbo",
        -9.253599893280207
      ],
      [
        "'s",
        -9.25562827138287
      ],
      [
        "tegurira",
        -9.25639240058942
      ],
      [
        "vuzwe",
        -9.257168772389875
      ],
      [
        "▁amwe",
        -9.25800857134601
      ],
      [
        "▁muti",
        -9.261310371356421
      ],
      [
        "▁Di",
        -9.262212859174792
      ],
      [
        "raye",
        -9.26282438785799
      ],
      [
        "▁kizigenza",
        -9.262837622678408
      ],
      [
        "▁w'umunya",
        -9.26283943467936
      ],
      [
        "▁w’igihugu",
        -9.263028630240788
      ],
      [
        "▁y'Uburusiya",
        -9.26328663113286
      ],
      [
        "shigikira",
        -9.263311387429557
      ],
      [
        "▁kiwe",
        -9.26335001756938
      ],
      [
        "▁azi",
        -9.263401657761232
      ],
      [
        "▁akarere",
        -9.263478577575317
      ],
      [
        "▁bwinshi",
        -9.264984375328783
      ],
      [
        "▁uza",
        -9.266548625109284
      ],
      [
        "▁gutora",
        -9.266724364763457
      ],
      [
        "▁\"bi",
        -9.266736454370799
      ],
      [
        "bara",
        -9.268118124962573
      ],
      [
        "▁Aya",
        -9.268261073869901
      ],
      [
        "tsinze",
        -9.269203389503076
      ],
      [
        "▁inkuru",
        -9.269838318228988
      ],
      [
        "▁n'ivyo",
        -9.27045712520758
      ],
      [
        "ura",
        -9.270612300814244
      ],
      [
        "▁Yara",
        -9.27061726356478
      ],
      [
        "▁:",
        -9.27075387761117
      ],
      [
        "▁Ta",
        -9.270820378989608
      ],
      [
        "▁mazi",
        -9.272419631488143
      ],
      [
        "▁biraba",
        -9.274979555998954
      ],
      [
        "it",
        -9.275341235675906
      ],
      [
        "▁h",
        -9.275600235192426
      ],
      [
        "erekanye",
        -9.275771853892635
      ],
      [
        "▁kwiga",
        -9.276243276049119
      ],
      [
        "iye",
        -9.277107460588859
      ],
      [
        "nira",
        -9.27742282638669
      ],
      [
        "▁bazi",
        -9.27748715631952
      ],
      [
        "gituma",
        -9.278385270817989
      ],
      [
        "ngurukanabumenyi",
        -9.278435061877516
      ],
      [
        "▁Qatar",
        -9.278435083378593
      ],
      [
        "▁PSG",
        -9.278435173589475
      ],
      [
        "▁wewe",
        -9.279044053369542
      ],
      [
        "shengero",
        -9.279234425329006
      ],
      [
        "sabwa",
        -9.27931469878609
      ],
      [
        "▁n'ibihumbi",
        -9.279342381299061
      ],
      [
        "gurisha",
        -9.28050220329227
      ],
      [
        "▁So",
        -9.281409147206169
      ],
      [
        "▁igisagara",
        -9.282388400748841
      ],
      [
        "▁Y",
        -9.282457082010403
      ],
      [
        "gaba",
        -9.283840450331247
      ],
      [
        "▁kwimukira",
        -9.284148878526235
      ],
      [
        "▁yashikirije",
        -9.284218932953172
      ],
      [
        "▁32",
        -9.28430608844247
      ],
      [
        "▁yongera",
        -9.284978511121851
      ],
      [
        "▁No",
        -9.285418598850978
      ],
      [
        "tegeka",
        -9.286300492927026
      ],
      [
        "tangazo",
        -9.286907522582176
      ],
      [
        "shu",
        -9.287916297050096
      ],
      [
        "▁Bor",
        -9.28976433972219
      ],
      [
        "▁ukwezi",
        -9.292172743999878
      ],
      [
        "▁bitatu",
        -9.292427582251108
      ],
      [
        "▁kuda",
        -9.293107536367181
      ],
      [
        "▁intwaro",
        -9.293555297479813
      ],
      [
        "▁kwongereza",
        -9.294358866455195
      ],
      [
        "▁ngaha",
        -9.2944422918486
      ],
      [
        "▁Harry",
        -9.294474275513195
      ],
      [
        "▁wanje",
        -9.294481072099817
      ],
      [
        "▁bakoze",
        -9.294699816432091
      ],
      [
        "▁nshasha",
        -9.294749394542896
      ],
      [
        "▁nk'umu",
        -9.294926906167536
      ],
      [
        "▁Leicester",
        -9.294970755555756
      ],
      [
        "▁akomoka",
        -9.295213441313756
      ],
      [
        "▁mfise",
        -9.295302418124077
      ],
      [
        "korana",
        -9.295440575850234
      ],
      [
        "shakashatsi",
        -9.29572817798191
      ],
      [
        "▁neza.",
        -9.2971490691618
      ],
      [
        "▁gufatwa",
        -9.298069624398828
      ],
      [
        "▁n'uku",
        -9.298688589791654
      ],
      [
        "ngingo",
        -9.300272992342027
      ],
      [
        "ian",
        -9.30044707811578
      ],
      [
        "▁baha",
        -9.300491519343424
      ],
      [
        "▁afata",
        -9.301346232901615
      ],
      [
        "shizwe",
        -9.301409911308408
      ],
      [
        "▁The",
        -9.302530506437318
      ],
      [
        "kuye",
        -9.302684906948432
      ],
      [
        "garuka",
        -9.303168438502297
      ],
      [
        "▁Yari",
        -9.303636959052175
      ],
      [
        "▁yayo",
        -9.303835031531621
      ],
      [
        "dandaza",
        -9.304023073794049
      ],
      [
        "shigiki",
        -9.3068674408116
      ],
      [
        "teza",
        -9.307488986192993
      ],
      [
        "▁zindi",
        -9.308600076460674
      ],
      [
        "▁Ke",
        -9.309229272099973
      ],
      [
        "▁Omicron",
        -9.310437110073778
      ],
      [
        "▁Villa",
        -9.31043780569716
      ],
      [
        "▁Ghana",
        -9.310447020172944
      ],
      [
        "girizwa",
        -9.31090655446119
      ],
      [
        "▁nziza",
        -9.311076859151877
      ],
      [
        "Ubushinwa",
        -9.311586807616832
      ],
      [
        "ncanco",
        -9.312522363119204
      ],
      [
        "▁kirere",
        -9.312621652424887
      ],
      [
        "bisasu",
        -9.313502626350452
      ],
      [
        "heza",
        -9.313624794101376
      ],
      [
        "▁n'ibihugu",
        -9.314480488972409
      ],
      [
        "▁bakomeye",
        -9.314589606263668
      ],
      [
        "▁Amerika.",
        -9.315761438772391
      ],
      [
        "gore",
        -9.31645446597155
      ],
      [
        "▁bashaka",
        -9.318189843928918
      ],
      [
        "as",
        -9.322416667632726
      ],
      [
        "ine",
        -9.324244368268701
      ],
      [
        "▁mugore",
        -9.324340767400876
      ],
      [
        "tsindwa",
        -9.325580072755585
      ],
      [
        "onald",
        -9.326419565752694
      ],
      [
        "ver",
        -9.326612609682627
      ],
      [
        "▁Repubulika",
        -9.326830552631549
      ],
      [
        "▁malaria",
        -9.326830587736687
      ],
      [
        "▁Leeds",
        -9.32683097054895
      ],
      [
        "▁kwumva",
        -9.327073610224328
      ],
      [
        "▁yateye",
        -9.327215561214192
      ],
      [
        "▁4",
        -9.327254643865047
      ],
      [
        "▁gupima",
        -9.327661773285495
      ],
      [
        "▁Israel",
        -9.327786493790777
      ],
      [
        "▁mirongo",
        -9.328873133466317
      ],
      [
        "shwa",
        -9.331276147008015
      ],
      [
        "▁gukura",
        -9.3313632875964
      ],
      [
        "▁n'ico",
        -9.331666918772246
      ],
      [
        "▁guterwa",
        -9.331689669998003
      ],
      [
        "▁yasavye",
        -9.331880370153424
      ],
      [
        "▁nk’",
        -9.332446401866093
      ],
      [
        "gihe",
        -9.334249303447601
      ],
      [
        "modoka",
        -9.334463690530965
      ],
      [
        "▁bana",
        -9.33556441391421
      ],
      [
        "▁St",
        -9.335731352236522
      ],
      [
        "▁ayandi",
        -9.335949961964456
      ],
      [
        "▁kari",
        -9.336668978323747
      ],
      [
        "ubwoko",
        -9.33740280147357
      ],
      [
        "▁In",
        -9.33799627486565
      ],
      [
        "▁35",
        -9.340340879485524
      ],
      [
        "▁amasaha",
        -9.340644398488731
      ],
      [
        "▁bava",
        -9.342196415235364
      ],
      [
        "un",
        -9.342712058111431
      ],
      [
        "fatira",
        -9.342965109917749
      ],
      [
        "▁Vya",
        -9.343397338576585
      ],
      [
        "▁Taiwan",
        -9.343497225688632
      ],
      [
        "▁Prof",
        -9.343500630145218
      ],
      [
        "▁Evari",
        -9.343505186242947
      ],
      [
        "hohotera",
        -9.343513595428401
      ],
      [
        "imigambi",
        -9.343546176896762
      ],
      [
        "▁33",
        -9.343713171515851
      ],
      [
        "'uyu",
        -9.344111897401184
      ],
      [
        "ruhande",
        -9.344476778497018
      ],
      [
        "▁guhindura",
        -9.345219963651441
      ],
      [
        "sohoye",
        -9.347972987019348
      ],
      [
        "shima",
        -9.348006809887686
      ],
      [
        "les",
        -9.348342759667622
      ],
      [
        "ley",
        -9.348565144298565
      ],
      [
        "▁Pa",
        -9.348732267719207
      ],
      [
        "▁kwakira",
        -9.348886923980023
      ],
      [
        "ad",
        -9.349198666588752
      ],
      [
        "▁bibanza",
        -9.350888649914626
      ],
      [
        "▁y'umu",
        -9.351170117607648
      ],
      [
        "▁itegeko",
        -9.352471858641188
      ],
      [
        "▁bw'aba",
        -9.352789234549537
      ],
      [
        "▁ryari",
        -9.35320977107807
      ],
      [
        "▁bavuze",
        -9.353971704337356
      ],
      [
        "tegeko",
        -9.354415019945186
      ],
      [
        "▁nzu",
        -9.355327563034681
      ],
      [
        "▁kugenda",
        -9.356261542564901
      ],
      [
        "il",
        -9.35971111057546
      ],
      [
        "▁CNDD-FDD",
        -9.360446371840588
      ],
      [
        "▁Argentine",
        -9.360446371920577
      ],
      [
        "▁burengero",
        -9.360446387142076
      ],
      [
        "▁Kyiv",
        -9.360447316089932
      ],
      [
        "▁ngiro",
        -9.360499939671328
      ],
      [
        "▁34",
        -9.360667190120616
      ],
      [
        "▁nkenerwa",
        -9.360703451569776
      ],
      [
        "▁y'Uburundi",
        -9.361109747833908
      ],
      [
        "▁w'umurwi",
        -9.361136078688261
      ],
      [
        "▁hakaba",
        -9.361614755153996
      ],
      [
        "▁kuwa",
        -9.362381174238681
      ],
      [
        "▁ruri",
        -9.36270133942126
      ],
      [
        "mira",
        -9.363775119480712
      ],
      [
        "▁rura",
        -9.363953322808426
      ],
      [
        "ukwezi",
        -9.364278295841725
      ],
      [
        "rt",
        -9.366184624554371
      ],
      [
        "injiye",
        -9.367677085955453
      ],
      [
        "▁imiryango",
        -9.367970734327871
      ],
      [
        "▁ndege",
        -9.369775483243192
      ],
      [
        "▁igituma",
        -9.371584246679287
      ],
      [
        "▁yahawe",
        -9.371644413529136
      ],
      [
        "eka",
        -9.373044516784587
      ],
      [
        "▁amabanga",
        -9.373136524008771
      ],
      [
        "▁kazi",
        -9.374937452261147
      ],
      [
        "mero",
        -9.376271339823624
      ],
      [
        "nji",
        -9.376549246088302
      ],
      [
        "▁Senegal",
        -9.377687760273046
      ],
      [
        "▁video",
        -9.377687768872264
      ],
      [
        "▁imbabazi",
        -9.37768796480513
      ],
      [
        "ussia",
        -9.377765362488715
      ],
      [
        "▁mezi",
        -9.377798396184929
      ],
      [
        "▁Budagi",
        -9.377829854169018
      ],
      [
        "bajijwe",
        -9.377871240789775
      ],
      [
        "▁yinjije",
        -9.377944799099525
      ],
      [
        "nzi",
        -9.378910808758118
      ],
      [
        "benshi",
        -9.379088052775039
      ],
      [
        "▁ahantu",
        -9.379220265550941
      ],
      [
        "vugira",
        -9.379781467234638
      ],
      [
        "▁ukuvuga",
        -9.380187025497998
      ],
      [
        "▁y'Epfo,",
        -9.380392063739734
      ],
      [
        "▁kwambara",
        -9.381411241729918
      ],
      [
        "▁gutwara",
        -9.381731429440556
      ],
      [
        "kingira",
        -9.382285171287734
      ],
      [
        "▁bar",
        -9.3827881215004
      ],
      [
        "menyekana",
        -9.38322330865731
      ],
      [
        "▁rwose",
        -9.383352315658215
      ],
      [
        "▁abany",
        -9.385224445654586
      ],
      [
        "tanzwe",
        -9.386562606528948
      ],
      [
        "▁Ubwo",
        -9.387330693210092
      ],
      [
        "▁kare",
        -9.388839836829934
      ],
      [
        "▁niko",
        -9.390053730807406
      ],
      [
        "▁abivuga",
        -9.390568407295053
      ],
      [
        "▁kuvugana",
        -9.393870243137671
      ],
      [
        "▁n'ubwo",
        -9.394013499633452
      ],
      [
        ";",
        -9.395231610800055
      ],
      [
        "▁Pologne",
        -9.395231610932969
      ],
      [
        "tanguj",
        -9.39537869402968
      ],
      [
        "▁bw'igihugu",
        -9.395434530643474
      ],
      [
        "▁uka",
        -9.395622250486563
      ],
      [
        "▁yar",
        -9.396320437701563
      ],
      [
        "mutegetsi",
        -9.396615852571149
      ],
      [
        "▁n'ugu",
        -9.397112579939462
      ],
      [
        "ganira",
        -9.397655956433585
      ],
      [
        "▁\"ba",
        -9.398687452980221
      ],
      [
        "hingura",
        -9.399063774869573
      ],
      [
        "▁twari",
        -9.39919174436541
      ],
      [
        "▁kabiri.",
        -9.39956561762572
      ],
      [
        "▁ikindi",
        -9.403606064186441
      ],
      [
        "▁kw’i",
        -9.406309858420922
      ],
      [
        "faransa",
        -9.407381054984768
      ],
      [
        "▁kwica",
        -9.407534600064716
      ],
      [
        "dini",
        -9.4076163420883
      ],
      [
        "uguru",
        -9.407820051688287
      ],
      [
        "▁gifise",
        -9.408455461687256
      ],
      [
        "▁riri",
        -9.409538732374847
      ],
      [
        "kurikiranira",
        -9.411549811521361
      ],
      [
        "gen",
        -9.412514806348398
      ],
      [
        "▁internet",
        -9.4130887543493
      ],
      [
        "▁icenda",
        -9.413107237007344
      ],
      [
        "▁amahoro",
        -9.413110797911733
      ],
      [
        "▁3",
        -9.413305778506867
      ],
      [
        "▁c'indege",
        -9.413348193493693
      ],
      [
        "dy",
        -9.414060636514908
      ],
      [
        "gabo",
        -9.414160925793729
      ],
      [
        "vuganye",
        -9.414253128501567
      ],
      [
        "iswe",
        -9.414466210600963
      ],
      [
        "▁urugendo",
        -9.415184406324933
      ],
      [
        "takaza",
        -9.415407535403226
      ],
      [
        "▁mw'ishirahamwe",
        -9.41579202450738
      ],
      [
        "▁ibitaro",
        -9.41590138042838
      ],
      [
        "▁bibaye",
        -9.415910236759718
      ],
      [
        "▁gukoreshwa",
        -9.418036198240758
      ],
      [
        "▁imyiyerekano",
        -9.418044188643224
      ],
      [
        "▁zizo",
        -9.41808166580384
      ],
      [
        "▁umuvugizi",
        -9.419556136708955
      ],
      [
        "▁yatumye",
        -9.419929070300284
      ],
      [
        "▁birimwo",
        -9.420198013666358
      ],
      [
        "▁ati:\"",
        -9.420541715423148
      ],
      [
        "bazwa",
        -9.421803522813676
      ],
      [
        "▁nke",
        -9.421991985925477
      ],
      [
        "shikiriza",
        -9.423301461574862
      ],
      [
        "▁atatu",
        -9.424889184369189
      ],
      [
        "▁Iri",
        -9.425165265662688
      ],
      [
        "ubu",
        -9.426236790453139
      ],
      [
        "▁neza,",
        -9.426938726828165
      ],
      [
        "▁imu",
        -9.430306845226127
      ],
      [
        "▁Philip",
        -9.431268862884913
      ],
      [
        "▁Mariupol",
        -9.431270572322495
      ],
      [
        "▁Wagner",
        -9.431270573266268
      ],
      [
        "▁2022",
        -9.431270846751499
      ],
      [
        "▁ndirimbo",
        -9.431271633197353
      ],
      [
        "gurishwa",
        -9.431272328530447
      ],
      [
        "▁runini",
        -9.431286792643528
      ],
      [
        "▁Inside",
        -9.431298166363844
      ],
      [
        "▁kwigarurira",
        -9.431359495226276
      ],
      [
        "▁w'umufaransa",
        -9.43142078315531
      ],
      [
        "▁uruhusha",
        -9.432186081810123
      ],
      [
        "bisigura",
        -9.432469129758791
      ],
      [
        "▁rw'u",
        -9.432865563799108
      ],
      [
        "nteguro",
        -9.433417900193387
      ],
      [
        "buze",
        -9.433884179247755
      ],
      [
        "▁bane",
        -9.433929472176333
      ],
      [
        "pfuye",
        -9.433966928907392
      ],
      [
        "uma",
        -9.434278825144368
      ],
      [
        "▁imitsi",
        -9.43441786481452
      ],
      [
        "▁isa",
        -9.436053065131793
      ],
      [
        "▁ine",
        -9.436091977127141
      ],
      [
        "den",
        -9.436966646907667
      ],
      [
        "▁biha",
        -9.437139875311836
      ],
      [
        "sinzi",
        -9.437545213519885
      ],
      [
        "▁bapfuye",
        -9.43821420649516
      ],
      [
        "rera",
        -9.438615523888096
      ],
      [
        "▁abanya",
        -9.438673864837462
      ],
      [
        "▁bacu",
        -9.438960252016793
      ],
      [
        "▁uriko",
        -9.440705636624479
      ],
      [
        "rd",
        -9.442806900881424
      ],
      [
        "uba",
        -9.44284832044553
      ],
      [
        "▁6",
        -9.443247024979305
      ],
      [
        "'ukwezi",
        -9.443834371115345
      ],
      [
        "ire",
        -9.44471523960992
      ],
      [
        "vuka",
        -9.445259167707157
      ],
      [
        "ing",
        -9.445280448701094
      ],
      [
        "▁Uwu",
        -9.446661800693146
      ],
      [
        "▁Ho",
        -9.44936086423025
      ],
      [
        "chi",
        -9.449601874208499
      ],
      [
        "▁tuzo",
        -9.449620978862752
      ],
      [
        "▁c'umu",
        -9.44966075851438
      ],
      [
        "▁Magufuli",
        -9.449789090578523
      ],
      [
        "▁corona",
        -9.449846709457727
      ],
      [
        "mbure",
        -9.449881982059786
      ],
      [
        "kurikir",
        -9.44999285452914
      ],
      [
        "▁Madam",
        -9.450374570198255
      ],
      [
        "▁wenyene",
        -9.450426531716708
      ],
      [
        "▁amashure",
        -9.451174421178814
      ],
      [
        "duga",
        -9.451547042872878
      ],
      [
        "▁mugongo",
        -9.451564396128632
      ],
      [
        "▁rishingiye",
        -9.452121508358687
      ],
      [
        "▁yose.",
        -9.452226046748896
      ],
      [
        "▁basaba",
        -9.453271308789466
      ],
      [
        "▁naco",
        -9.453404533545314
      ],
      [
        "▁ibipimo",
        -9.454458239686772
      ],
      [
        "▁bushikiranganji",
        -9.45479684820018
      ],
      [
        "▁cara",
        -9.454984544619895
      ],
      [
        "▁aki",
        -9.455303978530754
      ],
      [
        "▁bushira",
        -9.45618741160963
      ],
      [
        "▁bishoboka",
        -9.456491116585891
      ],
      [
        "▁kw'izin",
        -9.45661549051023
      ],
      [
        "▁ahani",
        -9.458746360648593
      ],
      [
        "▁kane,",
        -9.460014133019381
      ],
      [
        "babaje",
        -9.460562009318517
      ],
      [
        "▁\"Twa",
        -9.46095118995111
      ],
      [
        "▁kizo",
        -9.461168459913532
      ],
      [
        "▁kubiri",
        -9.462045443698221
      ],
      [
        "▁n'ishirahamwe",
        -9.462818365416766
      ],
      [
        "▁yatanze",
        -9.46299025836257
      ],
      [
        "tunga",
        -9.463635900860702
      ],
      [
        "here",
        -9.464231985578785
      ],
      [
        "▁\"Nda",
        -9.464349559796975
      ],
      [
        "nse",
        -9.465707171732307
      ],
      [
        "▁intara",
        -9.466573013768416
      ],
      [
        "oroshe",
        -9.467604563308353
      ],
      [
        "▁bika",
        -9.4679296695411
      ],
      [
        "▁nikleyeri",
        -9.468657014939371
      ],
      [
        "gabanuka",
        -9.468657214542032
      ],
      [
        "▁M23",
        -9.46865732982502
      ],
      [
        "▁nyina",
        -9.468768194077823
      ],
      [
        "hindura",
        -9.469403037863625
      ],
      [
        "▁hagufi",
        -9.469426584908735
      ],
      [
        "▁umutima",
        -9.471269366615633
      ],
      [
        "mbuga",
        -9.471660927463454
      ],
      [
        "▁icegera",
        -9.472269132189178
      ],
      [
        "soko",
        -9.473248507387787
      ],
      [
        "▁(E",
        -9.47339525454015
      ],
      [
        "▁cerekan",
        -9.475447581612862
      ],
      [
        "▁inyungu",
        -9.475457305725788
      ],
      [
        "ndura",
        -9.47555384937057
      ],
      [
        "▁boba",
        -9.475681968034008
      ],
      [
        "▁yabi",
        -9.476711346246088
      ],
      [
        "▁y'a",
        -9.477899537512661
      ],
      [
        "umvikana",
        -9.478040289236452
      ],
      [
        "akazi",
        -9.478315022336808
      ],
      [
        "▁cane\"",
        -9.479316378045011
      ],
      [
        "▁ar",
        -9.479862744601782
      ],
      [
        "munsi",
        -9.480634414029597
      ],
      [
        "nes",
        -9.481922625304481
      ],
      [
        "bwe",
        -9.483760705224551
      ],
      [
        "▁igiye",
        -9.484165746870197
      ],
      [
        "▁iba",
        -9.48466566139556
      ],
      [
        "▁zabo",
        -9.486280109755056
      ],
      [
        "▁Ben",
        -9.487706205075416
      ],
      [
        "nkino",
        -9.487803046595868
      ],
      [
        "▁kw'icumi",
        -9.487888399304687
      ],
      [
        "mwigisha",
        -9.48790339433676
      ],
      [
        "▁Kongo",
        -9.488948384962708
      ],
      [
        "▁p",
        -9.488958829726508
      ],
      [
        "misi",
        -9.489352065521736
      ],
      [
        "▁kumenyesha",
        -9.490045629051252
      ],
      [
        "▁kuriha",
        -9.490085385213261
      ],
      [
        "▁ayi",
        -9.493496774446987
      ],
      [
        "▁bat",
        -9.494451370388939
      ],
      [
        "▁\"Tura",
        -9.495606123148981
      ],
      [
        "fatiwe",
        -9.497706614257751
      ],
      [
        "yongera",
        -9.498107530187236
      ],
      [
        "giciro",
        -9.498604088362441
      ],
      [
        "rekura",
        -9.499277139946923
      ],
      [
        "rusiya",
        -9.500072652272399
      ],
      [
        "▁200",
        -9.501774715934927
      ],
      [
        "igi",
        -9.502935075065647
      ],
      [
        "▁kumenyekana",
        -9.503278039719229
      ],
      [
        "abantu",
        -9.504871828825976
      ],
      [
        "ubuzima",
        -9.505119498972949
      ],
      [
        "injira",
        -9.505235418316964
      ],
      [
        "▁Z",
        -9.506128346082026
      ],
      [
        "gan",
        -9.50637032429761
      ],
      [
        "▁Kremlin",
        -9.507495627500305
      ],
      [
        "▁Maradona",
        -9.507495637932466
      ],
      [
        "hitamwo",
        -9.50750928112817
      ],
      [
        "▁binini",
        -9.50754790823975
      ],
      [
        "shimangira",
        -9.508262828637198
      ],
      [
        "zobandanya",
        -9.509261284206685
      ],
      [
        "icaro",
        -9.509740391248965
      ],
      [
        "▁ry'ama",
        -9.509868739468939
      ],
      [
        "▁nk’i",
        -9.509976791270617
      ],
      [
        "▁bine",
        -9.510096923607742
      ],
      [
        "▁L",
        -9.510438401315447
      ],
      [
        "amafaranga",
        -9.51071418570099
      ],
      [
        "▁igendereza",
        -9.510831041558646
      ],
      [
        "urutse",
        -9.511177581202855
      ],
      [
        "▁nijoro",
        -9.511515585462181
      ],
      [
        "hagarikwa",
        -9.512419103183271
      ],
      [
        "▁guta",
        -9.512917009173046
      ],
      [
        "▁ntiy",
        -9.513097379991873
      ],
      [
        "▁muhari",
        -9.513357554425347
      ],
      [
        "ack",
        -9.513685052022522
      ],
      [
        "emewe",
        -9.51425204346059
      ],
      [
        "towe",
        -9.514391879868217
      ],
      [
        "iri",
        -9.516099761392272
      ],
      [
        "ers",
        -9.51670822070435
      ],
      [
        "girira",
        -9.517228541995435
      ],
      [
        "▁ab",
        -9.517290345442575
      ],
      [
        "▁zifise",
        -9.517857445090074
      ],
      [
        "tahukana",
        -9.518129886171652
      ],
      [
        "sk",
        -9.518270925505803
      ],
      [
        "▁bigenda",
        -9.51890829513113
      ],
      [
        "▁bafata",
        -9.520829600797768
      ],
      [
        "▁y'ibi",
        -9.521906471696228
      ],
      [
        "▁irenga",
        -9.522041821302413
      ],
      [
        "▁yavuga",
        -9.523652185879179
      ],
      [
        "mpi",
        -9.523749416592041
      ],
      [
        "dafise",
        -9.524050231539704
      ],
      [
        "▁bw’",
        -9.524524300560909
      ],
      [
        "kino",
        -9.525209470837769
      ],
      [
        "▁asa",
        -9.525967982577448
      ],
      [
        "▁bavuye",
        -9.52699368011112
      ],
      [
        "▁Charles",
        -9.527495711127566
      ],
      [
        "▁James",
        -9.527497839221972
      ],
      [
        "▁Maroc",
        -9.52750005961635
      ],
      [
        "▁impari",
        -9.527576520382194
      ],
      [
        "sangiye",
        -9.5277125355285
      ],
      [
        "▁mw’ihiganwa",
        -9.52798778713258
      ],
      [
        "inzego",
        -9.528017318381469
      ],
      [
        "▁kw’isi",
        -9.528384827153175
      ],
      [
        "▁bonyene",
        -9.52869568322505
      ],
      [
        "▁bompi",
        -9.528705985296178
      ],
      [
        "▁v",
        -9.530995439127755
      ],
      [
        "racari",
        -9.531088775193941
      ],
      [
        "▁Nda",
        -9.531497169710775
      ],
      [
        "▁kuza",
        -9.531899972191873
      ],
      [
        "▁avugwa",
        -9.531934977695412
      ],
      [
        "ranga",
        -9.532376219478376
      ],
      [
        "▁Yongera",
        -9.532409277693098
      ],
      [
        "hurira",
        -9.533935581067775
      ],
      [
        "▁60",
        -9.534027186888247
      ],
      [
        "rungika",
        -9.534035028626025
      ],
      [
        "▁irondera",
        -9.534114186009438
      ],
      [
        "Uburundi",
        -9.53426292788114
      ],
      [
        "kin",
        -9.53594635607464
      ],
      [
        "▁yandi",
        -9.537029930382001
      ],
      [
        "▁kuta",
        -9.537289695400828
      ],
      [
        "▁Br",
        -9.538577622193078
      ],
      [
        "▁Burundi.",
        -9.538924570711307
      ],
      [
        "bere",
        -9.539771851476328
      ],
      [
        "▁ubundi",
        -9.542987629409314
      ],
      [
        "▁gatatu.",
        -9.542995247928847
      ],
      [
        "▁ibandanya",
        -9.54299707043627
      ],
      [
        "aga",
        -9.543954480980252
      ],
      [
        "▁Roma",
        -9.544343854199791
      ],
      [
        "▁\"Ubu",
        -9.545579944634063
      ],
      [
        "▁Lu",
        -9.545753369924533
      ],
      [
        "subiza",
        -9.545946237372576
      ],
      [
        "▁York",
        -9.546775785839431
      ],
      [
        "nije",
        -9.547460367985874
      ],
      [
        "emera",
        -9.547783279978944
      ],
      [
        "▁Instagram",
        -9.54790379051919
      ],
      [
        "▁amaraso",
        -9.547903984264881
      ],
      [
        "rungitse",
        -9.547904253011161
      ],
      [
        "▁\"Du",
        -9.547919036054553
      ],
      [
        "▁kw'umunani",
        -9.547920292571627
      ],
      [
        "hisemwo",
        -9.54796396018085
      ],
      [
        "nyene",
        -9.548569906771696
      ],
      [
        "▁ivy",
        -9.548912994633962
      ],
      [
        "▁yinjiye",
        -9.549646767650184
      ],
      [
        "vurwa",
        -9.54993505048645
      ],
      [
        "▁zimaze",
        -9.550637093409179
      ],
      [
        "muha",
        -9.553326978905764
      ],
      [
        "▁Fi",
        -9.554498811025297
      ],
      [
        "ari",
        -9.557455159555005
      ],
      [
        "▁bigo",
        -9.557559389494148
      ],
      [
        "▁Kivu",
        -9.557977605153326
      ],
      [
        "vyerekeye",
        -9.558489110710392
      ],
      [
        "fashije",
        -9.559004385747851
      ],
      [
        "▁bwabo",
        -9.559362794019442
      ],
      [
        "miryango",
        -9.559573759131627
      ],
      [
        "ter",
        -9.559637437825275
      ],
      [
        "▁He",
        -9.559798504174216
      ],
      [
        "▁itangazo",
        -9.5603028481645
      ],
      [
        "shinzwe",
        -9.561785838536936
      ],
      [
        "▁Sha",
        -9.561828642470669
      ],
      [
        "▁nk'ibi",
        -9.563074009522536
      ],
      [
        "gihugu",
        -9.563826204169587
      ],
      [
        "reresi",
        -9.563849658696487
      ],
      [
        "▁Afrika.",
        -9.565561485775508
      ],
      [
        "▁zayo",
        -9.56606155651329
      ],
      [
        "men",
        -9.566682056408695
      ],
      [
        "▁amu",
        -9.566763293609922
      ],
      [
        "▁kita",
        -9.566807971281387
      ],
      [
        "mirwi",
        -9.56827632846971
      ],
      [
        "genekerezo",
        -9.568737124628607
      ],
      [
        "▁Niyonsaba",
        -9.568737141338994
      ],
      [
        "▁Palace",
        -9.56873731904988
      ],
      [
        "hanuzi",
        -9.568786097527912
      ],
      [
        "▁ngwara",
        -9.56880441891189
      ],
      [
        "▁bishwe",
        -9.568959831228714
      ],
      [
        "▁Cristiano",
        -9.56897814682156
      ],
      [
        "shimira",
        -9.569282449084707
      ],
      [
        "▁n'abategetsi",
        -9.569327091338856
      ],
      [
        "ramuka",
        -9.56960727846684
      ],
      [
        "▁Umunya",
        -9.569694779456484
      ],
      [
        "ig",
        -9.57062008452894
      ],
      [
        "▁riti:",
        -9.571084982218084
      ],
      [
        "▁kw'",
        -9.572325419291557
      ],
      [
        "▁umunyegori",
        -9.5733559139946
      ],
      [
        "yemeza",
        -9.574350988400916
      ],
      [
        "ning",
        -9.574464341392734
      ],
      [
        "▁yanduye",
        -9.575113814508617
      ],
      [
        "▁ubushakashatsi",
        -9.577213001824456
      ],
      [
        "▁San",
        -9.577227736298687
      ],
      [
        "nyagihugu",
        -9.577527470564352
      ],
      [
        "▁bagirizwa",
        -9.577778628355663
      ],
      [
        "by",
        -9.57804807405717
      ],
      [
        "▁zitari",
        -9.578176519000436
      ],
      [
        "ly",
        -9.57982091746206
      ],
      [
        "sohora",
        -9.582135493369949
      ],
      [
        "subiramwo",
        -9.58217703686286
      ],
      [
        "shikana",
        -9.582236604884194
      ],
      [
        "▁ziva",
        -9.582716052785624
      ],
      [
        "▁kurungika",
        -9.583120784246688
      ],
      [
        "miti",
        -9.583143384156308
      ],
      [
        "▁rw’i",
        -9.585321677718646
      ],
      [
        "▁Ju",
        -9.586339713974965
      ],
      [
        "tura",
        -9.586653769511846
      ],
      [
        "▁kurangira",
        -9.589895340945898
      ],
      [
        "▁Facebook",
        -9.59001371959769
      ],
      [
        "▁y’Epfo",
        -9.590013719649134
      ],
      [
        "▁Wolves",
        -9.590013719662743
      ],
      [
        "geragezwa",
        -9.59001460858398
      ],
      [
        "▁Robert",
        -9.590078157619768
      ],
      [
        "▁vyitezwe",
        -9.59049216913212
      ],
      [
        "▁mw'ijoro",
        -9.590510975436317
      ],
      [
        "mer",
        -9.591010647226707
      ],
      [
        "▁2000",
        -9.591067819288293
      ],
      [
        "▁urugamba",
        -9.591242973672866
      ],
      [
        "▁arenga",
        -9.59186350476352
      ],
      [
        "munyamakuru",
        -9.592716448867176
      ],
      [
        "▁bushakashatsi",
        -9.592768665758776
      ],
      [
        "▁amaso",
        -9.592832765014494
      ],
      [
        "▁bidasanzwe",
        -9.592862302450897
      ],
      [
        "rirwa",
        -9.593068863140221
      ],
      [
        "▁Abarundi",
        -9.593352413041925
      ],
      [
        "▁hoba",
        -9.594446839095546
      ],
      [
        "tohoza",
        -9.595064322814013
      ],
      [
        "▁bambaye",
        -9.595166134783721
      ],
      [
        "▁bandi",
        -9.596520901809992
      ],
      [
        "tandukanye",
        -9.597437629056973
      ],
      [
        "▁We",
        -9.598170424861891
      ],
      [
        "▁yashitse",
        -9.599256087520113
      ],
      [
        "hava",
        -9.599259243937773
      ],
      [
        "▁uzo",
        -9.60087805149443
      ],
      [
        "▁yapfuye",
        -9.601372310020752
      ],
      [
        "ton",
        -9.601816431512617
      ],
      [
        "▁rwari",
        -9.601973449719672
      ],
      [
        "▁yasohoye",
        -9.602376477945382
      ],
      [
        "im",
        -9.602401275683365
      ],
      [
        "▁n'imibu",
        -9.602787753136568
      ],
      [
        "▁Bur",
        -9.603166541150937
      ],
      [
        "▁kitari",
        -9.604238613113633
      ],
      [
        "▁“i",
        -9.604605607722764
      ],
      [
        "gwanya",
        -9.604999225796412
      ],
      [
        "wigere",
        -9.606597192440665
      ],
      [
        "Ubumwe",
        -9.607896976437726
      ],
      [
        "sengero",
        -9.610227490065718
      ],
      [
        "▁Guardiola",
        -9.611752850032364
      ],
      [
        "▁Somalia",
        -9.611752863641723
      ],
      [
        "mpapuro",
        -9.611752891958524
      ],
      [
        "▁kanseri",
        -9.611756540531966
      ],
      [
        "▁gitsina",
        -9.611759157692537
      ],
      [
        "▁mugenziwe",
        -9.611842560793383
      ],
      [
        "▁iwabo",
        -9.611858424048505
      ],
      [
        "▁37",
        -9.611986999511727
      ],
      [
        "▁w'Uburusiya",
        -9.612176274936688
      ],
      [
        "▁kwose",
        -9.612205831653146
      ],
      [
        "▁w’inyuma",
        -9.612423892453052
      ],
      [
        "▁zompi",
        -9.612568951897813
      ],
      [
        "ongozi",
        -9.612860935926026
      ],
      [
        "▁None",
        -9.613062933864638
      ],
      [
        "▁amazu",
        -9.613610481508179
      ],
      [
        "ngira",
        -9.613871892004969
      ],
      [
        "▁zikaba",
        -9.613993909818513
      ],
      [
        "▁ibibanza",
        -9.615104298405347
      ],
      [
        "▁wiwe.",
        -9.615637871873963
      ],
      [
        "▁rugo",
        -9.616754371184651
      ],
      [
        "▁kuzibira",
        -9.616771316987387
      ],
      [
        "babajwe",
        -9.617921547156138
      ],
      [
        "nce",
        -9.617994644825648
      ],
      [
        "▁bigoye",
        -9.61935852709195
      ],
      [
        "▁ciza",
        -9.621247949637212
      ],
      [
        "▁abarwanyi",
        -9.622506179227448
      ],
      [
        "▁birenga",
        -9.623108363395023
      ],
      [
        "tt",
        -9.624187649665192
      ],
      [
        "▁2018,",
        -9.624846281615211
      ],
      [
        "▁bahawe",
        -9.625160453526751
      ],
      [
        "▁biteye",
        -9.628077968748215
      ],
      [
        "kuba",
        -9.628204892808203
      ],
      [
        "shimiye",
        -9.628664179659813
      ],
      [
        "▁icu",
        -9.628804288451757
      ],
      [
        "butegetsi",
        -9.630274731504384
      ],
      [
        "▁zababa",
        -9.630805908711658
      ],
      [
        "▁Bar",
        -9.631247543565703
      ],
      [
        "pira",
        -9.631331058657317
      ],
      [
        "▁yaronse",
        -9.631672791106128
      ],
      [
        "▁El",
        -9.631854982435165
      ],
      [
        "kaba",
        -9.63240017995168
      ],
      [
        "ol",
        -9.63276390873638
      ],
      [
        "▁bibaza",
        -9.633053431371888
      ],
      [
        "▁mabanga",
        -9.633562565920537
      ],
      [
        "▁Dortmund",
        -9.633975072286995
      ],
      [
        "▁Italian)",
        -9.633977759976185
      ],
      [
        "▁Canada",
        -9.633978780888464
      ],
      [
        "▁rubibe",
        -9.633985307399376
      ],
      [
        "▁36",
        -9.634222937844202
      ],
      [
        "▁Izo",
        -9.634273340981206
      ],
      [
        "▁y'Ubwongereza",
        -9.634589412642697
      ],
      [
        "▁rikomeye",
        -9.635183656215057
      ],
      [
        "▁kwicandagisha",
        -9.635278811131979
      ],
      [
        "▁n'umutekano",
        -9.635529597796431
      ],
      [
        "▁\"ata",
        -9.635656537293515
      ],
      [
        "▁Cry",
        -9.635694621230401
      ],
      [
        "▁Hanyuma",
        -9.635964237846464
      ],
      [
        "▁Bwongereza.",
        -9.636312537735204
      ],
      [
        "▁bashasha",
        -9.637858323925943
      ],
      [
        "aka",
        -9.63887243547384
      ],
      [
        "▁Mat",
        -9.639158766628714
      ],
      [
        "▁rw’",
        -9.63970211606093
      ],
      [
        "▁hakiri",
        -9.639925179059198
      ],
      [
        "▁vyakozwe",
        -9.640033678294557
      ],
      [
        "▁amashirahamwe",
        -9.6408958824306
      ],
      [
        "kara",
        -9.643336927171454
      ],
      [
        "em",
        -9.643591913247734
      ],
      [
        "▁yashize",
        -9.644706983752798
      ],
      [
        "rasa",
        -9.645449232566685
      ],
      [
        "▁yanse",
        -9.645850845870862
      ],
      [
        "▁kurangiza",
        -9.646155779386504
      ],
      [
        "che",
        -9.646381606100576
      ],
      [
        "murwi",
        -9.647280196747893
      ],
      [
        "tegekanijwe",
        -9.647367983852163
      ],
      [
        "▁abagabo",
        -9.648024758016476
      ],
      [
        "▁umusi",
        -9.64820180075943
      ],
      [
        "▁bivuye",
        -9.648601939979429
      ],
      [
        "▁70",
        -9.6493923106946
      ],
      [
        "▁y'ico",
        -9.650618434281057
      ],
      [
        "gaca",
        -9.650799734931573
      ],
      [
        "▁kubaho",
        -9.651295752903774
      ],
      [
        "kirwa",
        -9.65190761865653
      ],
      [
        "amajwi",
        -9.652091472222457
      ],
      [
        "tororokaniriz",
        -9.6525887335265
      ],
      [
        "mani",
        -9.652903756168437
      ],
      [
        "itaho",
        -9.654164471162558
      ],
      [
        "▁umuhinga",
        -9.65437346416542
      ],
      [
        "▁Bulaya,",
        -9.654720323294772
      ],
      [
        "▁nk'aba",
        -9.654740385310303
      ],
      [
        "▁kuzo",
        -9.656026524851434
      ],
      [
        "tsindira",
        -9.656398133122472
      ],
      [
        "▁Londres",
        -9.656702338604177
      ],
      [
        "▁Neymar",
        -9.656702389172068
      ],
      [
        "▁mwiza",
        -9.656706161342722
      ],
      [
        "▁imbibe",
        -9.656712653894592
      ],
      [
        "▁kw'icenda",
        -9.656718517046967
      ],
      [
        "▁ruzo",
        -9.656756250377224
      ],
      [
        "▁rukoba",
        -9.656835702139716
      ],
      [
        "▁kw'ishure",
        -9.657170490651124
      ],
      [
        "▁micungararo",
        -9.657657952817335
      ],
      [
        "tanguriye",
        -9.657759436108128
      ],
      [
        "▁bihano",
        -9.657833232389589
      ],
      [
        "▁n'uwu",
        -9.65784242500803
      ],
      [
        "▁umubiri",
        -9.658775069779407
      ],
      [
        "▁ibikombe",
        -9.659552855471127
      ],
      [
        "▁abafana",
        -9.66002941767212
      ],
      [
        "▁Arabi",
        -9.660545518864037
      ],
      [
        "w'ico",
        -9.66060711776225
      ],
      [
        "umu",
        -9.661328761103306
      ],
      [
        "▁guhura",
        -9.661788319955972
      ],
      [
        "▁Kandi",
        -9.66280866057121
      ],
      [
        "▁Ne",
        -9.663232274925662
      ],
      [
        "▁ikoreshwa",
        -9.663243085534639
      ],
      [
        "kenshi",
        -9.66366331776652
      ],
      [
        "▁ana",
        -9.66402522927385
      ],
      [
        "▁Fe",
        -9.664312297210527
      ],
      [
        "twaza",
        -9.664444365207588
      ],
      [
        "amakuru",
        -9.664560707695312
      ],
      [
        "▁y’aba",
        -9.664626457855984
      ],
      [
        "vana",
        -9.664636479307616
      ],
      [
        "▁7",
        -9.665272505163971
      ],
      [
        "▁gutsindir",
        -9.666235638307189
      ],
      [
        "▁ida",
        -9.666428966296376
      ],
      [
        "▁iminota",
        -9.66682404086574
      ],
      [
        "kwiragira",
        -9.666836912699985
      ],
      [
        "kera",
        -9.667664284658734
      ],
      [
        "komere",
        -9.66902367033717
      ],
      [
        "tsinzwe",
        -9.670514296799952
      ],
      [
        "▁vyoba",
        -9.671462657472453
      ],
      [
        "▁akwiye",
        -9.671488586449302
      ],
      [
        "▁bumwe",
        -9.671561227609097
      ],
      [
        "egereye",
        -9.672445985509803
      ],
      [
        "▁bit",
        -9.673660007895991
      ],
      [
        "▁bashoboye",
        -9.673982678933358
      ],
      [
        "▁zita",
        -9.675400294923831
      ],
      [
        "kiriye",
        -9.677103284340586
      ],
      [
        "▁nteguro",
        -9.67724774556002
      ],
      [
        "land",
        -9.677258642057705
      ],
      [
        "buvuga",
        -9.677428910081835
      ],
      [
        "▁batanu",
        -9.678309743825201
      ],
      [
        "▁tegeko",
        -9.678651803546815
      ],
      [
        "▁Reuters",
        -9.679958159148239
      ],
      [
        "▁David",
        -9.67995817876533
      ],
      [
        "▁(Goal",
        -9.67995832375306
      ],
      [
        "▁Alex",
        -9.679959863554318
      ],
      [
        "▁Old",
        -9.679963088391752
      ],
      [
        "▁Rero",
        -9.679996069457468
      ],
      [
        "▁Olympic",
        -9.679997999937179
      ],
      [
        "▁Petero",
        -9.680668574454756
      ],
      [
        "vyatumye",
        -9.681126780521584
      ],
      [
        "▁ahandi",
        -9.681721116295108
      ],
      [
        "▁azorangira",
        -9.681948069449641
      ],
      [
        "▁yerekanye",
        -9.683787150907639
      ],
      [
        "!",
        -9.684105997484755
      ],
      [
        "▁yonyene",
        -9.684487379574026
      ],
      [
        "▁bafashe",
        -9.684988421385269
      ],
      [
        "▁bakoresha",
        -9.687175216311395
      ],
      [
        "▁amazi",
        -9.687663082494742
      ],
      [
        "▁yemera",
        -9.688002011651102
      ],
      [
        "rungikwa",
        -9.689594687868091
      ],
      [
        "riteguye",
        -9.689972916845168
      ],
      [
        "▁Jo",
        -9.69060827369661
      ],
      [
        "nditswe",
        -9.690951319359602
      ],
      [
        "▁igiciro",
        -9.691021949380694
      ],
      [
        "Abanyamerika",
        -9.691182782121746
      ],
      [
        "two",
        -9.691632149922203
      ],
      [
        "▁rira",
        -9.691858768780836
      ],
      [
        "▁Or",
        -9.69201647641488
      ],
      [
        "erekeye",
        -9.692771336415406
      ],
      [
        "▁r",
        -9.69353179226896
      ],
      [
        "▁zida",
        -9.693753811140295
      ],
      [
        "▁kumara",
        -9.695400603921575
      ],
      [
        "▁atera",
        -9.696246224253676
      ],
      [
        "tambara",
        -9.697979567445525
      ],
      [
        "▁\"M",
        -9.69870463908909
      ],
      [
        "yr",
        -9.700047510269721
      ],
      [
        "▁bati",
        -9.700845330570884
      ],
      [
        "yobozi",
        -9.701609635129078
      ],
      [
        "▁nk",
        -9.701730591492165
      ],
      [
        "▁Aha",
        -9.702377629450211
      ],
      [
        "gurira",
        -9.702953596976563
      ],
      [
        "nsi",
        -9.703292394450974
      ],
      [
        "▁TPLF",
        -9.703767682764033
      ],
      [
        "▁FIFA",
        -9.703767682815332
      ],
      [
        "▁William",
        -9.703767724133392
      ],
      [
        "▁Kabul",
        -9.703770195084918
      ],
      [
        "▁nzego",
        -9.703827067547481
      ],
      [
        "radiyo",
        -9.703912543745247
      ],
      [
        "▁mvo",
        -9.704004059989305
      ],
      [
        "▁c'Uburusiya",
        -9.70427982747854
      ],
      [
        "stal",
        -9.704382639646889
      ],
      [
        "▁gukomeza",
        -9.704688211022274
      ],
      [
        "takaje",
        -9.704788979997229
      ],
      [
        "▁n'izindi",
        -9.704794923635752
      ],
      [
        "▁kwikingira",
        -9.704991002360764
      ],
      [
        "▁bibandanya",
        -9.705141849462919
      ],
      [
        "huriye",
        -9.705661514218315
      ],
      [
        "▁ndwi,",
        -9.705819811700913
      ],
      [
        "ririmba",
        -9.706084049876907
      ],
      [
        "itezwe",
        -9.706240279031125
      ],
      [
        "▁butaka",
        -9.706243366617256
      ],
      [
        "▁ikiganiro",
        -9.706839490521615
      ],
      [
        "▁Ndi",
        -9.707343497296385
      ],
      [
        "umva",
        -9.71013157677497
      ],
      [
        "▁birori",
        -9.710417643069082
      ],
      [
        "ball",
        -9.710467017598182
      ],
      [
        "▁guhiganwa",
        -9.710998789081998
      ],
      [
        "emejwe",
        -9.711240477161859
      ],
      [
        "kimenyetso",
        -9.711449792797765
      ],
      [
        "▁ivyiyumviro",
        -9.712173959595157
      ],
      [
        "kuwe",
        -9.71485903103477
      ],
      [
        "▁gutangaza",
        -9.715081994169458
      ],
      [
        "kinye",
        -9.715563704744863
      ],
      [
        "bira",
        -9.716136529838446
      ],
      [
        "menyeshej",
        -9.716556669202802
      ],
      [
        "▁yama",
        -9.716695313134759
      ],
      [
        "▁bufise",
        -9.7168711626192
      ],
      [
        "▁n’umu",
        -9.716883752042746
      ],
      [
        "vo",
        -9.717083001561505
      ],
      [
        "▁amenyereza",
        -9.717287351946041
      ],
      [
        "nonor",
        -9.718507144052014
      ],
      [
        "w'imigenderanire",
        -9.718576180650034
      ],
      [
        "dutse",
        -9.719708934269416
      ],
      [
        "umugabo",
        -9.719928962884543
      ],
      [
        "▁kuzi",
        -9.720828326752315
      ],
      [
        "zio",
        -9.720957958448167
      ],
      [
        "V",
        -9.723694491324643
      ],
      [
        "▁Kim",
        -9.723804492757944
      ],
      [
        "shikirijwe",
        -9.723973053891209
      ],
      [
        "kwemeza",
        -9.72405478764258
      ],
      [
        "han",
        -9.724758881129503
      ],
      [
        "uri",
        -9.725917516825081
      ],
      [
        "▁bica",
        -9.726837031356204
      ],
      [
        "umutekano",
        -9.727105208967187
      ],
      [
        "▁Djokovic",
        -9.728157926658238
      ],
      [
        "▁Kherson",
        -9.72815792750494
      ],
      [
        "▁Pogba",
        -9.728157939482152
      ],
      [
        "shingwamanza",
        -9.728157998525573
      ],
      [
        "▁Tokyo",
        -9.728160181362941
      ],
      [
        "▁mitwe",
        -9.728169457818955
      ],
      [
        "▁ingwara",
        -9.72820136924194
      ],
      [
        "▁\"Ya",
        -9.728202535600401
      ],
      [
        "▁2013",
        -9.728275285399166
      ],
      [
        "▁agashimwe",
        -9.728380889807966
      ],
      [
        "hinduye",
        -9.728591225217304
      ],
      [
        "▁n'imi",
        -9.72873888039944
      ],
      [
        "serukizi",
        -9.729005124285333
      ],
      [
        "▁atandatu",
        -9.729139101548721
      ],
      [
        "▁amajana",
        -9.730112331650973
      ],
      [
        "▁World",
        -9.730408183306945
      ],
      [
        "▁yagira",
        -9.730441019570078
      ],
      [
        "▁ugasanga",
        -9.731262566440591
      ],
      [
        "▁nkeka",
        -9.731420144241955
      ],
      [
        "gabanya",
        -9.732879359404878
      ],
      [
        "▁irimwo",
        -9.732982937272821
      ],
      [
        "▁migwi",
        -9.734620322956257
      ],
      [
        "ganda",
        -9.73646516058334
      ],
      [
        "▁Mar",
        -9.736482853626255
      ],
      [
        "▁ibinyamakuru",
        -9.736628621724515
      ],
      [
        "Ikigo",
        -9.73691830289129
      ],
      [
        "▁bikwiye",
        -9.737574721071802
      ],
      [
        "unguru",
        -9.738951178024587
      ],
      [
        "▁tuka",
        -9.739937627278028
      ],
      [
        "ranye",
        -9.740728714699264
      ],
      [
        "▁Twa",
        -9.74090252419036
      ],
      [
        "ndukira",
        -9.740973082655275
      ],
      [
        "▁21,",
        -9.743658054298534
      ],
      [
        "▁vyaha",
        -9.743879014567893
      ],
      [
        "cumba",
        -9.744641584033277
      ],
      [
        "nyamakuru",
        -9.745894137496013
      ],
      [
        "kubita",
        -9.746636407700176
      ],
      [
        "koraniro",
        -9.749453822533743
      ],
      [
        "yamirije",
        -9.74989150397457
      ],
      [
        "rijwe",
        -9.750111383257531
      ],
      [
        "gari",
        -9.75054272357747
      ],
      [
        "▁Ara",
        -9.753086754291253
      ],
      [
        "▁bwite",
        -9.753095937202469
      ],
      [
        "?\"",
        -9.753125105684639
      ],
      [
        "▁Saoudite",
        -9.753157926649152
      ],
      [
        "▁Trafford",
        -9.75315792689858
      ],
      [
        "▁Brésil",
        -9.753157927078412
      ],
      [
        "▁Brighton",
        -9.753157941981422
      ],
      [
        "▁Cameroun",
        -9.75315794211359
      ],
      [
        "shikirizamanza",
        -9.75315814127972
      ],
      [
        "▁Sentare",
        -9.753158396138575
      ],
      [
        "▁Buhindi",
        -9.753159414676322
      ],
      [
        "▁Angola",
        -9.753162553873898
      ],
      [
        "gendeye",
        -9.753163341524127
      ],
      [
        "bwirizwashingiro",
        -9.753168736594564
      ],
      [
        "▁umuziki",
        -9.753180358325471
      ],
      [
        "▁abarwayi",
        -9.753182368600804
      ],
      [
        "▁Butaliyano",
        -9.753189765171275
      ],
      [
        "▁Sudani",
        -9.75452698806983
      ],
      [
        "▁kidasanzwe",
        -9.75471355411604
      ],
      [
        "▁ugira",
        -9.754969990581053
      ],
      [
        "▁International",
        -9.755072008923374
      ],
      [
        "▁cabaye",
        -9.755366026726682
      ],
      [
        "▁ibikoresho",
        -9.75631019291917
      ],
      [
        "▁imyimenyerezo",
        -9.756724609483577
      ],
      [
        "▁uturere",
        -9.756843062360428
      ],
      [
        "▁ukwa",
        -9.757275593628805
      ],
      [
        "▁impinduka",
        -9.757745084107043
      ],
      [
        "sse",
        -9.758117627563607
      ],
      [
        "▁y'iki",
        -9.75817063440037
      ],
      [
        "fuza",
        -9.758204864915324
      ],
      [
        "ugaye",
        -9.758220569229266
      ],
      [
        "▁yompi",
        -9.7582252875178
      ],
      [
        "▁abatari",
        -9.75827481676518
      ],
      [
        "▁mashirahamwe",
        -9.759070002397968
      ],
      [
        "uru",
        -9.759764319957785
      ],
      [
        "▁kwugara",
        -9.759839111670992
      ],
      [
        "bajije",
        -9.760656340994256
      ],
      [
        "▁yasubiye",
        -9.76124706137161
      ],
      [
        "▁n'uwa",
        -9.761299923508023
      ],
      [
        "▁22,",
        -9.762028545061101
      ],
      [
        "▁cakozwe",
        -9.76328574441405
      ],
      [
        "taye",
        -9.764154666566347
      ],
      [
        "ibibazo",
        -9.7646414774795
      ],
      [
        "rangiza",
        -9.765128867153773
      ],
      [
        "Uburusiya",
        -9.765832949879984
      ],
      [
        "toye",
        -9.766241729970254
      ],
      [
        "▁Nti",
        -9.768896123697235
      ],
      [
        "banga",
        -9.769036306794703
      ],
      [
        "tinya",
        -9.76945946687558
      ],
      [
        "ntsinzi",
        -9.769859372703266
      ],
      [
        "nyungu",
        -9.77048591896019
      ],
      [
        "▁irya",
        -9.770898339853336
      ],
      [
        "w'amagara",
        -9.771832808628426
      ],
      [
        "my",
        -9.772073122845043
      ],
      [
        "▁wacu",
        -9.772169653784136
      ],
      [
        "▁at",
        -9.772450854384596
      ],
      [
        "▁bizoba",
        -9.773784034357416
      ],
      [
        "teze",
        -9.774440585049879
      ],
      [
        "▁\"Ibi",
        -9.774796591724812
      ],
      [
        "magara",
        -9.775003795248566
      ],
      [
        "giriranir",
        -9.775487222446301
      ],
      [
        "▁Cha",
        -9.775711937242633
      ],
      [
        "senyeri",
        -9.776509261543062
      ],
      [
        "▁2019,",
        -9.776711484859838
      ],
      [
        "▁zinga",
        -9.777043292931733
      ],
      [
        "▁umugwa",
        -9.777710481661801
      ],
      [
        "siga",
        -9.778051554156683
      ],
      [
        "▁Volodym",
        -9.778798952494084
      ],
      [
        "▁1990",
        -9.778799268686452
      ],
      [
        "▁zitanu",
        -9.778802429748925
      ],
      [
        "▁for",
        -9.778803921385983
      ],
      [
        "▁Misiri",
        -9.77880397650172
      ],
      [
        "▁umutwe",
        -9.778842186453048
      ],
      [
        "▁hirya",
        -9.778843097133283
      ],
      [
        "▁Chi",
        -9.778907576953603
      ],
      [
        "▁\"Iki",
        -9.779168248101993
      ],
      [
        "▁umushahara",
        -9.77924646155883
      ],
      [
        "▁mabarabara",
        -9.779298916474618
      ],
      [
        "▁n’Uburusiya",
        -9.779343083836148
      ],
      [
        "ron",
        -9.779385311190676
      ],
      [
        "▁yiwe.",
        -9.77940504074769
      ],
      [
        "▁n'uruza",
        -9.779642497345375
      ],
      [
        "biganiro",
        -9.779794161922966
      ],
      [
        "▁Liga",
        -9.78052648385468
      ],
      [
        "▁bakeneye",
        -9.780582506895644
      ],
      [
        "▁\"Hari",
        -9.781184188543591
      ],
      [
        "▁zitandukanye",
        -9.781193422695
      ],
      [
        "▁ibigwanisho",
        -9.783000411944853
      ],
      [
        "▁bumaze",
        -9.78336659158072
      ],
      [
        "▁gushirwa",
        -9.783519009180255
      ],
      [
        "▁utu",
        -9.783566654602126
      ],
      [
        "▁kwari",
        -9.78370008124888
      ],
      [
        "ill",
        -9.784278486022721
      ],
      [
        "bonano",
        -9.784489319160555
      ],
      [
        "▁matohoza",
        -9.784936910283665
      ],
      [
        "▁atandukanye",
        -9.785892974365145
      ],
      [
        "Urwanda",
        -9.786666346429268
      ],
      [
        "sirikare",
        -9.78848364229283
      ],
      [
        "▁yamye",
        -9.788629065619647
      ],
      [
        "▁inzu",
        -9.788824029915515
      ],
      [
        "▁Har",
        -9.788944160973992
      ],
      [
        "▁yindi",
        -9.789229708701349
      ],
      [
        "shikirije",
        -9.789371281146384
      ],
      [
        "muri",
        -9.789957395266352
      ],
      [
        "teje",
        -9.790439777242824
      ],
      [
        "yitezwe",
        -9.791186634712437
      ],
      [
        "id",
        -9.7915196829356
      ],
      [
        "▁zara",
        -9.792469939629598
      ],
      [
        "kekwa",
        -9.793153437582353
      ],
      [
        "ingenzi",
        -9.793336804342621
      ],
      [
        "▁yatewe",
        -9.793635613677788
      ],
      [
        "amadorari",
        -9.793822015316543
      ],
      [
        "vyiyumviro",
        -9.795893530251803
      ],
      [
        "▁biboneka",
        -9.797299186613078
      ],
      [
        "shavu",
        -9.800139049022649
      ],
      [
        "▁cacu",
        -9.801235656697731
      ],
      [
        "▁ashobore",
        -9.802325360049409
      ],
      [
        "mva",
        -9.803188735576983
      ],
      [
        "▁n'iyi",
        -9.80368703270013
      ],
      [
        "fitiye",
        -9.80395089169113
      ],
      [
        "'umupira",
        -9.804838596209803
      ],
      [
        "▁Chris",
        -9.804841058900355
      ],
      [
        "▁Pierre",
        -9.805114726834333
      ],
      [
        "▁Centrafrique",
        -9.805114741761619
      ],
      [
        "▁Madagascar",
        -9.805114741762688
      ],
      [
        "▁utwigoro",
        -9.80511474180182
      ],
      [
        "▁inyigisho",
        -9.805114746773663
      ],
      [
        "▁agaciro",
        -9.80511800233321
      ],
      [
        "▁terefone",
        -9.805120283451785
      ],
      [
        "Fabri",
        -9.805123464252386
      ],
      [
        "▁ibitsina",
        -9.805123687125652
      ],
      [
        "garutse",
        -9.805159576705272
      ],
      [
        "▁w'umwongereza",
        -9.80527798328837
      ],
      [
        "▁vy'abandura",
        -9.805314586788349
      ],
      [
        "▁z'amapawundi",
        -9.805327931368872
      ],
      [
        "▁komine",
        -9.805329699352548
      ],
      [
        "▁Boris",
        -9.80537993197677
      ],
      [
        "▁karanda",
        -9.805479452379192
      ],
      [
        "rangije",
        -9.80548492529475
      ],
      [
        "cho",
        -9.805574323842192
      ],
      [
        "▁Lion",
        -9.805578187449978
      ],
      [
        "▁nkenguzamateka",
        -9.805603521805791
      ],
      [
        "gitabo",
        -9.805701259777985
      ],
      [
        "▁n'iyindi",
        -9.805802862247656
      ],
      [
        "▁bw'amagara",
        -9.806193833755158
      ],
      [
        "menyekanye",
        -9.8070425010455
      ],
      [
        "genewe",
        -9.807072575936582
      ],
      [
        "hanura",
        -9.807439510632832
      ],
      [
        "▁bayi",
        -9.807760829357715
      ],
      [
        "▁kinyamakuru",
        -9.80776323846821
      ],
      [
        "▁muririmvyi",
        -9.807942772052442
      ],
      [
        "▁‘",
        -9.807989640733574
      ],
      [
        "merewe",
        -9.80817989085763
      ],
      [
        "▁gutsindwa",
        -9.808277806070414
      ],
      [
        "▁Jen",
        -9.808980282936908
      ],
      [
        "▁kurongora",
        -9.810126041854831
      ],
      [
        "yongerako",
        -9.810152290600193
      ],
      [
        "▁ikwirakwira",
        -9.810736546523561
      ],
      [
        "▁busanzwe",
        -9.81154626104865
      ],
      [
        "koranye",
        -9.812974711490167
      ],
      [
        "umvikanye",
        -9.813495960477699
      ],
      [
        "▁AC",
        -9.814858818102335
      ],
      [
        "yerekeye",
        -9.815503269329675
      ],
      [
        "Y",
        -9.815991697682595
      ],
      [
        "▁ruvuga",
        -9.816311077370802
      ],
      [
        "▁abaganga",
        -9.817016133736347
      ],
      [
        "at",
        -9.820020552125817
      ],
      [
        "▁and",
        -9.821123257018339
      ],
      [
        "▁Min",
        -9.821484319405645
      ],
      [
        "▁yoronka",
        -9.82151645129585
      ],
      [
        "komeye",
        -9.821827013772543
      ],
      [
        "▁Ari",
        -9.822132755897334
      ],
      [
        "▁bajejwe",
        -9.822415515170226
      ],
      [
        "▁bakozi",
        -9.82377740726035
      ],
      [
        "▁sa",
        -9.823834016355352
      ],
      [
        "nganya",
        -9.824638378471416
      ],
      [
        "▁Yi",
        -9.82525827793667
      ],
      [
        "olo",
        -9.826507328725409
      ],
      [
        "baba",
        -9.826716211175846
      ],
      [
        "▁maso",
        -9.827792962725638
      ],
      [
        "▁kubura",
        -9.82825370633735
      ],
      [
        "▁ziba",
        -9.828874460990505
      ],
      [
        "▁gukorana",
        -9.828967828807253
      ],
      [
        "▁Ar",
        -9.830821874339497
      ],
      [
        "▁\"Ha",
        -9.831690983975744
      ],
      [
        "▁Southampton",
        -9.83214176878865
      ],
      [
        "ubudandaji",
        -9.832141800279961
      ],
      [
        "▁Kelly",
        -9.832142321291116
      ],
      [
        "▁twese",
        -9.832153797030957
      ],
      [
        "cangero",
        -9.832168370739431
      ],
      [
        "▁impuzu",
        -9.83218209279949
      ],
      [
        "▁abanyeshure",
        -9.8322094504061
      ],
      [
        "▁\"Ba",
        -9.832252691454798
      ],
      [
        "▁zitandatu",
        -9.832508675270141
      ],
      [
        "Ubutaliyano",
        -9.832786335258493
      ],
      [
        "▁n'indwara",
        -9.832801837730337
      ],
      [
        "▁n'amakungu",
        -9.83295622443065
      ],
      [
        "▁ubuvuzi",
        -9.832977562008033
      ],
      [
        "nirwa",
        -9.832994567017325
      ],
      [
        "▁United.",
        -9.833157908710664
      ],
      [
        "hamagari",
        -9.83323012393008
      ],
      [
        "▁munani",
        -9.833348655348804
      ],
      [
        "▁n'amagara",
        -9.833404320827404
      ],
      [
        "▁isano",
        -9.833559208239407
      ],
      [
        "▁umwuga",
        -9.833589921665993
      ],
      [
        "▁n'umuryango",
        -9.833593718734093
      ],
      [
        "▁n'umugore",
        -9.833839088918321
      ],
      [
        "▁ic",
        -9.834167827601789
      ],
      [
        "▁Francis",
        -9.834229737594143
      ],
      [
        "▁ubwiwe",
        -9.83423163206291
      ],
      [
        "▁vyagenze",
        -9.834302639495617
      ],
      [
        "▁abanduye",
        -9.834334423563332
      ],
      [
        "vugiye",
        -9.834760344716234
      ],
      [
        "▁\"Ariko",
        -9.834958423861384
      ],
      [
        "▁bito",
        -9.835588608076323
      ],
      [
        "▁abasivire",
        -9.836006241503233
      ],
      [
        "mugambwe",
        -9.836881536599378
      ],
      [
        "fe",
        -9.837224783248658
      ],
      [
        "▁2020.",
        -9.83729928796368
      ],
      [
        "▁aboneka",
        -9.83735324669012
      ],
      [
        "min",
        -9.837490048827773
      ],
      [
        "emeye",
        -9.837493759897837
      ],
      [
        "vugana",
        -9.838440045997345
      ],
      [
        "▁ngendo",
        -9.838730899315587
      ],
      [
        "all",
        -9.839233183781722
      ],
      [
        "▁ikipe",
        -9.83960536034931
      ],
      [
        "▁bobo",
        -9.839834356077368
      ],
      [
        "▁umeng",
        -9.840095783953574
      ],
      [
        "J",
        -9.842007676620788
      ],
      [
        "▁irabe",
        -9.842869116604028
      ],
      [
        "ndikiye",
        -9.84313766467037
      ],
      [
        "Z",
        -9.843610099294725
      ],
      [
        "Imana",
        -9.843869003972207
      ],
      [
        "shinga",
        -9.84408843954185
      ],
      [
        "tangazwa",
        -9.844801598428372
      ],
      [
        "wari",
        -9.846288186839246
      ],
      [
        "ririmvyi",
        -9.84751452900352
      ],
      [
        "bihangange",
        -9.848018921831654
      ],
      [
        "muryango",
        -9.848763259526944
      ],
      [
        "▁ibihe",
        -9.84903387694997
      ],
      [
        "▁Urwanda",
        -9.84916980759438
      ],
      [
        "▁itabi",
        -9.849212642336722
      ],
      [
        "ndwi",
        -9.849454724221134
      ],
      [
        "usangi",
        -9.851290741849764
      ],
      [
        "▁gushaka",
        -9.851527939742502
      ],
      [
        "uzu",
        -9.851662422946626
      ],
      [
        "▁zivuga",
        -9.85178379874308
      ],
      [
        "▁kw'isi.",
        -9.85383472468715
      ],
      [
        "▁y'ubu",
        -9.85465206566646
      ],
      [
        "umuntu",
        -9.854899961795546
      ],
      [
        "▁Iran",
        -9.855631905419358
      ],
      [
        "reke",
        -9.855964886177581
      ],
      [
        "amasezerano",
        -9.857801897676904
      ],
      [
        "yemeje",
        -9.85808443227279
      ],
      [
        "▁baza",
        -9.85924502204346
      ],
      [
        "▁nazo",
        -9.859388240197733
      ],
      [
        "▁it",
        -9.859768521559639
      ],
      [
        "▁(Express",
        -9.859919546566447
      ],
      [
        "▁George",
        -9.859919547552378
      ],
      [
        "▁Covax",
        -9.859919705804069
      ],
      [
        "▁Nairobi",
        -9.859919856458898
      ],
      [
        "▁mugoroba",
        -9.85992038473242
      ],
      [
        "▁kwicwa",
        -9.8599309917897
      ],
      [
        "▁ububasha",
        -9.85994142596315
      ],
      [
        "▁sub",
        -9.859979810672757
      ],
      [
        "▁Ubudagi",
        -9.860270780457268
      ],
      [
        "isekeza",
        -9.860324276512394
      ],
      [
        "gereranya",
        -9.860621021963038
      ],
      [
        "▁ubucuti",
        -9.861040862156383
      ],
      [
        "kinira",
        -9.861088911288805
      ],
      [
        "bujijwe",
        -9.861274155256183
      ],
      [
        "▁Danemark",
        -9.86155867038925
      ],
      [
        "bangamir",
        -9.86156247514189
      ],
      [
        "▁yizeye",
        -9.862517876317916
      ],
      [
        "▁n'Ubushinwa",
        -9.86263513384044
      ],
      [
        "▁800",
        -9.863482208143749
      ],
      [
        "▁atanga",
        -9.863648380249986
      ],
      [
        "▁kwihweza",
        -9.864627149193716
      ],
      [
        "▁amasanamu",
        -9.864733775374965
      ],
      [
        "nzu",
        -9.865595507662581
      ],
      [
        "gori",
        -9.865947686462102
      ],
      [
        "▁Yo",
        -9.867219439611212
      ],
      [
        "ibonekeza",
        -9.867584766789648
      ],
      [
        "▁itike",
        -9.867942969360538
      ],
      [
        "▁bikuru",
        -9.868390759014407
      ],
      [
        "ndikwa",
        -9.87031461989783
      ],
      [
        "fatanya",
        -9.870677643406339
      ],
      [
        "kire",
        -9.870716934671044
      ],
      [
        "▁Hollande",
        -9.871420318223997
      ],
      [
        "honyanga",
        -9.872433051717657
      ],
      [
        "hangana",
        -9.872518588701045
      ],
      [
        "hitanye",
        -9.872592477759273
      ],
      [
        "▁bateye",
        -9.87304188689645
      ],
      [
        "shijwe",
        -9.873047542956389
      ],
      [
        "▁bagabo",
        -9.873689423156986
      ],
      [
        "▁yatowe",
        -9.874000242309503
      ],
      [
        "▁aheruka",
        -9.874434106278231
      ],
      [
        "▁Go",
        -9.875817386214397
      ],
      [
        "emerewe",
        -9.87765815737524
      ],
      [
        "bihumbi",
        -9.877871072824693
      ],
      [
        "▁yahagaritswe",
        -9.878004620399627
      ],
      [
        "▁buda",
        -9.878250127884996
      ],
      [
        "kurikiye",
        -9.878913118478874
      ],
      [
        "▁28,",
        -9.878990458174915
      ],
      [
        "▁busa",
        -9.880746091646962
      ],
      [
        "▁nawo",
        -9.880780887886928
      ],
      [
        "▁kindi",
        -9.881532223786298
      ],
      [
        "▁aza",
        -9.881559221152148
      ],
      [
        "▁25,",
        -9.88259580243726
      ],
      [
        "▁yamenyeshej",
        -9.882801530314808
      ],
      [
        "▁wara",
        -9.88352944006244
      ],
      [
        "▁munya",
        -9.883767897791966
      ],
      [
        "barabara",
        -9.884152708004686
      ],
      [
        "dagi",
        -9.88441049227037
      ],
      [
        "kwitaho",
        -9.885042748506061
      ],
      [
        "▁Ramaphosa",
        -9.88849097513986
      ],
      [
        "▁(ESPN",
        -9.888490975153537
      ],
      [
        "▁National",
        -9.888491355403248
      ],
      [
        "▁Samia",
        -9.888500710636695
      ],
      [
        "▁Pep",
        -9.88850625454128
      ],
      [
        "ica",
        -9.888536232664942
      ],
      [
        "▁wundi",
        -9.888552735804927
      ],
      [
        "▁kanaka",
        -9.888629138863523
      ],
      [
        "▁kwugurura",
        -9.888650312051984
      ],
      [
        "▁yanje",
        -9.88889022525926
      ],
      [
        "▁Sergi",
        -9.88892787108668
      ],
      [
        "▁gucungera",
        -9.88914558422747
      ],
      [
        "▁ntambwe",
        -9.88935436580822
      ],
      [
        "▁OMS/WHO",
        -9.889699634736946
      ],
      [
        "gandagurwa",
        -9.889743878625946
      ],
      [
        "▁batandatu",
        -9.889842496426029
      ],
      [
        "▁Star",
        -9.890147751590906
      ],
      [
        "▁gutorwa",
        -9.890276997959116
      ],
      [
        "▁2010",
        -9.890579522662833
      ],
      [
        "▁Uruguay",
        -9.890658235284848
      ],
      [
        "Ubwongereza",
        -9.890768896565648
      ],
      [
        "▁vyayo",
        -9.890962724862987
      ],
      [
        "▁umwansi",
        -9.89149916029324
      ],
      [
        "▁gushikiriza",
        -9.891614086665049
      ],
      [
        "tego",
        -9.891835004398226
      ],
      [
        "▁\"Bira",
        -9.891970689298708
      ],
      [
        "ngorane",
        -9.89236584551614
      ],
      [
        "▁basa",
        -9.893141231943574
      ],
      [
        "▁mabi",
        -9.893152614376923
      ],
      [
        "umurwi",
        -9.894090163413436
      ],
      [
        "▁akongera",
        -9.895445059544047
      ],
      [
        "▁(U",
        -9.896149369220588
      ],
      [
        "▁\"Si",
        -9.896192585429542
      ],
      [
        "▁ivyemezo",
        -9.896463396543888
      ],
      [
        "tunganya",
        -9.896503404412377
      ],
      [
        "bikora",
        -9.897289183145773
      ],
      [
        "▁banyagihugu",
        -9.897721635686967
      ],
      [
        "rekurwa",
        -9.897894070601957
      ],
      [
        "▁inyeshamba",
        -9.898717683598257
      ],
      [
        "▁itandukanye",
        -9.900850907298013
      ],
      [
        "▁kugenzura",
        -9.900982706710344
      ],
      [
        "▁Ab",
        -9.901333715173994
      ],
      [
        "kwemera",
        -9.90206117748507
      ],
      [
        "▁bafashwe",
        -9.902084933587027
      ],
      [
        "subiriye",
        -9.902402665057789
      ],
      [
        "seru",
        -9.903060334769046
      ],
      [
        "▁kwubaka",
        -9.904382334882282
      ],
      [
        "zera",
        -9.905918444565675
      ],
      [
        "▁n'ivya",
        -9.90678409172873
      ],
      [
        "naniwe",
        -9.908303913644858
      ],
      [
        "▁iteka",
        -9.911571944012053
      ],
      [
        "yumvira",
        -9.914299862774264
      ],
      [
        "▁igira",
        -9.914519793226866
      ],
      [
        "▁impande",
        -9.915081822535637
      ],
      [
        "▁Kore",
        -9.915390556393389
      ],
      [
        "▁y'I",
        -9.91599787059211
      ],
      [
        "▁bwoba",
        -9.917581379495314
      ],
      [
        "bwirizwa",
        -9.917665488339853
      ],
      [
        "rorero",
        -9.917753619248082
      ],
      [
        "scription",
        -9.91790273984375
      ],
      [
        "▁Washington",
        -9.917902739867069
      ],
      [
        "▁Navalny",
        -9.917902740375267
      ],
      [
        "▁ubuhungiro",
        -9.917902743691773
      ],
      [
        "▁Donbas",
        -9.917902768304447
      ],
      [
        "▁Crimea",
        -9.917902792208663
      ],
      [
        "▁w’amaguru",
        -9.917903596142589
      ],
      [
        "hindutse",
        -9.917905110373598
      ],
      [
        "▁Abiy",
        -9.917958093888023
      ],
      [
        "▁bwanje",
        -9.917995805155448
      ],
      [
        "▁amakori",
        -9.918061556848219
      ],
      [
        "gabishij",
        -9.918293108024246
      ],
      [
        "kenera",
        -9.918294263977081
      ],
      [
        "▁400",
        -9.918322608359363
      ],
      [
        "▁Euro",
        -9.918368661042798
      ],
      [
        "uzuye",
        -9.918676976933384
      ],
      [
        "dasanzwe",
        -9.9187211166761
      ],
      [
        "kunzwe",
        -9.91924682195546
      ],
      [
        "▁nkeya",
        -9.919778423391216
      ],
      [
        "ndege",
        -9.920688017432008
      ],
      [
        "ros",
        -9.920797792078547
      ],
      [
        "mbaye",
        -9.921266053299592
      ],
      [
        "▁\"ya",
        -9.92148549032013
      ],
      [
        "▁w’umu",
        -9.922172342581312
      ],
      [
        "sabwe",
        -9.922236447499182
      ],
      [
        "gitigiri",
        -9.9224010856626
      ],
      [
        "▁Ayo",
        -9.923174890445226
      ],
      [
        "fatanije",
        -9.92367715148852
      ],
      [
        "▁buta",
        -9.925273167453998
      ],
      [
        "ana",
        -9.925623373697071
      ],
      [
        "am",
        -9.9265347152493
      ],
      [
        "▁kumenyereza",
        -9.92690869594149
      ],
      [
        "▁kugarukana",
        -9.927341948704422
      ],
      [
        "ug",
        -9.928217689046303
      ],
      [
        "▁Uw",
        -9.92853667861334
      ],
      [
        "▁cigwa",
        -9.928736673435305
      ],
      [
        "▁n’ama",
        -9.93005622464429
      ],
      [
        "▁kwiruka",
        -9.930252962678779
      ],
      [
        "▁bw’i",
        -9.930819443055249
      ],
      [
        "(",
        -9.932011266070573
      ],
      [
        "umugwa",
        -9.932930710809801
      ],
      [
        "gene",
        -9.933111769039831
      ],
      [
        "▁ak",
        -9.934208664774452
      ],
      [
        "kiwe",
        -9.934536025921684
      ],
      [
        "aronke",
        -9.93548330311957
      ],
      [
        "buye",
        -9.93556806260553
      ],
      [
        "▁mubiri",
        -9.93585670366275
      ],
      [
        "zoguma",
        -9.936064831439735
      ],
      [
        "sohotse",
        -9.93622927445066
      ],
      [
        "bindi",
        -9.936792513152247
      ],
      [
        "gije",
        -9.936881825826497
      ],
      [
        "▁ryasoho",
        -9.938009684186248
      ],
      [
        "bora",
        -9.93877275854824
      ],
      [
        "giporisi",
        -9.940386817865331
      ],
      [
        "▁ziga",
        -9.940612486501644
      ],
      [
        "▁bagira",
        -9.940902310680347
      ],
      [
        "migambwe",
        -9.941446652680087
      ],
      [
        "gufa",
        -9.941559730612358
      ],
      [
        "gurwa",
        -9.941782146354504
      ],
      [
        "mukobwa",
        -9.941898313141207
      ],
      [
        "banda",
        -9.943059225495158
      ],
      [
        "Abarusiya",
        -9.94310695930206
      ],
      [
        "▁nivyo",
        -9.943189971754787
      ],
      [
        "mura",
        -9.944095000591428
      ],
      [
        "ty",
        -9.944388699697441
      ],
      [
        "▁Franci",
        -9.945866580327136
      ],
      [
        "▁(Sport",
        -9.946007770646256
      ],
      [
        "▁guma",
        -9.946534401431203
      ],
      [
        "som",
        -9.946740607550025
      ],
      [
        "▁bagi",
        -9.947077172955447
      ],
      [
        "▁Pochettino",
        -9.948205770146767
      ],
      [
        "▁required)",
        -9.948205770146803
      ],
      [
        "rupapuro",
        -9.948205780951236
      ],
      [
        "▁Thomas",
        -9.948205808003962
      ],
      [
        "▁Addis",
        -9.948206281687872
      ],
      [
        "▁minota",
        -9.948213286078195
      ],
      [
        "▁Obama",
        -9.948217394345916
      ],
      [
        "▁Martin",
        -9.94828160122525
      ],
      [
        "▁ruhara",
        -9.948290764937568
      ],
      [
        "nkabuzo",
        -9.9483810972743
      ],
      [
        "▁kwubahiriza",
        -9.948413328222475
      ],
      [
        "▁w'Ubufaransa",
        -9.948518050424877
      ],
      [
        "vangura",
        -9.94879845352952
      ],
      [
        "▁amabarabara",
        -9.9489894992031
      ],
      [
        "▁gishasha",
        -9.949022828467605
      ],
      [
        "▁And",
        -9.949230503733823
      ],
      [
        "▁yinjiza",
        -9.949317402597337
      ],
      [
        "tegekanya",
        -9.949466530470644
      ],
      [
        "▁rukomeye",
        -9.949543015024949
      ],
      [
        "▁FA",
        -9.949609102644326
      ],
      [
        "▁“N",
        -9.949881198113463
      ],
      [
        "hunze",
        -9.951503595978352
      ],
      [
        "▁amahiganwa",
        -9.95167563821787
      ],
      [
        "▁ntivya",
        -9.952370139936665
      ],
      [
        "tsind",
        -9.953219879592762
      ],
      [
        "▁y'ibihugu",
        -9.953275916788808
      ],
      [
        "pfungwa",
        -9.95350373856978
      ],
      [
        "▁Kane",
        -9.954384791028838
      ],
      [
        "▁n'abana",
        -9.955468225353531
      ],
      [
        "kurwa",
        -9.955905325292658
      ],
      [
        "size",
        -9.957243548598429
      ],
      [
        "▁bitangwa",
        -9.957596453146051
      ],
      [
        "▁amakungu",
        -9.95770879313301
      ],
      [
        "▁y'ugu",
        -9.957718104177701
      ],
      [
        "▁23,",
        -9.959673719962481
      ],
      [
        "▁Mwa",
        -9.959831984020967
      ],
      [
        "lan",
        -9.960700861740776
      ],
      [
        "▁Ed",
        -9.960883578748934
      ],
      [
        "ongereje",
        -9.961416228233322
      ],
      [
        "polisi",
        -9.96178334726726
      ],
      [
        "inzira",
        -9.961808325447425
      ],
      [
        "gendana",
        -9.96190016249274
      ],
      [
        "ndika",
        -9.962651984900836
      ],
      [
        "▁nzo",
        -9.962820335006487
      ],
      [
        "▁kipe",
        -9.963119477295246
      ],
      [
        "▁bangana",
        -9.96364634766282
      ],
      [
        "yemereye",
        -9.963656713329229
      ],
      [
        "▁Izi",
        -9.96416048262165
      ],
      [
        "uka",
        -9.964471030543084
      ],
      [
        "▁tuzi",
        -9.96578311040716
      ],
      [
        "genwa",
        -9.96650275826657
      ],
      [
        "▁yatsinze",
        -9.967503865174622
      ],
      [
        "kambi",
        -9.968575010678697
      ],
      [
        "▁umuhari",
        -9.968704836416912
      ],
      [
        "binyamakuru",
        -9.969243561494253
      ],
      [
        "▁del",
        -9.969403924408411
      ],
      [
        "rwaye",
        -9.969498592594563
      ],
      [
        "renza",
        -9.96976363474498
      ],
      [
        "▁Abandi",
        -9.970128283603971
      ],
      [
        "cishije",
        -9.970337528133319
      ],
      [
        "kenye",
        -9.970407281070031
      ],
      [
        "▁udu",
        -9.971219875792038
      ],
      [
        "▁caha",
        -9.972720833218704
      ],
      [
        "▁Za",
        -9.973128616832248
      ],
      [
        "▁gusumba.",
        -9.97339245282707
      ],
      [
        "▁Ti",
        -9.974101841663835
      ],
      [
        "girijwe",
        -9.975106558809069
      ],
      [
        "▁ry’i",
        -9.975331365692778
      ],
      [
        "gend",
        -9.975895456311548
      ],
      [
        "ick",
        -9.976054824918789
      ],
      [
        "bihweza",
        -9.976557264408378
      ],
      [
        "▁mutegetsi",
        -9.976978301527588
      ],
      [
        "nduye",
        -9.977292411596627
      ],
      [
        "’aho",
        -9.977525369322374
      ],
      [
        "▁baje",
        -9.97781981164278
      ],
      [
        "hinguriro",
        -9.978133494688057
      ],
      [
        "kongera",
        -9.9784718186967
      ],
      [
        "’intambara",
        -9.978672169717994
      ],
      [
        "▁tuga",
        -9.978694225669553
      ],
      [
        "rije",
        -9.979320925185784
      ],
      [
        "▁ntib",
        -9.979373781046686
      ],
      [
        "▁Croatia",
        -9.979455770490814
      ],
      [
        "▁Vaticano",
        -9.979455772297959
      ],
      [
        "▁Turukiya",
        -9.979455773249217
      ],
      [
        "▁Eto'o",
        -9.979455779944965
      ],
      [
        "▁Blanche",
        -9.979455794614296
      ],
      [
        "▁bwicanyi",
        -9.97945637964095
      ],
      [
        "▁Guinea",
        -9.979457423117402
      ],
      [
        "sumvya",
        -9.97946015100445
      ],
      [
        "▁Cup",
        -9.979462205687929
      ],
      [
        "mwambaro",
        -9.979462654061876
      ],
      [
        "▁bitanu",
        -9.979472089298774
      ],
      [
        "mibereho",
        -9.97954110653805
      ],
      [
        "▁z’Uburusiya",
        -9.979622711686734
      ],
      [
        "▁Liber",
        -9.979898664250706
      ],
      [
        "huta",
        -9.980171332834358
      ],
      [
        "ivyigwa",
        -9.980302013278802
      ],
      [
        "▁Yongeyeko",
        -9.980638754896756
      ],
      [
        "▁mashure",
        -9.98076005010471
      ],
      [
        "▁gusezera",
        -9.981215437362977
      ],
      [
        "shimye",
        -9.98144381739101
      ],
      [
        "Ubuyapani",
        -9.981940420751132
      ],
      [
        "▁n'abagore",
        -9.982094866105584
      ],
      [
        "▁amanota",
        -9.982321927404676
      ],
      [
        "▁gusubiza",
        -9.982485821887478
      ],
      [
        "des",
        -9.983596275958668
      ],
      [
        "▁umwami",
        -9.983607042492995
      ],
      [
        "▁yinjira",
        -9.98361327721004
      ],
      [
        "▁AstraZeneca",
        -9.983944874764365
      ],
      [
        "▁bene",
        -9.984368056851473
      ],
      [
        "tima",
        -9.98464279361341
      ],
      [
        "▁biki",
        -9.984650437036356
      ],
      [
        "'ejo",
        -9.985537859682827
      ],
      [
        "biharuro",
        -9.985919335645672
      ],
      [
        "abagabo",
        -9.985958664815971
      ],
      [
        "etro",
        -9.986268494151432
      ],
      [
        "▁uga",
        -9.986889780712174
      ],
      [
        "▁kiba",
        -9.98695003890963
      ],
      [
        "bibona",
        -9.987391276847418
      ],
      [
        "▁y'ivyo",
        -9.987818321851385
      ],
      [
        "urudandazwa",
        -9.98820487419216
      ],
      [
        "▁(I",
        -9.988464545602351
      ],
      [
        "ubuhinga",
        -9.990377816264306
      ],
      [
        "emerera",
        -9.991134560706683
      ],
      [
        "▁urwa",
        -9.992106422297491
      ],
      [
        "▁k'u",
        -9.994400004017873
      ],
      [
        "20",
        -9.995188381727111
      ],
      [
        "▁y'isi",
        -9.995420720960979
      ],
      [
        "banki",
        -9.995781017707937
      ],
      [
        "▁biharuro",
        -9.995815100018701
      ],
      [
        "rwandiko",
        -9.995828141841264
      ],
      [
        "▁IS",
        -9.995872765514692
      ],
      [
        "▁n'imwe",
        -9.995983949103902
      ],
      [
        "▁26,",
        -9.996745261453004
      ],
      [
        "ung",
        -9.997054860892908
      ],
      [
        "ibitero",
        -9.997106839775952
      ],
      [
        "isaha",
        -9.997475591989696
      ],
      [
        "uk",
        -9.997562465687814
      ],
      [
        "▁cayo",
        -9.99771848347817
      ],
      [
        "genzura",
        -9.99777170566807
      ],
      [
        "▁bakuru",
        -9.997852471131283
      ],
      [
        "tega",
        -9.997975059179181
      ],
      [
        "▁yemeje",
        -9.998525697927393
      ],
      [
        "▁zishika",
        -9.99875255672427
      ],
      [
        "▁ibigo",
        -9.998776136385748
      ],
      [
        "bombe",
        -10.000439762549112
      ],
      [
        "tra",
        -10.003214861626134
      ],
      [
        "genze",
        -10.00344232722746
      ],
      [
        "zira",
        -10.005183431623061
      ],
      [
        "▁baguma",
        -10.00523912779488
      ],
      [
        "▁biva",
        -10.006096783907672
      ],
      [
        "masezerano",
        -10.006399467865398
      ],
      [
        "▁90",
        -10.009437500017963
      ],
      [
        "▁tuba",
        -10.00945342003183
      ],
      [
        "tira",
        -10.011376395312087
      ],
      [
        "ô",
        -10.011713834662892
      ],
      [
        "▁Luhansk",
        -10.011713843433059
      ],
      [
        "▁(Marca",
        -10.011714246520318
      ],
      [
        "▁gucandaga",
        -10.011715325670803
      ],
      [
        "▁House",
        -10.011716274738774
      ],
      [
        "gihangange",
        -10.01171954566957
      ],
      [
        "garagaza",
        -10.011720253942743
      ],
      [
        "▁n'ahandi",
        -10.011721068757332
      ],
      [
        "vyifatamwo",
        -10.011727035483995
      ],
      [
        "inyandiko",
        -10.011739755895244
      ],
      [
        "▁abanyamahanga",
        -10.011744904054625
      ],
      [
        "huriro",
        -10.011780177866212
      ],
      [
        ",000",
        -10.011783003245448
      ],
      [
        "▁inkoho",
        -10.011800511003402
      ],
      [
        "▁murongo",
        -10.012030575345891
      ],
      [
        "▁gitondo",
        -10.012078603213077
      ],
      [
        "▁makambi",
        -10.012305309200318
      ],
      [
        "▁nk'umumenyereza",
        -10.012461744277223
      ],
      [
        "▁\"Igihe",
        -10.012527268701872
      ],
      [
        "▁vyigwa",
        -10.012579353632358
      ],
      [
        "▁nshingwa",
        -10.01272503431107
      ],
      [
        "irira",
        -10.012963628526574
      ],
      [
        "▁(Sta",
        -10.013053150645778
      ],
      [
        "ciwe",
        -10.013096844250905
      ],
      [
        "▁butunzi",
        -10.013153777626698
      ],
      [
        "▁numva",
        -10.01324205861005
      ],
      [
        "amatora",
        -10.01351378957932
      ],
      [
        "▁nk'umuntu",
        -10.013568549777704
      ],
      [
        "▁Mai",
        -10.013588678556587
      ],
      [
        "ano",
        -10.013812839398476
      ],
      [
        "▁bakomoka",
        -10.013909577615953
      ],
      [
        "ell",
        -10.014105628202293
      ],
      [
        "bandanye",
        -10.014126504028189
      ],
      [
        "▁vyompi",
        -10.014427032338585
      ],
      [
        "sumba",
        -10.014762705760317
      ],
      [
        "'umuziki",
        -10.01476414630097
      ],
      [
        "uravye",
        -10.015046560588052
      ],
      [
        "▁War",
        -10.01564278084834
      ],
      [
        "▁abakunzi",
        -10.01571666585833
      ],
      [
        "tike",
        -10.016740076009407
      ],
      [
        "▁ziheze",
        -10.01737281197996
      ],
      [
        "▁nsiguro",
        -10.017994524950538
      ],
      [
        "▁b’",
        -10.01872193858007
      ],
      [
        "bare",
        -10.018891237305287
      ],
      [
        "▁yongeye",
        -10.019120511932407
      ],
      [
        "▁J",
        -10.01919653998014
      ],
      [
        "▁sin",
        -10.019587625409319
      ],
      [
        "myiyerekano",
        -10.019687007211044
      ],
      [
        "sanamu",
        -10.020763215281777
      ],
      [
        "▁akana",
        -10.02196947938197
      ],
      [
        "▁Col",
        -10.022175018680628
      ],
      [
        "soma",
        -10.022236717292905
      ],
      [
        "▁nyifato",
        -10.022505911466222
      ],
      [
        "▁icaha",
        -10.022686202537713
      ],
      [
        "▁yambaye",
        -10.022729045865102
      ],
      [
        "▁kara",
        -10.022949543856182
      ],
      [
        "▁uba",
        -10.02355959089862
      ],
      [
        "'Abarundi",
        -10.0244601973179
      ],
      [
        "▁vyerekan",
        -10.025172366348675
      ],
      [
        "▁bigiye",
        -10.025208013219979
      ],
      [
        "nanirwa",
[...]
