{
  "version": "1.0",
  "truncation": null,
  "padding": null,
  "added_tokens": [
    {
      "id": 0,
      "content": "<pad>",
      "single_word": false,
      "lstrip": false,
      "rstrip": false,
      "normalized": false,
      "special": true
    },
    {
      "id": 1,
      "content": "<unk>",
      "single_word": false,
      "lstrip": false,
      "rstrip": false,
      "normalized": false,
      "special": true
    },
    {
      "id": 2,
      "content": "<cls>",
      "single_word": false,
      "lstrip": false,
      "rstrip": false,
      "normalized": false,
      "special": true
    }
  ],
  "normalizer": {
    "type": "Sequence",
    "normalizers": [
      {
        "type": "Nmt"
      },
      {
        "type": "NFKC"
      },
      {
        "type": "Replace",
        "pattern": {
          "Regex": " {2,}"
        },
        "content": " "
      }
    ]
  },
  "pre_tokenizer": {
    "type": "Metaspace",
    "replacement": "▁",
    "prepend_scheme": "always",
    "split": true
  },
  "post_processor": {
    "type": "TemplateProcessing",
    "single": [
      {
        "SpecialToken": {
          "id": "<cls>",
          "type_id": 0
        }
      },
      {
        "Sequence": {
          "id": "A",
          "type_id": 0
        }
      }
    ],
    "pair": [
      {
        "Sequence": {
          "id": "A",
          "type_id": 0
        }
      },
      {
        "Sequence": {
          "id": "B",
          "type_id": 1
        }
      }
    ],
    "special_tokens": {
      "<cls>": {
        "id": "<cls>",
        "ids": [
          2
        ],
        "tokens": [
          "<cls>"
        ]
      }
    }
  },
  "decoder": {
    "type": "Metaspace",
    "replacement": "▁",
    "prepend_scheme": "always",
    "split": true
  },
  "model": {
    "type": "Unigram",
    "unk_id": 1,
    "vocab": [
      [
        "<pad>",
        0.0
      ],
      [
        "<unk>",
        0.0
      ],
      [
        "<cls>",
        0.0
      ],
      [
        "▁",
        -3.248737026681786
      ],
      [
        ",",
        -3.6377937731127457
      ],
      [
        ".",
        -3.7238321911324643
      ],
      [
        "▁kuti",
        -4.150421065444595
      ],
      [
        "▁ku",
        -4.428457114536746
      ],
      [
        "a",
        -4.5212744773577285
      ],
      [
        "i",
        -4.670204731420897
      ],
      [
        "▁mu",
        -4.778246489289128
      ],
      [
        "▁ne",
        -4.7800484214277805
      ],
      [
        "e",
        -4.933426002980086
      ],
      [
        "o",
        -5.167371361667367
      ],
      [
        "▁vanoti",
        -5.310641382873971
      ],
      [
        "wo",
        -5.326228564773216
      ],
      [
        "▁va",
        -5.341036213356396
      ],
      [
        "▁uye",
        -5.36942169637126
      ],
      [
        "▁vari",
        -5.370749305199903
      ],
      [
        "▁we",
        -5.395765008364835
      ],
      [
        "▁kana",
        -5.485273517674351
      ],
      [
        "▁vanhu",
        -5.523357711786012
      ],
      [
        "▁re",
        -5.559692151947131
      ],
      [
        "▁pa",
        -5.594286942537973
      ],
      [
        "nge",
        -5.5943400693051055
      ],
      [
        "▁iri",
        -5.6056007728905595
      ],
      [
        "▁Va",
        -5.634380369404149
      ],
      [
        "▁ye",
        -5.658634747033003
      ],
      [
        "wa",
        -5.803648940293847
      ],
      [
        "▁ichi",
        -5.8337850446749036
      ],
      [
        "s",
        -5.8344292439068575
      ],
      [
        "▁mari",
        -5.834779765639486
      ],
      [
        "▁ma",
        -5.974982786156756
      ],
      [
        "▁vaka",
        -6.016743347941778
      ],
      [
        "ti",
        -6.024594056819426
      ],
      [
        "▁vati",
        -6.0352757089544
      ],
      [
        "ri",
        -6.04357265266793
      ],
      [
        "▁sezvo",
        -6.06493709096148
      ],
      [
        "ly",
        -6.140893557149125
      ],
      [
        "▁asi",
        -6.1487397503949355
      ],
      [
        "▁No",
        -6.154710306779438
      ],
      [
        "▁kubva",
        -6.155667389422342
      ],
      [
        "▁Zimbabwe",
        -6.168011238550186
      ],
      [
        "▁kwe",
        -6.182027430883017
      ],
      [
        "▁hurumende",
        -6.184592759137142
      ],
      [
        "▁Asi",
        -6.194293858743662
      ],
      [
        "▁ya",
        -6.199027599440063
      ],
      [
        "▁media",
        -6.204684041003357
      ],
      [
        "source",
        -6.206587158799262
      ],
      [
        "▁current",
        -6.209733910307857
      ],
      [
        "▁available",
        -6.210747081642802
      ],
      [
        "▁che",
        -6.23127845359362
      ],
      [
        "na",
        -6.236276847392228
      ],
      [
        "▁vachi",
        -6.241791523143838
      ],
      [
        "▁iyi",
        -6.24485266410244
      ],
      [
        "▁munyika",
        -6.25223881596258
      ],
      [
        "▁zvino",
        -6.2608190155815455
      ],
      [
        "▁ari",
        -6.261531116875251
      ],
      [
        "▁avo",
        -6.283470088661138
      ],
      [
        "▁pamwe",
        -6.284343073991841
      ],
      [
        "▁ino",
        -6.302025046947219
      ],
      [
        "nyaya",
        -6.32195080611013
      ],
      [
        "▁vano",
        -6.327562081192731
      ],
      [
        "▁neku",
        -6.330353180169558
      ],
      [
        "sangano",
        -6.330706991497912
      ],
      [
        "▁yaka",
        -6.354867643849411
      ],
      [
        "mutambo",
        -6.361911840126852
      ],
      [
        "▁Mu",
        -6.3647626514151
      ],
      [
        "u",
        -6.3922504206937525
      ],
      [
        "▁rino",
        -6.406336940939643
      ],
      [
        "▁nyika",
        -6.412592139386709
      ],
      [
        "makumi",
        -6.413702179512108
      ],
      [
        "ro",
        -6.424135648160613
      ],
      [
        "ra",
        -6.426867238168472
      ],
      [
        "re",
        -6.427814143104613
      ],
      [
        "rongwa",
        -6.432440679543116
      ],
      [
        "▁zviri",
        -6.440835511595646
      ],
      [
        "▁aka",
        -6.459440264630617
      ],
      [
        "▁uyu",
        -6.470253876449872
      ],
      [
        "▁kuita",
        -6.506108763401356
      ],
      [
        "▁yeku",
        -6.5354523344466555
      ],
      [
        "▁dze",
        -6.563359299299576
      ],
      [
        "▁se",
        -6.56422357377868
      ],
      [
        "▁of",
        -6.564948790979821
      ],
      [
        "▁vachiti",
        -6.574558802089787
      ],
      [
        "▁zva",
        -6.574782391632978
      ],
      [
        "▁pasi",
        -6.586388784196866
      ],
      [
        "▁anoti",
        -6.594691001156919
      ],
      [
        "va",
        -6.596227354360673
      ],
      [
        "▁maviri",
        -6.607643278178941
      ],
      [
        "▁Ama",
        -6.616445709159046
      ],
      [
        "▁wa",
        -6.616913109004515
      ],
      [
        "ve",
        -6.640528141959193
      ],
      [
        "▁ano",
        -6.649644636510392
      ],
      [
        "y",
        -6.674923889479542
      ],
      [
        "n",
        -6.686700988473776
      ],
      [
        "pa",
        -6.688946288900612
      ],
      [
        "ita",
        -6.705545609692913
      ],
      [
        "▁nyaya",
        -6.7209574091811675
      ],
      [
        "▁S",
        -6.728587447024699
      ],
      [
        "▁chi",
        -6.742923387136202
      ],
      [
        "ona",
        -6.745998996629721
      ],
      [
        "▁chete",
        -6.751489864025683
      ],
      [
        "▁nekuti",
        -6.754587381518852
      ],
      [
        "▁M",
        -6.7547460535849755
      ],
      [
        "▁izvi",
        -6.756871061062593
      ],
      [
        "▁Ma",
        -6.7574027917216135
      ],
      [
        "▁ava",
        -6.766351062079513
      ],
      [
        "▁zvi",
        -6.768943804137461
      ],
      [
        "▁7",
        -6.784123738631673
      ],
      [
        "▁zvinhu",
        -6.79585879893291
      ],
      [
        "▁ravo",
        -6.814163906100143
      ],
      [
        "▁vamwe",
        -6.829443504771045
      ],
      [
        "▁zvikuru",
        -6.834645738507433
      ],
      [
        "▁zvaka",
        -6.839534809191041
      ],
      [
        "▁ve",
        -6.846023554765814
      ],
      [
        "d",
        -6.8461657027202785
      ],
      [
        "▁nemakumi",
        -6.855527146898572
      ],
      [
        "ka",
        -6.857273386360233
      ],
      [
        "▁pe",
        -6.858040474678369
      ],
      [
        "▁apo",
        -6.869958247610549
      ],
      [
        "▁yavo",
        -6.875216368743865
      ],
      [
        "enda",
        -6.87620691551191
      ],
      [
        "l",
        -6.880431668577178
      ],
      [
        "▁basa",
        -6.892449040329473
      ],
      [
        "▁nechirwere",
        -6.896872998653529
      ],
      [
        "▁mazana",
        -6.8978058847057016
      ],
      [
        "we",
        -6.900410464270293
      ],
      [
        "t",
        -6.913884718779003
      ],
      [
        "▁vashandi",
        -6.916332544337748
      ],
      [
        ",”",
        -6.916399514778247
      ],
      [
        "▁–",
        -6.930083042990896
      ],
      [
        "▁nhomba",
        -6.931054596163918
      ],
      [
        "▁vave",
        -6.944519809706957
      ],
      [
        "▁kwa",
        -6.94586825301116
      ],
      [
        "shure",
        -6.951291429891248
      ],
      [
        "▁aya",
        -6.95388879681616
      ],
      [
        "ne",
        -6.9620212704941755
      ],
      [
        "▁ra",
        -6.974447139370179
      ],
      [
        "ku",
        -6.976602001552013
      ],
      [
        "▁N",
        -6.977825685483111
      ],
      [
        "▁iyo",
        -6.985537126990338
      ],
      [
        "▁hu",
        -6.988209700416683
      ],
      [
        "sa",
        -6.993531035843111
      ],
      [
        "▁izvo",
        -7.0055881913431515
      ],
      [
        "▁mukuru",
        -7.008614204541657
      ],
      [
        "mu",
        -7.0160069434944035
      ],
      [
        "▁achi",
        -7.016506050155099
      ],
      [
        "▁vaudza",
        -7.0170965937878735
      ],
      [
        "▁chikwata",
        -7.019960911776938
      ],
      [
        "▁na",
        -7.029323778576537
      ],
      [
        "▁chirwere",
        -7.0389787473739975
      ],
      [
        "kuti",
        -7.047846584283224
      ],
      [
        "no",
        -7.067019737232086
      ],
      [
        "▁dza",
        -7.068781370023652
      ],
      [
        "ta",
        -7.070070225377245
      ],
      [
        "▁zviuru",
        -7.071563595415893
      ],
      [
        "▁gore",
        -7.0733870720789085
      ],
      [
        "▁muna",
        -7.075246371109676
      ],
      [
        "▁matatu",
        -7.082845585934584
      ],
      [
        "▁B",
        -7.0994395249584565
      ],
      [
        "uyo",
        -7.1011086272208175
      ],
      [
        "▁anodaro",
        -7.105047069976835
      ],
      [
        "nga",
        -7.108999095980971
      ],
      [
        "▁Africa",
        -7.120344146183492
      ],
      [
        "r",
        -7.12080195403362
      ],
      [
        "svika",
        -7.126242742514028
      ],
      [
        "▁Studio",
        -7.127026305018814
      ],
      [
        "▁kunyang",
        -7.133595699937821
      ],
      [
        "bazi",
        -7.136272848716757
      ],
      [
        "▁kuenda",
        -7.1375938850000455
      ],
      [
        "▁vakawanda",
        -7.149564938301194
      ],
      [
        "▁hazvo",
        -7.1504265380439636
      ],
      [
        "▁zve",
        -7.15174049316336
      ],
      [
        "▁kusvika",
        -7.154975945269814
      ],
      [
        "ko",
        -7.163007743655561
      ],
      [
        "▁vakati",
        -7.163436915831072
      ],
      [
        "▁nekuda",
        -7.165653958489669
      ],
      [
        "▁gumi",
        -7.169019696174289
      ],
      [
        "zo",
        -7.169194404762342
      ],
      [
        "▁vatambi",
        -7.172737243559663
      ],
      [
        "▁mitambo",
        -7.172841890438702
      ],
      [
        "▁vane",
        -7.172945935066047
      ],
      [
        "▁musi",
        -7.177118826557783
      ],
      [
        "▁vacha",
        -7.188605286506955
      ],
      [
        "tanga",
        -7.1892135974740885
      ],
      [
        "itwa",
        -7.204964944067007
      ],
      [
        "▁nguva",
        -7.212969927024855
      ],
      [
        "Zimbabwe",
        -7.214314435801654
      ],
      [
        "▁Dr",
        -7.2191698297831595
      ],
      [
        "dzi",
        -7.219843024582171
      ],
      [
        "▁mabasa",
        -7.220679198148653
      ],
      [
        "▁ine",
        -7.22148538822527
      ],
      [
        "▁mutungamiri",
        -7.223115324036875
      ],
      [
        "▁meku",
        -7.225379555295607
      ],
      [
        "ma",
        -7.22874547276127
      ],
      [
        "▁nezve",
        -7.230566547912547
      ],
      [
        "▁Chi",
        -7.232271440374566
      ],
      [
        "▁cha",
        -7.240841764896233
      ],
      [
        "▁pane",
        -7.242747361441585
      ],
      [
        "▁mashanu",
        -7.242907495437894
      ],
      [
        "▁nhengo",
        -7.251411336519763
      ],
      [
        "ngo",
        -7.254279855783544
      ],
      [
        "da",
        -7.257092665699616
      ],
      [
        "▁kunze",
        -7.259873869259025
      ],
      [
        "▁dziri",
        -7.261495731357881
      ],
      [
        "darika",
        -7.262720751532421
      ],
      [
        "▁wenyika",
        -7.269080078446643
      ],
      [
        "▁nemusi",
        -7.277022644302318
      ],
      [
        "▁kuitwa",
        -7.287194891014707
      ],
      [
        "▁(",
        -7.28763556777248
      ],
      [
        "bva",
        -7.292397684462112
      ],
      [
        "▁riri",
        -7.292697338312525
      ],
      [
        "▁weku",
        -7.293542998259583
      ],
      [
        "▁svondo",
        -7.297845928770171
      ],
      [
        "▁Cup",
        -7.304303842670981
      ],
      [
        "se",
        -7.305118289816783
      ],
      [
        "▁hwe",
        -7.3065881279836455
      ],
      [
        "▁uno",
        -7.315610381570508
      ],
      [
        "▁chiri",
        -7.323736239644865
      ],
      [
        "▁kuda",
        -7.324032874720516
      ],
      [
        "▁kuno",
        -7.325299575711429
      ],
      [
        "▁yekuti",
        -7.329565015840447
      ],
      [
        "si",
        -7.333925352680175
      ],
      [
        "▁PF",
        -7.33905918849549
      ],
      [
        "miriyoni",
        -7.33991599424831
      ],
      [
        "▁ane",
        -7.344556359327097
      ],
      [
        "▁enyika",
        -7.344668522188711
      ],
      [
        "po",
        -7.350808814586875
      ],
      [
        "isa",
        -7.351208333367553
      ],
      [
        "▁kune",
        -7.352285720918797
      ],
      [
        "gore",
        -7.359053080589213
      ],
      [
        "▁chaka",
        -7.360569449078163
      ],
      [
        "to",
        -7.36458899853608
      ],
      [
        "▁musangano",
        -7.365902844661307
      ],
      [
        "zvi",
        -7.370739642581215
      ],
      [
        "▁kuitira",
        -7.3806162628307055
      ],
      [
        "▁kuzo",
        -7.384964207961514
      ],
      [
        "▁zvakanaka",
        -7.385083567562196
      ],
      [
        "ya",
        -7.386166256723707
      ],
      [
        "A",
        -7.386259232486426
      ],
      [
        "nzi",
        -7.3969314644385085
      ],
      [
        "gwaro",
        -7.3969536851725755
      ],
      [
        "▁rinoti",
        -7.405868748529344
      ],
      [
        "buda",
        -7.407766187710232
      ],
      [
        "g",
        -7.410105733957717
      ],
      [
        "▁cheku",
        -7.411465110180271
      ],
      [
        "k",
        -7.411738631723103
      ],
      [
        "b",
        -7.414933027628263
      ],
      [
        "m",
        -7.414941379528351
      ],
      [
        "▁ndi",
        -7.4177181292665715
      ],
      [
        "te",
        -7.418081128788905
      ],
      [
        "▁mana",
        -7.421161332578363
      ],
      [
        "▁icha",
        -7.421676756776977
      ],
      [
        "gara",
        -7.42185381411046
      ],
      [
        "rwa",
        -7.423278728945356
      ],
      [
        "▁rezvehutano",
        -7.426457236931057
      ],
      [
        "▁Mumwe",
        -7.42875461127082
      ],
      [
        "▁inoti",
        -7.437289766520834
      ],
      [
        "▁chino",
        -7.440700834174028
      ],
      [
        "▁mumwe",
        -7.4446181454665865
      ],
      [
        "▁dzavo",
        -7.447540347423054
      ],
      [
        "▁vana",
        -7.4505991919720085
      ],
      [
        "▁eku",
        -7.451222476634956
      ],
      [
        "▁G",
        -7.456078761141055
      ],
      [
        "▁veruzhinji",
        -7.458078356603151
      ],
      [
        "▁mukana",
        -7.459559468400847
      ],
      [
        "▁matanhatu",
        -7.461364497163035
      ],
      [
        "rwira",
        -7.467551093197394
      ],
      [
        "▁zvikwata",
        -7.47008697412032
      ],
      [
        "▁dambudziko",
        -7.479957066311058
      ],
      [
        "▁munhu",
        -7.480144278625717
      ],
      [
        "▁Doctor",
        -7.484138398655369
      ],
      [
        "▁Pa",
        -7.488074535411624
      ],
      [
        "▁hapana",
        -7.4900502788672645
      ],
      [
        "▁raka",
        -7.4906428869688195
      ],
      [
        "▁nehurumende",
        -7.506899785689397
      ],
      [
        "▁Vanhu",
        -7.509209064306758
      ],
      [
        "anho",
        -7.509570696059964
      ],
      [
        "c",
        -7.513138438190313
      ],
      [
        "ni",
        -7.513164028266319
      ],
      [
        ")",
        -7.514821338799338
      ],
      [
        "▁mune",
        -7.514876721644833
      ],
      [
        "▁Mutungamiri",
        -7.5159245737987055
      ],
      [
        "▁gurukota",
        -7.516921983137595
      ],
      [
        "nyika",
        -7.521594840319473
      ],
      [
        "tevedzer",
        -7.52328755575204
      ],
      [
        "▁Muzvare",
        -7.523494001697383
      ],
      [
        "chikwata",
        -7.524099681867634
      ],
      [
        "zvarwa",
        -7.530858516176507
      ],
      [
        "▁pamusoro",
        -7.538113450368552
      ],
      [
        "mbo",
        -7.5382141204794015
      ],
      [
        "wana",
        -7.538556718753265
      ],
      [
        "▁mashoko",
        -7.539366716166612
      ],
      [
        "▁zvine",
        -7.539649494700549
      ],
      [
        "▁mberi",
        -7.540647539291563
      ],
      [
        "-",
        -7.5421686112703625
      ],
      [
        "”",
        -7.544690334458954
      ],
      [
        "▁A",
        -7.545541892902489
      ],
      [
        "▁dzaka",
        -7.547198699560781
      ],
      [
        "▁iyi.",
        -7.550028226581891
      ],
      [
        "ke",
        -7.551985277995238
      ],
      [
        "tora",
        -7.552325635832938
      ],
      [
        "▁idzi",
        -7.552449422706348
      ],
      [
        "▁zvakare",
        -7.5558468579235045
      ],
      [
        "f",
        -7.558926915908367
      ],
      [
        "▁kupararira",
        -7.568472156750279
      ],
      [
        "▁vanenge",
        -7.5700098865480845
      ],
      [
        "▁dzino",
        -7.570090148365507
      ],
      [
        "World",
        -7.570109907368781
      ],
      [
        "▁vanga",
        -7.573761025591093
      ],
      [
        "▁Ku",
        -7.584911856668133
      ],
      [
        "ga",
        -7.58587881261855
      ],
      [
        "batsira",
        -7.592743426773658
      ],
      [
        "mitambo",
        -7.594215775052471
      ],
      [
        "▁panyaya",
        -7.594845307286058
      ],
      [
        "p",
        -7.596395357740122
      ],
      [
        "an",
        -7.5982075356626
      ],
      [
        "h",
        -7.6128159473608505
      ],
      [
        "cha",
        -7.612829401190969
      ],
      [
        "▁zvichitevera",
        -7.614053041194497
      ],
      [
        "▁nhabvu",
        -7.621405080824472
      ],
      [
        "uya",
        -7.623092124433634
      ],
      [
        "▁kodzero",
        -7.62598896237083
      ],
      [
        "▁Izvi",
        -7.626639733204238
      ],
      [
        "▁vatiwo",
        -7.629557608551835
      ],
      [
        "ongorora",
        -7.6322490205189855
      ],
      [
        "tori",
        -7.6340110899531775
      ],
      [
        "▁manomwe",
        -7.634957008876984
      ],
      [
        "pihwa",
        -7.636056610896498
      ],
      [
        "pinda",
        -7.638244871022486
      ],
      [
        "▁kuri",
        -7.639696599059684
      ],
      [
        "▁kushanda",
        -7.643430328913524
      ],
      [
        "▁Association",
        -7.647887720229925
      ],
      [
        "▁munyika.",
        -7.655968271735206
      ],
      [
        "▁nhasi",
        -7.656855660652631
      ],
      [
        "▁musarudzo",
        -7.657295225612632
      ],
      [
        "▁saka",
        -7.661084020954375
      ],
      [
        "▁kukwanisa",
        -7.664759546957181
      ],
      [
        "▁pari",
        -7.665173206061473
      ],
      [
        "▁pakati",
        -7.672927469717027
      ],
      [
        "M",
        -7.674634511958452
      ],
      [
        "chi",
        -7.67738768466911
      ],
      [
        "▁and",
        -7.678715560932755
      ],
      [
        "▁dzeku",
        -7.679854269028593
      ],
      [
        "▁zvichi",
        -7.680030677633528
      ],
      [
        "▁ndiy",
        -7.680163917914715
      ],
      [
        "tadza",
        -7.686491628310068
      ],
      [
        "▁panguva",
        -7.689784451307326
      ],
      [
        "makore",
        -7.694279317885578
      ],
      [
        "▁pachena",
        -7.700625274786502
      ],
      [
        "▁uko",
        -7.700814568597781
      ],
      [
        "▁nevamwe",
        -7.701645792595412
      ],
      [
        "▁hwevanhu",
        -7.704797692486157
      ],
      [
        "▁wenyika,",
        -7.70479799684728
      ],
      [
        "▁nemazana",
        -7.705697499353945
      ],
      [
        "▁nema",
        -7.7058048108523085
      ],
      [
        "ramba",
        -7.706329977428946
      ],
      [
        "▁venhau",
        -7.713675715714111
      ],
      [
        "ratidza",
        -7.719468363410551
      ],
      [
        "▁kutanga",
        -7.721729245679081
      ],
      [
        "▁hwa",
        -7.72658735674734
      ],
      [
        "C",
        -7.729780927447012
      ],
      [
        "▁vavo",
        -7.729970906808651
      ],
      [
        "▁Vati",
        -7.737242654900648
      ],
      [
        "erson",
        -7.745086509311238
      ],
      [
        "al",
        -7.745520937358162
      ],
      [
        "▁Mnangagwa",
        -7.750684595052423
      ],
      [
        "tamba",
        -7.757759481953919
      ],
      [
        "▁Mukuru",
        -7.760562323612471
      ],
      [
        "yanzvi",
        -7.77356251572861
      ],
      [
        "▁dzimwe",
        -7.774935282350708
      ],
      [
        "▁VaMnangagwa",
        -7.780749070050071
      ],
      [
        "mirira",
        -7.784094460600436
      ],
      [
        "▁vasina",
        -7.78817436094065
      ],
      [
        "▁imwe",
        -7.790100488075792
      ],
      [
        "▁T",
        -7.791434993904706
      ],
      [
        "▁reku",
        -7.796037073266853
      ],
      [
        "nda",
        -7.797956564409157
      ],
      [
        "▁mhosva",
        -7.7985108635846725
      ],
      [
        "▁zveku",
        -7.79914808498721
      ],
      [
        "▁kwechirwere",
        -7.800066461289743
      ],
      [
        "on",
        -7.80562340278325
      ],
      [
        "▁Mugabe",
        -7.809095391773042
      ],
      [
        "▁cheCovid-19",
        -7.810229720664064
      ],
      [
        "▁kuramba",
        -7.81276746225112
      ],
      [
        "▁vabatwa",
        -7.8171882163207815
      ],
      [
        "▁huwandu",
        -7.820013336406569
      ],
      [
        "▁ndiv",
        -7.820990245522748
      ],
      [
        "shanda",
        -7.824573783303254
      ],
      [
        "mo",
        -7.825325110114214
      ],
      [
        "▁vai",
        -7.827450210192237
      ],
      [
        "▁kwenyika",
        -7.828098658091727
      ],
      [
        "son",
        -7.839528723893369
      ],
      [
        "▁masere",
        -7.845234811111654
      ],
      [
        "▁zvimwe",
        -7.845893448509526
      ],
      [
        "D",
        -7.848957071564091
      ],
      [
        "▁bato",
        -7.848960529398086
      ],
      [
        "angano",
        -7.852085379257659
      ],
      [
        "nguva",
        -7.8554890546161475
      ],
      [
        "▁havana",
        -7.8565185800844395
      ],
      [
        "▁sarudzo",
        -7.85713983462686
      ],
      [
        "zviuru",
        -7.86014193907808
      ],
      [
        "ba",
        -7.860587771930941
      ],
      [
        "mi",
        -7.862074930236618
      ],
      [
        "▁Vanoti",
        -7.86280035145003
      ],
      [
        "▁akaita",
        -7.862952527176077
      ],
      [
        "ira",
        -7.863204034150143
      ],
      [
        "▁Hurumende",
        -7.876813309307507
      ],
      [
        "▁wavo",
        -7.877402364084822
      ],
      [
        "ho",
        -7.8796306764212085
      ],
      [
        "de",
        -7.879810089906271
      ],
      [
        "▁acha",
        -7.880079740731648
      ],
      [
        "▁zana",
        -7.88047912362255
      ],
      [
        "▁uri",
        -7.880481613924231
      ],
      [
        "▁zvicha",
        -7.881040373972764
      ],
      [
        "▁waka",
        -7.881313556043354
      ],
      [
        "▁Moyo",
        -7.881941486773332
      ],
      [
        "▁haina",
        -7.887913963884254
      ],
      [
        "▁d",
        -7.888928423650616
      ],
      [
        "▁mutemo",
        -7.8916919894599555
      ],
      [
        "▁nyanzvi",
        -7.8917702213772225
      ],
      [
        "▁mvura",
        -7.894521250380365
      ],
      [
        "▁VaEmm",
        -7.896559594835185
      ],
      [
        "▁for",
        -7.910208310753824
      ],
      [
        "▁kwete",
        -7.9157831155210365
      ],
      [
        "▁vazhinji",
        -7.916190397883569
      ],
      [
        "S",
        -7.916933405468877
      ],
      [
        "▁mitemo",
        -7.918503648172517
      ],
      [
        "es",
        -7.919189990033381
      ],
      [
        "▁Platinum",
        -7.9206672273332845
      ],
      [
        "▁guru",
        -7.922389850839577
      ],
      [
        "▁rapera",
        -7.924817718979855
      ],
      [
        "▁kutaura",
        -7.925519577961068
      ],
      [
        "enderera",
        -7.926763353888299
      ],
      [
        "pedza",
        -7.928947591531933
      ],
      [
        "kudzivirira",
        -7.929169033085259
      ],
      [
        "▁kupinda",
        -7.9348961369540305
      ],
      [
        "▁vanoda",
        -7.938245366434932
      ],
      [
        "▁Studio7",
        -7.939604486905654
      ],
      [
        "▁ai",
        -7.94196275808708
      ],
      [
        "▁kuva",
        -7.942841763911909
      ],
      [
        "▁sei",
        -7.947081460252671
      ],
      [
        "ki",
        -7.948478955794502
      ],
      [
        "▁“",
        -7.949324900399436
      ],
      [
        "z",
        -7.951905237582768
      ],
      [
        "ng",
        -7.952769890956525
      ],
      [
        "▁mudunhu",
        -7.953665008186966
      ],
      [
        "▁rose",
        -7.956682842360994
      ],
      [
        "w",
        -7.956882844041931
      ],
      [
        "▁kupa",
        -7.95714113739876
      ],
      [
        "▁Union",
        -7.957349335019772
      ],
      [
        "▁zvakawanda",
        -7.959538066831554
      ],
      [
        "▁kuwana",
        -7.961095674466879
      ],
      [
        "sati",
        -7.961323551061402
      ],
      [
        "▁Vamwe",
        -7.962894414610681
      ],
      [
        "▁mapurisa",
        -7.96290576841429
      ],
      [
        "▁uyu.",
        -7.962990999854597
      ],
      [
        "▁muHarare",
        -7.963520241795505
      ],
      [
        "kwanisa",
        -7.964365099731208
      ],
      [
        "di",
        -7.966952558675256
      ],
      [
        "▁uku",
        -7.969011479992538
      ],
      [
        "yi",
        -7.970231929546643
      ],
      [
        "▁nevanhu",
        -7.972041409278155
      ],
      [
        "fa",
        -7.972100996307052
      ],
      [
        "dza",
        -7.972363504837299
      ],
      [
        "▁yave",
        -7.9739312569316905
      ],
      [
        "▁D",
        -7.982671506224239
      ],
      [
        "▁zvakakosha",
        -7.984305094910032
      ],
      [
        "▁havasi",
        -7.984376964908407
      ],
      [
        "ndi",
        -7.984876214459288
      ],
      [
        "▁muku",
        -7.9897780228201025
      ],
      [
        "sina",
        -7.991383217565523
      ],
      [
        "▁kuona",
        -7.993195043970571
      ],
      [
        "▁kubata",
        -7.998101734565259
      ],
      [
        "▁P",
        -7.9982066203112785
      ],
      [
        "er",
        -7.9983463252686695
      ],
      [
        "ru",
        -7.998500419898279
      ],
      [
        "kambani",
        -7.998569711180966
      ],
      [
        "sha",
        -8.000253789357146
      ],
      [
        "▁mapfumbamwe",
        -8.002165465900617
      ],
      [
        "▁C",
        -8.00605175137948
      ],
      [
        "▁hupfumi",
        -8.01154105280883
      ],
      [
        "taura",
        -8.012941015843666
      ],
      [
        "▁ichi.",
        -8.013128250563089
      ],
      [
        "▁Vatiwo",
        -8.014643404095242
      ],
      [
        "▁senzira",
        -8.01475506156882
      ],
      [
        "en",
        -8.020121368756017
      ],
      [
        "▁richi",
        -8.026075051985554
      ],
      [
        "▁here",
        -8.026733644481581
      ],
      [
        "▁muzana",
        -8.02762711155
      ],
      [
        "▁vechidiki",
        -8.027894375664934
      ],
      [
        "▁mukombe",
        -8.028005715127343
      ],
      [
        "▁kugadzirisa",
        -8.029638445644508
      ],
      [
        "▁nezuro",
        -8.031837060912952
      ],
      [
        "▁vanonzi",
        -8.031977929855781
      ],
      [
        "ye",
        -8.03250275356396
      ],
      [
        "▁vakuru",
        -8.032749935960336
      ],
      [
        "▁nzvimbo",
        -8.03310446487017
      ],
      [
        "cho",
        -8.035126382090326
      ],
      [
        "che",
        -8.042115092115806
      ],
      [
        "▁muZimbabwe",
        -8.045178539124965
      ],
      [
        "▁dzevanhu",
        -8.045764662555992
      ],
      [
        "siri",
        -8.047836471878373
      ],
      [
        "shandisa",
        -8.04922055203734
      ],
      [
        "▁tiri",
        -8.051350225044992
      ],
      [
        "▁me",
        -8.054332393440237
      ],
      [
        "el",
        -8.05649187183488
      ],
      [
        "▁nemari",
        -8.057752149010344
      ],
      [
        "▁dzi",
        -8.058924424168689
      ],
      [
        "nzvimbo",
        -8.060288673027646
      ],
      [
        "▁dzinoti",
        -8.06224625646785
      ],
      [
        "▁zvavo",
        -8.065811439425104
      ],
      [
        "▁nedzimwe",
        -8.066126427450524
      ],
      [
        "piwa",
        -8.068952595949636
      ],
      [
        "▁Commission",
        -8.071213924787308
      ],
      [
        "zi",
        -8.074140542166994
      ],
      [
        "▁vo",
        -8.074766082411596
      ],
      [
        "hwina",
        -8.076270714772644
      ],
      [
        "▁vose",
        -8.078484621573246
      ],
      [
        "▁mishonga",
        -8.082977923728958
      ],
      [
        "▁rezve",
        -8.083389860475288
      ],
      [
        "▁ayo",
        -8.08470964380145
      ],
      [
        "▁akawanda",
        -8.085284652049582
      ],
      [
        "▁kusanganisira",
        -8.085857066537583
      ],
      [
        "▁ndoku",
        -8.087383784648765
      ],
      [
        "▁zvekuti",
        -8.089946166549346
      ],
      [
        "B",
        -8.095120614858955
      ],
      [
        "tambira",
        -8.098816113945048
      ],
      [
        "pera",
        -8.100809152334186
      ],
      [
        "▁vafa",
        -8.101648717798918
      ],
      [
        "▁mi",
        -8.102155093564605
      ],
      [
        "▁icho",
        -8.104634981458506
      ],
      [
        "▁yose",
        -8.108686636705382
      ],
      [
        "\\n",
        -8.109974364587202
      ],
      [
        "▁kutora",
        -8.112945514232472
      ],
      [
        "▁zvakanyanya",
        -8.11409818267374
      ],
      [
        "▁zvakaita",
        -8.115624605987954
      ],
      [
        "▁vagari",
        -8.11699786940675
      ],
      [
        "▁chimwe",
        -8.119004206704012
      ],
      [
        "▁kunzwa",
        -8.122345258813471
      ],
      [
        "▁iro",
        -8.123106908325997
      ],
      [
        "▁kutambira",
        -8.123167478015214
      ],
      [
        "ing",
        -8.124432207226729
      ],
      [
        "▁paku",
        -8.124823333832488
      ],
      [
        "▁makambani",
        -8.126146170564644
      ],
      [
        "R",
        -8.135172838306026
      ],
      [
        "ekuti",
        -8.136271795502541
      ],
      [
        "▁zvose",
        -8.138993309684468
      ],
      [
        "▁FC",
        -8.138994913142362
      ],
      [
        "National",
        -8.141555153565207
      ],
      [
        "me",
        -8.14321694961051
      ],
      [
        "▁VaMugabe",
        -8.143267011111671
      ],
      [
        "▁South",
        -8.14428250114937
      ],
      [
        "le",
        -8.145034343616633
      ],
      [
        "vi",
        -8.149183714324256
      ],
      [
        "th",
        -8.14930745724898
      ],
      [
        "la",
        -8.150762999183563
      ],
      [
        "zve",
        -8.15125219965995
      ],
      [
        "▁vehurumende",
        -8.152783569530357
      ],
      [
        "Robert",
        -8.15278889039339
      ],
      [
        "▁Mutauriri",
        -8.153301354786095
      ],
      [
        "bata",
        -8.153913175593402
      ],
      [
        "▁muno",
        -8.159060348040828
      ],
      [
        "▁—",
        -8.159700857368126
      ],
      [
        "hu",
        -8.166600897498602
      ],
      [
        "nzwa",
        -8.167076045621847
      ],
      [
        "▁tichi",
        -8.168920109494252
      ],
      [
        "P",
        -8.173218908237194
      ],
      [
        "kunda",
        -8.176165205655117
      ],
      [
        "▁vaine",
        -8.179350102206389
      ],
      [
        "T",
        -8.179387714569334
      ],
      [
        "ana",
        -8.186471948488684
      ],
      [
        "tongo",
        -8.187591763121564
      ],
      [
        "▁kanzuru",
        -8.187611989663184
      ],
      [
        "▁Kunyang",
        -8.188734101415196
      ],
      [
        "gurukota",
        -8.189485272731755
      ],
      [
        "▁kufara",
        -8.192788793663748
      ],
      [
        "▁League",
        -8.193267710705932
      ],
      [
        "▁matanho",
        -8.195629847493265
      ],
      [
        "yo",
        -8.196126629665901
      ],
      [
        "▁mumigwagwa",
        -8.19689054069092
      ],
      [
        "▁ose",
        -8.19845691346156
      ],
      [
        "▁kuburikidza",
        -8.203345777894988
      ],
      [
        "iswa",
        -8.204918125556556
      ],
      [
        "▁ave",
        -8.205445718030735
      ],
      [
        "▁kutarisirwa",
        -8.206268959048472
      ],
      [
        "za",
        -8.207324020226004
      ],
      [
        "▁vanofanirwa",
        -8.207702620955448
      ],
      [
        "▁mwedzi",
        -8.209636261525677
      ],
      [
        "▁neva",
        -8.210617338551748
      ],
      [
        "boka",
        -8.215035736178415
      ],
      [
        "vatambi",
        -8.217440239858902
      ],
      [
        "▁vatsigiri",
        -8.224015158578752
      ],
      [
        "▁Vachitaura",
        -8.22597426296016
      ],
      [
        "imwe",
        -8.226325856279157
      ],
      [
        "7",
        -8.227243076808742
      ],
      [
        "▁vanofanira",
        -8.227452313670712
      ],
      [
        "▁nezvimwe",
        -8.227960002406984
      ],
      [
        "masangano",
        -8.228998646755045
      ],
      [
        "▁mwaka",
        -8.231709181068847
      ],
      [
        "▁nemu",
        -8.232601638573758
      ],
      [
        "▁H",
        -8.23349203112172
      ],
      [
        "sangana",
        -8.233626552733922
      ],
      [
        "▁ivo",
        -8.233865264715883
      ],
      [
        "▁emadhora",
        -8.233874292080422
      ],
      [
        "madhora",
        -8.235095151745899
      ],
      [
        "▁paka",
        -8.236119984841546
      ],
      [
        "▁webato",
        -8.23699052715358
      ],
      [
        "▁mamwe",
        -8.238928008820547
      ],
      [
        "ha",
        -8.23967419606684
      ],
      [
        "▁pachi",
        -8.241446990219758
      ],
      [
        "I",
        -8.243915127440939
      ],
      [
        "▁kutamba",
        -8.244595612842767
      ],
      [
        "ive",
        -8.245537247574559
      ],
      [
        "▁rubatsiro",
        -8.246399197152947
      ],
      [
        "▁nde",
        -8.249152108523937
      ],
      [
        "dai",
        -8.249903898568514
      ],
      [
        "▁inofanira",
        -8.250028667545482
      ],
      [
        "▁zuva",
        -8.250195360902854
      ],
      [
        "▁kwemari",
        -8.251038924790237
      ],
      [
        "▁yai",
        -8.25137329456024
      ],
      [
        "tenga",
        -8.254504178620522
      ],
      [
        "▁United",
        -8.255125852050131
      ],
      [
        "▁mazuva",
        -8.256215254614428
      ],
      [
        "▁chake",
        -8.258288329866797
      ],
      [
        "pi",
        -8.259549805188053
      ],
      [
        "▁kambani",
        -8.25981683661739
      ],
      [
        "▁mudare",
        -8.260446344168031
      ],
      [
        "▁R",
        -8.26176818873559
      ],
      [
        "▁Nations",
        -8.264673730535398
      ],
      [
        "▁gadziriro",
        -8.267165051456484
      ],
      [
        "▁divi",
        -8.269968048401946
      ],
      [
        "mbi",
        -8.270921367607095
      ],
      [
        "▁kuitika",
        -8.2724423627639
      ],
      [
        "mwe",
        -8.273535194515567
      ],
      [
        "dzo",
        -8.274294371053427
      ],
      [
        "▁Covid-19",
        -8.275510314572422
      ],
      [
        "▁dzezvehupfumi",
        -8.280781639148016
      ],
      [
        "▁ucha",
        -8.28105525057514
      ],
      [
        "▁zvirango",
        -8.283186324482624
      ],
      [
        "▁kwaka",
        -8.286467538715598
      ],
      [
        "irwa",
        -8.291486796148702
      ],
      [
        "edza",
        -8.29266956143776
      ],
      [
        "go",
        -8.292805512329645
      ],
      [
        "▁Zv",
        -8.295213157680001
      ],
      [
        "mazuva",
        -8.296941557460901
      ],
      [
        "3",
        -8.298296023930249
      ],
      [
        "Group",
        -8.29845607079954
      ],
      [
        "▁ti",
        -8.3023651143772
      ],
      [
        "shandiswa",
        -8.304022940518898
      ],
      [
        "K",
        -8.304252812252969
      ],
      [
        "▁kwavo",
        -8.314226935642562
      ],
      [
        "tarisirwa",
        -8.317624492557266
      ],
      [
        "siya",
        -8.320243376092773
      ],
      [
        "▁kuSouth",
        -8.32304302431372
      ],
      [
        "N",
        -8.323110653667236
      ],
      [
        "▁veku",
        -8.324160613440885
      ],
      [
        "▁munzvimbo",
        -8.32424452004161
      ],
      [
        "5",
        -8.325244916331942
      ],
      [
        "G",
        -8.326616696869422
      ],
      [
        "vo",
        -8.327039985621045
      ],
      [
        "▁Munyor",
        -8.329793120919819
      ],
      [
        "▁dzichi",
        -8.3302214747772
      ],
      [
        "▁hwenyika",
        -8.331513776522954
      ],
      [
        "pe",
        -8.3317228775031
      ],
      [
        "buritswa",
        -8.33186482678035
      ],
      [
        "▁yava",
        -8.333609332576746
      ],
      [
        "9",
        -8.333997523636754
      ],
      [
        "▁maWarriors",
        -8.33723107863963
      ],
      [
        "▁kwemashoko",
        -8.339943089040494
      ],
      [
        "▁K",
        -8.339966127251312
      ],
      [
        "▁Ta",
        -8.340013953372548
      ],
      [
        "▁yakawanda",
        -8.340289567542229
      ],
      [
        "tambirwa",
        -8.34068194179101
      ],
      [
        "U",
        -8.340931293989705
      ],
      [
        "▁ta",
        -8.341557334753713
      ],
      [
        "▁hupenyu",
        -8.344983732546584
      ],
      [
        "▁hava",
        -8.345216866224034
      ],
      [
        "vanhu",
        -8.347077583141871
      ],
      [
        "▁wekutanga",
        -8.35052876235521
      ],
      [
        "ite",
        -8.350763894017621
      ],
      [
        "▁kubatsira",
        -8.35117218929446
      ],
      [
        "▁rimwe",
        -8.351394461703748
      ],
      [
        "urukota",
        -8.354749399470588
      ],
      [
        "▁pamusangano",
        -8.357644832109413
      ],
      [
        "▁kubhadhara",
        -8.357814155609752
      ],
      [
        "ge",
        -8.359442580567537
      ],
      [
        "▁mutambi",
        -8.360778220963883
      ],
      [
        "▁vakaita",
        -8.361919752854512
      ],
      [
        "dzoka",
        -8.363898001388035
      ],
      [
        "▁r",
        -8.364925661416992
      ],
      [
        "batwa",
        -8.370827402291994
      ],
      [
        "ange",
        -8.371914077123003
      ],
      [
        "’",
        -8.373773659730922
      ],
      [
        "▁nenyika",
        -8.37534828023091
      ],
      [
        "▁rinouya",
        -8.376576813072113
      ],
      [
        "▁VaM",
        -8.379183401394336
      ],
      [
        "▁World",
        -8.380684387530849
      ],
      [
        "▁Bank",
        -8.381955105403783
      ],
      [
        "▁ehurumende",
        -8.38200954557633
      ],
      [
        "▁taka",
        -8.382465230090606
      ],
      [
        "▁vasati",
        -8.382745355119516
      ],
      [
        "▁inofanirwa",
        -8.3838633704467
      ],
      [
        "▁rine",
        -8.384145323771538
      ],
      [
        "bhanga",
        -8.384414293096407
      ],
      [
        "▁kumusha",
        -8.38794099177934
      ],
      [
        "buritsa",
        -8.388820198948583
      ],
      [
        "▁iri.",
        -8.39127574697152
      ],
      [
        "▁achiti",
        -8.391323662501161
      ],
      [
        "▁iye",
        -8.391451476533486
      ],
      [
        "wi",
        -8.392473586307526
      ],
      [
        "nenge",
        -8.392869044356509
      ],
      [
        "▁pamutemo",
        -8.394344053424373
      ],
      [
        "tungamira",
        -8.396085967832464
      ],
      [
        "▁richa",
        -8.39671285153469
      ],
      [
        "▁weZimbabwe",
        -8.396773836597642
      ],
      [
        "nd",
        -8.397934668536216
      ],
      [
        "▁mvumo",
        -8.399891553971559
      ],
      [
        "E",
        -8.401094277906457
      ],
      [
        "inge",
        -8.402326779389014
      ],
      [
        "▁matambudziko",
        -8.405650466240157
      ],
      [
        "ine",
        -8.407309557043916
      ],
      [
        "chengetedza",
        -8.407324542824906
      ],
      [
        "2",
        -8.409599048835467
      ],
      [
        "▁kudare",
        -8.410543286108373
      ],
      [
        "wanikwa",
        -8.41054500847823
      ],
      [
        "▁naVa",
        -8.412029648479908
      ],
      [
        "▁nemutungamiri",
        -8.412777312818136
      ],
      [
        "▁1",
        -8.41316797941412
      ],
      [
        "tu",
        -8.41320743564619
      ],
      [
        "▁tino",
        -8.413430926514048
      ],
      [
        "▁kuvhota",
        -8.41377614282931
      ],
      [
        "mba",
        -8.414438611790452
      ],
      [
        "wedzera",
        -8.414649375233784
      ],
      [
        "▁chicha",
        -8.415431847335107
      ],
      [
        "▁iyi,",
        -8.418161562362064
      ],
      [
        "hi",
        -8.419187535725989
      ],
      [
        "▁zvese",
        -8.420598636534631
      ],
      [
        "▁yake",
        -8.423084807654176
      ],
      [
        "▁kukurudzira",
        -8.42316625080949
      ],
      [
        "ny",
        -8.424108260506209
      ],
      [
        "▁Hatina",
        -8.427417802526296
      ],
      [
        "kwikwidza",
        -8.427854330939251
      ],
      [
        "▁zvikamu",
        -8.428373038787061
      ],
      [
        "▁yeZimbabwe",
        -8.42991869922584
      ],
      [
        "bhadhara",
        -8.429974765425529
      ],
      [
        "W",
        -8.430130893060872
      ],
      [
        "▁vaviri",
        -8.430467888770373
      ],
      [
        "▁nemamwe",
        -8.430755157335678
      ],
      [
        "china",
        -8.43464826286386
      ],
      [
        "gona",
        -8.436234512847232
      ],
      [
        "▁vasa",
        -8.43673056879597
      ],
      [
        "▁Muzvinafundo",
        -8.436851287777472
      ],
      [
        "denda",
        -8.438101881508693
      ],
      [
        "tongerwo",
        -8.438222669003716
      ],
      [
        "▁munyori",
        -8.438307046164129
      ],
      [
        "ongororo",
        -8.442088596406869
      ],
      [
        "ral",
        -8.44219181301022
      ],
      [
        "▁Anot",
        -8.442353669517864
      ],
      [
        "▁rwe",
        -8.444036749132705
      ],
      [
        "▁I",
        -8.444656461578811
      ],
      [
        "▁VaMa",
        -8.44583007134602
      ],
      [
        "▁Council",
        -8.446573227736327
      ],
      [
        "▁chavo",
        -8.447061483983815
      ],
      [
        "▁dz",
        -8.447295430900748
      ],
      [
        "azi",
        -8.44959445136896
      ],
      [
        "ziva",
        -8.452855601263227
      ],
      [
        "▁F",
        -8.454036420894326
      ],
      [
        "v",
        -8.456205996450485
      ],
      [
        "▁isina",
        -8.456312038380503
      ],
      [
        "▁ha",
        -8.456511380812783
      ],
      [
        "▁vakabatwa",
        -8.458375736447067
      ],
      [
        "▁kare",
        -8.460835219218339
      ],
      [
        "▁ri",
        -8.461298098303512
      ],
      [
        "pasi",
        -8.461399739042477
      ],
      [
        "▁nenguva",
        -8.461625852416207
      ],
      [
        "fanirwa",
        -8.462859125315816
      ],
      [
        "▁kutarisira",
        -8.463273171147243
      ],
      [
        "▁mubato",
        -8.463695466457418
      ],
      [
        "▁chichi",
        -8.46591471687756
      ],
      [
        "▁Development",
        -8.465935418901811
      ],
      [
        "onekwa",
        -8.466127802759475
      ],
      [
        "▁vachiri",
        -8.466733721472146
      ],
      [
        "chipatara",
        -8.467536939535378
      ],
      [
        "▁zvai",
        -8.467682362169974
      ],
      [
        "▁nzira",
        -8.468171181421887
      ],
      [
        "Z",
        -8.468772618754613
      ],
      [
        "▁masangano",
        -8.468927310068706
      ],
      [
        "mira",
        -8.469221362311224
      ],
      [
        "▁kushandisa",
        -8.474258338228964
      ],
      [
        "▁hweku",
        -8.47457345799205
      ],
      [
        "▁kweku",
        -8.47497165683016
      ],
      [
        "▁vaive",
        -8.475047573688453
      ],
      [
        "H",
        -8.47530621533055
      ],
      [
        "▁hazvina",
        -8.476206442617412
      ],
      [
        "st",
        -8.47778331093306
      ],
      [
        "gadzirira",
        -8.477922109989821
      ],
      [
        "▁u",
        -8.478102813986492
      ],
      [
        "▁n",
        -8.478355934446178
      ],
      [
        "famba",
        -8.478459839277932
      ],
      [
        "kurudzira",
        -8.47928535850993
      ],
      [
        "zivisa",
        -8.483142668699553
      ],
      [
        "▁19",
        -8.483369675220711
      ],
      [
        "nharembozha",
        -8.4846353392889
      ],
      [
        "▁chigaro",
        -8.48485414841809
      ],
      [
        "▁America",
        -8.485315273474878
      ],
      [
        "tsigira",
        -8.487731040780432
      ],
      [
        "kudyidzana",
        -8.489196341279321
      ],
      [
        "he",
        -8.489600456307983
      ],
      [
        "su",
        -8.49163507157295
      ],
      [
        "dunhu",
        -8.492373815942468
      ],
      [
        "South",
        -8.494436451544994
      ],
      [
        "shu",
        -8.496155796089798
      ],
      [
        "us",
        -8.497218861192867
      ],
      [
        "▁haisi",
        -8.497579318734523
      ],
      [
        "▁nemapurisa",
        -8.497889079574566
      ],
      [
        "▁huri",
        -8.504901707649012
      ],
      [
        "▁varairidzi",
        -8.505238123578085
      ],
      [
        "dzingwa",
        -8.505313166906376
      ],
      [
        "svondo",
        -8.505457624901215
      ],
      [
        "kwa",
        -8.50559670887952
      ],
      [
        "O",
        -8.505687970978194
      ],
      [
        "unza",
        -8.505895209258004
      ],
      [
        "▁vakwanise",
        -8.507485323101342
      ],
      [
        "▁chenyika",
        -8.510135998948321
      ],
      [
        "▁kusa",
        -8.51030082977187
      ],
      [
        "dze",
        -8.512330519521486
      ],
      [
        "or",
        -8.512465171338558
      ],
      [
        "zvo",
        -8.513638206075758
      ],
      [
        "▁zvave",
        -8.513812050793739
      ],
      [
        "▁ndizvo",
        -8.515448444629886
      ],
      [
        "▁anopikisa",
        -8.515483145227206
      ],
      [
        "mwedzi",
        -8.51761332570404
      ],
      [
        "▁zveZimbabwe",
        -8.51779872670713
      ],
      [
        "jah",
        -8.518089713216057
      ],
      [
        "bato",
        -8.519244581440455
      ],
      [
        "▁inonzi",
        -8.520698697936497
      ],
      [
        "▁mitengo",
        -8.524702969455056
      ],
      [
        "▁City",
        -8.52514830866998
      ],
      [
        "▁nemumwe",
        -8.52550922596929
      ],
      [
        "United",
        -8.527265701123813
      ],
      [
        "▁Chikwat",
        -8.527307820769574
      ],
      [
        "miswa",
        -8.527585840586639
      ],
      [
        "▁kuratidzira",
        -8.529367047890464
      ],
      [
        "nhandare",
        -8.533275926450381
      ],
      [
        "do",
        -8.533815445846619
      ],
      [
        "▁Ka",
        -8.535958890761357
      ],
      [
        "ic",
        -8.536217818216294
      ],
      [
        "▁kusangana",
        -8.536514192584878
      ],
      [
        "▁kwevanhu",
        -8.537880551539892
      ],
      [
        "munhu",
        -8.539124743861585
      ],
      [
        "▁chiremba",
        -8.539463117266084
      ],
      [
        "kwira",
        -8.539528990521674
      ],
      [
        "bi",
        -8.540263236742828
      ],
      [
        "▁Health",
        -8.544860468611628
      ],
      [
        "angwa",
        -8.544927475255864
      ],
      [
        "▁million",
        -8.545803515447965
      ],
      [
        "▁rezvemari",
        -8.546451769606946
      ],
      [
        "▁dare",
        -8.54722852618977
      ],
      [
        "▁vakaudza",
        -8.548111134360665
      ],
      [
        "ndo",
        -8.550331844853705
      ],
      [
        "▁kugara",
        -8.551154048502205
      ],
      [
        "▁International",
        -8.55423330368817
      ],
      [
        "nya",
        -8.555021147199064
      ],
      [
        "▁uyu,",
        -8.556955974806126
      ],
      [
        "▁ndino",
        -8.557046629877025
      ],
      [
        "▁wenhabvu",
        -8.55857780439132
      ],
      [
        "▁Cha",
        -8.55894867150781
      ],
      [
        "▁mutauriri",
        -8.55963947738199
      ],
      [
        "▁uchi",
        -8.5599216986556
      ],
      [
        "one",
        -8.562027998350096
      ],
      [
        "▁vese",
        -8.56225286322882
      ],
      [
        "▁Alliance",
        -8.562784207529601
      ],
      [
        "▁murairidzi",
        -8.568464760093246
      ],
      [
        "▁dzine",
        -8.568467860265336
      ],
      [
        "rira",
        -8.56868235223088
      ],
      [
        "▁yavo.",
        -8.570654308356628
      ],
      [
        "anoona",
        -8.574264732930953
      ],
      [
        "▁Saka",
        -8.575180101195144
      ],
      [
        "▁miviri",
        -8.577934272670605
      ],
      [
        "▁ekuAmerica",
        -8.578190546293513
      ],
      [
        "▁zviviri",
        -8.578563440002593
      ],
      [
        "du",
        -8.578897606980155
      ],
      [
        "▁kumira",
        -8.580165375109036
      ],
      [
        "bert",
        -8.581213970161858
      ],
      [
        "▁kungo",
        -8.582228996765789
      ],
      [
        "mabhazi",
        -8.583421242419286
      ],
      [
        "▁zvekare",
        -8.585899412624808
      ],
      [
        "tsi",
        -8.586701187379015
      ],
      [
        "▁kuve",
        -8.58748798827394
      ],
      [
        "▁Vano",
        -8.587910716334068
      ],
      [
        "▁kuto",
        -8.588572850786141
      ],
      [
        "in",
        -8.589455903207117
      ],
      [
        "chirwere",
        -8.591817399979192
      ],
      [
        "dzwa",
        -8.592987748216988
      ],
      [
        "▁aya.",
        -8.593047443032589
      ],
      [
        "6",
        -8.594325020999605
      ],
      [
        "aland",
        -8.596273959541234
      ],
      [
        "▁kupihwa",
        -8.59768810825118
      ],
      [
        "▁cheCovid-19.",
        -8.597837112133657
      ],
      [
        "▁chete.",
        -8.59838812618021
      ],
      [
        "zvinosanganisira",
        -8.598789199201542
      ],
      [
        "▁pamberi",
        -8.599570327722184
      ],
      [
        "▁isu",
        -8.599864638023965
      ],
      [
        "▁5",
        -8.602460925302404
      ],
      [
        "▁yedu",
        -8.603163298914504
      ],
      [
        "4",
        -8.603426271061746
      ],
      [
        "▁kumatare",
        -8.603812158076446
      ],
      [
        "▁kutenga",
        -8.607148048413315
      ],
      [
        "zvikwata",
        -8.607965204552563
      ],
      [
        "▁hwavo",
        -8.608754976974176
      ],
      [
        "udza",
        -8.60905983404224
      ],
      [
        "1",
        -8.60940766179736
      ],
      [
        "ch",
        -8.610776036780543
      ],
      [
        "▁remitemo",
        -8.611433813818547
      ],
      [
        "▁kwakaitwa",
        -8.611966504295262
      ],
      [
        "▁navo",
        -8.612036007129602
      ],
      [
        "▁mhirizhonga",
        -8.614090498760921
      ],
      [
        "▁hurukuro",
        -8.616358271143156
      ],
      [
        "▁mugari",
        -8.617501973270674
      ],
      [
        "J",
        -8.618089029120185
      ],
      [
        "▁reMDC",
        -8.618437778257556
      ],
      [
        "ar",
        -8.619364313688159
      ],
      [
        "▁ndechekut",
        -8.619800714182173
      ],
      [
        "so",
        -8.620413118684663
      ],
      [
        "taurwa",
        -8.620683679382584
      ],
      [
        "▁Stadium",
        -8.621902578322942
      ],
      [
        "▁iri,",
        -8.622274134036132
      ],
      [
        "anenge",
        -8.623555872548517
      ],
      [
        "kura",
        -8.624084299097333
      ],
      [
        "▁chekuita",
        -8.626877467331486
      ],
      [
        "▁paine",
        -8.626949848172716
      ],
      [
        "▁sachigaro",
        -8.627346859622477
      ],
      [
        "▁zvirwere",
        -8.629208550243511
      ],
      [
        "itirwa",
        -8.632876066857396
      ],
      [
        "▁vava",
        -8.632904354566584
      ],
      [
        "vari",
        -8.633213353239213
      ],
      [
        "▁neve",
        -8.633361209238938
      ],
      [
        "▁hwaka",
        -8.633754913224916
      ],
      [
        "▁reparamende",
        -8.633780544079327
      ],
      [
        "▁venhabvu",
        -8.63386306647021
      ],
      [
        "netsa",
        -8.634122955245699
      ],
      [
        "▁rake",
        -8.636241863935574
      ],
      [
        "▁mapato",
        -8.637239691924261
      ],
      [
        "nwisa",
        -8.637831740153022
      ],
      [
        "▁West",
        -8.6386890386974
      ],
      [
        "▁rinoon",
        -8.640403569212491
      ],
      [
        "wanda",
        -8.641486924060807
      ],
      [
        "8",
        -8.644973997465595
      ],
      [
        "tyora",
        -8.645527159410351
      ],
      [
        "▁kumabasa",
        -8.647745323199567
      ],
      [
        "▁vemu",
        -8.647801047968589
      ],
      [
        "shandi",
        -8.648010007099966
      ],
      [
        "▁Z",
        -8.65050038662729
      ],
      [
        "▁ati",
        -8.652105464692294
      ],
      [
        "▁kunyanya",
        -8.652417212935251
      ],
      [
        "mapato",
        -8.652952386089563
      ],
      [
        "▁ZEC",
        -8.653648844137454
      ],
      [
        "▁kuhwina",
        -8.65406829604069
      ],
      [
        "achigaro",
        -8.654082884496745
      ],
      [
        "ry",
        -8.654487288722535
      ],
      [
        "▁vakanga",
        -8.654582896501424
      ],
      [
        "ern",
        -8.656181338960128
      ],
      [
        "▁dzakawanda",
        -8.657238708767373
      ],
      [
        "▁kufamba",
        -8.658846732583296
      ],
      [
        "▁rekuti",
        -8.659300887559505
      ],
      [
        "funga",
        -8.663396991211453
      ],
      [
        "▁kubuda",
        -8.664600991043866
      ],
      [
        "▁chose",
        -8.668257114522433
      ],
      [
        "▁reCovid-19",
        -8.66979930623225
      ],
      [
        "▁wemutungamiri",
        -8.67082555936644
      ],
      [
        "▁dzakaita",
        -8.67216137011529
      ],
      [
        "L",
        -8.672194245651895
      ],
      [
        "▁wake",
        -8.6725853046981
      ],
      [
        "▁vachishanda",
        -8.67259590249865
      ],
      [
        "▁MDC",
        -8.673566230992545
      ],
      [
        "rambe",
        -8.674390539128055
      ],
      [
        "▁komi",
        -8.674926786059597
      ],
      [
        "konzera",
        -8.675136673324644
      ],
      [
        "▁Zvi",
        -8.675979493999538
      ],
      [
        "▁mukati",
        -8.676228980074269
      ],
      [
        "▁4",
        -8.676889006998369
      ],
      [
        "misa",
        -8.677275310047964
      ],
      [
        "simba",
        -8.677357697663076
      ],
      [
        "▁dzose",
        -8.679903452391134
      ],
      [
        "▁Ncube",
        -8.680057843605297
      ],
      [
        "▁neMuvhuro",
        -8.68006563332996
      ],
      [
        "kumbira",
        -8.680444566843235
      ],
      [
        "V",
        -8.680766454518576
      ],
      [
        "ter",
        -8.68185853493311
      ],
      [
        "▁Ru",
        -8.683181516975033
      ],
      [
        "▁m",
        -8.684022259773313
      ],
      [
        "▁National",
        -8.68698477212665
      ],
      [
        "▁ika",
        -8.688614509466582
      ],
      [
        "sara",
        -8.688776854747925
      ],
      [
        "itika",
        -8.689727169905812
      ],
      [
        "ce",
        -8.692021349031712
      ],
      [
        "▁zvematongerw",
        -8.6921321879387
      ],
      [
        "▁pano",
        -8.692468212087444
      ],
      [
        "▁ka",
        -8.694045069024243
      ],
      [
        "nofanirwa",
        -8.695341341960313
      ],
      [
        "▁kubatwa",
        -8.696363439382672
      ],
      [
        "tenda",
        -8.70048405104668
      ],
      [
        "▁Hospital",
        -8.704301156754724
      ],
      [
        "▁tinzwe",
        -8.704370397884212
      ],
      [
        "▁Imwe",
        -8.704635628253403
      ],
      [
        "▁asina",
        -8.705311106413866
      ],
      [
        "▁madzimai",
        -8.705387471826313
      ],
      [
        "▁yeCovid-19",
        -8.705477987826523
      ],
      [
        "▁kukwira",
        -8.706082006499512
      ],
      [
        "tumira",
        -8.706440658153149
      ],
      [
        "vana",
        -8.70789858017276
      ],
      [
        "mashoko",
        -8.71061477606492
      ],
      [
        "▁wese",
        -8.710747304322217
      ],
      [
        "▁v",
        -8.714994469518116
      ],
      [
        "▁E",
        -8.717154109752832
      ],
      [
        "▁muhurumende",
        -8.71898273940236
      ],
      [
        "fu",
        -8.720743711230135
      ],
      [
        "F",
        -8.722120382793392
      ],
      [
        "▁muAfrica",
        -8.723641677285766
      ],
      [
        "America",
        -8.726649749044746
      ],
      [
        "▁weMDC",
        -8.726821996071132
      ],
      [
        "▁muguta",
        -8.727507208744182
      ],
      [
        "tsvaga",
        -8.728671946646175
      ],
      [
        "▁kushandiswa",
        -8.728785311303483
      ],
      [
        "▁zvo",
        -8.729186770787349
      ],
      [
        "▁mhuri",
        -8.729434889325445
      ],
      [
        "▁chikuru",
        -8.729739218267909
      ],
      [
        "ck",
        -8.73066949155952
      ],
      [
        "▁muzvipatara",
        -8.730906136778376
      ],
      [
        "▁Institute",
        -8.731451238466185
      ],
      [
        "▁zvisina",
        -8.731592883637173
      ],
      [
        "▁weChina",
        -8.732014140748914
      ],
      [
        "tange",
        -8.732275394582006
      ],
      [
        "lo",
        -8.733170202923088
      ],
      [
        "▁denda",
        -8.733821684960223
      ],
      [
        "madzimai",
        -8.735182920852854
      ],
      [
        "▁nesimba",
        -8.737967216618781
      ],
      [
        "▁mauto",
        -8.739235297620908
      ],
      [
        "budirira",
        -8.74054780545816
      ],
      [
        "nhengo",
        -8.741216185111568
      ],
      [
        "▁renyika",
        -8.74245401504577
      ],
      [
        "zvikamu",
        -8.743190562109138
      ],
      [
        "▁vachida",
        -8.745157611375333
      ],
      [
        "▁VaMoyo",
        -8.748148785914882
      ],
      [
        "▁sa",
        -8.749201319015754
      ],
      [
        "▁Nya",
        -8.749398185013913
      ],
      [
        "umba",
        -8.751703908396468
      ],
      [
        "gadzirisa",
        -8.75299115734942
      ],
      [
        "mhuri",
        -8.754837916410438
      ],
      [
        "FC",
        -8.754888638973139
      ],
      [
        "▁yezvinhu",
        -8.755703646565145
      ],
      [
        "ngwa",
        -8.757498134046834
      ],
      [
        "endesa",
        -8.758105524190896
      ],
      [
        "▁kumba",
        -8.758366795128758
      ],
      [
        "batana",
        -8.759095719703453
      ],
      [
        "▁anonzi",
        -8.760027091163172
      ],
      [
        "▁kunzi",
        -8.762041580813897
      ],
      [
        "▁Human",
        -8.765447324680887
      ],
      [
        "mbu",
        -8.766156308656567
      ],
      [
        "▁dzezvehutano",
        -8.767648408894665
      ],
      [
        "sheni",
        -8.767818170510589
      ],
      [
        "tarisana",
        -8.768482200754654
      ],
      [
        "vaka",
        -8.768840157560899
      ],
      [
        "▁nevana",
        -8.77254081418755
      ],
      [
        "▁ticha",
        -8.77481448472771
      ],
      [
        "▁vayo",
        -8.776250297545829
      ],
      [
        "▁zvava",
        -8.776738813298486
      ],
      [
        "kundwa",
        -8.778895623602782
      ],
      [
        "▁varwere",
        -8.779165782174896
      ],
      [
        "ronga",
        -8.77987654324354
      ],
      [
        "▁000",
        -8.780472167508846
      ],
      [
        "▁V",
        -8.780760548716351
      ],
      [
        "▁akazvimirira",
        -8.781084721918306
      ],
      [
        "▁repamusoro",
        -8.781840233200594
      ],
      [
        "▁kudarika",
        -8.782232238061262
      ],
      [
        "▁munyika,",
        -8.782945050114732
      ],
      [
        "▁reHarare",
        -8.783711476623093
      ],
      [
        "▁veZimbabwe",
        -8.786184927118505
      ],
      [
        "▁vakato",
        -8.786421212365497
      ],
      [
        "▁kuma",
        -8.78651041104132
      ],
      [
        "▁muma",
        -8.787015233552815
      ],
      [
        "▁Africa,",
        -8.78714751836149
      ],
      [
        "ika",
        -8.787519796076262
      ],
      [
        "▁3",
        -8.788267875480514
      ],
      [
        "zivikanwa",
        -8.789863172998905
      ],
      [
        "kuburitswa",
        -8.790705112253328
      ],
      [
        "▁nda",
        -8.79167407050678
      ],
      [
        "aive",
        -8.792315842460347
      ],
      [
        "▁Teachers",
        -8.794103817563165
      ],
      [
        "▁chaizvo",
        -8.794262492180199
      ],
      [
        "▁ichi,",
        -8.794577349752839
      ],
      [
        "▁yekunze",
        -8.795490769557917
      ],
      [
        "▁mudzimba",
        -8.795501803655647
      ],
      [
        "endeswa",
        -8.79643162567428
      ],
      [
        "▁Soccer",
        -8.797109754688481
      ],
      [
        "▁wedare",
        -8.797506685564432
      ],
      [
        "▁Alliance,",
        -8.800730076130309
      ],
      [
        "▁radarika",
        -8.800740625841833
      ],
      [
        "basa",
        -8.802272248148231
      ],
      [
        "▁VaO",
        -8.802527469706613
      ],
      [
        "▁yekutanga",
        -8.802980895364168
      ],
      [
        "nde",
        -8.803538384982307
      ],
      [
        "zita",
        -8.803593948657767
      ],
      [
        "▁O",
        -8.805228150019403
      ],
      [
        "▁mukurumbira",
        -8.807619747312616
      ],
      [
        "▁Trade",
        -8.807632425780822
      ],
      [
        "▁nemashanu",
        -8.807793932247456
      ],
      [
        "▁Rights",
        -8.807908241582894
      ],
      [
        "Va",
        -8.80885737702092
      ],
      [
        "▁vasinga",
        -8.808873287983076
      ],
      [
        "dzokera",
        -8.809007116418694
      ],
      [
        "ty",
        -8.81518853050829
      ],
      [
        "▁vanogona",
        -8.817962935627817
      ],
      [
        "fanira",
        -8.818816023802619
      ],
      [
        "▁kuna",
        -8.819715092588073
      ],
      [
        "tengesa",
        -8.820088334813155
      ],
      [
        "’s",
        -8.821744343964102
      ],
      [
        "▁mushonga",
        -8.825528863199189
      ],
      [
        "change",
        -8.825841404056277
      ],
      [
        "▁kupomerwa",
        -8.826089645780154
      ],
      [
        "▁zvakanaka.",
        -8.826597119673291
      ],
      [
        "▁kwema",
        -8.831395313873813
      ],
      [
        "▁Zvichakadaro",
        -8.836072022821444
      ],
      [
        "▁vagare",
        -8.837632093622801
      ],
      [
        "▁Harare",
        -8.837835629778663
      ],
      [
        "▁parizvino",
        -8.83871228962987
      ],
      [
        "▁kudzoka",
        -8.840126003949912
      ],
      [
        "▁in",
        -8.840150808107943
      ],
      [
        "iri",
        -8.84047413252491
      ],
      [
        "vashandi",
        -8.841176562487764
      ],
      [
        "▁rinomirir",
        -8.84172652451906
      ],
      [
        "▁wemu",
        -8.84193912616108
      ],
      [
        "▁zvina",
        -8.843415990730527
      ],
      [
        "gari",
        -8.844590794551639
      ],
      [
        "rova",
        -8.846232587567044
      ],
      [
        "aka",
        -8.847361072073715
      ],
      [
        "▁kuuya",
        -8.847476108503518
      ],
      [
        "chikumbir",
        -8.847803437347457
      ],
      [
        "ut",
        -8.849247476903738
      ],
      [
        "▁zvakasiyana",
        -8.85060101443964
      ],
      [
        "ende",
        -8.851759755673259
      ],
      [
        "▁yenyika",
        -8.852024416011439
      ],
      [
        "ts",
        -8.853005841289573
      ],
      [
        "oma",
        -8.853392990186297
      ],
      [
        "pfu",
        -8.857156984411674
      ],
      [
        "▁siyana",
        -8.859452878506664
      ],
      [
        "▁rino,",
        -8.860476244978996
      ],
      [
        "ura",
        -8.861372364509496
      ],
      [
        "▁mafuta",
        -8.862557488944823
      ],
      [
        "rwe",
        -8.863682014291456
      ],
      [
        "▁yakaita",
        -8.864804011533455
      ],
      [
        "▁vachiita",
        -8.865889994079987
      ],
      [
        "▁muchikwata",
        -8.867292195239518
      ],
      [
        "▁peku",
        -8.867504380600415
      ],
      [
        "▁idzi.",
        -8.867603765372554
      ],
      [
        "bumbir",
        -8.86786240802995
      ],
      [
        "▁huno",
        -8.868604305911198
      ],
      [
        "kodzera",
        -8.868986413763688
      ],
      [
        "▁vanosvika",
        -8.873725904638867
      ],
      [
        "nhu",
        -8.87384461529394
      ],
      [
        "il",
        -8.874922022258135
      ],
      [
        "rara",
        -8.876306703405444
      ],
      [
        "▁kubasa",
        -8.87650811509764
      ],
      [
        "dzika",
        -8.877701167803508
      ],
      [
        "tarisira",
        -8.877951552888298
      ],
      [
        "▁Zvichakadai",
        -8.878067825183857
      ],
      [
        "▁mbiri",
        -8.878231950903118
      ],
      [
        "un",
        -8.879116520379823
      ],
      [
        "▁kwakaita",
        -8.880598231543146
      ],
      [
        "▁zvinoti",
        -8.882297721945204
      ],
      [
        "▁vakambo",
        -8.883128728341315
      ],
      [
        "viri",
        -8.8840987875192
      ],
      [
        "▁kwemakore",
        -8.884922337532007
      ],
      [
        "▁8",
        -8.88745960303276
      ],
      [
        "▁cheZimbabwe",
        -8.88874126657278
      ],
      [
        "nonzi",
        -8.891869974634933
      ],
      [
        "tarisa",
        -8.892176002594322
      ],
      [
        "chikwereti",
        -8.89292831623322
      ],
      [
        "am",
        -8.893367898739452
      ],
      [
        "▁neZimbabwe",
        -8.893592302835616
      ],
      [
        "▁hakuna",
        -8.893617546762686
      ],
      [
        "▁vabayiwa",
        -8.89595708479273
      ],
      [
        "ation",
        -8.896186387412746
      ],
      [
        "pazi",
        -8.896207714241235
      ],
      [
        "▁zvinogona",
        -8.89681833294188
      ],
      [
        "nyora",
        -8.896968340420255
      ],
      [
        "tsiva",
        -8.898657536874733
      ],
      [
        "dhora",
        -8.902427108938038
      ],
      [
        "sungwa",
        -8.903660441966387
      ],
      [
        "▁University",
        -8.905191496766408
      ],
      [
        "mubatanidzwa",
        -8.905302486888278
      ],
      [
        "▁vatungamiri",
        -8.906662071352146
      ],
      [
        "▁vedu",
        -8.906956810092876
      ],
      [
        "rasikirwa",
        -8.907460046822706
      ],
      [
        "▁to",
        -8.907478066656573
      ],
      [
        "▁neMugovera",
        -8.907724449165379
      ],
      [
        "▁nevashanu",
        -8.907821177129257
      ],
      [
        "tevera",
        -8.908278911610406
      ],
      [
        "vhura",
        -8.908730123749653
      ],
      [
        "▁zvakasimba",
        -8.909029220357086
      ],
      [
        "▁the",
        -8.909110383884268
      ],
      [
        "▁mushandi",
        -8.909568560147548
      ],
      [
        "Africa",
        -8.910700973957319
      ],
      [
        "▁rwa",
        -8.911394678140965
      ],
      [
        "▁zvichemo",
        -8.911683571883614
      ],
      [
        "▁Ndira",
        -8.911702273548368
      ],
      [
        "▁nevashandi",
        -8.91719718860287
      ],
      [
        "▁kuramwa",
        -8.91937066352564
      ],
      [
        "▁ndichi",
        -8.91945104108434
      ],
      [
        "▁“Ti",
        -8.92041445835445
      ],
      [
        "▁muAmerica",
        -8.922004782401668
      ],
      [
        "reva",
        -8.92287962210076
      ],
      [
        "▁reZanu",
        -8.923794264645803
      ],
      [
        "▁haasi",
        -8.925168626252628
      ],
      [
        "▁pazuva",
        -8.926075745470612
      ],
      [
        "inogona",
        -8.927735040300913
      ],
      [
        "kugadzirisa",
        -8.92775749489214
      ],
      [
        "ani",
        -8.929136814021739
      ],
      [
        "▁kufa",
        -8.930990652697485
      ],
      [
        "▁nezveku",
        -8.931121108443893
      ],
      [
        "bhadharwa",
        -8.931503645426904
      ],
      [
        "▁Zanu",
        -8.932202058432473
      ],
      [
        "vapa",
        -8.932333894679935
      ],
      [
        "inoita",
        -8.934002127276873
      ],
      [
        "▁kumbo",
        -8.937194978210115
      ],
      [
        "▁anga",
        -8.937583204840166
      ],
      [
        "▁ruzivo",
        -8.938235218376654
      ],
      [
        "▁pfupi",
        -8.93824635216829
      ],
      [
        "is",
        -8.939335098382468
      ],
      [
        "▁rehurumende",
        -8.939592739966386
      ],
      [
        "vimbisa",
        -8.940032744968702
      ],
      [
        "pedzisira",
        -8.94084129468719
      ],
      [
        "ashoko",
        -8.948967275770688
      ],
      [
        "ed",
        -8.949074155615888
      ],
      [
        "▁varimi",
        -8.95061328162166
      ],
      [
        "guta",
        -8.95077766393835
      ],
      [
        "siyana",
        -8.950952401409097
      ],
      [
        "▁Vaka",
        -8.951467044812164
      ],
      [
        "kushaikwa",
        -8.952056666214666
      ],
      [
        "▁weC",
        -8.953231600073376
      ],
      [
        "▁Service",
        -8.953860211332028
      ],
      [
        "▁vawane",
        -8.954018590491671
      ],
      [
        "▁Mutambo",
        -8.95434939808489
      ],
      [
        "▁rinopikisa",
        -8.955105154467038
      ],
      [
        "0",
        -8.955516770101944
      ],
      [
        "kwana",
        -8.955551042193296
      ],
      [
        "co",
        -8.957345753335346
      ],
      [
        "▁kuziva",
        -8.957902638308996
      ],
      [
        "▁kukwikwidza",
        -8.958389492439986
      ],
      [
        "chibvumirano",
        -8.960246028892229
      ],
      [
        "sunga",
        -8.961222676688276
      ],
      [
        "▁rutsigiro",
        -8.961910471751771
      ],
      [
        "▁sezva",
        -8.9629247933869
      ],
      [
        "parura",
        -8.962932060473687
      ],
      [
        "rimwe",
        -8.963521065077956
      ],
      [
        "▁mangwana",
        -8.963840713370649
      ],
      [
        "▁bumbir",
        -8.964987903766481
      ],
      [
        "▁misangano",
        -8.967356509832499
      ],
      [
        "▁zvisiri",
        -8.968442362721117
      ],
      [
        "▁VaChamisa",
        -8.969693798514795
      ],
      [
        "▁kutsvaga",
        -8.970683010043103
      ],
      [
        "mimwe",
        -8.970991706738051
      ],
      [
        "rambidza",
        -8.971705414926447
      ],
      [
        "ze",
        -8.97203667898976
      ],
      [
        "▁dzezvema",
        -8.972196182754999
      ],
      [
        "▁yese",
        -8.972434834684535
      ],
      [
        "chatanga",
        -8.972675581460736
      ],
      [
        "▁hazvi",
        -8.97538460736864
      ],
      [
        "▁zvinodiwa",
        -8.975838090868315
      ],
      [
        "astle",
        -8.977849328932944
      ],
      [
        "isati",
        -8.979842351030111
      ],
      [
        "▁mihoro",
        -8.980655451515172
      ],
      [
        "▁ndiri",
        -8.980742090765562
      ],
      [
        "pfuura",
        -8.981842467040693
      ],
      [
        "▁VaMu",
        -8.982014342203076
      ],
      [
        "kupera",
        -8.983847442783857
      ],
      [
        "x",
        -8.984145020267906
      ],
      [
        "▁Vanotiwo",
        -8.984720234564229
      ],
      [
        "▁kumu",
        -8.985119817878699
      ],
      [
        "▁vanosanganisir",
        -8.985675740160161
      ],
      [
        "vanoshanda",
        -8.986244442410438
      ],
      [
        "00",
        -8.987057141323076
      ],
      [
        "▁muchi",
        -8.990479174332023
      ],
      [
        "isiri",
        -8.990625799153289
      ],
      [
        "▁yacho",
        -8.991162052492673
      ],
      [
        "kana",
        -8.991247723835349
      ],
      [
        "▁vanodaro",
        -8.991520508531405
      ],
      [
        "bha",
        -8.993862482617352
      ],
      [
        "▁idzo",
        -8.995619042484794
      ],
      [
        "▁nezita",
        -8.996288808009016
      ],
      [
        "▁kukunda",
        -8.996567400797808
      ],
      [
        ",\"",
        -8.9967638211887
      ],
      [
        "▁haa",
        -8.999558200348957
      ],
      [
        "▁ndaka",
        -9.000623294446314
      ],
      [
        "▁vago",
        -9.001874976521801
      ],
      [
        "gungano",
        -9.002255995968806
      ],
      [
        "▁weSvondo",
        -9.002538571635629
      ],
      [
        "▁uhu",
        -9.002873287364757
      ],
      [
        "▁iine",
        -9.002952375820495
      ],
      [
        "▁yakasiyana",
        -9.00404538806385
      ],
      [
        "▁nezvi",
        -9.004215937479833
      ],
      [
        "▁yeHarare",
        -9.005540160192389
      ],
      [
        "▁nani",
        -9.006909651526747
      ],
      [
        "▁pfungwa",
        -9.007616795759244
      ],
      [
        "▁Elect",
        -9.008596611763918
      ],
      [
        "ir",
        -9.00978051205714
      ],
      [
        "musangano",
        -9.011035649251996
      ],
      [
        "▁zvikwereti",
        -9.012057937575683
      ],
      [
        "bvisa",
        -9.013307587255593
      ],
      [
        "svitsa",
        -9.014859531558844
      ],
      [
        "uraya",
        -9.017954093514259
      ],
      [
        "fanobata",
        -9.018247382665713
      ],
      [
        "▁nechi",
        -9.01831933840812
      ],
      [
        "▁Court",
        -9.018922676124294
      ],
      [
        "▁Fund",
        -9.018931721238136
      ],
      [
        "tsigiri",
        -9.02032725558689
      ],
      [
        "▁vatatu",
        -9.021177031666252
      ],
      [
        "▁ese",
        -9.021370547664432
      ],
      [
        "kundikana",
        -9.021864146708603
      ],
      [
        "kosha",
        -9.022003910886564
      ],
      [
        "▁kumirira",
        -9.024847460432476
      ],
      [
        "▁tsamba",
        -9.026799133797928
      ],
      [
        "zvino",
        -9.027368317798977
      ],
      [
        "▁masimba",
        -9.027759279245874
      ],
      [
        "▁mwana",
        -9.028371453702752
      ],
      [
        "▁Dz",
        -9.029284559464273
      ],
      [
        "mhando",
        -9.030171598719104
      ],
      [
        "▁Economi",
        -9.031654852721019
      ],
      [
        "▁nezvikwata",
        -9.031846724367309
      ],
      [
        "▁chine",
        -9.03219811245779
      ],
      [
        "tsa",
        -9.032292100078264
      ],
      [
        "▁VaN",
        -9.032555724616234
      ],
      [
        "hwa",
        -9.033156184840138
      ],
      [
        "tambwa",
        -9.033966184948518
      ],
      [
        "▁‘",
        -9.035871538007008
      ],
      [
        "▁anosanganisira",
        -9.03629500611291
      ],
      [
        "▁mutsva",
        -9.036446295327153
      ],
      [
        "▁yeparamende",
        -9.036560724032707
      ],
      [
        "nzira",
        -9.037198159716885
      ],
      [
        "▁zvinoita",
        -9.037601803994221
      ],
      [
        "▁VaB",
        -9.037614042559095
      ],
      [
        "▁rinotevera",
        -9.037729159915214
      ],
      [
        "▁akasiyana",
        -9.037854339298544
      ],
      [
        "ngwe",
        -9.040122112368936
      ],
      [
        "▁vakazo",
        -9.040782882072753
      ],
      [
        "▁neCovid-19",
        -9.040998118442094
      ],
      [
        "▁2018",
        -9.041834912900072
      ],
      [
        "▁chema",
        -9.042078338860552
      ],
      [
        "▁Unions",
        -9.044648766074165
      ],
      [
        "▁chikafu",
        -9.046810700233646
      ],
      [
        "at",
        -9.046840914474389
      ],
      [
        "▁kuronga",
        -9.047084574437418
      ],
      [
        "zive",
        -9.04764260055657
      ],
      [
        "▁zv",
        -9.048191087809446
      ],
      [
        "▁yadarika",
        -9.048200973317861
      ],
      [
        "▁b",
        -9.049765080617064
      ],
      [
        "▁kumusangano",
        -9.050408214562918
      ],
      [
        "▁neStudio",
        -9.052875226880465
      ],
      [
        "▁weMuvhuro",
        -9.053115684853525
      ],
      [
        "▁Chamisa",
        -9.05339591449804
      ],
      [
        "▁dzakasiyana",
        -9.053603732871728
      ],
      [
        "▁vakurudzira",
        -9.054304494163226
      ],
      [
        "▁neChipiri",
        -9.054367720169118
      ],
      [
        "▁vanove",
        -9.055453997052517
      ],
      [
        "▁Football",
        -9.058437574113368
      ],
      [
        "▁neChina",
        -9.05924409609154
      ],
      [
        "zv",
        -9.059565158137707
      ],
      [
        "▁kwenguva",
        -9.060068803500755
      ],
      [
        "▁pave",
        -9.060320298092996
      ],
      [
        "▁nedare",
        -9.061276599557683
      ],
      [
        "▁kugadziriswa",
        -9.061707737072808
      ],
      [
        "kwanise",
        -9.062170597063815
      ],
      [
        "bo",
        -9.062838180173841
      ],
      [
        "ina",
        -9.065224135489535
      ],
      [
        "iti",
        -9.066149530691789
      ],
      [
        "▁rega",
        -9.06772759387955
      ],
      [
        "ngi",
        -9.06800632862139
      ],
      [
        "zuva",
        -9.069195490772753
      ],
      [
        "▁shoma",
        -9.069290227207425
      ],
      [
        "makurukota",
        -9.069562945700175
      ],
      [
        "▁chai",
        -9.069803524290716
      ],
      [
        "zvipira",
        -9.07036933777326
      ],
      [
        "▁kuchi",
        -9.0706686375452
      ],
      [
        "▁Stars",
        -9.071370827261175
      ],
      [
        "tai",
        -9.071472560502876
      ],
      [
        "ah",
        -9.072636197425961
      ],
      [
        "▁muSouth",
        -9.072831025861795
      ],
      [
        "Harare",
        -9.073907369613842
      ],
      [
        "▁chedu",
        -9.073961914096007
      ],
      [
        "▁dzake",
        -9.074651038409524
      ],
      [
        "▁vanachiremba",
        -9.07468498263674
      ],
      [
        "▁yo",
        -9.074734713751212
      ],
      [
        "kanganisa",
        -9.076624262063188
      ],
      [
        "hama",
        -9.078766033219075
      ],
      [
        "▁hai",
        -9.080223060221359
      ],
      [
        "mumatunhu",
        -9.080899018818258
      ],
      [
        "▁chiuru",
        -9.082360655423377
      ],
      [
        "vharwa",
        -9.082595356115903
      ],
      [
        "shaya",
        -9.082957991190224
      ],
      [
        "nyanya",
        -9.085041202528775
      ],
      [
        "ca",
        -9.08581975877791
      ],
      [
        "huwandu",
        -9.08670499079834
      ],
      [
        "▁ch",
        -9.087468090934035
      ],
      [
        "▁vakafa",
        -9.087601297453373
      ],
      [
        "▁Chikumi",
        -9.088516118861904
      ],
      [
        "▁weMugovera",
        -9.088521393280608
      ],
      [
        "makundano",
        -9.088965657044067
      ],
      [
        "vanenge",
        -9.09056866432627
      ],
      [
        "diwa",
        -9.091089271170596
      ],
      [
        "▁manheru",
        -9.091092066281888
      ],
      [
        "▁VaS",
        -9.091183962070872
      ],
      [
        "j",
        -9.091239471378099
      ],
      [
        "▁mazita",
        -9.091981767107962
      ],
      [
        "▁reMasvingo",
        -9.09221631171824
      ],
      [
        "▁nedambudziko",
        -9.093425236803313
      ],
      [
        "epanhau",
        -9.094591553827037
      ],
      [
        "yambira",
        -9.094727681504775
      ],
      [
        "vanoita",
        -9.095263945876475
      ],
      [
        "▁VaD",
        -9.096209685025563
      ],
      [
        "ongororwa",
        -9.097828053584161
      ],
      [
        "▁Mo",
        -9.097873299371614
      ],
      [
        "▁Sports",
        -9.098443476730884
      ],
      [
        "fi",
        -9.100271936806006
      ],
      [
        "▁dzemu",
        -9.101426412421215
      ],
      [
        "▁munhandare",
        -9.103480303138173
      ],
      [
        "dhi",
        -9.106647945928954
      ],
      [
        "▁yechibatiso",
        -9.1066957212236
      ],
      [
        "▁zvibodzwa",
        -9.106705447470656
      ],
      [
        "▁neChitatu",
        -9.106709350362813
      ],
      [
        "▁vashoma",
        -9.108514225325909
      ],
      [
        "),",
        -9.109189332362668
      ],
      [
        "▁Svondo",
        -9.109357541590128
      ],
      [
        "▁adarika",
        -9.109439316070159
      ],
      [
        "▁magetsi",
        -9.110585375844435
      ],
      [
        "▁kuzvi",
        -9.110618428040622
      ],
      [
        "kwe",
        -9.110903888796031
      ],
      [
        "im",
        -9.111466717777734
      ],
      [
        "▁kuhurumende",
        -9.111563896902378
      ],
      [
        "▁ema",
        -9.111811810954169
      ],
      [
        "▁rese",
        -9.112401058049157
      ],
      [
        "▁dzicha",
        -9.112480827525928
      ],
      [
        "zhinji",
        -9.113582851755442
      ],
      [
        "makwikwi",
        -9.113602558242965
      ],
      [
        "▁kunokwikwidza",
        -9.113612578570685
      ],
      [
        "▁Kurume",
        -9.114572278881692
      ],
      [
        "▁miriyoni",
        -9.115089555404749
      ],
      [
        "dare",
        -9.115435009128039
      ],
      [
        "▁nezva",
        -9.11560165530925
      ],
      [
        "ratidzira",
        -9.116014639137223
      ],
      [
        "ob",
        -9.117365834744493
      ],
      [
        "konzerwa",
        -9.117590982214853
      ],
      [
        "▁0",
        -9.11769138443429
      ],
      [
        "▁shasha",
        -9.120445646637089
      ],
      [
        "rapa",
        -9.121800146473923
      ],
      [
        "▁kusiya",
        -9.122454779541407
      ],
      [
        "dzidzo",
        -9.123970775074675
      ],
      [
        "umo",
        -9.124329383366222
      ],
      [
        "kushomek",
        -9.125214317218742
      ],
      [
        "▁mangange",
        -9.125286301650231
      ],
      [
        "▁dzemuAfrica",
        -9.125349511314798
      ],
      [
        "▁nevatatu",
        -9.125362106107673
      ],
      [
        "▁nemanomwe",
        -9.12538468212773
      ],
      [
        "▁nevaviri",
        -9.125577253820413
      ],
      [
        "sarudza",
        -9.126986925227811
      ],
      [
        "▁muparamende",
        -9.127030667001257
      ],
      [
        "▁VaTa",
        -9.127398867204757
      ],
      [
        "doma",
        -9.127469591960262
      ],
      [
        "▁ravo.",
        -9.128629599370418
      ],
      [
        "▁vaende",
        -9.128756333101403
      ],
      [
        "udzwa",
        -9.128768141490351
      ],
      [
        "▁neveruzhinji",
        -9.129738039437662
      ],
      [
        "dzinosanganisira",
        -9.129998531814046
      ],
      [
        "munyori",
        -9.130069800311054
      ],
      [
        "ur",
        -9.130689376972047
      ],
      [
        "▁vachitaura",
        -9.131165342955
      ],
      [
        "rapwa",
        -9.13130740565211
      ],
      [
        "kutsvaga",
        -9.132210919454245
      ],
      [
        "▁kubayiwa",
        -9.135169877913494
      ],
      [
        "▁kudzivirira",
        -9.135500531413289
      ],
      [
        "▁mumusangano",
        -9.136039417282465
      ],
      [
        "ari",
        -9.137411466028645
      ],
      [
        "▁Ve",
        -9.137980132326353
      ],
      [
        "▁zvikwanisiro",
        -9.139037236497593
      ],
      [
        "▁Re",
        -9.14115336828181
      ],
      [
        "it",
        -9.143154289700497
      ],
      [
        "tengwa",
        -9.143174273682249
      ],
      [
        "VaMangudya",
        -9.144082334198485
      ],
      [
        "▁pedyo",
        -9.144088986509242
      ],
      [
        "▁weChishanu",
        -9.144573090709695
      ],
      [
        "▁uhwu",
        -9.144605072027627
      ],
      [
        "▁weChipiri",
        -9.144844817617379
      ],
      [
        "▁remangwana",
        -9.145372464678585
      ],
      [
        "rohwa",
        -9.14593885814003
      ],
      [
        "Muzvare",
        -9.146054665364854
      ],
      [
        "▁zvemadhora",
        -9.1461327437726
      ],
      [
        "Masvingo",
        -9.146673801940775
      ],
      [
        "▁kuchiti",
        -9.146810196649556
      ],
      [
        "▁vanoona",
        -9.146894383015754
      ],
      [
        "▁kunyoresa",
        -9.147406589354667
      ],
      [
        "▁simba",
        -9.147553130213986
      ],
      [
        "▁2",
        -9.147999792381455
      ],
      [
        "▁kudomwa",
        -9.148599083177213
      ],
      [
        "ja",
        -9.148634758605745
      ],
      [
        "▁venyika",
        -9.149800205486063
      ],
      [
        "▁chivimb",
        -9.152267491353182
      ],
      [
        "▁ndo",
        -9.153676203721979
      ],
      [
        "ton",
        -9.154722654693481
      ],
      [
        "mbe",
        -9.155773925602682
      ],
      [
        "▁mikan",
        -9.159224573825572
      ],
      [
        "▁yati",
        -9.161175192793449
      ],
      [
        "▁kunetsa",
        -9.16290946496871
      ],
      [
        "▁hutano",
        -9.163320052401762
      ],
      [
        "▁yakareba",
        -9.163323597939309
      ],
      [
        "▁VaPat",
        -9.163374762758092
      ],
      [
        "bhiriyoni",
        -9.163378893680378
      ],
      [
        "be",
        -9.163631980497561
      ],
      [
        "yanga",
        -9.163648461958411
      ],
      [
        "African",
        -9.163806550678311
      ],
      [
        "simudzira",
        -9.163973824888728
      ],
      [
        "▁yepamusoro",
        -9.164717953756153
      ],
      [
        "▁zvinotevera",
        -9.165788185320125
      ],
      [
        "matunhu",
        -9.166105280473712
      ],
      [
        "▁kudzimba",
        -9.166166588953974
      ],
      [
        "bat",
        -9.166827990479263
      ],
      [
        "▁Central",
        -9.16688492215063
      ],
      [
        "mwa",
        -9.167820523988109
      ],
      [
        "▁vs",
        -9.1683318209651
      ],
      [
        "kanzuru",
        -9.169322407212757
      ],
      [
        "manikidzwa",
        -9.170063064162257
      ],
      [
        "▁anoda",
        -9.170628282594794
      ],
      [
        "dzidzisa",
        -9.170909457192568
      ],
      [
        "▁rose,",
        -9.17177273580765
      ],
      [
        "▁nemana",
        -9.171921487644992
      ],
      [
        "ikwata",
        -9.17285311871202
      ],
      [
        "▁hati",
        -9.175893629049279
      ],
      [
        "dzivirira",
        -9.175994362475477
      ],
      [
        "▁vadarika",
        -9.176450725844722
      ],
      [
        "deredza",
        -9.179937618349785
      ],
      [
        "ul",
        -9.180860916816815
      ],
      [
        "▁vaite",
        -9.180893699052268
      ],
      [
        "▁padandemutande",
        -9.18292133254104
      ],
      [
        "▁hazvisi",
        -9.183089414237555
      ],
      [
        "▁dzehupfumi",
        -9.183334194641954
      ],
      [
        "ial",
        -9.18349481138687
      ],
      [
        "mitengo",
        -9.183606902526488
      ],
      [
        "▁yeZanu",
        -9.18401668301701
      ],
      [
        "ard",
        -9.184728695025932
      ],
      [
        "▁nacho",
        -9.185955476937162
      ],
      [
        "kuedza",
        -9.18725044027835
      ],
      [
        "▁vaimbov",
        -9.187342730945522
      ],
      [
        "vhara",
        -9.188600342979994
      ],
      [
        "▁vanorarama",
        -9.189320252913893
      ],
      [
        "tara",
        -9.190981996563945
      ],
      [
        "▁Dynamos",
        -9.191071022830807
      ],
      [
        "tion",
        -9.19376292122215
      ],
      [
        "▁vachinzi",
        -9.194632132762665
      ],
      [
        "▁mitero",
        -9.195529851100506
      ],
      [
        "nogona",
        -9.197150123689632
      ],
      [
        "shora",
        -9.1999106042881
      ],
      [
        "▁9",
        -9.202232639305452
      ],
      [
        "kodzero",
        -9.202594472617957
      ],
      [
        "▁zvinodhaka",
        -9.202922512332533
      ],
      [
        "▁kushushikana",
        -9.202946312587587
      ],
      [
        "▁nezvehutano",
        -9.202986486843784
      ],
      [
        "▁emunyika",
        -9.203259173456884
      ],
      [
        "▁Se",
        -9.203611133183362
      ],
      [
        "▁bhand",
        -9.204071126985214
      ],
      [
        "mafuta",
        -9.204468245311233
      ],
      [
        "▁yehurumende",
        -9.204504706603014
      ],
      [
        "▁anofanira",
        -9.204912855185412
      ],
      [
        "▁vebato",
        -9.205150631508785
      ],
      [
        "▁Vakati",
        -9.206108543975095
      ],
      [
        "▁anogona",
        -9.2061730852111
      ],
      [
        "▁wemapurisa",
        -9.206381389635617
      ],
      [
        "kama",
        -9.206629165130762
      ],
      [
        "▁Congress",
        -9.206638926116032
      ],
      [
        "▁anoshanda",
        -9.207938829382254
      ],
      [
        "katemerwa",
        -9.208026406984912
      ],
      [
        "rick",
        -9.208463046581386
      ],
      [
        "▁Paul",
        -9.208925952183604
      ],
      [
        "▁kure",
        -9.21050575495251
      ],
      [
        "▁VaA",
        -9.213209409380584
      ],
      [
        "wirirana",
        -9.213542363674817
      ],
      [
        "▁zvikoro",
        -9.214660362113417
      ],
      [
        ".\\n\\n",
        -9.216372651516874
      ],
      [
        "▁hutachiwana",
        -9.219140334113728
      ],
      [
        "dzidza",
        -9.2197655438584
      ],
      [
        "baiwa",
        -9.220355314187708
      ],
      [
        "▁nemakore",
        -9.221458356503602
      ],
      [
        "▁La",
        -9.22185005508421
      ],
      [
        "uwandu",
        -9.222374467796609
      ],
      [
        "torwa",
        -9.223292148723
      ],
      [
        "▁weChitatu",
        -9.223359916519046
      ],
      [
        "▁Forum",
        -9.223381914868792
      ],
      [
        "▁zvisine",
        -9.223428099947407
      ],
      [
        "maonero",
        -9.22350401941986
      ],
      [
        "▁mitatu",
        -9.223517693861975
      ],
      [
        "▁China",
        -9.223625394969819
      ],
      [
        "ziviswa",
        -9.223693257278356
      ],
      [
        "▁dzemihoro",
        -9.223842735830269
      ],
      [
        "▁itsva",
        -9.22430611118895
      ],
      [
        "▁kwemabasa",
        -9.224444264093538
      ],
      [
        "ster",
        -9.224797858890497
      ],
      [
        "▁varamba",
        -9.22486321299195
      ],
      [
        "akasiyana-siyana",
        -9.225150149625422
      ],
      [
        "mutungamiri",
        -9.226150624162365
      ],
      [
        "▁nemi",
        -9.226911068512354
      ],
      [
        "pikisa",
        -9.227024524778392
      ],
      [
        "▁nekanzuru",
        -9.231949997803351
      ],
      [
        "▁zvipatara",
        -9.23686972457776
      ],
      [
        "chera",
        -9.237640022330707
      ],
      [
        "ore",
        -9.237853805670971
      ],
      [
        "▁Tsvangirai",
        -9.23811054232113
      ],
      [
        "▁nechin",
        -9.241844436860521
      ],
      [
        "ino",
        -9.243780996831026
      ],
      [
        "▁Assembly",
        -9.244162273002926
      ],
      [
        "▁maoko",
        -9.244281582583032
      ],
      [
        "▁pachigaro",
        -9.244286340230284
      ],
      [
        "▁Nheng",
        -9.244400205393434
      ],
      [
        "▁nemazvo",
        -9.245120348267637
      ],
      [
        "▁mashoma",
        -9.245178322917877
      ],
      [
        "▁kumashure",
        -9.245782807315845
      ],
      [
        "▁seku",
        -9.246257843468594
      ],
      [
        "▁neKwayedza",
        -9.246971123792846
      ],
      [
        "▁nemabasa",
        -9.24858494011419
      ],
      [
        "las",
        -9.249382767875582
      ],
      [
        "▁kutungamira",
        -9.251130784642823
      ],
      [
        "▁vakataura",
        -9.252611566604873
      ],
      [
        "mari",
        -9.256496660910397
      ],
      [
        "▁pechi",
        -9.256551315583982
      ],
      [
        "▁rave",
        -9.25784180808348
      ],
      [
        "swa",
        -9.259469272421784
      ],
      [
        "▁Inn",
        -9.25996919858619
      ],
      [
        "rairidzi",
        -9.260011038561501
      ],
      [
        "bvuma",
        -9.26131290369471
      ],
      [
        "▁pacha",
        -9.261373709126454
      ],
      [
        "▁Le",
        -9.261772041280118
      ],
      [
        "mauto",
        -9.261802684962081
      ],
      [
        "▁kudzokera",
        -9.262880223716405
      ],
      [
        "▁izvi.",
        -9.265075561887922
      ],
      [
        "▁Organisation",
        -9.26543886915434
      ],
      [
        "▁Mujuru",
        -9.26543899517442
      ],
      [
        "▁nyore",
        -9.265450238690647
      ],
      [
        "▁dzavo.",
        -9.26550526057085
      ],
      [
        "▁yangu",
        -9.265507063754214
      ],
      [
        "▁dzeparamende",
        -9.265792764907097
      ],
      [
        "▁zvitatu",
        -9.266145129961583
      ],
      [
        "nhabvu",
        -9.266192649475489
      ],
      [
        "▁kutaurwa",
        -9.26682478613493
      ],
      [
        "▁kweCovid-19",
        -9.267026450384742
      ],
      [
        "▁Mapeza",
        -9.267647806895958
      ],
      [
        "▁Mbudzi",
        -9.267649150036963
      ],
      [
        "▁nezvekufambis",
        -9.26786713446389
      ],
      [
        "▁yakazivisa",
        -9.269280290752484
      ],
      [
        "▁zvasiya",
        -9.26933707069974
      ],
      [
        "International",
        -9.269664209711506
      ],
      [
        "PSL",
        -9.270188689341225
      ],
      [
        "▁humbowo",
        -9.270298071660035
      ],
      [
        "▁nemakambani",
        -9.270761715722706
      ],
      [
        "▁kuZimbabwe",
        -9.271504710784939
      ],
      [
        "▁Aka",
        -9.271533090714396
      ],
      [
        "▁rapera.",
        -9.272910317949487
      ],
      [
        "▁munhabvu",
        -9.274020902231221
      ],
      [
        "▁sei.",
        -9.27430030173026
      ],
      [
        "▁“Ch",
        -9.274723011589366
      ],
      [
        "▁rinonzi",
        -9.276527017775914
      ],
      [
        "▁dzimba",
        -9.276703114100107
      ],
      [
        "▁Bat",
        -9.276952112965926
      ],
      [
        "kwidza",
        -9.27793585621193
      ],
      [
        "▁panzvimbo",
        -9.278233775159386
      ],
      [
        "Chitungwiza",
        -9.27876184976982
      ],
      [
        "▁kutorwa",
        -9.279231276805518
      ],
      [
        "▁kukanganisa",
        -9.280018021504652
      ],
      [
        "▁haan",
        -9.28127425490743
      ],
      [
        "▁Africa.",
        -9.282311447447132
      ],
      [
        "Bulawayo",
        -9.282571855125962
      ],
      [
        "▁kwenyika.",
        -9.282738808166553
      ],
      [
        "▁mabasa.",
        -9.283135927585576
      ],
      [
        "nyanzvi",
        -9.283598466863225
      ],
      [
        "▁kucha",
        -9.284338769123025
      ],
      [
        "▁yemu",
        -9.284776853296977
      ],
      [
        "batsire",
        -9.285008548813929
      ],
      [
        "nachiremba",
        -9.286205819749268
      ],
      [
        "Mutare",
        -9.286386624483361
      ],
      [
        "dzinga",
        -9.286605792220948
      ],
      [
        "▁dzehutano",
        -9.287178002731059
      ],
      [
        "VaChinamasa",
        -9.287178082457574
      ],
      [
        "▁Mutsvangwa",
        -9.287178100298949
      ],
      [
        "▁Gweta",
        -9.287183563093349
      ],
      [
        "bvumidzwa",
        -9.287208520217796
      ],
      [
        "▁Vaimbov",
        -9.287262988569013
      ],
      [
        "▁kukonzera",
        -9.287273276166292
      ],
      [
        "▁nevasere",
        -9.287377405779345
      ],
      [
        "▁nechimwe",
        -9.28752482212529
      ],
      [
        "▁zvehurumende",
        -9.28756846720221
      ],
      [
        "▁Madzorera",
        -9.287626020517202
      ],
      [
        "▁evanhu",
        -9.287905351660346
      ],
      [
        "▁vakawandisa",
        -9.288003720471602
      ],
      [
        "▁neChishanu",
        -9.288177427761752
      ],
      [
        "takura",
        -9.289850325566082
      ],
      [
        "▁VaL",
        -9.29020227087067
      ],
      [
        "Britain",
        -9.291345763988584
      ],
      [
        "▁negumi",
        -9.29261836236045
      ],
      [
        "▁vakazivisa",
        -9.292681739996429
      ],
      [
        "▁yeAmerica",
        -9.293321884115748
      ],
      [
        "mwaka",
        -9.293647658427194
      ],
      [
        "▁North",
        -9.293887611323187
      ],
      [
        "▁nevatsigiri",
        -9.29464399081059
      ],
      [
        "▁Super",
        -9.296679313551458
      ],
      [
        "▁handi",
        -9.29733126359802
      ],
      [
        "▁nerimwe",
        -9.299068914148386
      ],
      [
        "▁ichiti",
        -9.300969173925754
      ],
      [
        "▁chete,",
        -9.301579934146076
      ],
      [
        "▁Zvita",
        -9.302214324241742
      ],
      [
        "shi",
        -9.302418767709412
      ],
      [
        "zind",
        -9.305662531991935
      ],
      [
        "▁nebato",
        -9.305678944794195
      ],
      [
        "ment",
        -9.305747645346232
      ],
      [
        "ent",
        -9.305835319114708
      ],
      [
        "mahofisi",
        -9.305941870044057
      ],
      [
        "▁6",
        -9.306688792796384
      ],
      [
        "▁tine",
        -9.306981689040603
      ],
      [
        "▁vataura",
        -9.308434965486617
      ],
      [
        "▁Research",
        -9.30940022141276
      ],
      [
        "Reserv",
        -9.309401607968864
      ],
      [
        "▁sezviri",
        -9.309424720327824
      ],
      [
        "onald",
        -9.30945300545146
      ],
      [
        "▁“Isu",
        -9.30945929586658
      ],
      [
        "▁nemasere",
        -9.309726487284706
      ],
      [
        "ous",
        -9.310563500649083
      ],
      [
        "▁kwezvinhu",
        -9.31058326563443
      ],
      [
        "▁mudzimai",
        -9.310927719200773
      ],
      [
        "vanogara",
        -9.311181501595922
      ],
      [
        "▁nazvo",
        -9.311584869395377
      ],
      [
        "▁yemutungamiri",
        -9.313299351432267
      ],
      [
        "as",
        -9.313330346325023
      ],
      [
        "▁kwavari",
        -9.313705690984309
      ],
      [
        "vhota",
        -9.315004273011018
      ],
      [
        "bayiwa",
        -9.315109041328771
      ],
      [
        "France",
        -9.315113547115367
      ],
      [
        "▁“Ku",
        -9.316782392946765
      ],
      [
        "▁muPSL",
        -9.318325832058822
      ],
      [
        "nyorwa",
        -9.319099340865847
      ],
      [
        "▁chin",
        -9.319303533890665
      ],
      [
        "▁vanotambira",
        -9.31994452159248
      ],
      [
        "vhurwa",
        -9.320669117673901
      ],
      [
        "▁Gore",
        -9.320725688866379
      ],
      [
        "het",
        -9.322342003596274
      ],
      [
        "▁kubaiwa",
        -9.322493537737005
      ],
      [
        "▁kwava",
        -9.323589293994642
      ],
      [
        "▁Dar",
        -9.324488496917127
      ],
      [
        "um",
        -9.32596858032975
      ],
      [
        "▁mamirir",
        -9.32603245509628
      ],
      [
        "rity",
        -9.326330828339776
      ],
      [
        "pora",
        -9.326740606183163
      ],
      [
        "tambi",
        -9.327031152653184
      ],
      [
        "her",
        -9.328394069441089
      ],
      [
        "tema",
        -9.329927164617079
      ],
      [
        "▁pava",
        -9.329932857008174
      ],
      [
        "▁kumitambo",
        -9.330921117007872
      ],
      [
        "sarudzwa",
        -9.330922065375859
      ],
      [
        "▁mubairo",
        -9.33213090323665
      ],
      [
        "▁Musonda",
        -9.332134464350208
      ],
      [
        "▁pamwechete",
        -9.332138509306189
      ],
      [
        "swera",
        -9.332197753486932
      ],
      [
        "▁nevatanhatu",
        -9.332224211153587
      ],
      [
        "mashandiro",
        -9.332312374102678
      ],
      [
        "▁rakanaka",
        -9.332489569640394
      ],
      [
        "▁vekunze",
        -9.33270100435568
      ],
      [
        "▁nemaviri",
        -9.332843371780877
      ],
      [
        "▁vachipomerwa",
        -9.333433419037426
      ],
      [
        "ZBC",
        -9.333791805497114
      ],
      [
        "kusimudzira",
        -9.333906272378318
      ],
      [
        "▁anotevera",
        -9.334111180253373
      ],
      [
        "▁zhinji",
        -9.334889647206294
      ],
      [
        "▁nhaurirano",
        -9.334947095544164
      ],
      [
        "▁nayo",
        -9.335193639829232
      ],
      [
        "▁zvayo",
        -9.336567002131755
      ],
      [
        "noda",
        -9.33705774431365
      ],
      [
        "▁wacho",
        -9.337387228239262
      ],
      [
        "anga",
        -9.337812162199793
      ],
      [
        "vhu",
        -9.33948323717996
      ],
      [
        "▁Co",
        -9.339517436047402
      ],
      [
        "▁vasungwa",
        -9.339628672271726
      ],
      [
        "ot",
        -9.342745188956009
      ],
      [
        "▁ndiro",
        -9.343071054310672
      ],
      [
        "▁reC",
        -9.343668497434896
      ],
      [
        "Ama",
        -9.344174506654229
      ],
      [
        "▁“M",
        -9.345521599454614
      ],
      [
        "rs",
        -9.34640500894934
      ],
      [
        "anofanirwa",
        -9.346449226242608
      ],
      [
        "bhajeti",
        -9.346598045698872
      ],
      [
        "ger",
        -9.348526114931133
      ],
      [
        "ice",
        -9.349524947779498
      ],
      [
        "▁U",
        -9.35091345997847
      ],
      [
        "20",
        -9.354173650048256
      ],
      [
        "derera",
        -9.35555752109682
      ],
      [
        "▁VaT",
        -9.35578917643733
      ],
      [
        "DeMbare",
        -9.355933403116877
      ],
      [
        "▁gweta",
        -9.3560366213523
      ],
      [
        "▁chemaWarriors",
        -9.356430725795263
      ],
      [
        "▁rakazivisa",
        -9.356778764719373
      ],
      [
        "▁vazo",
        -9.357227782128778
      ],
      [
        "tapi",
        -9.357351024101614
      ],
      [
        "cherechedz",
        -9.357535506012717
      ],
      [
        "▁chinhu",
        -9.357633574541408
      ],
      [
        "rairidza",
        -9.358385147418185
      ],
      [
        "▁mutengo",
        -9.35926638962654
      ],
      [
        "▁reBulawayo",
        -9.359568329027613
      ],
      [
        "▁kuwedzera",
        -9.362470100551292
      ],
      [
        "▁Henr",
        -9.362531362330612
      ],
      [
        "pihwe",
        -9.363019441446756
      ],
      [
        "▁Chikunguru",
        -9.363583731437629
      ],
      [
        "chokwadi",
        -9.363811868674354
      ],
      [
        "▁weAmerica",
        -9.363988172087236
      ],
      [
        "▁15",
        -9.36490526385267
      ],
      [
        "▁aine",
        -9.365204327086154
      ],
      [
        "▁kuvanhu",
        -9.365281528358668
      ],
      [
        "▁16",
        -9.365706770774993
      ],
      [
        "haka",
        -9.366256509458859
      ],
      [
        "▁“Mu",
        -9.366790845267513
      ],
      [
        "200",
        -9.366951234970252
      ],
      [
        "ome",
        -9.367899408420337
      ],
      [
        "▁kuBulawayo",
        -9.368053627335353
      ],
      [
        "ndiko",
        -9.369490142150951
      ],
      [
        "shandira",
        -9.369919971832577
      ],
      [
        "chikamu",
        -9.371039126598099
      ],
      [
        "nha",
        -9.371384815675398
      ],
      [
        "tender",
        -9.373551317574318
      ],
      [
        "▁kurudzir",
        -9.373978775155212
      ],
      [
        "▁“N",
        -9.37413343140459
      ],
      [
        "rt",
        -9.37475094448455
      ],
      [
        "noti",
        -9.374784043626818
      ],
      [
        "SADC",
        -9.375109710184661
      ],
      [
        "▁dzisin",
        -9.375836840193628
      ],
      [
        "ham",
        -9.376109527420297
      ],
      [
        "tikiti",
        -9.376622940671835
      ],
      [
        "▁Che",
        -9.377046292302147
      ],
      [
        "hondo",
        -9.377423363372579
      ],
      [
        ":",
        -9.37919283187367
      ],
      [
        "?",
        -9.379192831873674
      ],
      [
        "▁nematanhatu",
        -9.379355104148827
      ],
      [
        "▁Party",
        -9.379612096144847
      ],
      [
        "▁vemabhizimisi",
        -9.38019869773986
      ],
      [
        "▁ezviuru",
        -9.380496206342183
      ],
      [
        "kuita",
        -9.381208364836898
      ],
      [
        "bviswa",
        -9.381389696768526
      ],
      [
        "dzikira",
        -9.38142785433858
      ],
      [
        "▁inotevera",
        -9.38214326597689
      ],
      [
        "▁naye",
        -9.383043989241635
      ],
      [
        "▁remakurukota",
        -9.384627208458506
      ],
      [
        "▁VaW",
        -9.385145433385558
      ],
      [
        "zvirwere",
        -9.385526527881284
      ],
      [
        "▁ngava",
        -9.385590507729814
      ],
      [
        "▁yayo",
        -9.386050473624511
      ],
      [
        "muona",
        -9.386164390014796
      ],
      [
        "notambira",
        -9.386573946341919
      ],
      [
        "ris",
        -9.387709139092594
      ],
      [
        "▁VaI",
        -9.387813625294449
      ],
      [
        "kuda",
        -9.388388282306734
      ],
      [
        "▁kumabhanga",
        -9.388731184056525
      ],
      [
        "gadziriswa",
        -9.389141565776614
      ],
      [
        "▁kekutanga",
        -9.389582552729312
      ],
      [
        "▁nehu",
        -9.389847058580711
      ],
      [
        "▁Kan",
        -9.39185734280164
      ],
      [
        "▁Sibanda",
        -9.392565719516623
      ],
      [
        "▁L",
        -9.393242880791053
      ],
      [
        "▁kuHarare",
        -9.39555657360143
      ],
      [
        "▁yakaitwa",
        -9.395897193973681
      ],
      [
        "komana",
        -9.396197143518002
      ],
      [
        "ers",
        -9.396648528875264
      ],
      [
        "gwa",
        -9.397688160885073
      ],
      [
        "▁“S",
        -9.397721427776576
      ],
      [
        "fara",
        -9.398097292166897
      ],
      [
        "▁Pari",
        -9.401296443848361
      ],
      [
        "VaNcube",
        -9.402556430966245
      ],
      [
        "▁dzema",
        -9.402913480707705
      ],
      [
        "kweret",
        -9.403221200291846
      ],
      [
        "budiriro",
        -9.403288270531595
      ],
      [
        "▁Residents",
        -9.403583075776579
      ],
      [
        "▁edzimhosva",
        -9.403583192255745
      ],
      [
        "shanyira",
        -9.403583439507658
      ],
      [
        "▁mumaoko",
        -9.403591765119248
      ],
      [
        "▁nemapfumbamwe",
        -9.403704583039833
      ],
      [
        "▁huwori",
        -9.403713625851559
      ],
      [
        "▁ezvematongerw",
        -9.403816150635423
      ],
      [
        "▁ekunze",
        -9.404216055742328
      ],
      [
        "▁Act",
        -9.404488999202965
      ],
      [
        "▁zvizhinji",
        -9.405175101299049
      ],
      [
        "▁kwemvura",
        -9.405365956606321
      ],
      [
        "▁wemaWarriors",
        -9.406069379385752
      ],
      [
        "▁reMashon",
        -9.406410652371475
      ],
      [
        "▁nekutengesa",
        -9.40677848109561
      ],
      [
        "▁vakashaya",
        -9.406907175640537
      ],
      [
        "tsika",
        -9.407551970532062
      ],
      [
        "ure",
        -9.40909396437799
      ],
      [
        "▁apa",
        -9.409187715348565
      ],
      [
        "rwadza",
        -9.409234000436838
      ],
      [
        "▁akambo",
        -9.40988189563892
      ],
      [
        "▁wedu",
        -9.410268614814466
      ],
      [
        "▁revashandi",
        -9.41060166541407
      ],
      [
        "▁vanova",
        -9.41126529173452
      ],
      [
        "itwe",
        -9.411603591271136
      ],
      [
        "misangano",
        -9.412478793976215
      ],
      [
        "komi",
        -9.412634379077911
      ],
      [
        "vanoti",
        -9.414748387998902
      ],
      [
        "bvu",
        -9.414886579656843
      ],
      [
        "mapoka",
        -9.415515584574143
      ],
      [
        "▁kurwara",
        -9.415938439070416
      ],
      [
        "vha",
        -9.416613459961338
      ],
      [
        "kushaya",
        -9.41736457366428
      ],
      [
        "▁Ha",
        -9.418119553287951
      ],
      [
        "▁zvehupfumi",
        -9.41863876094519
      ],
      [
        "pindura",
        -9.42356588730497
      ],
      [
        "▁anove",
        -9.424254509982703
      ],
      [
        "▁VaTrump",
        -9.424472350429067
      ],
      [
        "▁ini",
        -9.424578406945535
      ],
      [
        "▁Nyika",
        -9.428589108993888
      ],
      [
        "▁Premiership",
        -9.428610519645545
      ],
      [
        "▁kaviri",
        -9.428944767873892
      ],
      [
        "▁matunhu",
        -9.42907804523455
      ],
      [
        "▁reLabour",
        -9.429342361892635
      ],
      [
        "▁zvishanu",
        -9.429439189876227
      ],
      [
        "ji",
        -9.429761348135868
      ],
      [
        "▁pamwedzi",
        -9.429819969071088
      ],
      [
        "▁zvakakwana",
        -9.430330263039487
      ],
      [
        "era",
        -9.430432580583949
      ],
      [
        "▁African",
        -9.430462375201254
      ],
      [
        "vamwe",
        -9.430524830218644
      ],
      [
        "▁wenhau",
        -9.431315824781933
      ],
      [
        "▁Jo",
        -9.431476907040746
      ],
      [
        "▁rayo",
        -9.432084327827068
      ],
      [
        "▁kumakwi",
        -9.432772842583194
      ],
      [
        "shuvir",
        -9.43359234812047
      ],
      [
        "▁vapora",
        -9.43408442136684
      ],
      [
        "▁nevano",
        -9.436332376144433
      ],
      [
        "gariro",
        -9.43690630522924
      ],
      [
        "rakidza",
        -9.437246540891948
      ],
      [
        "▁chemu",
        -9.438226728381684
      ],
      [
        "▁kuEurope",
        -9.438596956259588
      ],
      [
        "▁kutonga",
        -9.438903784951675
      ],
      [
        "China",
        -9.43890990140701
      ],
      [
        "zara",
        -9.439545940034375
      ],
      [
        "kuru",
        -9.44043862436003
      ],
      [
        "ridzi",
        -9.441205738680077
      ],
      [
        "▁pama",
        -9.441503440980458
      ],
      [
        "tura",
        -9.442148261848928
      ],
      [
        "▁Mutasa",
        -9.442804764207342
      ],
      [
        "and",
        -9.443756458052434
      ],
      [
        "mbwa",
        -9.444183969786259
      ],
      [
        "▁chibage",
        -9.444746728120604
      ],
      [
        "▁vachibva",
        -9.445213400821206
      ],
      [
        "jo",
        -9.447489071927233
      ],
      [
        "▁kutevera",
        -9.448891375955606
      ],
      [
        "▁Group",
        -9.4489626631634
      ],
      [
        "ary",
        -9.449938705994926
      ],
      [
        "ichasangana",
        -9.450871227811696
      ],
      [
        "vhi",
        -9.452709047482152
      ],
      [
        "Simba",
        -9.452874584230674
      ],
      [
        "tungamirwa",
        -9.452983024445011
      ],
      [
        "land",
        -9.453821369333692
      ],
      [
        "▁Khupe",
        -9.454224323051323
      ],
      [
        "▁kozoti",
        -9.454224815604404
      ],
      [
        "simbaradza",
        -9.454225279370078
      ],
      [
        "▁Lawyers",
        -9.454233023955632
      ],
      [
        "▁Day",
        -9.454289164745724
      ],
      [
        "▁mibvunzo",
        -9.454475606057397
      ],
      [
        "▁huchi",
        -9.454574063494462
      ],
      [
        "ns",
        -9.454604401400793
      ],
      [
        "▁De",
        -9.454824568171759
      ],
      [
        "kanganiswa",
        -9.455095079280234
      ],
      [
        "▁unotevera",
        -9.455381476603598
      ],
      [
        "pm",
        -9.4556618791613
      ],
      [
        "▁rwendo",
        -9.455861567741
      ],
      [
        "▁VaJo",
        -9.456278088853512
      ],
      [
        "▁vakasungwa",
        -9.458502429574079
      ],
      [
        "▁kurwisa",
        -9.459984853837277
      ],
      [
        "uel",
        -9.462438868941694
      ],
      [
        "nhomba",
        -9.462730664989971
      ],
      [
        "mbomiswa",
        -9.46372880805805
      ],
      [
        "▁yose.",
        -9.464644018140497
      ],
      [
        "ramwa",
        -9.465422743275472
      ],
      [
        "uri",
        -9.465449840800712
      ],
      [
        "▁One",
        -9.466191556620473
      ],
      [
        "▁mumakwikwi",
        -9.466328100586598
      ],
      [
        "organ",
        -9.467487804826657
      ],
      [
        "▁John",
        -9.467729900677332
      ],
      [
        "fadza",
        -9.468405713955468
      ],
      [
        "tsamba",
        -9.468580437648752
      ],
      [
        "▁“Va",
        -9.469052008822874
      ],
      [
        "nyunyut",
        -9.469150295708982
      ],
      [
        "vakuru",
        -9.46935016512494
      ],
      [
        "batsirwa",
        -9.469566102391033
      ],
      [
        "▁East",
        -9.47015235171929
      ],
      [
        "▁kwave",
        -9.470590918733468
      ],
      [
        "▁zvekudya",
        -9.470596845224101
      ],
      [
        "kubatsira",
        -9.470683101278329
      ],
      [
        "sachigaro",
        -9.474630061998825
      ],
      [
        "50",
        -9.474690020060535
      ],
      [
        "vatsigiri",
        -9.475918134931932
      ],
      [
        "chena",
        -9.477192319580853
      ],
      [
        "ston",
        -9.4773086892854
      ],
      [
        "ikwanise",
        -9.478351774664343
      ],
      [
        "tengeswa",
        -9.478892271003986
      ],
      [
        "▁zvika",
        -9.47913574228566
      ],
      [
        "gamba",
        -9.480176431977515
      ],
      [
        "▁Mangudya",
        -9.480539952716912
      ],
      [
        "hutachiona",
        -9.4805399591923
      ],
      [
        "▁idzva",
        -9.480540565207114
      ],
      [
        "▁Kanzur",
        -9.480553637209496
      ],
      [
        "▁ikoko",
        -9.480559958687735
      ],
      [
        "▁nezvishanu",
        -9.48063833391403
      ],
      [
        "▁zvepamusoro",
        -9.480979343022447
      ],
      [
        "▁vakazvimirira",
        -9.481542183162148
      ],
      [
        "▁nekusa",
        -9.48179914914569
      ],
      [
        "▁inotungamirwa",
        -9.482444075138961
      ],
      [
        "▁Mutambi",
        -9.482582897518654
      ],
      [
        "misika",
        -9.483142574614654
      ],
      [
        "▁mujeri",
        -9.483325020387293
      ],
      [
        "▁Mari",
        -9.483596068636185
      ],
      [
        "ox",
        -9.483662478256864
      ],
      [
        "rwara",
        -9.483681310573425
      ],
      [
        "▁kuChina",
        -9.484061902931469
      ],
      [
        "▁inoda",
        -9.484648167649244
      ],
      [
        "mhanya",
        -9.485368926176628
      ],
      [
        "mazano",
        -9.486302619071356
      ],
      [
        "▁Warriors",
        -9.487196077770276
      ],
      [
        "▁igadzirise",
        -9.487854652414626
      ],
      [
        "▁chekutanga",
        -9.488283120879377
      ],
      [
        "▁vachishandisa",
        -9.48873822992001
      ],
      [
        "▁motokari",
        -9.48889432317009
      ],
      [
        "Dynamos",
        -9.489726035989607
      ],
      [
        "▁pavaka",
        -9.490381902015596
      ],
      [
        "▁isinga",
        -9.490531157272894
      ],
      [
        "▁muBulawayo",
        -9.490766991925456
      ],
      [
        "▁yema",
        -9.491619973412266
      ],
      [
        "nze",
        -9.491687757713237
      ],
      [
        "▁W",
        -9.49185593123671
      ],
      [
        "iro",
        -9.492693582055294
      ],
      [
        "▁VaE",
        -9.493857776879176
      ],
      [
        "▁vabereki",
        -9.493969525454508
      ],
      [
        "India",
        -9.495458591694563
      ],
      [
        "mapurisa",
        -9.495682036056307
      ],
      [
        "bhodh",
        -9.495810322817553
      ],
      [
        "dya",
        -9.49659523450907
      ],
      [
        "chengeta",
        -9.497175699381962
      ],
      [
        "▁zvinoda",
        -9.497603673842917
      ],
      [
        "mabhizimisi",
        -9.498301428285604
      ],
      [
        "hutongi",
        -9.498420556478655
      ],
      [
        "inzi",
        -9.500790590563478
      ],
      [
        "▁kuyedza",
        -9.501859600295614
      ],
      [
        "▁Doctors",
        -9.502779348539638
      ],
      [
        "▁rezveku",
        -9.503300164455412
      ],
      [
        "magweta",
        -9.50336512082164
      ],
      [
        "▁akati",
        -9.5034688289549
      ],
      [
        "wechikwata",
        -9.503692372815154
      ],
      [
        "tiri",
        -9.503913145529177
      ],
      [
        "▁Republic",
        -9.504442379677382
      ],
      [
        "sarudzo",
        -9.505506254716778
      ],
      [
        "▁muMDC",
        -9.505957141169478
      ],
      [
        "▁zvikuru.",
        -9.506837528780958
      ],
      [
        "▁1-0",
        -9.5075671385344
      ],
      [
        "shanduka",
        -9.507567208961476
      ],
      [
        "▁Chinamasa",
        -9.50756786371515
      ],
      [
        "▁Achitaura",
        -9.50756805008114
      ],
      [
        "▁Dzamara",
        -9.50765810446317
      ],
      [
        "▁zvachose",
        -9.50787711969321
      ],
      [
        "nhepfenyuro",
        -9.507926547082777
      ],
      [
        "▁checoronavirus",
        -9.508002234048586
      ],
      [
        "▁VaJac",
        -9.508401053224597
      ],
      [
        "▁mangwanani",
        -9.50853611865096
      ],
      [
        "sungirwa",
        -9.509342140782369
      ],
      [
        "▁yakachena",
        -9.50939460374969
      ],
      [
        "▁reTwitter",
        -9.509590709391723
      ],
      [
        "mire",
        -9.509805719553167
      ],
      [
        "▁makuru",
        -9.509816997171502
      ],
      [
        "▁remutemo",
        -9.50985700891941
      ],
      [
        "vanotengesera",
        -9.50986429995923
      ],
      [
        "▁yekurwisa",
        -9.510745162283076
      ],
      [
        "▁kweAfrica",
        -9.511378533477892
      ],
      [
        "▁nemutemo",
        -9.512496248586949
      ],
      [
        "pinza",
        -9.512809292276089
      ],
      [
        "▁vake",
        -9.514457270295805
      ],
      [
        "chema",
        -9.514550944618485
      ],
      [
        "▁kushaya",
        -9.51496017329572
      ],
      [
        "▁vawana",
        -9.515306129282882
      ],
      [
        "▁nesarudzo",
        -9.515793191749026
      ],
      [
        "▁zvidzidzo",
        -9.516313041125546
      ],
      [
        "▁kusimudzira",
        -9.517081647556221
      ],
      [
        "▁inoratidza",
        -9.51872296607992
      ],
      [
        "parurwa",
        -9.518923516642918
      ],
      [
        "Covid-19",
        -9.519200145612942
      ],
      [
        "ano",
        -9.519655791654834
      ],
      [
        "▁akabva",
        -9.521745036284932
      ],
      [
        "▁mabhanga",
        -9.521909359204592
      ],
      [
        "ford",
        -9.521992947591308
      ],
      [
        "yaya",
        -9.522074523313663
      ],
      [
        "iite",
        -9.523002097367893
      ],
      [
        "▁hwekubay",
        -9.523195890398007
      ],
      [
        "orerwa",
        -9.52325438377001
      ],
      [
        "ichitevera",
        -9.524084349399853
      ],
      [
        "▁14",
        -9.524875413102208
      ],
      [
        "▁kukonzerwa",
        -9.52538987005693
      ],
      [
        "chienzanis",
        -9.52594822988001
      ],
      [
        "▁Mitamb",
        -9.526306733861489
      ],
      [
        "pindira",
        -9.52657215931541
      ],
      [
        "Ngezi",
        -9.526587456483114
      ],
      [
        "▁pamutemo.",
        -9.526770885946238
      ],
      [
        "gadzirwa",
        -9.52752973831479
      ],
      [
        "▁mumusha",
        -9.527577141147948
      ],
      [
        "▁nekuita",
        -9.528557062320257
      ],
      [
        ".\"",
        -9.529212105033444
      ],
      [
        "▁\"",
        -9.529266182247465
      ],
      [
        "simuka",
        -9.530166153150667
      ],
      [
        "ungu",
        -9.530326634802261
      ],
      [
        "▁akazo",
        -9.53076209906566
      ],
      [
        "▁10",
        -9.531736626902152
      ],
      [
        "▁kubudirira",
        -9.533711928713851
      ],
      [
        "Ziyambi",
        -9.53534606483107
      ],
      [
        "APS",
        -9.535348639553991
      ],
      [
        "▁Board",
        -9.53535173091412
      ],
      [
        "▁Chiwenga",
        -9.535352898690805
      ],
      [
        "▁mumiriri",
        -9.535798181744573
      ],
      [
        "▁ekufambisa",
        -9.535902402856802
      ],
      [
        "nanga",
        -9.537270610915822
      ],
      [
        "▁nhoroondo",
        -9.537713211423274
      ],
      [
        "kutanga",
        -9.538104906807916
      ],
      [
        "▁Coalition",
        -9.538247904212847
      ],
      [
        "unga",
        -9.538325425220215
      ],
      [
        "▁apfuura",
        -9.53926533740193
      ],
      [
        "▁Apo",
        -9.540292565285615
      ],
      [
        "▁matare",
        -9.54030539888781
      ],
      [
        "▁rose.",
        -9.541629143902096
      ],
      [
        "ight",
        -9.542081500967367
      ],
      [
        "uka",
        -9.543264843305357
      ],
      [
        "▁pabasa",
        -9.54341763840182
      ],
      [
        "▁vanokwanisa",
        -9.544032771836182
      ],
      [
        "▁kuwanikwa",
        -9.544118509604907
      ],
      [
        "▁basa.",
        -9.54456297469846
      ],
      [
        "mamwe",
        -9.545433822823963
      ],
      [
        "▁Ro",
        -9.545782439183759
      ],
      [
        "purazi",
        -9.545789243769576
      ],
      [
        "▁vatenda",
        -9.546507969245624
      ],
      [
        "bika",
        -9.546581537140145
      ],
      [
        "▁kuCameroon",
        -9.546806106059766
      ],
      [
        "kare",
        -9.547061193819312
      ],
      [
        "gare",
        -9.547240098175914
      ],
      [
        "totanga",
        -9.547622395827792
      ],
      [
        "miririra",
        -9.54922713109099
      ],
      [
        "▁kugadzira",
        -9.550368330018127
      ],
      [
        "ruzhinji",
        -9.551220543705103
      ],
      [
        "▁mak",
        -9.551484823549085
      ],
      [
        "▁nehurumende.",
        -9.551695459600099
      ],
      [
        "gadzira",
        -9.551814288582563
      ],
      [
        "▁Gu",
        -9.552139502711125
      ],
      [
        "▁vaita",
        -9.552153463974584
      ],
      [
        "▁hondo",
        -9.552347342409213
      ],
      [
        "ridza",
        -9.552918870805641
      ],
      [
        "▁kutambwa",
        -9.554659094120284
      ],
      [
        "▁kubazi",
        -9.554960179204524
      ],
      [
        "▁havaon",
        -9.55515505033491
      ],
      [
        "uye",
        -9.555378631726686
      ],
      [
        "▁France",
        -9.555715232758622
      ],
      [
        "▁Bulawayo",
        -9.556167409784274
      ],
      [
        "▁yenyika.",
        -9.556602650043347
      ],
      [
        "▁Mune",
        -9.557672473649305
      ],
      [
        "pisa",
        -9.558859742500658
      ],
      [
        "▁zvinova",
        -9.55923365217903
      ],
      [
        "▁Senegal",
        -9.561267204616577
      ],
      [
        "asati",
        -9.56128905517318
      ],
      [
        "▁Ja",
        -9.562563505207827
      ],
      [
        "apurisa",
        -9.563588993280279
      ],
      [
        "Progress",
        -9.563916124269436
      ],
      [
        "▁Authority",
        -9.56391612430712
      ],
      [
        "▁Centre",
        -9.563916869629141
      ],
      [
        "▁nekukasika",
        -9.563917402505597
      ],
      [
        "ish",
        -9.563935556661836
      ],
      [
        "▁2017",
        -9.56396388495904
      ],
      [
        "▁vezvehutano",
        -9.563980932432777
      ],
      [
        "nyatso",
        -9.563996821187247
      ],
      [
        "▁havafanir",
        -9.564196834013682
      ],
      [
        "kuzvidzivirira",
        -9.56532622555473
      ],
      [
        "▁reZanu-PF",
        -9.566127817635753
      ],
      [
        "ift",
        -9.567420249663067
      ],
      [
        "▁kuzvitonga",
        -9.568175059939037
      ],
      [
        "▁nemadhora",
        -9.568211262495344
      ],
      [
        "▁chimbi",
        -9.56828018810878
      ],
      [
        "aps",
        -9.5686642756198
      ],
      [
        "taur",
        -9.568702628572508
      ],
      [
        "▁yenhabvu",
        -9.568729745788954
      ],
      [
        "mvura",
        -9.569216112026417
      ],
      [
        "rwiri",
        -9.57011704300908
      ],
      [
        "▁Ndlovu",
        -9.57166434654748
      ],
      [
        "▁dzidziso",
        -9.57166498913988
      ],
      [
        "England",
        -9.571695385140067
      ],
      [
        "tsvag",
        -9.572135377595817
      ],
      [
        ").",
        -9.57236143730783
      ],
      [
        "Russia",
        -9.572541999666399
      ],
      [
        "achange",
        -9.57262088312153
      ],
      [
        "▁mapiritsi",
        -9.572859860746355
      ],
      [
        "▁coronavirus",
        -9.572884418005646
      ],
      [
        "▁achida",
        -9.573016334618602
      ],
      [
        "▁kusimukira",
        -9.574000976093526
      ],
      [
        "▁rai",
        -9.574228661807368
      ],
      [
        "Premier",
        -9.574421947827346
      ],
      [
        "chikoro",
        -9.574997353634165
      ],
      [
        "MDC-T",
        -9.575121957457092
      ],
      [
        "ated",
        -9.575631808122267
      ],
      [
        "▁kurarama",
        -9.575892541987987
      ],
      [
        "▁kunyatso",
        -9.575972338120392
      ],
      [
        "rarama",
        -9.577450511895297
      ],
      [
        "▁huori",
        -9.57789251189907
      ],
      [
        "▁VaG",
        -9.580245315703525
      ],
      [
        "zvirango",
        -9.580301211807793
      ],
      [
        "Cameroon",
        -9.58132397824464
      ],
      [
        "▁hari",
        -9.581489462187673
      ],
      [
        "pfungwa",
        -9.582502535883377
      ],
      [
        "▁vanamukoti",
        -9.582510446113524
      ],
      [
        "man",
        -9.583224052456034
      ],
      [
        "Peter",
        -9.583235308404028
      ],
      [
        "motokari",
        -9.58332586956541
      ],
      [
        "mhirizhonga",
        -9.583408322562512
      ],
      [
        "gadziriro",
        -9.584020159198158
      ],
      [
        "North",
        -9.584296644857757
      ],
      [
        "Chinhoyi",
        -9.584470049494863
      ],
      [
        "Malawi",
        -9.584696337213124
      ],
      [
        "▁naAm",
        -9.584730097249153
      ],
      [
        "rudzi",
        -9.585092600015905
      ],
      [
        "sendek",
        -9.585963810427437
      ],
      [
        "▁VaChi",
        -9.586481711108119
      ],
      [
        "tadzisa",
        -9.588271639882052
      ],
      [
        "▁muZimbabwe.",
        -9.589358852983827
      ],
      [
        "wedzerwa",
        -9.589767596012058
      ],
      [
        "▁kuisa",
        -9.590779609331985
      ],
      [
        "▁vakatanga",
        -9.59081549709525
      ],
      [
        "umbwa",
        -9.59106951001838
      ],
      [
        "▁hutungamiri",
        -9.591370519820341
      ],
      [
        "sununguka",
        -9.591700394065775
      ],
      [
        "hand",
        -9.593202838206855
      ],
      [
        "tatsurana",
        -9.593327889593676
      ],
      [
        "▁Cricket",
        -9.593327893538216
      ],
      [
        "cricket",
        -9.593327902101906
      ],
      [
        "zvikonzero",
        -9.59332791646392
      ],
      [
        "George",
        -9.59332796748777
      ],
      [
        "kudiwa",
        -9.593385881918348
      ],
      [
        "▁gwara",
        -9.593405410000642
      ],
      [
        "nonoka",
        -9.594261975873248
      ],
      [
        "▁pamhepo",
        -9.594303307212131
      ],
      [
        "▁yemuno",
        -9.594520525290244
      ],
      [
        "▁Mumiriri",
        -9.594796655528073
      ],
      [
        "▁vemuZimbabwe",
        -9.595232010567555
      ],
      [
        "23",
        -9.595753688040652
      ],
      [
        "kuramwa",
        -9.596011381759908
      ],
      [
        "▁yakundikana",
        -9.59704303889195
      ],
      [
        "▁muzvikoro",
        -9.597107150513128
      ],
      [
        "▁muZanu",
        -9.597329971294819
      ],
      [
        "▁vashanu",
        -9.597475510964443
      ],
      [
        "▁kudaira",
        -9.59751090018858
      ],
      [
        "▁tave",
        -9.598638352899508
      ],
      [
        "▁Ga",
        -9.598716972229678
      ],
      [
        "▁kutsigira",
        -9.599481985168028
      ],
      [
        "▁rekuenda",
        -9.599588236363049
      ],
      [
        "▁tarisir",
        -9.600187604406079
      ],
      [
        "▁Gwar",
        -9.600649280595968
      ],
      [
        "pere",
        -9.600785385022089
      ],
      [
        "ashe",
        -9.601255484508977
      ],
      [
        "ichange",
        -9.601367411058579
      ],
      [
        "ose",
        -9.601567953087413
      ],
      [
        "daro",
        -9.602304813817561
      ],
      [
        "▁mapepa",
        -9.602990824933848
      ],
      [
        "▁Premier",
        -9.603577180885265
      ],
      [
        "▁kuwedzerwa",
        -9.605476878169108
      ],
      [
        "cent",
        -9.606507113686513
      ],
      [
        "▁vanzi",
        -9.60717772363752
      ],
      [
        "▁yekusa",
        -9.607198102034765
      ],
      [
        "▁rweku",
        -9.607294431992738
      ],
      [
        "Europe",
        -9.607538199774615
      ],
      [
        "tengesera",
        -9.608474973933046
      ],
      [
        "▁wema",
        -9.608609782488788
      ],
      [
        "▁zvaitwa",
        -9.60881080336123
      ],
      [
        "▁achiita",
        -9.609461500316616
      ],
      [
        "nyorera",
        -9.60981216342766
      ],
      [
        "nyoresa",
        -9.60994664468329
      ],
      [
        "▁Makoni",
        -9.609971628657092
      ],
      [
        "▁zvanga",
        -9.610020958508063
      ],
      [
        "tor",
        -9.612074683705616
      ],
      [
        "VaMnangagwa",
        -9.612414551426658
      ],
      [
        "▁chokwadi",
        -9.613163963142915
      ],
      [
        "▁Zhou",
        -9.613707939629034
      ],
      [
        "imba",
        -9.613858298820817
      ],
      [
        "ungana",
        -9.615755152717075
      ],
      [
        "nyu",
        -9.615929018768261
      ],
      [
        "▁huru",
        -9.616964977053684
      ],
      [
        "matare",
        -9.617615793558205
      ],
      [
        "▁kutengesa",
        -9.619498071851432
      ],
      [
        "▁vasvika",
        -9.621045497083006
      ],
      [
        "vanobva",
        -9.621623606484802
      ],
      [
        "etball",
        -9.622090043030408
      ],
      [
        "▁uno.",
        -9.622716802837896
      ],
      [
        "noziva",
        -9.623310359694095
      ],
      [
        "▁zvehutano",
        -9.623635044289777
      ],
      [
        "masendi",
        -9.623817390193512
      ],
      [
        "▁harisi",
        -9.62429819299462
      ],
      [
        "▁neSvondo",
        -9.624608069506948
      ],
      [
        "▁cheCoronavirus",
        -9.624839272309476
      ],
      [
        "teverwa",
        -9.625066884851531
      ],
      [
        "zvuru",
        -9.625392505736563
      ],
      [
        "ZI",
        -9.625517960996218
      ],
      [
        "▁patsva",
        -9.625622327030907
      ],
      [
        "▁Chimwe",
        -9.626584183387045
      ],
      [
        "▁rakatorw",
        -9.627213967915981
      ],
      [
        "▁zvakadai",
        -9.62800185214116
      ],
      [
        "▁rati",
        -9.628198905879618
      ],
      [
        "fre",
        -9.62932566178023
      ],
      [
        "▁kuzvipatara",
        -9.62976105299375
      ],
      [
        "▁kwesvondo",
        -9.630096306539828
      ],
      [
        "ranga",
        -9.632748673319956
      ],
      [
        "ndira",
        -9.632911229251091
      ],
      [
        "vagari",
        -9.633272893267705
      ],
      [
        "dy",
        -9.63354894129719
      ],
      [
        "26",
        -9.634780372245736
      ],
      [
        "zvematongerw",
        -9.635422957263799
      ],
      [
        "Zambia",
        -9.635496783172735
      ],
      [
        "▁sechikwata",
        -9.635649615472312
      ],
      [
        "sisa",
        -9.635835129631637
      ],
      [
        "▁wapera",
        -9.63626967947597
      ],
      [
        "▁mukanzuru",
        -9.636385025587835
      ],
      [
        "▁12",
        -9.636689168950198
      ],
      [
        "▁vagara",
        -9.637180515858681
      ],
      [
        "▁vemapato",
        -9.63756937723985
      ],
      [
        "tombo",
        -9.638092837473264
      ],
      [
        "▁Ko",
        -9.638895353709538
      ],
      [
        "▁bhiri",
        -9.640047254684463
      ],
      [
        "▁Botswana",
        -9.640077860169429
      ],
      [
        "kufambisa",
        -9.64289457551443
      ],
      [
        "dambudziko",
        -9.643953272227044
      ],
      [
        "fira",
        -9.64414290825253
      ],
      [
        "▁kwegore",
        -9.644146064260354
      ],
      [
        "CAF",
        -9.646071970958657
      ],
      [
        "magetsi",
        -9.646169460981309
      ],
      [
        "dzikwa",
        -9.647145583691655
      ],
      [
        "Spain",
        -9.647178424290388
      ],
      [
        "▁vanotengesa",
        -9.647825748466698
      ],
      [
        "▁kw",
        -9.648303871860179
      ],
      [
        "▁t",
        -9.648561787102238
      ],
      [
        "dzokere",
        -9.649117776235551
      ],
      [
        "▁kuvandudza",
        -9.650157449656973
      ],
      [
        "HIV",
        -9.6520959875712
      ],
      [
        "geza",
        -9.652701649161106
      ],
      [
        "tevedza",
        -9.65287617144631
      ],
      [
        "The",
        -9.653709685876125
      ],
      [
        "BC",
        -9.654262512532243
      ],
      [
        "▁Assistan",
        -9.654880968618953
      ],
      [
        "▁fodya",
        -9.654881058213835
      ],
      [
        "▁urwu",
        -9.654883816727217
      ],
      [
        "▁Morocco",
        -9.654913439294749
      ],
      [
        "Tafadzwa",
        -9.654916560340526
      ],
      [
        "▁Hop",
        -9.65495715454018
      ],
      [
        "nzwikwa",
        -9.654966754078226
      ],
      [
        "chinja",
        -9.655149100157615
      ],
      [
        "▁Grac",
        -9.655213759408547
      ],
      [
        "▁pose",
        -9.65521858448039
      ],
      [
        "▁Muhurukuro",
        -9.655603611892737
      ],
      [
        "▁haisati",
        -9.655974284482761
      ],
      [
        "▁asinga",
        -9.656100565845565
      ],
      [
        "▁kwemutemo",
        -9.656284829419386
      ],
      [
        "nyama",
        -9.657107106645961
      ],
      [
        "▁ega",
        -9.65715907364883
      ],
      [
        "▁11",
        -9.657354000144212
      ],
      [
        "kuvara",
        -9.657567147260151
      ],
      [
        "baba",
        -9.65795409574573
      ],
      [
        "simudza",
        -9.658719624892473
      ],
      [
        "▁yapfuura",
        -9.658994273779165
      ],
      [
        "VaBiti",
        -9.659852967299393
      ],
      [
        "▁nekufa",
        -9.660323716187719
      ],
      [
        "rwere",
        -9.661338364478492
      ],
      [
        "chipiri",
        -9.662600241940305
      ],
      [
        "vechidiki",
        -9.662649894455543
      ],
      [
        "▁kuchipatara",
        -9.662705484619346
      ],
      [
        "▁kwake",
        -9.662962147825684
      ],
      [
        "mabhanga",
        -9.662969877558211
      ],
      [
        "▁Pasi",
        -9.66375197359345
      ],
      [
        "akahwina",
        -9.664027955414944
      ],
      [
        "▁une",
        -9.664242399542324
      ],
      [
        "▁Kubvumbi",
        -9.664694319975297
      ],
      [
        "▁“Ta",
        -9.665122676490842
      ],
      [
        "▁Al",
        -9.666087131437063
      ],
      [
        "▁vabaiwa",
        -9.666614486436135
      ],
      [
        "▁emu",
        -9.667751948044218
      ],
      [
        "▁pata",
        -9.667761952851626
      ],
      [
        "▁kwete.",
        -9.668395728271967
      ],
      [
        "▁zvakaitika",
        -9.668681545741016
      ],
      [
        "pambwa",
        -9.669800919271683
      ],
      [
        "▁Justice",
        -9.669962286066516
      ],
      [
        "▁nezuva",
        -9.670089370979326
      ],
      [
        "dhura",
        -9.67171818203101
      ],
      [
        "▁yakato",
        -9.674469186457404
      ],
      [
        "ike",
        -9.674521502024756
      ],
      [
        "▁zvakanyanya.",
        -9.674586186144122
      ],
      [
        "mara",
        -9.674660055503038
      ],
      [
        "▁20",
        -9.675350204190526
      ],
      [
        "kawanda",
        -9.675736988487586
      ],
      [
        "6,",
        -9.676047834299586
      ],
      [
        "sere",
        -9.67666363062319
      ],
      [
        "nharaunda",
        -9.678572959893756
      ],
      [
        "High",
        -9.680161149122826
      ],
      [
        "nhasi",
        -9.680189858374755
      ],
      [
        "▁Zi",
        -9.680483636129761
      ],
      [
        "ripo",
        -9.6813079235136
      ],
      [
        "▁zvisinga",
        -9.681962766044077
      ],
      [
        "▁neSouth",
        -9.681970019441817
      ],
      [
        "12",
        -9.682054460014253
      ],
      [
        "mazana",
        -9.682649022485387
      ],
      [
        "shandura",
        -9.68326236138786
      ],
      [
        "▁vato",
        -9.68343142649124
      ],
      [
        "▁yechi",
        -9.683771108510362
      ],
      [
        "▁1,",
        -9.684765152215359
      ],
      [
        "Matabeleland",
        -9.68683213095018
      ],
      [
        "▁“Asi",
        -9.686929974258314
      ],
      [
        "▁Work",
        -9.687052320814962
      ],
      [
        "▁munjodzi",
        -9.687138993677129
      ],
      [
        "▁2-0",
        -9.68713911651577
      ],
      [
        "▁atsinhirwa",
        -9.687139272249322
      ],
      [
        "▁Mangwana",
        -9.687156021009086
      ],
      [
        "Gweru",
        -9.68715881925041
      ],
      [
        "▁mufaro",
        -9.687216541276888
      ],
      [
        "▁kwaakaita",
        -9.687592786068219
      ],
      [
        "▁havo",
        -9.688035452333294
      ],
      [
        "▁zvizere",
        -9.688056462275533
      ],
      [
        "hofisi",
        -9.688104393147078
      ],
      [
        "▁Mat",
        -9.688383352695153
      ],
      [
        "▁kwavakaita",
        -9.688664693194353
      ],
      [
        "▁haun",
        -9.68883288306687
      ],
      [
        "▁dzavari",
        -9.689759496742631
      ],
      [
        "▁zvevanhu",
        -9.690185407015449
      ],
      [
        "▁nezviri",
        -9.690311123816066
      ],
      [
        "▁magamba",
        -9.690347541211699
      ],
      [
        "▁kwazvo",
        -9.69034896926985
      ],
      [
        "▁chava",
        -9.690530407426102
      ],
      [
        "▁akatarisana",
        -9.691452508321852
      ],
      [
        "▁dzedu",
        -9.691548369802435
      ],
      [
        "sipo",
        -9.691665420500854
      ],
      [
        "▁mufainari",
        -9.691734604191232
      ],
      [
        "▁kutatarika",
        -9.691756201054542
      ],
      [
        "▁yePSL",
        -9.692566427472663
      ],
      [
        "▁nehupenyu",
        -9.692668607034285
      ],
      [
        "gumi",
        -9.692801020998841
      ],
      [
        "▁vazivisa",
        -9.69286178536793
      ],
      [
        "EU",
        -9.69374195195649
      ],
      [
        "▁muzvitoro",
        -9.694714250864369
      ],
      [
        "▁Man",
        -9.69544603871123
      ],
      [
        "▁nemutambo",
        -9.695646516248514
      ],
      [
        "for",
        -9.695721122024114
      ],
      [
        "▁munharaunda",
        -9.695779016159129
      ],
      [
        "▁napo",
        -9.697641233153144
      ],
      [
        "▁dzaitwa",
        -9.69764585798633
      ],
      [
        "▁yeSouth",
        -9.69870995028603
      ],
      [
        "kumiswa",
        -9.700443210802494
      ],
      [
        "▁General",
        -9.701361940529246
      ],
      [
        "▁kuchema",
        -9.701632696310217
      ],
      [
        "ATA",
        -9.702196312246304
      ],
      [
        "ema",
        -9.702625557962637
      ],
      [
        "achibva",
        -9.703227242230989
      ],
      [
        "nza",
        -9.703913258201231
      ],
      [
        "zvimwe",
        -9.704330220917864
      ],
      [
        "rirwa",
        -9.704612516732883
      ],
      [
        "▁rema",
        -9.705780852614684
      ],
      [
        "nica",
        -9.706206785730405
      ],
      [
        "▁nepa",
        -9.706309956966782
      ],
      [
        "▁Muna",
        -9.707639999577253
      ],
      [
        "ongoror",
        -9.709146034762234
      ],
      [
        "▁Trust,",
        -9.70948248095311
      ],
      [
        "1.",
        -9.709549413998552
      ],
      [
        "▁mumu",
        -9.709884889908015
      ],
      [
        "▁kukundikana",
        -9.710880006849456
      ],
      [
        "▁vambo",
        -9.71117787617076
      ],
      [
        "rwisa",
        -9.713001133109643
      ],
      [
        "▁kuB",
        -9.713055297812629
      ],
      [
        "avo",
        -9.713395012993129
      ],
      [
        "musoro",
        -9.71407822638852
      ],
      [
        "▁Confederation",
        -9.715095601338533
      ],
      [
        "mutengo",
        -9.715100524693243
      ],
      [
        "bvunzo",
        -9.715206355708744
      ],
      [
        "▁zvinorev",
        -9.716840155247922
      ],
      [
        "nangana",
        -9.717366768027226
      ],
      [
        "▁Tino",
        -9.717700080044827
      ],
      [
        "▁neM",
        -9.718015610255494
      ],
      [
        "▁kuendesa",
        -9.71819573367993
      ],
      [
        "uru",
        -9.718656976439767
      ],
      [
        "▁Democrat",
        -9.720059215132594
      ],
      [
        "▁VaTsvangirai",
        -9.720472317125449
      ],
      [
        "▁Highlanders",
        -9.720472323012306
      ],
      [
        "▁parunhare",
        -9.720472740807379
      ],
      [
        "▁Gunyana",
        -9.72047283546853
      ],
      [
        "▁VaJap",
        -9.72047327617462
      ],
      [
        "▁Kamambo",
        -9.72047355064538
      ],
      [
        "▁Kariba",
        -9.720475373931563
      ],
      [
        "ZPC",
        -9.720478475698087
      ],
      [
        "▁nenzara",
        -9.720500590257457
      ],
      [
        "▁vanhukadzi",
        -9.720506365364503
      ],
      [
        "▁mutauro",
        -9.720529741771147
      ],
      [
        "▁zvinga",
        -9.720654398745415
      ],
      [
        "nakira",
        -9.720687698542942
      ],
      [
        "▁Musona",
        -9.720714768609968
      ],
      [
        "▁nevanomwe",
        -9.721004028080618
      ],
      [
        "▁c",
        -9.721194109520027
      ],
      [
        "▁ichida",
        -9.72130948204379
      ],
      [
        "▁yemunyika",
        -9.721345043259705
      ],
      [
        "▁haku",
        -9.721349456838979
      ],
      [
        "▁ratorwa",
        -9.722155470638636
      ],
      [
        "▁rapfuura",
        -9.722609368618404
      ],
      [
        "vimba",
        -9.723956970310319
      ],
      [
        "▁kuvaka",
        -9.724123629249718
      ],
      [
        "▁ake",
        -9.724290354376201
      ],
      [
        "▁midzi",
        -9.724446790547027
      ],
      [
        "▁dzevanhu,",
        -9.72464478181563
      ],
      [
        "BI",
        -9.724701120049211
      ],
      [
        "vakaita",
        -9.724840872744892
      ],
      [
        "▁reMDC-T",
        -9.725054689692525
      ],
      [
        "▁inga",
        -9.725086292950229
      ],
      [
        "▁mukurwisa",
        -9.725823109691923
      ],
      [
        "▁Vatambi",
        -9.725914356100478
      ],
      [
        "▁muhupenyu",
        -9.72619610041003
      ],
      [
        "ion",
        -9.727846451744334
      ],
      [
        "▁Chitambara",
        -9.728163701273592
      ],
      [
        "musi",
        -9.728686763951568
      ],
      [
        "▁hadzi",
        -9.728986246388303
      ],
      [
        "▁naVaNe",
        -9.729333621275366
      ],
      [
        "▁zvekuita",
        -9.730128907853613
      ],
      [
        "▁vaida",
        -9.73020118706184
      ],
      [
        "▁yekushandisa",
        -9.731561211454004
      ],
      [
        "▁musoro",
        -9.733546396431782
      ],
      [
        "▁de",
        -9.733871313490747
      ],
      [
        "ess",
        -9.733925107752974
      ],
      [
        "anomirira",
        -9.736095345940445
      ],
      [
        "▁yaive",
        -9.736234037109774
      ],
      [
        "pur",
        -9.737495038881525
      ],
      [
        "iwane",
        -9.738438067777889
      ],
      [
        "▁yawana",
        -9.739374222656869
      ],
      [
        "kutenga",
        -9.739512290751566
      ],
      [
        "▁To",
        -9.740137363407618
      ],
      [
        "▁Ne",
        -9.740481483310564
      ],
      [
        "miriri",
        -9.74058529947843
      ],
      [
        "sira",
        -9.740841798335193
      ],
      [
        "▁kumatunhu",
        -9.74161100439672
      ],
      [
        "pomerwa",
        -9.742208065642108
      ],
      [
        "simukira",
        -9.742885172159687
      ],
      [
        "ill",
        -9.743599051323146
      ],
      [
        "▁inokwanisa",
        -9.743722390341855
      ],
      [
        "Mashon",
        -9.745919805349573
      ],
      [
        "▁vakaremara",
        -9.747161290136368
      ],
      [
        "nhaurirano",
        -9.750802936832534
      ],
      [
        "▁ZCTU",
        -9.750990532260346
      ],
      [
        "▁Kuda",
        -9.751481807873999
      ],
      [
        "nis",
        -9.751553937171646
      ],
      [
        "dzivirirwa",
        -9.753706130824424
      ],
      [
        "▁“K",
        -9.753747798425586
      ],
      [
        "▁soro",
        -9.754052355246879
      ],
      [
        "▁Control",
        -9.75495507679603
      ],
      [
        "▁Mangwiro",
        -9.75495507878785
      ],
      [
        "▁Ongororo",
        -9.754955080928088
      ],
      [
        "Tanzania",
        -9.754955081428475
      ],
      [
        "▁VaDoug",
        -9.754955087327437
      ],
      [
        "▁2-1",
        -9.754955645000384
      ],
      [
        "▁Aids",
        -9.754957109009135
      ],
      [
        "▁Dube",
        -9.754958323847614
      ],
      [
        "▁Organization",
        -9.754963649974442
      ],
      [
        "▁Committee",
        -9.75498673067885
      ],
      [
        "▁zvishoma",
        -9.755061008820205
      ],
      [
        "suwis",
        -9.755172590233572
      ],
      [
        "▁kuvapa",
        -9.755201546010689
      ],
      [
        "▁mukoti",
        -9.75522855924443
      ],
      [
        "zvicherwa",
        -9.75524661347596
      ],
      [
        "▁nezviviri",
        -9.755265610937775
      ],
      [
        "Arsenal",
        -9.755512224068529
      ],
      [
        "▁rezvevashandi",
        -9.75706759828477
      ],
      [
        "▁minda",
        -9.757247010253518
      ],
      [
        "▁weZanu",
        -9.757512060672425
      ],
      [
        "▁pamusha",
        -9.757997846139158
      ],
      [
        "ainge",
        -9.758116891798998
      ],
      [
        "▁ngati",
        -9.75820506580947
      ],
      [
        "shanu",
        -9.758254339373174
      ],
      [
        "▁“Pa",
        -9.758498007051129
      ],
      [
        "▁vepa",
        -9.759195725422023
      ],
      [
        "▁achitambira",
        -9.759707366374524
      ],
      [
        "▁vamiriri",
        -9.759808339074665
      ],
      [
        "▁neimwe",
        -9.760017444690112
      ],
      [
        "nder",
        -9.760163462271878
      ],
      [
        "▁vapinda",
        -9.760304237623917
      ],
      [
        "ambani",
        -9.760443961844228
      ],
      [
        "▁unouya",
        -9.7606814379403
      ],
      [
        "part",
        -9.761475247512976
      ],
      [
        "▁Nyathi",
        -9.761479129002549
      ],
      [
        "▁wekanzuru",
        -9.76291142370922
      ],
      [
        "▁VaBiden",
        -9.762920046132269
      ],
      [
        "▁yapa",
        -9.7640005241796
      ],
      [
        "▁yemari",
        -9.76402516455413
      ],
      [
        "▁Vachi",
        -9.764478913448784
      ],
      [
        "▁Nyamavhuvhu",
        -9.765825127648306
      ],
      [
        "▁mavo",
        -9.765979901512468
      ],
      [
        "▁kukurudzirwa",
        -9.766196448426886
      ],
      [
        "▁kupi",
        -9.766821159940505
      ],
      [
        "▁“Ndi",
        -9.766981570109605
      ],
      [
        "▁rinoratidza",
        -9.767731108002126
      ],
      [
        "toda",
        -9.767956454304477
      ],
      [
        "▁kunoita",
        -9.769096281565325
      ],
      [
        "cke",
        -9.769756173039804
      ],
      [
        "▁kumapurisa",
        -9.770734885883607
      ],
      [
        "▁dzeva",
        -9.770892056750077
      ],
      [
        "▁pavo",
        -9.770983094254195
      ],
      [
        "▁mabhizimisi",
        -9.77130576825191
      ],
      [
        "▁chave",
        -9.771853419033416
      ],
      [
        "▁dzese",
        -9.77199917746942
      ],
      [
        "▁ichiri",
        -9.772153416002746
      ],
      [
        "vakwa",
        -9.77256479586045
      ],
      [
        "▁vakoti",
        -9.773270192519048
      ],
      [
        "av",
        -9.775731749090419
      ],
      [
        "em",
        -9.776218754866226
      ],
      [
        "Hurumende",
        -9.776246136360324
      ],
      [
        "▁ndika",
        -9.776685606754647
      ],
      [
        "kugadzira",
        -9.777136603714732
      ],
      [
        "▁Mthul",
        -9.777506271419156
      ],
      [
        "▁Gutu",
        -9.779277515765829
      ],
      [
        "homwe",
        -9.779608197475081
      ],
      [
        "▁tika",
        -9.779777783582444
      ],
      [
        "▁yakanga",
        -9.780046531480238
      ],
      [
        "veruzhinji",
        -9.780096000879643
      ],
      [
        "ver",
        -9.781534600556963
      ],
      [
        "▁IMF",
        -9.78222132215287
      ],
      [
        "RBZ",
        -9.782316530433265
      ],
      [
        "vanga",
        -9.783102263048397
      ],
      [
        "goridhe",
        -9.787219555301036
      ],
      [
        "nhoroondo",
        -9.787620735801758
      ],
      [
        "uko",
        -9.787742459871646
      ],
      [
        "vaive",
        -9.787906685202147
      ],
      [
        "moyo",
        -9.788849579815087
      ],
      [
        "▁Community",
        -9.78940555477498
      ],
      [
        "kwidzwa",
        -9.789636011356475
      ],
      [
        "▁Ed",
        -9.790436951722743
      ],
      [
        "▁pamudyandigere",
        -9.790669361460406
      ],
      [
        "▁ekuberekwa",
        -9.790669362464612
      ],
      [
        "▁York",
        -9.790669365865943
      ],
      [
        "▁mamasiki",
        -9.790669369169771
      ],
      [
        "▁Gumiguru",
        -9.790669370758208
      ],
      [
        "IRI",
        -9.790669724198779
      ],
      [
        "▁parutivi",
        -9.790670209604015
      ],
      [
        "▁nemufaro",
        -9.790672111970693
      ],
      [
        "▁revavhoti",
        -9.790675302763415
      ],
      [
        "Glen",
        -9.79072472227279
      ],
      [
        "varume",
        -9.790779359829767
      ],
      [
        "shishi",
        -9.79082385413992
      ],
      [
        "▁MaWarriors",
        -9.79093914318116
      ],
      [
        "▁chitsva",
        -9.791414596995798
      ],
      [
        "▁VaJohn",
        -9.791572359982657
      ],
      [
        "tatu",
        -9.792008189698004
      ],
      [
        "▁chekorera",
        -9.792118121534454
      ],
      [
        "mboita",
        -9.792886730866098
      ],
      [
        "▁hwayo",
        -9.792915944940344
      ],
      [
        "▁kwemagetsi",
        -9.793070894652717
      ],
      [
        "▁kubaya",
        -9.793266659198139
      ],
      [
        "▁yakakwana",
        -9.794759578999088
      ],
      [
        "▁matambi",
        -9.794843927925506
      ],
      [
        "▁chido",
        -9.79499460548148
      ],
      [
        "▁yesarudzo",
        -9.795224295960274
      ],
      [
        "▁imwechete",
        -9.796998267246254
      ],
      [
        "dzikisa",
        -9.797191255577822
      ],
      [
        "kamba",
        -9.797559422125953
      ],
      [
        "▁anotambira",
        -9.798446153542631
      ],
      [
        "amire",
        -9.798719723864732
      ],
      [
        "saka",
        -9.799015085999942
      ],
      [
        "▁muHarare.",
        -9.799031783563525
      ],
      [
        "▁Zvakada",
        -9.799073018493699
      ],
      [
        "▁VaTenda",
        -9.799074371968969
      ],
      [
        "van",
        -9.799910826728258
      ],
      [
        "▁vakaenda",
        -9.799945819917804
      ],
      [
        "buku",
        -9.799980640299875
      ],
      [
        "tonga",
        -9.80008794712951
      ],
      [
        "▁nevapfumbamwe",
        -9.800151751471292
      ],
      [
        "▁kutevedzer",
        -9.800392209030193
      ],
      [
        "▁Chivabvu",
        -9.800436944421309
      ],
      [
        "shungurudzwa",
        -9.801587632477506
      ],
      [
        "▁redu",
        -9.80171834069576
      ],
      [
        "▁yebato",
        -9.803451881056414
      ],
      [
        "▁pad",
        -9.803638570253208
      ],
      [
        "▁kuungana",
        -9.805204974438688
      ],
      [
        "▁kuEngland",
        -9.805627667507402
      ],
      [
        "▁yevanhu",
        -9.805857313837901
      ],
      [
        "▁kupindira",
        -9.806615753891908
      ],
      [
        "she",
        -9.806807651816113
      ],
      [
        "▁paramende",
        -9.807165947056705
      ],
      [
        "▁vaenda",
        -9.808239576454952
      ],
      [
        "▁neS",
        -9.808476460599131
      ],
      [
        "▁kubvisa",
        -9.809400989185646
      ],
      [
        "▁ndokuzo",
        -9.80984523285199
      ],
      [
        "▁zvavaka",
        -9.809884166323611
      ],
      [
        "ndege",
        -9.810111720796034
      ],
      [
        "ANG",
        -9.810460236766716
      ],
      [
        "▁vakaramba",
        -9.810742871649332
      ],
      [
        "toro",
        -9.81166929337384
      ],
      [
        "chiitiko",
        -9.811675788198484
      ],
      [
        "▁“Zv",
        -9.812037389146266
      ],
      [
        "▁vakapihwa",
        -9.81235667627098
      ],
      [
        "vemakambani",
        -9.812893074677923
      ],
      [
        "pin",
        -9.81403578177913
      ],
      [
        "tariswa",
        -9.814613273638043
      ],
      [
        "▁kuM",
        -9.815743480253278
      ],
      [
        "kugadzirira",
        -9.816173697480092
      ],
      [
        "▁gomarara",
        -9.817224472484753
      ],
      [
        "hasha",
        -9.818014669059318
      ],
      [
        "▁For",
        -9.818521594182563
      ],
      [
        "▁Champions",
        -9.818704528094466
      ],
      [
        "▁runyararo",
        -9.818959984480898
      ],
      [
        "koshesa",
        -9.819043659291381
      ],
      [
        "▁anoita",
        -9.819301102071218
      ],
      [
        "gadzir",
        -9.819614200848552
      ],
      [
        "▁Hu",
        -9.820178234541865
      ],
      [
        "▁azo",
        -9.821510567923953
      ],
      [
        "ovem",
        -9.82292113888223
      ],
      [
        "▁000.",
        -9.823160305979481
      ],
      [
        "ipa",
        -9.823187809392957
      ],
      [
        "▁God",
        -9.824398690288149
      ],
      [
        "zvitoro",
        -9.824475401012089
      ],
      [
        "SHA",
        -9.825828866163564
      ],
      [
        "ZACC",
        -9.82584782019968
      ],
      [
        "naka",
        -9.826124873613551
      ],
      [
        "puts",
        -9.826322924450876
      ],
      [
        "rwendo",
        -9.826636552414028
      ],
      [
        "nyanyo",
        -9.827042686007834
      ],
      [
        "Washington",
        -9.82770639862024
      ],
      [
        "▁Clinic",
        -9.827706398792586
      ],
      [
        "Triangle",
        -9.82770639888585
      ],
      [
        "▁semvumba",
        -9.827706399252733
      ],
      [
        "ZESA",
        -9.827706399634637
      ],
      [
        "kongiresi",
        -9.827706400380157
      ],
      [
        "Chelsea",
        -9.82770648747731
      ],
      [
        "omesera",
        -9.827708600987856
      ],
      [
        "Cosafa",
        -9.827710005417154
      ],
      [
        "ANO",
        -9.827712719058248
      ],
      [
        "pindwa",
        -9.827722545851975
      ],
      [
        "▁wangu",
        -9.827782351805853
      ],
      [
        "▁Money",
        -9.827804828732361
      ],
      [
        "▁hwakanaka",
        -9.827898094879446
      ],
      [
        "▁17",
        -9.827907371112822
      ],
      [
        "▁Bare",
        -9.82800420519588
      ],
      [
        "▁tigo",
        -9.828139136289638
      ],
      [
        "▁Masangano",
        -9.828752399425449
      ],
      [
        "▁yerusununguko",
        -9.8289074843019
      ],
      [
        "▁Monet",
        -9.829141810761891
      ],
      [
        "▁kwehurumende",
        -9.829470810360522
      ],
      [
        "▁weChi",
        -9.829901362433453
      ],
      [
        "▁Biti",
        -9.829944373993573
      ],
      [
        "▁yepiri",
        -9.830584335318902
      ],
      [
        "▁zvekushandisa",
        -9.830996897652756
      ],
      [
        "▁wehurumende",
        -9.831606249279892
      ],
      [
        "▁zvopa",
        -9.831640402888524
      ],
      [
        "▁kwayo",
        -9.83278717636194
      ],
      [
        "▁nematambudziko",
        -9.833012129900357
      ],
      [
        "taurir",
        -9.83316204421393
      ],
      [
        "▁asa",
        -9.834264193374391
      ],
      [
        "▁kurwa",
        -9.834549228143942
      ],
      [
        "▁wekomi",
        -9.83482910345139
      ],
      [
        "pfeka",
        -9.834880075855166
      ],
      [
        "kurudzirwa",
        -9.83501618770988
      ],
      [
        "zeya",
        -9.835606744274985
      ],
      [
        "▁yazivisa",
        -9.835752495739346
      ],
      [
        "▁muZimbabwe,",
        -9.836171691162136
      ],
      [
        "▁vatevedzer",
        -9.836262640531835
      ],
      [
        "▁kuQatar",
        -9.836756787433353
      ],
      [
        "isi",
        -9.837775109876663
      ],
      [
        "▁sema",
        -9.837808724095362
      ],
      [
        "▁vashaya",
        -9.837859834305513
      ],
      [
        "gweta",
        -9.838390675312194
      ],
      [
        "tenge",
        -9.838737575698769
      ],
      [
        "▁yekutenga",
        -9.838849184391552
      ],
      [
        "▁nevakuru",
        -9.840532649005848
      ],
      [
        "zh",
        -9.84063612463266
      ],
      [
        "▁2019",
        -9.841056630522267
      ],
      [
        "▁nawo",
        -9.841264049331606
      ],
      [
        "▁yepasi",
        -9.841689223789041
      ],
      [
        "kond",
        -9.841980816633223
      ],
      [
        "kushandisa",
        -9.842124700770045
      ],
      [
        "▁kuZambia",
        -9.842209431997905
      ],
      [
        "▁nemauto",
        -9.842803261187978
      ],
      [
        "▁ned",
        -9.84293510005961
      ],
      [
        "▁dzimotokari",
        -9.842986134007965
      ],
      [
        "▁vakaona",
        -9.843433739828711
      ],
      [
        "▁vachitiwo",
        -9.843551141152973
      ],
      [
        "▁zvinobatsira",
        -9.845655351757085
      ],
      [
        "▁ndeyeku",
        -9.8468964949545
      ],
      [
        "▁ropa",
        -9.8474830659335
      ],
      [
        "farira",
        -9.84812874581158
      ],
      [
        "▁chii",
        -9.84934871572343
      ],
      [
        "fambisw",
        -9.8506793268479
      ],
      [
        "akadaro,",
        -9.851282050700313
      ],
      [
        "kanwa",
        -9.852541255075227
      ],
      [
        "rambidzwa",
        -9.853746464814831
      ],
      [
        "tove",
        -9.855190656929134
      ],
      [
        "▁rwuno",
        -9.856637027295818
      ],
      [
        "vigw",
        -9.856683109744454
      ],
      [
        "Division",
        -9.857271640656233
      ],
      [
        "diki",
        -9.858781773803793
      ],
      [
        "hara",
        -9.860414522627673
      ],
      [
        "dzimwe",
        -9.861214748475494
      ],
      [
        "kupfeka",
        -9.862138313371496
      ],
      [
        "shungurudza",
        -9.862242366444105
      ],
      [
        "▁kukundwa",
        -9.862824161883125
      ],
      [
        "VaChamisa",
        -9.864786254266322
      ],
      [
        "usati",
        -9.865043848706941
      ],
      [
        "▁netball",
        -9.865128175696789
      ],
      [
        "▁nepamus",
        -9.866059267698319
      ],
      [
        "▁Democracy",
        -9.866167936959002
      ],
      [
        "▁Marathon",
        -9.866167942162068
      ],
      [
        "▁Women",
        -9.866168175263486
      ],
      [
        "▁Chigumba",
        -9.866169316535911
      ],
      [
        "bvumidza",
        -9.866169693987523
      ],
      [
        "▁Nurse",
        -9.866170404713795
      ],
      [
        "▁mutsindo",
        -9.8661739316927
      ],
      [
        "▁emaoko",
        -9.866177621195996
      ],
      [
        "GMB",
        -9.86618916692556
      ],
      [
        "▁kumawere",
        -9.866288003367679
      ],
      [
        "rangarira",
        -9.866496321129654
      ],
      [
        "▁ishoma",
        -9.86652059810315
      ],
      [
        "vaimbov",
        -9.866877316330893
      ],
      [
        "▁Gumbo",
        -9.866881025901217
      ],
      [
        "Youth",
        -9.86719415712413
      ],
      [
        "paradza",
        -9.867544023843235
      ],
      [
        "▁inosanganisira",
        -9.867560593857345
      ],
      [
        "ida",
        -9.867570612783123
      ],
      [
        "▁ndezve",
        -9.867783121664292
      ],
      [
        "Green",
        -9.86806489041441
      ],
      [
        "▁pedare",
        -9.868501520503582
      ],
      [
        "yedza",
        -9.86856534111669
      ],
      [
        "▁semutungamiri",
        -9.868993465957871
      ],
      [
        "▁nevakawanda",
        -9.869548314719683
      ],
      [
        "▁tinoda",
        -9.86982144582425
      ],
      [
        "▁kuzotambira",
        -9.869923344340277
      ],
      [
        "▁razivisa",
        -9.870230349559877
      ],
      [
        "▁yakakosha",
        -9.870303139178242
      ],
      [
        "▁muBotswana",
        -9.870727458864028
      ],
      [
        "▁wega",
        -9.871442491994067
      ],
      [
        "▁vozo",
        -9.871628384929735
      ],
      [
        "▁mazhinji",
        -9.871721964234608
      ],
      [
        "▁kutambura",
        -9.873468771454895
      ],
      [
        "▁wechi",
        -9.873542565500884
      ],
      [
        "▁High",
        -9.87457788433493
      ],
      [
        "▁Federation",
        -9.875093157811115
      ],
      [
        "▁Zambia",
        -9.875426066573004
      ],
      [
        "kufamba",
        -9.875599271719523
      ],
      [
        "muka",
        -9.87563087632793
      ],
      [
        "nokwikwidza",
        -9.876773118324936
      ],
      [
        "mber",
        -9.877135248709786
      ],
      [
        "gar",
        -9.877463055875978
      ],
      [
        "▁vega",
        -9.877474777565519
      ],
      [
        "▁mumabhanga",
        -9.877501999205599
      ],
      [
        "batira",
        -9.877544206215605
      ],
      [
        "minda",
        -9.877793704064532
      ],
      [
        "▁nevagari",
        -9.877934619253438
      ],
      [
        "gokwanisa",
        -9.87861872764918
      ],
      [
        "17",
        -9.880905472852067
      ],
      [
        "kurwisa",
        -9.881192067418773
      ],
      [
        "op",
        -9.882739966051517
      ],
      [
        "▁iriko",
        -9.882927435953038
      ],
      [
        "inda",
        -9.88378980575947
      ],
      [
        "▁aya,",
        -9.885039072636314
      ],
      [
        "ity",
        -9.885586778756425
      ],
      [
        "▁SHA",
        -9.886076976647924
      ],
      [
        "▁Trust",
        -9.886430421378831
      ],
      [
        "▁Parirenyatwa",
        -9.88659432500289
      ],
      [
        "▁yavaka",
        -9.887675097410279
      ],
      [
        "tuma",
        -9.888647202544057
      ],
      [
        "▁semu",
        -9.88867247140897
      ],
      [
        "▁mina",
        -9.889686204868255
      ],
      [
        "bhadhare",
        -9.889728189689235
      ],
      [
        "▁harin",
        -9.890242523735653
      ],
      [
        "hupfu",
        -9.890471814075763
      ],
      [
        "▁ato",
        -9.890768453143131
      ],
      [
        "stor",
        -9.891207029028052
      ],
      [
        "mapurazi",
        -9.891487213987013
      ],
      [
        "▁nebasa",
        -9.891707405331378
      ],
      [
        "▁neche",
        -9.892146444297946
      ],
      [
        "kanda",
        -9.892302548090045
      ],
      [
        "▁uka",
        -9.894714066739349
      ],
      [
        "▁kuchamhembe",
        -9.894819042044
      ],
      [
        "▁Kubv",
        -9.896750554938603
      ],
      [
        "▁yakambo",
        -9.897097547105153
      ],
      [
        "▁rava",
        -9.897980096154857
      ],
      [
        "▁vatanga",
        -9.898322936981735
      ],
      [
        "kurima",
        -9.898408964555516
      ],
      [
        "ting",
        -9.89953082079221
      ],
      [
        "▁Region",
        -9.899813305128925
      ],
      [
        "▁vanotarisir",
        -9.900052622194934
      ],
      [
        "Y",
        -9.903099492041711
      ],
      [
        "mbomira",
        -9.904163635736701
      ],
      [
        "maGems",
        -9.905248426984887
      ],
      [
        "upenyu",
        -9.905667263405444
      ],
      [
        "tekeshera",
        -9.906167937533283
      ],
      [
        "▁Kadewere",
        -9.90616799323378
      ],
      [
        "▁Masaraure",
        -9.906168287700407
      ],
      [
        "▁Phiri",
        -9.906172160486797
      ],
      [
        "Uganda",
        -9.906173943068186
      ],
      [
        "bandana",
        -9.906176009938122
      ],
      [
        "▁Center",
        -9.906178474813672
      ],
      [
        "▁kumaruwa",
        -9.9061813618292
      ],
      [
        "▁ipapo",
        -9.906202040138263
      ],
      [
        "▁nezvitanhatu",
        -9.906246243026429
      ],
      [
        "well",
        -9.906295542374137
      ],
      [
        "▁VaGumbo",
        -9.906532670967776
      ],
      [
        "kins",
        -9.90663994995419
      ],
      [
        "Democrat",
        -9.906665550598225
      ],
      [
        "▁veMDC",
        -9.906947940698995
      ],
      [
        "maneja",
        -9.907325378436138
      ],
      [
        "Community",
        -9.907588359725136
      ],
      [
        "hunyanzvi",
        -9.907594419982763
      ],
      [
        "▁Davi",
        -9.907669135078406
      ],
      [
        "▁Ndoro",
        -9.908088812517631
      ],
      [
        "seni",
        -9.908739510667345
      ],
      [
        "▁dzenhabvu",
        -9.908942208729394
      ],
      [
        "netball",
        -9.90937291403182
      ],
      [
        "▁nezvemari",
        -9.909414227058004
      ],
      [
        "6.",
        -9.910216904085857
      ],
      [
        "end",
        -9.910373551330318
      ],
      [
        "▁Kanyenze",
        -9.910404473424814
      ],
      [
        "▁nezvina",
        -9.911369071889718
      ],
      [
        "nyunyuta",
        -9.911413553206799
      ],
      [
        "soro",
        -9.91174199241668
      ],
      [
        "Victor",
        -9.912122897116834
      ],
      [
        "▁wechipiri",
        -9.912213317618736
      ],
      [
        "▁weMDC-T",
        -9.912630672191455
      ],
      [
        "▁nemakanzuru",
        -9.913563779699343
      ],
      [
        "▁dzinonzi",
        -9.913579783354411
      ],
      [
        "netse",
        -9.91363134882648
      ],
      [
        "▁achitamba",
        -9.913809823733601
      ],
      [
        "▁nemukuru",
        -9.914845446730062
      ],
      [
        "vanhukadzi",
        -9.915098595555811
      ],
      [
        "▁kuzivisa",
        -9.915127090399109
      ],
      [
        "kurukura",
        -9.916507078997066
      ],
      [
        "▁kubatana",
        -9.916515727894833
      ],
      [
        "ph",
        -9.916708410436339
      ],
      [
        "▁Kha",
        -9.916710720839713
      ],
      [
        "▁weHarare",
        -9.916928162109844
      ],
      [
        "▁zvivakwa",
        -9.917727145821086
      ],
      [
        "▁zvemu",
        -9.91788937947745
      ],
      [
        "▁weguta",
        -9.918347189626417
      ],
      [
        "▁vatora",
        -9.918713452331112
      ],
      [
        "katarisana",
        -9.920090143656846
      ],
      [
        "▁wakare",
        -9.92053565782557
      ],
      [
        "▁pese",
        -9.92091638771275
      ],
      [
        "▁mudhorobha",
        -9.921129840769575
      ],
      [
        "▁rechirwere",
        -9.921201860170397
      ],
      [
        "kubhadhara",
        -9.921332172480813
      ],
      [
        "▁zvakare.",
        -9.921572016990352
      ],
      [
        "nji",
        -9.923103365579221
      ],
      [
        "▁VaP",
        -9.923195254432093
      ],
      [
        "▁weva",
        -9.923645119357786
      ],
      [
        "▁22",
        -9.92377609444745
      ],
      [
        "nyorerana",
        -9.924008606002662
      ],
      [
        "▁mberi.",
        -9.924555202267484
      ],
      [
        "9.",
        -9.924628755713147
      ],
      [
        "kaita",
        -9.924909663747428
      ],
      [
        "▁havacha",
        -9.926355192953583
      ],
      [
        "angu",
        -9.92670440570562
      ],
      [
        "iswe",
        -9.927831600569773
      ],
      [
        "af",
        -9.9280851072152
      ],
      [
        "dzana",
        -9.928944381701143
      ],
      [
        "mudzimai",
        -9.929408448513279
      ],
      [
        "zvesarudzo",
        -9.929826052965119
      ],
      [
        "varimi",
        -9.931523462664646
      ],
      [
        "▁Di",
        -9.931582329822813
      ],
      [
        "▁vashand",
        -9.932257041849164
      ],
      [
        "▁People",
        -9.932570581881823
      ],
      [
        "▁kuongororwa",
        -9.933687263998184
      ],
      [
        "zviita",
        -9.93368942954615
      ],
      [
        "noenderera",
        -9.934259081177448
      ],
      [
        "notamba",
        -9.934352134981255
      ],
      [
        "anda",
        -9.9348111869277
      ],
      [
        "Japan",
        -9.935826121580773
      ],
      [
        "▁vabva",
        -9.93598892216865
      ],
      [
        "▁Black",
        -9.936032288238017
      ],
      [
        "▁Vanoon",
        -9.936296783400671
      ],
      [
        "▁nem",
        -9.936823691664037
      ],
      [
        "▁Johns",
        -9.93725083596139
      ],
      [
        "irakit",
        -9.937335767097569
      ],
      [
        "Mozambique",
        -9.937561633125593
      ],
      [
        "▁kurwisana",
        -9.938420398666272
      ],
      [
        "▁vakapa",
        -9.939436289568267
      ],
      [
        "dhinda",
        -9.940395231953055
      ],
      [
        "akatanga",
        -9.940611403565093
      ],
      [
        "budisa",
        -9.941081504899522
      ],
      [
        "▁makanzuru",
        -9.941389649281032
      ],
      [
        "tungamirira",
        -9.941406787429997
      ],
      [
        "itira",
        -9.941530271516001
      ],
      [
        "▁ndicha",
        -9.941636511405084
      ],
      [
        "▁zvapa",
        -9.94196443287018
      ],
      [
        "▁zvati",
        -9.94207594924843
      ],
      [
        "shoma",
        -9.942085081363071
      ],
      [
        "▁vadzoke",
        -9.942652401910806
      ],
      [
        "ondo",
        -9.94266658320996
      ],
      [
        "Senegal",
        -9.943101760197116
      ],
      [
        "oni",
        -9.943198734700982
      ],
      [
        "eZimbabwe",
        -9.943443296697673
      ],
      [
        "'",
        -9.944773940501168
      ],
      [
        "▁kudya",
        -9.945155583575946
      ],
      [
        "cherwa",
        -9.945323778291018
      ],
      [
        "zere",
        -9.94557268967309
      ],
      [
        "kwezv",
        -9.9467278068208
      ],
      [
        "▁y",
        -9.947175981735796
      ],
      [
        "shamisa",
        -9.94779113929146
      ],
      [
        "▁neHighlanders",
        -9.947834603698297
      ],
      [
        "typhoid",
        -9.947834603735398
      ],
      [
        "Namibia",
        -9.94783460498813
      ],
      [
        "▁remadunhurirwa",
        -9.947834620930095
      ],
      [
        "▁Biden",
        -9.947835112763805
      ],
      [
        "Apex",
        -9.947838765239892
      ],
      [
        "▁dzemoto",
        -9.94784218713886
      ],
      [
        "nyimwa",
        -9.947843228977682
      ],
      [
        "Sunday",
        -9.947850999178627
      ],
      [
        "ela",
        -9.947851024196947
      ],
      [
        "SRC",
        -9.947868254175502
      ],
      [
        "▁billion",
        -9.947907711478518
      ],
      [
        "▁katatu",
        -9.948084255861643
      ],
      [
        "▁“Ini",
        -9.948132709630377
      ],
      [
        ".\\n\\nVa",
        -9.948154150756938
      ],
      [
        "▁nevamiriri",
        -9.948182640804221
      ],
      [
        "▁kusafara",
        -9.948199486745686
      ],
      [
        "bvumirana",
        -9.948216304853643
      ],
      [
        "▁hwejekerere",
        -9.94828871031967
      ],
      [
        "▁naVaMugabe",
        -9.948562458111173
      ],
      [
        "▁aVa",
        -9.949151878426768
      ],
      [
        "▁IT",
        -9.949153887668112
      ],
      [
        "▁hamun",
        -9.949254759709236
      ],
      [
        "▁pamusika",
        -9.950467835239024
      ],
      [
        "ikombe",
        -9.950558572173597
      ],
      [
        "turwa",
        -9.95061710327621
      ],
      [
        "Hwange",
        -9.950643125693109
      ],
      [
        "▁vatanhatu",
        -9.9509036670457
      ],
      [
        "▁havakwanis",
        -9.95093125369544
      ],
      [
        "Health",
        -9.951578339692665
      ],
      [
        "▁RBZ",
        -9.951966899471701
      ],
      [
        "▁chemutungamiri",
        -9.952110179325157
      ],
      [
        "Germany",
        -9.95221748572736
      ],
      [
        "▁kwekodzero",
        -9.952284725824283
      ],
      [
        "ele",
        -9.95240633525235
      ],
      [
        "matanho",
        -9.952844384653158
      ],
      [
        "▁neZanu",
        -9.953576857634818
      ],
      [
        "▁hucha",
        -9.954247231517996
      ],
      [
        "▁nemishonga",
        -9.955373285954854
      ],
      [
        "pararira",
        -9.955557600380496
      ],
      [
        "▁muhu",
        -9.956038582774495
      ],
      [
        "baya",
        -9.956241489589402
      ],
      [
        "▁Nemus",
        -9.956464492864997
      ],
      [
        "dzora",
        -9.95684797076304
      ],
      [
        "▁wePSL",
        -9.957097079705067
      ],
      [
        "▁31",
        -9.958049367045223
      ],
      [
        "win",
        -9.958114376548725
      ],
      [
        "▁yasara",
        -9.958393648512054
      ],
      [
        "tongi",
        -9.958825506522537
      ],
      [
        "zvazvo",
        -9.95887719069725
      ],
      [
        "▁vakawanikwa",
        -9.959436935621218
      ],
      [
        "▁kuJapan",
        -9.960027065750177
      ],
      [
        "▁pakupera",
        -9.96016707628668
      ],
      [
        "vatevedzer",
        -9.960219789087596
      ],
      [
        "▁VaDe",
        -9.961944356671875
      ],
      [
        "zvinhu",
        -9.962350929702302
      ],
      [
        "▁Li",
        -9.962454664680779
      ],
      [
        "sanganis",
        -9.96269802208729
      ],
      [
        "▁muhondo",
        -9.96296342214562
      ],
      [
        "mukuru",
        -9.963026576299615
      ],
      [
        "Chevrons",
        -9.963523824418475
      ],
      [
        "nhau",
        -9.964469189201079
      ],
      [
        "▁tarenda",
        -9.964962892077706
      ],
      [
        "▁w",
        -9.965627608612103
      ],
      [
        "▁vafara",
        -9.96646138683432
      ],
      [
        "▁izvozvo",
        -9.96686570718678
      ],
      [
        "shuvira",
        -9.967072999889337
      ],
      [
        "▁Belgium",
        -9.969137068387147
      ],
      [
        "▁inogara",
        -9.971779317675798
      ],
      [
        "▁Argentina",
        -9.971801636900647
      ],
      [
        "▁ndeye",
        -9.971806060490476
      ],
      [
        "temerwa",
        -9.971929855104891
      ],
      [
        "rman",
        -9.972599305175846
      ],
      [
        "▁kweva",
        -9.972895382675343
      ],
      [
        "vu",
        -9.972977771927301
      ],
      [
        "tarwa",
        -9.973466205445376
      ],
      [
        "▁kuvhara",
        -9.973998780342415
      ],
      [
        "tambe",
        -9.975447768094737
      ],
      [
        "▁St",
        -9.978191627145081
      ],
      [
        "19",
        -9.981773926898544
      ],
      [
        "▁kusungwa",
        -9.982870220898354
      ],
      [
        "kaitwa",
        -9.983574710993786
      ],
      [
        "mer",
        -9.983577794169815
      ],
      [
        "▁Agricultur",
        -9.983765287430437
      ],
      [
        "remekedza",
        -9.984204541978905
      ],
      [
        "ble",
        -9.985005731092318
      ],
      [
        "sika",
        -9.985203841771465
      ],
      [
        "bude",
        -9.986364223452949
      ],
      [
        "ire",
        -9.98674087739774
      ],
      [
        "q",
        -9.986881019971772
      ],
      [
        "hurumende",
        -9.986885532112867
      ],
      [
        "taris",
        -9.9869476373673
      ],
      [
        "▁kuzivikanwa",
        -9.987128270769341
      ],
      [
        "netsana",
        -9.98718541402054
      ],
      [
        "ekanzuru",
        -9.98756150564268
      ],
      [
        "▁marara",
        -9.987732996715543
      ],
      [
        "mhosva",
        -9.98785852548681
      ],
      [
        "wanisa",
        -9.9881873660534
      ],
      [
        "▁kuAmerica",
        -9.98895724238601
      ],
      [
        "▁Rights,",
        -9.990364549192721
      ],
      [
        "▁vesangano",
        -9.991115243498374
      ],
      [
        "▁VaChris",
        -9.991285174047642
      ],
      [
        "▁cheCovid",
        -9.991312842799807
      ],
      [
        ";",
        -9.991312864495214
      ],
      [
        "▁VaConstantin",
        -9.991312864495216
      ],
      [
        "▁MUTA",
        -9.991312865585304
      ],
      [
        "Portugal",
        -9.99131287018724
      ],
      [
        "▁rehutano",
        -9.99131288455117
      ],
      [
        "▁Makarau",
        -9.991312944086848
      ],
      [
        "katyamadz",
        -9.991313156554622
      ],
      [
        "▁Club",
        -9.991313259431326
      ],
      [
        "▁Mupfumira",
        -9.991316121806372
      ],
      [
        "▁Kukadzi",
        -9.991321643479203
      ],
      [
        "▁Ukuwo",
        -9.991322637451821
      ],
      [
        "shandiswe",
        -9.991325688324821
      ],
      [
        "▁Nakamba",
        -9.991326717402753
      ],
      [
        "vosve",
        -9.991333559914679
      ],
      [
        "▁Soci",
        -9.991358188631912
      ],
      [
        "govera",
        -9.991360076292793
      ],
      [
        "▁mumwechete",
        -9.991363894885517
      ],
      [
        "▁vekumaruwa",
        -9.991372982247475
      ],
      [
        "Kenya",
        -9.991379638091207
      ],
      [
        "maziso",
        -9.99138380408694
      ],
      [
        "▁amai",
        -9.991390511487042
      ],
      [
        "▁edzimotokari",
        -9.991439594488105
      ],
      [
        "Fifa",
        -9.991447064136494
      ],
      [
        "▁muhusungwa",
        -9.991464558453735
      ],
      [
        "▁nezvisere",
        -9.99149715807776
      ],
      [
        "▁nerongo",
        -9.991545994761621
      ],
      [
        "▁vangu",
        -9.991574889326149
      ],
      [
        "shuga",
        -9.991588929471021
      ],
      [
        "ZCTU",
        -9.991605299271935
      ],
      [
        "▁naizvozvo",
        -9.991703550893249
      ],
      [
        "▁nematatu",
        -9.991882499236787
      ],
      [
        "▁rezvematunhu",
        -9.992048650291093
      ],
      [
        "▁dzakachena",
        -9.99222118611578
      ],
      [
        "▁kumisa",
        -9.99223044007628
      ],
      [
        "shamisika",
        -9.992384271337224
      ],
      [
        "▁naVaMnangagwa",
        -9.992747674383988
      ],
      [
        "mangoda",
        -9.992897450720626
      ],
      [
        "▁zvenhabvu",
        -9.992994253731212
      ],
      [
        "▁yakapa",
        -9.993262611756592
      ],
      [
        "▁Police",
        -9.99347913965986
      ],
      [
        "svike",
        -9.993638104511525
      ],
      [
        "▁Zvimwe",
        -9.99378678184007
      ],
      [
        "▁VaF",
        -9.993856011222654
      ],
      [
        "shoropodza",
        -9.99414608265195
      ],
      [
        "▁zvinofadza",
        -9.994616858014064
      ],
      [
        "▁nezvinomwe",
        -9.995107222454322
      ],
      [
        "▁mumaguta",
        -9.995139928513455
      ],
      [
        "echidiki",
        -9.99564182191418
      ],
      [
        "madandemutande",
        -9.995894897769487
      ],
      [
        "2022",
        -9.996170942249536
      ],
      [
        "▁yekuAmerica",
        -9.996467678073389
      ],
      [
        "▁wekupedzisira",
        -9.99653070371171
      ],
      [
        "▁zvido",
        -9.996564704017448
      ],
      [
        "ington",
        -9.996631700593156
      ],
      [
        "ub",
        -9.997016508659271
      ],
      [
        "▁nemuromo",
        -9.997159904354563
      ],
      [
        "▁pachikoro",
        -9.997177193639029
      ],
      [
        "▁zvicherwa",
        -9.997341539705868
      ],
      [
        "▁muzvi",
        -9.997620133862384
      ],
      [
        "▁zvavano",
        -9.997630076348152
      ],
      [
        "maWarriors",
        -9.99806504778148
      ],
      [
        "▁emari",
        -9.99806759345508
      ],
      [
        "gaya",
        -9.99828950996268
      ],
      [
        "gadzw",
        -9.998845310610232
      ],
      [
        "▁weDynamos",
        -9.998906473520519
      ],
      [
        "▁kuzadzikisa",
        -9.999261224648716
      ],
      [
        "unhu",
        -9.99990805913581
      ],
      [
        "wanisw",
        -10.000638201248012
      ],
      [
        "▁House",
[...]
