{
  "version": "1.0",
  "truncation": null,
  "padding": null,
  "added_tokens": [
    {
      "id": 0,
      "content": "<pad>",
      "single_word": false,
      "lstrip": false,
      "rstrip": false,
      "normalized": false,
      "special": true
    },
    {
      "id": 1,
      "content": "<unk>",
      "single_word": false,
      "lstrip": false,
      "rstrip": false,
      "normalized": false,
      "special": true
    },
    {
      "id": 2,
      "content": "<cls>",
      "single_word": false,
      "lstrip": false,
      "rstrip": false,
      "normalized": false,
      "special": true
    }
  ],
  "normalizer": {
    "type": "Sequence",
    "normalizers": [
      {
        "type": "Nmt"
      },
      {
        "type": "NFKC"
      },
      {
        "type": "Replace",
        "pattern": {
          "Regex": " {2,}"
        },
        "content": " "
      }
    ]
  },
  "pre_tokenizer": {
    "type": "Metaspace",
    "replacement": "▁",
    "prepend_scheme": "always",
    "split": true
  },
  "post_processor": {
    "type": "TemplateProcessing",
    "single": [
      {
        "SpecialToken": {
          "id": "<cls>",
          "type_id": 0
        }
      },
      {
        "Sequence": {
          "id": "A",
          "type_id": 0
        }
      }
    ],
    "pair": [
      {
        "Sequence": {
          "id": "A",
          "type_id": 0
        }
      },
      {
        "Sequence": {
          "id": "B",
          "type_id": 1
        }
      }
    ],
    "special_tokens": {
      "<cls>": {
        "id": "<cls>",
        "ids": [
          2
        ],
        "tokens": [
          "<cls>"
        ]
      }
    }
  },
  "decoder": {
    "type": "Metaspace",
    "replacement": "▁",
    "prepend_scheme": "always",
    "split": true
  },
  "model": {
    "type": "Unigram",
    "unk_id": 1,
    "vocab": [
      [
        "<pad>",
        0.0
      ],
      [
        "<unk>",
        0.0
      ],
      [
        "<cls>",
        0.0
      ],
      [
        "▁ya",
        -3.2625319680601432
      ],
      [
        "▁wa",
        -3.424763998661689
      ],
      [
        "▁na",
        -3.429266356791164
      ],
      [
        ",",
        -3.685344242382408
      ],
      [
        ".",
        -3.733147761924185
      ],
      [
        "▁kwa",
        -4.266425967038831
      ],
      [
        "▁",
        -4.362030370560786
      ],
      [
        "a",
        -4.620737567220722
      ],
      [
        "▁katika",
        -4.716494800463757
      ],
      [
        "▁ku",
        -4.84827139714832
      ],
      [
        "▁la",
        -4.931708960935138
      ],
      [
        "▁ni",
        -4.953633089727138
      ],
      [
        "▁za",
        -4.960993044211724
      ],
      [
        "▁kuwa",
        -4.983561464852137
      ],
      [
        "o",
        -5.317395386876228
      ],
      [
        "▁ali",
        -5.428290114996255
      ],
      [
        "▁cha",
        -5.512124301379156
      ],
      [
        "i",
        -5.516095128836927
      ],
      [
        "kuwa",
        -5.529918299705349
      ],
      [
        "wa",
        -5.644408864581445
      ],
      [
        "na",
        -5.657567460196908
      ],
      [
        "▁kama",
        -5.662245343255853
      ],
      [
        "ni",
        -5.68944925164014
      ],
      [
        "▁kwamba",
        -5.711633863625906
      ],
      [
        "▁M",
        -5.74936750014054
      ],
      [
        "▁ili",
        -5.862044504263942
      ],
      [
        "u",
        -5.872119860183284
      ],
      [
        "▁watu",
        -5.884595780033704
      ],
      [
        "e",
        -5.885366719093444
      ],
      [
        "▁vya",
        -5.895820438661431
      ],
      [
        "▁kutoka",
        -5.898893820097763
      ],
      [
        "▁hiyo",
        -5.919810229586156
      ],
      [
        "▁m",
        -5.936162932627997
      ],
      [
        "▁yake",
        -5.949492403214508
      ],
      [
        "▁zaidi",
        -6.0029258293387215
      ],
      [
        "▁kwenye",
        -6.0314482578535085
      ],
      [
        "▁wake",
        -6.045502092858396
      ],
      [
        "▁ana",
        -6.060774116330209
      ],
      [
        "▁miaka",
        -6.072756866707209
      ],
      [
        "▁-",
        -6.074859538628626
      ],
      [
        "▁wakati",
        -6.077833778331533
      ],
      [
        "▁mwaka",
        -6.122009071460253
      ],
      [
        "▁ina",
        -6.175438060186942
      ],
      [
        "▁ame",
        -6.204014528077204
      ],
      [
        "▁nchini",
        -6.216903368500874
      ],
      [
        "▁lakini",
        -6.217339172775405
      ],
      [
        "m",
        -6.225912637049312
      ],
      [
        "▁baada",
        -6.232351306401259
      ],
      [
        "ji",
        -6.254029523571035
      ],
      [
        "▁wana",
        -6.277767409002962
      ],
      [
        "s",
        -6.2815634291988784
      ],
      [
        "ka",
        -6.290029071141598
      ],
      [
        "▁pia",
        -6.294907157338934
      ],
      [
        "▁ime",
        -6.363260071959902
      ],
      [
        "▁ambayo",
        -6.384834416724238
      ],
      [
        "▁u",
        -6.397524365528272
      ],
      [
        "li",
        -6.461297047857178
      ],
      [
        "▁au",
        -6.4647288911595195
      ],
      [
        "▁wali",
        -6.5086791446981485
      ],
      [
        "▁moja",
        -6.53236211179478
      ],
      [
        "▁mara",
        -6.533522160888038
      ],
      [
        "▁\"",
        -6.536136741736665
      ],
      [
        "▁huo",
        -6.54652866971055
      ],
      [
        "▁kuhusu",
        -6.556689806429331
      ],
      [
        "▁kati",
        -6.5575512469801005
      ],
      [
        "▁hilo",
        -6.561448369702755
      ],
      [
        "▁siku",
        -6.5634633429423825
      ],
      [
        "▁huyo",
        -6.570038688629283
      ],
      [
        "▁ambaye",
        -6.570110528327959
      ],
      [
        "▁ambao",
        -6.57463946025071
      ],
      [
        "▁nchi",
        -6.5862727499970335
      ],
      [
        "▁wame",
        -6.639115839166444
      ],
      [
        ")",
        -6.639761685044009
      ],
      [
        "la",
        -6.645039774747499
      ],
      [
        "▁hu",
        -6.654889135294162
      ],
      [
        ",\"",
        -6.658608850165481
      ],
      [
        "▁ma",
        -6.65872410244948
      ],
      [
        "n",
        -6.679962878346033
      ],
      [
        "▁walio",
        -6.6990349618149745
      ],
      [
        "▁aki",
        -6.707146564251801
      ],
      [
        "▁mwa",
        -6.7192905594259065
      ],
      [
        "▁tu",
        -6.724533489420822
      ],
      [
        "ri",
        -6.724954248142558
      ],
      [
        "▁mtu",
        -6.740682572867987
      ],
      [
        "si",
        -6.745866884517296
      ],
      [
        "▁sasa",
        -6.746473606838453
      ],
      [
        "▁Marekani",
        -6.752076132821917
      ],
      [
        "▁anasema",
        -6.757475622421956
      ],
      [
        "ko",
        -6.763105197361065
      ],
      [
        "▁Lakini",
        -6.765905271449158
      ],
      [
        "▁hali",
        -6.783668577701539
      ],
      [
        "zi",
        -6.79899850516592
      ],
      [
        "▁Kwa",
        -6.815568641504128
      ],
      [
        "▁Wa",
        -6.816021437859072
      ],
      [
        "▁kazi",
        -6.8304537780219015
      ],
      [
        ":",
        -6.8419601531794365
      ],
      [
        "▁U",
        -6.848587608545103
      ],
      [
        "▁umri",
        -6.851239966551677
      ],
      [
        "▁A",
        -6.858592704245238
      ],
      [
        "▁kila",
        -6.867637751648556
      ],
      [
        "ki",
        -6.87215117222536
      ],
      [
        "▁huku",
        -6.881834606466455
      ],
      [
        ".\"",
        -6.881855972681713
      ],
      [
        "▁muda",
        -6.893896294216204
      ],
      [
        "fanya",
        -6.894524533114486
      ],
      [
        "y",
        -6.896715382181831
      ],
      [
        "▁juu",
        -6.911097227307468
      ],
      [
        "▁una",
        -6.915681809643598
      ],
      [
        "▁serikali",
        -6.916184585579845
      ],
      [
        "ti",
        -6.9165552282924265
      ],
      [
        "▁alisema",
        -6.92160545953231
      ],
      [
        "▁kwanza",
        -6.936645170375822
      ],
      [
        "ra",
        -6.944971069012753
      ],
      [
        "▁mmoja",
        -6.951248353551694
      ],
      [
        "▁kufanya",
        -6.951570785132675
      ],
      [
        "▁hivyo",
        -6.953041540735801
      ],
      [
        "▁sana",
        -6.95450974253913
      ],
      [
        "▁pamoja",
        -6.971409052706395
      ],
      [
        "▁dhidi",
        -6.975604372390669
      ],
      [
        "ta",
        -6.976720122902974
      ],
      [
        "ma",
        -6.981615378403968
      ],
      [
        "▁hadi",
        -6.996488467682522
      ],
      [
        "▁kuna",
        -6.997673197234484
      ],
      [
        "▁ki",
        -7.003666688180436
      ],
      [
        "▁mwezi",
        -7.005642430365919
      ],
      [
        "t",
        -7.018603903223582
      ],
      [
        "▁Ma",
        -7.020177110213486
      ],
      [
        "▁wanao",
        -7.0235262577896105
      ],
      [
        "▁waki",
        -7.026560833478361
      ],
      [
        "\"",
        -7.029076238071442
      ],
      [
        "▁kubwa",
        -7.034808870751924
      ],
      [
        "-",
        -7.035300058057438
      ],
      [
        "▁(",
        -7.043056355624418
      ],
      [
        "▁Ku",
        -7.044998366944271
      ],
      [
        "▁mwenye",
        -7.048479144094039
      ],
      [
        "▁wengi",
        -7.0503606695432
      ],
      [
        "▁hii",
        -7.052374000479455
      ],
      [
        "pata",
        -7.052620812908724
      ],
      [
        "▁eneo",
        -7.053043910748245
      ],
      [
        "▁rais",
        -7.060068566925507
      ],
      [
        "weza",
        -7.061514943573615
      ],
      [
        "▁aliye",
        -7.066849866397663
      ],
      [
        "▁huu",
        -7.071927942114123
      ],
      [
        "▁Na",
        -7.073715796791672
      ],
      [
        "▁Afrika",
        -7.07945971621091
      ],
      [
        "fu",
        -7.082055101794473
      ],
      [
        "taka",
        -7.084549492252146
      ],
      [
        "▁sababu",
        -7.086653524182046
      ],
      [
        "▁hata",
        -7.086706427006271
      ],
      [
        "▁wanawake",
        -7.117151060437934
      ],
      [
        "▁uchaguzi",
        -7.122540036584603
      ],
      [
        "▁Rais",
        -7.138665206386855
      ],
      [
        "▁hatua",
        -7.14316569112565
      ],
      [
        "d",
        -7.145995498134158
      ],
      [
        "po",
        -7.159721246165526
      ],
      [
        "r",
        -7.17491072039803
      ],
      [
        "▁kupata",
        -7.182580413018719
      ],
      [
        "▁klabu",
        -7.190242886752426
      ],
      [
        "l",
        -7.1906630579979
      ],
      [
        "▁kura",
        -7.190668786421995
      ],
      [
        "mu",
        -7.193052362222666
      ],
      [
        "▁mkuu",
        -7.19383801622656
      ],
      [
        "▁maisha",
        -7.195630155348594
      ],
      [
        "▁ikiwa",
        -7.1996060064770555
      ],
      [
        "▁Ali",
        -7.20354657045165
      ],
      [
        "▁zina",
        -7.204435804791628
      ],
      [
        "▁kabla",
        -7.206089840677357
      ],
      [
        "k",
        -7.2213016326885375
      ],
      [
        "toa",
        -7.229886170002083
      ],
      [
        "▁Manchester",
        -7.232540397734496
      ],
      [
        "▁kum",
        -7.240155334630094
      ],
      [
        "▁Katika",
        -7.24194466804188
      ],
      [
        "▁K",
        -7.244936920394787
      ],
      [
        "▁habari",
        -7.264051258446734
      ],
      [
        "le",
        -7.264414231858044
      ],
      [
        "▁iliyo",
        -7.267564109490623
      ],
      [
        "▁vi",
        -7.276644393363855
      ],
      [
        "▁uli",
        -7.277110857344274
      ],
      [
        "?",
        -7.283322595700297
      ],
      [
        "▁karibu",
        -7.287101392864352
      ],
      [
        "▁ata",
        -7.289383889312828
      ],
      [
        "re",
        -7.292676593544902
      ],
      [
        "we",
        -7.294729722434714
      ],
      [
        "ku",
        -7.296618909737573
      ],
      [
        "▁hayo",
        -7.299137512591999
      ],
      [
        "▁milioni",
        -7.313736041231295
      ],
      [
        "▁njia",
        -7.315966581933411
      ],
      [
        "▁chini",
        -7.3173138817105805
      ],
      [
        "ba",
        -7.317783566901029
      ],
      [
        "▁ndani",
        -7.321169009397304
      ],
      [
        "▁baadhi",
        -7.323143052802099
      ],
      [
        "sha",
        -7.327902917906848
      ],
      [
        "▁nyingi",
        -7.330289030761513
      ],
      [
        "▁watoto",
        -7.331511312375057
      ],
      [
        "▁ilikuwa",
        -7.333174473979133
      ],
      [
        "▁msimu",
        -7.336870340389912
      ],
      [
        "▁virusi",
        -7.352232376904882
      ],
      [
        "▁United",
        -7.354881333541422
      ],
      [
        "▁hivi",
        -7.359582809921959
      ],
      [
        "▁inayo",
        -7.361385912749749
      ],
      [
        "sa",
        -7.365021773598921
      ],
      [
        "c",
        -7.369007077509169
      ],
      [
        "lo",
        -7.371985487817621
      ],
      [
        "▁kadhaa",
        -7.3778767031868995
      ],
      [
        "▁Tanzania",
        -7.3827185451861945
      ],
      [
        "▁bado",
        -7.38345511445466
      ],
      [
        "▁T",
        -7.383554117320866
      ],
      [
        "▁mpya",
        -7.384070804567002
      ],
      [
        "ya",
        -7.385546036945749
      ],
      [
        "▁ambapo",
        -7.386106514972609
      ],
      [
        "tu",
        -7.386258411289713
      ],
      [
        "▁wao",
        -7.3885954206505176
      ],
      [
        "▁mwisho",
        -7.391613379267789
      ],
      [
        "za",
        -7.393571579053747
      ],
      [
        "▁ita",
        -7.394405151148404
      ],
      [
        "ja",
        -7.394768775372063
      ],
      [
        "▁wengine",
        -7.396558486600448
      ],
      [
        "▁akiwa",
        -7.402425200981944
      ],
      [
        "▁muhimu",
        -7.411883147701786
      ],
      [
        "▁mchezaji",
        -7.418819790345953
      ],
      [
        "▁B",
        -7.424480649246006
      ],
      [
        "▁mkubwa",
        -7.430127602208264
      ],
      [
        "▁Kenya",
        -7.434775243577846
      ],
      [
        "▁bila",
        -7.441027865956294
      ],
      [
        "▁taarifa",
        -7.447551113938772
      ],
      [
        "tumia",
        -7.4482818714482235
      ],
      [
        "▁Ni",
        -7.452514638766962
      ],
      [
        "▁hizo",
        -7.454998613888765
      ],
      [
        "▁ume",
        -7.456006403676775
      ],
      [
        "▁sheria",
        -7.458817887886006
      ],
      [
        "▁mshambuliaji",
        -7.460452546399897
      ],
      [
        "weka",
        -7.464488829617769
      ],
      [
        "▁iki",
        -7.4684176759640755
      ],
      [
        "to",
        -7.482722715562317
      ],
      [
        "▁afya",
        -7.487532398981114
      ],
      [
        "▁I",
        -7.4929441611430505
      ],
      [
        "likuwa",
        -7.495117754892266
      ],
      [
        "▁taifa",
        -7.503174874189422
      ],
      [
        "▁timu",
        -7.503174882735574
      ],
      [
        "▁sehemu",
        -7.504595917775548
      ],
      [
        "▁nafasi",
        -7.505638290048877
      ],
      [
        "▁zinazo",
        -7.508202795134942
      ],
      [
        "▁yao",
        -7.509044663715376
      ],
      [
        "▁kampuni",
        -7.513245873836429
      ],
      [
        "ke",
        -7.51350869007222
      ],
      [
        "▁zake",
        -7.514400567896739
      ],
      [
        "▁BBC",
        -7.521452443970689
      ],
      [
        "ro",
        -7.524087729016354
      ],
      [
        "▁zili",
        -7.524120193890307
      ],
      [
        "▁Trump",
        -7.529445395906342
      ],
      [
        "▁mkataba",
        -7.53098584486042
      ],
      [
        "▁ambazo",
        -7.533639030736839
      ],
      [
        "▁kiungo",
        -7.5351968022145615
      ],
      [
        "▁sio",
        -7.542650221738515
      ],
      [
        "▁ambalo",
        -7.548487215522331
      ],
      [
        "▁kipindi",
        -7.548573375762824
      ],
      [
        "di",
        -7.5496096681194045
      ],
      [
        "▁hao",
        -7.5534789808386265
      ],
      [
        "pa",
        -7.557732389398011
      ],
      [
        "▁nje",
        -7.56218193391576
      ],
      [
        "▁tayari",
        -7.563559064835298
      ],
      [
        "▁huko",
        -7.575710334917557
      ],
      [
        "▁zamani",
        -7.579625317204889
      ],
      [
        "▁chama",
        -7.580161869960494
      ],
      [
        "▁Bw",
        -7.581189011388764
      ],
      [
        "te",
        -7.5892796657417545
      ],
      [
        "▁wiki",
        -7.589738761916054
      ],
      [
        "▁vita",
        -7.59003223275383
      ],
      [
        "▁mbili",
        -7.593281919727963
      ],
      [
        "▁vile",
        -7.595366691448526
      ],
      [
        "▁Ki",
        -7.5997099679442455
      ],
      [
        "▁kutumia",
        -7.603487133230513
      ],
      [
        "▁maeneo",
        -7.607066000080509
      ],
      [
        "▁kuto",
        -7.6109759566310125
      ],
      [
        "p",
        -7.611276980717399
      ],
      [
        "▁tangu",
        -7.613438161099502
      ],
      [
        "▁kutoa",
        -7.61364780514365
      ],
      [
        "▁Uingereza",
        -7.618832916880303
      ],
      [
        "▁kuu",
        -7.622754983228083
      ],
      [
        "▁dawa",
        -7.6232614647666
      ],
      [
        "▁lili",
        -7.623440123275322
      ],
      [
        "▁zime",
        -7.624304838638005
      ],
      [
        "h",
        -7.6248138856083205
      ],
      [
        "▁ugonjwa",
        -7.628026819616752
      ],
      [
        "▁haki",
        -7.628329328814656
      ],
      [
        "me",
        -7.634668330184515
      ],
      [
        "namo",
        -7.634865800689989
      ],
      [
        "▁zao",
        -7.654424605700191
      ],
      [
        "ha",
        -7.654900561459792
      ],
      [
        "▁lina",
        -7.664938007631306
      ],
      [
        "\".",
        -7.664958346095441
      ],
      [
        "▁mkono",
        -7.669156702282714
      ],
      [
        "▁S",
        -7.671824351168592
      ],
      [
        "▁aina",
        -7.674304582299098
      ],
      [
        "▁haya",
        -7.67700253120875
      ],
      [
        "▁kupitia",
        -7.677018577579277
      ],
      [
        "▁wenye",
        -7.67732529096429
      ],
      [
        "▁duniani",
        -7.67745801733518
      ],
      [
        "▁tofauti",
        -7.687294845098395
      ],
      [
        "▁chanjo",
        -7.689785558875207
      ],
      [
        "▁walikuwa",
        -7.690770776408026
      ],
      [
        "▁alipo",
        -7.699157543650728
      ],
      [
        "▁huenda",
        -7.700835000665789
      ],
      [
        "'",
        -7.704060063665319
      ],
      [
        "▁mbali",
        -7.705925743638115
      ],
      [
        "bu",
        -7.7059999181339345
      ],
      [
        "▁familia",
        -7.7087645860549765
      ],
      [
        "▁mji",
        -7.71266793956067
      ],
      [
        "zo",
        -7.715062221503451
      ],
      [
        "anza",
        -7.715521724534794
      ],
      [
        "chukua",
        -7.7198182156722925
      ],
      [
        "▁jinsi",
        -7.721855070753333
      ],
      [
        "g",
        -7.729747111824352
      ],
      [
        "ne",
        -7.7302510024346
      ],
      [
        "▁Wakati",
        -7.734148609608445
      ],
      [
        "▁biashara",
        -7.735818872657521
      ],
      [
        "▁tena",
        -7.741911973217945
      ],
      [
        "▁raia",
        -7.746384567166445
      ],
      [
        "cho",
        -7.748293879070414
      ],
      [
        "▁kui",
        -7.748550120649727
      ],
      [
        "▁zilizo",
        -7.752585577660347
      ],
      [
        "▁Hata",
        -7.752618014918035
      ],
      [
        "▁uwezo",
        -7.759227744070721
      ],
      [
        "ga",
        -7.760460691991631
      ],
      [
        "▁dola",
        -7.76288909644059
      ],
      [
        "▁ndege",
        -7.76289017588598
      ],
      [
        "▁Chelsea",
        -7.764735787982984
      ],
      [
        "▁lime",
        -7.765317502879068
      ],
      [
        "tokana",
        -7.767132755424962
      ],
      [
        "endelea",
        -7.767589750856915
      ],
      [
        "sema",
        -7.773332921909594
      ],
      [
        "mba",
        -7.7745960647526235
      ],
      [
        "▁ulio",
        -7.776830446973658
      ],
      [
        "onekana",
        -7.778216729536034
      ],
      [
        "▁corona",
        -7.782501244083176
      ],
      [
        "▁si",
        -7.784429551075712
      ],
      [
        "▁kumsajili",
        -7.786156697264605
      ],
      [
        "▁kiwango",
        -7.787281896615706
      ],
      [
        "▁mtandao",
        -7.791533793422882
      ],
      [
        "▁kitu",
        -7.791791355577273
      ],
      [
        "▁kawaida",
        -7.795907535804693
      ],
      [
        "no",
        -7.7971805440506445
      ],
      [
        "mi",
        -7.798472815330457
      ],
      [
        "▁anaye",
        -7.7992309024202084
      ],
      [
        "▁ndio",
        -7.801810105323355
      ],
      [
        "idadi",
        -7.802551352353763
      ],
      [
        "an",
        -7.803708784574883
      ],
      [
        "▁wote",
        -7.808397560834953
      ],
      [
        "b",
        -7.811649221533784
      ],
      [
        "▁inaweza",
        -7.81283666910147
      ],
      [
        "▁mtoto",
        -7.814292901605449
      ],
      [
        "▁kundi",
        -7.814388378430762
      ],
      [
        "▁'",
        -7.818476728704734
      ],
      [
        "shi",
        -7.826502689355173
      ],
      [
        "wi",
        -7.8266708086730175
      ],
      [
        "▁wata",
        -7.8272551470733145
      ],
      [
        "▁hakuna",
        -7.827314603425058
      ],
      [
        "▁''",
        -7.8306831431269845
      ],
      [
        "▁jambo",
        -7.833931524075115
      ],
      [
        "▁kiasi",
        -7.83411972078553
      ],
      [
        "▁mwingine",
        -7.83744761600682
      ],
      [
        "yo",
        -7.841696166719509
      ],
      [
        "▁picha",
        -7.841922318455137
      ],
      [
        "▁maambukizi",
        -7.844048902495495
      ],
      [
        "▁mambo",
        -7.844791796087391
      ],
      [
        "▁matokeo",
        -7.846282746638244
      ],
      [
        "▁Urusi",
        -7.850492459042477
      ],
      [
        "▁unao",
        -7.851234424529898
      ],
      [
        "▁yanayo",
        -7.852660485641709
      ],
      [
        "ajili",
        -7.8526928957936875
      ],
      [
        "ona",
        -7.853376545372595
      ],
      [
        "▁lake",
        -7.862550075534966
      ],
      [
        "▁tuna",
        -7.864989959402626
      ],
      [
        "▁kwenda",
        -7.865040448603441
      ],
      [
        "▁hatari",
        -7.8656157561264175
      ],
      [
        "▁W",
        -7.867440646680086
      ],
      [
        "▁fedha",
        -7.868344350422473
      ],
      [
        "nga",
        -7.869342675453424
      ],
      [
        "▁mwili",
        -7.873673582276028
      ],
      [
        "▁nyingine",
        -7.874215472037564
      ],
      [
        "▁bora",
        -7.874551534249482
      ],
      [
        "▁mataifa",
        -7.882874970504551
      ],
      [
        "bi",
        -7.887581502622962
      ],
      [
        "▁kina",
        -7.889019953599237
      ],
      [
        "▁Bwana",
        -7.889475726778323
      ],
      [
        "▁haku",
        -7.8930058137266785
      ],
      [
        "▁kimataifa",
        -7.896834000072337
      ],
      [
        "▁kile",
        -7.89759869277967
      ],
      [
        "▁Bi",
        -7.900761793641367
      ],
      [
        "▁aka",
        -7.901118399355083
      ],
      [
        "pe",
        -7.902772246890086
      ],
      [
        "▁alisema.",
        -7.903055490419645
      ],
      [
        "▁amesema",
        -7.907837071671854
      ],
      [
        "▁asilimia",
        -7.912611115797379
      ],
      [
        "▁Ufaransa",
        -7.9137294294718545
      ],
      [
        "▁hili",
        -7.916489832547745
      ],
      [
        "▁jamii",
        -7.91904509998539
      ],
      [
        "▁nguvu",
        -7.9212127744269045
      ],
      [
        "▁jina",
        -7.921448828147693
      ],
      [
        "▁zote",
        -7.92339305146013
      ],
      [
        "▁ujumbe",
        -7.923808847902864
      ],
      [
        "▁miezi",
        -7.92775004236734
      ],
      [
        "on",
        -7.9292889908559205
      ],
      [
        "▁uta",
        -7.933278172829763
      ],
      [
        "▁mafuta",
        -7.936709849801007
      ],
      [
        "A",
        -7.939130768825023
      ],
      [
        "▁nyumbani",
        -7.941118290890076
      ],
      [
        "▁mitandao",
        -7.942012195561679
      ],
      [
        "▁in",
        -7.942948077621285
      ],
      [
        "▁huduma",
        -7.9431668103687265
      ],
      [
        "▁Biden",
        -7.9432194503157945
      ],
      [
        "hi",
        -7.943251856398031
      ],
      [
        "▁yenye",
        -7.946928988194476
      ],
      [
        "▁hiyo.",
        -7.948586912703237
      ],
      [
        "▁City",
        -7.952105181983213
      ],
      [
        "▁wachezaji",
        -7.953103881557889
      ],
      [
        "▁kwasababu",
        -7.953362006951588
      ],
      [
        "▁yote",
        -7.954335972325056
      ],
      [
        "▁mjini",
        -7.956404315692529
      ],
      [
        "▁China",
        -7.956842774779201
      ],
      [
        "vi",
        -7.957376212762797
      ],
      [
        "▁sawa",
        -7.961821749076755
      ],
      [
        "▁pili",
        -7.963405019661168
      ],
      [
        "▁kuji",
        -7.964768601089431
      ],
      [
        "▁nili",
        -7.965479962237182
      ],
      [
        "▁Barcelona",
        -7.965774528118264
      ],
      [
        "▁mama",
        -7.966375161475955
      ],
      [
        "▁mengine",
        -7.968315712683851
      ],
      [
        "▁miongo",
        -7.973708670783303
      ],
      [
        "piga",
        -7.973838953627368
      ],
      [
        "▁usalama",
        -7.974735002930228
      ],
      [
        "▁Ka",
        -7.992266591370182
      ],
      [
        "▁mengi",
        -7.9927987809674645
      ],
      [
        "▁maji",
        -7.993370493360611
      ],
      [
        "▁E",
        -7.994311681080533
      ],
      [
        "▁10",
        -7.996588599204406
      ],
      [
        "▁hicho",
        -7.99789893363732
      ],
      [
        "▁N",
        -7.998117692132561
      ],
      [
        "▁mpango",
        -8.000260441623373
      ],
      [
        "▁yaliyo",
        -8.001894176212808
      ],
      [
        "vu",
        -8.004649578499423
      ],
      [
        "▁Twitter",
        -8.0074590493933
      ],
      [
        "C",
        -8.009042261160308
      ],
      [
        "▁hawa",
        -8.011283259707408
      ],
      [
        "▁wale",
        -8.011492925222166
      ],
      [
        "▁kuliko",
        -8.013239526011516
      ],
      [
        "▁tatu",
        -8.013387813905634
      ],
      [
        "kua",
        -8.017976040854007
      ],
      [
        "▁yali",
        -8.018477353263684
      ],
      [
        "fa",
        -8.020931411286313
      ],
      [
        "6",
        -8.021066579419362
      ],
      [
        "▁ambacho",
        -8.024040846132628
      ],
      [
        "▁dunia",
        -8.025890656227277
      ],
      [
        "▁yangu",
        -8.032053061017631
      ],
      [
        "onyesha",
        -8.03257361712158
      ],
      [
        "▁kufikia",
        -8.03271675258278
      ],
      [
        "ru",
        -8.036839794884699
      ],
      [
        "suala",
        -8.039724977275583
      ],
      [
        "▁Waziri",
        -8.041035829551447
      ],
      [
        "▁iwapo",
        -8.043499007497676
      ],
      [
        "▁mabadiliko",
        -8.043801434625369
      ],
      [
        "▁kijamii",
        -8.047904104011845
      ],
      [
        "▁yake.",
        -8.0503514246131
      ],
      [
        "go",
        -8.050629843430903
      ],
      [
        "▁kusema",
        -8.051307455141412
      ],
      [
        "wezi",
        -8.05202735254306
      ],
      [
        "▁hai",
        -8.052521084158169
      ],
      [
        "z",
        -8.053274996442877
      ],
      [
        "in",
        -8.053621157263045
      ],
      [
        "pi",
        -8.059743354470687
      ],
      [
        "▁saa",
        -8.063153523446893
      ],
      [
        "▁kuondoka",
        -8.064734167318184
      ],
      [
        "▁utawala",
        -8.066455844672793
      ],
      [
        "▁huwa",
        -8.066748673767986
      ],
      [
        "w",
        -8.067192152282784
      ],
      [
        "▁kili",
        -8.068135598550473
      ],
      [
        "▁mpaka",
        -8.068821717406806
      ],
      [
        "▁O",
        -8.068841457113372
      ],
      [
        "▁C",
        -8.072536088035243
      ],
      [
        "▁awali",
        -8.075582493806088
      ],
      [
        "4",
        -8.078399554726126
      ],
      [
        "▁viongozi",
        -8.078593409710539
      ],
      [
        "▁Sa",
        -8.0786236811998
      ],
      [
        "▁wanaume",
        -8.082187548678974
      ],
      [
        "▁karibuni",
        -8.08305867002828
      ],
      [
        "ng",
        -8.083142990075897
      ],
      [
        "0",
        -8.084413458366637
      ],
      [
        "▁utafiti",
        -8.089038941209258
      ],
      [
        "▁yame",
        -8.089999401408054
      ],
      [
        "▁masuala",
        -8.095200098776616
      ],
      [
        "▁Dunia",
        -8.09560997326422
      ],
      [
        "▁Pia",
        -8.096177632959472
      ],
      [
        "▁mrefu",
        -8.097329059148763
      ],
      [
        "tokea",
        -8.100921865866724
      ],
      [
        "▁Liverpool",
        -8.106913394754143
      ],
      [
        "▁kiongozi",
        -8.107000067406283
      ],
      [
        "▁mfumo",
        -8.107291926971593
      ],
      [
        "▁Arsenal",
        -8.112258244322758
      ],
      [
        "wahi",
        -8.114049715785494
      ],
      [
        "▁bidhaa",
        -8.114672203586013
      ],
      [
        "▁maarufu",
        -8.115540340756844
      ],
      [
        "▁mazungumzo",
        -8.11751615058764
      ],
      [
        "▁pekee",
        -8.118002373629631
      ],
      [
        "▁wanasema",
        -8.122110346657017
      ],
      [
        "▁upande",
        -8.122617436186356
      ],
      [
        "en",
        -8.125316872672828
      ],
      [
        "▁mbaya",
        -8.12668810654641
      ],
      [
        "▁mi",
        -8.126863204271935
      ],
      [
        "▁mwanamke",
        -8.128191021544946
      ],
      [
        "▁kupiga",
        -8.129182403440492
      ],
      [
        "▁kisiasa",
        -8.131431153095924
      ],
      [
        "▁mechi",
        -8.13329430298647
      ],
      [
        "er",
        -8.13451078241027
      ],
      [
        "▁polisi",
        -8.135974328648988
      ],
      [
        "▁jimbo",
        -8.13598975502013
      ],
      [
        "nge",
        -8.138070046960422
      ],
      [
        "5",
        -8.141228615892807
      ],
      [
        "▁hapo",
        -8.142160213730087
      ],
      [
        "▁yeye",
        -8.144087136540529
      ],
      [
        "da",
        -8.144500068067607
      ],
      [
        "▁Vi",
        -8.145008275005878
      ],
      [
        "▁wazi",
        -8.146337430034311
      ],
      [
        "jaribu",
        -8.14751994372196
      ],
      [
        "▁uchumi",
        -8.147971620170264
      ],
      [
        "▁damu",
        -8.1508324036121
      ],
      [
        "▁ha",
        -8.151860604640238
      ],
      [
        "▁makubwa",
        -8.152257051169446
      ],
      [
        "▁hivyo,",
        -8.153965422926968
      ],
      [
        "sh",
        -8.157902675796155
      ],
      [
        "▁kesi",
        -8.160529907608801
      ],
      [
        "▁sita",
        -8.161011706351669
      ],
      [
        "kwa",
        -8.163097156160907
      ],
      [
        "▁hizi",
        -8.16327886663921
      ],
      [
        "naweza",
        -8.163506568907966
      ],
      [
        "▁kuchukua",
        -8.164351331579645
      ],
      [
        "▁matumizi",
        -8.16622562653641
      ],
      [
        "▁Komb",
        -8.166818078410543
      ],
      [
        "enda",
        -8.169775302251107
      ],
      [
        "▁Iran",
        -8.173573027106421
      ],
      [
        "7",
        -8.173658801718442
      ],
      [
        "▁kulingan",
        -8.17379461874371
      ],
      [
        "toka",
        -8.175393272822381
      ],
      [
        "▁pesa",
        -8.177200821147993
      ],
      [
        "fanyika",
        -8.179129775763542
      ],
      [
        "▁wanaweza",
        -8.179687436057222
      ],
      [
        "▁kampeni",
        -8.18281481955304
      ],
      [
        "▁jeshi",
        -8.18300215005483
      ],
      [
        "▁hilo.",
        -8.18332440511674
      ],
      [
        "▁G",
        -8.186906053673045
      ],
      [
        "ngo",
        -8.188029728546109
      ],
      [
        "▁wawili",
        -8.192125917142858
      ],
      [
        "▁Baada",
        -8.193961576751658
      ],
      [
        "▁mapema",
        -8.194164159219936
      ],
      [
        "amua",
        -8.195894368699555
      ],
      [
        "8",
        -8.19618361253638
      ],
      [
        "▁England",
        -8.197019547658433
      ],
      [
        "▁janga",
        -8.197030853765519
      ],
      [
        "▁of",
        -8.197841813755907
      ],
      [
        "▁kuanza",
        -8.198201767329063
      ],
      [
        "▁madai",
        -8.19857313507745
      ],
      [
        "▁mujib",
        -8.19914473491366
      ],
      [
        "▁kabisa",
        -8.199921762566671
      ],
      [
        "hitaji",
        -8.200398252946488
      ],
      [
        "tarajiwa",
        -8.201303450738422
      ],
      [
        "onesha",
        -8.202701146602726
      ],
      [
        "▁Kusini",
        -8.204612072664185
      ],
      [
        "hisi",
        -8.207036624450748
      ],
      [
        "▁P",
        -8.207990748291706
      ],
      [
        "▁shirika",
        -8.208956529558261
      ],
      [
        "saidia",
        -8.210349272325537
      ],
      [
        "▁shughuli",
        -8.212543062678828
      ],
      [
        "patikana",
        -8.213613664075487
      ],
      [
        "▁marufuku",
        -8.214441853744392
      ],
      [
        "amini",
        -8.217178355961735
      ],
      [
        "tangaza",
        -8.219072427593282
      ],
      [
        "▁Mu",
        -8.22044549320133
      ],
      [
        "pokea",
        -8.220566713842029
      ],
      [
        "%",
        -8.222064794009242
      ],
      [
        "funga",
        -8.223212638372688
      ],
      [
        "▁Mkuu",
        -8.224409560899455
      ],
      [
        "▁yoyote",
        -8.226049124738001
      ],
      [
        "gu",
        -8.226969185957197
      ],
      [
        "▁shule",
        -8.23154316029116
      ],
      [
        "▁vijana",
        -8.231963310678664
      ],
      [
        "▁ama",
        -8.233622721392695
      ],
      [
        "julikana",
        -8.234276992692092
      ],
      [
        "nzi",
        -8.235345086328202
      ],
      [
        "▁nini",
        -8.238492047329395
      ],
      [
        "▁kukabiliana",
        -8.240447510501344
      ],
      [
        "sababisha",
        -8.241875469177504
      ],
      [
        "2",
        -8.243172716314593
      ],
      [
        "▁kupunguza",
        -8.243932893171019
      ],
      [
        "▁soka",
        -8.244048784620542
      ],
      [
        "▁simu",
        -8.24424106742055
      ],
      [
        "▁lazima",
        -8.246254339594504
      ],
      [
        "▁kanisa",
        -8.249492937617992
      ],
      [
        "▁nyumba",
        -8.24956775226223
      ],
      [
        "husishwa",
        -8.249925567440014
      ],
      [
        "▁bei",
        -8.249946153104707
      ],
      [
        "▁licha",
        -8.25000804391049
      ],
      [
        "▁matatizo",
        -8.250062714106328
      ],
      [
        "fikia",
        -8.251439195773766
      ],
      [
        "▁mamlaka",
        -8.25898622830822
      ],
      [
        "▁silaha",
        -8.258987241856545
      ],
      [
        "▁kinacho",
        -8.259334681363697
      ],
      [
        "shinda",
        -8.262128327513555
      ],
      [
        "ye",
        -8.262448460435294
      ],
      [
        "▁wakiwa",
        -8.264280612214346
      ],
      [
        "''",
        -8.264435809777797
      ],
      [
        "▁video",
        -8.265095885205136
      ],
      [
        "▁vyombo",
        -8.268168109621767
      ],
      [
        "▁J",
        -8.269451549904431
      ],
      [
        "3",
        -8.270564816176115
      ],
      [
        "▁uwezekano",
        -8.2712926187808
      ],
      [
        "▁Ulaya",
        -8.2740287871949
      ],
      [
        "▁mchezo",
        -8.274325071583652
      ],
      [
        "▁20",
        -8.27557283260418
      ],
      [
        "▁unaweza",
        -8.276484200363907
      ],
      [
        "▁mkopo",
        -8.277429350999597
      ],
      [
        "bo",
        -8.277665683243063
      ],
      [
        "nya",
        -8.280183042553093
      ],
      [
        "▁maafisa",
        -8.283640754265313
      ],
      [
        "shwa",
        -8.283702414078418
      ],
      [
        "▁Hii",
        -8.283923477425708
      ],
      [
        "f",
        -8.284089557784789
      ],
      [
        "▁kifo",
        -8.284348837569576
      ],
      [
        "ita",
        -8.286604029515956
      ],
      [
        "▁kote",
        -8.286851015097426
      ],
      [
        "▁anaweza",
        -8.288611723976807
      ],
      [
        "▁Madrid",
        -8.289633951504339
      ],
      [
        "▁takriban",
        -8.289900542374083
      ],
      [
        "mo",
        -8.289933061061404
      ],
      [
        "su",
        -8.290640139673037
      ],
      [
        "jua",
        -8.29071887301891
      ],
      [
        "▁huo.",
        -8.291047883940426
      ],
      [
        "▁kuongeza",
        -8.292536269421303
      ],
      [
        "ze",
        -8.293929883800942
      ],
      [
        "▁hasa",
        -8.294606506711073
      ],
      [
        "▁ulikuwa",
        -8.298411067774579
      ],
      [
        "▁kidogo",
        -8.299364737948494
      ],
      [
        "P",
        -8.300170971551157
      ],
      [
        "che",
        -8.30479910300005
      ],
      [
        "▁kilicho",
        -8.305448310160706
      ],
      [
        "▁kuli",
        -8.30584172038639
      ],
      [
        "S",
        -8.306613574260073
      ],
      [
        "ishi",
        -8.306706644508385
      ],
      [
        "▁thamani",
        -8.308918717534832
      ],
      [
        "▁tatizo",
        -8.308929093053454
      ],
      [
        "▁uchunguzi",
        -8.312557107757641
      ],
      [
        "1",
        -8.315105293445693
      ],
      [
        "▁wagonjwa",
        -8.315875893058674
      ],
      [
        "fi",
        -8.316351459762295
      ],
      [
        "be",
        -8.31888886596097
      ],
      [
        "▁chake",
        -8.321179993158143
      ],
      [
        "▁lililo",
        -8.32883595673714
      ],
      [
        "▁kwake",
        -8.329930239795994
      ],
      [
        "▁ripoti",
        -8.331321214582733
      ],
      [
        "▁mbele",
        -8.331677156615289
      ],
      [
        "▁kuingia",
        -8.338796921111038
      ],
      [
        "ia",
        -8.339600548645496
      ],
      [
        "al",
        -8.340985242270252
      ],
      [
        "▁Shirika",
        -8.341442143837755
      ],
      [
        "▁uamuzi",
        -8.341873019889103
      ],
      [
        "kubali",
        -8.343758588150799
      ],
      [
        "▁baadaye",
        -8.34467096911644
      ],
      [
        "▁athari",
        -8.348089194205572
      ],
      [
        "▁wako",
        -8.34951717662328
      ],
      [
        "cha",
        -8.350263303724653
      ],
      [
        "iambia",
        -8.35071203920916
      ],
      [
        "▁anasema.",
        -8.35493886215135
      ],
      [
        "ndi",
        -8.355049729172242
      ],
      [
        "▁haja",
        -8.35590689519048
      ],
      [
        "▁chakula",
        -8.358867145208972
      ],
      [
        "▁siasa",
        -8.362354179613103
      ],
      [
        "▁linalo",
        -8.362747884497857
      ],
      [
        "kosi",
        -8.363007353841649
      ],
      [
        "▁namna",
        -8.369216978672556
      ],
      [
        "▁Ba",
        -8.370386013598608
      ],
      [
        "▁tarehe",
        -8.37164660089448
      ],
      [
        "▁Kama",
        -8.372962145288579
      ],
      [
        "poteza",
        -8.374104730482884
      ],
      [
        "▁Uganda",
        -8.374441971875038
      ],
      [
        "▁wasiwasi",
        -8.375060360488686
      ],
      [
        "M",
        -8.378392722333956
      ],
      [
        "▁mbalimbali",
        -8.378484657966462
      ],
      [
        "▁upinzani",
        -8.382341228111354
      ],
      [
        "el",
        -8.38608657960286
      ],
      [
        "▁Je",
        -8.386805962639468
      ],
      [
        "▁La",
        -8.388143751706629
      ],
      [
        "▁michezo",
        -8.388827991889038
      ],
      [
        "▁changamoto",
        -8.388831269199054
      ],
      [
        "▁maana",
        -8.390107086017906
      ],
      [
        "zungumza",
        -8.393553300334172
      ],
      [
        "kuja",
        -8.397111285741985
      ],
      [
        "▁huo,",
        -8.397120197040927
      ],
      [
        "▁moyo",
        -8.40047476833708
      ],
      [
        "9",
        -8.402443596942728
      ],
      [
        "▁gani",
        -8.403037532020447
      ],
      [
        "▁hapa",
        -8.40476990707936
      ],
      [
        "▁Brazil",
        -8.406310861940817
      ],
      [
        "▁haraka",
        -8.406508940198044
      ],
      [
        "pewa",
        -8.406799419407301
      ],
      [
        "▁ndoa",
        -8.40746530752672
      ],
      [
        "▁kusababisha",
        -8.408455868569101
      ],
      [
        "▁miwili",
        -8.409921250120572
      ],
      [
        "▁uhusiano",
        -8.410059549640646
      ],
      [
        "ll",
        -8.413357132986015
      ],
      [
        "ingia",
        -8.414236862577594
      ],
      [
        "B",
        -8.415410973962373
      ],
      [
        "▁binafsi",
        -8.41761934379172
      ],
      [
        "▁wafuasi",
        -8.418424951366687
      ],
      [
        "hu",
        -8.419327418833118
      ],
      [
        "je",
        -8.420235220134206
      ],
      [
        "▁Real",
        -8.420644384855068
      ],
      [
        "▁uki",
        -8.422829136271147
      ],
      [
        "▁ushindi",
        -8.424507480353654
      ],
      [
        "▁humo",
        -8.424932402583288
      ],
      [
        "▁V",
        -8.425762530431609
      ],
      [
        "▁De",
        -8.427672003432214
      ],
      [
        "▁uhamisho",
        -8.427702621423215
      ],
      [
        "▁tiba",
        -8.427743745490364
      ],
      [
        "dai",
        -8.427907373634051
      ],
      [
        "nda",
        -8.428048830583023
      ],
      [
        "▁pauni",
        -8.43494380342554
      ],
      [
        "▁Mwaka",
        -8.435730146714704
      ],
      [
        "do",
        -8.438638056794748
      ],
      [
        "▁mlinzi",
        -8.439641988086038
      ],
      [
        "▁kuzuia",
        -8.439691483165788
      ],
      [
        "▁matibabu",
        -8.440421616113984
      ],
      [
        "T",
        -8.44131860828924
      ],
      [
        "▁kuendelea",
        -8.44287863017071
      ],
      [
        "cheza",
        -8.444166700769621
      ],
      [
        "▁urais",
        -8.444554546438496
      ],
      [
        "aji",
        -8.444985638598968
      ],
      [
        "unga",
        -8.448141754305281
      ],
      [
        "▁saratani",
        -8.449570823018991
      ],
      [
        "▁nina",
        -8.450039928705324
      ],
      [
        "▁bilioni",
        -8.453257766452671
      ],
      [
        "I",
        -8.453708736977605
      ],
      [
        "▁vina",
        -8.454010097380074
      ],
      [
        "▁wake.",
        -8.45423915820643
      ],
      [
        "▁Nigeria",
        -8.454526745135768
      ],
      [
        "▁wangu",
        -8.455782154559252
      ],
      [
        "shiriki",
        -8.460061858692008
      ],
      [
        "▁Hi",
        -8.460487145064896
      ],
      [
        "penda",
        -8.46267468555165
      ],
      [
        "▁makundi",
        -8.464717951785914
      ],
      [
        "▁vili",
        -8.466938723928207
      ],
      [
        "▁dalili",
        -8.468149047143172
      ],
      [
        "isha",
        -8.468963122165103
      ],
      [
        "▁Wana",
        -8.469294487318997
      ],
      [
        "▁Mi",
        -8.470840001490597
      ],
      [
        "▁Ha",
        -8.471192314297383
      ],
      [
        "aadhi",
        -8.47432636787433
      ],
      [
        "de",
        -8.475129676176469
      ],
      [
        "▁rasmi",
        -8.47946974202039
      ],
      [
        "▁dini",
        -8.479583130927235
      ],
      [
        "▁bunge",
        -8.481155489116972
      ],
      [
        "▁Tottenham",
        -8.483271741302573
      ],
      [
        "▁fulani",
        -8.483271992701855
      ],
      [
        "▁yetu",
        -8.483281730699282
      ],
      [
        "▁umma",
        -8.483742236469045
      ],
      [
        "pu",
        -8.485122148491161
      ],
      [
        "▁Kuna",
        -8.48526758962884
      ],
      [
        "▁Ligi",
        -8.487192599287798
      ],
      [
        "▁nyuma",
        -8.490936017010167
      ],
      [
        "▁Ukraine",
        -8.49270204299767
      ],
      [
        "fika",
        -8.493654546462864
      ],
      [
        "▁Magufuli",
        -8.494766108271143
      ],
      [
        "▁mdogo",
        -8.494767541165697
      ],
      [
        "▁vime",
        -8.496285411214524
      ],
      [
        "▁mazoezi",
        -8.49898748761532
      ],
      [
        "▁India",
        -8.500527953747888
      ],
      [
        "▁15",
        -8.501483647099686
      ],
      [
        "▁uongozi",
        -8.503456109028356
      ],
      [
        "fuata",
        -8.50589120334914
      ],
      [
        "▁kijeshi",
        -8.506394532334827
      ],
      [
        "salia",
        -8.506420722254305
      ],
      [
        "beki",
        -8.507707415995153
      ],
      [
        "ge",
        -8.510035568910435
      ],
      [
        "▁hospitali",
        -8.510848203062569
      ],
      [
        "▁kujiunga",
        -8.510900833246868
      ],
      [
        "▁Ana",
        -8.514337979035522
      ],
      [
        "▁usiku",
        -8.514471429222063
      ],
      [
        "dhani",
        -8.516566282627817
      ],
      [
        "▁Watu",
        -8.517492002938097
      ],
      [
        "▁Hu",
        -8.518146759690111
      ],
      [
        "▁kuona",
        -8.518371026204033
      ],
      [
        "j",
        -8.51866545440133
      ],
      [
        "▁wanajeshi",
        -8.519105146847455
      ],
      [
        "▁ingawa",
        -8.522174041517086
      ],
      [
        "▁makubaliano",
        -8.522382518805944
      ],
      [
        "th",
        -8.524012299469105
      ],
      [
        "itwa",
        -8.526175202623577
      ],
      [
        "kabiliwa",
        -8.526727337771817
      ],
      [
        "maanisha",
        -8.527183211265099
      ],
      [
        "▁30",
        -8.529904292981728
      ],
      [
        "▁vizuri",
        -8.530064678906479
      ],
      [
        "▁wafanyakazi",
        -8.53136878354701
      ],
      [
        "ngu",
        -8.532118849548382
      ],
      [
        "ongoza",
        -8.5378179632385
      ],
      [
        "▁via",
        -8.537868388194713
      ],
      [
        "▁historia",
        -8.538079907746503
      ],
      [
        "▁upasuaji",
        -8.538213618819078
      ],
      [
        "▁Ujerumani",
        -8.538275150141288
      ],
      [
        "▁ilisema",
        -8.540205245165982
      ],
      [
        "kataa",
        -8.540842412602746
      ],
      [
        "acha",
        -8.542952802696632
      ],
      [
        "▁uzazi",
        -8.546496377563113
      ],
      [
        "tolewa",
        -8.54756804497704
      ],
      [
        "▁Januari",
        -8.549730155915338
      ],
      [
        "▁maoni",
        -8.554746254022792
      ],
      [
        "R",
        -8.556517101261338
      ],
      [
        "▁yeyote",
        -8.558405787521611
      ],
      [
        "▁binadamu",
        -8.558405793829426
      ],
      [
        "▁ligi",
        -8.558474847410316
      ],
      [
        "▁Kulingana",
        -8.558619845390433
      ],
      [
        "▁Mo",
        -8.56037051053049
      ],
      [
        "▁kweli",
        -8.568200372719492
      ],
      [
        "ruhusu",
        -8.571088012380347
      ],
      [
        "ina",
        -8.571504443610124
      ],
      [
        "▁tume",
        -8.572527991634638
      ],
      [
        "mbo",
        -8.573829820568445
      ],
      [
        "▁ziki",
        -8.573995664786686
      ],
      [
        "▁nyota",
        -8.574977782081127
      ],
      [
        "▁jana",
        -8.576047359338443
      ],
      [
        "▁gharama",
        -8.57915385305554
      ],
      [
        "▁hofu",
        -8.579331583964965
      ],
      [
        "▁F",
        -8.580516183822965
      ],
      [
        "▁miongon",
        -8.580616509723395
      ],
      [
        "▁kituo",
        -8.581598874920068
      ],
      [
        "▁mfano",
        -8.583394331357223
      ],
      [
        "pinga",
        -8.58389599514944
      ],
      [
        "lu",
        -8.587058327091903
      ],
      [
        "▁kikubwa",
        -8.587574680156441
      ],
      [
        "▁Rwanda",
        -8.587584543734767
      ],
      [
        "▁huru",
        -8.587844664826065
      ],
      [
        "wekwa",
        -8.588103785416049
      ],
      [
        "tumika",
        -8.588598462555126
      ],
      [
        "▁kuanzia",
        -8.588923846246184
      ],
      [
        "▁kuzi",
        -8.589440060757429
      ],
      [
        "▁kushinda",
        -8.589933865706211
      ],
      [
        "▁Ina",
        -8.590262563758474
      ],
      [
        "ongeza",
        -8.591194688090269
      ],
      [
        ";",
        -8.591811763276086
      ],
      [
        "▁magonjwa",
        -8.592183679963336
      ],
      [
        "▁Umoja",
        -8.596472513357716
      ],
      [
        "▁vinavyo",
        -8.598786297944098
      ],
      [
        "es",
        -8.599459098997706
      ],
      [
        "▁Bo",
        -8.599485305271667
      ],
      [
        "▁nzuri",
        -8.600340718016781
      ],
      [
        "▁kigeni",
        -8.600516912645608
      ],
      [
        "▁joto",
        -8.600547399291022
      ],
      [
        "▁yuk",
        -8.60107086906726
      ],
      [
        "▁pa",
        -8.602034580813163
      ],
      [
        "▁kucheza",
        -8.6052022555827
      ],
      [
        "lenga",
        -8.607363658286724
      ],
      [
        "son",
        -8.607430215870167
      ],
      [
        "▁naye",
        -8.608615471614982
      ],
      [
        "▁safari",
        -8.608942942764898
      ],
      [
        "▁kuishi",
        -8.608990534660208
      ],
      [
        "▁19",
        -8.609589667775113
      ],
      [
        "▁Serikali",
        -8.609642522406794
      ],
      [
        "se",
        -8.610688906727106
      ],
      [
        "ana",
        -8.613212240569446
      ],
      [
        "▁Chuo",
        -8.613278450597743
      ],
      [
        "▁rahisi",
        -8.613385274595284
      ],
      [
        "▁ange",
        -8.613692726019474
      ],
      [
        "▁mahakama",
        -8.614247037100537
      ],
      [
        "▁huu.",
        -8.614349855786683
      ],
      [
        "▁hiyo,",
        -8.615421344608414
      ],
      [
        "omba",
        -8.617344879235599
      ],
      [
        "▁Paris",
        -8.617639149571573
      ],
      [
        "▁wetu",
        -8.617650124188375
      ],
      [
        "▁kiuchumi",
        -8.617746998059319
      ],
      [
        "▁haija",
        -8.61797552313653
      ],
      [
        "▁kikuu",
        -8.618006067681332
      ],
      [
        "K",
        -8.620075714678844
      ],
      [
        "husika",
        -8.623433551666897
      ],
      [
        "zu",
        -8.62472101665262
      ],
      [
        "man",
        -8.625972845544116
      ],
      [
        "▁mauaji",
        -8.626722190507916
      ],
      [
        "ho",
        -8.626780219472002
      ],
      [
        "badala",
        -8.628128904572488
      ],
      [
        "▁Siku",
        -8.62824448707222
      ],
      [
        "U",
        -8.628725298480543
      ],
      [
        "\",",
        -8.628982081076288
      ],
      [
        "▁uhuru",
        -8.630778618303637
      ],
      [
        "▁mabao",
        -8.632713767493826
      ],
      [
        "chu",
        -8.632770969618775
      ],
      [
        "v",
        -8.635337860383888
      ],
      [
        "▁26",
        -8.636031634097124
      ],
      [
        "▁chache",
        -8.63833474787251
      ],
      [
        "▁kusaidia",
        -8.639643444471975
      ],
      [
        "▁madarakani",
        -8.639697244561232
      ],
      [
        "▁kumnunua",
        -8.640001768407615
      ],
      [
        "chi",
        -8.640067142719962
      ],
      [
        "▁mkutano",
        -8.640179084263213
      ],
      [
        "▁Si",
        -8.64087920085609
      ],
      [
        "du",
        -8.642630633917298
      ],
      [
        "▁kutaka",
        -8.643068118068722
      ],
      [
        "▁uliopita",
        -8.643581647918438
      ],
      [
        "▁dakika",
        -8.648595905330726
      ],
      [
        "ripotiwa",
        -8.651859209516392
      ],
      [
        "▁k",
        -8.652821963699491
      ],
      [
        "▁Ra",
        -8.653519474762405
      ],
      [
        "▁,\"",
        -8.653871013250157
      ],
      [
        "sekt",
        -8.655033301339827
      ],
      [
        "▁ba",
        -8.655302637752502
      ],
      [
        "▁daktari",
        -8.657624880989003
      ],
      [
        "▁ambavyo",
        -8.657625078668666
      ],
      [
        "N",
        -8.659213223434193
      ],
      [
        "va",
        -8.660463102861932
      ],
      [
        "elezea",
        -8.661185125465757
      ],
      [
        "▁Li",
        -8.663228492271951
      ],
      [
        "▁vyama",
        -8.663532799542628
      ],
      [
        "▁ulinzi",
        -8.664091526106887
      ],
      [
        "▁18",
        -8.66515626055199
      ],
      [
        "▁huyu",
        -8.666757989375778
      ],
      [
        "lia",
        -8.667220773074597
      ],
      [
        "▁kufuatia",
        -8.669170823982093
      ],
      [
        "▁kudhibiti",
        -8.669548934557252
      ],
      [
        "▁ilivyo",
        -8.670129925404815
      ],
      [
        "eleza",
        -8.670344393837961
      ],
      [
        "kutana",
        -8.671307786166654
      ],
      [
        "▁mfupi",
        -8.67132970518443
      ],
      [
        "▁mchakato",
        -8.67165066306471
      ],
      [
        "▁tano",
        -8.671725388906502
      ],
      [
        "G",
        -8.671779215536066
      ],
      [
        "▁wenyewe",
        -8.673166932265033
      ],
      [
        "),",
        -8.67408995201582
      ],
      [
        "▁kali",
        -8.674921128607103
      ],
      [
        "▁imani",
        -8.675962570614177
      ],
      [
        "▁amani",
        -8.676606522114845
      ],
      [
        "▁sera",
        -8.677004905061134
      ],
      [
        "▁lilikuwa",
        -8.678508295448726
      ],
      [
        "▁Milan",
        -8.680741092477533
      ],
      [
        "▁Wali",
        -8.681147852260374
      ],
      [
        "▁wamekuwa",
        -8.681231775384841
      ],
      [
        "▁corona.",
        -8.683271438700759
      ],
      [
        "vyo",
        -8.684128554043648
      ],
      [
        "▁nusu",
        -8.68521766731908
      ],
      [
        "▁barani",
        -8.687807829364345
      ],
      [
        "taja",
        -8.688072330121791
      ],
      [
        "▁Waislamu",
        -8.690143701985301
      ],
      [
        "▁mimba",
        -8.69108291361771
      ],
      [
        "▁kikosi",
        -8.691171420219836
      ],
      [
        "paswa",
        -8.69166058703821
      ],
      [
        "▁nne",
        -8.692887814796695
      ],
      [
        "us",
        -8.696270733466335
      ],
      [
        "▁Ja",
        -8.69685599183953
      ],
      [
        "▁kasi",
        -8.697053276685999
      ],
      [
        "ny",
        -8.697778116209257
      ],
      [
        "▁West",
        -8.697787452200192
      ],
      [
        "▁Italia",
        -8.69929936131133
      ],
      [
        "▁yake,",
        -8.69961296554041
      ],
      [
        ",000",
        -8.699953906649903
      ],
      [
        "faa",
        -8.700363499386128
      ],
      [
        "▁viwango",
        -8.704046609548307
      ],
      [
        "▁kidini",
        -8.704047418885683
      ],
      [
        "▁Uhispania",
        -8.704171633560172
      ],
      [
        "ce",
        -8.706266497582751
      ],
      [
        "▁waziri",
        -8.70640123611516
      ],
      [
        "▁\"Ni",
        -8.707236096373551
      ],
      [
        "▁tukio",
        -8.70787697794879
      ],
      [
        "▁zaidi.",
        -8.708502123280907
      ],
      [
        "zaliwa",
        -8.711382706920531
      ],
      [
        "▁Mungu",
        -8.711715241741238
      ],
      [
        "pitia",
        -8.712165923408737
      ],
      [
        "tajwa",
        -8.714086982375804
      ],
      [
        "▁6",
        -8.715665736709258
      ],
      [
        "▁kushindwa",
        -8.71569826825313
      ],
      [
        "▁vitu",
        -8.71571046649602
      ],
      [
        "▁vilivyo",
        -8.716205944029152
      ],
      [
        "▁fursa",
        -8.718391253011635
      ],
      [
        "fahamu",
        -8.719980211700165
      ],
      [
        "ju",
        -8.722766022266025
      ],
      [
        "▁Argentina",
        -8.723222038583128
      ],
      [
        "▁ushahidi",
        -8.723222284272804
      ],
      [
        "▁hazi",
        -8.724212394580796
      ],
      [
        "gundua",
        -8.725065087883209
      ],
      [
        "st",
        -8.725574761248748
      ],
      [
        "''.",
        -8.728146460035656
      ],
      [
        "▁pale",
        -8.728916451838407
      ],
      [
        "▁Al",
        -8.7308356422372
      ],
      [
        "fanikiwa",
        -8.731916089026814
      ],
      [
        "ch",
        -8.732279782105913
      ],
      [
        "▁iliyopita",
        -8.732465799505846
      ],
      [
        "▁Mashariki",
        -8.732954482105086
      ],
      [
        "▁ambako",
        -8.732955945093355
      ],
      [
        "▁salama",
        -8.733123060887529
      ],
      [
        "▁hisia",
        -8.733169116397447
      ],
      [
        "▁leo",
        -8.733426079718642
      ],
      [
        "▁teknolojia",
        -8.734063761625187
      ],
      [
        "▁kocha",
        -8.737879620056631
      ],
      [
        "▁baba",
        -8.738069031276016
      ],
      [
        "▁mu",
        -8.738083499392898
      ],
      [
        "chukuliwa",
        -8.73984238873078
      ],
      [
        "▁kwani",
        -8.740516565680398
      ],
      [
        "nde",
        -8.741914243535383
      ],
      [
        "▁Novemba",
        -8.742782545379011
      ],
      [
        "▁fainali",
        -8.7427825567961
      ],
      [
        "▁ndogo",
        -8.742786616429392
      ],
      [
        "▁mzozo",
        -8.74326978892758
      ],
      [
        "▁bwa",
        -8.744017082735994
      ],
      [
        "▁17",
        -8.744384455897748
      ],
      [
        "leta",
        -8.745053220105632
      ],
      [
        "panga",
        -8.747526994427561
      ],
      [
        "fahamika",
        -8.747855706092011
      ],
      [
        "▁Kiislamu",
        -8.748056884950667
      ],
      [
        "▁Nchi",
        -8.748117164943775
      ],
      [
        "▁mimi",
        -8.7486467203456
      ],
      [
        "▁macho",
        -8.75020717278128
      ],
      [
        "ondoka",
        -8.750477077475349
      ],
      [
        "▁Hatu",
        -8.751119203354069
      ],
      [
        "O",
        -8.751360894480648
      ],
      [
        "▁vifo",
        -8.753015296754363
      ],
      [
        "▁12",
        -8.754418443477228
      ],
      [
        "▁kutafuta",
        -8.754600709344388
      ],
      [
        "zidi",
        -8.755554218083809
      ],
      [
        "▁jinsia",
        -8.755672916990434
      ],
      [
        "iungo",
        -8.757168084340687
      ],
      [
        "▁maumivu",
        -8.75793015279704
      ],
      [
        "hamia",
        -8.758052841947949
      ],
      [
        "ndo",
        -8.758545131330727
      ],
      [
        "fuatilia",
        -8.762551754428166
      ],
      [
        "▁Facebook",
        -8.762733270427352
      ],
      [
        "▁matumaini",
        -8.763079232846465
      ],
      [
        ").",
        -8.763132461534916
      ],
      [
        "▁Ta",
        -8.76362083622955
      ],
      [
        "▁alipokuwa",
        -8.76433291181209
      ],
      [
        "▁mali",
        -8.768537251630255
      ],
      [
        "▁ika",
        -8.76920098083696
      ],
      [
        "ondoa",
        -8.769324057075092
      ],
      [
        "▁Ili",
        -8.7694331254256
      ],
      [
        "baki",
        -8.770798661071783
      ],
      [
        "sho",
        -8.77121699352021
      ],
      [
        "elfu",
        -8.771327852687971
      ],
      [
        "x",
        -8.771919637813472
      ],
      [
        "▁wabunge",
        -8.772079791940062
      ],
      [
        "▁ikiwemo",
        -8.773107353875513
      ],
      [
        "D",
        -8.77410440618935
      ],
      [
        "▁14",
        -8.776407013511722
      ],
      [
        "▁2016",
        -8.77796209431494
      ],
      [
        "▁shaka",
        -8.778063830229858
      ],
      [
        "▁ukweli",
        -8.778168543985274
      ],
      [
        "▁maandamano",
        -8.778284646195969
      ],
      [
        "miliki",
        -8.778422981395803
      ],
      [
        "athiri",
        -8.779393057500474
      ],
      [
        "▁Ben",
        -8.77944050415159
      ],
      [
        "pigwa",
        -8.780074143694765
      ],
      [
        "ar",
        -8.780750740143297
      ],
      [
        "▁Juventus",
        -8.78309016355442
      ],
      [
        "▁Ethiopia",
        -8.783090163616137
      ],
      [
        "▁elimu",
        -8.783090533434732
      ],
      [
        "ck",
        -8.784762159887642
      ],
      [
        "▁Mataifa",
        -8.788245198809003
      ],
      [
        "▁orodha",
        -8.788250601854008
      ],
      [
        "▁akaunti",
        -8.78826024620833
      ],
      [
        "▁Newcastle",
        -8.788613624766986
      ],
      [
        "▁siri",
        -8.791650139429667
      ],
      [
        "▁John",
        -8.793241568858443
      ],
      [
        "▁winga",
        -8.793440958810105
      ],
      [
        "tumiwa",
        -8.79428627979949
      ],
      [
        "▁Machi",
        -8.7945077250145
      ],
      [
        "jumuisha",
        -8.794617067318093
      ],
      [
        "▁inasema",
        -8.796299683189115
      ],
      [
        "▁tuli",
        -8.796985052411612
      ],
      [
        "▁kufunga",
        -8.79831359308545
      ],
      [
        "▁D",
        -8.798451436278805
      ],
      [
        "▁kushiriki",
        -8.798503925888522
      ],
      [
        "▁wowote",
        -8.798634483261406
      ],
      [
        "ur",
        -8.79889285381268
      ],
      [
        "zungumzia",
        -8.79915953881142
      ],
      [
        "▁\"ku",
        -8.800473490388029
      ],
      [
        "▁kumu",
        -8.800522951319936
      ],
      [
        "▁100",
        -8.802793236086632
      ],
      [
        "▁Bunge",
        -8.804051086863069
      ],
      [
        "▁rangi",
        -8.80920370326073
      ],
      [
        "▁saba",
        -8.80922809923609
      ],
      [
        "▁duniani.",
        -8.80943318609204
      ],
      [
        "▁mapato",
        -8.809455806080546
      ],
      [
        "...",
        -8.812699297124318
      ],
      [
        "shawishi",
        -8.812730249804707
      ],
      [
        "▁sana.",
        -8.815090390479513
      ],
      [
        "▁Kiku",
        -8.815466279724749
      ],
      [
        "▁Covid-19",
        -8.817790376094251
      ],
      [
        "he",
        -8.819470245949914
      ],
      [
        "ongezeka",
        -8.820363044193483
      ],
      [
        "kwenda",
        -8.823071231424096
      ],
      [
        "▁mashariki",
        -8.825091000528406
      ],
      [
        "▁nguo",
        -8.825177767113988
      ],
      [
        "▁ile",
        -8.825411828592308
      ],
      [
        "▁mgombea",
        -8.825971842379502
      ],
      [
        "'',",
        -8.82623861171217
      ],
      [
        "E",
        -8.827342368409365
      ],
      [
        "s,",
        -8.827453407075932
      ],
      [
        "▁ta",
        -8.82979612070108
      ],
      [
        "▁kusini",
        -8.830687442411177
      ],
      [
        "▁soko",
        -8.832660137357163
      ],
      [
        "▁wataalamu",
        -8.833939667668737
      ],
      [
        "she",
        -8.835225576773732
      ],
      [
        "shindwa",
        -8.835529304463666
      ],
      [
        "angazia",
        -8.835877507225163
      ],
      [
        "husiana",
        -8.836190440935432
      ],
      [
        "▁Anasema",
        -8.836776566716047
      ],
      [
        "▁Juni",
        -8.83706295717619
      ],
      [
        "▁basi",
        -8.837378432875193
      ],
      [
        "▁16",
        -8.839668740737611
      ],
      [
        "▁8",
        -8.83981952900966
      ],
      [
        "▁muziki",
        -8.842139664916616
      ],
      [
        "▁tabia",
        -8.84232604876204
      ],
      [
        "▁Dar",
        -8.843221748169416
      ],
      [
        "fikiria",
        -8.844866864130807
      ],
      [
        "ve",
        -8.845441378605855
      ],
      [
        "tegemea",
        -8.84644414551138
      ],
      [
        "co",
        -8.846653772909853
      ],
      [
        "▁mafanikio",
        -8.846941210824255
      ],
      [
        "▁40",
        -8.84864266585987
      ],
      [
        "▁9",
        -8.849733760848697
      ],
      [
        "▁lita",
        -8.85269100030483
      ],
      [
        "▁de",
        -8.852950670710094
      ],
      [
        "▁11",
        -8.85481462457965
      ],
      [
        "▁mtandaoni",
        -8.854955347618342
      ],
      [
        "▁21",
        -8.856040636522078
      ],
      [
        "▁jukumu",
        -8.857791701626308
      ],
      [
        "▁Nili",
        -8.858328377179529
      ],
      [
        "▁Ingawa",
        -8.858486871975156
      ],
      [
        "karibia",
        -8.859186113204093
      ],
      [
        "kiwa",
        -8.859542252347971
      ],
      [
        "shambuliaji",
        -8.861519692964766
      ],
      [
        "▁yako",
        -8.862983539110424
      ],
      [
        "▁mitatu",
        -8.86362622959459
      ],
      [
        "badilisha",
        -8.867085866922775
      ],
      [
        "▁benki",
        -8.868933686958208
      ],
      [
        "▁Marekani.",
        -8.872395153121785
      ],
      [
        "▁akisema",
        -8.872617189002817
      ],
      [
        "ili",
        -8.872917513390561
      ],
      [
        "radi",
        -8.873938220150404
      ],
      [
        "▁visa",
        -8.874403329739874
      ],
      [
        "▁ngono",
        -8.87456231730926
      ],
      [
        "▁vifaa",
        -8.87539870227365
      ],
      [
        "L",
        -8.877275730841724
      ],
      [
        "▁kinga",
        -8.878509918810614
      ],
      [
        "▁Ham",
        -8.880134367444967
      ],
      [
        "▁mazingira",
        -8.880452469147484
      ],
      [
        "▁usajili",
        -8.880951823227328
      ],
      [
        "tafuta",
        -8.881071093609151
      ],
      [
        "▁\"M",
        -8.883291162126941
      ],
      [
        "▁mwenyewe",
        -8.884466386435495
      ],
      [
        "▁msaada",
        -8.885883936614217
      ],
      [
        "▁mzuri",
        -8.885887610376276
      ],
      [
        "▁uwanja",
        -8.888641329957025
      ],
      [
        "▁ghasia",
        -8.891597920656444
      ],
      [
        "▁vikwazo",
        -8.891601958982083
      ],
      [
        "▁kisheria",
        -8.891715865525772
      ],
      [
        "▁kime",
        -8.892833239558907
      ],
      [
        "▁zita",
        -8.893620635144668
      ],
      [
        "jitokeza",
        -8.895235238774578
      ],
      [
        "▁lengo",
        -8.897362579269714
      ],
      [
        "▁chuo",
        -8.897443299137489
      ],
      [
        "▁7",
        -8.897813129936274
      ],
      [
        "hudumu",
        -8.897879300364519
      ],
      [
        "▁rekodi",
        -8.900178072291844
      ],
      [
        "▁The",
        -8.900359769085703
      ],
      [
        "ngi",
        -8.901455393913725
      ],
      [
        "▁kununua",
        -8.90223706783247
      ],
      [
        "▁kitaifa",
        -8.903164404487729
      ],
      [
        "▁msingi",
        -8.903694732720375
      ],
      [
        "▁ukose",
        -8.903717518349804
      ],
      [
        "▁Bw.",
        -8.906137188341383
      ],
      [
        "▁25",
        -8.908654435159757
      ],
      [
        "▁ajira",
        -8.908960335634443
      ],
      [
        "▁unyanyasaji",
        -8.909172434870165
      ],
      [
        "F",
        -8.909284634957089
      ],
      [
        "is",
        -8.911136007560476
      ],
      [
        "▁asili",
        -8.911355955575019
      ],
      [
        "▁haiku",
        -8.912284427005721
      ],
      [
        "ss",
        -8.914957051135463
      ],
      [
        "▁masharti",
        -8.91513191254672
      ],
      [
        "▁majaribio",
        -8.915156428223906
      ],
      [
        "jibu",
        -8.915788587172838
      ],
      [
        "▁huu,",
        -8.916944178039037
      ],
      [
        "▁kuongezeka",
        -8.917513608772719
      ],
      [
        "▁ndiy",
        -8.917664525176338
      ],
      [
        "▁akili",
        -8.919234417790829
      ],
      [
        "▁kutengeneza",
        -8.919866953076891
      ],
      [
        "H",
        -8.919985356743322
      ],
      [
        "rejea",
        -8.920452481801497
      ],
      [
        "▁Dkt",
        -8.92052501033466
      ],
      [
        "▁magari",
        -8.92067625609096
      ],
      [
        "rudi",
        -8.921317743782769
      ],
      [
        "▁waandishi",
        -8.924444644459253
      ],
      [
        "▁Museveni",
        -8.92658621089301
      ],
      [
        "▁Samia",
        -8.926919287117531
      ],
      [
        "▁nime",
        -8.927834343344756
      ],
      [
        "▁hawaku",
        -8.929233978302811
      ],
      [
        "tia",
        -8.93234712842532
      ],
      [
        "▁Ureno",
        -8.932540889956195
      ],
      [
        "or",
        -8.932716128268485
      ],
      [
        "▁kurejea",
        -8.934500942216065
      ],
      [
        "▁Alisema",
        -8.934934430472584
      ],
      [
        "▁mikono",
        -8.93512393022121
      ],
      [
        "▁Hali",
        -8.935196983962829
      ],
      [
        "chezaji",
        -8.935873997984816
      ],
      [
        "▁wagombea",
        -8.93856094639354
      ],
      [
        "shauri",
        -8.939505523478307
      ],
      [
        "▁wake,",
        -8.940015827928512
      ],
      [
        "▁wasio",
        -8.940442986690606
      ],
      [
        "▁mke",
        -8.942999881749971
      ],
      [
        "▁50",
        -8.943054235894618
      ],
      [
        "▁Di",
        -8.943658953982528
      ],
      [
        "▁vigumu",
        -8.944551795955242
      ],
      [
        "▁vibaya",
        -8.944689338863213
      ],
      [
        "zuia",
        -8.945743338463748
      ],
      [
        "▁mwandishi",
        -8.945857724380172
      ],
      [
        "mfanya",
        -8.948388926684798
      ],
      [
        "▁bara",
        -8.949972958207114
      ],
      [
        "▁5",
        -8.950033194008707
      ],
      [
        "▁iko",
        -8.950727369850238
      ],
      [
        "▁Uholanzi",
        -8.950977966758778
      ],
      [
        "▁Pa",
        -8.9520967239926
      ],
      [
        "▁Ho",
        -8.952124409430894
      ],
      [
        "ed",
        -8.952275859551264
      ],
      [
        "daiwa",
        -8.953127141850153
      ],
      [
        "▁maalum",
        -8.953556116860025
      ],
      [
        "hakikisha",
        -8.954769056405656
      ],
      [
        "▁(Football",
        -8.956708879037452
      ],
      [
        "hoji",
        -8.958374376578902
      ],
      [
        "▁ilipo",
        -8.958842449188575
      ],
      [
        "▁alim",
        -8.96026299333365
      ],
      [
        "▁nilikuwa",
        -8.961653220974128
      ],
      [
        "▁faida",
        -8.962847410165669
      ],
      [
        "▁hiki",
        -8.962886154298445
      ],
      [
        "▁kodi",
        -8.962908547460888
      ],
      [
        "▁je",
        -8.964938936499847
      ],
      [
        "takiwa",
        -8.9653130372171
      ],
      [
        "badilika",
        -8.968086319814457
      ],
      [
        "▁St-Germain",
        -8.969016687856591
      ],
      [
        "▁mashirika",
        -8.969751570543867
      ],
      [
        "uza",
        -8.969964639799873
      ],
      [
        "uliza",
        -8.97445879253885
      ],
      [
        "▁kuelekea",
        -8.9750967428096
      ],
      [
        "▁jumla",
        -8.975227913438726
      ],
      [
        "▁mashabiki",
        -8.975586366168494
      ],
      [
        "▁wananchi",
        -8.975771792894015
      ],
      [
        "▁kiume",
        -8.976000702170246
      ],
      [
        "fanyiwa",
        -8.976128637848433
      ],
      [
        "▁Joe",
        -8.976153687039695
      ],
      [
        "▁kuondoa",
        -8.978633018860023
      ],
      [
        "▁shinikizo",
        -8.981489677686657
      ],
      [
        "▁ishara",
        -8.981498727210743
      ],
      [
        "▁makampuni",
        -8.981852746845387
      ],
      [
        "▁majimbo",
        -8.981981129265591
      ],
      [
        "▁malipo",
        -8.9824588032163
      ],
      [
        "00",
        -8.985092566701868
      ],
      [
        "kosa",
        -8.986398256612127
      ],
      [
        "vutia",
        -8.986628413518734
      ],
      [
        "▁gazeti",
        -8.987767187095539
      ],
      [
        "▁ngumu",
        -8.987782647956763
      ],
      [
        "▁moto",
        -8.98784113711331
      ],
      [
        "▁Afya",
        -8.987903817967233
      ],
      [
        "▁itakuwa",
        -8.988592218717294
      ],
      [
        "ie",
        -8.991577795937147
      ],
      [
        "anzisha",
        -8.992633194320224
      ],
      [
        "▁Tu",
        -8.993327502964249
      ],
      [
        "tuma",
        -8.993484451540576
      ],
      [
        "▁Spanish)",
        -8.994096290083702
      ],
      [
        "▁Everton",
        -8.994096332748727
      ],
      [
        "▁vilabu",
        -8.994099580664043
      ],
      [
        "▁mitano",
        -8.994266270164236
      ],
      [
        "▁mawili",
        -8.9946836726836
      ],
      [
        "▁London",
        -8.994879181631259
      ],
      [
        "▁3",
        -8.996175454885341
      ],
      [
        "▁wazazi",
        -8.99757072121457
      ],
      [
        "▁H",
        -8.999861229532204
      ],
      [
        "▁Qatar",
        -9.000465731905425
      ],
      [
        "▁mipango",
        -9.00046608423859
      ],
      [
        "▁sauti",
        -9.000467369743223
      ],
      [
        "▁ongezeko",
        -9.00047449568981
      ],
      [
        "changia",
        -9.001676010245173
      ],
      [
        "▁mingi",
        -9.001856865598658
      ],
      [
        "vunja",
        -9.005940909759973
      ],
      [
        "mbi",
        -9.006087973215706
      ],
      [
        "▁Tigray",
        -9.006875973261156
      ],
      [
        "▁shambulio",
        -9.006875986683458
      ],
      [
        "▁Jumapili",
        -9.006876051406454
      ],
      [
        "▁Taliban",
        -9.006876079679852
      ],
      [
        "▁taasisi",
        -9.00694133150104
      ],
      [
        "▁4",
        -9.007457490045383
      ],
      [
        "▁13",
        -9.012368934655232
      ],
      [
        "▁\"U",
        -9.013242071073812
      ],
      [
        "▁filamu",
        -9.013327622997974
      ],
      [
        "▁Agosti",
        -9.013327746640632
      ],
      [
        "▁Bayern",
        -9.013466192070323
      ],
      [
        "▁wanataka",
        -9.01416563559859
      ],
      [
        "▁Tume",
        -9.015275105287966
      ],
      [
        "dhi",
        -9.015775838923119
      ],
      [
        "fungwa",
        -9.019424983877872
      ],
      [
        "▁asubuhi",
        -9.019821092682214
      ],
      [
        "▁risasi",
        -9.019821206570924
      ],
      [
        "▁chochote",
        -9.019822412840636
      ],
      [
        "▁Aprili",
        -9.020047925164821
      ],
      [
        "▁Mei",
        -9.020127184378302
      ],
      [
        "▁hakuwa",
        -9.021653601425161
      ],
      [
        "▁Co",
        -9.022411653364806
      ],
      [
        "▁kubadilisha",
        -9.022804059561421
      ],
      [
        "fanywa",
        -9.025022661706434
      ],
      [
        "sem",
        -9.025420064647058
      ],
      [
        "▁ndiyo",
        -9.025620526584037
      ],
      [
        "▁Afghanistan",
        -9.026357051504002
      ],
      [
        "▁alama",
        -9.026364256936422
      ],
      [
        "simamia",
        -9.027017824561097
      ],
      [
        "▁ushawishi",
        -9.028467736163208
      ],
      [
        "▁barua",
        -9.028532114599415
      ],
      [
        "▁New",
        -9.02870027894554
      ],
      [
        "▁watatu",
        -9.03066879094697
      ],
      [
        "endesha",
        -9.03229419822097
      ],
      [
        "▁Oktoba",
        -9.03293598844613
      ],
      [
        "▁vyema",
        -9.032936387863755
      ],
      [
        "▁mawazo",
        -9.032953424363862
      ],
      [
        "shuhudia",
        -9.032962656825243
      ],
      [
        "▁mashambulizi",
        -9.033767491377965
      ],
      [
        "▁madaktari",
        -9.034186561695172
      ],
      [
        "▁kula",
        -9.03602352821573
      ],
      [
        "dha",
        -9.036311613171588
      ],
      [
        "hitajika",
        -9.036516563712413
      ],
      [
        "liwa",
        -9.036949521605193
      ],
      [
        "W",
        -9.03909330788765
      ],
      [
        "ripoti",
        -9.039434312284168
      ],
      [
        "▁mpira",
        -9.039565816972598
      ],
      [
        "husu",
        -9.039760903557738
      ],
      [
        "athirika",
        -9.040568773387804
      ],
      [
        "ika",
        -9.045786110507494
      ],
      [
        "▁watumiaji",
        -9.046008075820746
      ],
      [
        "▁juhudi",
        -9.046225173020899
      ],
      [
        "▁Nairobi",
        -9.046225177932405
      ],
      [
        "▁mbinu",
        -9.046225726545416
      ],
      [
        "▁mashindano",
        -9.046226375345135
      ],
      [
        "▁wanachama",
        -9.046229740205654
      ],
      [
        "▁Misri",
        -9.04623379793006
      ],
      [
        "▁David",
        -9.046236220786316
      ],
      [
        "▁zingine",
        -9.046264702018785
      ],
      [
        "nyo",
        -9.046344374881077
      ],
      [
        "▁utajiri",
        -9.046648079334334
      ],
      [
        "▁Taiwan",
        -9.046703043064287
      ],
      [
        "onya",
        -9.047527234700343
      ],
      [
        "tetea",
        -9.047553474769789
      ],
      [
        "▁walipo",
        -9.04844316699751
      ],
      [
        "et",
        -9.049281980113996
      ],
      [
        "▁St",
        -9.050088632947556
      ],
      [
        "tawala",
        -9.050785398107148
      ],
      [
        "▁wasichana",
        -9.051798330335371
      ],
      [
        "▁\"Nili",
        -9.052472861774152
      ],
      [
        "tengenezwa",
        -9.052936580532075
      ],
      [
        "Donald",
        -9.05294536883058
      ],
      [
        "▁ngazi",
        -9.052983634761782
      ],
      [
        "▁kaskazini",
        -9.059693337156222
      ],
      [
        "▁mahojiano",
        -9.059693484730708
      ],
      [
        "▁michuano",
        -9.059747084339659
      ],
      [
        "thibitisha",
        -9.060068107214263
      ],
      [
        "▁matukio",
        -9.060157833405235
      ],
      [
        "▁miji",
        -9.061043046193397
      ],
      [
        "▁kujua",
        -9.063118878327934
      ],
      [
        "▁Da",
        -9.065270401014725
      ],
      [
        "▁lenye",
        -9.0658030863235
      ],
      [
        "▁Odinga",
        -9.066496917194176
      ],
      [
        "▁Musk",
        -9.066684961625082
      ],
      [
        "▁mume",
        -9.068353884230458
      ],
      [
        "▁Marekani,",
        -9.069483453514383
      ],
      [
        "▁\"u",
        -9.069934905212179
      ],
      [
        "id",
        -9.07054452839061
      ],
      [
        "▁Cha",
        -9.071840361433255
      ],
      [
        "▁Munich",
        -9.073346692260234
      ],
      [
        "▁Zaidi",
        -9.073392364179483
      ],
      [
        "▁Ruto",
        -9.073776348502452
      ],
      [
        "▁\"Kwa",
        -9.073862234372694
      ],
      [
        "lipa",
        -9.074285177463107
      ],
      [
        "▁23,",
        -9.074756121283315
      ],
      [
        "kuwepo",
        -9.074957429317227
      ],
      [
        "▁25,",
        -9.075577463030996
      ],
      [
        "▁2018",
        -9.076963261444671
      ],
      [
        "▁liki",
        -9.078099708492779
      ],
      [
        "▁halisi",
        -9.078148486148521
      ],
      [
        "▁mlipuko",
        -9.080604616164806
      ],
      [
        "lianza",
        -9.081847812351183
      ],
      [
        "▁\"Na",
        -9.082305006571787
      ],
      [
        "▁umeme",
        -9.082731715664533
      ],
      [
        ".''",
        -9.083501192852406
      ],
      [
        "sikia",
        -9.083745724853184
      ],
      [
        "▁aliambia",
        -9.084064384473304
      ],
      [
        "▁kuimarisha",
        -9.084312591260186
      ],
      [
        "panda",
        -9.084781016893853
      ],
      [
        "▁aliongeza",
        -9.08745365053423
      ],
      [
        "▁makazi",
        -9.087697926905324
      ],
      [
        "▁magharibi",
        -9.088226456730851
      ],
      [
        "tumwa",
        -9.09074121939737
      ],
      [
        "▁Lu",
        -9.091536887393698
      ],
      [
        "kata",
        -9.09166411907336
      ],
      [
        "▁wanapo",
        -9.093601552665103
      ],
      [
        "▁imesema",
        -9.093661351920105
      ],
      [
        "▁kutosha",
        -9.093869894620786
      ],
      [
        "▁zenye",
        -9.094181704232353
      ],
      [
        "▁mawasiliano",
        -9.094358589607317
      ],
      [
        "▁vingine",
        -9.094679095360034
      ],
      [
        "▁mahali",
        -9.095631271068655
      ],
      [
        "husisha",
        -9.096341247151152
      ],
      [
        "andika",
        -9.096461528661683
      ],
      [
        "▁ofisi",
        -9.097916885460709
      ],
      [
        "▁Huku",
        -9.099200392401734
      ],
      [
        "beba",
        -9.09952782056321
      ],
      [
        "▁waka",
        -9.10021983465089
      ],
      [
        "▁zisizo",
        -9.101271177234208
      ],
      [
        "▁kibiashara",
        -9.101324187533852
      ],
      [
        "▁yao.",
        -9.101344050651512
      ],
      [
        "▁Magharibi",
        -9.10163496697254
      ],
      [
        "▁uhalifu",
        -9.101903155558677
      ],
      [
        "▁madhara",
        -9.102166054508602
      ],
      [
        "ekana",
        -9.105303870541633
      ],
      [
        "▁walisema",
        -9.10709056206294
      ],
      [
        "▁‘’",
        -9.108336437780611
      ],
      [
        "▁minne",
        -9.108422678250985
      ],
      [
        "▁kisha",
        -9.110081904327398
      ],
      [
        "▁Ro",
        -9.110893462322803
      ],
      [
        "▁Ga",
        -9.111253041723778
      ],
      [
        "▁katikati",
        -9.11133204742752
      ],
      [
        "▁So",
        -9.111895711487893
      ],
      [
        "lazimik",
        -9.112008753718735
      ],
      [
        "bidi",
        -9.11428527052011
      ],
      [
        "▁baadae",
        -9.115218601415359
      ],
      [
        "pendekeza",
        -9.115456700470755
      ],
      [
        "▁kifedha",
        -9.115456838647933
      ],
      [
        "▁Jumatatu",
        -9.115460838285525
      ],
      [
        "▁maelezo",
        -9.115849722774517
      ],
      [
        "iki",
        -9.116534212716854
      ],
      [
        "ran",
        -9.1174576809439
      ],
      [
        "ashiria",
        -9.119348906631718
      ],
      [
        "tarajia",
        -9.121895736635063
      ],
      [
        "▁ngozi",
        -9.122687571758405
      ],
      [
        "▁Su",
        -9.12275687026923
      ],
      [
        "ongozwa",
        -9.1228352311636
      ],
      [
        "J",
        -9.12299815623117
      ],
      [
        "mia",
        -9.12330898139951
      ],
      [
        "um",
        -9.12538681915348
      ],
      [
        "▁Re",
        -9.12692579637489
      ],
      [
        "▁kutekeleza",
        -9.128042263178337
      ],
      [
        "jiunga",
        -9.128729874701362
      ],
      [
        "▁ubongo",
        -9.12989885923697
      ],
      [
        "▁wateja",
        -9.129991334797126
      ],
      [
        "▁wachache",
        -9.130703834185365
      ],
      [
        "▁Licha",
        -9.131122691368137
      ],
      [
        "▁kumaliza",
        -9.136135513239783
      ],
      [
        "▁ilio",
        -9.137046828219972
      ],
      [
        "▁1",
        -9.137099271265317
      ],
      [
        "▁Instagram",
        -9.137196577149078
      ],
      [
        "▁miguu",
        -9.137198766538832
      ],
      [
        "▁vingi",
        -9.13766805792274
      ],
      [
        "▁meneja",
        -9.13914544532031
      ],
      [
        "▁f",
        -9.14098372325121
      ],
      [
        "bali",
        -9.141481307349881
      ],
      [
        "▁kufanyika",
        -9.142948342740453
      ],
      [
        "▁ujenzi",
        -9.144550457718026
      ],
      [
        "▁hewa",
        -9.144612672579509
      ],
      [
        "▁Tangu",
        -9.144849567164027
      ],
      [
        "▁vituo",
        -9.145385574820594
      ],
      [
        "ali",
        -9.145679647860895
      ],
      [
        "▁mgonjwa",
        -9.145862622040909
      ],
      [
        "▁60",
        -9.146232953575897
      ],
      [
        "▁kupoteza",
        -9.146682753153286
      ],
      [
        "takuwa",
        -9.147878018296694
      ],
      [
        "▁hawana",
        -9.147916415197574
      ],
      [
        "▁William",
        -9.148371170547467
      ],
      [
        "uzi",
        -9.149518009727785
      ],
      [
        "▁Villa",
        -9.151965937014467
      ],
      [
        "▁sherehe",
        -9.151975734781438
      ],
      [
        "▁mbio",
        -9.152127091095174
      ],
      [
        "▁umaarufu",
        -9.152220467979376
      ],
      [
        "▁data",
        -9.15228448081075
      ],
      [
        "▁hilo,",
        -9.152651600660736
      ],
      [
        "ele",
        -9.152717783564274
      ],
      [
        "▁kulipa",
        -9.153403281552606
      ],
      [
        "▁BBC.",
        -9.154332424815978
      ],
      [
        "▁ule",
        -9.154465317246185
      ],
      [
        "thi",
        -9.156825594443099
      ],
      [
        "]",
        -9.15941961230008
      ],
      [
        "▁Utafiti",
        -9.160114515114438
      ],
      [
        "▁maendeleo",
        -9.160343497518308
      ],
      [
        "▁kuonekana",
        -9.160596998684621
      ],
      [
        "▁mtaalamu",
        -9.16091416544996
      ],
      [
        "0,000",
        -9.161367662490251
      ],
      [
        "dhibiti",
        -9.161747208701112
      ],
      [
        "▁alivyo",
        -9.162461088907758
      ],
      [
        "▁alianza",
        -9.163263462008857
      ],
      [
        "wito",
        -9.1634342313802
      ],
      [
        "soma",
        -9.166570068520821
      ],
      [
        "stahili",
        -9.166938433568411
      ],
      [
        "▁mafunzo",
        -9.166940778932219
      ],
      [
        "▁Kenyatta",
        -9.16694872899346
      ],
      [
        "▁pombe",
        -9.167007040647196
      ],
      [
        ",''",
        -9.167325128009423
      ],
      [
        "ly",
        -9.167597074414216
      ],
      [
        "▁(Mail)",
        -9.167611153543717
      ],
      [
        "▁Polisi",
        -9.167674883341821
      ],
      [
        "▁marafiki",
        -9.16803942653927
      ],
      [
        "▁kufungwa",
        -9.168460239544299
      ],
      [
        "▁kuya",
        -9.16908943431459
      ],
      [
        "fikiri",
        -9.169449768578794
      ],
      [
        "ry",
        -9.173742304128089
      ],
      [
        "▁li",
        -9.174096833703121
      ],
      [
        "▁El",
        -9.174234498828564
      ],
      [
        "▁Leicester",
        -9.174514166923377
      ],
      [
        "▁Ijumaa",
        -9.174514176102225
      ],
      [
        "▁Inter",
        -9.174558188239097
      ],
      [
        "▁[",
        -9.175156187890561
      ],
      [
        "▁wanafunzi",
        -9.177231275490662
      ],
      [
        "so",
        -9.177292307671074
      ],
      [
        "nzo",
        -9.178937161696151
      ],
      [
        "▁Ame",
        -9.179033862460015
      ],
      [
        "▁hawaja",
        -9.180016459601557
      ],
      [
        "one",
        -9.180247014555363
      ],
      [
        "▁Le",
        -9.180321298023593
      ],
      [
        "▁kupinga",
        -9.181053845217242
      ],
      [
        "ston",
        -9.181464981551807
      ],
      [
        "▁subscription",
        -9.18214775465458
      ],
      [
        "▁Dortmund",
        -9.182147754659507
      ],
      [
        "▁Mahakama",
        -9.182148248094833
      ],
      [
        "▁kinyume",
        -9.182177131411791
      ],
      [
        "aarifa",
        -9.182251837463788
      ],
      [
        "▁isiyo",
        -9.182255273173606
      ],
      [
        "▁kutokea",
        -9.182261886958443
      ],
      [
        "▁vipimo",
        -9.182323416598061
      ],
      [
        "▁maswali",
        -9.18357790486962
      ],
      [
        "▁amri",
        -9.183850970111017
      ],
      [
        "▁anga",
        -9.184349177129913
      ],
      [
        "athiriwa",
        -9.184611536002647
      ],
      [
        "gi",
        -9.184941059922139
      ],
      [
        "punguza",
        -9.18534846050102
      ],
      [
        "▁wanamgambo",
        -9.185394336280101
      ],
      [
        "▁mbadala",
        -9.186822466687534
      ],
      [
        "▁kuwepo",
        -9.188939692082474
      ],
      [
        "▁iliyopita,",
        -9.189101618855247
      ],
      [
        "▁Jo",
        -9.189430362924377
      ],
      [
        "▁sahihi",
        -9.189840152951103
      ],
      [
        "▁2014",
        -9.189840256274355
      ],
      [
        "▁heshima",
        -9.189840566878303
      ],
      [
        "▁maneno",
        -9.189842537925257
      ],
      [
        "▁kibinafsi",
        -9.189944821581435
      ],
      [
        "▁viwanda",
        -9.190027892722412
      ],
      [
        "▁(Sun)",
        -9.190075230629803
      ],
      [
        "twa",
        -9.192861777555454
      ],
      [
        "▁inavyo",
        -9.193817849853726
      ],
      [
        "▁2020",
        -9.194147162862468
      ],
      [
        "▁Kab",
        -9.195611371492888
      ],
      [
        "▁Mara",
        -9.196132330904195
      ],
      [
        "▁kujaribu",
        -9.19655200635023
      ],
      [
        "chezea",
        -9.197114671467354
      ],
      [
        "wezesha",
        -9.197476637802824
      ],
      [
        "▁msimam",
        -9.197589095013505
      ],
      [
        "▁Julai",
        -9.198929061010958
      ],
      [
        "▁kuzungumza",
        -9.199509891140297
      ],
      [
        "elewa",
        -9.201330907708439
      ],
      [
        "▁mw",
        -9.202108248798218
      ],
      [
        "kuruge",
        -9.202729230395978
      ],
      [
        "▁Robert",
        -9.205413532422387
      ],
      [
        "▁.\"",
        -9.205832315859313
      ],
      [
        "▁(Mirror)",
        -9.205863412624378
      ],
      [
        "▁zi",
        -9.205971136819207
      ],
      [
        "▁\"m",
        -9.206649998707613
      ],
      [
        "▁wanasiasa",
        -9.206763032911711
      ],
      [
        "tazama",
        -9.208778001759132
      ],
      [
        "▁23",
        -9.209721571578068
      ],
      [
        "▁haita",
        -9.209862733002373
      ],
      [
        "▁kunaweza",
        -9.211985523459859
      ],
      [
        "▁Jumamosi",
        -9.213278568202462
      ],
      [
        "▁mtazamo",
        -9.213629272356203
      ],
      [
        "▁usaidizi",
        -9.213691294907978
      ],
      [
        "▁ila",
        -9.214357349472943
      ],
      [
        "▁makosa",
        -9.214949866083142
      ],
      [
        "▁Fa",
        -9.219987625810013
      ],
      [
        "▁Ya",
        -9.221008574710618
      ],
      [
        "▁uzoefu",
        -9.22121504194139
      ],
      [
        "▁waumini",
        -9.221220605868757
      ],
      [
        "▁ukuaji",
        -9.221228977383237
      ],
      [
        "▁hisa",
        -9.221245454385564
      ],
      [
        "▁kambi",
        -9.2213059500506
      ],
      [
        "▁Septemba",
        -9.22157654772117
      ],
      [
        "elekea",
        -9.222660185899029
      ],
      [
        "▁niki",
        -9.223053601973394
      ],
      [
        "▁Ronaldo",
        -9.22322308080452
      ],
      [
        "▁2019",
        -9.225195186382479
      ],
      [
        "kumbuka",
        -9.225999258102103
      ],
      [
        "pungua",
        -9.228234645396956
      ],
      [
        "▁gari",
        -9.229286727804219
      ],
      [
        "▁James",
        -9.229315225977667
      ],
      [
        "tt",
        -9.229610382819548
      ],
      [
        "▁mkali",
        -9.230453958580433
      ],
      [
        "▁kumi",
        -9.23137168316282
      ],
      [
        "▁yalio",
        -9.23373596702102
      ],
      [
        "▁ulimwengu",
        -9.234119434171628
      ],
      [
        "pita",
        -9.23434651775643
      ],
      [
        "▁kuamua",
        -9.235200225472479
      ],
      [
        "▁nyuklia",
        -9.23727981384964
      ],
      [
        "▁Vita",
        -9.238565499597225
      ],
      [
        "mpa",
        -9.238803079703189
      ],
      [
        "▁kuanzisha",
        -9.239173398098549
      ],
      [
        "Hakuna",
        -9.240861355686613
      ],
      [
        "▁22",
        -9.241565270553558
      ],
      [
        "▁kupambana",
        -9.241790915355256
      ],
      [
        "▁kukaa",
        -9.24366300876408
      ],
      [
        "angalia",
        -9.244666732583694
      ],
      [
        "▁lolote",
        -9.245409653266142
      ],
      [
        "▁Muungano",
        -9.245409880272156
      ],
      [
        "▁Covid",
        -9.245409927018066
      ],
      [
        "▁Kocha",
        -9.245617332545336
      ],
      [
        "▁kandarasi",
        -9.246417609328988
      ],
      [
        "▁anapo",
        -9.24713376652884
      ],
      [
        "▁inge",
        -9.248001628924962
      ],
      [
        "▁kike",
        -9.250650476430406
      ],
      [
        "▁An",
        -9.250785845716102
      ],
      [
        "▁kukubali",
        -9.251670068055924
      ],
      [
        "mbe",
        -9.251753126499953
      ],
      [
        "peleka",
        -9.25193038287695
      ],
      [
        "▁Sport",
        -9.252046147344547
      ],
      [
        "▁Uturuki",
        -9.25360634566717
      ],
      [
        "▁uwekezaji",
        -9.253608402511366
      ],
      [
        "▁ndoto",
        -9.253618243508807
      ],
      [
        "▁kijana",
        -9.25448965117712
      ],
      [
        "▁udhibiti",
        -9.25547609798772
      ],
      [
        "▁ushauri",
        -9.255941759766223
      ],
      [
        "▁hana",
        -9.256318552135326
      ],
      [
        "▁28,",
        -9.256587527609078
      ],
      [
        "kiwemo",
        -9.257293370976708
      ],
      [
        "▁Kati",
        -9.25752837365954
      ],
      [
        "▁tendo",
        -9.258844994032074
      ],
      [
        "▁mwanzo",
        -9.259826032350766
      ],
      [
        "▁Saudi",
        -9.26015113328588
      ],
      [
        "▁Insider)",
        -9.261870806643458
      ],
      [
        "▁required)",
        -9.261870844357933
      ],
      [
        "▁kauli",
        -9.261890846379796
      ],
      [
        "▁24,",
        -9.261892648995538
      ],
      [
        "▁maziwa",
        -9.261926009817742
      ],
      [
        "▁kombe",
        -9.262029086855533
      ],
      [
        "▁es",
        -9.262600781876895
      ],
      [
        "▁kupanda",
        -9.26306243368069
      ],
      [
        "▁hau",
        -9.263182008533079
      ],
      [
        "ano",
        -9.263982838995261
      ],
      [
        "▁kufanyiwa",
        -9.264009516556772
      ],
      [
        "▁mwilini",
        -9.26707417403081
      ],
      [
        "▁kurudi",
        -9.268040133615518
      ],
      [
        "▁\"Ku",
        -9.268679499880735
      ],
      [
        "safiri",
        -9.269263705761096
      ],
      [
        "▁Borussia",
        -9.27020413936096
      ],
      [
        "▁dirisha",
        -9.270204208940392
      ],
      [
        "▁afisa",
        -9.270204353519933
      ],
      [
        "▁mamilioni",
        -9.270204848743457
      ],
      [
        "shikilia",
        -9.270212979229793
      ],
      [
        "anzishwa",
        -9.270239999778003
      ],
      [
        "chapishwa",
        -9.270243505524196
      ],
      [
        "▁ubaguzi",
        -9.270425655441272
      ],
      [
        "subiri",
        -9.270433247255092
      ],
      [
        "ombi",
        -9.273325981762023
      ],
      [
        "▁aliyo",
        -9.27447323756896
      ],
      [
        "▁24",
        -9.274764641514233
      ],
      [
        "▁kuzaliwa",
        -9.275534873538485
      ],
      [
        "agiza",
        -9.276361446105252
      ],
      [
        "▁nayo",
        -9.27816475316937
      ],
      [
        "▁ndi",
        -9.278192143404041
      ],
      [
        "▁sasa,",
        -9.278609383620381
      ],
      [
        "▁Kanisa",
        -9.278615944107294
      ],
      [
        "kuta",
        -9.27877436323265
      ],
      [
        "▁demokrasia",
        -9.279349141736493
      ],
      [
        "▁22,",
        -9.279506427147378
      ],
      [
        "▁sifa",
        -9.28020623077426
      ],
      [
        "▁zao.",
        -9.280731358328818
      ],
      [
        "▁Sasa",
        -9.280792981875283
      ],
      [
        "▁jijini",
        -9.281532284886389
      ],
      [
        "▁chanzo",
        -9.283124204742489
      ],
      [
        "▁To",
        -9.283997258572228
      ],
      [
        "▁kuhakikish",
        -9.285209102494907
      ],
      [
        "ambia",
        -9.28640559810228
      ],
      [
        "▁bahati",
        -9.287083343425497
      ],
      [
        "▁takwimu",
        -9.287086791445095
      ],
      [
        "chochea",
        -9.287094708073246
      ],
      [
        "▁\"Tuna",
        -9.287113230967222
      ],
      [
        "▁wizara",
        -9.2871389542114
      ],
      [
        "▁viungo",
        -9.287196756926877
      ],
      [
        "▁hamu",
        -9.289497077754408
      ],
      [
        "▁tuta",
        -9.28983580751813
      ],
      [
        "zwa",
        -9.291614604642463
      ],
      [
        "ini",
        -9.29421033870058
      ],
      [
        "▁Arabia",
        -9.295629177746186
      ],
      [
        "▁jirani",
        -9.295630087268414
      ],
      [
        "▁nzima",
        -9.295759960465372
      ],
      [
        "▁Ubelgiji",
        -9.295835509062428
      ],
      [
        "▁Bu",
        -9.296659454730158
      ],
      [
        "valia",
        -9.297147346411396
      ],
      [
        "▁wao.",
        -9.29805457837476
      ],
      [
        "shika",
        -9.299134899538874
      ],
      [
        "▁kuuza",
        -9.301361744885273
      ],
      [
        "ter",
        -9.302157825240895
      ],
      [
        "sababishwa",
        -9.304249883242893
      ],
      [
        "▁Putin",
        -9.304250141693288
      ],
      [
        "▁bi",
        -9.304369798206853
      ],
      [
        "wapo",
        -9.304443428800994
      ],
      [
        "linda",
        -9.305223754864418
      ],
      [
        "▁\"Ma",
        -9.305472470226555
      ],
      [
        "▁wapiga",
        -9.30551156601404
      ],
      [
        "▁ujumla",
        -9.306294342567746
      ],
      [
        "funzi",
        -9.306827475571636
      ],
      [
        "▁Chama",
        -9.307023266643792
      ],
      [
        "▁aliwa",
        -9.30795639937389
      ],
      [
        "jumbe",
        -9.31070312832945
      ],
      [
        "wasilisha",
        -9.311142593926409
      ],
      [
        "▁Uchaguzi",
        -9.31118510332047
      ],
      [
        "▁Car",
        -9.311855812823168
      ],
      [
        "ampuni",
        -9.312482646525213
      ],
      [
        "▁televisheni",
        -9.312945426892323
      ],
      [
        "▁ibada",
        -9.312948230253722
      ],
      [
        "▁muungano",
        -9.312948340052555
      ],
      [
        "▁program",
        -9.312951100188558
      ],
      [
        "▁kulala",
        -9.313515466546075
      ],
      [
        "kia",
        -9.313663247660378
      ],
      [
        "▁humo.",
        -9.314656390044824
      ],
      [
        "mtaka",
        -9.316164626769392
      ],
      [
        "▁Se",
        -9.317244605976365
      ],
      [
        "▁yaki",
        -9.317932520565556
      ],
      [
        "ley",
        -9.318067719190537
      ],
      [
        "▁anaamini",
        -9.31858232116498
      ],
      [
        "ibuka",
        -9.31923426939852
      ],
      [
        "▁uka",
        -9.321134685932574
      ],
      [
        "io",
        -9.321550041281295
      ],
      [
        "▁kiafya",
        -9.32171737513816
      ],
      [
        "▁tisa",
        -9.32180963804074
      ],
      [
        "▁umuhimu",
        -9.32189269888038
      ],
      [
        "▁Lo",
        -9.322321663697377
      ],
      [
        "▁uzito",
        -9.322720646958832
      ],
      [
        "▁Hatahivyo",
        -9.322961734233996
      ],
      [
        "▁wanaamini",
        -9.32302494382774
      ],
      [
        "▁mojawapo",
        -9.323798208735418
      ],
      [
        "▁Tuna",
        -9.325162737954114
      ],
      [
        "uma",
        -9.326773324370881
      ],
      [
        "▁msikiti",
        -9.328648998696199
      ],
      [
        "vaa",
        -9.32976144575711
      ],
      [
        "fanyi",
        -9.33008378449173
      ],
      [
        "▁Atletico",
        -9.330566914241576
      ],
      [
        "▁WHO",
        -9.330567006576775
      ],
      [
        "▁utaratibu",
        -9.330735665162873
      ],
      [
        "▁kizazi",
        -9.330960581293246
      ],
      [
        "▁hayo.",
        -9.33143447717343
      ],
      [
        "▁chumba",
        -9.333397987543181
      ],
      [
        "kufa",
        -9.333431569241156
      ],
      [
        "▁kudumu",
        -9.33568818756103
      ],
      [
        "hadi",
        -9.337039051158698
      ],
      [
        "▁Washington",
        -9.339495485823726
      ],
      [
        "▁Uchina",
        -9.339503432317237
      ],
      [
        "▁Abiy",
        -9.339503681622164
      ],
      [
        "▁kita",
        -9.339576740049488
      ],
      [
        "▁Messi",
        -9.340966710755755
      ],
      [
        "▁kumekuwa",
        -9.341588324827374
      ],
      [
        "ard",
        -9.341695186519718
      ],
      [
        "▁vyakula",
        -9.341762740122824
      ],
      [
        "ungwa",
        -9.342087606211035
      ],
      [
        "▁majina",
        -9.34421646979722
      ],
      [
        "▁Ikiw",
        -9.344445402519167
      ],
      [
        "ton",
        -9.344878045612496
      ],
      [
        "Lakini",
        -9.34515965488535
      ],
      [
        "▁Mar",
        -9.34544948477641
      ],
      [
        "tengeneza",
        -9.34779303241719
      ],
      [
        "▁Februari",
        -9.348504494681585
      ],
      [
        "▁shida",
        -9.348524320038102
      ],
      [
        "▁hatimaye",
        -9.348581256940012
      ],
      [
        "▁Profes",
        -9.34871839540673
      ],
      [
        "▁Ri",
        -9.34938566054328
      ],
      [
        "▁maamuzi",
        -9.349423409838057
      ],
      [
        "▁inaonekana",
        -9.349574942734462
      ],
      [
        "undwa",
        -9.349643868859363
      ],
      [
        "▁katiba",
        -9.350360958546927
      ],
      [
        "ine",
        -9.350643472402503
      ],
      [
        "fanyia",
        -9.350747143974832
      ],
      [
        "▁Be",
        -9.352401806445762
      ],
      [
        "▁mwana",
        -9.352620793396838
      ],
      [
        "▁ujauzito",
        -9.357595406286064
      ],
      [
        "▁furaha",
        -9.35759546354145
      ],
      [
        "▁lugha",
        -9.357597163250645
      ],
      [
        "▁upya",
        -9.357601602545795
      ],
      [
        "▁zetu",
        -9.357618550297651
      ],
      [
        "▁kimoja",
        -9.358348916019693
      ],
      [
        "ruhusiwa",
        -9.358824665916867
      ],
      [
        "maliza",
        -9.358940756781866
      ],
      [
        "kabiliana",
        -9.35908283429736
      ],
      [
        "▁kiti",
        -9.359776615328235
      ],
      [
        "linzi",
        -9.359990536006867
      ],
      [
        "lala",
        -9.36120824254882
      ],
      [
        "sanii",
        -9.361894316589524
      ],
      [
        "▁Ru",
        -9.36294081137423
      ],
      [
        "▁Kuu",
        -9.363925677542355
      ],
      [
        "▁29",
        -9.36438810253127
      ],
      [
        "mb",
        -9.365153797945045
      ],
      [
        "kumba",
        -9.365220782063691
      ],
      [
        "▁Kila",
        -9.36525056990882
      ],
      [
        "unda",
        -9.365429084457663
      ],
      [
        "kana",
        -9.36547950791287
      ],
      [
        "▁n",
        -9.3654991218744
      ],
      [
        "▁hotuba",
        -9.366769908507681
      ],
      [
        "▁jaribio",
        -9.366769942290567
      ],
      [
        "kanusha",
        -9.366770980739439
      ],
      [
        "▁pengine",
        -9.366772064813848
      ],
      [
        "▁hedhi",
        -9.366772428453993
      ],
      [
        "▁kuku",
        -9.366849177582699
      ],
      [
        "▁mikutano",
        -9.36689770160266
      ],
      [
        "tembelea",
        -9.36813390566466
      ],
      [
        "▁35",
        -9.368462507588116
      ],
      [
        "chambuzi",
        -9.368952760331517
      ],
      [
        "nunua",
        -9.368984299134853
      ],
      [
        "tambua",
        -9.369239330467291
      ],
      [
        "▁kamili",
        -9.369274471099938
      ],
      [
        "tani",
        -9.369718754043253
      ],
      [
        "il",
        -9.370740026628884
      ],
      [
        "▁unapo",
        -9.370913725705819
      ],
      [
        "▁Paul",
        -9.371320102419366
      ],
      [
        "▁27",
        -9.371774322134147
      ],
      [
        "▁kichwa",
        -9.372603762387563
      ],
      [
        "zima",
        -9.372719615190338
      ],
      [
        "chagua",
        -9.372984000221873
      ],
      [
        "▁kukutana",
        -9.373294226088355
      ],
      [
        "▁\"Nina",
        -9.3733247196506
      ],
      [
        "▁2022",
        -9.373908826999372
      ],
      [
        "▁TPLF",
        -9.376028974988195
      ],
      [
        "▁utamaduni",
        -9.376029154053668
      ],
      [
        "▁mifumo",
        -9.376029989961648
      ],
      [
        "▁mapya",
        -9.376033873985829
      ],
      [
        "▁waasi",
        -9.376035360667089
      ],
      [
        "▁2021",
        -9.376116880672138
      ],
      [
        "▁wastani",
        -9.376136190018968
      ],
      [
        "▁makao",
        -9.376194327691326
      ],
      [
        "▁Aki",
        -9.376718445308743
      ],
      [
        "it",
        -9.377273315787567
      ],
      [
        "▁wakuu",
        -9.377492475803852
      ],
      [
        "nyi",
        -9.378060949572925
      ],
      [
        "V",
        -9.379287250036933
      ],
      [
        "▁kusalia",
        -9.380209582833057
      ],
      [
        "▁2015",
        -9.380999497690466
      ],
      [
        "▁Akiwa",
        -9.381395689402844
      ],
      [
        "▁kutangaza",
        -9.382325230841598
      ],
      [
        "▁kusafiri",
        -9.384638792826465
      ],
      [
        "q",
        -9.385199849424893
      ],
      [
        "izara",
        -9.385342266098416
      ],
      [
        "▁Salaam",
        -9.385374865427778
      ],
      [
        "▁shilingi",
        -9.385384373749527
      ],
      [
        "▁Asia",
        -9.385572619121692
      ],
      [
        "idi",
        -9.386155628924875
      ],
      [
        "▁umekuwa",
        -9.386463444065178
      ],
      [
        "▁L",
        -9.387859575813401
      ],
      [
        "ts",
        -9.388245666122327
      ],
      [
        "wasili",
        -9.388937475245267
      ],
      [
        "mekuwa",
        -9.389619371931479
      ],
      [
        "▁ardhi",
        -9.391412747522217
      ],
      [
        "▁$",
        -9.394277122662864
      ],
      [
        "▁Australia",
        -9.394808731637184
      ],
      [
        "▁Senegal",
        -9.394808732624249
      ],
      [
        "▁madini",
        -9.394838119395851
      ],
      [
        "▁chaguo",
        -9.394890205557147
      ],
      [
        "▁iliyopita.",
        -9.397492674639462
      ],
      [
        "shuka",
        -9.398226510867417
      ],
      [
        "▁Israel",
        -9.400198193478923
      ],
      [
        "▁kutuma",
        -9.402000135784704
      ],
      [
        "sambaza",
        -9.402368325081582
      ],
      [
        "▁s",
        -9.403630089002085
      ],
      [
        "▁saini",
        -9.403807802825657
      ],
      [
        "▁dhahabu",
        -9.404332545091986
      ],
      [
        "▁dharura",
        -9.404332546958553
      ],
      [
        "▁ufanisi",
        -9.404333168618638
      ],
      [
        "▁ukubwa",
        -9.404333401623532
      ],
      [
        "chapisha",
        -9.404387402262657
      ],
      [
        "▁wenzake",
        -9.404446284823935
      ],
      [
        "▁Kiongozi",
        -9.404745359897372
      ],
      [
        "▁•",
        -9.405141309682591
      ],
      [
        "▁kukosa",
        -9.406726905118981
      ],
      [
        "ara",
        -9.407503972757755
      ],
      [
        "▁kuzingatia",
        -9.40953299300551
      ],
      [
        "▁21,",
        -9.40967979731709
      ],
      [
        "▁linaweza",
        -9.409682533107087
      ],
      [
        "▁\"Wa",
        -9.410308330225469
      ],
      [
        "▁27,",
        -9.41131483160847
      ],
      [
        "▁washirika",
        -9.413317903557246
      ],
      [
        "▁kulinda",
        -9.413716975279883
      ],
      [
        "▁Morocco",
        -9.41394792606458
      ],
      [
        "▁mashambulio",
        -9.413947927827213
      ],
      [
        "▁Joshua",
        -9.413948410847613
      ],
      [
        "▁mashtaka",
        -9.413951846631047
      ],
      [
        "▁Ghana",
        -9.413956560107273
      ],
      [
        "▁Sudan",
        -9.413983786470624
      ],
      [
        "▁Yesu",
        -9.414030446600787
      ],
      [
        "▁uzalishaji",
        -9.414401982374576
      ],
      [
        "baini",
        -9.414557497215243
      ],
      [
        "▁hadharani",
        -9.41478070742564
      ],
      [
        "▁He",
        -9.415387944643504
      ],
      [
        "▁makali",
        -9.416906668075573
      ],
      [
        "▁Ko",
        -9.417615034172698
      ],
      [
        "▁sana,",
        -9.419055376107458
      ],
      [
        "▁kuleta",
        -9.419988497315144
      ],
      [
        "▁jiji",
        -9.420868468586068
      ],
      [
        "ahidi",
        -9.421436374491641
      ],
      [
        "▁Januari.",
        -9.42249639928712
      ],
      [
        "▁2017",
        -9.422824046154343
      ],
      [
        "▁nywele",
        -9.42365694298308
      ],
      [
        "▁ushuru",
        -9.423657019310044
      ],
      [
        "▁Iraq",
        -9.423657224237711
      ],
      [
        "▁Corona",
        -9.423789428482841
      ],
      [
        "nye",
        -9.424880448627153
      ],
      [
        "▁kulia",
        -9.424976714871654
      ],
      [
        "▁Roma",
        -9.42698354359406
      ],
      [
        "▁Wanawake",
        -9.427147335663228
      ],
      [
        "▁asi",
        -9.428821035197846
      ],
      [
        "furahia",
        -9.429030847855923
      ],
      [
        "▁Po",
        -9.429449878016271
      ],
      [
        "fanyakazi",
        -9.4304069288994
      ],
      [
        "▁mahakamani",
        -9.431249817729377
      ],
      [
        "thibitishwa",
        -9.433151972298553
      ],
      [
        "▁kipekee",
        -9.433460591682433
      ],
      [
        "▁Leeds",
        -9.433461418110404
      ],
      [
        "▁hususan",
        -9.433464292629129
      ],
      [
        "▁angalau",
        -9.43346534759463
      ],
      [
        "▁kushoto",
        -9.433469248658657
      ],
      [
        "uwa",
        -9.433779753411567
      ],
      [
        "badili",
        -9.433904649479775
      ],
      [
        "▁Congo",
        -9.434288285835187
      ],
      [
        "▁ndipo",
        -9.434399756305346
      ],
      [
        "▁baraza",
        -9.434473958473262
      ],
      [
        "▁Jeshi",
        -9.434606963516226
      ],
      [
        "▁iwe",
        -9.434824790715187
      ],
      [
        "chaguliwa",
        -9.435433676621376
      ],
      [
        "▁kupewa",
        -9.435729484880659
      ],
      [
        "(",
        -9.437048332035513
      ],
      [
        "▁uliopo",
        -9.437120586736839
      ],
      [
        "sisitiza",
        -9.440121317245431
      ],
      [
        "▁kuonesha",
        -9.440580919203985
      ],
      [
        "▁kujenga",
        -9.440727489773963
      ],
      [
        "▁makombora",
        -9.44336217995274
      ],
      [
        "▁mavazi",
        -9.443364823458559
      ],
      [
        "hubiri",
        -9.44362579919138
      ],
      [
        "▁ushindani",
        -9.444152551274279
      ],
      [
        "shirikisha",
        -9.444788366427352
      ],
      [
        "gh",
        -9.445851728981678
      ],
      [
        "▁taji",
        -9.446033550575521
      ],
      [
        "▁Chi",
        -9.446164981603
      ],
      [
        "▁AC",
        -9.447591977598893
      ],
      [
        "▁kujifungua",
        -9.447978751980468
      ],
      [
        "▁hatia",
        -9.448853721904928
      ],
      [
        "▁kusaini",
        -9.44906963438256
      ],
      [
        "▁naibu",
        -9.44917145924751
      ],
      [
        "at",
        -9.451594317588395
      ],
      [
        "▁kutambua",
        -9.451846808493851
      ],
      [
        "fiki",
        -9.452673373448954
      ],
      [
        "▁Italian)",
        -9.453365067908994
      ],
      [
        "▁Republican",
        -9.453380851904498
      ],
      [
        "▁zangu",
        -9.453400333968919
      ],
      [
        "▁kusoma",
        -9.453770007389213
      ],
      [
        "▁kisasa",
        -9.454338465864975
      ],
      [
        "vutiwa",
        -9.454956708316288
      ],
      [
        "▁ajabu",
        -9.454993250339434
      ],
      [
        "eneja",
        -9.456672797390898
      ],
      [
        "jiandaa",
        -9.457381277120792
      ],
      [
        "▁Sha",
        -9.457762361969273
      ],
      [
        "▁p",
        -9.459322215734431
      ],
      [
        "tiwa",
        -9.459488053245494
      ],
      [
        "▁usio",
        -9.460066691469667
      ],
      [
        "▁Kenya,",
        -9.461249454639653
      ],
      [
        "▁San",
        -9.461989601769183
      ],
      [
        "▁ada",
        -9.462524247539683
      ],
      [
        "▁kutolewa",
        -9.462751584933528
      ],
      [
        "▁joto.",
        -9.46297868826236
      ],
      [
        "▁rafiki",
        -9.46353940376126
      ],
      [
        "▁Ripot",
        -9.46367507864488
      ],
      [
        "▁kale",
        -9.463841397763023
      ],
      [
        "▁mkoa",
        -9.464168590186713
      ],
      [
        "▁dau",
        -9.464792033822075
      ],
      [
        "sambaa",
        -9.465867488158413
      ],
      [
        "▁kuboresha",
        -9.466552193638666
      ],
      [
        "▁zinawez",
        -9.466750879477711
      ],
      [
        "▁kufuzu",
        -9.467673459484065
      ],
      [
        "ari",
        -9.469637680674293
      ],
      [
        "▁aliandika",
        -9.469854888173195
      ],
      [
        "▁barabara",
        -9.47033841946152
      ],
      [
        "▁uso",
        -9.470511126122126
      ],
      [
        "ume",
        -9.473015986383718
      ],
      [
        "▁kupita",
        -9.473400560776028
      ],
      [
        "▁uhakika",
        -9.473666688835594
      ],
      [
        "▁binti",
        -9.474205350831866
      ],
      [
        "▁zile",
        -9.47530284892479
      ],
      [
        "▁Ilikuwa",
        -9.475569401258607
      ],
      [
        "tangazwa",
        -9.4760704497066
      ],
      [
        "ondolewa",
        -9.476950775114805
      ],
      [
        "▁hayo,",
        -9.477403229866395
      ],
      [
        "▁tajiri",
        -9.477699149277676
      ],
      [
        "▁ulimwenguni",
        -9.477956419232907
      ],
      [
        "▁hizo.",
        -9.478953354122911
      ],
      [
        "ongezea",
        -9.4816903404848
      ],
      [
        "idhinisha",
        -9.483396172269124
      ],
      [
        "▁Alhamisi",
        -9.48397594595315
      ],
      [
        "▁mshahara",
        -9.483975971319088
      ],
      [
        "▁Ikulu",
        -9.483976889452626
      ],
      [
        "▁chuki",
        -9.484007307732117
      ],
      [
        "▁gesi",
        -9.484016086020572
      ],
      [
        "▁hasira",
        -9.484310665594855
      ],
      [
        "▁uvamizi",
        -9.48444539790538
      ],
      [
        "▁kitabu",
        -9.484502931763345
      ],
      [
        "▁We",
        -9.484902050819757
      ],
      [
        "▁Papa",
        -9.48504417411801
      ],
      [
        "▁kilimo",
        -9.48506246151545
      ],
      [
        "▁seli",
        -9.485284356767131
      ],
      [
        "harakati",
        -9.48534723308631
      ],
      [
        "▁kuki",
        -9.485659757578588
      ],
      [
        "tuzo",
        -9.485681744424657
      ],
      [
        "van",
        -9.486323968342528
      ],
      [
        "malizika",
        -9.486499736872965
      ],
      [
        "chunguza",
        -9.486507782385459
      ],
      [
        "’’",
        -9.489624786915613
      ],
      [
        "▁29,",
        -9.491778958567199
      ],
      [
        "kamilisha",
        -9.492603135325666
      ],
      [
        "▁hospitalini",
        -9.49292845596351
      ],
      [
        "▁Wengi",
        -9.494091217020866
      ],
      [
        "iti",
        -9.494155086541557
      ],
      [
        "▁(Sky",
        -9.494352209339194
      ],
      [
        "▁majukumu",
        -9.494392676625093
      ],
      [
        "▁Canada",
        -9.494407088032116
      ],
      [
        "▁wapiganaji",
        -9.494454925095258
      ],
      [
        "▁ushirikiano",
        -9.494660368186995
      ],
      [
        "▁meli",
        -9.494708300299447
      ],
      [
        "▁vitendo",
        -9.494750034040639
      ],
      [
        "▁pande",
        -9.494806009759003
      ],
      [
        "ende",
        -9.495358446205104
      ],
      [
        "▁Du",
        -9.49564628525452
      ],
      [
        "shambulizi",
        -9.496279128089455
      ],
      [
        "tekeleza",
        -9.497067277360966
      ],
      [
        "ani",
        -9.497140193827084
      ],
      [
        "▁mzima",
        -9.497466155717472
      ],
      [
        "▁kipa",
        -9.497741349158021
      ],
      [
        "▁mkuruge",
        -9.497991702982034
      ],
      [
        "uwepo",
        -9.49878433015655
      ],
      [
        "▁Z",
        -9.500625628861329
      ],
      [
        "▁kuacha",
        -9.500890937919243
      ],
      [
        "▁Sri",
        -9.501998017006777
      ],
      [
        "▁\"A",
        -9.502454489370512
      ],
      [
        "kubaliana",
        -9.502969949832728
      ],
      [
        "▁kuta",
        -9.503521322842076
      ],
      [
        "kuu",
        -9.50450606925018
      ],
      [
        "jadala",
        -9.50460771856745
      ],
      [
        "▁nyengine",
        -9.504919557713492
      ],
      [
        "▁Uhuru",
        -9.504920354156305
      ],
      [
        "▁Taifa",
        -9.50504989643175
      ],
      [
        "▁matangazo",
        -9.50510433251356
      ],
      [
        "▁mwanasiasa",
        -9.505233170940599
      ],
      [
        "ph",
        -9.505920164965065
      ],
      [
        "▁mabaya",
        -9.505968517549686
      ],
      [
        "▁hadithi",
        -9.506237691087689
      ],
      [
        "lengwa",
        -9.506758980254126
      ],
      [
        "▁\"Ha",
        -9.508573732072648
      ],
      [
        "▁\"Si",
        -9.509434479291603
      ],
      [
        "ngwa",
        -9.509475119022738
      ],
      [
        "mir",
        -9.509675596101722
      ],
      [
        "▁kukata",
        -9.51069839074337
      ],
      [
        "▁Uingereza,",
        -9.511317382946864
      ],
      [
        "▁kume",
        -9.511791921543388
      ],
      [
        "▁wasi",
        -9.51261091495828
      ],
      [
        "jenga",
        -9.512784109803373
      ],
      [
        "ir",
        -9.513033311646474
      ],
      [
        "ic",
        -9.513252296349503
      ],
      [
        "▁wakazi",
        -9.515209720721252
      ],
      [
        "▁R",
        -9.515296783267116
      ],
      [
        "uzwa",
        -9.515327938248397
      ],
      [
        "▁WhatsApp",
        -9.515557227285791
      ],
      [
        "▁Jumatano",
        -9.515557370763105
      ],
      [
        "▁mapinduzi",
        -9.515557726589186
      ],
      [
        "fichua",
        -9.515563146598708
      ],
      [
        "▁ziada",
        -9.515669924039637
      ],
      [
        "▁zilizopita",
        -9.516132314491
      ],
      [
        "aga",
        -9.516679844209136
      ],
      [
        "▁28",
        -9.516765445601758
      ],
      [
        "▁mshindi",
        -9.517451641178447
      ],
      [
        "hari",
        -9.519128520657823
      ],
      [
        "▁kuweza",
        -9.520936575361596
      ],
      [
        "▁bahari",
        -9.523098835283738
      ],
      [
        "▁tawala",
        -9.525334237788641
      ],
      [
        "▁ndugu",
        -9.526309983222
      ],
      [
        "▁mabingwa",
        -9.52631042825194
      ],
      [
        "▁maduka",
        -9.526316594918423
      ],
      [
        "▁meno",
        -9.526441653101305
      ],
      [
        "▁mapenzi",
        -9.526778095667561
      ],
      [
        "amhuri",
        -9.526965241898019
      ],
      [
        "han",
        -9.52886559132212
      ],
      [
        "▁al",
        -9.52895486752835
      ],
      [
        "shirika",
        -9.529631068679521
      ],
      [
        "▁utata",
        -9.529885688067438
      ],
      [
        "▁Ar",
        -9.531051329925393
      ],
      [
        "▁kilom",
        -9.53180157852904
      ],
      [
        "▁alifanya",
        -9.533690793361075
      ],
      [
        "ote",
        -9.534341231504484
      ],
      [
        "▁viki",
        -9.535150006896377
      ],
      [
        "▁yata",
        -9.535791556083574
      ],
      [
        "▁bungeni",
        -9.535948515896038
      ],
      [
        "▁kuvaa",
        -9.536051745523803
      ],
      [
        "▁“",
        -9.537179482656292
      ],
      [
        "▁Kaskazini",
        -9.537179529907572
      ],
      [
        "▁karne",
        -9.537179773580856
      ],
      [
        "▁Baraza",
        -9.537613077383142
      ],
      [
        "▁kikundi",
        -9.537802528654229
      ],
      [
        "ver",
        -9.539037687362004
      ],
      [
        "pendelea",
        -9.541717930831645
      ],
      [
        "▁mahitaji",
        -9.54223235105355
      ],
      [
        "▁wageni",
        -9.542276411578484
      ],
      [
        "▁\"Hi",
        -9.543375548681725
      ],
      [
        "▁kushangaza",
        -9.544496941648983
      ],
      [
        "▁hifadhi",
        -9.544601237311278
      ],
      [
        "▁kusambaa",
        -9.545627082911164
      ],
      [
        "ugua",
        -9.545627599240891
      ],
      [
        "▁the",
        -9.545739315268992
      ],
      [
        "'.",
        -9.545806751236267
      ],
      [
        "Y",
        -9.547317458495627
      ],
      [
        "▁2018,",
        -9.548064161145478
      ],
      [
        "▁usingizi",
        -9.548169417667415
      ],
      [
        "▁baridi",
        -9.548170325767892
      ],
      [
        "▁masomo",
        -9.54817109227531
      ],
      [
        "▁nishati",
        -9.548234341650964
      ],
      [
        "fanana",
        -9.548590925130629
      ],
      [
        "▁kipato",
        -9.549237681117095
      ],
      [
        "▁Raila",
        -9.549549250654305
      ],
      [
        "kula",
        -9.550990133337582
      ],
      [
        "▁usi",
        -9.55259415826646
      ],
      [
        "▁mno",
        -9.552954856537
      ],
      [
        "',",
        -9.553134166880012
      ],
      [
        "▁20,",
        -9.555424303988808
      ],
      [
        "▁\"ha",
        -9.555990046540817
      ],
      [
        "▁hatu",
        -9.556997973842808
      ],
      [
        "sk",
        -9.557163028858525
      ],
      [
        "kati",
        -9.558136862166212
      ],
      [
        "▁vyake",
        -9.558380777906144
      ],
      [
        "lea",
        -9.55922172432153
      ],
      [
        "▁kanuni",
        -9.559279690959407
      ],
      [
        "▁euro",
        -9.559280760159027
      ],
      [
        "▁Amerika",
        -9.559283146250632
      ],
      [
        "▁nyakati",
        -9.559283349065968
      ],
      [
        "▁mashine",
        -9.559283376586436
      ],
      [
        "▁malengo",
        -9.559283563480182
      ],
      [
        "▁maadili",
        -9.559285134638289
      ],
      [
        "▁Klabu",
        -9.559285617332927
      ],
      [
        "▁bajeti",
        -9.559292385861673
      ],
      [
        "▁vyote",
        -9.559296057387517
      ],
      [
        "▁Wakenya",
        -9.559653635091937
      ],
      [
        "▁uongo",
        -9.559826417565702
      ],
      [
        "▁wapenzi",
        -9.560084351654906
      ],
      [
        "▁kuonyesha",
        -9.561818437710912
      ],
      [
        "wasiliana",
        -9.56289932781753
      ],
      [
        "moja",
        -9.56452773261771
      ],
      [
        "amu",
        -9.565126784948054
      ],
      [
        "▁kubadili",
        -9.565379208060065
      ],
      [
        "ombe",
        -9.565642469413616
      ],
      [
        "ngeweza",
        -9.565689179186917
      ],
      [
        "▁kukamatwa",
        -9.56601276584161
      ],
      [
        "uli",
        -9.567908163616947
      ],
      [
        "▁moja.",
        -9.568004506730569
      ],
      [
        "shutumu",
        -9.569699349609111
      ],
      [
        "wezekana",
        -9.569898864917846
      ],
      [
        "▁walim",
        -9.570383273282438
      ],
      [
        "▁Daktari",
        -9.57051559439167
      ],
      [
        "▁jukwaa",
        -9.57051566429854
      ],
      [
        "▁homoni",
        -9.570516190577823
      ],
      [
        "▁Chadema",
        -9.57053391330468
      ],
      [
        "▁tamaa",
        -9.570536840261354
      ],
      [
        "kumbwa",
        -9.570748992278245
      ],
      [
        "▁mgogoro",
        -9.571230904382132
      ],
      [
        "▁makam",
        -9.571343184536289
      ],
      [
        "▁mtind",
        -9.571813708100454
      ],
      [
        "▁alizo",
        -9.574404335563289
      ],
      [
        "▁Mw",
        -9.57461415026701
      ],
      [
        "▁maba",
        -9.574816496352202
      ],
      [
        "▁kufikiria",
        -9.575516790103226
      ],
      [
        "dia",
        -9.575762326568036
      ],
      [
        "▁\"wa",
        -9.577483028647052
      ],
      [
        "▁sisi",
        -9.57792744282586
      ],
      [
        "▁zijazo",
        -9.578370168928934
      ],
      [
        "▁peke",
        -9.579127275662234
      ],
      [
        "▁ujao",
        -9.581066960201404
      ],
      [
        "▁mfano,",
        -9.581785759493727
      ],
      [
        "▁Zanzibar",
        -9.581879192739711
      ],
      [
        "▁kufa",
        -9.581892888527024
      ],
      [
        "▁haswa",
        -9.581907581240227
      ],
      [
        "fe",
        -9.582011408535484
      ],
      [
        "▁kufika",
        -9.58233001542252
      ],
      [
        "▁mahusiano",
        -9.582420413783456
      ],
      [
        "▁msemaji",
        -9.583588217073066
      ],
      [
        "▁Gu",
        -9.58386505464198
      ],
      [
        "ada",
        -9.58400214349054
      ],
      [
        "20",
        -9.584635725665962
      ],
      [
        "▁wanaoishi",
        -9.585150895539947
      ],
      [
        "▁alifariki",
        -9.585974330404195
      ],
      [
        "▁wapinzani",
        -9.586031820940153
      ],
      [
        "tafiti",
        -9.588695279347696
      ],
      [
        "waambia",
        -9.588767687435908
      ],
      [
        "fo",
        -9.589032648457483
      ],
      [
        "ning",
        -9.59043525342233
      ],
      [
        "▁Cristiano",
        -9.593373445509446
      ],
      [
        "▁Maafisa",
        -9.59337346691137
      ],
      [
        "▁Aidha",
        -9.593381796583357
      ],
      [
        "▁Lanka",
        -9.593384058044425
      ],
      [
        "▁barakoa",
        -9.59339550343611
      ],
      [
        "▁kando",
        -9.593433866095221
      ],
      [
        "chukulia",
        -9.593442025170347
      ],
      [
        "▁\"K",
        -9.59357532958522
      ],
      [
        "pangwa",
        -9.594650974313181
      ],
      [
        "▁30,",
        -9.594989568089579
      ],
      [
        "ud",
        -9.597322046933686
      ],
      [
        "kosoa",
        -9.59737243499815
      ],
      [
        "per",
        -9.597478269365304
      ],
      [
        "▁Kitu",
        -9.598017153971913
      ],
      [
        "asi",
        -9.59931332471562
      ],
      [
        "lan",
        -9.6010800290324
      ],
      [
        "▁kunywa",
        -9.602950771832024
      ],
      [
        "▁waandamanaji",
        -9.603021597414527
      ],
      [
        "▁usafiri",
        -9.604939155324029
      ],
      [
        "▁Mamlaka",
        -9.60500141800104
      ],
      [
        "kadiriwa",
        -9.60500185154578
      ],
      [
        "▁kumbukumbu",
        -9.605009027876692
      ],
      [
        "▁mlango",
        -9.605016680517561
      ],
      [
        "wakilisha",
        -9.60510637349771
      ],
      [
        "▁vikali",
        -9.605467104787621
      ],
      [
        "▁mbunge",
        -9.605815312799473
      ],
      [
        "▁kuthibitisha",
        -9.606835512283837
      ],
      [
        "▁ikawa",
        -9.606885188234354
      ],
      [
        "ongozi",
        -9.606910590709651
      ],
      [
        "▁mwingi",
        -9.60791705234909
      ],
      [
        "shangaza",
        -9.608908952846832
      ],
      [
        "kiri",
        -9.610120816959752
      ],
      [
        "▁kawaida.",
        -9.611534385905843
      ],
      [
        "▁Afrika,",
        -9.612167258044416
      ],
      [
        "takatifu",
        -9.614094441314784
      ],
      [
        "▁wafanyabiashara",
        -9.614390125577103
      ],
      [
        "kamata",
        -9.615250044665059
      ],
      [
        "▁mfululizo",
        -9.616766058340843
      ],
      [
        "▁Ajax",
        -9.616767575275725
      ],
      [
        "▁kingono",
        -9.616767674900338
      ],
      [
        "▁Harry",
        -9.616822034189365
      ],
      [
        "▁usawa",
        -9.61682604467271
      ],
      [
        "▁maudhui",
        -9.617005257390044
      ],
      [
        "dy",
        -9.617262107099776
      ],
      [
        "▁al-",
        -9.617387305989979
      ],
      [
        "▁kisa",
        -9.618490912800738
      ],
      [
        "▁Je,",
        -9.620090659928263
      ],
      [
        "iaka",
        -9.620179369285683
      ],
      [
        "▁wanapaswa",
        -9.620934259416252
      ],
      [
        "ol",
        -9.620940962917564
      ],
      [
        "▁kusitisha",
        -9.6211098838707
      ],
      [
        "tali",
        -9.621819034845757
      ],
      [
        "▁kubaini",
        -9.622218392447163
      ],
      [
        "olewa",
        -9.62269430811865
      ],
      [
        "▁mitandaoni",
        -9.622940272068831
      ],
      [
        "ongo",
        -9.623957960804852
      ],
      [
        "▁wanavyo",
        -9.625505236710742
      ],
      [
        "▁kukiwa",
        -9.625996180437044
      ],
      [
        "jo",
        -9.626528203118674
      ],
      [
        "hama",
        -9.627571849491341
      ],
      [
        "▁York",
        -9.628659661628838
      ],
      [
        "é",
        -9.628670814434553
      ],
      [
        "▁tovuti",
        -9.628670856729897
      ],
      [
        "▁CCM",
        -9.628671189517597
      ],
      [
        "▁urembo",
        -9.628674107486656
      ],
      [
        "▁wimbo",
        -9.628685877558564
      ],
      [
        "▁wingi",
        -9.628716170190499
      ],
      [
        "▁mabomu",
        -9.628929377600548
      ],
      [
        "▁kutu",
        -9.630125385530043
      ],
      [
        "19",
        -9.630921559610751
      ],
      [
        "▁kumuuza",
        -9.630973783291953
      ],
      [
        "▁vipi",
        -9.632214739903784
      ],
      [
        "jitolea",
        -9.6328429220668
      ],
      [
        "▁duniani,",
        -9.63407701711702
      ],
      [
        "▁kuwasaidia",
        -9.636477152227355
      ],
      [
        "▁kutotoka",
        -9.636547109780832
      ],
      [
        "▁Pi",
        -9.637034925665057
      ],
      [
        "pigania",
        -9.637140455114405
      ],
      [
        "▁kuongoza",
        -9.640085160162958
      ],
      [
        "▁HIV",
        -9.640719048138022
      ],
      [
        "▁weusi",
        -9.640724405791762
      ],
      [
        "▁Jenera",
        -9.640731086275796
      ],
      [
        "▁wadogo",
        -9.640774337521284
      ],
      [
        "▁ndivyo",
        -9.640971026772437
      ],
      [
        "unganisha",
        -9.641281063247447
      ],
      [
        "▁Beki",
        -9.642124839537654
      ],
      [
        "▁ikilinganishw",
        -9.64295358328977
      ],
      [
        "▁wanaharakati",
        -9.64306703020388
      ],
      [
        "▁maradhi",
        -9.643463330267103
      ],
      [
        "▁watano",
        -9.643609567148438
      ],
      [
        "simama",
        -9.644994299016133
      ],
      [
        "lipokuwa",
        -9.646087366778158
      ],
      [
        "▁haikuwa",
        -9.64641861904722
      ],
      [
        "▁mpya.",
        -9.646695178289336
      ],
      [
        "▁wanyama",
        -9.646742407000485
      ],
      [
        "▁kima",
        -9.648382237643323
      ],
      [
        "chungaji",
        -9.65019141206524
      ],
      [
        "▁mwenza",
        -9.652363497272045
      ],
      [
        "▁2",
        -9.652780916350121
      ],
      [
        "▁Africa",
        -9.652914169989625
      ],
      [
        "▁Mwenyekiti",
        -9.65292294996204
      ],
      [
        "▁kemikali",
        -9.652933629908148
      ],
      [
        "▁dhana",
        -9.652997583843295
      ],
      [
        "▁RB",
        -9.653181473725965
      ],
      [
        "▁mwanaume",
        -9.653724278566079
      ],
      [
        "?\"",
        -9.653780854766882
      ],
      [
        "▁nane",
        -9.653877423000958
      ],
      [
        "▁hawata",
        -9.653963882919673
      ],
      [
        "kuza",
        -9.654941734707542
      ],
      [
        "▁Sheri",
        -9.654974702497181
      ],
      [
        "shughulikia",
        -9.65740925847232
      ],
      [
        "▁mwanzoni",
        -9.657928165266508
      ],
      [
        "▁sa",
        -9.659427853267946
      ],
      [
        "fariki",
        -9.659559180251579
      ],
      [
        "▁nika",
        -9.660086258512882
      ],
      [
        "▁Hili",
        -9.66089380424861
      ],
      [
        "▁Kenya.",
        -9.664069249164037
      ],
      [
        "▁tena.",
        -9.664105783742961
      ],
      [
        "▁kumpa",
        -9.664310991255453
      ],
      [
        "▁kupungua",
        -9.664972580327749
      ],
      [
        "▁mawaziri",
        -9.665259912750761
      ],
      [
        "▁ugaidi",
        -9.66526081237155
      ],
      [
        "▁ghafla",
        -9.665263660565627
      ],
      [
        "▁Obama",
        -9.665265383662355
      ],
      [
        "▁vurugu",
        -9.665281171736794
      ],
      [
        "▁(Fabrizio",
        -9.665298236123547
      ],
      [
        "▁idara",
        -9.665322176405288
      ],
      [
        "▁alicho",
        -9.665645710128064
      ],
      [
        "▁Mfaransa",
        -9.66624571940363
      ],
      [
        "▁matajiri",
        -9.666277416179792
      ],
      [
        "▁alitoa",
        -9.666375872022728
      ],
      [
        "▁Somalia",
        -9.666396158987553
      ],
      [
        "tishia",
        -9.666755696195557
      ],
      [
        "▁hii,",
        -9.667507684722029
      ],
      [
        "uri",
        -9.669447165201143
      ],
      [
        "iba",
        -9.669972964751864
      ],
      [
        "pigana",
        -9.670236824287917
      ],
      [
        "▁ukiwa",
        -9.671175267978981
      ],
      [
        "▁\"ma",
        -9.67221342264691
      ],
      [
        "▁madaraka",
        -9.674414845024888
      ],
      [
        "▁walivyo",
        -9.6747873157335
      ],
      [
        "▁70",
        -9.674863204616795
      ],
      [
        "▁kwanini",
        -9.676404645526684
      ],
      [
        "▁sasa.",
        -9.676607597392355
      ],
      [
        "▁ra",
        -9.67690748021974
      ],
      [
        "’",
        -9.67759381072743
      ],
      [
        "▁Wolves",
        -9.67775981413175
      ],
      [
        "▁tishio",
        -9.677760440165276
      ],
      [
        "▁mwengine",
        -9.677761177159951
      ],
      [
        "pendwa",
        -9.677761357421842
      ],
      [
        "▁mwenyekiti",
        -9.677787196144088
      ],
      [
        "▁mchana",
        -9.677796931329238
      ],
      [
        "▁michache",
        -9.67789291474024
      ],
      [
        "▁mipaka",
        -9.678043190269605
      ],
      [
        "▁Wine",
        -9.678322571099088
      ],
      [
        "▁makuu",
        -9.679371070796286
      ],
      [
        "▁majira",
        -9.679610198992584
      ],
      [
        "un",
        -9.679865403128455
      ],
      [
        "wania",
        -9.679963869189052
      ],
      [
        "shambulia",
        -9.680565490899557
      ],
      [
        "▁kuvutia",
        -9.680920790167747
      ],
      [
        "▁anakumbuka",
        -9.681461547946977
      ],
      [
        "▁nilipo",
        -9.682249805117044
      ],
      [
        "▁tofauti.",
        -9.682295389258428
      ],
      [
        "▁wanne",
        -9.684314941256533
      ],
      [
        "▁kitend",
        -9.685412196293665
      ],
      [
        "▁kijamii.",
        -9.685767115623435
      ],
      [
        "▁2020,",
        -9.68590477987565
      ],
      [
        "gha",
        -9.686823723183053
      ],
      [
        "▁Marc",
        -9.68693940177002
      ],
      [
        "nce",
        -9.687076854559457
      ],
      [
        "wandishi",
        -9.687236076913889
      ],
      [
        "▁Tanzania.",
        -9.687323664820678
      ],
      [
        "m)",
        -9.68826180543855
      ],
      [
        "▁Ch",
        -9.689082799990178
      ],
      [
        "ibua",
        -9.689115367238971
      ],
      [
        "▁Mwana",
        -9.690380389736202
      ],
      [
        "▁rubani",
        -9.690418204361157
      ],
      [
        "▁hoteli",
        -9.690418565536785
      ],
      [
        "gharimu",
        -9.690419445794518
      ],
      [
        "ambiwa",
        -9.690494413162204
      ],
      [
        "▁jicho",
        -9.6905901961327
      ],
      [
        "▁Uingereza.",
        -9.690761291604355
      ],
      [
        "▁Uislamu",
        -9.690764744002546
      ],
      [
        "▁\"Wakati",
        -9.69076877289334
      ],
      [
        "▁hadhi",
        -9.691009328645812
      ],
      [
        "▁Jumanne",
        -9.691665156633174
      ],
      [
        "▁2019,",
        -9.692410429079338
      ],
      [
        "▁kuendesha",
        -9.69282577648573
      ],
      [
        "▁kanda",
        -9.693085222114107
      ],
      [
        "▁vyao",
        -9.693581053946541
      ],
      [
        "▁Mambo",
        -9.695042716492619
      ],
      [
        "jarid",
        -9.695540770197336
      ],
      [
        "▁Za",
        -9.695884349839842
      ],
      [
        "▁kutibu",
        -9.696729977430117
      ],
      [
        "▁hivyo.",
        -9.69943213676856
      ],
      [
        "▁anavyo",
        -9.699792358356442
      ],
      [
        "bn",
        -9.699968754405578
      ],
      [
        "▁alizaliwa",
        -9.702258821447579
      ],
      [
        "har",
        -9.702814088078096
      ],
      [
        "▁se",
        -9.702863087104888
      ],
      [
        "▁Pakistan",
        -9.703238621888481
      ],
      [
        "▁kupumua",
        -9.703238752994256
      ],
      [
        "▁uvimbe",
        -9.703239481079759
      ],
      [
        "▁operesheni",
        -9.703247099280702
      ],
      [
        "▁mgumu",
        -9.703247464416759
      ],
      [
        "hofia",
        -9.703250622855691
      ],
      [
        "▁v",
        -9.703358833160078
      ],
      [
        "▁(Sport",
        -9.70342820446356
      ],
      [
        "▁–",
        -9.703494668669885
      ],
      [
        "▁Dkt.",
        -9.704282010823988
      ],
      [
        "▁mfalme",
        -9.704516513339993
      ],
      [
        "▁havi",
        -9.705001790302234
      ],
      [
        "▁bao",
        -9.705029086122789
      ],
      [
        "▁maombi",
        -9.705291266063616
      ],
      [
        "▁inataka",
        -9.706352286101641
      ],
      [
        "kamilika",
        -9.708279808845381
      ],
      [
        "▁kuendeleza",
        -9.708913964921388
      ],
      [
        "tor",
        -9.710152642111336
      ],
      [
        "ibu",
        -9.711607191525992
      ],
      [
        "jiri",
        -9.711897277984411
      ],
      [
        "▁unavyo",
        -9.713358152928176
      ],
      [
        "rejesha",
        -9.713924118055306
      ],
      [
        "kamatwa",
        -9.714157407526354
      ],
      [
        "▁kuni",
        -9.714676685342358
      ],
      [
        "amuzi",
        -9.71468435593589
      ],
      [
        "fungua",
        -9.715001704728508
      ],
      [
        "▁corona,",
        -9.715371184744
      ],
      [
        "▁kuangalia",
        -9.715722229522438
      ],
      [
        "dara",
        -9.715902434328548
      ],
      [
        "▁kuunda",
        -9.716200453171144
      ],
      [
        "▁Southampton",
        -9.716225567631104
      ],
      [
        "▁Leipzig",
        -9.716225567632389
      ],
      [
        "▁Mexico",
        -9.716225567652817
      ],
      [
        "▁Moscow",
        -9.716225567927616
      ],
      [
        "▁kijinsia",
        -9.71622557455835
      ],
      [
        "▁mapambano",
        -9.716225884596897
      ],
      [
        "▁mapigano",
        -9.716228715384457
      ],
      [
        "▁mazuri",
        -9.71623076716967
      ],
      [
        "▁mauzo",
        -9.716253146930946
      ],
      [
        "▁Hassan",
        -9.716260745834436
      ],
      [
        "▁tozo",
        -9.71627906232849
      ],
      [
        "▁taratibu",
        -9.716334526554693
      ],
      [
        "wekeza",
        -9.716457506083902
      ],
      [
        "▁yasiyo",
        -9.716524399401234
      ],
      [
        "▁nyara",
        -9.71677956499045
      ],
      [
        "▁safu",
        -9.717245129677451
      ],
      [
        "▁Old",
        -9.71773452838276
      ],
      [
        "▁hawawezi",
        -9.717999510260599
      ],
      [
        "ungu",
        -9.718220830440053
      ],
      [
        "sajili",
        -9.719036324641955
      ],
      [
        "▁machozi",
        -9.719189676028499
      ],
      [
        "vuta",
        -9.719215640967928
      ],
      [
        "▁kutembea",
        -9.72384694833628
      ],
      [
        "▁wange",
        -9.723941341422144
      ],
      [
        "ster",
        -9.724621992738022
      ],
      [
        "bwa",
        -9.726065285035563
      ],
      [
        ".(",
        -9.729211874908948
      ],
      [
        "▁sukari",
        -9.729383700035466
      ],
      [
        "▁majeshi",
        -9.729385429551078
      ],
      [
        "▁sura",
        -9.729442857778825
      ],
      [
        "▁tumbo",
        -9.72974234874847
      ],
      [
        "▁Sports)",
        -9.730281382631116
      ],
      [
        "buni",
        -9.73047117977459
      ],
      [
        "▁Ju",
        -9.731860708018244
      ],
      [
        "min",
        -9.732141502362685
      ],
      [
        "vamia",
        -9.73271447701387
      ],
      [
        "vuka",
        -9.732907425051934
      ],
      [
        "tekelezwa",
        -9.73478909620404
      ],
      [
        "imarisha",
        -9.734870273872595
      ],
      [
        "funguliwa",
        -9.73487545620004
      ],
      [
        "tha",
        -9.735724304284869
      ],
      [
        "5m",
        -9.736131691585845
      ],
      [
        "ifa",
        -9.736376354976134
      ],
      [
        "▁kupatikana",
        -9.73858850014274
      ],
      [
        "gusa",
        -9.740169829395946
      ],
      [
        "▁Francis",
        -9.74261638857726
      ],
      [
        "▁(Goal)",
        -9.74271679570521
      ],
      [
        "▁pakubwa",
        -9.742716931548138
      ],
      [
        "▁atakaye",
        -9.742722929839198
      ],
      [
        "▁jioni",
        -9.742743707477722
      ],
      [
        "▁dozi",
        -9.742770277083267
      ],
      [
        "jengwa",
        -9.74300132589103
      ],
      [
        "olojia",
        -9.743468793408788
      ],
      [
        "▁uliofanywa",
        -9.743589407551351
      ],
      [
        "▁kura.",
        -9.743648098403103
      ],
      [
        "▁Wataalamu",
        -9.743927282260648
      ],
      [
        "▁Gi",
        -9.744475848572284
      ],
      [
        "▁jela",
        -9.745639094137161
      ],
      [
        "zunguka",
        -9.745805852283569
      ],
      [
        "▁Yo",
        -9.746554908893028
      ],
      [
        "ing",
        -9.747749786701824
      ],
      [
        "lipwa",
        -9.74856691033252
      ],
      [
        "teuliwa",
        -9.748805871443821
      ],
      [
        "kataba",
        -9.749834400574171
      ],
      [
        "▁serikali.",
        -9.750477843962301
      ],
      [
        "fuasi",
        -9.751796413426522
      ],
      [
        "▁alitaka",
        -9.75234943484464
      ],
      [
        "▁w",
        -9.752472129705673
      ],
      [
        "tembea",
        -9.752473043346416
      ],
      [
        "-1",
        -9.752702990111283
      ],
      [
        "sse",
        -9.752764949545966
      ],
      [
        "wemo",
        -9.753106520822147
      ],
      [
        "▁kutumika",
        -9.754233404264527
      ],
      [
        "▁Solskjaer",
        -9.756230309214391
      ],
      [
        "▁Spika",
        -9.756235599545466
      ],
      [
        "▁labda",
        -9.756245468802403
      ],
      [
        "ingiza",
        -9.756357665865425
      ],
      [
        "▁kufuata",
        -9.756397750868135
      ],
      [
        "▁misingi",
        -9.756402320705078
      ],
      [
        "▁ziara",
        -9.756417487103406
      ],
      [
        "jui",
        -9.756655385019872
      ],
      [
        "▁nyumbani.",
        -9.75671502398572
      ],
      [
        "lakini",
        -9.757168728595756
      ],
      [
        "▁mpenzi",
        -9.757426910118557
      ],
      [
        "▁inapo",
        -9.757435469863132
      ],
      [
        "dumu",
        -9.759472179688363
      ],
      [
        "▁uto",
        -9.759723748982031
      ],
      [
        "wasilishwa",
        -9.760673401002714
      ],
      [
        "lim",
        -9.761152255167607
      ],
      [
        "zungu",
        -9.761160220107321
      ],
      [
        "saini",
        -9.763439080613498
      ],
      [
        "▁kuuawa",
        -9.763539818745873
      ],
      [
        "kimbia",
        -9.764259596568051
      ],
      [
        "▁kuwapa",
        -9.765233648554807
      ],
      [
        "▁kushuka",
        -9.767514954988727
      ],
      [
        "hukumiwa",
        -9.769928943535227
      ],
      [
        "▁maslahi",
        -9.769928959470029
      ],
      [
        "▁sarafu",
        -9.769930107287642
      ],
      [
        "▁uvumi",
        -9.769932552878629
      ],
      [
        "▁mazishi",
        -9.769941124036112
      ],
      [
        "▁ndefu",
        -9.769958984555341
      ],
      [
        "▁sumu",
        -9.769975805516443
      ],
      [
        "▁(M",
        -9.770210920198227
      ],
      [
        "▁lishe",
        -9.770248398015433
      ],
      [
        "▁hoja",
        -9.770360538136472
      ],
      [
        "▁Mwanamke",
        -9.77073972709208
      ],
      [
        "▁sare",
        -9.770802840179982
      ],
      [
        "ogopa",
        -9.770925864506763
      ],
      [
        "kabili",
        -9.771176947209614
      ],
      [
        "tenga",
        -9.771664486658912
      ],
      [
        "▁2013",
        -9.772078415417024
      ],
      [
        "▁b",
        -9.775167544343834
      ],
      [
        "naonekana",
        -9.775196484803768
      ],
      [
        "▁kupigia",
        -9.775787326204954
      ],
      [
        "pinzani",
        -9.77596641106408
      ],
      [
        "▁nita",
        -9.776007965772632
      ],
      [
        "▁wakisema",
        -9.77680710918682
      ],
      [
        "▁5.",
        -9.777101209938662
      ],
      [
        "elekeza",
        -9.777363750405222
      ],
      [
        "▁Afrika.",
        -9.777444291865015
      ],
      [
        "▁mate",
        -9.778229835689416
      ],
      [
        "adhi",
        -9.778605924323191
      ],
      [
        "▁1.",
        -9.78153174462392
      ],
      [
        "!",
        -9.781578954909683
      ],
      [
        "▁hawakuwa",
        -9.78224966362647
      ],
      [
        "▁Trafford",
        -9.783817828307825
      ],
      [
        "▁mashuhuri",
        -9.783818089520548
      ],
      [
        "▁Salah",
        -9.783830255234516
      ],
      [
        "▁robo",
        -9.783849506263232
      ],
      [
        "▁2010",
        -9.783897086096548
      ],
      [
        "▁matamshi",
        -9.784289999484876
      ],
      [
        "▁Wengine",
        -9.784463961417515
      ],
      [
        "▁kingine",
        -9.784483225640347
      ],
      [
        "▁Hivi",
        -9.78514063414194
      ],
      [
        "▁Fi",
        -9.78677545521871
      ],
      [
        "aminika",
        -9.787097698191731
      ],
      [
        "meanza",
        -9.787136319912559
      ],
      [
        "ger",
        -9.787495094917794
      ],
      [
        "uru",
        -9.789859888158169
      ],
      [
        "tamani",
        -9.790247950040248
      ],
      [
        "paka",
        -9.791533166507755
      ],
      [
        "pambana",
        -9.79224721381677
      ],
      [
        "mer",
        -9.792816554628537
      ],
      [
        "▁iliyopo",
        -9.793263618566527
      ],
      [
        "▁Makam",
        -9.793643820268631
      ],
      [
        "hudhuria",
        -9.794319915102076
      ],
      [
        "▁wataalam",
        -9.795071917334738
      ],
      [
        "adaktari",
        -9.795220367766426
      ],
      [
        "zoezi",
        -9.796607085524448
      ],
      [
        "▁kuwania",
        -9.796737338446746
      ],
      [
        "▁Denmark",
        -9.797902335517525
      ],
      [
        "▁lisilo",
        -9.797904006585657
      ],
      [
        "▁bakteria",
        -9.797907251662338
      ],
      [
        "▁nyimbo",
        -9.79792159920736
      ],
      [
        "▁kisiwa",
        -9.797973871838543
      ],
      [
        "▁wapya",
        -9.798087721642313
      ],
      [
        "▁asiye",
        -9.79828672899917
      ],
      [
        "▁app",
        -9.798347031062859
      ],
      [
        "awamu",
        -9.79834782126742
      ],
      [
        "▁Pele",
        -9.798453024639363
      ],
      [
        "▁utendaji",
        -9.798623418537328
      ],
      [
        "▁2000",
        -9.798772341939248
      ],
      [
        "▁matatu",
        -9.799086373152
      ],
      [
        "▁ufisadi",
        -9.799124814715281
      ],
      [
        "▁karibuni.",
        -9.7993379946618
      ],
      [
        "Katika",
        -9.799363622105577
      ],
      [
        "▁\"Tuli",
        -9.801133651193833
      ],
      [
        "▁Maria",
        -9.802127495731698
      ],
      [
        "▁hasara",
        -9.802269375973825
      ],
      [
        "ungana",
        -9.804392849771324
      ],
      [
        "▁2018.",
        -9.804894347630722
      ],
      [
        "▁nyama",
        -9.806253024869438
      ],
      [
        "der",
        -9.807559679163228
      ],
      [
        "▁akiba",
        -9.808659658989447
      ],
      [
        "▁\"I",
        -9.810936840243787
      ],
      [
        "▁kawaida,",
        -9.810982781105192
      ],
      [
        "▁kuwasilisha",
        -9.81122076350071
      ],
      [
        "▁kabisa.",
        -9.812004619316115
      ],
      [
        "▁Tshisekedi",
        -9.812188049568448
      ],
      [
        "▁Thomas",
        -9.812188053753049
      ],
      [
        "▁tahadhari",
        -9.812188059188065
      ],
      [
        "▁kutazama",
        -9.81218962614567
      ],
      [
        "▁Ivor",
        -9.812240101635194
      ],
      [
        "▁mwalimu",
        -9.812248027861092
      ],
      [
        "▁swali",
        -9.81227774012465
      ],
      [
        "▁Pamoja",
        -9.812357992476016
      ],
      [
        "▁isipoku",
        -9.812640043428075
      ],
      [
        "▁nadra",
        -9.812641140891555
      ],
      [
        "▁kiteng",
        -9.812678670330591
      ],
      [
        "ld",
        -9.812710775636138
      ],
      [
        "sti",
        -9.812979423517064
      ],
      [
        "▁33",
        -9.813810618008075
      ],
      [
        "ima",
        -9.813833357427917
      ],
      [
        "gonga",
        -9.814781205589034
      ],
      [
        "▁karatasi",
        -9.815095674510697
      ],
      [
        "▁hukumu",
        -9.815332947754984
      ],
      [
        "▁wakala",
        -9.816346135946176
      ],
      [
        "▁kupa",
        -9.81657947046186
      ],
      [
        "▁kamari",
        -9.816720255124974
      ],
      [
        "san",
        -9.816881702243375
      ],
      [
        "▁alii",
        -9.81697496301325
      ],
      [
        "▁kuandaa",
        -9.817810968968882
      ],
      [
        "wili",
        -9.817852508920293
      ],
      [
        "▁(C",
        -9.81847000014345
      ],
      [
        "zingatia",
        -9.818478228985278
      ],
      [
        "▁Do",
        -9.819525584406003
      ],
      [
        "▁maalumu",
        -9.819645541339511
      ],
      [
        "▁kwangu",
        -9.819783061260443
      ],
      [
        "▁kutwa",
        -9.819810924478784
      ],
      [
        "'s",
        -9.821117104051226
      ],
      [
        "▁kumalizika",
        -9.82311413269429
      ],
      [
        "rithi",
        -9.823923763506095
      ],
      [
        "▁kuomba",
        -9.824142678631087
      ],
      [
        "land",
        -9.825003033368167
      ],
      [
        "tosha",
        -9.82578362303057
      ],
      [
        "peleke",
        -9.826004038347739
      ],
      [
        "wapa",
        -9.826125507750193
      ],
      [
        "/",
        -9.826619235768323
      ],
      [
        "▁Reuters",
        -9.826680804799347
      ],
      [
        "▁mikubwa",
        -9.826681043256492
      ],
      [
        "▁Disemba",
        -9.826681191895211
      ],
      [
        "▁Mabingwa",
        -9.826681289799094
      ],
      [
        "tofautiana",
        -9.826682780825209
      ],
      [
        "▁Coast",
        -9.826684515996302
      ],
      [
        "▁Jumui",
        -9.826685102071208
      ],
      [
        "▁chenye",
        -9.826685610856313
      ],
      [
        "▁magumu",
        -9.826685779662384
      ],
      [
        "▁ubora",
        -9.82668862333615
      ],
      [
        "Lionel",
        -9.826722183366709
      ],
      [
        "▁kuelewa",
        -9.826807934411525
      ],
      [
        "▁DRC",
        -9.826858303294852
      ],
      [
        "▁kifua",
        -9.826879100632414
      ],
      [
        "geuka",
        -9.826880458337097
      ],
      [
        "▁ukurasa",
        -9.826895803073727
      ],
      [
        "▁bangi",
        -9.827150020167132
      ],
      [
        "▁2022:",
        -9.828374219085386
      ],
      [
        "lingana",
        -9.828718555519824
      ],
      [
        "shtakiwa",
        -9.828807031774453
      ],
      [
        "mar",
        -9.829460259336264
      ],
      [
        "▁\"S",
        -9.830030434107133
      ],
      [
        "▁Ab",
        -9.830215597133325
      ],
      [
        "laumu",
        -9.830470616938722
      ],
      [
        "▁Duniani",
        -9.83114816829791
      ],
      [
        "ram",
        -9.831177076168688
      ],
      [
        "mil",
        -9.831246494263226
      ],
      [
        "fuatia",
        -9.833569896185594
      ],
      [
        "▁kisiasa.",
        -9.834243305094997
      ],
      [
        "▁kupigwa",
        -9.834456695781714
      ],
      [
        "kama",
        -9.834701008091542
      ],
      [
        "kiuka",
        -9.8375470465328
      ],
      [
        "ajiri",
        -9.8382928020169
      ],
      [
        "▁watafiti",
        -9.839233714535544
      ],
      [
        "▁Zi",
        -9.840270481603387
      ],
      [
        "mamia",
        -9.840697626564559
      ],
      [
        "▁Kampala",
        -9.841387517607714
      ],
      [
        "▁Maradona",
        -9.841388800742873
      ],
      [
        "▁makocha",
        -9.841394437282961
      ],
      [
        "▁chombo",
        -9.84140603647597
      ],
      [
        "▁figo",
        -9.841408266222128
      ],
      [
        "▁wakubwa",
        -9.841412298538177
      ],
      [
        "▁kirusi",
        -9.842267289540338
      ],
      [
        "▁msichana",
        -9.84239921491776
      ],
      [
        "▁waliuawa",
        -9.842472687259
      ],
      [
        "▁Adam",
        -9.842908998047184
      ],
      [
        "hali",
        -9.84377938482504
      ],
      [
        "mwambia",
        -9.843911692674084
      ],
      [
        "▁dunia.",
        -9.845872043391418
      ],
      [
        "▁wazo",
        -9.84808686234495
      ],
      [
        "▁90",
        -9.84947805565459
      ],
      [
        "▁34",
        -9.850526754609888
      ],
      [
        "▁mwao",
        -9.850990954717386
      ],
      [
        "▁ilim",
        -9.852602791469694
      ],
      [
        "▁...",
        -9.853497531837355
      ],
      [
        "▁(A",
        -9.853600819926399
      ],
      [
        "▁Mali",
        -9.854417866228793
      ],
      [
        "▁ilivyokuwa",
        -9.854439337060107
      ],
      [
        "ida",
        -9.855636670848169
      ],
      [
        "▁Norway",
        -9.85631206589727
      ],
      [
        "▁Christian",
        -9.856313008726925
      ],
      [
        "andikwa",
        -9.856538334140469
      ],
      [
        "mishi",
        -9.856564406351161
      ],
      [
        "▁Japan",
        -9.856672973111234
      ],
      [
        "▁mwenzake",
        -9.856988046972967
      ],
      [
        "gonjwa",
        -9.857053884263852
      ],
      [
        "▁kosa",
        -9.85710843017019
      ],
      [
        "undi",
        -9.85744737235186
      ],
      [
        "zindu",
        -9.858005845474196
      ],
      [
        "▁kuunga",
        -9.858335072949737
      ],
      [
        "pitisha",
        -9.85886249421024
      ],
      [
        "▁uliopita.",
        -9.85888809998443
      ],
      [
        "▁hii.",
        -9.859891597443243
      ],
      [
        "okoa",
        -9.860281273559
      ],
      [
        "keti",
        -9.860862927585856
      ],
      [
        "saka",
        -9.861831406197636
      ],
      [
        "▁(S",
        -9.862379485980076
      ],
      [
        "shindi",
        -9.863205658751198
      ],
      [
        "▁kujibu",
        -9.864520310399058
      ],
      [
        "sita",
        -9.865214956291856
      ],
      [
        "▁kuondolewa",
        -9.86785759330891
      ],
      [
        "▁mwake",
        -9.869199506881841
      ],
      [
        "▁3.",
        -9.86941975174301
      ],
      [
        "gwa",
        -9.869482981910625
      ],
      [
        "▁2.",
        -9.869777543772738
      ],
      [
        "▁200",
        -9.870168992235572
      ],
      [
        "▁majeraha",
        -9.871463576551362
      ],
      [
        "gunduliwa",
        -9.871463680061181
      ],
      [
        "▁PSG",
        -9.871463803279367
      ],
      [
        "▁maskini",
        -9.871463938830484
      ],
      [
        "▁misaada",
        -9.871464215026663
      ],
      [
        "▁White",
        -9.871472430905285
      ],
      [
        "kabidhi",
        -9.871479846568654
      ],
      [
        "▁wizi",
        -9.871579455611487
      ],
      [
        "▁wewe",
        -9.871580857253953
      ],
      [
        "lazimisha",
        -9.87173674273122
      ],
      [
        "▁Picha",
        -9.87177082583243
      ],
      [
        "▁kiu",
        -9.8722220908585
      ],
      [
        "▁Wamarekani",
        -9.872437841235538
      ],
      [
        "▁Sio",
        -9.872609064582466
      ],
      [
        "▁China.",
        -9.873770750695595
      ],
      [
        "▁and",
        -9.875040444175216
      ],
      [
        "▁inawa",
        -9.875529866063324
      ],
      [
        "zito",
        -9.875566873013437
      ],
      [
        "patiwa",
        -9.878466866225136
      ],
      [
        "▁kufuatilia",
        -9.880016504479087
      ],
      [
        "ff",
        -9.880144491433105
      ],
      [
        "▁tu.",
        -9.880261974787633
      ],
      [
        "wafanya",
        -9.880473285058152
      ],
      [
        "▁kufungua",
        -9.880754065190992
      ],
      [
        "▁kupanga",
        -9.880832137995437
      ],
      [
        "▁Kisha",
        -9.880937873358409
      ],
      [
        "▁uko",
        -9.880940478879076
      ],
      [
        "▁Alipo",
        -9.881474634464599
      ],
      [
        "pelekw",
        -9.881817915935283
      ],
      [
        "katika",
        -9.882090639441781
      ],
      [
        "den",
        -9.882128489482504
      ],
      [
        "mani",
        -9.883242152331583
      ],
      [
        "▁kuhusika",
        -9.883612838320715
      ],
      [
        "▁No",
        -9.883983572758396
      ],
      [
        "▁Yey",
        -9.885656996682744
      ],
      [
        "▁Prof",
        -9.88664935690592
      ],
      [
        "iwa",
        -9.886825959052535
      ],
      [
        "▁Takriban",
        -9.886848189531056
      ],
      [
        "▁Mohamed",
        -9.88684819046797
      ],
      [
        "▁urahisi",
        -9.886857118350905
      ],
      [
        "▁daraja",
        -9.886858030071583
      ],
      [
        "▁maabara",
        -9.886858652511869
      ],
      [
        "▁wilaya",
        -9.886861356354366
      ],
      [
        "▁mashaka",
        -9.88688040768045
      ],
      [
        "▁hicho.",
        -9.886965545395348
      ],
      [
        "▁Ross",
        -9.887153916596363
      ],
      [
        "sajiliwa",
        -9.887680154131584
      ],
      [
        "bainika",
        -9.888629421747753
      ],
      [
        "▁hazija",
        -9.888837460203376
      ],
      [
        "▁shuleni",
        -9.889019748461358
      ],
      [
        "▁hutoa",
        -9.8900127406799
      ],
      [
        "▁kuepuka",
        -9.890312447027243
      ],
      [
        "pate",
        -9.892837706820245
      ],
      [
        "▁31",
        -9.893356067020546
      ],
      [
        "▁yaani",
        -9.89390799029147
      ],
      [
        "30",
        -9.894432157502884
      ],
      [
        "▁kutumiwa",
        -9.89480288371817
      ],
      [
        "tes",
        -9.895154756898622
      ],
      [
        "▁anaongeza",
        -9.895482601103637
      ],
      [
        "▁Jong",
        -9.895659667911978
      ],
      [
        "▁wakosoaji",
        -9.896934741231801
      ],
      [
        "ngekuwa",
        -9.899536426276008
      ],
      [
        "rusi",
        -9.899623795245923
      ],
      [
        "▁Hag",
        -9.899704165432805
      ],
      [
        "atokeo",
        -9.901070935202501
      ],
      [
        "▁Bara",
        -9.901372481129851
      ],
      [
        "▁kisukari",
        -9.902473201936807
      ],
      [
        "▁itikadi",
        -9.902473210776783
      ],
      [
        "▁manufaa",
        -9.902473237713366
      ],
      [
        "▁Wakristo",
        -9.902473721841787
      ],
      [
        "▁kifungo",
        -9.90247791669183
      ],
      [
        "▁msongo",
        -9.902484780804803
      ],
      [
        "▁Kabila",
        -9.90249030225626
      ],
      [
        "▁bandari",
        -9.902505250910636
      ],
      [
        "▁wakimbizi",
        -9.902521054530865
      ],
      [
        "▁bure",
        -9.902554552604258
      ],
      [
        "▁vitisho",
        -9.902612002154946
      ],
      [
        "▁Romano)",
        -9.903068338410277
      ],
      [
        "▁(I",
        -9.903296459205649
      ],
      [
        "▁Mtume",
        -9.903994188168411
      ],
      [
        "ishia",
        -9.904213580559212
      ],
      [
        "▁tete",
        -9.904689149848059
      ],
      [
        "▁Wales",
        -9.904883598382296
      ],
      [
        "tra",
        -9.905706272403613
      ],
      [
        "sikiti",
        -9.907344714249437
      ],
      [
        "▁25.",
        -9.907621292305052
      ],
      [
        "▁kimataifa.",
        -9.908210205885693
      ],
      [
        "▁£1",
        -9.908912049333221
      ],
      [
        "ingilia",
        -9.90919353275875
      ],
      [
        "▁inapaswa",
        -9.909636296882777
      ],
      [
        "▁32",
        -9.91102112464929
      ],
      [
        "▁Dk",
        -9.911247298720664
      ],
      [
        "▁akifanya",
        -9.911364277769245
      ],
      [
        "▁Che",
        -9.912002754857019
      ],
      [
        "liambia",
        -9.912147792265552
      ],
      [
        "▁31,",
        -9.912306879926948
      ],
      [
        "▁kufariki",
        -9.9125357335292
      ],
      [
        "▁2021,",
        -9.913895709813414
      ],
      [
        "▁mita",
        -9.915078732372425
      ],
      [
        "ogo",
        -9.915778659778326
      ],
      [
        "wataka",
        -9.915890226308528
      ],
      [
        "▁wachanga",
        -9.915917624072797
      ],
      [
        "fungu",
        -9.915948290264051
      ],
      [
        "▁alielezea",
        -9.917908286966174
      ],
      [
        "▁kihistoria",
        -9.918346205088234
      ],
      [
        "▁kibinadamu",
        -9.918346205095784
      ],
      [
        "▁Muhammad",
        -9.918346205126644
      ],
      [
        "▁profesa",
        -9.918346205130652
      ],
      [
        "▁Shirikisho",
        -9.918346205286309
      ],
      [
        "▁jitihada",
        -9.918346205390415
      ],
      [
        "▁halali",
        -9.91835891220579
      ],
      [
        "teua",
        -9.918635797416137
      ],
      [
        "▁wazee",
        -9.91881180696415
      ],
      [
        "▁utulivu",
        -9.918866558177701
      ],
      [
        "▁homa",
        -9.919114555055561
      ],
      [
        "zoea",
        -9.919209626860006
      ],
      [
        "amuru",
        -9.920133232859573
      ],
      [
        "▁iliyotolewa",
        -9.921126788809442
      ],
      [
        "▁kushika",
        -9.921403014317782
      ],
      [
        "Uchaguzi",
        -9.921580464868155
      ],
      [
        "▁mku",
        -9.921640759530703
      ],
      [
        "elezwa",
        -9.922046820929154
      ],
      [
        "vo",
        -9.923107151930225
      ],
      [
        "ondo",
        -9.923360840610059
      ],
      [
        "hutumiwa",
        -9.923512900334668
      ],
      [
        "haba",
        -9.92363824991801
      ],
      [
        "gan",
        -9.923805928243056
      ],
      [
        "dadi",
        -9.925124497387142
      ],
      [
        "jali",
        -9.925228576181983
      ],
      [
        "tibu",
        -9.925345025093716
      ],
      [
        "▁Haku",
        -9.925576875174599
      ],
      [
        "tambuliwa",
        -9.92653746328751
      ],
      [
        "nti",
        -9.926543197727888
      ],
      [
        "▁In",
        -9.929158211114618
      ],
      [
        "▁kuhisi",
        -9.929857298843658
      ],
      [
        "msaidia",
        -9.930014383088178
      ],
      [
        "▁mto",
        -9.930028782778177
      ],
      [
        "asisi",
        -9.931858589439766
      ],
      [
        "pp",
        -9.932037848658293
      ],
      [
        "▁Jam",
        -9.932191123769595
      ],
      [
        "▁19,",
        -9.93241927331388
      ],
      [
        "▁kiki",
        -9.932997770566672
      ],
      [
        "futa",
        -9.933559369471958
      ],
      [
        "▁pekee.",
        -9.934174301295101
      ],
      [
        "▁(Calciomercato",
        -9.934475237345874
      ],
      [
        "▁Ahmed",
        -9.934475244230597
      ],
      [
        "▁Brighton",
        -9.934475248051914
      ],
      [
        "▁2011",
        -9.93447556098062
      ],
      [
        "▁Burundi",
        -9.934475727499414
      ],
      [
        "▁kiakili",
        -9.934476437633883
      ],
      [
        "▁mstari",
        -9.93447928372763
      ],
      [
        "▁itakayo",
        -9.934488263985381
      ],
      [
        "▁Maalim",
        -9.93449105375371
      ],
      [
        "▁utakao",
        -9.934705629969562
      ],
      [
        "▁dada",
        -9.934713815444724
      ],
      [
        "sahau",
        -9.93503141792846
      ],
      [
        "▁Democratic",
        -9.93526463701993
      ],
      [
        "▁zake.",
        -9.935305114145404
      ],
      [
        "▁ujao.",
        -9.935738512881237
      ],
      [
        "kimbilia",
        -9.936036643575054
      ],
      [
        "gombea",
        -9.93710705388585
      ],
      [
        "tekwa",
        -9.937523189118066
      ],
      [
        "▁36",
        -9.938380238628167
      ],
      [
        "▁United.",
        -9.939237827907284
      ],
      [
        "▁kujitenga",
        -9.939471530036558
      ],
      [
        "▁mata",
        -9.940371856279857
      ],
      [
        "ron",
        -9.941835420875995
      ],
      [
        "kundi",
        -9.94313720888618
      ],
      [
        "▁Ukraine.",
        -9.943231618387408
      ],
      [
        "haribu",
        -9.943757971147175
      ],
      [
        "▁Urusi.",
        -9.943790247926426
      ],
      [
        "▁Mtu",
        -9.943960796545266
      ],
      [
        "sen",
        -9.944844235303222
      ],
      [
        "▁hatarini",
        -9.945076914217346
      ],
      [
        "patia",
        -9.945344352695102
      ],
      [
        "ng'",
        -9.945408478730023
      ],
      [
        "▁\"Kuna",
        -9.947863643630782
      ],
      [
        "▁Nina",
        -9.949297763558068
      ],
      [
        "▁uchungu",
        -9.949754850843565
      ],
      [
        "jivunia",
        -9.950870738230254
      ],
      [
        "▁Daniel",
        -9.950871340065039
      ],
      [
        "▁bandia",
        -9.950878676758656
      ],
      [
        "▁al-Qaeda",
        -9.950886616242371
      ],
      [
        "▁ajali",
        -9.951002430752421
      ],
      [
        "▁aibu",
        -9.951035643969345
      ],
      [
        "▁Times",
        -9.9510589578761
      ],
      [
        "▁Seif",
        -9.951060384037788
      ],
      [
        "▁Go",
        -9.951518368124368
      ],
      [
        "▁ipo",
        -9.95155428118533
      ],
      [
        "dhif",
        -9.951815697092464
      ],
      [
        "▁mteule",
        -9.951962315554741
      ],
      [
        "▁kuandika",
        -9.952797027379763
      ],
      [
        "Z",
        -9.95468502853705
      ],
      [
        "uko",
        -9.957604736006523
      ],
      [
        "▁majibu",
        -9.957862740946293
      ],
      [
        "▁muonekan",
        -9.957868388496848
      ],
      [
        "▁Pri",
        -9.957887988305133
      ],
      [
        "achwa",
        -9.959749378250493
      ],
      [
        "▁mren",
        -9.960848391190865
      ],
      [
        "bainisha",
        -9.960934496786987
      ],
      [
        "▁akawa",
        -9.961379343795913
      ],
      [
        "stal",
        -9.961506051415139
      ],
      [
        "▁Bin",
        -9.963366663799398
      ],
      [
        "▁kuchunguza",
        -9.96344347466776
      ],
      [
        "pia",
        -9.966686800953692
      ],
      [
        "▁Alex",
        -9.967510561820305
      ],
      [
        "▁twitter",
        -9.967535346648942
      ],
      [
        "▁Watanzania",
        -9.967535346976408
      ],
      [
        "▁msamaha",
        -9.967535363376726
      ],
      [
        "chanjwa",
        -9.967535524627365
      ],
      [
        "▁makanisa",
        -9.967535535858499
      ],
      [
        "▁Hispania",
        -9.967535545601635
      ],
      [
        "kusanyika",
        -9.96753556393258
      ],
      [
        "▁kifahari",
        -9.96753621921458
      ],
      [
        "▁mishipa",
        -9.967551834581414
      ],
      [
        "▁nyekundu",
        -9.967557782561492
      ],
      [
        "▁umati",
        -9.967594177123603
      ],
      [
        "zuiliwa",
        -9.967654715880684
      ],
      [
        "▁ubalozi",
        -9.967811874083468
      ],
      [
        "▁Miongo",
        -9.967863996514179
      ],
      [
        "endeshwa",
        -9.967952853695138
      ],
      [
        "▁Johnson",
        -9.968134079276798
      ],
      [
        "▁usimamizi",
        -9.968764035363654
      ],
      [
        "napaswa",
        -9.968795321525324
      ],
      [
        "▁Chris",
        -9.969355660636317
      ],
      [
        "ney",
        -9.969708395075731
      ],
      [
        "▁Mike",
        -9.970933788533873
      ],
      [
        "▁Saudia",
        -9.971040415138521
      ],
      [
        "▁Kar",
        -9.971284207900108
      ],
      [
        "▁linasema",
        -9.971916999372908
      ],
      [
        "▁Eve",
        -9.974129685234036
      ],
      [
        "▁aliwaambia",
        -9.974228934334015
      ],
      [
        "tumai",
        -9.974705071165392
      ],
      [
        "▁1,",
        -9.974756113893243
      ],
      [
        "▁husababisha",
        -9.974870902010764
      ],
      [
        "▁Dawa",
        -9.97644646588446
      ],
      [
        "uka",
        -9.976471212732712
      ],
      [
        "▁Mah",
        -9.976980974331468
      ],
      [
        "▁kana",
        -9.977066813847689
      ],
      [
        "▁kubaki",
        -9.977086325581602
      ],
      [
        "▁lika",
        -9.977650299894744
      ],
      [
        "-2",
        -9.978066156654682
      ],
      [
        "▁deni",
        -9.978139903076556
      ],
      [
        "▁kuwasiliana",
        -9.979566469925516
      ],
      [
        "▁utu",
        -9.980720903881853
      ],
      [
        "ema",
        -9.981226396895835
      ],
      [
        "▁Hatahivyo,",
        -9.982235105015414
      ],
      [
        "▁24.",
        -9.982337614194769
      ],
      [
        "pungufu",
        -9.983139412229214
      ],
      [
        "andamana",
        -9.983438178002734
      ],
      [
        "▁Mohammed",
        -9.984484499180592
      ],
      [
        "▁Cameroon",
        -9.984484499191563
      ],
      [
        "▁2012",
        -9.984484864946577
      ],
      [
        "▁Desemba",
        -9.984485259371922
      ],
      [
        "shukiwa",
        -9.984488354514728
      ],
      [
        "kadiria",
        -9.984489809450178
      ],
      [
        "▁majuzi",
        -9.984490358091264
      ],
      [
        "▁Video",
        -9.984491077401238
      ],
      [
        "▁misuli",
        -9.984530648094765
      ],
      [
        "▁Kes",
        -9.984537910597142
      ],
      [
        "▁Muingereza",
        -9.984664127353135
      ],
      [
        "enea",
        -9.984706270783605
      ],
      [
        "simu",
        -9.985529487357699
      ],
      [
        "▁Awali",
        -9.985532143627708
      ],
      [
        "▁duka",
        -9.9857002295237
      ],
      [
        "▁mingine",
        -9.985969935960888
      ],
      [
        "▁Tim",
        -9.986652138452131
      ],
      [
        "▁Islami",
        -9.986925596004127
      ],
      [
        "muunga",
        -9.98780424160188
      ],
      [
        "vy",
        -9.98831309324158
      ],
      [
        "fundisha",
        -9.989053282066978
      ],
      [
        "▁Tuli",
        -9.989980328969718
      ],
      [
        "safirisha",
        -9.99081522245373
      ],
      [
        "ens",
        -9.991162206835455
      ],
      [
        "▁moja,",
        -9.991488541431075
      ],
      [
        "▁alishinda",
        -9.992225788645937
      ],
      [
        "▁Ad",
        -9.992284404023886
      ],
      [
        "▁wanasayansi",
        -9.993412290695211
      ],
      [
        "sambazwa",
        -9.993744203011435
      ],
      [
        "▁News",
        -9.994318049676734
      ],
      [
        "em",
        -9.994504493735569
      ],
      [
        "s)",
        -9.994541408132243
      ],
      [
        "shirikiana",
        -9.994837317899425
      ],
      [
        "rs",
        -9.995015729641015
      ],
      [
        "▁kushughulikia",
        -9.995441086586453
      ],
      [
        "▁wapo",
        -9.995725131937313
      ],
      [
        "jihusisha",
        -9.996843942235643
      ],
      [
        "▁yamekuwa",
        -9.99720176899341
      ],
      [
        "skofu",
        -9.997857843820238
      ],
      [
        "▁2020.",
        -9.998616635940289
      ],
      [
        "era",
        -9.999292105974991
      ],
      [
        "marekani",
        -10.00010694264696
      ],
      [
        "▁vyenye",
        -10.001725912495381
      ],
      [
        "tafakari",
        -10.00172600064065
      ],
      [
        "▁tamasha",
        -10.001728064057449
      ],
      [
        "▁House",
        -10.001728736801915
      ],
      [
        "▁masoko",
        -10.001729669159575
      ],
      [
        "▁Korea",
        -10.001738571519374
      ],
      [
        "▁Napoli",
        -10.001749207277642
      ],
      [
        "▁madeni",
        -10.001752646952855
      ],
      [
        "▁mayai",
        -10.0018008327422
      ],
      [
        "▁makini",
        -10.001932084590795
      ],
      [
        "▁\"Kama",
        -10.002160540254923
      ],
      [
        "▁viwili",
        -10.002580956982209
      ],
      [
        "▁mfanyabiashara",
        -10.002868087719953
      ],
      [
        "▁George",
        -10.003193796339676
      ],
      [
        "jumba",
        -10.003250457619039
      ],
      [
        "▁Shi",
        -10.003568349900128
      ],
      [
        "▁kuwahi",
        -10.004019147588055
      ],
      [
        "▁c",
        -10.004913125703784
      ],
      [
        "▁kufanywa",
        -10.005271196969392
      ],
      [
        "somea",
        -10.005486772393553
      ],
      [
        "mruhusu",
        -10.005728685439792
      ],
      [
        "▁kusafisha",
        -10.007078546701527
      ],
      [
        "uduma",
        -10.007700315926703
      ],
      [
        "oni",
        -10.007981037797506
      ],
      [
        "▁2019.",
        -10.008122647602137
      ],
      [
        "▁wapi",
        -10.00883718725651
      ],
      [
        "ther",
        -10.009202847334947
      ],
      [
        "▁mrefu.",
        -10.010043549884806
      ],
      [
        "▁United,",
        -10.010678546154782
      ],
      [
        "▁baadaye,",
        -10.010756883244216
      ],
      [
        "▁anaelezea",
        -10.010768346712567
      ],
      [
        "▁She",
        -10.011651192608067
      ],
      [
        "▁2017,",
        -10.012147489947713
      ],
      [
        "▁alio",
        -10.01311292581089
      ],
      [
        "▁kujitolea",
        -10.013156796271865
      ],
      [
        "▁Gar",
        -10.014552932096674
      ],
      [
        "▁miili",
        -10.015337576978002
      ],
      [
        "▁kijiji",
        -10.017103259832126
      ],
      [
        "▁\"Ali",
        -10.017468637774002
      ],
      [
        "holanzi",
        -10.018204766323473
      ],
      [
        "halifu",
        -10.018590701114746
      ],
      [
        "nua",
        -10.018806378604307
      ],
      [
        "▁protini",
        -10.01926974186324
      ],
      [
        "▁mswaki",
        -10.019270154165447
      ],
      [
        "▁Kiarabu",
        -10.019270218864644
      ],
      [
        "▁majengo",
        -10.019271569024037
      ],
      [
        "▁mageuzi",
        -10.019273025603118
      ],
      [
        "▁kutatua",
        -10.019327368776104
      ],
      [
        "▁ijayo",
        -10.019336576149335
      ],
      [
        "▁1990",
        -10.019342961765489
      ],
      [
        "▁japo",
        -10.01941002728928
      ],
      [
        "▁madogo",
        -10.019417632536864
      ],
      [
        "▁udanganyifu",
        -10.019467280276821
      ],
      [
        "▁viwanja",
        -10.019824068607718
      ],
      [
        "▁Hivyo",
        -10.020080530670334
      ],
      [
        "uliwa",
        -10.020227862013991
      ],
      [
        "▁utakuwa",
        -10.020368943282545
      ],
      [
        "▁Air",
        -10.02131573775215
      ],
      [
        "▁awali.",
        -10.021647231845883
      ],
      [
        "taki",
        -10.021824122572454
      ],
      [
        "▁aliji",
        -10.021941503716441
      ],
      [
        "▁hakika",
        -10.021979151147132
      ],
      [
        "lisha",
        -10.022159064287155
      ],
      [
        "▁uwe",
        -10.022236654533453
      ],
      [
        "hudumia",
        -10.022406633524316
      ],
      [
        "▁Ulaya.",
        -10.022832669598703
      ],
      [
        "▁\"J",
        -10.022889797010247
      ],
      [
        "▁''M",
        -10.022962725386353
      ],
      [
        "chafu",
        -10.023351686552523
      ],
      [
        "▁Urusi,",
        -10.02357614199925
      ],
      [
        "▁23.",
        -10.023823309047744
      ],
      [
        "▁usafi",
        -10.02393770544417
      ],
      [
        "bisha",
        -10.02499835364721
      ],
      [
        "▁kudai",
        -10.025566034368076
      ],
      [
        "▁pasi",
        -10.026295142952744
      ],
      [
        "▁wanahabari",
        -10.027963759854895
      ],
      [
        "baka",
        -10.028972733081371
      ],
      [
        "▁wanafanya",
        -10.029167457768608
      ],
      [
        "endeleza",
        -10.029400892086048
      ],
      [
        "sifu",
        -10.030147576163575
      ],
      [
        "▁yale",
        -10.030522819545833
      ],
      [
        "▁Moja",
        -10.031778984881015
      ],
      [
        "▁33,",
        -10.032748826576618
      ],
      [
        "fai",
        -10.034393360964604
      ],
      [
        "niambia",
        -10.034797754584673
      ],
      [
        "▁sanamu",
        -10.035733662724784
      ],
      [
        "▁kinywa",
        -10.03629654340471
      ],
      [
        "fikiwa",
        -10.036373415806484
      ],
      [
        "jifungua",
        -10.03646996452759
      ],
      [
        "rling",
        -10.036580831588957
      ],
      [
        "hesabiwa",
        -10.03712688402548
      ],
      [
        "▁dhamana",
        -10.037127125510558
      ],
      [
        "▁Seneti",
        -10.037127804169451
      ],
      [
        "▁njama",
        -10.037128245919135
      ],
      [
        "▁zozote",
        -10.037131210726617
      ],
      [
        "▁punde",
        -10.037137431035339
      ],
      [
        "▁utalii",
        -10.03719004114106
      ],
      [
        "▁2009",
        -10.037394721878439
      ],
      [
        "▁enzi",
        -10.037464191646968
      ],
      [
        "▁misikiti",
        -10.037482785900949
      ],
      [
        "▁Kiafrika",
        -10.037588962557276
      ],
      [
        "▁Jack",
        -10.037715349975217
      ],
      [
        "▁kifalme",
        -10.037742599828515
      ],
      [
        "▁jengo",
        -10.037964827991392
      ],
      [
        "▁Jose",
        -10.038592866819654
      ],
      [
        "▁kilichotokea",
        -10.038860131027153
      ],
      [
        "▁nafuu",
        -10.038900969857327
      ],
      [
        "▁langu",
        -10.039159052870204
      ],
      [
        "▁kuathiri",
        -10.039557559584715
      ],
      [
        "50",
        -10.03972347294678
      ],
      [
        "▁ziko",
        -10.040187208213933
      ],
      [
        "▁wakili",
        -10.04061317063828
      ],
      [
        "▁Baba",
        -10.04075357149092
      ],
      [
        "▁(E",
        -10.040864689770093
      ],
      [
        "▁namba",
        -10.041287310083607
      ],
      [
        "▁Kusini,",
        -10.041440618535294
      ],
      [
        "tilia",
        -10.04224235905303
      ],
      [
        "▁80",
        -10.043156553912038
      ],
      [
        "▁watakao",
        -10.04330852095178
      ],
      [
        "▁wanayo",
        -10.043582995935814
      ],
      [
        "▁kutisha",
        -10.04365138763906
      ],
      [
        "▁kujifunza",
        -10.044082921487266
      ],
      [
        "furahi",
        -10.044358101560253
      ],
      [
        "▁Katiba",
        -10.046287398939404
      ],
      [
        "▁kadhaa.",
        -10.046646259930895
      ],
      [
        "▁kijamii,",
        -10.047416214019723
      ],
      [
        "er,",
        -10.047452502650255
      ],
      [
        "badilishwa",
        -10.047785763300464
      ],
      [
        "▁\"Kil",
        -10.047878832291762
      ],
      [
        "▁viti",
        -10.0483058589322
      ],
      [
        "tion",
        -10.04844520641521
      ],
      [
        "▁alijiunga",
        -10.048446252144416
      ],
      [
        "▁45",
        -10.048506251150314
      ],
      [
        "idhinishwa",
        -10.04866303107536
      ],
      [
        "▁aliwahi",
        -10.050294445513709
      ],
      [
        "laani",
        -10.051032532450805
      ],
      [
        "had",
        -10.051473388985823
      ],
      [
        "▁Kim",
        -10.052115620813812
      ],
      [
        "▁(Telegraph",
        -10.053780690351712
      ],
      [
        "semaji",
        -10.053861235308942
      ],
      [
        "▁hat",
        -10.05508159899287
      ],
      [
        "▁Uruguay",
        -10.055308700991167
      ],
      [
        "▁masikini",
        -10.055308865162683
      ],
      [
        "▁Palace",
        -10.055310333260579
      ],
      [
        "▁kabila",
        -10.055312078382324
      ],
      [
        "▁walifanya",
        -10.055314976480819
      ],
      [
        "▁Mapema",
        -10.055316751053091
      ],
      [
        "▁jingine",
        -10.055331994129503
      ],
      [
        "tunza",
        -10.055393372555201
      ],
      [
        "▁Joseph",
        -10.055400827550901
      ],
      [
        "▁Poland",
        -10.055410648649357
      ],
      [
        "kosolewa",
        -10.055464734580925
      ],
      [
        "hafla",
        -10.055468904924133
      ],
      [
        "▁iliopita",
        -10.055589170170908
      ],
      [
        "y,",
        -10.055628134525556
      ],
      [
        "▁mwanamume",
        -10.055730945208813
      ],
      [
        "▁kiislamu",
        -10.055741675860741
      ],
      [
        "▁Cry",
        -10.05608330458046
      ],
      [
        "▁mtaa",
        -10.056300548468121
      ],
      [
        "▁Habari",
        -10.056624903173525
      ],
      [
        "▁nambari",
        -10.056936264855052
      ],
      [
        "▁Wing",
        -10.057437825911412
      ],
      [
        "▁kuhesabu",
        -10.061293328335152
      ],
      [
        "▁mwingine,",
        -10.06142000835191
      ],
      [
        "▁kujitokeza",
        -10.062054440765996
      ],
      [
        "▁Unaweza",
        -10.063100907941546
      ],
      [
        "▁kutia",
        -10.063111047613246
      ],
      [
        "▁mitaa",
        -10.063696778410705
      ],
      [
        "▁Jaji",
        -10.064199259613172
      ],
      [
        "▁Akizungumz",
        -10.064571116818062
      ],
      [
        "apa",
        -10.065063002123743
      ],
      [
        "▁kutua",
        -10.065463203510788
      ],
      [
        "▁wanaishi",
        -10.065927119573649
      ],
      [
        "jiuzulu",
        -10.065930174607796
      ],
      [
        "▁Mark",
[...]
