{
  "version": "1.0",
  "truncation": null,
  "padding": null,
  "added_tokens": [
    {
      "id": 0,
      "content": "<pad>",
      "single_word": false,
      "lstrip": false,
      "rstrip": false,
      "normalized": false,
      "special": true
    },
    {
      "id": 1,
      "content": "<unk>",
      "single_word": false,
      "lstrip": false,
      "rstrip": false,
      "normalized": false,
      "special": true
    },
    {
      "id": 2,
      "content": "<cls>",
      "single_word": false,
      "lstrip": false,
      "rstrip": false,
      "normalized": false,
      "special": true
    }
  ],
  "normalizer": {
    "type": "Sequence",
    "normalizers": [
      {
        "type": "Nmt"
      },
      {
        "type": "NFKC"
      },
      {
        "type": "Replace",
        "pattern": {
          "Regex": " {2,}"
        },
        "content": " "
      }
    ]
  },
  "pre_tokenizer": {
    "type": "Metaspace",
    "replacement": "▁",
    "prepend_scheme": "always",
    "split": true
  },
  "post_processor": {
    "type": "TemplateProcessing",
    "single": [
      {
        "SpecialToken": {
          "id": "<cls>",
          "type_id": 0
        }
      },
      {
        "Sequence": {
          "id": "A",
          "type_id": 0
        }
      }
    ],
    "pair": [
      {
        "Sequence": {
          "id": "A",
          "type_id": 0
        }
      },
      {
        "Sequence": {
          "id": "B",
          "type_id": 1
        }
      }
    ],
    "special_tokens": {
      "<cls>": {
        "id": "<cls>",
        "ids": [
          2
        ],
        "tokens": [
          "<cls>"
        ]
      }
    }
  },
  "decoder": {
    "type": "Metaspace",
    "replacement": "▁",
    "prepend_scheme": "always",
    "split": true
  },
  "model": {
    "type": "Unigram",
    "unk_id": 1,
    "vocab": [
      [
        "<pad>",
        0.0
      ],
      [
        "<unk>",
        0.0
      ],
      [
        "<cls>",
        0.0
      ],
      [
        "▁",
        -3.1708769856412617
      ],
      [
        "ን",
        -3.558783079659322
      ],
      [
        "ት",
        -3.61246810902578
      ],
      [
        "▁የ",
        -3.801952380306557
      ],
      [
        "▁በ",
        -3.848090499771753
      ],
      [
        "።",
        -4.037603498243718
      ],
      [
        "፣",
        -4.0916123630733265
      ],
      [
        "ም",
        -4.308530101044492
      ],
      [
        "▁እና",
        -4.389993604978575
      ],
      [
        "ው",
        -4.5648250714022955
      ],
      [
        "ር",
        -4.659874433185512
      ],
      [
        "ል",
        -4.852358268978821
      ],
      [
        "▁ከ",
        -4.869891011487296
      ],
      [
        "▁ላይ",
        -4.991417667677517
      ],
      [
        "ስ",
        -5.147049671572171
      ],
      [
        "▁ውስጥ",
        -5.200908561109245
      ],
      [
        "ች",
        -5.267014579675013
      ],
      [
        "▁ለ",
        -5.281943416602895
      ],
      [
        "ዎች",
        -5.317486435822031
      ],
      [
        "ድ",
        -5.368219177088093
      ],
      [
        "▁አ",
        -5.379057563073889
      ],
      [
        "ታ",
        -5.380286630295893
      ],
      [
        "ል።",
        -5.458063344661553
      ],
      [
        "▁ወደ",
        -5.491590855314669
      ],
      [
        "ብ",
        -5.510754368223223
      ],
      [
        "▁ነው።",
        -5.54728778155088
      ],
      [
        "ሉ",
        -5.583929657461712
      ],
      [
        "ቶች",
        -5.619875114532403
      ],
      [
        "▁ጊዜ",
        -5.664610672091262
      ],
      [
        "ና",
        -5.747557347371319
      ],
      [
        "▁ወይም",
        -5.804133511853858
      ],
      [
        "ፍ",
        -5.805452620689458
      ],
      [
        "ቱ",
        -5.812373794688652
      ],
      [
        "▁መ",
        -5.831797601203028
      ],
      [
        "▁ጋር",
        -5.895330332406051
      ],
      [
        "▁የሚ",
        -5.938589223869869
      ],
      [
        "▁ነበር",
        -5.947647106932671
      ],
      [
        "ይ",
        -5.958862704571773
      ],
      [
        "ጥ",
        -5.9949669741591265
      ],
      [
        "▁እንደ",
        -5.996133785151433
      ],
      [
        "▁እ",
        -5.998671286317821
      ],
      [
        ")",
        -6.070998623677156
      ],
      [
        "▁ብዙ",
        -6.0740685507997725
      ],
      [
        "▁ይ",
        -6.083649012749038
      ],
      [
        "ቅ",
        -6.1102101209425825
      ],
      [
        "በት",
        -6.201617049198665
      ],
      [
        "ክ",
        -6.218980757542175
      ],
      [
        "▁ተ",
        -6.2259004132502245
      ],
      [
        "ዝ",
        -6.227233418529117
      ],
      [
        "ላይ",
        -6.2477436514440505
      ],
      [
        "ጣም",
        -6.25866092535296
      ],
      [
        "ማ",
        -6.2602607997704975
      ],
      [
        "▁ማ",
        -6.272857865061381
      ],
      [
        "ሩ",
        -6.277986858001345
      ],
      [
        "ላ",
        -6.309008741581538
      ],
      [
        "ያ",
        -6.309547046691771
      ],
      [
        "ውን",
        -6.313957223343179
      ],
      [
        "ሎች",
        -6.317281047998195
      ],
      [
        "ግ",
        -6.32584587598115
      ],
      [
        "▁ግን",
        -6.358516587771518
      ],
      [
        "ነት",
        -6.361457739432863
      ],
      [
        "ሮች",
        -6.365267002217579
      ],
      [
        "ራ",
        -6.365908875564241
      ],
      [
        "ረ",
        -6.36666579171602
      ],
      [
        "ዋ",
        -6.386348757802163
      ],
      [
        "ቀ",
        -6.421131651661417
      ],
      [
        "▁ይህ",
        -6.427923576356516
      ],
      [
        "ሱ",
        -6.431493347490306
      ],
      [
        "፡",
        -6.435213650263947
      ],
      [
        "▁ሊ",
        -6.440251236027266
      ],
      [
        "▁ነው",
        -6.462082277122247
      ],
      [
        "ዊ",
        -6.465603787345177
      ],
      [
        "-",
        -6.466030333317991
      ],
      [
        "▁ለመ",
        -6.467537389182753
      ],
      [
        "ተ",
        -6.479394043357233
      ],
      [
        "ለ",
        -6.504452535524656
      ],
      [
        "ዩ",
        -6.51041927692239
      ],
      [
        "ሽ",
        -6.51889566247405
      ],
      [
        "▁ሲሆን",
        -6.519112556091031
      ],
      [
        "▁ሰዎች",
        -6.521029061314784
      ],
      [
        "ሳ",
        -6.533640649295742
      ],
      [
        "▁ሲ",
        -6.583555619126885
      ],
      [
        "▁የተ",
        -6.604500355315739
      ],
      [
        "ሮ",
        -6.613869369065057
      ],
      [
        "ሚ",
        -6.6754651975784025
      ],
      [
        "▁ያ",
        -6.682708227107936
      ],
      [
        "፤",
        -6.7021396862869675
      ],
      [
        "ቃ",
        -6.704105087897251
      ],
      [
        "▁ናቸው",
        -6.71070671067047
      ],
      [
        "ጋ",
        -6.712498265372226
      ],
      [
        "ቸው",
        -6.715629138256397
      ],
      [
        "▁ያለው",
        -6.716743569763166
      ],
      [
        "ባ",
        -6.722096089590412
      ],
      [
        "ሬ",
        -6.729218633002411
      ],
      [
        "▁(",
        -6.730155621363061
      ],
      [
        "ነ",
        -6.738946380779561
      ],
      [
        "ካ",
        -6.740104370012582
      ],
      [
        "ጠ",
        -6.743393874588543
      ],
      [
        "▁ቦታ",
        -6.755161114538089
      ],
      [
        "በ",
        -6.7701883309762
      ],
      [
        "ሪ",
        -6.775762325398679
      ],
      [
        "ቡ",
        -6.7767320274136384
      ],
      [
        "ደ",
        -6.795759313608134
      ],
      [
        "ኑ",
        -6.81264346418925
      ],
      [
        "▁ለማ",
        -6.8263385802474925
      ],
      [
        "ሎ",
        -6.833129969911252
      ],
      [
        "ቲ",
        -6.83626226664978
      ],
      [
        "ዋል።",
        -6.840146909063907
      ],
      [
        "ዳ",
        -6.849153239533797
      ],
      [
        "ዎ",
        -6.853423000253492
      ],
      [
        "▁በመ",
        -6.857675817960012
      ],
      [
        "ንግ",
        -6.861831073411592
      ],
      [
        "▁ነገ",
        -6.862549946926524
      ],
      [
        "▁ሁኔታ",
        -6.877412159845214
      ],
      [
        "▁በኋላ",
        -6.883007975987875
      ],
      [
        "▁ይችላሉ",
        -6.8847574237208296
      ],
      [
        "▁መንገድ",
        -6.887231329685973
      ],
      [
        "ፋ",
        -6.895647681768533
      ],
      [
        "”",
        -6.896787110096997
      ],
      [
        "ዶ",
        -6.908579004408342
      ],
      [
        "▁የመ",
        -6.910829577045369
      ],
      [
        "ቶ",
        -6.912035092535067
      ],
      [
        "▁አንድ",
        -6.913725743396141
      ],
      [
        "ዚህ",
        -6.921639547014692
      ],
      [
        "▁እንዲ",
        -6.929486330480149
      ],
      [
        "ኞ",
        -6.930358206896793
      ],
      [
        "ሲ",
        -6.933600347105622
      ],
      [
        "▁የመጀመሪያ",
        -6.937637702747717
      ],
      [
        "▁በፊት",
        -6.939946075437232
      ],
      [
        "ጎ",
        -6.958372307153706
      ],
      [
        "በረዶ",
        -6.972625393982399
      ],
      [
        "ዓለም",
        -6.975289550427183
      ],
      [
        "▁ምን",
        -6.97530726185361
      ],
      [
        "ሊ",
        -6.979334289942599
      ],
      [
        "▁ወቅ",
        -6.989704272325893
      ],
      [
        "ቁ",
        -6.995423415307595
      ],
      [
        "▁ቀ",
        -6.997114027132854
      ],
      [
        "▁ካ",
        -7.017858278863292
      ],
      [
        "ኝ",
        -7.026443865724519
      ],
      [
        "▁አንዳን",
        -7.037151631745385
      ],
      [
        "▁እስከ",
        -7.04051984791473
      ],
      [
        "▁አስ",
        -7.055541136555815
      ],
      [
        "ጭ",
        -7.063802685453505
      ],
      [
        "▁ብቻ",
        -7.069147937723487
      ],
      [
        "የ",
        -7.0770678214965805
      ],
      [
        "ህ",
        -7.079984169802551
      ],
      [
        "ዕ",
        -7.082808371535294
      ],
      [
        "▁ያሉ",
        -7.086582868510595
      ],
      [
        "ቴ",
        -7.108324148536874
      ],
      [
        "ቹ",
        -7.113362736211029
      ],
      [
        "ዎቹ",
        -7.113873649796951
      ],
      [
        "ኖች",
        -7.120540831405387
      ],
      [
        "▁እነዚህ",
        -7.123913635704168
      ],
      [
        "▁ሌሎ",
        -7.127421256845781
      ],
      [
        "ራት",
        -7.133365050313248
      ],
      [
        "ኛ",
        -7.14111522254629
      ],
      [
        "▁ቢ",
        -7.141123658500746
      ],
      [
        "ገ",
        -7.143563472072511
      ],
      [
        "ዱ",
        -7.150287467515982
      ],
      [
        "▁ይችላል",
        -7.154807822715625
      ],
      [
        "ለው",
        -7.1695025483196595
      ],
      [
        "▁ኤ",
        -7.174533952833014
      ],
      [
        "ሌ",
        -7.180906933068951
      ],
      [
        "ባቸው",
        -7.181295599006422
      ],
      [
        "ተኛ",
        -7.182591127411897
      ],
      [
        "▁መጠ",
        -7.183240735245326
      ],
      [
        "▁ዋና",
        -7.183578064705769
      ],
      [
        "▁አካባቢ",
        -7.18558307023997
      ],
      [
        "ጫ",
        -7.199772787969281
      ],
      [
        "ወር",
        -7.206854453000492
      ],
      [
        "ጣ",
        -7.208186569862263
      ],
      [
        "▁ስለ",
        -7.210956973415068
      ],
      [
        "▁ወ",
        -7.218918066239739
      ],
      [
        "ሙ",
        -7.220529303276973
      ],
      [
        ".",
        -7.22154998889587
      ],
      [
        "ራዊ",
        -7.224416687003275
      ],
      [
        "▁ጉዞ",
        -7.227150006551415
      ],
      [
        "ስት",
        -7.229920917447612
      ],
      [
        "ደቡ",
        -7.238242864112062
      ],
      [
        "▁ጉዳ",
        -7.241165524087942
      ],
      [
        "ንም",
        -7.254249865999387
      ],
      [
        "▁ስ",
        -7.265780752475582
      ],
      [
        "▁የአ",
        -7.268310539863149
      ],
      [
        "ኒ",
        -7.27510402433422
      ],
      [
        "ታት",
        -7.28388460293974
      ],
      [
        "▁በተ",
        -7.2949885609851
      ],
      [
        "ጽ",
        -7.295179763469891
      ],
      [
        "▁በኩል",
        -7.299712789884851
      ],
      [
        "▁መንግስ",
        -7.302211579595828
      ],
      [
        "▁መካከ",
        -7.304109882353163
      ],
      [
        "e",
        -7.312786594782966
      ],
      [
        "▁አቀ",
        -7.313603501013504
      ],
      [
        "▁ማለት",
        -7.315492373819044
      ],
      [
        "▁ጉብኝ",
        -7.315547767825546
      ],
      [
        "መ",
        -7.319877763545261
      ],
      [
        "▁በሚ",
        -7.32207192430023
      ],
      [
        "▁ሁሉ",
        -7.325225565675668
      ],
      [
        "ቻ",
        -7.325485381461375
      ],
      [
        "▁ባ",
        -7.332009747068964
      ],
      [
        "▁ሳ",
        -7.348369701148924
      ],
      [
        "ኛው",
        -7.360281543739206
      ],
      [
        "ቆ",
        -7.362451336699887
      ],
      [
        "▁ጦርነት",
        -7.376477256643985
      ],
      [
        "▁መንገዶች",
        -7.3770350480973725
      ],
      [
        "▁ሰ",
        -7.37710528050135
      ],
      [
        "▁ከሆነ",
        -7.377971041852526
      ],
      [
        "▁ከተማ",
        -7.37906093791623
      ],
      [
        "▁“",
        -7.379566817632371
      ],
      [
        "▁ባህ",
        -7.382046631183343
      ],
      [
        "ጡ",
        -7.382418396793484
      ],
      [
        "▁ከተ",
        -7.383683926909725
      ],
      [
        "▁ቦታዎች",
        -7.384649778562646
      ],
      [
        "ዴ",
        -7.385320053390404
      ],
      [
        "ሰ",
        -7.39329676282737
      ],
      [
        "ንድ",
        -7.393387831542093
      ],
      [
        "▁በአ",
        -7.404893170460235
      ],
      [
        "ፈ",
        -7.414868350453547
      ],
      [
        "ላቸው",
        -7.420518110754976
      ],
      [
        "ቂ",
        -7.429584963062437
      ],
      [
        ",",
        -7.4395456222483975
      ],
      [
        "▁ሆኖ",
        -7.452236008903969
      ],
      [
        "ፊ",
        -7.4531849713543314
      ],
      [
        "ሪካ",
        -7.457930588070258
      ],
      [
        "000",
        -7.458044172387717
      ],
      [
        "ሆኑ",
        -7.458219501885138
      ],
      [
        "▁አሉ",
        -7.459082056358721
      ],
      [
        "▁ምክንያ",
        -7.459661461844702
      ],
      [
        "ሽን",
        -7.460377758643283
      ],
      [
        "ቢ",
        -7.4640872219461265
      ],
      [
        "▁ጥሩ",
        -7.472026635272635
      ],
      [
        "ቀጥ",
        -7.474514371860607
      ],
      [
        "ቸውን",
        -7.4908945167852
      ],
      [
        "▁ሰው",
        -7.493267953544593
      ],
      [
        "ፅ",
        -7.495993844716083
      ],
      [
        "ክስ",
        -7.502987343761541
      ],
      [
        "ፓ",
        -7.506449370581548
      ],
      [
        "ቤ",
        -7.50941546599317
      ],
      [
        "ችን",
        -7.510412945299249
      ],
      [
        "▁ቤት",
        -7.516227726234023
      ],
      [
        "ዘ",
        -7.51816341830096
      ],
      [
        "ኪ",
        -7.519802835938712
      ],
      [
        "በኛ",
        -7.533025532764572
      ],
      [
        "ቷል",
        -7.534300107044659
      ],
      [
        "▁ብ",
        -7.535431926305581
      ],
      [
        "ሳይ",
        -7.548765916371984
      ],
      [
        "ቭ",
        -7.549129610072672
      ],
      [
        "▁ደረጃ",
        -7.550259688658604
      ],
      [
        "በር",
        -7.550465318066443
      ],
      [
        "መርከብ",
        -7.55549377250318
      ],
      [
        "▁ጀምሮ",
        -7.555746071414555
      ],
      [
        "ዙ",
        -7.5594556842891425
      ],
      [
        "1",
        -7.56119102728778
      ],
      [
        "ርክ",
        -7.564028748608926
      ],
      [
        "ቫ",
        -7.56695485273503
      ],
      [
        "▁በሽታ",
        -7.569490076271618
      ],
      [
        "ዲስ",
        -7.578176442707976
      ],
      [
        "▁እንደሚ",
        -7.578633563426077
      ],
      [
        "▁ቡድ",
        -7.5825890359220285
      ],
      [
        "▁አፍ",
        -7.5855325071226725
      ],
      [
        "2",
        -7.586353059538917
      ],
      [
        "ጂ",
        -7.591688639871255
      ],
      [
        "ጉ",
        -7.593621012696779
      ],
      [
        "ኒያ",
        -7.61315715422459
      ],
      [
        "▁ናት",
        -7.6211113003571125
      ],
      [
        "▁ኮ",
        -7.624762537673432
      ],
      [
        "▁ጨዋታ",
        -7.628056897738794
      ],
      [
        "▁ክፍ",
        -7.62968124199411
      ],
      [
        "ሉም",
        -7.629923424453587
      ],
      [
        "ዲ",
        -7.633662221103911
      ],
      [
        "▁ሀገ",
        -7.637277712018109
      ],
      [
        "ቧ",
        -7.6491296100734445
      ],
      [
        "▁የበለጠ",
        -7.65025662436897
      ],
      [
        "▁እንቅስቃሴ",
        -7.650454214161853
      ],
      [
        "▁አሁን",
        -7.650464678233407
      ],
      [
        "▁እንዲሁ",
        -7.650976946799359
      ],
      [
        "▁ዓመ",
        -7.651181692768505
      ],
      [
        "▁እንኳን",
        -7.652196891229366
      ],
      [
        "▁ዘመ",
        -7.652263079762326
      ],
      [
        "▁ያላቸው",
        -7.652710302106387
      ],
      [
        "ጁ",
        -7.6553340636664124
      ],
      [
        "▁አንዱ",
        -7.656831587458985
      ],
      [
        "▁ታዋቂ",
        -7.6579656027999246
      ],
      [
        "▁ክፍል",
        -7.667167390256786
      ],
      [
        "ጓ",
        -7.671803118749654
      ],
      [
        "7",
        -7.675015129751078
      ],
      [
        "▁በማ",
        -7.680525346249057
      ],
      [
        "ዛ",
        -7.68674379853824
      ],
      [
        "ላት",
        -7.693675836884617
      ],
      [
        "አንድ",
        -7.696686111926741
      ],
      [
        "▁ወን",
        -7.703129874139968
      ],
      [
        "ለች",
        -7.706204954987067
      ],
      [
        "3",
        -7.70678221604186
      ],
      [
        "▁ያለ",
        -7.711138579416485
      ],
      [
        "▁ኦ",
        -7.711303985676576
      ],
      [
        "ሻ",
        -7.711428355281789
      ],
      [
        "▁ድረ",
        -7.715680024586391
      ],
      [
        "ልቅ",
        -7.716033958087941
      ],
      [
        "▁የሚያ",
        -7.720925948411263
      ],
      [
        "ኤ",
        -7.725928513181624
      ],
      [
        "ረፍ",
        -7.730288393564612
      ],
      [
        "▁ተመ",
        -7.730511285888136
      ],
      [
        "ንስ",
        -7.7510704393522065
      ],
      [
        "ራል",
        -7.751350910939822
      ],
      [
        "ሪያ",
        -7.758727512133272
      ],
      [
        "▁እጅ",
        -7.763214948431847
      ],
      [
        "▁ትልቅ",
        -7.763525023731476
      ],
      [
        "▁ቢሆንም",
        -7.7642552154147815
      ],
      [
        "ኘት",
        -7.764652603278607
      ],
      [
        "ኖ",
        -7.767879308751381
      ],
      [
        "▁አካባቢዎች",
        -7.768213303573585
      ],
      [
        "▁በተጨማሪ",
        -7.768618510690313
      ],
      [
        "ጅም",
        -7.769884912404342
      ],
      [
        "ሶች",
        -7.776308039617611
      ],
      [
        "ብዙ",
        -7.779595966698229
      ],
      [
        "አየር",
        -7.783674775803945
      ],
      [
        "▁ማንኛው",
        -7.788182370062975
      ],
      [
        "▁ሩጫ",
        -7.79415845310232
      ],
      [
        "▁ውሃ",
        -7.795626324925925
      ],
      [
        "▁፣",
        -7.795888553391228
      ],
      [
        "▁ም",
        -7.796219008370469
      ],
      [
        "▁ጥ",
        -7.797384394347074
      ],
      [
        "▁ህ",
        -7.8025805430231525
      ],
      [
        "ኩ",
        -7.80369787722202
      ],
      [
        "▁ዘ",
        -7.804104626265675
      ],
      [
        "ቸዋል።",
        -7.80435550025017
      ],
      [
        "r",
        -7.806823860665997
      ],
      [
        "▁ሙሉ",
        -7.808130711396977
      ],
      [
        "ባለው",
        -7.813957582127837
      ],
      [
        "ፕ",
        -7.814019936860904
      ],
      [
        "\"",
        -7.8161144707922965
      ],
      [
        "▁ጎ",
        -7.818629736894687
      ],
      [
        "▁አይነ",
        -7.830548887611384
      ],
      [
        "ዮ",
        -7.838167880897773
      ],
      [
        "▁ነ",
        -7.839948505771868
      ],
      [
        "▁ኢ",
        -7.844934452377931
      ],
      [
        "ሴ",
        -7.848123237483211
      ],
      [
        "ኮ",
        -7.852946354728845
      ],
      [
        "▁የሆነ",
        -7.863791597974403
      ],
      [
        "ፉ",
        -7.866644982235734
      ],
      [
        "▁ልዩ",
        -7.87158110999609
      ],
      [
        "ኔ",
        -7.87258817399351
      ],
      [
        "▁ዓይነ",
        -7.874711778876199
      ],
      [
        "ባሉ",
        -7.879490949228941
      ],
      [
        "ዮች",
        -7.883782143091533
      ],
      [
        "ሔ",
        -7.885240721196135
      ],
      [
        "▁እንስሳት",
        -7.885242108462857
      ],
      [
        "▁ደግሞ",
        -7.885246131238761
      ],
      [
        "▁ሚሊ",
        -7.886889971572397
      ],
      [
        "▁ከዚያ",
        -7.887142492027464
      ],
      [
        "▁ሀገሮች",
        -7.887380456447858
      ],
      [
        "ግር",
        -7.887632033930891
      ],
      [
        "▁ምር",
        -7.889207078118198
      ],
      [
        "▁ኃይል",
        -7.889779839878919
      ],
      [
        "▁የተለያ",
        -7.890108996988411
      ],
      [
        "▁ውድድር",
        -7.890257595090965
      ],
      [
        "▁ትን",
        -7.8954468315417055
      ],
      [
        "ሪዎች",
        -7.897769893608041
      ],
      [
        "a",
        -7.898383438788992
      ],
      [
        "ዶች",
        -7.90270484627194
      ],
      [
        "ምበር",
        -7.9039204013570945
      ],
      [
        "▁መጓዝ",
        -7.904732663743533
      ],
      [
        "▁በርካ",
        -7.905386230636843
      ],
      [
        "6",
        -7.906288276643561
      ],
      [
        "▁ደሴቶች",
        -7.910140475042438
      ],
      [
        "▁በረዶ",
        -7.911798940398128
      ],
      [
        "ሞች",
        -7.91468611161938
      ],
      [
        "▁ሴ",
        -7.917891865859687
      ],
      [
        "ቋ",
        -7.918155503147076
      ],
      [
        "▁ምክ",
        -7.918866726623931
      ],
      [
        "ሜ",
        -7.918886497316702
      ],
      [
        "ምስራ",
        -7.92914222021005
      ],
      [
        "▁ባሕ",
        -7.929533517921918
      ],
      [
        "▁የወ",
        -7.933222600264987
      ],
      [
        "ፊት",
        -7.935646165724374
      ],
      [
        "▁ሀገራ",
        -7.939846262621415
      ],
      [
        "▁ባለ",
        -7.94273255108947
      ],
      [
        "▁ሃገ",
        -7.944078939573634
      ],
      [
        "▁5",
        -7.9493315151186685
      ],
      [
        "ዌ",
        -7.949571352765469
      ],
      [
        "ለት",
        -7.950749374824078
      ],
      [
        "▁ጠ",
        -7.952165899225294
      ],
      [
        "መጨረሻ",
        -7.953372253968515
      ],
      [
        "ኖር",
        -7.954550574325569
      ],
      [
        "ቸ",
        -7.956974859385998
      ],
      [
        "▁ነው፣",
        -7.958335778747664
      ],
      [
        "▁ጀርመን",
        -7.961013856626073
      ],
      [
        "▁እንዳ",
        -7.9612021560746875
      ],
      [
        "ሞ",
        -7.964335623854968
      ],
      [
        "▁አይ",
        -7.969167943708565
      ],
      [
        "ብዛ",
        -7.971142644803822
      ],
      [
        "▁ወረ",
        -7.976780917716976
      ],
      [
        "ናይ",
        -7.984834164126002
      ],
      [
        "ያዊ",
        -7.985500458352664
      ],
      [
        "ላሉ",
        -7.985655765611881
      ],
      [
        "▁የእ",
        -7.988006252318703
      ],
      [
        "ፌ",
        -7.98859469066448
      ],
      [
        "ሆን",
        -7.992785243197072
      ],
      [
        "ከ",
        -8.006135143502988
      ],
      [
        "8",
        -8.011466068550927
      ],
      [
        "ሶ",
        -8.012189162696217
      ],
      [
        "▁ከሌ",
        -8.013187879140732
      ],
      [
        "ቦች",
        -8.016432786196058
      ],
      [
        "ገና",
        -8.01736531842989
      ],
      [
        "ሰብ",
        -8.019615885836863
      ],
      [
        "▁ሳን",
        -8.026093189953883
      ],
      [
        "ዝር",
        -8.027220671807349
      ],
      [
        "ዣ",
        -8.028097864093239
      ],
      [
        "ሆስፒታ",
        -8.028103007037531
      ],
      [
        "▁አስፈላጊ",
        -8.028174790258012
      ],
      [
        "▁ዙሪያ",
        -8.028185635385977
      ],
      [
        "▁ሆቴሎች",
        -8.028800559304976
      ],
      [
        "▁“የ",
        -8.029174149885186
      ],
      [
        "▁ሪፖር",
        -8.02918957600776
      ],
      [
        "▁ዘፋ",
        -8.029700641760458
      ],
      [
        "▁ወኪ",
        -8.030103540739994
      ],
      [
        "ካምፕ",
        -8.030122225208864
      ],
      [
        "▁አለበት",
        -8.030601287104528
      ],
      [
        "▁ሳይ",
        -8.03074468514661
      ],
      [
        "▁ከመ",
        -8.030847942978344
      ],
      [
        "▁አል",
        -8.032550398342805
      ],
      [
        "▁ፖሊ",
        -8.034960417515968
      ],
      [
        "ነጻ",
        -8.035101775963668
      ],
      [
        "▁ምርጫ",
        -8.036096520170041
      ],
      [
        "▁ሚኒስት",
        -8.036306322854141
      ],
      [
        "▁ለማድረግ",
        -8.039510632681882
      ],
      [
        "▁ኪ.ሜ",
        -8.039885069319382
      ],
      [
        "አካል",
        -8.041298579787723
      ],
      [
        "▁መሠረት",
        -8.04267433653991
      ],
      [
        "h",
        -8.043316063626401
      ],
      [
        "4",
        -8.044001483154123
      ],
      [
        "ቲክ",
        -8.045156845511718
      ],
      [
        "ሁለተኛው",
        -8.04837867614888
      ],
      [
        "▁ካሉ",
        -8.050933249088276
      ],
      [
        "▁የአየር",
        -8.053683373804615
      ],
      [
        "ከር",
        -8.058615881726926
      ],
      [
        "ቤት",
        -8.062257961406406
      ],
      [
        "ሰን",
        -8.06331216171482
      ],
      [
        "ዮን",
        -8.065462506497042
      ],
      [
        "▁ድም",
        -8.067120155568785
      ],
      [
        "▁ግብ",
        -8.07036643648627
      ],
      [
        "ስቲ",
        -8.073179902254958
      ],
      [
        "▁ጥቂ",
        -8.074399906165215
      ],
      [
        "ንሹ",
        -8.078106350437066
      ],
      [
        "▁ተብ",
        -8.07853556931648
      ],
      [
        "ሺ",
        -8.080019156732337
      ],
      [
        "▁ው",
        -8.084093819157337
      ],
      [
        "▁አደ",
        -8.085212043032959
      ],
      [
        "0",
        -8.08771270152699
      ],
      [
        "▁ሚ",
        -8.088335108458303
      ],
      [
        "ባል",
        -8.088358851635984
      ],
      [
        "s",
        -8.090674681535173
      ],
      [
        "▁ፍ",
        -8.090693818131077
      ],
      [
        "▁አካል",
        -8.091609479996201
      ],
      [
        "▁ቀና",
        -8.09866923499294
      ],
      [
        "▁በቀ",
        -8.099232885805847
      ],
      [
        "l",
        -8.099761986187252
      ],
      [
        "▁4",
        -8.104235737308814
      ],
      [
        "አሜሪካ",
        -8.104337926176717
      ],
      [
        "o",
        -8.10533398025845
      ],
      [
        "ረው",
        -8.106880196270222
      ],
      [
        "ኬ",
        -8.109289125397838
      ],
      [
        "ወሰነ",
        -8.111292437964947
      ],
      [
        "▁\"",
        -8.11283944686669
      ],
      [
        "▁3",
        -8.113834767759544
      ],
      [
        "ተን",
        -8.116542219285334
      ],
      [
        "ገንዘብ",
        -8.11839719280327
      ],
      [
        "▁ከፍ",
        -8.1186283156183
      ],
      [
        "ጥቅም",
        -8.119629053688142
      ],
      [
        "ገር",
        -8.121034136641812
      ],
      [
        "ኮል",
        -8.12338725059802
      ],
      [
        "▁ረ",
        -8.12739232794464
      ],
      [
        "ምድር",
        -8.12937849331201
      ],
      [
        "▁በሆነ",
        -8.137451936736259
      ],
      [
        "▁ዓለም",
        -8.139527392712171
      ],
      [
        "▁ኪ",
        -8.142272260299514
      ],
      [
        "▁በሰ",
        -8.144607089473952
      ],
      [
        "▁ባሉ",
        -8.144889762752024
      ],
      [
        "al",
        -8.146124710596084
      ],
      [
        "▁ዳርቻ",
        -8.147741503410613
      ],
      [
        "ነር",
        -8.15172916290012
      ],
      [
        "ሃ",
        -8.152664253335468
      ],
      [
        "▁ስፍራ",
        -8.156297727382842
      ],
      [
        "ጅ",
        -8.161851136748474
      ],
      [
        "▁-",
        -8.162502827438141
      ],
      [
        "▁ትር",
        -8.162785823455396
      ],
      [
        "▁ፓ",
        -8.16737083745653
      ],
      [
        "▁ገ",
        -8.16745938440322
      ],
      [
        "ሙሉ",
        -8.169004557428886
      ],
      [
        "ቺ",
        -8.169381881928986
      ],
      [
        "ቻቸው",
        -8.171119130978004
      ],
      [
        "ስፖርት",
        -8.171540686553225
      ],
      [
        "▁የባህ",
        -8.173094413842502
      ],
      [
        "▁ዴ",
        -8.17443524230353
      ],
      [
        "ኙ",
        -8.179477474305536
      ],
      [
        "▁የማይ",
        -8.180903938226475
      ],
      [
        "▁ሃ",
        -8.187190699243516
      ],
      [
        "▁20",
        -8.18724104703868
      ],
      [
        "ከፍተኛ",
        -8.187992700366866
      ],
      [
        "▁አለ",
        -8.188177408431834
      ],
      [
        "▁ደሴ",
        -8.193206221134815
      ],
      [
        "▁የማ",
        -8.194555937530696
      ],
      [
        "/",
        -8.194764530719945
      ],
      [
        "▁መዳረሻ",
        -8.194764545642467
      ],
      [
        "▁አነስተኛ",
        -8.194775465492532
      ],
      [
        "▁ብቸኛ",
        -8.194780147703613
      ],
      [
        "▁ስምምነ",
        -8.195033931357772
      ],
      [
        "▁ስቴትስ",
        -8.195521448757267
      ],
      [
        "▁የተለየ",
        -8.197029555313318
      ],
      [
        "▁ፈቃ",
        -8.197029946762687
      ],
      [
        "▁ግ",
        -8.19704937061772
      ],
      [
        "▁ስለዚህ",
        -8.19715751028417
      ],
      [
        "▁የተነሳ",
        -8.197208654953586
      ],
      [
        "ቪድ",
        -8.198572040426733
      ],
      [
        "▁ለማግኘት",
        -8.198764353224313
      ],
      [
        "ቋቋ",
        -8.201466073763653
      ],
      [
        "▁ሕ",
        -8.201695978592722
      ],
      [
        "ጨ",
        -8.204918078638794
      ],
      [
        "▁ግንኙነት",
        -8.205406282263763
      ],
      [
        "ባት",
        -8.20645280433276
      ],
      [
        "▁ተጓዦች",
        -8.20719483257437
      ],
      [
        "መር",
        -8.20757823374836
      ],
      [
        "▁ኳስ",
        -8.207741132738484
      ],
      [
        "▁መውጣት",
        -8.208287424791099
      ],
      [
        "▁ትልቁ",
        -8.208603736500283
      ],
      [
        "▁ማይል",
        -8.208921189969073
      ],
      [
        "ጠበቅ",
        -8.214387013809034
      ],
      [
        "ኮች",
        -8.216543839311885
      ],
      [
        "9",
        -8.216996051378128
      ],
      [
        "ረቡ",
        -8.219156293367227
      ],
      [
        "▁ሁለቱ",
        -8.219563951725043
      ],
      [
        "▁መንሸራተት",
        -8.22415923830714
      ],
      [
        "ሁ",
        -8.228886533829872
      ],
      [
        "S",
        -8.231013750375684
      ],
      [
        "▁ጤና",
        -8.233483898812034
      ],
      [
        "ቃል",
        -8.237365601837029
      ],
      [
        "▁ግዛ",
        -8.237939015961702
      ],
      [
        "▁በበ",
        -8.239484060409687
      ],
      [
        "ሳሳ",
        -8.240488227891223
      ],
      [
        "▁እንዳለ",
        -8.240766164362942
      ],
      [
        "ስታን",
        -8.241570135988614
      ],
      [
        "ሥራ",
        -8.243092571118238
      ],
      [
        "ዋት",
        -8.246767898359249
      ],
      [
        "ባህር",
        -8.249948627181462
      ],
      [
        "ነዱ",
        -8.24999172917773
      ],
      [
        "▁ብሎ",
        -8.253328281189432
      ],
      [
        "▁የሚጠ",
        -8.25724353797613
      ],
      [
        "▁ያካትታ",
        -8.259250631607246
      ],
      [
        "▁አቅ",
        -8.259738536817189
      ],
      [
        "ጋሪ",
        -8.263574406850521
      ],
      [
        "▁ሊሆ",
        -8.268765231909859
      ],
      [
        "ሆነው",
        -8.269074698160825
      ],
      [
        "er",
        -8.269437964471514
      ],
      [
        "ቀን",
        -8.269508306818164
      ],
      [
        "▁ለማስ",
        -8.271112140933965
      ],
      [
        "▁አሳ",
        -8.273045653447431
      ],
      [
        "▁ታ",
        -8.273298278839976
      ],
      [
        "▁ፌ",
        -8.274074801298848
      ],
      [
        "ኳ",
        -8.274701985929916
      ],
      [
        "5",
        -8.275600701079991
      ],
      [
        "▁ገንዘብ",
        -8.277980251624337
      ],
      [
        "ወ",
        -8.27889560124964
      ],
      [
        "ፎ",
        -8.27907414993288
      ],
      [
        "▁ከአ",
        -8.279690448637616
      ],
      [
        "▁ባህር",
        -8.281015164222943
      ],
      [
        "▁ቅር",
        -8.285786398802896
      ],
      [
        "ጣት",
        -8.287352974288286
      ],
      [
        "የር",
        -8.291474657294918
      ],
      [
        "▁መጨረሻ",
        -8.29319804338548
      ],
      [
        "ደረጉ",
        -8.295073949309387
      ],
      [
        "ያዝ",
        -8.297933383226813
      ],
      [
        "an",
        -8.30079719559357
      ],
      [
        "እነዚህ",
        -8.304974407787544
      ],
      [
        "▁መን",
        -8.305023383149258
      ],
      [
        "ረብ",
        -8.305447277357626
      ],
      [
        "▁የበ",
        -8.308262185170326
      ],
      [
        "ላንድ",
        -8.31144625885025
      ],
      [
        "ሰሜ",
        -8.311998303124126
      ],
      [
        "▁2",
        -8.313954276148603
      ],
      [
        "▁ተጓ",
        -8.322854630098792
      ],
      [
        "▁ነበሩ",
        -8.323024791295673
      ],
      [
        "ባሕ",
        -8.327304773880423
      ],
      [
        "ዘን",
        -8.328163833887508
      ],
      [
        "መኪና",
        -8.328223695838886
      ],
      [
        "▁ሊያ",
        -8.330078168216225
      ],
      [
        "ዶቹ",
        -8.330851491322159
      ],
      [
        "ሏል",
        -8.330922756182346
      ],
      [
        "አንዳን",
        -8.342856550988978
      ],
      [
        "ለባቸው",
        -8.343572574267526
      ],
      [
        "ቱን",
        -8.345195246844833
      ],
      [
        "▁ክል",
        -8.345411014905544
      ],
      [
        "▁ሃይ",
        -8.3468196017113
      ],
      [
        "ዞ",
        -8.347753401727772
      ],
      [
        "▁በሁለ",
        -8.352060436039501
      ],
      [
        "መጀመሪያ",
        -8.352590368245584
      ],
      [
        "▁ጠቅላ",
        -8.353402083651888
      ],
      [
        "▁ጣቢያ",
        -8.35764473194131
      ],
      [
        "ያዘ",
        -8.360595988758494
      ],
      [
        "ለም",
        -8.363397441592491
      ],
      [
        "ቷ",
        -8.365989445352614
      ],
      [
        "ሌላ",
        -8.367267684268214
      ],
      [
        "ፒ",
        -8.368676031018998
      ],
      [
        "ጌ",
        -8.369018809835078
      ],
      [
        "አብዛኛው",
        -8.369077761171972
      ],
      [
        "ሐ",
        -8.369591601624503
      ],
      [
        "ሕክምና",
        -8.37049985799326
      ],
      [
        "ደን",
        -8.373304557722832
      ],
      [
        "▁19",
        -8.37536440886664
      ],
      [
        "▁ሁለተኛ",
        -8.382854681118298
      ],
      [
        "ሰባ",
        -8.386104661939969
      ],
      [
        "ዥ",
        -8.386410495016444
      ],
      [
        "▁ማስ",
        -8.387616297605577
      ],
      [
        "ማግኘት",
        -8.390013964483035
      ],
      [
        "▁ኃይ",
        -8.390974267397777
      ],
      [
        "ጪ",
        -8.39252482699936
      ],
      [
        "ላል",
        -8.393219320970996
      ],
      [
        "ብቃ",
        -8.394585803791546
      ],
      [
        "D",
        -8.394656877530467
      ],
      [
        "ጄ",
        -8.394764530719947
      ],
      [
        "▁ምናልባት",
        -8.394765297129371
      ],
      [
        "▁ትክክለኛ",
        -8.394767890655684
      ],
      [
        "▁ልጆች",
        -8.394769039796923
      ],
      [
        "▁ፍላጎ",
        -8.394772351652794
      ],
      [
        "▁ወታደ",
        -8.39479400581746
      ],
      [
        "▁ቤ",
        -8.394811473606765
      ],
      [
        "▁አለብዎት",
        -8.394869704920477
      ],
      [
        "▁ዳ",
        -8.394885486965114
      ],
      [
        "▁መንገዱ",
        -8.394948212982436
      ],
      [
        "▁መርከቦች",
        -8.394956799846085
      ],
      [
        "▁ማይሎች",
        -8.394999410196801
      ],
      [
        "▁አልፎ",
        -8.395187039664386
      ],
      [
        "▁ችግሮች",
        -8.395676428729008
      ],
      [
        "▁ተሽከርካሪ",
        -8.396050678695783
      ],
      [
        "▁እንደሆነ",
        -8.396705986731638
      ],
      [
        "▁ዙር",
        -8.39734573307894
      ],
      [
        "▁ኮሚ",
        -8.398064816129953
      ],
      [
        "▁ዝግጅቶች",
        -8.398785820478441
      ],
      [
        "▁ባቡ",
        -8.399156102140225
      ],
      [
        "▁የዱር",
        -8.399460059853235
      ],
      [
        "▁የቀድሞ",
        -8.399554210569725
      ],
      [
        "ሴፕ",
        -8.400407293268067
      ],
      [
        "▁ተጽ",
        -8.401352343608954
      ],
      [
        "ዞች",
        -8.40263600804333
      ],
      [
        "▁የተወሰኑ",
        -8.402990319241077
      ],
      [
        "▁የአል",
        -8.403463680448723
      ],
      [
        "▁ማዕ",
        -8.40353030404864
      ],
      [
        "▁በክረም",
        -8.406242126404965
      ],
      [
        "ቹን",
        -8.40720499361313
      ],
      [
        "መም",
        -8.407596039118019
      ],
      [
        "▁ጨዋታዎች",
        -8.407642762426201
      ],
      [
        "▁ፓርቲ",
        -8.40826003894098
      ],
      [
        "▁ጆ",
        -8.408779680495616
      ],
      [
        "▁ቱሪዝም",
        -8.409493851528238
      ],
      [
        "▁መቅደ",
        -8.409706081171345
      ],
      [
        "▁አስደ",
        -8.410517334649535
      ],
      [
        "▁በኦ",
        -8.410549418670652
      ],
      [
        "ራሱ",
        -8.411389079375036
      ],
      [
        "ሜን",
        -8.412356977437785
      ],
      [
        "▁ንፋ",
        -8.412383654266078
      ],
      [
        "▁በተለይ",
        -8.412773492149519
      ],
      [
        "▁ይጠራ",
        -8.413807595010411
      ],
      [
        "▁ብለዋል",
        -8.413969130746128
      ],
      [
        "▁ማድረግ",
        -8.416220656947406
      ],
      [
        "ፐር",
        -8.416279656062958
      ],
      [
        "▁መኪና",
        -8.41642699981951
      ],
      [
        "▁በመጀመሪያ",
        -8.416710397795201
      ],
      [
        "▁ውድ",
        -8.417408045882526
      ],
      [
        "ግሬ",
        -8.417472473823828
      ],
      [
        "▁ያስ",
        -8.42117938051841
      ],
      [
        "አ",
        -8.422428699178385
      ],
      [
        "▁ሐ",
        -8.424767765477029
      ],
      [
        "▁ጎብኚዎች",
        -8.42701441341048
      ],
      [
        "▁ቫይረስ",
        -8.429358288550905
      ],
      [
        "▁ሆኖም",
        -8.429433483594108
      ],
      [
        "▁ውቅያኖስ",
        -8.429656157914524
      ],
      [
        "▁የቅር",
        -8.430207001365781
      ],
      [
        "▁አመቱ",
        -8.431341651204434
      ],
      [
        "▁መስ",
        -8.432466685192331
      ],
      [
        "▁ግቦች",
        -8.433403966989463
      ],
      [
        "▁የምት",
        -8.437137116059915
      ],
      [
        "ድሮ",
        -8.43883283360346
      ],
      [
        "ስተር",
        -8.439262063456097
      ],
      [
        "ካራ",
        -8.440027789951122
      ],
      [
        "ጋራ",
        -8.440119155860724
      ],
      [
        "ሪስ",
        -8.441295689552062
      ],
      [
        "▁ሾ",
        -8.441739682400943
      ],
      [
        "▁መሆን",
        -8.443292554451808
      ],
      [
        "ጠቃ",
        -8.44343338587186
      ],
      [
        "▁በሁ",
        -8.443921565708688
      ],
      [
        "▁የኮ",
        -8.445279282940188
      ],
      [
        "ጎብ",
        -8.448610203239834
      ],
      [
        "▁በመጠ",
        -8.44931752941746
      ],
      [
        "ብሎ",
        -8.450671985994735
      ],
      [
        "▁መሆኑ",
        -8.450828729423476
      ],
      [
        "▁ቱሪስ",
        -8.450982591689224
      ],
      [
        "▁ሰር",
        -8.451747743512872
      ],
      [
        "ሲቲ",
        -8.453325893922273
      ],
      [
        "▁መደ",
        -8.45379056301903
      ],
      [
        "ገኝ",
        -8.45475858800323
      ],
      [
        "▁ከባ",
        -8.455802686479464
      ],
      [
        "ዝና",
        -8.458714308635042
      ],
      [
        "▁ነበረው",
        -8.46074383185165
      ],
      [
        "▁በተመ",
        -8.46252341053005
      ],
      [
        "▁እየ",
        -8.46447200590892
      ],
      [
        "▁ጆን",
        -8.465045249252753
      ],
      [
        "አውሮፕላን",
        -8.46837541583933
      ],
      [
        "ትን",
        -8.47856694882265
      ],
      [
        "▁ግል",
        -8.480691387861018
      ],
      [
        "ሯ",
        -8.483051063531407
      ],
      [
        "▁ከሚ",
        -8.485325012545012
      ],
      [
        "▁ማረፊያ",
        -8.485740638918099
      ],
      [
        "▁ጠን",
        -8.485955523859431
      ],
      [
        "▁ስር",
        -8.490599121143854
      ],
      [
        "▁አሜሪካ",
        -8.49096869947399
      ],
      [
        "▁ትል",
        -8.491235562391248
      ],
      [
        "ማን",
        -8.493175914235241
      ],
      [
        "ቡድ",
        -8.498189730097474
      ],
      [
        "ፃ",
        -8.498655775116537
      ],
      [
        "▁ጥና",
        -8.4987637203809
      ],
      [
        "▁ቡ",
        -8.499350220623574
      ],
      [
        "▁ያነ",
        -8.504142872563463
      ],
      [
        "ተኛው",
        -8.504182896317333
      ],
      [
        "▁ሰሜ",
        -8.504239239432867
      ],
      [
        "ቢያ",
        -8.506836865991582
      ],
      [
        "▁ያቀርባ",
        -8.507393568160632
      ],
      [
        "ጥር",
        -8.515274660051675
      ],
      [
        "ገባ",
        -8.515634168303741
      ],
      [
        "ተጎዱ",
        -8.516680252816942
      ],
      [
        "ዋል",
        -8.51719322210523
      ],
      [
        "▁ሬ",
        -8.517441231984595
      ],
      [
        "መያዝ",
        -8.5180144932941
      ],
      [
        "ተው",
        -8.518968861003101
      ],
      [
        "ዋሪ",
        -8.520187431172175
      ],
      [
        "ቪ",
        -8.52384424722801
      ],
      [
        "መጡ",
        -8.524004325518556
      ],
      [
        "▁ት",
        -8.525503929337901
      ],
      [
        "▁1",
        -8.525979688060627
      ],
      [
        "ብሮ",
        -8.527697443791453
      ],
      [
        "ርሽ",
        -8.528987651664414
      ],
      [
        "▁ያል",
        -8.531125143453313
      ],
      [
        "እ",
        -8.534676652561235
      ],
      [
        "▁ኢን",
        -8.534737437128884
      ],
      [
        "ስጠ",
        -8.53483572177668
      ],
      [
        "ስቶ",
        -8.537389856267954
      ],
      [
        "▁ካር",
        -8.538408797243902
      ],
      [
        "ንዴ",
        -8.543027899061984
      ],
      [
        "ያዙ",
        -8.543051464793137
      ],
      [
        "ቦ",
        -8.543642731063459
      ],
      [
        "መሠረ",
        -8.546170210909438
      ],
      [
        "ሥ",
        -8.548342547646413
      ],
      [
        "ኤን",
        -8.551344006774665
      ],
      [
        "▁በተለ",
        -8.552688739392213
      ],
      [
        "መግባ",
        -8.555013680811678
      ],
      [
        "▁ለአ",
        -8.557527891683288
      ],
      [
        "▁በፍ",
        -8.560224731496191
      ],
      [
        "ያን",
        -8.561315279477123
      ],
      [
        "ልድ",
        -8.561812732228182
      ],
      [
        "ጨዋታ",
        -8.562706965588092
      ],
      [
        "B",
        -8.563201765776753
      ],
      [
        "u",
        -8.563305603019803
      ],
      [
        "ዚያ",
        -8.563392663956023
      ],
      [
        "▁ስላ",
        -8.563690462350719
      ],
      [
        "ውሃ",
        -8.564052734828062
      ],
      [
        "እርስዎ",
        -8.565088530633457
      ],
      [
        "P",
        -8.565594071140154
      ],
      [
        "W",
        -8.567601830636347
      ],
      [
        "▁የተወሰ",
        -8.568496891035373
      ],
      [
        "አውስትራሊያ",
        -8.56850709079484
      ],
      [
        "A",
        -8.570784321633415
      ],
      [
        "ሃገ",
        -8.573822885492179
      ],
      [
        "▁ሞ",
        -8.574049496057366
      ],
      [
        "ቀም",
        -8.574870023497478
      ],
      [
        "▁በእ",
        -8.575228477647153
      ],
      [
        "▁የኢ",
        -8.576091355535654
      ],
      [
        "ናል",
        -8.579320567883029
      ],
      [
        "በብ",
        -8.58173340754091
      ],
      [
        "▁መገ",
        -8.58442942880215
      ],
      [
        "ማዊ",
        -8.585300589662438
      ],
      [
        "ተራራ",
        -8.587619548026213
      ],
      [
        "ሩጫ",
        -8.588018817471694
      ],
      [
        "▁ላለ",
        -8.591346253686055
      ],
      [
        "መሰረ",
        -8.593706255181779
      ],
      [
        "▁መሪ",
        -8.593714018154596
      ],
      [
        "▁ለም",
        -8.595196546377618
      ],
      [
        "መደ",
        -8.595485144130421
      ],
      [
        "▁ሀ",
        -8.601692222835108
      ],
      [
        "▁እንደሚያ",
        -8.608022732993673
      ],
      [
        "መሳ",
        -8.610136970993903
      ],
      [
        "▁የጉዞ",
        -8.613243067323985
      ],
      [
        "▁የሞ",
        -8.614508206022121
      ],
      [
        "ቀር",
        -8.615807353420536
      ],
      [
        "ደል",
        -8.61754025610215
      ],
      [
        "ጊ",
        -8.620040956164729
      ],
      [
        "ፈረንሳይ",
        -8.620071089210173
      ],
      [
        "አሁኑ",
        -8.62279603171851
      ],
      [
        "መካከለኛ",
        -8.624101484936157
      ],
      [
        "▁የሚች",
        -8.624590231353878
      ],
      [
        "ተጨማሪ",
        -8.624823678172909
      ],
      [
        "ላዊ",
        -8.624999281157775
      ],
      [
        "ጩ",
        -8.625291035506384
      ],
      [
        "ግዛ",
        -8.626842080660024
      ],
      [
        "ሽና",
        -8.631927260697239
      ],
      [
        "ታቸው",
        -8.634455036069024
      ],
      [
        "▁ዝግጅ",
        -8.636092055476361
      ],
      [
        "▁በአለም",
        -8.637965136423322
      ],
      [
        "ንበር",
        -8.638929845735126
      ],
      [
        "▁ውድድ",
        -8.63940902857611
      ],
      [
        "ዋና",
        -8.641213814528593
      ],
      [
        "▁እየተ",
        -8.641245566880869
      ],
      [
        "ማር",
        -8.641570579188684
      ],
      [
        "▁H",
        -8.64267421233461
      ],
      [
        "30",
        -8.643015522010558
      ],
      [
        "▁200",
        -8.644292218981986
      ],
      [
        "▁ፈቃደ",
        -8.644536496475203
      ],
      [
        "T",
        -8.644763059954826
      ],
      [
        "▁bh",
        -8.644764530762046
      ],
      [
        "▁ዩኒቨር",
        -8.644764589446742
      ],
      [
        "▁ሰነዶች",
        -8.644767765660959
      ],
      [
        "▁አውቶቡ",
        -8.644775232133771
      ],
      [
        "ህክምና",
        -8.644808367367242
      ],
      [
        "▁አይደሉም",
        -8.64486924263812
      ],
      [
        "▁መስፈር",
        -8.644925301108776
      ],
      [
        "▁እራሳ",
        -8.644927431847316
      ],
      [
        "ተሞክሮ",
        -8.64493715659475
      ],
      [
        "▁የተለመዱ",
        -8.645054403202138
      ],
      [
        "▁ትርኢ",
        -8.645060175608112
      ],
      [
        "▁መግለ",
        -8.645071038568462
      ],
      [
        "▁ታክሲ",
        -8.645187711505413
      ],
      [
        "▁ቢያንስ",
        -8.645208112087158
      ],
      [
        "ህንፃ",
        -8.64525818871064
      ],
      [
        "ur",
        -8.64528940399683
      ],
      [
        "▁24",
        -8.645415587384438
      ],
      [
        "▁ምልክቶች",
        -8.645659259106495
      ],
      [
        "▁ክትባ",
        -8.645699812416083
      ],
      [
        "▁ንብረ",
        -8.646096501327252
      ],
      [
        "ጠቃሚ",
        -8.646121176440866
      ],
      [
        "ዲዮ",
        -8.646140087461921
      ],
      [
        "ገኛ",
        -8.646426120565149
      ],
      [
        "▁ስለነበር",
        -8.646428912735686
      ],
      [
        "..",
        -8.646475991937951
      ],
      [
        "ታቀደ",
        -8.646534643737823
      ],
      [
        "▁ዘመቻ",
        -8.646540053251892
      ],
      [
        "ተላለፍ",
        -8.64659531043387
      ],
      [
        "ግራፊ",
        -8.646761850536691
      ],
      [
        "▁ቡድኖች",
        -8.647202853383309
      ],
      [
        "▁አምባ",
        -8.647588509800839
      ],
      [
        "▁ሰፊ",
        -8.647641194781807
      ],
      [
        "ቬ",
        -8.648435338551005
      ],
      [
        "አለም",
        -8.648603034773611
      ],
      [
        "ተባበሩ",
        -8.649040422802734
      ],
      [
        "ስሜት",
        -8.64924529897158
      ],
      [
        "ሆ",
        -8.649279352699498
      ],
      [
        "▁ከደረ",
        -8.649486199354769
      ],
      [
        "▁የተደረጉ",
        -8.649546196265419
      ],
      [
        "64",
        -8.650047034439316
      ],
      [
        "▁ተከት",
        -8.6501610384747
      ],
      [
        "▁የሚከ",
        -8.650291612989433
      ],
      [
        "ላፊ",
        -8.651336618631593
      ],
      [
        "▁መኪናዎች",
        -8.651811709727365
      ],
      [
        "▁U",
        -8.652100453171599
      ],
      [
        "ደረሰ",
        -8.652184112954938
      ],
      [
        "ፊያ",
        -8.652855160723862
      ],
      [
        "▁በሌ",
        -8.65322279985147
      ],
      [
        "ጋዊ",
        -8.65384350190159
      ],
      [
        "▁በመቶ",
        -8.654059234281938
      ],
      [
        "ፌዴ",
        -8.654552850576504
      ],
      [
        "ቻለ",
        -8.654884813108776
      ],
      [
        "▁የጨረቃ",
        -8.65574762960478
      ],
      [
        "▁የሚጓዙ",
        -8.65602527566575
      ],
      [
        "መዋል።",
        -8.656147751380342
      ],
      [
        "ጋጋ",
        -8.656769409254977
      ],
      [
        "ሪያዎች",
        -8.65706272464461
      ],
      [
        "ስፖርቶች",
        -8.657302580899243
      ],
      [
        "ሊዝ",
        -8.657606426423438
      ],
      [
        "መከላከ",
        -8.658756752629595
      ],
      [
        "▁የሚገኙ",
        -8.659097032770791
      ],
      [
        "▁L",
        -8.661028430434996
      ],
      [
        "▁የህ",
        -8.66155756097035
      ],
      [
        "▁አቅራቢ",
        -8.662117521077926
      ],
      [
        "▁አላቸው",
        -8.66262151368751
      ],
      [
        "▁በሽታዎች",
        -8.662863297848698
      ],
      [
        "▁ዋጋ",
        -8.66326170813696
      ],
      [
        "▁ትዕይን",
        -8.663711732336392
      ],
      [
        "▁ስድስ",
        -8.663725742779272
      ],
      [
        "500",
        -8.664410142848059
      ],
      [
        "▁አገዛ",
        -8.664634312676043
      ],
      [
        "ጊያ",
        -8.664645891681765
      ],
      [
        "▁ዝቅ",
        -8.666093137092313
      ],
      [
        "▁የሚቆጠ",
        -8.666206042271245
      ],
      [
        "▁ስምን",
        -8.666479197070203
      ],
      [
        "▁ሁለ",
        -8.666994941632058
      ],
      [
        "▁አመ",
        -8.66709726480206
      ],
      [
        "▁ብላክ",
        -8.667133570268335
      ],
      [
        "▁መል",
        -8.668332073142336
      ],
      [
        "▁ነጥ",
        -8.669010957515635
      ],
      [
        "ኪንግ",
        -8.671225126146128
      ],
      [
        "ተሻ",
        -8.672909909357358
      ],
      [
        "ስራ",
        -8.673533127872457
      ],
      [
        "▁ሁኔታዎች",
        -8.673868855823248
      ],
      [
        "ማሽ",
        -8.674446191870738
      ],
      [
        "▁ተመል",
        -8.674830426292258
      ],
      [
        "▁ትራ",
        -8.675041979267855
      ],
      [
        "መስራት",
        -8.675246747679093
      ],
      [
        "ቆየ",
        -8.67710014758611
      ],
      [
        "▁ሰላ",
        -8.67762401529205
      ],
      [
        "ንጋ",
        -8.677629124837637
      ],
      [
        "ባብ",
        -8.67965309372775
      ],
      [
        "▁በአሜሪካ",
        -8.680345371296301
      ],
      [
        "▁ቲኬ",
        -8.68293946460972
      ],
      [
        "▁ጀር",
        -8.683035390989986
      ],
      [
        "▁ይመ",
        -8.683052917569988
      ],
      [
        "ይቅ",
        -8.684467074932948
      ],
      [
        "▁ድንበ",
        -8.684881487088171
      ],
      [
        "▁አዳ",
        -8.685088291514734
      ],
      [
        "ናዊ",
        -8.687218176673216
      ],
      [
        "▁ሶ",
        -8.690590145842982
      ],
      [
        "▁ከሆኑ",
        -8.690636848435247
      ],
      [
        "▁US",
        -8.69378815728674
      ],
      [
        "ናለች",
        -8.695199289618209
      ],
      [
        "▁ዕው",
        -8.695215314043804
      ],
      [
        "ላክ",
        -8.695635333222553
      ],
      [
        "ከፍ",
        -8.698882379589822
      ],
      [
        "▁ቦ",
        -8.698998622581104
      ],
      [
        "i",
        -8.700080768009597
      ],
      [
        "▁I",
        -8.701175987132606
      ],
      [
        "n",
        -8.701257832402625
      ],
      [
        "▁አደጋ",
        -8.701611693464185
      ],
      [
        "ናት",
        -8.70319819946253
      ],
      [
        "▁ማሳ",
        -8.70334368078349
      ],
      [
        "ዛሬ",
        -8.703533786473505
      ],
      [
        "▁ህዝ",
        -8.705080674777602
      ],
      [
        "▁እንዲሆ",
        -8.706293422306533
      ],
      [
        "▁መግባ",
        -8.706702464576182
      ],
      [
        "▁ሰዓት",
        -8.70757863380011
      ],
      [
        "▁ፖ",
        -8.707667283044664
      ],
      [
        "▁ውድድሩ",
        -8.708024084770717
      ],
      [
        "▁ኦሎምፒክ",
        -8.711921366022755
      ],
      [
        "▁ቪዛ",
        -8.71193455973065
      ],
      [
        "▁ዓ",
        -8.712100805978588
      ],
      [
        "▁ምድ",
        -8.712289319975842
      ],
      [
        "▁የነበረው",
        -8.713201776737094
      ],
      [
        "ጧ",
        -8.714296091357784
      ],
      [
        "▁ኬ",
        -8.717881045601391
      ],
      [
        "ሰው",
        -8.718500311932129
      ],
      [
        "ይዞ",
        -8.719749386516717
      ],
      [
        "▁ተራራ",
        -8.720795957578648
      ],
      [
        "▁ጃ",
        -8.7215908129774
      ],
      [
        "▁ጁ",
        -8.723191214348294
      ],
      [
        "▁ሥ",
        -8.726495426906244
      ],
      [
        "▁እርስዎ",
        -8.73158886487536
      ],
      [
        "ሙላ",
        -8.733679487424295
      ],
      [
        "▁ጃፓን",
        -8.734752424228958
      ],
      [
        "▁A",
        -8.735150922381138
      ],
      [
        "▁አለው",
        -8.739337882313936
      ],
      [
        "ዳል",
        -8.739446019552268
      ],
      [
        "ጠበቃ",
        -8.740991923126845
      ],
      [
        "▁እያ",
        -8.741899399948991
      ],
      [
        "▁ሌላ",
        -8.742315647725308
      ],
      [
        "ሚደረገው",
        -8.744638741290938
      ],
      [
        "ጃ",
        -8.747813283705648
      ],
      [
        "▁አለም",
        -8.753731462081243
      ],
      [
        "▁ማለ",
        -8.757709853601526
      ],
      [
        "▁በረራ",
        -8.764444737365558
      ],
      [
        "▁ኦር",
        -8.764452763581275
      ],
      [
        "▁ሽ",
        -8.765056421304866
      ],
      [
        "ፕሬዝዳንት",
        -8.76737728759793
      ],
      [
        "ቱሪስ",
        -8.767546198125583
      ],
      [
        "▁ሮ",
        -8.767610979387513
      ],
      [
        "ትራንስ",
        -8.767694075062135
      ],
      [
        "ጥና",
        -8.76860526969941
      ],
      [
        "▁ቪ",
        -8.769893794919552
      ],
      [
        "ካሄድ",
        -8.77061851589156
      ],
      [
        "▁ከማ",
        -8.771937470574496
      ],
      [
        "▁201",
        -8.773503609194165
      ],
      [
        "ካር",
        -8.774026239565941
      ],
      [
        "▁የማን",
        -8.774129934253708
      ],
      [
        "▁ተሰ",
        -8.7754706457701
      ],
      [
        "ኖስ",
        -8.77715007629348
      ],
      [
        "ጉም",
        -8.777923412763242
      ],
      [
        "ሸ",
        -8.77816106935833
      ],
      [
        "▁16",
        -8.77874823343038
      ],
      [
        "ጉዞ",
        -8.778937368245815
      ],
      [
        "መረ",
        -8.779202786348826
      ],
      [
        "ሠራ",
        -8.780749947413184
      ],
      [
        "▁ጥቅ",
        -8.78713348846533
      ],
      [
        "▁ሥራ",
        -8.789902112945972
      ],
      [
        "ርሴ",
        -8.791513189857689
      ],
      [
        "▁ስራ",
        -8.79152186769661
      ],
      [
        "መለስ",
        -8.798085660197856
      ],
      [
        "▁አብዛኛው",
        -8.79946653260048
      ],
      [
        "ዘር",
        -8.799812406642799
      ],
      [
        "ሀ",
        -8.801578467129787
      ],
      [
        "50",
        -8.802341126440325
      ],
      [
        "▁ተገ",
        -8.80307574334823
      ],
      [
        "▁18",
        -8.803834999010318
      ],
      [
        "▁ሶስ",
        -8.804063221778733
      ],
      [
        "ሁሉ",
        -8.807737225018366
      ],
      [
        "ሷ",
        -8.814223031484813
      ],
      [
        "ሰት",
        -8.818118357967185
      ],
      [
        "▁ተላ",
        -8.818732561659761
      ],
      [
        "▁ጥን",
        -8.823260807185946
      ],
      [
        "ne",
        -8.823307402142754
      ],
      [
        "ጤ",
        -8.823786268929823
      ],
      [
        "▁አው",
        -8.824430817441256
      ],
      [
        "▁በስ",
        -8.826268586000142
      ],
      [
        "ሄ",
        -8.826814425866289
      ],
      [
        "▁የነበረ",
        -8.830229438173934
      ],
      [
        "▁የዩ",
        -8.832157971358749
      ],
      [
        "ጀርመን",
        -8.832372849637503
      ],
      [
        "ግል",
        -8.83242960808153
      ],
      [
        "ከተ",
        -8.834799810697582
      ],
      [
        "ሕ",
        -8.837064904022153
      ],
      [
        "ዳር",
        -8.839287445648187
      ],
      [
        "▁ጉ",
        -8.841024060631073
      ],
      [
        "ኢ",
        -8.849243114336922
      ],
      [
        "▁በግ",
        -8.849335512834514
      ],
      [
        "▁ከሁለ",
        -8.851254891373152
      ],
      [
        "ጃፓን",
        -8.851581136206994
      ],
      [
        "▁ሆ",
        -8.852177646250833
      ],
      [
        "ነስ",
        -8.852199850501016
      ],
      [
        "ባሪ",
        -8.852430331697569
      ],
      [
        "በሽታ",
        -8.854685713799906
      ],
      [
        "ህል",
        -8.857358467645216
      ],
      [
        "ሂ",
        -8.862251627725726
      ],
      [
        "▁የነበሩ",
        -8.862811630378749
      ],
      [
        "ደረገው",
        -8.865341438916982
      ],
      [
        "ክላ",
        -8.867682142326103
      ],
      [
        "t",
        -8.873546144775453
      ],
      [
        "አውሮ",
        -8.879476556716718
      ],
      [
        "C",
        -8.88031912315732
      ],
      [
        "N",
        -8.88158028674716
      ],
      [
        "M",
        -8.882770692906924
      ],
      [
        "ኪን",
        -8.882796524700575
      ],
      [
        "ጉብኝ",
        -8.889219666220354
      ],
      [
        "ጀልባ",
        -8.890071504713516
      ],
      [
        "▁ተወ",
        -8.891189147522244
      ],
      [
        "ኦሎምፒክ",
        -8.891545560494007
      ],
      [
        "▁ፈ",
        -8.891923216096341
      ],
      [
        "ብራዚ",
        -8.89261557108556
      ],
      [
        "ቪዛ",
        -8.893059048587402
      ],
      [
        "ኒው",
        -8.894113625937212
      ],
      [
        "ካናዳ",
        -8.894544992191772
      ],
      [
        "ውጥ",
        -8.895220479453307
      ],
      [
        "መልከ",
        -8.895504211121859
      ],
      [
        "ሰዓት",
        -8.897055508323733
      ],
      [
        "▁የሚለ",
        -8.89840539401273
      ],
      [
        "ውድድሩ",
        -8.898902914373247
      ],
      [
        "ሾ",
        -8.899351211119841
      ],
      [
        "ስልጣ",
        -8.899915881670783
      ],
      [
        "መው",
        -8.900349056839586
      ],
      [
        "ማንኛው",
        -8.902510089986334
      ],
      [
        "▁አብዛኛ",
        -8.902761371777919
      ],
      [
        "▁ሂ",
        -8.903229490259562
      ],
      [
        "ርማ",
        -8.903957908146344
      ],
      [
        "U",
        -8.904118623565292
      ],
      [
        "ጤና",
        -8.904498090749508
      ],
      [
        "ሙዚ",
        -8.90598338484492
      ],
      [
        "ኔት",
        -8.906933846726432
      ],
      [
        "ወጥ",
        -8.9093880420486
      ],
      [
        "ንዛ",
        -8.909457898034786
      ],
      [
        "አደጋ",
        -8.909486006919122
      ],
      [
        "ሞተ",
        -8.911480856116238
      ],
      [
        "ኖሩ",
        -8.915068934818908
      ],
      [
        "ሆነ",
        -8.91593118937341
      ],
      [
        "መሆን",
        -8.918297034631896
      ],
      [
        "የት",
        -8.920735973656468
      ],
      [
        "▁ይህን",
        -8.921680187354976
      ],
      [
        "▁ጀ",
        -8.925447661967768
      ],
      [
        "20",
        -8.927699471306827
      ],
      [
        "ገኛሉ",
        -8.928314599072287
      ],
      [
        "ሴቶች",
        -8.928733951261862
      ],
      [
        "ታል",
        -8.929434708375258
      ],
      [
        "በረ",
        -8.93197761141731
      ],
      [
        "ነበሩ",
        -8.934174620086187
      ],
      [
        "▁አግኝ",
        -8.934305156527602
      ],
      [
        "ቶቹ",
        -8.934606560325452
      ],
      [
        "ቦታው",
        -8.939881687006872
      ],
      [
        "▁ማን",
        -8.939907137568266
      ],
      [
        "ፐ",
        -8.940809787012856
      ],
      [
        "▁መንሸራተ",
        -8.941499800486561
      ],
      [
        "▁ነበረ",
        -8.94405111447068
      ],
      [
        "ጋር",
        -8.944517928742155
      ],
      [
        "ገን",
        -8.946126432178165
      ],
      [
        "ነበረው",
        -8.94805706741978
      ],
      [
        "ve",
        -8.94873298849868
      ],
      [
        "▁የተሰ",
        -8.948903921401586
      ],
      [
        "ጸ",
        -8.951352176910428
      ],
      [
        "ፓርላማ",
        -8.953439567603507
      ],
      [
        "R",
        -8.953604241129344
      ],
      [
        "ውጣት",
        -8.953794571480202
      ],
      [
        "ወዳ",
        -8.953922777283701
      ],
      [
        "ራስዎ",
        -8.955081359918472
      ],
      [
        "ጎል",
        -8.957118143956304
      ],
      [
        "▁የታ",
        -8.957272255748792
      ],
      [
        "▁መለ",
        -8.958370286240381
      ],
      [
        "ወሰደ",
        -8.960254748158613
      ],
      [
        "ግቦች",
        -8.961484553154865
      ],
      [
        "ተሻለ",
        -8.961881293968494
      ],
      [
        "ክረም",
        -8.963622773147609
      ],
      [
        "ተናገ",
        -8.964169985348763
      ],
      [
        "ፖር",
        -8.96580885228335
      ],
      [
        "ይል",
        -8.971703171519927
      ],
      [
        "▁ቢሆን",
        -8.973426443080958
      ],
      [
        "60",
        -8.973642759905632
      ],
      [
        "▁ነፃ",
        -8.973824134342607
      ],
      [
        "▁ሪፐብሊ",
        -8.975040538259822
      ],
      [
        "ሽከርካሪ",
        -8.975860013157316
      ],
      [
        "▁ትናን",
        -8.976334787215139
      ],
      [
        "d",
        -8.976367067240998
      ],
      [
        "ዚላንድ",
        -8.97710025725598
      ],
      [
        "ኃላ",
        -8.977628432377623
      ],
      [
        "▁አሏ",
        -8.977923484988814
      ],
      [
        "ሟ",
        -8.978061948688884
      ],
      [
        "ፏ",
        -8.978097612658733
      ],
      [
        "G",
        -8.978097838086889
      ],
      [
        "ፑ",
        -8.97809786405328
      ],
      [
        "▁ተንሸራታቾች",
        -8.97809786405331
      ],
      [
        "ዲፕሎማሲ",
        -8.978097864065383
      ],
      [
        "k",
        -8.978097864093236
      ],
      [
        "ዢ",
        -8.978097864093238
      ],
      [
        "ቮ",
        -8.978097864093238
      ],
      [
        "ዪ",
        -8.978097864093238
      ],
      [
        "x",
        -8.978097864093238
      ],
      [
        "y",
        -8.978097864093238
      ],
      [
        "፥",
        -8.978097864093238
      ],
      [
        "ዉ",
        -8.978097864093238
      ],
      [
        "?",
        -8.978097864093238
      ],
      [
        "$",
        -8.978097864093238
      ],
      [
        "ኡ",
        -8.978097864093238
      ],
      [
        "!",
        -8.978097864093238
      ],
      [
        "OC",
        -8.978097864454394
      ],
      [
        "▁ከእንቅልፍ",
        -8.978097865858336
      ],
      [
        "ation",
        -8.978097866123552
      ],
      [
        "▁ወላጅነት",
        -8.978097874763005
      ],
      [
        "ጮች",
        -8.97809788022468
      ],
      [
        "▁ዲዛይን",
        -8.978098007771328
      ],
      [
        "▁እስካሁን",
        -8.978098046598046
      ],
      [
        "▁F",
        -8.978098069604608
      ],
      [
        "▁ይደግፋል",
        -8.978098140414218
      ],
      [
        "▁መቆጣጠ",
        -8.978098157357804
      ],
      [
        "አስፈፃሚ",
        -8.97809834777115
      ],
      [
        "▁እንቅልፍ",
        -8.978098438347972
      ],
      [
        "ጥንቃቄ",
        -8.978098576919649
      ],
      [
        "▁ጉባኤ",
        -8.978099169853463
      ],
      [
        "▁ያጠቃልላ",
        -8.978099187809812
      ],
      [
        "አንታርክቲ",
        -8.97809921231049
      ],
      [
        "▁ይፈትሹ",
        -8.97809940314977
      ],
      [
        "▁ባንዲራ",
        -8.978099405336934
      ],
      [
        "ገልጸዋል",
        -8.97809998042141
      ],
      [
        "ቀዝቃዛ",
        -8.978100155860893
      ],
      [
        "▁ግጥሚያ",
        -8.978101794264028
      ],
      [
        "ጨረሰ",
        -8.97810205430139
      ],
      [
        "አእምሮ",
        -8.978102093293751
      ],
      [
        "▁የሸክላ",
        -8.978102419704495
      ],
      [
        "▁ቋንቋ",
        -8.978103308925327
      ],
      [
        "▁አጥባቂ",
        -8.978103489174181
      ],
      [
        "ፈለገው",
        -8.978104456609662
      ],
      [
        "▁ባክቴሪያ",
        -8.97810513643589
      ],
      [
        "ነፃፀ",
        -8.978105383027705
      ],
      [
        "▁ደቂቃ",
        -8.978106486442236
      ],
      [
        "▁ብትሆንም",
        -8.978107174543632
      ],
      [
        "ዲዝኒ",
        -8.978116728765187
      ],
      [
        "▁ጨምሮ",
        -8.9781171658539
      ],
      [
        "▁እርምጃ",
        -8.978119055546957
      ],
      [
        "▁በአጭሩ",
        -8.978122599062383
      ],
      [
        "▁ይቀበላ",
        -8.978122973993834
      ],
      [
        "▁የቀረበ",
        -8.978124584556301
      ],
      [
        "▁ተጫዋቾች",
        -8.97812972558131
      ],
      [
        "▁ክፍለዘመ",
        -8.978150195057575
      ],
      [
        "▁ማስታወቂያ",
        -8.978153651930558
      ],
      [
        "▁ዕቃዎች",
        -8.97816320636301
      ],
      [
        "▁በዋናነት",
        -8.978170044350174
      ],
      [
        "አከባቢ",
        -8.978180278249164
      ],
      [
        "ነበራቸው",
        -8.978196806939092
      ],
      [
        "▁ታሪካዊ",
        -8.978240356974302
      ],
      [
        "▁የሚያደርጉት",
        -8.978254071590763
      ],
      [
        "ርወ-መንግ",
        -8.978265755977121
      ],
      [
        "መጨረስ",
        -8.978276060722818
      ],
      [
        "▁ንጉስ",
        -8.978279725171422
      ],
      [
        "▁100",
        -8.978312138235108
      ],
      [
        "▁ተጫዋ",
        -8.978335843978218
      ],
      [
        "▁ድርጊ",
        -8.978373445931902
      ],
      [
        "አጋጣሚ",
        -8.97839885278863
      ],
      [
        "▁ስርዓ",
        -8.978430278702517
      ],
      [
        "ጦርነቱ",
        -8.978460822679475
      ],
      [
        "and",
        -8.978464935668242
      ],
      [
        "▁ጓደ",
        -8.97847392347897
      ],
      [
        "▁ቁስሎች",
        -8.978534383772445
      ],
      [
        "▁ነጥቦች",
        -8.978574274270374
      ],
      [
        "ou",
        -8.978606271234987
      ],
      [
        "ሰልፎ",
        -8.978643041559943
      ],
      [
        "os",
        -8.978660723840884
      ],
      [
        "▁ይታወቃ",
        -8.978741789936844
      ],
      [
        "▁አህጉ",
        -8.97879744887017
      ],
      [
        "▁መጠጦች",
        -8.978835973605475
      ],
      [
        "▁ቀዳዳ",
        -8.978870454018821
      ],
      [
        "ታይዋን",
        -8.97887590761455
      ],
      [
        "▁ሰሜናዊ",
        -8.978979793361402
      ],
      [
        "ቀጣይ",
        -8.97906241931721
      ],
      [
        "ክለቦ",
        -8.979072548353912
      ],
      [
        "▁ማህበ",
        -8.979160518564843
      ],
      [
        "▁እያንዳንዱ",
        -8.97917951122573
      ],
      [
        "አትክል",
        -8.979465291472698
      ],
      [
        "▁21",
        -8.979475208456659
      ],
      [
        "▁አሸነፈ",
        -8.979489701616277
      ],
      [
        "▁ክሶች",
        -8.979500627550134
      ],
      [
        "▁አቀባይ",
        -8.979502063591173
      ],
      [
        "ሳተፍ",
        -8.979516490586384
      ],
      [
        "▁ሳይሆን",
        -8.97954060167639
      ],
      [
        "▁እንጂ",
        -8.979573612078156
      ],
      [
        "▁አባላት",
        -8.979614010819919
      ],
      [
        "▁ተስፋ",
        -8.979746969808842
      ],
      [
        "ዘጋጀ",
        -8.979752899403824
      ],
      [
        "▁በአንደ",
        -8.979775308396208
      ],
      [
        "▁ምግብ",
        -8.979891149815604
      ],
      [
        "▁ከመሆናቸው",
        -8.979941783964554
      ],
      [
        "▁ፒተር",
        -8.98005337808421
      ],
      [
        "ሻሻ",
        -8.98008664488279
      ],
      [
        "▁መመዝገብ",
        -8.980182236423026
      ],
      [
        "▁ውጤቶች",
        -8.980317555222527
      ],
      [
        "ባይ",
        -8.98033440343967
      ],
      [
        "2009",
        -8.980344863845348
      ],
      [
        "▁ጊዜያት",
        -8.980361733421734
      ],
      [
        "ሺንግ",
        -8.980566873441774
      ],
      [
        "▁ለማወቅ",
        -8.980622493917322
      ],
      [
        "▁እይታ",
        -8.980794788984877
      ],
      [
        "▁ስለሚ",
        -8.98093887546351
      ],
      [
        "▁ዘገባ",
        -8.98103194557547
      ],
      [
        "ህይወ",
        -8.981061057171718
      ],
      [
        "▁ይወቁ",
        -8.981121752533497
      ],
      [
        "መለከተ",
        -8.981504062118026
      ],
      [
        "ዩኤስ",
        -8.981706191453098
      ],
      [
        "ዋርድ",
        -8.981881144064408
      ],
      [
        "▁ሰፈ",
        -8.981901670341935
      ],
      [
        "መውሰ",
        -8.98190686152563
      ],
      [
        "ያውቁ",
        -8.981924487719063
      ],
      [
        "▁ኤዲ",
        -8.9819946475139
      ],
      [
        "▁የመጓ",
        -8.982134340236822
      ],
      [
        "▁እንደሚችሉ",
        -8.982238597267258
      ],
      [
        "▁የኤ",
        -8.982459450581134
      ],
      [
        "▁እነሱ",
        -8.982758801339905
      ],
      [
        "▁ለማየት",
        -8.983070835313114
      ],
      [
        "ሺያ",
        -8.983119041300217
      ],
      [
        "▁አስከ",
        -8.983173755718076
      ],
      [
        "▁በአትላን",
        -8.983183861803463
      ],
      [
        "▁ሕግ",
        -8.98334722152916
      ],
      [
        "ቅድመ",
        -8.983797415239444
      ],
      [
        "መቆየት",
        -8.984493176432657
      ],
      [
        "▁እጩ",
        -8.984653716903022
      ],
      [
        "ፖ",
        -8.985098903416572
      ],
      [
        "▁አገልግሎትን",
        -8.985162744044079
      ],
      [
        "▁ላ",
        -8.985244034188261
      ],
      [
        "▁ሲሆኑ",
        -8.985272001046305
      ],
      [
        "▁ይወስ",
        -8.98545320018247
      ],
      [
        "ቀርብ",
        -8.986449116880395
      ],
      [
        "▁የሚችሉ",
        -8.9878422118232
      ],
      [
        "▁ድርጅት",
        -8.988130196163187
      ],
      [
        "▁የሚታወ",
        -8.988185825836405
      ],
      [
        "አዲሱ",
        -8.989133312950665
      ],
      [
        "ታወቀ",
        -8.989340282731597
      ],
      [
        "▁ለመድረ",
        -8.98936837975295
      ],
      [
        "▁ዳርቻዎች",
        -8.989883199488201
      ],
      [
        "ጣጣ",
        -8.989936489496648
      ],
      [
        "2,",
        -8.989956951112102
      ],
      [
        "ቲንግ",
        -8.99023818604257
      ],
      [
        "▁ምሽ",
        -8.9904046093057
      ],
      [
        "እውነ",
        -8.99154168780826
      ],
      [
        "ትክክ",
        -8.99161940936877
      ],
      [
        "▁ለሚ",
        -8.99178978080429
      ],
      [
        "ረት",
        -8.991811647287895
      ],
      [
        "▁አብዛ",
        -8.991954832251198
      ],
      [
        "▁ምርመራ",
        -8.991988711485067
      ],
      [
        "▁ውጤት",
        -8.99204849143212
      ],
      [
        "ጦች",
        -8.99206994617391
      ],
      [
        "▁የሚገኘው",
        -8.993049053135444
      ],
      [
        "ረዥ",
        -8.99311399167021
      ],
      [
        "ገናኛ",
        -8.993227954702922
      ],
      [
        "45",
        -8.993228446543982
      ],
      [
        "▁በአንጎ",
        -8.993486558097299
      ],
      [
        "▁የፓኪስታ",
        -8.993536363036657
      ],
      [
        "▁ግራን",
        -8.993727924248795
      ],
      [
        ".ኤ",
        -8.994171815790345
      ],
      [
        "▁በወን",
        -8.994339360297248
      ],
      [
        "ሰቃ",
        -8.99481112856218
      ],
      [
        "መሩ",
        -8.995967447151559
      ],
      [
        "▁በተለያ",
        -8.996165092774744
      ],
      [
        "ምፒክ",
        -8.996190580866745
      ],
      [
        "ፊልም",
        -8.996879404380207
      ],
      [
        "ተለመደ",
        -8.996956399895032
      ],
      [
        "▁ይሞክሩ",
        -8.997480663040875
      ],
      [
        "▁ይችላ",
        -8.998988103806642
      ],
      [
        "ዋሻ",
        -8.999046037956813
      ],
      [
        "▁መሄድ",
        -8.999232544842087
      ],
      [
        "ረዳ",
        -8.99925591959692
      ],
      [
        "▁አጠገብ",
        -9.000411686851377
      ],
      [
        "▁መግቢያ",
        -9.000651068371425
      ],
      [
        "ኒየ",
        -9.000838634298196
      ],
      [
        "▁አሸናፊ",
        -9.001012427020202
      ],
      [
        "ዟል",
        -9.001155021500068
      ],
      [
        "▁አትሌቶ",
        -9.001569561079076
      ],
      [
        "▁ክፍለ",
        -9.001655915329625
      ],
      [
        "▁ሰፋ",
        -9.002195940484317
      ],
      [
        "ረከ",
        -9.002468565678427
      ],
      [
        "መብረር",
        -9.00279905994734
      ],
      [
        "▁የራስዎ",
        -9.003252718613522
      ],
      [
        "▁ገጽ",
        -9.003519575365011
      ],
      [
        "▁የወጣ",
        -9.003556044912742
      ],
      [
        "▁ግጭ",
        -9.003575525581715
      ],
      [
        "▁ብሪታንያ",
        -9.003609061241471
      ],
      [
        "▁ጂምናስቲ",
        -9.003762491146885
      ],
      [
        "▁መንግሥ",
        -9.003850259695596
      ],
      [
        "ቻሉ",
        -9.003885488703784
      ],
      [
        "▁የኢራ",
        -9.004162685592659
      ],
      [
        "▁በመላ",
        -9.004349984361752
      ],
      [
        "▁(የ",
        -9.004355773265834
      ],
      [
        "▁ገለል",
        -9.004364964863326
      ],
      [
        "▁ስነ",
        -9.004410516462572
      ],
      [
        "▁ሄይ",
        -9.004438417803206
      ],
      [
        "▁ድልድ",
        -9.004712177428262
      ],
      [
        "ብረ",
        -9.004977355374907
      ],
      [
        "▁ምሥራ",
        -9.005283781441188
      ],
      [
        "▁ያስቡ",
        -9.005314066926198
      ],
      [
        "ሪዞ",
        -9.005508590500746
      ],
      [
        "▁ዓመቱ",
        -9.00600631957637
      ],
      [
        "▁ሳምን",
        -9.006007402452774
      ],
      [
        "▁የሀገ",
        -9.006664270235762
      ],
      [
        "ጭነት",
        -9.006726242431633
      ],
      [
        "▁በመሆኑ",
        -9.007254445633954
      ],
      [
        "ለክለ",
        -9.007298554909115
      ],
      [
        "▁ተቃውሞው",
        -9.007326291370877
      ],
      [
        "ጀመረው",
        -9.008154077307195
      ],
      [
        "ምዕራብ",
        -9.008273844642186
      ],
      [
        "▁አቋ",
        -9.008659068985995
      ],
      [
        "▁በመካከለኛ",
        -9.008732757426024
      ],
      [
        "▁የአሁኑ",
        -9.009623600304305
      ],
      [
        "ስኳ",
        -9.00965932029904
      ],
      [
        "ስክ",
        -9.009766464555797
      ],
      [
        "▁ቀድሞ",
        -9.010435491924776
      ],
      [
        "ረዘ",
        -9.010535780831418
      ],
      [
        "ዝነ",
        -9.011538491392123
      ],
      [
        "ከራ",
        -9.011857284415173
      ],
      [
        "ጀ",
        -9.012395452159124
      ],
      [
        "▁የበሽታ",
        -9.012538485941453
      ],
      [
        "▁በሕ",
        -9.01278688113705
      ],
      [
        "og",
        -9.013243704911602
      ],
      [
        "▁ትሬ",
        -9.013267222784027
      ],
      [
        "ገናኘ",
        -9.013544084209194
      ],
      [
        "▁የፈረንሳይ",
        -9.013625622750169
      ],
      [
        "ቁጥ",
        -9.014415612506387
      ],
      [
        "▁የያዙ",
        -9.014737026870133
      ],
      [
        "▁በውሃ",
        -9.015311946036748
      ],
      [
        "▁አገ",
        -9.0170070975398
      ],
      [
        "▁ለመደ",
        -9.018284849044786
      ],
      [
        "▁ይዘ",
        -9.018390251852123
      ],
      [
        "▁ከቦ",
        -9.018563411283708
      ],
      [
        "ይደር",
        -9.018904221786897
      ],
      [
        "ክሰ",
        -9.019475846246493
      ],
      [
        "▁የሚያሳ",
        -9.01971713906196
      ],
      [
        "▁ቀድ",
        -9.020747988474836
      ],
      [
        "▁ክሪ",
        -9.022191767394336
      ],
      [
        "ቤትዎ",
        -9.022541223488378
      ],
      [
        "ሸነ",
        -9.022686949880661
      ],
      [
        "ጀመረች",
        -9.02308165124066
      ],
      [
        "▁ተግባራ",
        -9.025214887213352
      ],
      [
        "▁አመራ",
        -9.025633431709515
      ],
      [
        "ኦፕ",
        -9.025906920238565
      ],
      [
        "ጎች",
        -9.026642372818984
      ],
      [
        "▁ሆቴ",
        -9.026804872022248
      ],
      [
        "▁አድር",
        -9.027867076084405
      ],
      [
        "▁በሺ",
        -9.028072599059229
      ],
      [
        "አንዳንዴ",
        -9.029272091000331
      ],
      [
        "▁በከፍተኛ",
        -9.030252666069178
      ],
      [
        "ስኮ",
        -9.030308279940385
      ],
      [
        "ችል",
        -9.030547535907541
      ],
      [
        "ፎር",
        -9.031481511266426
      ],
      [
        "ረጥ",
        -9.031519639152213
      ],
      [
        "ህዝ",
        -9.032601095196028
      ],
      [
        "ኮንግ",
        -9.033047700538898
      ],
      [
        "▁አስተ",
        -9.03323131946914
      ],
      [
        "▁ለሆኑ",
        -9.033762561819689
      ],
      [
        "▁ትራፊክ",
        -9.033880771106034
      ],
      [
        "▁ይገኛል",
        -9.036369233560801
      ],
      [
        "▁ታሪክ",
        -9.036375301710772
      ],
      [
        "▁ባህላ",
        -9.03724991698681
      ],
      [
        "▁ገደ",
        -9.038123916251575
      ],
      [
        "▁በ201",
        -9.0381275623334
      ],
      [
        "▁ኦል",
        -9.038392131266555
      ],
      [
        "▁ዕድ",
        -9.038661179500414
      ],
      [
        "ዘግ",
        -9.039587357090412
      ],
      [
        "▁በሐ",
        -9.04036070041812
      ],
      [
        "▁ከዚህ",
        -9.040723271349227
      ],
      [
        "▁ክፍያ",
        -9.041913562929292
      ],
      [
        "ጠና",
        -9.042213854222345
      ],
      [
        "ወጣ",
        -9.042678718156077
      ],
      [
        "መድ",
        -9.0469236544791
      ],
      [
        "▁ደ",
        -9.047088982167635
      ],
      [
        "ቪል",
        -9.047442436153249
      ],
      [
        "ተጨናነ",
        -9.049366960578736
      ],
      [
        "▁ራ",
        -9.050153965009377
      ],
      [
        "ናሚ",
        -9.051939747956917
      ],
      [
        "▁መብ",
        -9.052852923492196
      ],
      [
        "ይነ",
        -9.053192564388489
      ],
      [
        "ርነት",
        -9.054761998799437
      ],
      [
        "ህን",
        -9.05665361457121
      ],
      [
        "▁ድር",
        -9.057253779798764
      ],
      [
        "ቂያ",
        -9.057303900853967
      ],
      [
        "▁መሥ",
        -9.05771257864073
      ],
      [
        "▁መኪናው",
        -9.05855944408499
      ],
      [
        "▁ችግ",
        -9.059388353093343
      ],
      [
        "▁ሙዚ",
        -9.059455098652261
      ],
      [
        "▁ሁ",
        -9.060920919041711
      ],
      [
        "▁በባህ",
        -9.060950819744953
      ],
      [
        "ለፈው",
        -9.060955856966064
      ],
      [
        "▁ዜ",
        -9.061737114533038
      ],
      [
        "ሰጠ",
        -9.063224087675573
      ],
      [
        "▁አውሮ",
        -9.063298278314555
      ],
      [
        "▁ሲያ",
        -9.063542538624521
      ],
      [
        "ሁን",
        -9.063821936490053
      ],
      [
        "▁እንደሚያሳ",
        -9.066428014702954
      ],
      [
        "▁መም",
        -9.066784413622159
      ],
      [
        "ወረ",
        -9.06706856494348
      ],
      [
        "▁ስፍራው",
        -9.068292022982206
      ],
      [
        "ሰማ",
        -9.069576994985535
      ],
      [
        "ቆዩ",
        -9.069909065733885
      ],
      [
        "ጆን",
        -9.070235456778997
      ],
      [
        "ለን።",
        -9.070605675963535
      ],
      [
        "የተካሄደ",
        -9.070992544157674
      ],
      [
        "ቤቶች",
        -9.071484447280936
      ],
      [
        "▁በብዙ",
        -9.071935518180727
      ],
      [
        "▁አምስ",
        -9.072222500635906
      ],
      [
        "▁ቆይ",
        -9.072899848762109
      ],
      [
        "▁ቁጥ",
        -9.074800007488268
      ],
      [
        "▁ክብ",
        -9.076395354894
      ],
      [
        "ፍሎ",
        -9.076778436686935
      ],
      [
        "ሳች",
        -9.07815655111594
      ],
      [
        "▁ልክ",
        -9.079020613786083
      ],
      [
        "ክል",
        -9.083300582367947
      ],
      [
        "▁የቀ",
        -9.085864137950963
      ],
      [
        "▁ተቀ",
        -9.087773534866109
      ],
      [
        "ቆይ",
        -9.088802902297925
      ],
      [
        "ጓዙ",
        -9.088913800539677
      ],
      [
        "▁ኒው",
        -9.089305323988938
      ],
      [
        "ስትሮ",
        -9.090284873733149
      ],
      [
        "ቶችን",
        -9.090828404259222
      ],
      [
        "▁አጋ",
        -9.091050625660694
      ],
      [
        "መሆኑ",
        -9.091576569663815
      ],
      [
        "▁c",
        -9.092732370442835
      ],
      [
        "▁የሆ",
        -9.092956107962397
      ],
      [
        "▁ወጥ",
        -9.093918826378252
      ],
      [
        "ሳሉ",
        -9.09547375678339
      ],
      [
        "ቅር",
        -9.095964188745453
      ],
      [
        "ነኛ",
        -9.09601476172808
      ],
      [
        "ቀደም",
        -9.096152193523174
      ],
      [
        "▁W",
        -9.096332097576616
      ],
      [
        "ፊል",
        -9.097156955261163
      ],
      [
        "▁የጉበ",
        -9.097255469265171
      ],
      [
        "ቫን",
        -9.097327762112544
      ],
      [
        "▁ፓር",
        -9.09744381594383
      ],
      [
        "▁ዘጠ",
        -9.099885540709574
      ],
      [
        "▁ሴቶች",
        -9.102228297542013
      ],
      [
        "▁ጠባ",
        -9.103407279515631
      ],
      [
        "ፈር",
        -9.106116011506286
      ],
      [
        "▁ሊያስ",
        -9.106420892001381
      ],
      [
        "▁አድ",
        -9.110090176059307
      ],
      [
        "ዎት",
        -9.1142778685191
      ],
      [
        "ወቁ",
        -9.114482106211558
      ],
      [
        "ኗ",
        -9.11575858219249
      ],
      [
        "▁በጉዞ",
        -9.116211467888743
      ],
      [
        "▁የጀርመን",
        -9.116641499107008
      ],
      [
        "ፍሉ",
        -9.11931285634095
      ],
      [
        "▁የኦ",
        -9.120477435612221
      ],
      [
        "10",
        -9.12051037255266
      ],
      [
        "ግኝቶ",
        -9.120632079308441
      ],
      [
        "ቡል",
        -9.122123722257287
      ],
      [
        "በቃ",
        -9.12320080922679
      ],
      [
        "▁ቆ",
        -9.123250986047935
      ],
      [
        "ኝነት",
        -9.124422518808753
      ],
      [
        "ስዕ",
        -9.124440887724726
      ],
      [
        "▁ለመገ",
        -9.128482154873494
      ],
      [
        "አመት",
        -9.130058839162986
      ],
      [
        "▁በፓ",
        -9.13033890130649
      ],
      [
        "▁ከነ",
        -9.130833243333086
      ],
      [
        "▁ከዛ",
        -9.131347505173759
      ],
      [
        "ትሆ",
        -9.135625804988933
      ],
      [
        "ናገሩ",
        -9.137701963091017
      ],
      [
        "▁ዲ",
        -9.137739376255098
      ],
      [
        "ዕይ",
        -9.138570528856896
      ],
      [
        "▁የአም",
        -9.138849548255196
      ],
      [
        "▁የአይ",
        -9.139017158245682
      ],
      [
        "▁የድን",
        -9.139969480826768
      ],
      [
        "በታ",
        -9.143401440097382
      ],
      [
        "▁የቱሪ",
        -9.143505186324091
      ],
      [
        "▁ጎል",
        -9.14556349313722
      ],
      [
        "ግም",
        -9.14591956789738
      ],
      [
        "▁ቺ",
        -9.150411612376413
      ],
      [
        "▁አባ",
        -9.1509883589909
      ],
      [
        "ንነት",
        -9.151967084734878
      ],
      [
        "ስትራ",
        -9.152317041424855
      ],
      [
        "ጆ",
        -9.153082587091214
      ],
      [
        "▁ፕሪ",
        -9.15613812964659
      ],
      [
        "እንግ",
        -9.156309578526905
      ],
      [
        "▁የሚሉ",
        -9.15736333927237
      ],
      [
        "ራሮች",
        -9.157613757471973
      ],
      [
        "▁የኒ",
        -9.158932165499195
      ],
      [
        "▁ዝ",
        -9.161549620943418
      ],
      [
        "▁ዋን",
        -9.162836167971724
      ],
      [
        "ግስ",
        -9.163876668854037
      ],
      [
        "ህግ",
        -9.165039384662755
      ],
      [
        "ያመለክ",
        -9.166511896378804
      ],
      [
        "ተሸ",
        -9.167667977984692
      ],
      [
        "▁አሉት",
        -9.168718160607623
      ],
      [
        "ውስጥ",
        -9.172362623374088
      ],
      [
        "ዳን",
        -9.174161872079065
      ],
      [
        "▁እንዲገ",
        -9.177367654348107
      ],
      [
        "▁ምድር",
        -9.177507790066688
      ],
      [
        "ገብ",
        -9.177851601848351
      ],
      [
        "ችለው",
        -9.178770474776274
      ],
      [
        "ፔ",
        -9.17925728850389
      ],
      [
        "ቆጥ",
        -9.179653021480952
      ],
      [
        "ገድ",
        -9.185417602137651
      ],
      [
        "ጠሩ",
        -9.186466052332463
      ],
      [
        "▁ቅ",
        -9.188779976293663
      ],
      [
        "▁ኩ",
        -9.19018744068442
      ],
      [
        "▁ክ",
        -9.190203928940676
      ],
      [
        "▁ኔ",
        -9.19044181563745
      ],
      [
        "▁ያሉት",
        -9.191355403962584
      ],
      [
        "ሸን",
        -9.192901751108241
      ],
      [
        "▁6",
        -9.19421485704215
      ],
      [
        "ica",
        -9.194847729835288
      ],
      [
        "መታ",
        -9.197188375083215
      ],
      [
        "▁ብስ",
        -9.197363626339799
      ],
      [
        "ተር",
        -9.20114085797138
      ],
      [
        "ልዎት",
        -9.201467863451622
      ],
      [
        "▁8",
        -9.202134854865584
      ],
      [
        "ሶስ",
        -9.202497436623883
      ],
      [
        "▁ከሁ",
        -9.204905045227092
      ],
      [
        "ገስ",
        -9.205116495381052
      ],
      [
        "ጣሉ",
        -9.205495210890865
      ],
      [
        "▁መታ",
        -9.20671834521931
      ],
      [
        "ደም",
        -9.208046047207546
      ],
      [
        "▁አልተጎ",
        -9.208597174715965
      ],
      [
        "ለል",
        -9.210631052461881
      ],
      [
        "▁በደ",
        -9.21107970239439
      ],
      [
        "ገናኝ",
        -9.212195291374146
      ],
      [
        "▁17",
        -9.212564892994484
      ],
      [
        "▁የሌ",
        -9.212583214226644
      ],
      [
        "ድን",
        -9.217836808047783
      ],
      [
        "▁የሆኑ",
        -9.21789311127687
      ],
      [
        "የሩ",
        -9.218915350925299
      ],
      [
        "መንግስ",
        -9.219081151966522
      ],
      [
        "ጣል",
        -9.21929026145126
      ],
      [
        "ሚያ",
        -9.220578402224866
      ],
      [
        "ንያን",
        -9.22102799956697
      ],
      [
        "▁በዳ",
        -9.225040113101548
      ],
      [
        "▁ወዳ",
        -9.225530639323113
      ],
      [
        "ሚያመለክ",
        -9.230063423147934
      ],
      [
        "ምስ",
        -9.232802101472906
      ],
      [
        "▁እድ",
        -9.232955085916547
      ],
      [
        "ተመራ",
        -9.234961184109004
      ],
      [
        "▁የእስ",
        -9.235606405541244
      ],
      [
        "ርስ",
        -9.235838497500675
      ],
      [
        "▁(N",
        -9.236942848625965
      ],
      [
        "ገቡ",
        -9.239744932611053
      ],
      [
        "▁ሁለተኛው",
        -9.241588005626188
      ],
      [
        "ለምአቀ",
        -9.24284343554056
      ],
      [
        "ic",
        -9.247200122892227
      ],
      [
        "▁የነ",
        -9.248697845804417
      ],
      [
        "ነሳ",
        -9.249616642062852
      ],
      [
        "▁ማረፊያዎ",
        -9.251702314251597
      ],
      [
        "▁መር",
        -9.25229387026588
      ],
      [
        "ወድ",
        -9.253132604327801
      ],
      [
        "ሚዎች",
        -9.2570344747276
      ],
      [
        "ብር",
        -9.25994753148931
      ],
      [
        "ትሮ",
        -9.260681721315063
      ],
      [
        "ቼ",
        -9.261416773024017
      ],
      [
        "ሲል",
        -9.261629534806193
      ],
      [
        "▁አስተያየቶ",
        -9.264028234241664
      ],
      [
        "in",
        -9.267333636968516
      ],
      [
        "7,",
        -9.26848029882137
      ],
      [
        "sl",
        -9.268521489885407
      ],
      [
        "ጦ",
        -9.269804486878432
      ],
      [
        "ጊዜ",
        -9.270626579997208
      ],
      [
        "ሀይ",
        -9.278941262156557
      ],
      [
        "ወስ",
        -9.279394595029638
      ],
      [
        "▁ካን",
        -9.280581003562945
      ],
      [
        "ን”",
        -9.282503205980081
      ],
      [
        "ንቴ",
        -9.283850503082139
      ],
      [
        "▁15",
        -9.286062228470582
      ],
      [
        "▁የሚያስ",
        -9.28676460440619
      ],
      [
        "▁አውሮፕላ",
        -9.288655830487476
      ],
      [
        "ሞት",
        -9.290163177103775
      ],
      [
        "▁ተቃውሞ",
        -9.294451082300775
      ],
      [
        "ልክ",
        -9.296195003623076
      ],
      [
        "ካሪ",
        -9.298837350002739
      ],
      [
        "ፕራ",
        -9.29914114224963
      ],
      [
        "▁በሮ",
        -9.300122974843447
      ],
      [
        "00",
        -9.301867581151749
      ],
      [
        "▁ዛ",
        -9.301905042351576
      ],
      [
        "▁የግ",
        -9.309109223704816
      ],
      [
        "ዳት",
        -9.317357045803988
      ],
      [
        "ዝናና",
        -9.31848253345751
      ],
      [
        "▁እንዲያ",
        -9.320611426028579
      ],
      [
        "▁ያሳ",
        -9.321697088685461
      ],
      [
        "ቺን",
        -9.323076964463528
      ],
      [
        "▁አዲ",
        -9.325003436750446
      ],
      [
        "-19",
        -9.325226982822617
      ],
      [
        "▁አሰ",
        -9.337892555189523
      ],
      [
        "▁የሶ",
        -9.341522466167657
      ],
      [
        "ንዶ",
        -9.343867161131048
      ],
      [
        "▁ያመ",
        -9.351442015536618
      ],
      [
        "ረግ",
        -9.351453151986117
      ],
      [
        "▁ካል",
        -9.355774992262553
      ],
      [
        "▁ሊቀ",
        -9.357519420400864
      ],
      [
        "ኢራ",
        -9.359576931257894
      ],
      [
        "I",
        -9.360050552119281
      ],
      [
        "▁በሚያ",
        -9.360635101066066
      ],
      [
        "መጣ",
        -9.366329387665697
      ],
      [
        "▁ይወ",
        -9.369688037072716
      ],
      [
        "(",
        -9.370316595849197
      ],
      [
        "ነፃነ",
        -9.376739937500394
      ],
      [
        "ውቅያኖስ",
        -9.382734943760456
      ],
      [
        "ጣቢያ",
        -9.384455006937312
      ],
      [
        "ቫይረስ",
        -9.386026142253149
      ],
      [
        "አቅርቦ",
        -9.387134273883488
      ],
      [
        "ደሴቶች",
        -9.389799701566389
      ],
      [
        "ታሪክ",
        -9.38993367337996
      ],
      [
        "አመቱ",
        -9.390312529706772
      ],
      [
        "ጎብኚዎች",
        -9.391206632128782
      ],
      [
        "ዐ",
        -9.391349731438588
      ],
      [
        "▁የሃ",
        -9.391533608321456
      ],
      [
        "ተቃውሞ",
        -9.392568932479353
      ],
      [
        "ነብ",
        -9.393094897871038
      ],
      [
        "ኦሊ",
        -9.39351333689196
      ],
      [
        "▁በታ",
        -9.394270830123638
      ],
      [
        "መዝናኛ",
        -9.394627440350128
      ],
      [
        "ጠብቁ",
        -9.39475259495858
      ],
      [
        "ትራፊክ",
        -9.394753941233112
      ],
      [
        "እድሜ",
        -9.396282260625355
      ],
      [
        "ዜና",
        -9.39691689209267
      ],
      [
        "▁በአብዛኛ",
        -9.39978149621288
      ],
      [
        "ት፣",
        -9.400139311129122
      ],
      [
        "በርካ",
        -9.402870989127138
      ],
      [
        "ያያዙ",
        -9.406284023725448
      ],
      [
        "15",
        -9.406407349765727
      ],
      [
        "በው",
        -9.409406258239336
      ],
      [
        "▁ደብ",
        -9.410792488067706
      ],
      [
        "ምን",
        -9.415939147845794
      ],
      [
        "ልጣና",
        -9.416735057541292
      ],
      [
        "ሲያ",
        -9.417860458850514
      ],
      [
        "ሯቸ",
        -9.41807021830961
      ],
      [
        "ሄድ",
        -9.4181228724484
      ],
      [
        "ሞክራ",
        -9.418435397806245
      ],
      [
        "ሳታ",
        -9.423489461882596
      ],
      [
        "ዳሉ",
        -9.427005992979948
      ],
      [
        "▁የተጠ",
        -9.427517744054066
      ],
      [
        "▁ምዕራ",
        -9.43070045334581
      ],
      [
        "ስተ",
        -9.431334599806313
      ],
      [
        "▁ኖ",
        -9.432794917896956
      ],
      [
        "▁ፍር",
        -9.43325117387383
      ],
      [
        "መለሱ",
        -9.434675098402764
      ],
      [
        "▁ቤተ",
        -9.435449020843205
      ],
      [
        "አፍጋ",
        -9.435581154882264
      ],
      [
        "ያዎች",
        -9.435920829144605
      ],
      [
        "አካባቢው",
        -9.439471245115136
      ],
      [
        "▁ግንኙነ",
        -9.441142984558027
      ],
      [
        "ረጉ",
        -9.442765979398523
      ],
      [
        "ወሰ",
        -9.442778225816175
      ],
      [
        "ተለያ",
        -9.445597258046663
      ],
      [
        "ፆ",
        -9.446137903806688
      ],
      [
        "ሚሆኑ",
        -9.446352193249709
      ],
      [
        "j",
        -9.446492100342162
      ],
      [
        "ደብ",
        -9.44683717132342
      ],
      [
        "▁መርከ",
        -9.447383669074322
      ],
      [
        "▁በ19",
        -9.447912464498673
      ],
      [
        "ጻ",
        -9.449191909930013
      ],
      [
        "▁ጃፓ",
        -9.449584345695051
      ],
      [
        "ሆቴ",
        -9.450385590635602
      ],
      [
        "▁ወጪ",
        -9.451330549525993
      ],
      [
        "▁አንደ",
        -9.452198697389022
      ],
      [
        "ፓኪስታ",
        -9.45381960425813
      ],
      [
        "ጨረቃ",
        -9.454055723842808
      ],
      [
        "ሎጂ",
        -9.457418345791329
      ],
      [
        "ጎዳ",
        -9.457694088332104
      ],
      [
        "ምር",
        -9.45779246948258
      ],
      [
        "ሳን",
        -9.458149931423876
      ],
      [
        "ጥሯ",
        -9.458322313458318
      ],
      [
        "ተረጋጋ",
        -9.4583944424137
      ],
      [
        "▁ስቴ",
        -9.458657535562164
      ],
      [
        "ዋን",
        -9.461593736244712
      ],
      [
        "▁ከተማዋ",
        -9.461656846038922
      ],
      [
        "▁ቱር",
        -9.462307554748277
      ],
      [
        "ካዊ",
        -9.462318736054687
      ],
      [
        "ul",
        -9.464521934880676
      ],
      [
        "▁ሚኒስ",
        -9.464563839102585
      ],
      [
        "ያቀር",
        -9.465541028060635
      ],
      [
        "ባታ",
        -9.465852613566176
      ],
      [
        "መልክ",
        -9.466485562810803
      ],
      [
        "ካሄደ",
        -9.467871068946685
      ],
      [
        "▁ኃ",
        -9.468041568730612
      ],
      [
        "መጓዝ",
        -9.469115787894289
      ],
      [
        "▁ዋ",
        -9.4702317191465
      ],
      [
        "ልኮ",
        -9.471435107114571
      ],
      [
        "ቀሪ",
        -9.47231548633657
      ],
      [
        "▁መሳሪያ",
        -9.472959920345366
      ],
      [
        "አንፃ",
        -9.47304905782476
      ],
      [
        "በል",
        -9.473374685293784
      ],
      [
        "መዝገብ",
        -9.47485515853662
      ],
      [
        "▁በመጨረ",
        -9.47485771361023
      ],
      [
        "▁መድረ",
        -9.474902421966856
      ],
      [
        "ዷ",
        -9.475204064494282
      ],
      [
        "ዡ",
        -9.475510100006735
      ],
      [
        "ብኚ",
        -9.476364619008503
      ],
      [
        "ተጠቀ",
        -9.476410214691947
      ],
      [
        "▁የኩባ",
        -9.476449775179063
      ],
      [
        "ቀላቀ",
        -9.476570879759585
      ],
      [
        "▁40",
        -9.47660156491888
      ],
      [
        "ረጋገ",
        -9.476713266131679
      ],
      [
        "ሚገኘው",
        -9.476948485703733
      ],
      [
        "p",
        -9.477359322640647
      ],
      [
        "▁ፕሮግራ",
        -9.477680598433018
      ],
      [
        "▁ፕሬዝ",
        -9.47784812403924
      ],
      [
        "▁ተቆጣ",
        -9.478057440407948
      ],
      [
        "ጾ",
        -9.478063019277858
      ],
      [
        "ቄ",
        -9.478096699971365
      ],
      [
        "▁ZMapp",
        -9.478097864053279
      ],
      [
        "'",
        -9.47809786405328
      ],
      [
        "▁የፕሮቬንዛኖ",
        -9.478097864060551
      ],
      [
        "V",
        -9.47809786409322
      ],
      [
        "X",
        -9.478097864093229
      ],
      [
        "ጢ",
        -9.478097864093234
      ],
      [
        "—",
        -9.47809786409324
      ],
      [
        "ጐ",
        -9.47809786409324
      ],
      [
        "ፁ",
        -9.47809786409324
      ],
      [
        ":",
        -9.47809786409324
      ],
      [
        "ኅ",
        -9.47809786409324
      ],
      [
        "ዑ",
        -9.47809786409324
      ],
      [
        "ዒ",
        -9.47809786409324
      ],
      [
        "»",
        -9.47809786409324
      ],
      [
        "ጹ",
        -9.47809786409324
      ],
      [
        "▁Exposition",
        -9.47809786409324
      ],
      [
        "ff",
        -9.47809786409324
      ],
      [
        "▁ምቾት",
        -9.478097864347914
      ],
      [
        "▁መሣሪያ",
        -9.478097864365562
      ],
      [
        "que",
        -9.478097864415087
      ],
      [
        "▁ሻምፒዮና",
        -9.478097864441068
      ],
      [
        "▁ያረጋግጡ",
        -9.478097864982287
      ],
      [
        "▁የሚንሸራተ",
        -9.478097865178082
      ],
      [
        "bo",
        -9.478097865552682
      ],
      [
        "▁ብሪቴይን",
        -9.4780978670922
      ],
      [
        "ረጋግጧል",
        -9.47809787504082
      ],
      [
        "▁አገልግሎቶች",
        -9.478097881528246
      ],
      [
        "▁ፍሮንቲር",
        -9.478097887616055
      ],
      [
        "▁ተለዋዋጭ",
        -9.478097897429008
      ],
      [
        "▁Gran",
        -9.478097906522084
      ],
      [
        "(F",
        -9.478097913113015
      ],
      [
        "▁አስገራሚ",
        -9.478097915976122
      ],
      [
        "▁አስታውቋል",
        -9.478097932832817
      ],
      [
        "▁በረዷማ",
        -9.478097977046083
      ],
      [
        "ጂኦግራፊ",
        -9.478098016267474
      ],
      [
        "መስተንግዶ",
        -9.478098019252597
      ],
      [
        "ፏፏቴ",
        -9.47809806935174
      ],
      [
        "▁ኦሎምፒኮ",
        -9.478098114460249
      ],
      [
        "ሻምፒዮን",
        -9.478098198906743
      ],
      [
        "▁«",
        -9.478098224856637
      ],
      [
        "▁የተከሰተ",
        -9.478098415958275
      ],
      [
        "▁ፒራሚዶ",
        -9.478098422875393
      ],
      [
        "▁መዓከላ",
        -9.478098480825489
      ],
      [
        "▁ዶሚኒካ",
        -9.47809857871484
      ],
      [
        "ተገለጸ",
        -9.478098771965414
      ],
      [
        "▁ገልፀ",
        -9.478099396844929
      ],
      [
        "▁የተከበበ",
        -9.478100366468007
      ],
      [
        "ATA",
        -9.478101206187938
      ],
      [
        "▁ቡልጋሪያ",
        -9.478101262129055
      ],
      [
        "ፔላጎ",
        -9.478101330839616
      ],
      [
        "አድናቂዎ",
        -9.478101357188145
      ],
      [
        "▁ግድግዳ",
        -9.478101668779889
      ],
      [
        "ዋይትሆል",
        -9.478101912574271
      ],
      [
        "▁ከተከሰተ",
        -9.478102205985548
      ],
      [
        "▁ዳይሬክተር",
        -9.478102343709203
      ],
      [
        "▁የኪነ-ጥበ",
        -9.47810339425045
      ],
      [
        "ምናውቀው",
        -9.47810350353587
      ],
      [
        "ሜድትራ",
        -9.478104725641217
      ],
      [
        "ያስፈልግዎ",
        -9.478105254562992
      ],
      [
        "▁የተገነባ",
        -9.478107713971607
      ],
      [
        "▁አልቻሉም",
        -9.47810816238069
      ],
      [
        "▁ወዲያው",
        -9.478108974969775
      ],
      [
        "▁አይሸፍንም",
        -9.47810937759214
      ],
      [
        "▁ሕፃናት",
        -9.478111344706518
      ],
      [
        "▁እየሞከ",
        -9.47811357778075
      ],
      [
        "▁ዋስትና",
        -9.478117881577345
      ],
      [
        "▁ይጠናቀቃ",
        -9.47811972397676
      ],
      [
        "▁ተገኝተዋል",
        -9.478122809134065
      ],
      [
        "▁ማእከ",
        -9.478125840415927
      ],
      [
        "▁ጭማቂ",
        -9.478125904695503
      ],
      [
        "▁ይባላል",
        -9.47812622680905
      ],
      [
        "▁ከእሳተ",
        -9.478126622481701
      ],
      [
        "▁ይተማመ",
        -9.47812688573684
      ],
      [
        "▁ጥምረት",
        -9.478127144286423
      ],
      [
        "▁አንቀጾ",
        -9.478132710048332
      ],
      [
        "▁ትስስር",
        -9.478132937064334
      ],
      [
        "ፀረ-",
        -9.478135894379145
      ],
      [
        "▁ክርስቲ",
        -9.47814051329214
      ],
      [
        "ቨንፖርት",
        -9.47814303505501
      ],
      [
        "app",
        -9.478144583665543
      ],
      [
        "▁ተቀላቅ",
        -9.478144866370894
      ],
      [
        "ፕላኔ",
        -9.478150097610825
      ],
      [
        "ስተናገደች",
        -9.478151349695679
      ],
      [
        "▁አጋጥሟ",
        -9.478156517232966
      ],
      [
        "▁ተቆጣጣሪ",
        -9.478158422377726
      ],
      [
        "▁ማሻሻያ",
        -9.47816307018842
      ],
      [
        "መለማመድ",
        -9.478166730256003
      ],
      [
        "▁ከታይታ",
        -9.478168976606156
      ],
      [
        "ገሞራ",
        -9.478170036592745
      ],
      [
        "ተፈረመ",
        -9.478170443392068
      ],
      [
        "▁11፡",
        -9.478171282959922
      ],
      [
        "▁አልነበረውም",
        -9.478173712739004
      ],
      [
        "▁ባለሙያ",
        -9.478176226718393
      ],
      [
        "▁በእርግጥ",
        -9.47817686283391
      ],
      [
        "▁Inc",
        -9.478178055588707
      ],
      [
        "ኦኔጋ",
        -9.478178631763804
      ],
      [
        "ሚመለከቱ",
        -9.478184599770259
      ],
      [
        "▁የኢቦላ",
        -9.478188476106673
      ],
      [
        "ተመዘገበ",
        -9.478189916750358
      ],
      [
        "▁ሌሊት",
        -9.478193232287754
      ],
      [
        "አርጀንቲና",
        -9.478197731441893
      ],
      [
        "▁ሦስቱ",
        -9.478200619777267
      ],
      [
        "ጠራለች",
        -9.478201765534507
      ],
      [
        "▁ፈርናን",
        -9.4782109939587
      ],
      [
        "▁ካፒታል",
        -9.478211559090955
      ],
      [
        "▁የሚቻለው",
        -9.478225277503181
      ],
      [
        "▁ስፖርታቸው",
        -9.47822738566485
      ],
      [
        "▁ትንበያ",
        -9.47822788114148
      ],
      [
        "▁ገዳይነ",
        -9.478235333683287
      ],
      [
        "▁ይሄዳሉ",
        -9.478243102679004
      ],
      [
        "▁በነ",
        -9.478248653147425
      ],
      [
        "468",
        -9.47825744824745
      ],
      [
        "on",
        -9.47826433059225
      ],
      [
        "▁ጎርደን",
        -9.478297921840293
      ],
      [
        "ተፈጠረ",
        -9.478310028126822
      ],
      [
        "ንቀሳቀ",
        -9.478316566008587
      ],
      [
        "▁ይይዛል",
        -9.478324083727323
      ],
      [
        "▁ማራኪ",
        -9.478371739216534
      ],
      [
        "ስረዛ",
        -9.478382217726345
      ],
      [
        "▁ለውጦች",
        -9.478390203322517
      ],
      [
        "ስፓኒ",
        -9.478401763886033
      ],
      [
        "▁ፖስታ",
        -9.478401864504526
      ],
      [
        "▁ማራዘ",
        -9.478406554283135
      ],
      [
        "▁Da",
        -9.478411629703546
      ],
      [
        "▁1979",
        -9.478412331399195
      ],
      [
        "▁የሚታወቀው",
        -9.478415076591485
      ],
      [
        "▁ባሻገር",
        -9.478438579805358
      ],
      [
        "▁ከተሸነፈ",
        -9.478441913573278
      ],
      [
        "ሞቃታማ",
        -9.478455555473534
      ],
      [
        "▁ማቀበ",
        -9.478460575372054
      ],
      [
        "ይቋረጥ",
        -9.478482313598896
      ],
      [
        "▁ሰላጤ",
        -9.47849489501277
      ],
      [
        "▁ፕሮግራሞች",
        -9.478518610458423
      ],
      [
        "▁ማዕከላዊ",
        -9.478534849603243
      ],
      [
        "▁San",
        -9.478580518167867
      ],
      [
        "ያበረታታ",
        -9.47862022225143
      ],
      [
        "ባጃን",
        -9.478627133013998
      ],
      [
        "▁አካላት",
        -9.47863598606643
      ],
      [
        "▁ያደርገዋል",
        -9.478640339902464
      ],
      [
        "▁(ለምሳሌ",
        -9.478643113106187
      ],
      [
        "▁ሲሄዱ",
        -9.478669198677315
      ],
      [
        "do",
        -9.478687002712261
      ],
      [
        "▁ውሳኔ",
        -9.478711910842096
      ],
      [
        "ወፎች",
        -9.478760584124892
      ],
      [
        "▁ያስታውሱ",
        -9.47880427214756
      ],
      [
        "▁የሚያስፈልገው",
        -9.478845218611136
      ],
      [
        "▁ለመጀመር",
        -9.478878335202943
      ],
      [
        "▁ያሸነፈ",
        -9.478894466251468
      ],
      [
        "▁ባንዱ",
        -9.478903101574748
      ],
      [
        "ሜዳሊያ",
        -9.478932396256926
      ],
      [
        "ኦሎጂ",
        -9.478950772473679
      ],
      [
        "ጠይቀ",
        -9.478970935844597
      ],
      [
        "▁ከ201",
        -9.478974420589912
      ],
      [
        "ገለገ",
        -9.478992120448726
      ],
      [
        "▁ተጓዞች",
        -9.479042777526933
      ],
      [
        "▁ፓስፖርቶች",
        -9.479093835137327
      ],
      [
        "▁ሕመም",
        -9.479098758352865
      ],
      [
        "lu",
        -9.47910042882152
      ],
      [
        "▁የሚሄዱ",
        -9.479173050548972
      ],
      [
        "ዲስትሪ",
        -9.479188354013976
      ],
      [
        "▁መልኩ",
        -9.479271173193075
      ],
      [
        "▁ይመስላ",
        -9.479290100787704
      ],
      [
        "▁አውሮፕላኖች",
        -9.479326787037031
      ],
      [
        "▁ይለያያሉ",
        -9.479381794191674
      ],
      [
        "de",
        -9.479385371587668
      ],
      [
        "▁ሆኪ",
        -9.479404796164506
      ],
      [
        "▁6,",
        -9.47940672744514
      ],
      [
        "▁የሚሰጡት",
        -9.479445429871582
      ],
      [
        "ቅጣ",
        -9.479480501855551
      ],
      [
        "▁የሚስቡ",
        -9.479523685926921
      ],
      [
        "▁ኤርፖር",
        -9.479529453452573
      ],
      [
        "▁ይሆና",
        -9.479533074152341
      ],
      [
        "መስታወ",
        -9.47956427367886
      ],
      [
        "▁ተናግ",
        -9.479565422259487
      ],
      [
        "▁ጥበቃ",
        -9.479634025480923
      ],
      [
        "▁ያገለ",
        -9.479690301077246
      ],
      [
        "ደህንነ",
        -9.479779580461951
      ],
      [
        "ኒውዚላንድ",
        -9.479803685262207
      ],
      [
        "▁አድርጎ",
        -9.479830364760987
      ],
      [
        "▁በመጀመርያ",
        -9.47989896861942
      ],
      [
        "ኩባንያ",
        -9.479935948367032
      ],
      [
        "ሀብት",
        -9.479978784682363
      ],
      [
        "MS",
        -9.479993622743313
      ],
      [
        "ፍሰስ",
        -9.480031920458984
      ],
      [
        "▁በበኩ",
        -9.480040525749285
      ],
      [
        "▁ይኖርብ",
        -9.480050266780928
      ],
      [
        "ጫወተ",
        -9.480127132412145
      ],
      [
        "▁መቀበ",
        -9.480194214479132
      ],
      [
        "▁ተገቢ",
        -9.480196492466643
      ],
      [
        "ያካትት",
        -9.480334245334717
      ],
      [
        "▁ክስተ",
        -9.480352894378283
      ],
      [
        "▁ይበራ",
        -9.480422205765057
      ],
      [
        "▁አልሰጡ",
        -9.480457795256068
      ],
      [
        "PA",
        -9.48047693834878
      ],
      [
        "▁አማራ",
        -9.480500052113891
      ],
      [
        "ኖርዌ",
        -9.480544259949818
      ],
      [
        "ከለከ",
        -9.48061152806797
      ],
      [
        "▁ንግግር",
        -9.480679018048532
      ],
      [
        "ተጓዡ",
        -9.480692150666261
      ],
      [
        "▁ያለፈው",
        -9.48074127023835
      ],
      [
        "ሚያስከት",
        -9.480783164761235
      ],
      [
        "ቅዷ",
        -9.48099970926495
      ],
      [
        "ra",
        -9.481059299750692
      ],
      [
        "ስተካከ",
        -9.481103783087857
      ],
      [
        "▁የሚጎበኙ",
        -9.481119155487685
      ],
      [
        "▁ስርጭ",
        -9.481129235449052
      ],
      [
        "▁አቀማመ",
        -9.481175594921321
      ],
      [
        "▁ማዕከ",
        -9.48133915872165
      ],
      [
        "ስማማ",
        -9.481349464404392
      ],
      [
        "ደርሶ",
        -9.481372208678652
      ],
      [
        "▁ተስማ",
        -9.481388439365837
      ],
      [
        "▁ማመልከ",
        -9.481412100221668
      ],
      [
        "▁ቅጽ",
        -9.481478934741753
      ],
      [
        "▁በሰፊ",
        -9.481483036977139
      ],
      [
        "▁ይተካ",
        -9.481734066496488
      ],
      [
        "▁ፕላ",
        -9.481749168197895
      ],
      [
        "▁1000",
        -9.481751362965761
      ],
      [
        "▁ድጋፍ",
        -9.481810368417467
      ],
      [
        "▁የሚመጣ",
        -9.48187274970539
      ],
      [
        "▁በመጠኑ",
        -9.482039717489643
      ],
      [
        "▁የሚያስተ",
        -9.48204094203958
      ],
      [
        "ቅርቡ",
        -9.482056233063068
      ],
      [
        "▁የተመሰረ",
        -9.482073254270762
      ],
      [
        "ከናወ",
        -9.482076353532115
      ],
      [
        "▁Ha",
        -9.48212066027792
      ],
      [
        "▁ሻይ",
        -9.482194410312163
      ],
      [
        "ጉንፋ",
        -9.482215034880156
      ],
      [
        "▁የሚመከ",
        -9.482258688230498
      ],
      [
        "ጉድጓ",
        -9.48226797979313
      ],
      [
        "ጂያን",
        -9.482357802559278
      ],
      [
        "▁ጥቃቱ",
        -9.482500011855436
      ],
      [
        "ግባታቸው",
        -9.482575495847252
      ],
      [
        "▁በርሊን",
        -9.48272201446318
      ],
      [
        "▁ደህ",
        -9.482734757684248
      ],
      [
        "▁አሏቸው",
        -9.482922057922234
      ],
      [
        "ቨር",
        -9.482962797439669
      ],
      [
        "76",
        -9.482998032116408
      ],
      [
        "▁የፋይ",
        -9.483057101366423
      ],
      [
        "ከቦች",
        -9.483133586979726
      ],
      [
        "ዘረጋ",
        -9.483269611214522
      ],
      [
        "▁ይኖራቸዋል",
        -9.483353601191846
      ],
      [
        "▁ያሳያ",
        -9.483474771074029
      ],
      [
        "▁\"ከ",
        -9.483493201040943
      ],
      [
        "ፖስፖርት",
        -9.483534190310996
      ],
      [
        "መረጡ",
        -9.483570946994494
      ],
      [
        "ታተመ",
        -9.483587632610838
      ],
      [
        "ላፊነት",
        -9.48367344924626
      ],
      [
        "ወዳጆቻቸው",
        -9.483744342668409
      ],
      [
        "ነጋገ",
        -9.483817194030621
      ],
      [
        "▁አሊያ",
        -9.483888113500925
      ],
      [
        "88",
        -9.484021919385713
      ],
      [
        "▁መሳሪያዎች",
        -9.484023574997677
      ],
      [
        "▁መረጃ",
        -9.484106007595468
      ],
      [
        "▁በመቀጠል",
        -9.484195383220799
      ],
      [
        "▁ተማሪ",
        -9.484241696201178
      ],
      [
        "▁ያስቆ",
        -9.484397831347524
      ],
      [
        "▁ይሄ",
        -9.484531654460973
      ],
      [
        "▁ሳንቲ",
        -9.484551942793447
      ],
      [
        "▁ያደረጉ",
        -9.484615197033394
      ],
      [
        "ወስደ",
        -9.484675128927089
      ],
      [
        "▁አድራ",
        -9.484823288896814
      ],
      [
        "▁ፈቃደኝነ",
        -9.484834216456997
      ],
      [
        "▁ፓርክ",
        -9.485108024052579
      ],
      [
        "ሬገን",
        -9.485271576392108
      ],
      [
        "▁ታማሚ",
        -9.485639887843384
      ],
      [
        "▁እንደያዘ",
        -9.485950258030487
      ],
      [
        "▁ዝግጅቱ",
        -9.486234626786192
      ],
      [
        "ነፍ",
        -9.486322015321857
      ],
      [
        "▁የተጠበቀ",
        -9.486348222311326
      ],
      [
        "▁አይኑ",
        -9.486814053601934
      ],
      [
        "▁የመሳሰሉ",
        -9.486862775691364
      ],
      [
        "▁የሚደረ",
        -9.48689702437095
      ],
      [
        "▁ጫማ",
        -9.487062156052467
      ],
      [
        "ባዮ",
        -9.487260261744298
      ],
      [
        "▁በዓ",
        -9.487368011730105
      ],
      [
        "▁የሕዝ",
        -9.487401526878585
      ],
      [
        "▁ጠቅላላ",
        -9.487633502044162
      ],
      [
        "▁ግቢ",
        -9.487708479044285
      ],
      [
        "ፅሁፍ",
        -9.487724697849961
      ],
      [
        "ግሪ",
        -9.48784967732733
      ],
      [
        "▁ዊኬ",
        -9.488033235302396
      ],
      [
        "▁ሪድ",
        -9.488074054365308
      ],
      [
        "ግሪክ",
        -9.488164393674673
      ],
      [
        "በባ",
        -9.488298792480167
      ],
      [
        "▁የጦር",
        -9.488309369671683
      ],
      [
        "400",
        -9.488392406921086
      ],
      [
        "▁የቻይና",
        -9.488450687834916
      ],
      [
        "▁የሚጠራው",
        -9.488466803877326
      ],
      [
        "▁የሮማ",
        -9.488526874452559
      ],
      [
        "ብዎት",
        -9.488565698810694
      ],
      [
        "ከባ",
        -9.48911767336758
      ],
      [
        "▁የሚያጠቃ",
        -9.489174525795494
      ],
      [
        "ህጋዊ",
        -9.489343162825167
      ],
      [
        "ልተሳካ",
        -9.489705407722068
      ],
      [
        "ጥሩ",
        -9.489851061786988
      ],
      [
        "▁ህዋ",
        -9.489872341913124
      ],
      [
        "▁ልምድ",
        -9.489897047775678
      ],
      [
        "▁ተቋ",
        -9.489900172693531
      ],
      [
        "▁በሚያስ",
        -9.489929023140846
      ],
      [
        "▁ይሰጣ",
        -9.48994257206058
      ],
      [
        "▁ደመ",
        -9.490203188132678
      ],
      [
        "ል፡",
        -9.49032022469257
      ],
      [
        "ስትሪያ",
        -9.490322181167677
      ],
      [
        "▁ለጀ",
        -9.490522114210272
      ],
      [
        "▁ጉድ",
        -9.490967669136515
      ],
      [
        "ንጎሮ",
        -9.491055355227566
      ],
      [
        "ጋለች",
        -9.49114834313352
      ],
      [
        "▁ታጋ",
        -9.49178664103689
      ],
      [
        "▁ነበረች",
        -9.491835898063062
      ],
      [
        "▁ቤተሰቦ",
        -9.49198059064957
      ],
      [
        "▁ተወካዮች",
        -9.49212475895174
      ],
      [
        "ያትር",
        -9.49221204967367
      ],
      [
        "▁ያስፈልጋ",
        -9.492324902717982
      ],
      [
        "ሸፍን",
        -9.49250453006174
      ],
      [
        "▁ሴኔ",
        -9.492529726852938
      ],
      [
        "ስር",
        -9.492901551781225
      ],
      [
        "▁እየለ",
        -9.492978903154535
      ],
      [
        "▁ሊፈ",
        -9.493085341258674
      ],
      [
        "▁ይገኙ",
        -9.493415046478203
      ],
      [
        "ችው",
        -9.493518427957337
      ],
      [
        "▁ፓራ",
        -9.493571762162485
      ],
      [
        "34",
        -9.49366747489736
      ],
      [
        "ሸንፋ",
        -9.493873525552244
      ],
      [
        "▁ቀዳ",
        -9.494237033923909
      ],
      [
        "ብርሃ",
        -9.494303084136929
      ],
      [
        "▁ማሳለ",
        -9.49438060647796
      ],
      [
        "ኪንግስ",
        -9.494580676650813
      ],
      [
        "▁ሜዳ",
        -9.494710477032703
      ],
      [
        "ልዩ",
        -9.49490679243226
      ],
      [
        "▁ህጎ",
        -9.495686478186204
      ],
      [
        "▁ምርመራዎ",
        -9.495943584347764
      ],
      [
        "ታይ",
        -9.495945120223572
      ],
      [
        "ፊክ",
        -9.496255982944332
      ],
      [
        "▁በተደ",
        -9.496278267119141
      ],
      [
        "በረታ",
        -9.496435701608828
      ],
      [
        "▁የምሽቱ",
        -9.496747101256643
      ],
      [
        "ፈግ",
        -9.497281852470138
      ],
      [
        "ጀል",
        -9.497339781777526
      ],
      [
        "▁ፍሰት",
        -9.49735222655542
      ],
      [
        "ታንዛ",
        -9.497452183013355
      ],
      [
        "ማለት",
        -9.497469031062474
      ],
      [
        "▁ከተራራ",
        -9.497494442287358
      ],
      [
        "▁በህ",
        -9.497813287117268
      ],
      [
        "▁ፊንላ",
        -9.497886908060023
      ],
      [
        "ill",
        -9.497890852869766
      ],
      [
        "▁(ከ",
        -9.49790473882151
      ],
      [
        "▁በኮ",
        -9.498485046694551
      ],
      [
        "▁ተገል",
        -9.498485471547816
      ],
      [
        "(C",
        -9.498678769432004
      ],
      [
        "▁የምርጫ",
        -9.498801871700621
      ],
      [
        "▁የዩ.ኤስ",
        -9.49895621049238
      ],
      [
        "▁የተረጋጋ",
        -9.499574191126674
      ],
      [
        "ፋሎ",
        -9.500151367522484
      ],
      [
        "▁በአንፃ",
        -9.500303315836941
      ],
      [
        "32",
        -9.500903419085011
      ],
      [
        "▁አሌክ",
        -9.50114243308602
      ],
      [
        "▁እህቶ",
        -9.501178793921886
      ],
      [
        "▁ያደረገ",
        -9.501466283224094
      ],
      [
        "ሰርጎ",
        -9.501887148414987
      ],
      [
        "እንጨ",
        -9.501890565745887
      ],
      [
        "▁መድረክ",
        -9.502001693326115
      ],
      [
        "▁ምርጫዎች",
        -9.502576231958969
      ],
      [
        "▁ዕ",
        -9.502701842855585
      ],
      [
        "ዶጋ",
        -9.502839365006334
      ],
      [
        "ግግር",
        -9.503282992430774
      ],
      [
        "ያቋር",
        -9.503441694681968
      ],
      [
        "▁ከመያዝ",
        -9.503486766110539
      ],
      [
        "ጠንቀ",
        -9.503590005150524
      ],
      [
        "▁የሆነውን",
        -9.503692979761947
      ],
      [
        "ዓ",
        -9.503788207111686
      ],
      [
        "ረዱ",
        -9.503793605965397
      ],
      [
        "▁የተጣ",
        -9.503865183378748
      ],
      [
        "▁ጂን",
        -9.504452005680745
      ],
      [
        "▁ምስል",
        -9.5044924235518
      ],
      [
        "ታማ",
        -9.505158681259442
      ],
      [
        "▁ይታያ",
        -9.50537146775102
      ],
      [
        "▁በዓላ",
        -9.50617488988832
      ],
      [
        "ቪያ",
        -9.506392139045543
      ],
      [
        "▁ስሎ",
        -9.506402570406575
      ],
      [
        "ቀጥላ",
        -9.506562039494758
      ],
      [
        "▁እለት",
        -9.507251173159915
      ],
      [
        "ኮርድ",
        -9.50748146841173
      ],
      [
        "▁የምክ",
        -9.507650851427128
      ],
      [
        "ናዊው",
        -9.507806289311826
      ],
      [
        "1.",
        -9.508819179759792
      ],
      [
        "ስታር",
        -9.509263429106424
      ],
      [
        "▁ባክ",
        -9.50979575841995
      ],
      [
        "መራጩ",
        -9.509874483434302
      ],
      [
        "ja",
        -9.510704962022102
      ],
      [
        "▁ከወደ",
        -9.510810988576033
      ],
      [
        "▁ሩ",
        -9.511051831152333
      ],
      [
        "ፆች",
        -9.51108209283761
      ],
      [
        "▁ሂደት",
        -9.512308329190706
      ],
      [
        "ገባው",
        -9.51277287621385
      ],
      [
        "▁ለመቀ",
        -9.51298728932163
      ],
      [
        "▁ብላ",
        -9.513005388148333
      ],
      [
        "▁መመለስ",
        -9.513540299295567
      ],
      [
        "▁ተፈጥሮ",
        -9.513613189703976
      ],
      [
        "ቁር",
        -9.513676788572923
      ],
      [
        "▁ወይ",
        -9.513708035412845
      ],
      [
        "▁S",
        -9.51391718854828
      ],
      [
        "▁የቼ",
        -9.514023324292609
      ],
      [
        "ይስ",
        -9.514199467523056
      ],
      [
        "owe",
        -9.514327941099868
      ],
      [
        "▁ስብስብ",
        -9.514397907557047
      ],
      [
        "▁መንዳት",
        -9.514464587976752
      ],
      [
        "▁የሚፈ",
        -9.514605213245071
      ],
      [
        "ማሪ",
        -9.514809403535665
      ],
      [
        "▁በተሻለ",
        -9.514823173186207
      ],
      [
        "▁ኣ",
        -9.515314939877273
      ],
      [
        "▁¥",
        -9.515314939877278
      ],
      [
        "▁ሆኗ",
        -9.515988268692633
      ],
      [
        "ችሉም",
        -9.516154263164877
      ],
      [
        "ፉት",
        -9.516385773613408
      ],
      [
        "▁ዕቅ",
        -9.516393824698289
      ],
      [
        "▁ትላል",
        -9.516531281584985
      ],
      [
        "▁እንደማይ",
        -9.516620609671643
      ],
      [
        "መመ",
        -9.516627241754811
      ],
      [
        "▁ብሏል",
        -9.517019545959178
      ],
      [
        "ርጅ",
        -9.517579392104976
      ],
      [
        "▁ራግቢ",
        -9.518138216236672
      ],
      [
        "▁Pa",
        -9.518298806689675
      ],
      [
        "▁ሙከራ",
        -9.518802426808577
      ],
      [
        "▁ባልቲክ",
        -9.518819552015298
      ],
      [
        "▁ጋብቻ",
        -9.518841881293188
      ],
      [
        "▁ሸለቆ",
        -9.51894235406145
      ],
      [
        "ዘፈ",
        -9.519075334627244
      ],
      [
        "▁ትኩረት",
        -9.519087988437587
      ],
      [
        "▁በወጣ",
        -9.519196216666286
      ],
      [
        "ሳካ",
        -9.51920733778624
      ],
      [
        "▁በR",
        -9.519401633749576
      ],
      [
        "▁ቴሌቪዥ",
        -9.51941338921166
      ],
      [
        "▁ሥርዓት",
        -9.519484574367752
      ],
      [
        "▁ማር",
        -9.519506841512673
      ],
      [
        "ሳሌ",
        -9.519531203691281
      ],
      [
        "▁በፓርላማ",
        -9.520065288854502
      ],
      [
        "▁ከ8",
        -9.520229795141049
      ],
      [
        "▁ፍራን",
        -9.520390242698591
      ],
      [
        "▁ደርዘ",
        -9.520426396454946
      ],
      [
        "በቅ",
        -9.520893643031986
      ],
      [
        "ፖሎ",
        -9.521041994526916
      ],
      [
        "ጠቅላ",
        -9.52120909453335
      ],
      [
        "▁አርኪ",
        -9.521302427366875
      ],
      [
        "▁አንደኛ",
        -9.521483848387867
      ],
      [
        "▁የመሸ",
        -9.52168215340665
      ],
      [
        "ተቀላቀለ",
        -9.522103852757999
      ],
      [
        "▁እንደምት",
        -9.522242423033706
      ],
      [
        "ጎበኙ",
        -9.523019158063619
      ],
      [
        "ስፔ",
        -9.523034626634939
      ],
      [
        "▁የጸ",
        -9.523330824333966
      ],
      [
        "ንዬ",
        -9.523482119059661
      ],
      [
        "▁በ198",
        -9.523643052575702
      ],
      [
        "ተከፋ",
        -9.523725028185249
      ],
      [
        "▁በሂ",
        -9.524318730514825
      ],
      [
        "ተካ",
        -9.524773980265731
      ],
      [
        "▁ሪፐብሊካ",
        -9.52489572801243
      ],
      [
        "ቅዱ",
        -9.525014772942528
      ],
      [
        "▁የማስ",
        -9.525177747497688
      ],
      [
        "▁መረዳ",
        -9.525402565563766
      ],
      [
        "ጽደ",
        -9.525628131535468
      ],
      [
        "የተመለሱ",
        -9.52563746735713
      ],
      [
        "▁ዲዩ",
        -9.526008446751238
      ],
      [
        "▁ዊን",
        -9.526306660742433
      ],
      [
        "▁ክርክ",
        -9.526314724887444
      ],
      [
        "▁የመጣ",
        -9.526319619601017
      ],
      [
        "▁እንዳል",
        -9.526343361830532
      ],
      [
        "ቅድ",
        -9.527221687127241
      ],
      [
        "ጀልባዎች",
        -9.527264834779517
      ],
      [
        "v",
        -9.527940450522344
      ],
      [
        "ቂዎች",
        -9.527988088548762
      ],
      [
        "ጫዎች",
        -9.528267581275161
      ],
      [
        "▁እን",
        -9.528340125354147
      ],
      [
        "ሚጓዙ",
        -9.528363413138894
      ],
      [
        "▁ከተማዋን",
        -9.528746806953007
      ],
      [
        "▁ከአለ",
        -9.529317641000924
      ],
      [
        "▁አሸ",
        -9.530518475227307
      ],
      [
        "እርግ",
        -9.530533071228168
      ],
      [
        "ኖቹ",
        -9.530821996325674
      ],
      [
        "ደግ",
        -9.532074687971404
      ],
      [
        "▁ዓይነቱ",
        -9.532313018627502
      ],
      [
        "▁አቅር",
        -9.532419242385433
      ],
      [
        "▁ትናንት",
        -9.53246826403208
      ],
      [
        "ሲን",
        -9.532841965680108
      ],
      [
        "ንብቷ",
        -9.532992163054766
      ],
      [
        "▁የፖ",
        -9.53469449123628
      ],
      [
        "ደራጀ",
        -9.534841417858186
      ],
      [
        "ኮኖ",
        -9.536261871096858
      ],
      [
        "ቴክ",
        -9.536758558571213
      ],
      [
        "ፋሉ",
        -9.537174789728505
      ],
      [
        "▁ሃር",
        -9.537910692070266
      ],
      [
        "ዘመኑ",
        -9.537973447854139
      ],
      [
        "2000",
        -9.537987549755115
      ],
      [
        "ያል",
        -9.53834293232913
      ],
      [
        "ጠቅሷ",
        -9.538358377931603
      ],
      [
        "▁ፓስ",
        -9.538414249791954
      ],
      [
        "▁ቁል",
        -9.539030492620261
      ],
      [
        "▁ሲደ",
        -9.539088442727735
      ],
      [
        "▁አግ",
        -9.53977341221538
      ],
      [
        "▁ኢዋ",
        -9.540393216704068
      ],
      [
        "▁ሊሰ",
        -9.540528765760897
      ],
      [
        "▁የወቅ",
        -9.541301764973772
      ],
      [
        "▁ከጣሊያ",
        -9.54157313082672
      ],
      [
        "ag",
        -9.542529186550793
      ],
      [
        "▁የገቡ",
        -9.542891876420079
      ],
      [
        "ፍሬ",
        -9.543167879100917
      ],
      [
        "▁ድል",
        -9.544129104557324
      ],
      [
        "▁የጃፓን",
        -9.544318515385593
      ],
      [
        "ተወሰኑ",
        -9.544348319611457
      ],
      [
        "5-",
        -9.544903247449902
      ],
      [
        "▁ትኬ",
        -9.54552134284799
      ],
      [
        "▁ምሽቱ",
        -9.546736298100777
      ],
      [
        "▁ብራ",
        -9.547386405733477
      ],
      [
        "▁ድጋ",
        -9.547408041574487
      ],
      [
        "▁የሳን",
        -9.54770479047963
      ],
      [
        "▁ተባ",
        -9.547940257442853
      ],
      [
        "▁ይዛ",
        -9.548297493371441
      ],
      [
        "▁ወጪዎ",
        -9.5483975463407
      ],
      [
        "ሀገሪ",
        -9.549673211825937
      ],
      [
        "▁እንዲታ",
        -9.549732039431897
      ],
      [
        "▁ለማስቆ",
        -9.550227406037907
      ],
      [
        "መለሳ",
        -9.550466805983755
      ],
      [
        "▁የዛሬ",
        -9.551558122320158
      ],
      [
        "▁መስመ",
        -9.552137570435868
      ],
      [
        "▁ስታር",
        -9.552234215201965
      ],
      [
        "▁በሕክምና",
        -9.55229377068433
      ],
      [
        "▁ያስገ",
        -9.55270040881566
      ],
      [
        "▁ለመለ",
        -9.553621376130218
      ],
      [
        "ባዮች",
        -9.555149229904028
      ],
      [
        "▁ወዳለ",
        -9.55571989840663
      ],
      [
        "ምፒ",
        -9.556461562057853
      ],
      [
        "ህገ",
        -9.556553449694485
      ],
      [
        "ቆቹ",
        -9.556927692323676
      ],
      [
        "▁የጌ",
        -9.557038646620512
      ],
      [
        "▁ፊ",
        -9.557040193822006
      ],
      [
        "የቀ",
        -9.557073230843898
      ],
      [
        "ርሞ",
        -9.558705659087321
      ],
      [
        "ሳለ",
        -9.559964574507868
      ],
      [
        "▁ዴል",
        -9.560122507820871
      ],
      [
        "▁ልማ",
        -9.563637801201752
      ],
      [
        "▁ኩር",
        -9.566108858903643
      ],
      [
        "▁ኢም",
        -9.566538807838137
      ],
      [
        "ክተ",
        -9.566632382803999
      ],
      [
        "ተጀመረው",
        -9.567124525693227
      ],
      [
        "ማየት",
        -9.56758577001663
      ],
      [
        "▁ወቅቶች",
        -9.568401849804179
      ],
      [
        "▁መዝናኛ",
        -9.570845673640209
      ],
      [
        "ምፕ",
        -9.572056794030061
      ],
      [
        "▁በሚሰ",
        -9.572427530705461
      ],
      [
        "ሳዊ",
        -9.572527309910265
      ],
      [
        "▁የሁ",
        -9.572700892157098
      ],
      [
        "ist",
        -9.572717120265718
      ],
      [
        "▁ዐ",
        -9.572834608150218
      ],
      [
        "ጀት",
        -9.573027583817758
      ],
      [
        "▁እድሜ",
        -9.57350271423389
      ],
      [
        "▁አፍጋ",
        -9.573821731264688
      ],
      [
        "▁(በ",
        -9.5743355354127
      ],
      [
        "ንቅ",
        -9.574448019185622
      ],
      [
        "as",
        -9.574885459856278
      ],
      [
        "ክሊ",
        -9.575233708570726
      ],
      [
        "▁መልክ",
        -9.575489728641797
      ],
      [
        "▁መንግስቱ",
        -9.577428473283957
      ],
      [
        "▁የሺ",
        -9.57754011796216
      ],
      [
        "ተነገ",
        -9.578674413620533
      ],
      [
        "▁አቅርቦ",
        -9.57901646403587
      ],
      [
        "ሰውነት",
        -9.579138965819507
      ],
      [
        "ወረዳ",
        -9.579558135459163
      ],
      [
        "ቀው",
        -9.579890670702046
      ],
      [
        "▁ኦሊ",
        -9.58017407668837
      ],
      [
        "▁የሚያጠ",
        -9.580524164406537
      ],
      [
        "▁ዜና",
        -9.581720628006567
      ],
      [
        "▁የቤት",
        -9.58206027442979
      ],
      [
        "ኒክ",
        -9.582135049394845
      ],
      [
        "▁ህግ",
        -9.583575157575732
      ],
      [
        "ክሮ",
        -9.584029070581591
      ],
      [
        "ክሬ",
        -9.584599484518936
      ],
      [
        "ፕሬዚዳንት",
        -9.585699814362343
      ],
      [
        "ይን",
        -9.587111484464776
      ],
      [
        "▁ጀልባ",
        -9.587598475464938
      ],
      [
        "ሚመጡ",
        -9.588703632996609
      ],
      [
        "▁ሻን",
        -9.58933021416552
      ],
      [
        "▁ያሰ",
        -9.590018339648797
      ],
      [
        "▁ሆነ",
        -9.590592953727764
      ],
      [
        "ሰማቸው",
        -9.590689392290775
      ],
      [
        "ሳፊ",
        -9.591360510200804
      ],
      [
        "▁ሊደ",
        -9.591856761828614
      ],
      [
        "rang",
        -9.592252229556278
      ],
      [
        "ፍራ",
        -9.594813461796061
      ],
      [
        "ተረጋገጡ",
        -9.595345120482508
      ],
      [
        "ፍት",
        -9.59564572294748
      ],
      [
        "▁ቢኖ",
        -9.596492877441227
      ],
      [
        "▁ብዙዎ",
        -9.597545174730449
      ],
      [
        "▁10",
        -9.597783754351813
      ],
      [
        "▁ኢራ",
        -9.599459683965627
      ],
      [
        "▁መጋ",
        -9.599710547003951
      ],
      [
        "▁ሎ",
        -9.600026858404506
      ],
      [
        "▁የተጋ",
        -9.601196064468226
      ],
      [
        "▁ጎር",
        -9.602051606585624
      ],
      [
        "ta",
        -9.602079180210412
      ],
      [
        "▁የጎ",
        -9.603722585174463
      ],
      [
        "▁የከተማዋ",
        -9.604263023081744
      ],
      [
        "ልጋ",
        -9.604482591854511
      ],
      [
        "▁ሹ",
        -9.606544385475823
      ],
      [
        "▁የአስ",
        -9.607426208437369
      ],
      [
        "ድም",
        -9.607955677447903
      ],
      [
        "▁በኮን",
        -9.60934430731643
      ],
      [
        "m",
        -9.609410317493785
      ],
      [
        "ድንገ",
        -9.609761144429108
      ],
      [
        "▁ስኮ",
        -9.613573374697914
      ],
      [
        "▁ይቻላል",
        -9.613868946177755
      ],
      [
        "▁ኬን",
        -9.613918324380926
      ],
      [
        "ያልፉ",
        -9.61573770273361
      ],
      [
        "▁ይጫወታል",
        -9.616282801521827
      ],
      [
        "▁ይጠይቃል",
        -9.616307195918584
      ],
      [
        "▁ደር",
        -9.616441635936495
      ],
      [
        "▁ይለያያል",
        -9.617473395899786
      ],
      [
        "ማሳ",
        -9.618138818946857
      ],
      [
        "▁በላ",
        -9.620300140248139
      ],
      [
        "ፊሊ",
        -9.62040463552313
      ],
      [
        "▁ተዳ",
        -9.620472786696563
      ],
      [
        "▁የቱ",
        -9.62188601907847
      ],
      [
        "▁ስብ",
        -9.621998264905452
      ],
      [
        "ልዶ",
        -9.62211388884221
      ],
      [
        "▁60",
        -9.622139316086312
      ],
      [
        "▁ይፈ",
        -9.622349663796882
      ],
      [
        "▁ቦር",
        -9.623585315279577
      ],
      [
        "ነሱ",
        -9.623933768360567
      ],
      [
        "ስከተለ",
        -9.624543931866457
      ],
      [
        "ይጠብቁ",
        -9.624681127067038
      ],
      [
        "ይቆ",
        -9.625050824112119
      ],
      [
        "▁የፍ",
        -9.625553699272198
      ],
      [
        "ያደርግ",
        -9.626499282525192
      ],
      [
        "▁በነፃ",
        -9.633583563839311
      ],
      [
        "ሜትሮ",
        -9.634679875623283
      ],
      [
        "ጉላ",
        -9.63473612225025
      ],
      [
        "▁ካናዳ",
        -9.635126244217362
      ],
      [
        "▁ብራዚ",
        -9.635159274480744
      ],
      [
        "▁ከጠ",
        -9.636500660872409
      ],
      [
        "ቤይ",
        -9.63723856638191
      ],
      [
        "▁የሚወ",
        -9.638791533117445
      ],
      [
        "▁ጽሑ",
        -9.639852551454421
      ],
      [
        "▁ሜ",
        -9.641375840352026
      ],
      [
        "▁ይቆ",
        -9.64143072177588
      ],
      [
        "ጠራል",
        -9.64179148305123
      ],
      [
        "▁ይጠ",
        -9.642092075673366
      ],
      [
        "▁ድባ",
        -9.645388912129599
      ],
      [
        "▁አዋ",
        -9.646544504772805
      ],
      [
        "▁በቀስ",
        -9.646563669599896
      ],
      [
        "ለቅ",
        -9.647123169890286
      ],
      [
        "▁ረዳ",
        -9.64766236713306
      ],
      [
        "ነዋ",
        -9.648794402840602
      ],
      [
        "▁ሱ",
        -9.649758428425855
      ],
      [
        "ሸር",
        -9.65124265248183
      ],
      [
        "▁የሂደ",
        -9.651449242143686
      ],
      [
        "▁ለመፈ",
        -9.651836528447033
      ],
      [
        "▁የመቅ",
        -9.652324870389851
      ],
      [
        "ሚር",
        -9.65262352143567
      ],
      [
        "▁ከረ",
        -9.653919145114452
      ],
      [
        "ፔሪ",
        -9.655862289952083
      ],
      [
        "ገ-",
        -9.656418235165699
      ],
      [
        "▁ቁር",
        -9.656617355671205
      ],
      [
        "▁ከካ",
        -9.656869455562127
      ],
      [
        "ይተዋ",
        -9.6584559176375
      ],
      [
        "▁ቬ",
        -9.660921377155756
      ],
      [
        "ብራሪ",
        -9.661178972858545
      ],
      [
        "ነበረበት",
        -9.663067590863355
      ],
      [
        "ካዩ",
        -9.664145914913298
      ],
      [
        "4-1",
        -9.664393814862555
      ],
      [
        "ቼም",
        -9.66524128873756
      ],
      [
        "▁ከ11",
        -9.665979127826278
      ],
      [
        "▁መራ",
        -9.66701809353954
      ],
      [
        "ደካ",
        -9.668148066831453
      ],
      [
        "▁እንደሚች",
        -9.668789903173977
      ],
      [
        "ሳት",
        -9.669398581228116
      ],
      [
        "▁ወድ",
        -9.669665732964557
      ],
      [
        "ፖርት",
        -9.671108519125767
      ],
      [
        "ክቶ",
        -9.671218291342559
      ],
      [
        "▁ይታ",
        -9.673999197492371
      ],
      [
        "▁አውስትራሊያ",
        -9.675908055240269
      ],
      [
        "▁ልዩነ",
        -9.676199904215002
      ],
      [
        "▁ውጥ",
        -9.67700617015623
      ],
      [
        "ስኪ",
        -9.678179583990493
      ],
      [
        "▁መሰረ",
        -9.67843041086818
      ],
      [
        "▁የላቸው",
        -9.678889396946902
      ],
      [
        "▁P",
        -9.679346347803067
      ],
      [
        "ዳም",
        -9.680256629210222
      ],
      [
        "ከብ",
        -9.683032385642667
      ],
      [
        "ብቁ",
        -9.684057879485191
      ],
      [
        "▁Co",
        -9.684086004871933
      ],
      [
        "3,",
        -9.684381712222091
      ],
      [
        "ሚለው",
        -9.684430479060344
      ],
      [
        "ሚኖሩ",
        -9.689164628211595
      ],
      [
        "▁ስም",
        -9.690304845175135
      ],
      [
        "ያውቅ",
        -9.69071902183481
      ],
      [
        "▁ዩ",
        -9.691046242977523
      ],
      [
        "ገኙ",
        -9.691178703741173
      ],
      [
        "▁B",
        -9.691812016027118
      ],
      [
        "ድረ",
        -9.692127720030582
      ],
      [
        "nter",
        -9.692841920823266
      ],
      [
        "ሉን",
        -9.694253214342396
      ],
      [
        "▁ትም",
        -9.694532898107548
      ],
      [
        "▁ዳርቻው",
        -9.694688236636878
      ],
      [
        "▁ለብ",
        -9.694997716316248
      ],
      [
        "▁ልም",
        -9.695022791192955
      ],
      [
        "ከትል",
        -9.69514437033907
      ],
      [
        "ሳሽ",
        -9.695182434114376
      ],
      [
        "▁197",
        -9.696510696004463
      ],
      [
        "ሚነሱ",
        -9.69805040637553
      ],
      [
        "▁እንደተ",
        -9.698292004039649
      ],
      [
        "▁ሄ",
        -9.699706542303625
      ],
      [
        "ይችሉ",
        -9.70021225569462
      ],
      [
        "ቻል",
        -9.70048794575626
      ],
      [
        "▁አክ",
        -9.704074797472805
      ],
      [
        "ተነሱ",
        -9.704310326362227
      ],
      [
        "▁Su",
        -9.704726381170152
      ],
      [
        "ተሰብ",
        -9.705132993959541
      ],
      [
        "▁አጥ",
        -9.708598834412928
      ],
      [
        "ይሄዱ",
        -9.70969914607278
      ],
      [
        "ሳተ",
        -9.71064427480014
      ],
      [
        "ርዕ",
        -9.711621743848244
      ],
      [
        "▁ብለ",
        -9.713452012360237
      ],
      [
        "▁ጣቢያዎ",
        -9.714283854887237
      ],
      [
        "▁በከ",
        -9.715192449209392
      ],
      [
        "▁በቢ",
        -9.7160496338068
      ],
      [
        "ውጫ",
        -9.716627309207512
      ],
      [
        "▁ጉዞው",
        -9.718370323942333
      ],
      [
        "ሎም",
        -9.720440747224766
      ],
      [
        "ስቶች",
        -9.721452276331707
      ],
      [
        "ድሪ",
        -9.721456393721185
      ],
      [
        "ber",
        -9.722837164607032
      ],
      [
        "▁ስልጣ",
        -9.72457191662779
      ],
      [
        "▁ጠቅ",
        -9.724625215392177
      ],
      [
        "ኬቶች",
        -9.7251093207695
      ],
      [
        "ባር",
        -9.726606916299977
      ],
      [
        "▁አይች",
        -9.727479392285101
      ],
      [
        "ንሰር",
        -9.728006884551471
      ],
      [
        "1,",
        -9.729055028019886
      ],
      [
        "▁አያ",
        -9.731514844623664
      ],
      [
        "ይገባ",
        -9.733389239942905
      ],
      [
        "▁ወደብ",
        -9.735522061218147
      ],
      [
        "ሰራጨ",
        -9.736569631597634
      ],
      [
        "ሴት",
        -9.739266959168017
      ],
      [
        "ዲያ",
        -9.745499248955479
      ],
      [
        "ታዎች",
        -9.74708627678594
      ],
      [
        "ስማ",
        -9.74850343903108
      ],
      [
        "▁አስተያየ",
        -9.748661437283253
      ],
      [
        "ምብ",
        -9.749063078875064
      ],
      [
        "▁የቢ",
        -9.749981830813596
      ],
      [
        "ካሄዱ",
        -9.750375485684781
      ],
      [
        "▁ፒ",
        -9.751367116318438
      ],
      [
        "ሷል",
        -9.752327079086395
      ],
      [
        "ድሩ",
        -9.752413342611158
      ],
      [
        "ito",
        -9.75472539859054
      ],
      [
        "ቃዊ",
        -9.755999489806953
      ],
      [
        "▁ጠመ",
        -9.756231845932083
      ],
      [
        "መጫወ",
        -9.756560671761235
      ],
      [
        "▁N",
        -9.757830824385366
      ],
      [
        "ምድ",
        -9.75916398930184
      ],
      [
        "ተዋ",
        -9.760458177383798
      ],
      [
        "ተወያ",
        -9.76406823981092
      ],
      [
        "91",
        -9.764743849765276
      ],
      [
        "ሜኒያ",
        -9.764988017508545
      ],
      [
        "▁ሞት",
        -9.765772723469889
      ],
      [
        "▁በቤተ",
        -9.768781166036309
      ],
      [
        "▁የኢን",
        -9.771593862820769
      ],
      [
        "ፈት",
        -9.773080142857141
      ],
      [
        "▁አማ",
        -9.774382304268938
      ],
      [
        "▁ይቆጠ",
        -9.776723720028016
      ],
      [
        "▁ይደረ",
        -9.77785233587598
      ],
      [
        "ሚለይ",
        -9.781569066564668
      ],
      [
        "▁ደስ",
        -9.781916885129338
      ],
      [
        "ያስ",
        -9.784675643088903
      ],
      [
        "▁ይካሄዳል",
        -9.787875354356657
      ],
      [
        "▁ግንባ",
        -9.789346191077827
      ],
      [
        "▁ተወዳዳሪዎ",
        -9.789618152374334
      ],
      [
        "▁ሊያበ",
        -9.791009781532875
      ],
      [
        "ሞክ",
        -9.791071836428575
      ],
      [
        "▁ህል",
        -9.791556436084049
      ],
      [
        "▁ቆን",
        -9.791751991945622
      ],
      [
        "▁ጋ",
        -9.79788761018254
      ],
      [
        "ሎን",
        -9.803949932092213
      ],
      [
        "em",
        -9.805403788944558
      ],
      [
        "ለፉት",
        -9.808256838291298
      ],
      [
        "▁አንስተ",
        -9.80939192969928
      ],
      [
        "▁እብ",
        -9.810033880683243
      ],
      [
        "▁ሌ",
        -9.812737955483968
      ],
      [
        "አልባ",
        -9.815143977465898
      ],
      [
        "ኮር",
        -9.819173932481092
      ],
      [
        "g",
        -9.821150537626359
      ],
      [
        "▁የሚሆ",
        -9.822579665733274
      ],
      [
        "▁ከጉዞ",
        -9.8231442573708
      ],
      [
        "መኑ",
        -9.824269042763538
      ],
      [
        "ዊድ",
        -9.82508376724741
      ],
      [
        "ናዎች",
        -9.82600554347726
      ],
      [
        "ከሰቱ",
        -9.826597932976476
      ],
      [
        "ተከታ",
        -9.829123619373062
      ],
      [
        "ክም",
        -9.831001202859245
      ],
      [
        "ማቸው",
        -9.833197382934909
      ],
      [
        "ፈለግ",
        -9.835462294244563
      ],
      [
        "▁ሊያጠ",
        -9.836518963164416
      ],
      [
        "ጠረ",
        -9.842456420800284
      ],
      [
        "ሉ፡",
        -9.843648454026692
      ],
      [
        "▁በቀጠ",
        -9.84461568556423
      ],
      [
        "ማው",
        -9.844973963676189
      ],
      [
        "ተቀ",
        -9.848643668339166
      ],
      [
        "የኮሪያ",
        -9.851051134743026
      ],
      [
        "ዋል፣",
        -9.853163630503149
      ],
      [
        "ሮና",
        -9.855998129469201
      ],
      [
        "▁Ma",
        -9.856046373515102
      ],
      [
        "ሹ",
        -9.859763053804684
      ],
      [
        "ማዎች",
        -9.859797249650544
      ],
      [
        "▁አንዳ",
        -9.859962645412654
      ],
      [
        "ስፋ",
        -9.860935060066222
      ],
      [
        "▁ይስ",
        -9.863435991389453
      ],
      [
        "▁ከሁለተኛ",
        -9.865243022844014
      ],
      [
        "ጠላ",
        -9.865779867406768
      ],
      [
        "ሽያ",
        -9.867522460591248
      ],
      [
        "▁መሳ",
        -9.871104818953656
      ],
      [
        "▁አራ",
        -9.873845680799928
      ],
      [
        "▁የተያያ",
        -9.875860448295214
      ],
      [
        "ሁለቱ",
        -9.8773749680496
      ],
      [
        "መረመ",
        -9.877917125311079
      ],
      [
        "▁ስኬ",
        -9.878879838814122
      ],
      [
        "ህር",
        -9.879451632444844
      ],
      [
        "ተፃ",
        -9.881770002315102
      ],
      [
        "ስያ",
        -9.881990618482899
      ],
      [
        "▁ሰባ",
        -9.882234675304657
      ],
      [
        "▁በስል",
        -9.887421400570606
      ],
      [
        "ግብ",
        -9.888554492157201
      ],
      [
        "rt",
        -9.888832930341355
      ],
      [
        "ቀሩ",
        -9.888877594402597
      ],
      [
        "▁ያቀርባል",
        -9.890509051594705
      ],
      [
        "▁ዌ",
        -9.891099467424842
      ],
      [
        "ቆመ",
        -9.891562298215053
      ],
      [
        "▁መፈለ",
        -9.894320053941586
      ],
      [
        "አንጎ",
        -9.895199741134116
      ],
      [
        "በረው",
        -9.905099626927106
      ],
      [
        "▁የተላ",
        -9.9106546857479
      ],
      [
        "ካሚ",
        -9.913203825051209
      ],
      [
        "▁ስቲ",
        -9.917329732276068
      ],
      [
        "ፋን",
        -9.917378704735096
      ],
      [
        "ኦ",
        -9.918925267435778
      ],
      [
        "▁ሳይን",
        -9.920720532399406
      ],
      [
        "ኢንፍ",
        -9.92300341673373
      ],
      [
        "▁አብ",
        -9.924840296336331
      ],
      [
        "ሰላ",
        -9.9252075133548
      ],
      [
        "ምገ",
        -9.925408045868553
      ],
      [
        "▁ክልሎ",
        -9.927417201076091
      ],
      [
        "▁ስለሆ",
        -9.934643118295046
      ],
      [
        "▁ፊት",
        -9.939575798618339
      ],
      [
        "ላልተ",
        -9.94065398853458
      ],
      [
        "▁7",
        -9.940766830074775
      ],
      [
        "ፓል",
        -9.94114200881528
      ],
      [
        "▁ገብ",
        -9.943948896337162
      ],
      [
        "▁የሚከሰ",
        -9.944211705195658
      ],
      [
        "ደታቸው",
        -9.94592913424653
      ],
      [
        "ደረ",
        -9.946277094719854
      ],
      [
        "▁ተወዳዳሪ",
        -9.946285476186913
      ],
      [
        "▁ይካሄዳ",
        -9.946899542529048
      ],
      [
        "▁ይለ",
        -9.947473213818892
      ],
      [
        "▁ተፈ",
        -9.947496980230635
      ],
      [
        "▁በአል",
        -9.948434910983384
      ],
      [
        "ጥል",
        -9.95059454066732
      ],
      [
        "ተላለ",
        -9.950995946429419
      ],
      [
        "ፕሪን",
        -9.9515771751956
      ],
      [
        "ተለየ",
        -9.953520473350586
      ],
      [
        "▁እስ",
        -9.953716155173677
      ],
      [
        "▁የፊ",
        -9.95569961706301
      ],
      [
        "▁ከመድረ",
        -9.957309807526995
      ],
      [
        "▁የሮ",
        -9.957945306605897
      ],
      [
        "▁የተመ",
        -9.959840987495667
      ],
      [
        "ወደ",
        -9.961298593086942
      ],
      [
        "▁የቶ",
        -9.962595324738935
      ],
      [
        "▁ይሰ",
        -9.96489273463701
      ],
      [
        "መሐ",
        -9.965501478664406
      ],
      [
        "ኮሪያ",
        -9.96807553940919
      ],
      [
        "▁የሰ",
        -9.96980771798412
      ],
      [
        "ዘና",
        -9.971386039985763
      ],
      [
        "ው።",
        -9.973712214091359
      ],
      [
        "▁ጠብ",
        -9.974675740442658
      ],
      [
        "ሩም",
        -9.976073813215946
      ],
      [
        "▁እንደም",
        -9.976763132843665
      ],
      [
        "ርቶ",
        -9.97969888846028
      ],
      [
        "አርሜ",
        -9.979936953669478
      ],
      [
        "▁ቋ",
        -9.982305079799342
      ],
      [
        "ነበር",
        -9.982526859717277
      ],
      [
        "ረቀ",
        -9.98259704055334
      ],
      [
        "tos",
        -9.987694980035716
      ],
      [
        "ጫወ",
        -9.991027003349608
      ],
      [
        "ቸዋል",
        -9.99481235333174
      ],
      [
        "ይር",
        -9.999716395838108
      ],
      [
        "ቱር",
        -10.003024665042203
      ],
      [
        "ነባ",
        -10.005066691349471
      ],
      [
        "▁ስቶ",
        -10.008431793206444
      ],
      [
        "ሜት",
        -10.009062362872303
      ],
      [
        "ውሎ",
        -10.009814969959141
      ],
      [
        "ወቅ",
        -10.01323201525578
      ],
      [
        "▁ቢያ",
        -10.017829381013893
      ],
      [
        "ኤስ",
        -10.017882982891951
      ],
      [
        "▁ያካትታል",
        -10.02143806032476
      ],
      [
        "ወጡ",
        -10.022222979075943
      ],
      [
        "▁9",
        -10.024436327417806
      ],
      [
        "ስነ",
        -10.024721873339
      ],
      [
        "ቀጠና",
        -10.027060938643801
      ],
      [
        "mb",
        -10.028020880558865
      ],
      [
        "ወይም",
        -10.031650287012669
      ],
      [
        "▁በረራዎ",
        -10.032090239363635
      ],
      [
        "ራን",
        -10.03214493495221
      ],
      [
        "ግድ",
        -10.032555157707685
      ],
      [
        "▁ተጀም",
        -10.034404982562632
      ],
      [
        "ንጎ",
        -10.04012460618098
      ],
      [
        "ጁን",
        -10.042474007897075
      ],
      [
        "▁በሚሰራ",
        -10.042847781894361
      ],
      [
        "ቃላ",
        -10.042918206194509
      ],
      [
        "▁ጽ",
        -10.045036133218197
      ],
      [
        "800",
        -10.047613849393288
      ],
      [
        "ፈረ",
        -10.052285418438943
      ],
      [
        "ገሩ",
        -10.0535686932333
      ],
      [
        "ንዳ",
        -10.054315182297165
      ],
      [
        "ለመ",
        -10.06114340294022
      ],
      [
        "ስተናገ",
        -10.062165723828048
      ],
      [
        "▁አካባቢው",
        -10.062872485654955
      ],
      [
        "▁ገባ",
        -10.063871129048778
      ],
      [
        "ሆኖ",
        -10.065290397601888
      ],
      [
        "▁ቁ",
        -10.065525334291364
      ],
      [
        "ለሁ",
        -10.06937210393452
      ],
      [
        "ent",
        -10.06943975689379
      ],
      [
        "ጎድ",
        -10.073899529401647
      ],
      [
        "▁በባ",
        -10.074923981613285
      ],
      [
        "▁የካ",
        -10.074977281323743
      ],
      [
        "om",
        -10.083238611325017
      ],
      [
        "▁(1",
        -10.084741642486556
      ],
      [
        "ሬን",
        -10.08538153200003
      ],
      [
        "የው",
        -10.086676151865193
      ],
      [
        "ዛም",
        -10.089831401202918
      ],
      [
        "መዝ",
        -10.103798362531382
      ],
      [
        "ሌይ",
        -10.106049584091657
      ],
      [
        "▁ሊጎ",
        -10.108537867408796
      ],
      [
        "ለሀገ",
        -10.111770255485187
      ],
      [
        "▁መኖ",
        -10.112096987962413
      ],
      [
        "85",
        -10.113104106108334
      ],
      [
        "መጽ",
        -10.11382441262233
      ],
      [
        "▁የፕሬዝዳን",
        -10.114431058259113
      ],
      [
        "ረፉ",
        -10.11944392084972
      ],
      [
        "ያሜ",
        -10.119545737128396
      ],
      [
        "ርድ",
        -10.12031655908068
      ],
      [
        "ሰር",
        -10.120996883441224
      ],
      [
        "ምሯ",
        -10.12228707506288
      ],
      [
        "ስታ",
        -10.122371515465334
      ],
      [
        "መስ",
        -10.123315329186243
      ],
      [
        "ሻዎ",
        -10.125568124050226
      ],
      [
        "ላስ",
        -10.129759962213575
      ],
      [
        "ሉት",
        -10.13283569843766
      ],
      [
        "▁እንደሚነ",
        -10.133662564176474
      ],
      [
        "ዓላ",
        -10.13742225549057
      ],
      [
        "▁M",
        -10.139338585212974
      ],
      [
        "78",
        -10.143890251574081
      ],
      [
        "▁ለቀ",
        -10.144020349426333
      ],
      [
        "▁ዞ",
        -10.146831131179486
      ],
      [
        "ሴን",
        -10.148239144295642
      ],
      [
        "▁የማር",
        -10.148843297710641
      ],
      [
        "ደዋል",
        -10.149513664587836
      ],
      [
        "ትራን",
        -10.150041559513804
      ],
      [
        "▁(3",
        -10.152613644332693
      ],
      [
        "c",
        -10.152772662312156
      ],
      [
        "▁የሚወሰ",
        -10.157306362730885
      ],
      [
        "ዜ",
        -10.158188882200491
      ],
      [
        "▁ጥቂቶ",
        -10.164096180261511
      ],
      [
        "ይቶ",
        -10.167837969104111
      ],
      [
        "▁የተሠ",
        -10.16992504843428
      ],
      [
        "ቦታ",
        -10.17139357072072
      ],
      [
        "▁በየ",
        -10.172007412377587
      ],
      [
        "ጉዞዎ",
        -10.173206671284879
      ],
      [
        "ይወጣ",
        -10.173346435530956
      ],
      [
        "ያሳ",
        -10.17535298391314
      ],
      [
        "▁ከቤ",
        -10.177023393728222
      ],
      [
        "ጫው",
        -10.17714430154637
      ],
      [
        "ደርግ",
        -10.180067578772162
      ],
      [
        "ዲየ",
        -10.181758880557224
      ],
      [
        "▁ከኖ",
        -10.182634972906534
      ],
      [
        "ደረገ",
        -10.185203253242666
      ],
      [
        "ይዘ",
        -10.185759770609248
      ],
      [
        "▁አን",
        -10.186165561363874
      ],
      [
        "ኝቶ",
        -10.188739254467894
      ],
      [
        "▁ይጫወታ",
        -10.189268591991029
      ],
      [
        "ድጋ",
        -10.189608689813246
      ],
      [
        "ቪክ",
        -10.189766827838213
      ],
      [
        "▁ይጠይቃ",
        -10.191489164274367
      ],
      [
        "▁ይቻላ",
        -10.194369522080969
      ],
      [
        "ንን",
        -10.196142405130372
      ],
      [
        "▁202",
        -10.200153481577473
      ],
      [
        "ራማ",
        -10.20235209935398
      ],
      [
        "ለማ",
        -10.203207805948756
      ],
      [
        "ሌሎ",
        -10.214006179352475
      ],
      [
        "ከንግ",
        -10.214311323740464
      ],
      [
        "83",
        -10.214755648960267
      ],
      [
        "▁ድ",
        -10.215792632509872
      ],
      [
        "የሚ",
        -10.22217305402825
      ],
      [
        "▁ጉዳተ",
        -10.222483143671427
      ],
      [
        "ርሃ",
        -10.2240827643687
      ],
      [
        "ጨናነ",
        -10.22477241363213
      ],
      [
        "▁በእር",
        -10.224823873347713
      ],
      [
        "ቶን",
        -10.227023724675254
      ],
      [
        "▁ሙ",
        -10.22702645708461
      ],
      [
        "ልማ",
        -10.229656068891646
      ],
      [
        "ብቷ",
        -10.230618601837895
      ],
      [
        "ያሉ",
        -10.231940036737965
      ],
      [
        "ካል",
        -10.232566875297088
      ],
      [
        "ሑፉ",
        -10.232771121773531
      ],
      [
        "ማድረግ",
        -10.232970686577307
      ],
      [
        "ፊዎ",
        -10.236113139970982
      ],
      [
        "ላማ",
        -10.241578588366716
      ],
      [
        "ሠሩ",
        -10.241902186908652
      ],
      [
        "እርካ",
        -10.253177759688057
      ],
      [
        "እንደ",
        -10.254269078479771
      ],
      [
        "ሃል",
        -10.257234473631641
      ],
      [
        "▁ለፓር",
        -10.2572984270299
      ],
      [
        "ተለ",
        -10.261555978377894
      ],
      [
        "መን",
        -10.26215225687552
      ],
      [
        "▁ፕሬዝዳን",
        -10.262498636292753
      ],
      [
        "▁ስፖር",
        -10.263759191257801
      ],
      [
        "▁ጊ",
        -10.266570421135132
      ],
      [
        "ሰስ",
        -10.266824518726892
      ],
      [
        "በሉ",
        -10.268248895771682
      ],
      [
        "st",
        -10.269749863023208
      ],
      [
        "ገኘ",
        -10.269765090272337
      ],
      [
        "▁በሳ",
        -10.271956460653477
      ],
      [
        "ቃሉ",
        -10.272717144426542
      ],
      [
        "መንገድ",
        -10.276509179699708
      ],
      [
        "ልፉ",
        -10.280931475368513
      ],
      [
        "ጠብ",
        -10.282536024909552
      ],
      [
        "ው፣",
        -10.285342069406614
      ],
      [
        "ልቃ",
        -10.286345364431181
      ],
      [
        "▁የፈጠ",
        -10.287483009258349
      ],
      [
        "ፀ",
        -10.291753060865812
      ],
      [
        "▁የተረጋገ",
        -10.294559831520226
      ],
      [
        "ሁለተኛ",
        -10.296045270413252
      ],
      [
        "ኒስ",
        -10.296135704781198
      ],
      [
        "ኒን",
        -10.302186538715915
      ],
      [
        "▁መንገ",
        -10.30370662123769
      ],
      [
        "መቅረ",
        -10.307403176425154
      ],
      [
        "▁መጎ",
        -10.308444470673855
      ],
      [
        "▁የተዘ",
        -10.310844412945258
      ],
      [
        "ሩክ",
        -10.312800411775882
      ],
      [
        "ስቶን",
        -10.313878915861377
      ],
      [
        "▁በሩ",
        -10.314962452282655
      ],
      [
        "ተካሄደ",
        -10.315655559988539
      ],
      [
        "ድስ",
        -10.316952969511675
      ],
      [
        "ጓዝ",
        -10.320363134556091
      ],
      [
        "ምርጫ",
        -10.321173954857844
      ],
      [
        "▁ለፊ",
        -10.32184767952499
      ],
      [
        "ፈልገው",
        -10.323389719475857
      ],
      [
        "ቀድሞ",
        -10.324317356964109
      ],
      [
        "ሰሩ",
        -10.324344291649243
      ],
      [
        "▁አሳይ",
        -10.325287978182915
      ],
      [
        "hi",
        -10.326985500488387
      ],
      [
        "▁በፓስ",
        -10.328263790618285
      ],
      [
        "ምሽቱ",
        -10.33064652108472
      ],
      [
        "ጣሊያን",
        -10.331275971135943
      ],
      [
        "▁ኤስ",
        -10.335616626528967
      ],
      [
        "ፕሬዚዳን",
        -10.33742737438425
      ],
      [
        "ገደ",
        -10.338969752254703
      ],
      [
        "9,",
        -10.339376594746684
      ],
      [
        "ጠባ",
        -10.34096442884869
      ],
      [
        "▁ዋል",
        -10.345733022045572
      ],
      [
        "ታዋቂ",
        -10.348847142268447
      ],
      [
        "ግባር",
        -10.34920126827527
      ],
      [
        "▁(50",
        -10.349514292957386
      ],
      [
        "ክፍል",
        -10.351364272443954
      ],
      [
        "▁ቴ",
        -10.355682581809871
      ],
      [
        "▁የተደራ",
        -10.355997316393044
      ],
      [
        "ኪ.ሜ",
        -10.359120781052011
      ],
      [
        "ዳኝ",
        -10.361584950696685
      ],
      [
        "ሃን",
        -10.362112568822168
      ],
      [
        "rl",
        -10.36315259417627
      ],
      [
        "ሂደ",
        -10.364227916368938
      ],
      [
        "ሊያ",
        -10.365255333450422
      ],
      [
        "▁አይጠብ",
        -10.366315354835614
      ],
      [
        "ዓመ",
        -10.366814856712923
      ],
      [
        "ዳቸው",
        -10.367775775364594
      ],
      [
        "ተገ",
        -10.368080152110961
      ],
      [
        "17",
        -10.368080576729705
      ],
      [
        "▁ተጠቅ",
        -10.369717594326781
      ],
      [
        "ዬ",
        -10.370221949902179
      ],
      [
        "E",
        -10.370346792978248
      ],
      [
        "980",
        -10.37154818315136
      ],
      [
        "▁ከ19",
        -10.371671644438008
      ],
      [
        "ናው",
        -10.37199050496161
      ],
      [
        "ትልቁ",
        -10.372141882207627
      ],
      [
        "▁ፕሬዚዳን",
        -10.372523213612817
      ],
      [
        "ንፈ",
        -10.373791132466248
      ],
      [
        "መቅደ",
        -10.374858227729737
      ],
      [
        "ጦር",
        -10.375077699789976
      ],
      [
        "“",
        -10.375382098865437
      ],
      [
        "መንሸራተት",
        -10.375384314776895
      ],
      [
        "ስን",
        -10.375510339638437
      ],
      [
        "ጽሑ",
        -10.375535577043156
      ],
      [
        "ዳርቻ",
        -10.376000145778123
      ],
      [
        "ትዕይን",
        -10.376706656542293
      ],
      [
        "አገዛ",
        -10.377280476922419
      ],
      [
        "ጂምናስቲ",
        -10.377591633044402
      ],
      [
        "ብሪታንያ",
        -10.377795996864625
      ],
      [
        "ል፣",
        -10.378248792125182
      ],
      [
        "ሪፐብሊካ",
        -10.37870352668913
      ],
      [
        "ሥርዓት",
        -10.379141344629563
      ],
      [
        "ተጓዦች",
        -10.379302962813622
      ],
      [
        "ቱሪዝም",
        -10.379316648998893
      ],
      [
        "ቴሌቪዥ",
        -10.379537499117871
      ],
      [
        "ቀላቀለ",
        -10.37986145307187
      ],
      [
        "ሸለቆ",
        -10.38036347000536
      ],
      [
        "▁ተራ",
        -10.380766570590485
      ],
      [
        "ትኩረት",
        -10.3812312006208
      ],
      [
        "አርኪ",
        -10.381317279552462
      ],
      [
        "▁C",
        -10.381681654194004
      ],
      [
        "ምርመራ",
        -10.382818860486662
      ],
      [
        "የመ",
        -10.382819901533512
      ],
      [
        "ማይል",
        -10.383157373030668
      ],
      [
        "ራግቢ",
        -10.383526791540776
      ],
      [
        "አቅራቢ",
        -10.38441246381493
      ],
      [
        "▁ካት",
        -10.38463163367553
      ],
      [
        "ጋብቻ",
        -10.384740185443537
      ],
      [
        "ቲኬ",
        -10.386075671013309
      ],
      [
        "በሰ",
        -10.386270084687618
      ],
      [
        "Pa",
        -10.386338831314585
      ],
      [
        "ነበሩት",
        -10.386718496608042
      ],
      [
        "ባልቲክ",
        -10.387083431235904
      ],
      [
        "አትሌቶ",
        -10.387208410038422
      ],
      [
        "L",
        -10.38792389522689
      ],
      [
        "አሸናፊ",
        -10.387981307224425
      ],
      [
        "¥",
        -10.388543039245462
      ],
      [
        "ኣ",
        -10.388543039245471
      ],
      [
        "ሆኗ",
        -10.389003983199677
      ],
      [
        "ገለል",
        -10.390659970078582
      ],
      [
        "▁የተነ",
        -10.3908709437553
      ],
      [
        "መንግሥ",
        -10.390953821282011
      ],
      [
        "ተም",
        -10.391021702102044
      ],
      [
        "ሙከራ",
        -10.391069599887482
      ],
      [
        "ow",
        -10.391250771044168
      ],
      [
        "ስብስብ",
        -10.391469632776666
      ],
      [
        "▁እንዳያ",
        -10.391615976752522
      ],
      [
        "ብዛኛው",
        -10.391806530052202
      ],
      [
        "ይተ",
        -10.392866687793083
      ],
      [
        "ተፈጥሮ",
        -10.393074883278677
      ],
      [
        "ወጪ",
        -10.39385226381911
      ],
      [
        "አጠገብ",
        -10.395681379725328
      ],
      [
        "ድርጅ",
        -10.398307410624128
      ],
      [
        "በተለይ",
        -10.39965755011498
      ],
      [
        "መግቢያ",
        -10.400873373249972
      ],
      [
        "(ኤ",
        -10.402159096632074
      ],
      [
        "ምስተኛ",
        -10.403727089094504
      ],
      [
        "ይሞክሩ",
        -10.403769128964134
      ],
      [
        "▁ከኢ",
        -10.40398960476885
      ],
      [
        "ሐን",
        -10.4049529696705
      ],
      [
        "ቤተሰ",
        -10.40544233790537
      ],
      [
        "▁ጀመረ",
        -10.405673382673784
      ],
      [
        "ሚገኙባቸ",
        -10.406772317023561
      ],
      [
        "ሄይ",
        -10.407945310361491
      ],
      [
        "የፖ",
        -10.408073979347929
      ],
      [
        "ልስ",
        -10.408487659112968
      ],
      [
        "▁እዚ",
        -10.409110880858208
      ],
      [
        "▁ሽን",
        -10.409942303575017
      ],
      [
        "ሪት",
        -10.411344486476956
      ],
      [
        "ረጋገጡ",
        -10.412014268215797
      ],
      [
        "ጨዋ",
        -10.412920468357202
      ],
      [
        "ባን",
        -10.414207208244388
      ],
      [
        "መንዳት",
        -10.414337559799263
      ],
      [
        "▁መብረ",
        -10.41451317369755
      ],
      [
        "ገጽ",
        -10.415474506832314
      ],
      [
        "▁የትራ",
        -10.415578133140487
      ],
      [
        "ክሪ",
        -10.417065008446492
      ],
      [
        "SA",
        -10.417202089424565
      ],
      [
        "ርቲ",
        -10.417299114716753
      ],
      [
        "በረራ",
        -10.41820621554265
      ],
      [
        "▁ውጤ",
        -10.418750104873704
      ],
      [
        "ያስቀ",
        -10.419391950319893
      ],
      [
        "ንደ",
        -10.419569397858945
      ],
      [
        "ሀገራ",
        -10.420066977616095
      ],
      [
        "ኳስ",
        -10.420519332806588
      ],
      [
        "ንፅ",
        -10.421376127200071
      ],
      [
        "ቨ",
        -10.422481395760276
      ],
      [
        "ሳምን",
        -10.424678162556571
      ],
      [
        "ክር",
        -10.425256651181302
      ],
      [
        "ድሃ",
        -10.426240808321667
      ],
      [
        "ዩ.ኤስ.",
        -10.42665256684989
      ],
      [
        "ችሉ",
        -10.427386702507519
      ],
      [
        "▁በመስ",
        -10.427639570102267
      ],
      [
        "ዲን",
        -10.430278082297702
      ],
      [
        "▁ተደር",
        -10.430934607488592
      ],
      [
        "ወሰኑ",
        -10.432544147685558
      ],
      [
        "▁እንደሚያስ",
        -10.43298523858728
      ],
      [
        "ኛል",
        -10.434093430095851
      ],
      [
        "ከመ",
        -10.434713697711995
      ],
      [
        "ፒክ",
        -10.434799878677953
      ],
      [
        "▁ሚኒ",
        -10.435716659249458
      ],
      [
        "194",
        -10.438609552508671
      ],
      [
        "ይዛ",
        -10.43916048595104
      ],
      [
        "▁በጠ",
        -10.442008493795432
      ],
      [
        "ገኘው",
        -10.442407785975984
      ],
      [
        "▁ተወካዮ",
        -10.443122456108094
      ],
      [
        "ፖሊ",
        -10.444996303886953
      ],
      [
        "አጭ",
        -10.445001014277949
      ],
      [
        "ድልድ",
        -10.446757770075683
      ],
      [
        "ልቆቹ",
        -10.447473861156201
      ],
      [
        "▁አገልግሎት",
        -10.449150466638367
      ],
      [
        "ምሳሌ",
        -10.449726565644491
      ],
      [
        "ሚያስፈል",
        -10.44991188426259
      ],
      [
        "ni",
        -10.45033379208208
      ],
      [
        "▁እንኳ",
        -10.452070364114887
      ],
      [
        "ቻይና",
        -10.452708008389402
      ],
      [
        "ሚጠራው",
        -10.453559408470094
      ],
      [
        "▁ሲም",
        -10.453798207871293
      ],
      [
        "ደርዘ",
        -10.453939043722517
      ],
      [
        "▁በ200",
        -10.454972163502509
      ],
      [
        "▁ፅሁ",
        -10.4550337651804
      ],
      [
        "ፖላ",
        -10.455541009764701
      ],
      [
        "ቅሷል",
        -10.455647604307943
      ],
      [
        "▁ያስፈል",
        -10.456199345653658
      ],
      [
        "መሳሰሉ",
        -10.456238452585417
      ],
      [
        "▁የጃፓ",
        -10.456358115838853
      ],
      [
        "ኋላ",
        -10.456536252980086
      ],
      [
        "11",
        -10.457396351988836
      ],
      [
        "ተጠበቀ",
        -10.457571860968102
      ],
      [
        "ይወ",
        -10.459887841391554
      ],
      [
        "▁ፍሰ",
        -10.460331382389086
      ],
      [
        "ተኮ",
        -10.462194869420305
      ],
      [
        "▁በሙ",
        -10.463182015189735
      ],
      [
        "ጥቂ",
        -10.46363826515472
      ],
      [
        "199",
        -10.463710072108208
      ],
      [
        "ማቸ",
        -10.463897864253275
      ],
      [
        "▁ወዳጆ",
        -10.464593374499836
      ],
      [
        "ተጀመረ",
        -10.465392607231568
      ],
      [
        "▁ይኖራ",
        -10.465872473722175
      ],
      [
        "ያደርጉ",
        -10.465927779693612
      ],
      [
        "ንጉ",
        -10.466858401918438
      ],
      [
        "ቶግራ",
        -10.467033897130515
      ],
      [
        "▁ሠ",
        -10.467384095936383
      ],
      [
        "▁የተረጋ",
        -10.469727355696406
      ],
      [
        "አትላን",
        -10.469808546669697
      ],
      [
        "ሚኖ",
        -10.469841503927249
      ],
      [
        "▁የሴ",
        -10.469897243863262
      ],
      [
        "▁ያሸ",
        -10.469907506225152
      ],
      [
        "ጓዦች",
        -10.470194307854069
      ],
      [
        "መሆናቸው",
        -10.470659342229055
      ],
      [
        "▁ይደ",
        -10.471158053907853
      ],
      [
        "1895",
        -10.471174279370537
      ],
      [
        "ቫይረ",
        -10.47126982710953
      ],
      [
        "ዚየ",
        -10.47175189428338
      ],
      [
        "▁የአሜ",
        -10.471810049157838
      ],
      [
        "▁በሚተ",
        -10.471836312430561
      ],
      [
        "ፈጠ",
        -10.471995269252607
      ],
      [
        "ሸነፈ",
        -10.472688656959635
      ],
      [
        "▁የቡ",
        -10.473369283593044
      ],
      [
        "ለማድረግ",
        -10.473484368996761
      ],
      [
        "ያስፈልጋ",
        -10.473777065479696
      ],
      [
        "▁የሚሸ",
        -10.474417988330625
      ],
      [
        "መድረሻ",
        -10.475039996759962
      ],
      [
        "▁80",
        -10.475042554764926
      ],
      [
        "▁በመጀመር",
        -10.47532038181344
      ],
      [
        "▁በኋ",
        -10.475835484522708
      ],
      [
        "ያንዳንዱ",
        -10.47583994774252
      ],
      [
        "▁ቀጠ",
        -10.47627968618626
      ],
      [
        "96",
        -10.47644410263965
      ],
      [
        "ጠይቃ",
        -10.476694404200735
      ],
      [
        "▁ከሚገኙ",
        -10.476768124567739
      ],
      [
        "ጀመር",
        -10.47685356083471
      ],
      [
        "ኘው",
        -10.477018975004999
      ],
      [
        "ዦች",
        -10.477240945969113
      ],
      [
        "▁በማይ",
        -10.477295215574006
      ],
      [
        "ፈላጊ",
        -10.477352832581083
      ],
      [
        "▁ያስታው",
        -10.477566874737564
      ],
      [
        "w",
        -10.477597395291735
      ],
      [
        "ታወቃ",
        -10.477625830419436
      ],
      [
        "የ200",
        -10.47779299354968
      ],
      [
        "▁ቴሌቪ",
        -10.477835251056899
      ],
      [
        "ሦስ",
        -10.477837046214411
      ],
      [
        "ጎብኚ",
        -10.47789779598767
      ],
      [
        "▁አልነበረ",
        -10.477932207147278
      ],
      [
        "ዳዳሪ",
        -10.477934344172148
      ],
      [
        "bu",
        -10.477957986104288
      ],
      [
        "ቾች",
        -10.477965337705381
      ],
      [
        "የሃ",
        -10.477970081330948
      ],
      [
        "ዳይሬክ",
        -10.478086924154534
      ],
      [
        "ኸ",
        -10.478097864053284
      ],
      [
        "ጿ",
        -10.478097864093233
      ],
      [
        "ፗ",
        -10.478097864093238
      ],
      [
        "+",
        -10.478097864093238
      ],
      [
        "%",
        -10.478097864093238
      ],
      [
        "–",
        -10.478097864093238
      ],
      [
        "ã",
        -10.478097864093238
      ],
      [
        "£",
        -10.478097864093238
      ],
      [
        "]",
        -10.478097864093238
      ],
      [
        "ቿ",
        -10.478097864093238
      ],
      [
        "K",
        -10.478097864093238
      ],
      [
        "[",
        -10.478097864093238
      ],
      [
        ";",
        -10.478097864093238
      ],
      [
        "J",
        -10.478097864093238
      ],
      [
        "ዠ",
        -10.478097864093238
      ],
      [
        "ታወቂያ",
        -10.478170417018907
      ],
      [
        "ነ-ጥበ",
        -10.478211808565225
      ],
      [
        "▁ያስተና",
        -10.478213627467971
      ],
      [
        "LA",
        -10.478495916493141
      ],
      [
        "189",
        -10.478529223420738
      ],
      [
        "ካን",
        -10.47854593127657
      ],
      [
        "II",
        -10.478553702273794
      ],
      [
        "▁የቴሌ",
        -10.478820625651664
      ],
      [
        "▁የፕሮ",
        -10.478828491795532
      ],
      [
        "nd",
        -10.479000713334257
      ],
      [
        "ፍራን",
        -10.479150107833565
      ],
      [
        "ንባ",
        -10.479161496318337
      ],
      [
        "▁ይገ",
        -10.479197642549469
      ],
      [
        "ጂምና",
        -10.479262146224222
      ],
      [
        "ካትታል",
        -10.479667445901017
      ],
      [
        "to",
        -10.479667476670045
      ],
      [
        "ap",
        -10.479745113179094
      ],
      [
        "ይሸፍ",
        -10.47988605548695
      ],
      [
        "ዳታ",
        -10.479943178347675
      ],
      [
        "▁Ho",
        -10.479987305030933
      ],
      [
        "▁Sa",
        -10.480348979016233
      ],
      [
        "ona",
        -10.48044922194786
      ],
      [
        "io",
        -10.480661095574176
      ],
      [
        "ሕፃ",
        -10.48072874528328
      ],
      [
        "በሩ",
        -10.480862417581143
      ],
      [
        "▁ከአሸ",
        -10.481364714222314
      ],
      [
        "▁ዓለ",
        -10.481661288455737
      ],
      [
        "ሬክተ",
        -10.481841382092906
      ],
      [
        "ቆጠ",
        -10.481897591619079
      ],
      [
        "ዘገበ",
        -10.482441006941679
      ],
      [
        "ያስፈልገ",
        -10.48247170985829
      ],
      [
        "197",
        -10.482743256504191
      ],
      [
        "ካኖቹ",
        -10.4830367297933
      ],
      [
        "ክርክ",
        -10.4832153163616
      ],
      [
        "▁ያስፈ",
        -10.48328489891851
      ],
      [
        "▁የአርጀ",
        -10.483300226271744
      ],
      [
        "መሠረት",
        -10.483850634555221
      ],
      [
        "46",
        -10.484392009450616
      ],
      [
        "▁ፕሮ",
        -10.484541751731623
      ],
      [
        "ራጩ",
        -10.485052105709254
      ],
      [
        "895",
        -10.48549437221747
      ],
      [
        "ለመዱ",
        -10.486419633211366
      ],
      [
        "▁ዶሚ",
        -10.486448014095892
      ],
      [
        "ኤስ.",
        -10.486557307149056
      ],
      [
        "▁በመገን",
        -10.487270896645974
      ],
      [
        "no",
        -10.487938696274233
      ],
      [
        "ያሳየ",
        -10.488972222001113
      ],
      [
        "▁ሽታ",
        -10.489995606306287
      ],
      [
        "ሚያደርጉ",
        -10.490113789970165
      ],
      [
        "▁የራስ",
        -10.490235019702038
      ],
      [
        "▁የምሽ",
        -10.490485991076353
      ],
      [
        "▁ካፒ",
        -10.490581734471613
      ],
      [
        "▁ምልክ",
        -10.49060771308851
      ],
      [
        "ስተላለ",
        -10.490627209574168
      ],
      [
        "ሚሰጡ",
        -10.490881921828272
      ],
      [
        "ወከ",
        -10.490994918294888
      ],
      [
        "መቀ",
        -10.491784057269697
      ],
      [
        "ትፈል",
        -10.492285565126387
      ],
      [
        "ሻገር",
        -10.492977520268497
      ],
      [
        "ዘቡ",
        -10.493557683224026
      ],
      [
        "ተርን",
        -10.49389321777954
      ],
      [
        "▁የጨረ",
        -10.494315505630944
      ],
      [
        "▁ሞቃ",
        -10.494455812996934
      ],
      [
        "አንዱ",
        -10.495414002971446
      ],
      [
        "ሪስቶ",
        -10.496366650914615
      ],
      [
        "▁ቫይ",
        -10.498115023706955
      ],
      [
        "▁ከፈረ",
        -10.498502836369585
      ],
      [
        "ግቦ",
        -10.49863165691812
      ],
      [
        "ፈቻ",
        -10.499311776079272
      ],
      [
        "▁በሚደረ",
        -10.499609018649487
      ],
      [
        "▁ይገኛ",
        -10.500215850326327
      ],
      [
        "▁ገንዘ",
        -10.500356807812231
      ],
      [
        "▁የፈ",
        -10.500901670223007
      ],
      [
        "ስተኛ",
        -10.501199619337607
      ],
      [
        "ጃዎች",
        -10.501650667095074
      ],
      [
        "▁አስፈ",
        -10.502729879884178
      ],
      [
        "▁ኮስ",
        -10.502817108717085
      ],
      [
        "▁የከተማ",
        -10.503807351067627
      ],
      [
        "▁አጋጥ",
        -10.50446017990092
      ],
      [
        "ገዛ",
        -10.504851469062212
      ],
      [
        "ማኖ",
        -10.505140794175125
      ],
      [
        "ቆራ",
        -10.505447123979184
      ],
      [
        "▁አንቀ",
        -10.506012912689132
      ],
      [
        "▁ዘገ",
        -10.506854193918588
      ],
      [
        "▁በተወ",
        -10.506932736281545
      ],
      [
        "ዳሪዎች",
        -10.507519581936005
      ],
      [
        "▁የዚ",
        -10.507833928658062
      ],
      [
        "▁ያደር",
        -10.508222278042357
      ],
      [
        "መቀጠል",
        -10.508417904855873
      ],
      [
        "ግስታ",
        -10.509214961309958
      ],
      [
        "ዳይነ",
        -10.509752948245868
      ],
      [
        "ሳኔ",
        -10.509760532937873
      ],
      [
        "ሽከር",
        -10.510041951188377
      ],
      [
        "ፒኮ",
        -10.510348265530137
      ],
      [
        "ጨማ",
        -10.510675860068032
      ],
      [
        "▁ኦሎ",
        -10.511834535455705
      ],
      [
        "▁ለ6",
        -10.512748636316449
      ],
      [
        "ቦላ",
        -10.513308810381842
      ],
      [
        "▁የማያ",
        -10.514172671150085
      ],
      [
        "▁አይደ",
        -10.514569697636015
      ],
      [
        "ሏቸው",
        -10.515024786109226
      ],
      [
        "ልሉ",
        -10.515207897880835
      ],
      [
        "ሎቶችን",
        -10.515377736821392
      ],
      [
        "ራንስ",
        -10.515421960790857
      ],
      [
        "ትም",
        -10.516096490693622
      ],
      [
        "▁ስለተ",
        -10.51623423471502
      ],
      [
        "ሊያዊ",
        -10.516436309698133
      ],
      [
        "ኦን",
        -10.51670593319572
      ],
      [
        "▁መረ",
        -10.516797715023806
      ],
      [
        "▁ከፍተ",
        -10.518472940752725
      ],
      [
        "ትናን",
        -10.518620743547672
      ],
      [
        "ስድስ",
        -10.519244452192332
      ],
      [
        "ዙሪ",
        -10.519431131952466
      ],
      [
        "ወቀ",
        -10.519877142190213
      ],
      [
        "ረጃ",
        -10.52069622256779
      ],
      [
        "ከተለ",
        -10.520777699119154
      ],
      [
        "nc",
        -10.522707845446014
      ],
      [
        "▁የፀ",
        -10.523067761262578
      ],
      [
        "ቨን",
        -10.523523084450147
      ],
      [
        "▁ተወዳ",
        -10.523872251841425
      ],
      [
        "▁ቁስ",
        -10.524211791392434
      ],
      [
        "▁ጭ",
        -10.524798964984736
      ],
      [
        "196",
        -10.525396571093028
      ],
      [
        "ሰሎ",
        -10.525535049024548
      ],
      [
        "▁አቀባ",
        -10.52554055950597
      ],
      [
        "ረጠ",
        -10.526364190473878
      ],
      [
        "ተመል",
        -10.528196923315042
      ],
      [
        "▁እግ",
        -10.528703343732055
      ],
      [
        "▁ተግባ",
        -10.528948353140791
      ],
      [
        "▁የተሞ",
        -10.529435380180953
      ],
      [
        "▁ከኦ",
        -10.531123717720892
      ],
      [
        "▁መጨ",
        -10.531857886381175
      ],
      [
        "ከፋ",
        -10.531961143315483
      ],
      [
        "▁ለማዘ",
        -10.532027352995351
      ],
      [
        "ፈጠራ",
        -10.532239228760538
      ],
      [
        "ቴሎ",
        -10.53227176512882
      ],
      [
        "▁ከአውሮ",
        -10.532825158631374
      ],
      [
        "ኛዎ",
        -10.533349414403173
      ],
      [
        "▁ለማስጠ",
        -10.534503087691824
      ],
      [
        "ሌለ",
        -10.534783847198874
      ],
      [
        "ተርስ",
        -10.53483689401729
      ],
      [
        "▁አለመ",
        -10.5350178083896
      ],
      [
        "ኩር",
        -10.536212928394324
      ],
      [
        "ገም",
        -10.537343317089753
      ],
      [
        "▁ሥር",
        -10.538674915820303
      ],
      [
        "ላንታ",
        -10.539077780091594
      ],
      [
        "ምሥራ",
        -10.53992026340083
      ],
      [
        "ማዛ",
        -10.540984975561809
      ],
      [
        "▁የተቀ",
        -10.541449738055407
      ],
      [
        "ሲስ",
        -10.541592996655325
      ],
      [
        "ማዘጋ",
        -10.541912921235372
      ],
      [
        "ሰራ",
        -10.542161369588925
      ],
      [
        "▁ያገ",
        -10.542599900925438
      ],
      [
        "ልከ",
        -10.543248244176448
      ],
      [
        "▁የጥ",
        -10.543729981542675
      ],
      [
        "ዝቅ",
        -10.544710740865293
      ],
      [
        "ጫቸው",
        -10.544878274757629
      ],
      [
        "▁ከ2",
        -10.545097994091106
      ],
      [
        "ዘጋ",
        -10.545541170514555
      ],
      [
        "ሰጡት",
        -10.548693441326073
      ],
      [
        "▁ይኖር",
        -10.548798894162534
      ],
      [
        "ደርገዋል",
        -10.550154370281975
      ],
      [
        "▁ድርጅ",
        -10.550279127689095
      ],
      [
        "ሎጂካ",
        -10.550506380604737
      ],
      [
        "ሚያው",
        -10.551241942541802
      ],
      [
        "ሰና",
        -10.552323042413208
      ],
      [
        "ንቲ",
        -10.553964371063817
      ],
      [
        "ውቅ",
        -10.554179139508587
      ],
      [
        "▁ምላ",
        -10.554500367374967
      ],
      [
        "▁መጓ",
        -10.555323252962626
      ],
      [
        "ራኒ",
        -10.555848944790487
      ],
      [
        "ዩቲ",
        -10.556339328378664
      ],
      [
        "ሽታዎች",
        -10.556697400343058
      ],
      [
        "ስፒ",
        -10.557433001166517
      ],
      [
        "ቀሱት",
        -10.557803156166944
      ],
      [
        "ቅል",
        -10.55783915342246
      ],
      [
        "ቦር",
        -10.558148110378058
      ],
      [
        "▁ያደ",
        -10.558248175854834
      ],
      [
        "ምስል",
        -10.562806588214782
      ],
      [
        "ሄዳ",
        -10.563196079360413
      ],
      [
        "▁ተጠ",
        -10.564078734866255
      ],
      [
        "▁ጨዋ",
        -10.565419868660719
      ],
      [
        "ደር",
        -10.568181101757174
      ],
      [
        "▁ራስ",
        -10.568869680239683
      ],
      [
        "▁መኪ",
        -10.569891780425595
      ],
      [
        "መቼ",
        -10.570519657849779
      ],
      [
        "▁የሁለ",
        -10.57083242935784
      ],
      [
        "▁ስቴት",
        -10.570940639130217
      ],
      [
        "▁በተወሰ",
        -10.572347915701599
      ],
      [
        "መሄድ",
        -10.573019947974469
      ],
      [
        "እራ",
        -10.57391271087772
      ],
      [
        "ቀደ",
        -10.574603171357023
      ],
      [
        "ኔዎች",
        -10.576311519898486
      ],
      [
        "በሽ",
        -10.576623963317441
      ],
      [
        "ዓይ",
        -10.577119758464985
      ],
      [
        "ወተ",
        -10.577478226801237
      ],
      [
        "ለካ",
        -10.578212997980806
      ],
      [
        "ለኛው",
        -10.579115938971063
      ],
      [
        "ድግ",
        -10.579261945164667
      ],
      [
        "▁በቤ",
        -10.579748137682573
      ],
      [
        "▁በአፍ",
        -10.58277807557738
      ],
      [
        "ቶቻ",
        -10.583129275643975
      ],
      [
        "ንጦ",
        -10.583737732819056
      ],
      [
        "ረተው",
        -10.583930345202686
      ],
      [
        "ሰቱ",
        -10.58491414477974
      ],
      [
        "ተቀባ",
        -10.585931395426071
      ],
      [
        "ሽል",
        -10.587164382684543
      ],
      [
        "መውጣት",
        -10.588534111946348
      ],
      [
        "▁ትዕ",
        -10.58972595752418
      ],
      [
        "▁የአር",
        -10.590682751853222
      ],
      [
        "ለዚህ",
        -10.59069805695989
      ],
      [
        "ሳቸው",
        -10.591337048591427
      ],
      [
        "ለሮ",
        -10.591395245628906
      ],
      [
        "ሚካ",
        -10.591479319523415
      ],
      [
        "▁የወረ",
        -10.591668986698485
      ],
      [
        "▁እርስ",
        -10.592095459241278
      ],
      [
        "ብላ",
        -10.593121655714846
      ],
      [
        "▁የሀ",
        -10.593231451455033
      ],
      [
        "▁መቆ",
        -10.593324062918468
      ],
      [
        "▁ገለ",
        -10.593440978077524
      ],
      [
        "▁ስን",
        -10.595602875336024
      ],
      [
        "መንገ",
        -10.596727122216851
      ],
      [
        "▁E",
        -10.59726167545795
      ],
      [
        "መዘ",
        -10.597915501855484
      ],
      [
        "ላዊው",
        -10.599043974164978
      ],
      [
        "▁የእን",
        -10.599414886164482
      ],
      [
        "ኖራቸ",
        -10.599594065065858
      ],
      [
        "ማቶ",
        -10.600777607070876
      ],
      [
        "ከስ",
        -10.600960284060061
      ],
      [
        "▁በከፍ",
        -10.601185680444479
      ],
      [
        "▁የተደ",
        -10.601794534019412
      ],
      [
        "መረዳ",
        -10.601869704539759
      ],
      [
        "ራሪ",
        -10.602079643772898
      ],
      [
        "▁ለመጠ",
        -10.60222301439816
      ],
      [
        "▁የተከ",
        -10.605654251651549
      ],
      [
        "ለምሳሌ",
        -10.611786118616948
      ],
      [
        "▁ጥቃ",
        -10.612550127783194
      ],
      [
        "ዴል",
        -10.613770982944379
      ],
      [
        "ዝቃ",
        -10.616089423037618
      ],
      [
        "▁የታይ",
        -10.616643652398594
      ],
      [
        "94",
        -10.616893196789167
      ],
      [
        "▁የአፍ",
        -10.619823304213016
      ],
      [
        "▁አሌ",
        -10.623633018148688
      ],
      [
        "▁በእን",
        -10.623665866126588
      ],
      [
        "▁ጦር",
        -10.625974671140348
      ],
      [
        "ክሲ",
        -10.626146623765385
      ],
      [
        "▁በአውሮ",
        -10.626973267065022
      ],
      [
        "መቅ",
        -10.627278605107517
      ],
      [
        "አውቶ",
        -10.628277254256474
      ],
      [
        "ለኛ",
        -10.631072451153134
      ],
      [
        "ዞር",
        -10.632127045734652
      ],
      [
        "ደረጋ",
        -10.637475368773579
      ],
      [
        "ጠናቀ",
        -10.637837069949148
      ],
      [
        "ጀር",
        -10.637980235299311
      ],
      [
        "▁የሚጨ",
        -10.640748866347872
      ],
      [
        "▁ያላ",
        -10.642968897996717
      ],
      [
        "ግዳ",
        -10.64404352109348
      ],
      [
        "▁እያመ",
        -10.644643116340617
      ],
      [
        "በቡ",
        -10.64476987919725
      ],
      [
        "▁አካ",
        -10.645218516997225
      ],
      [
        "ግጭ",
        -10.645251781674475
      ],
      [
        "የገቡ",
        -10.645897821300125
      ],
      [
        "ሚቆጠ",
        -10.64679255134848
      ],
      [
        "▁ፀ",
        -10.648923393814378
      ],
      [
        "ቻዎች",
        -10.649311494235928
      ],
      [
        "ለጉ",
        -10.651324210219164
      ],
      [
        "ርጥ",
        -10.652627664123823
      ],
      [
        "▁ትኩ",
        -10.652850778145503
      ],
      [
        "ታች",
        -10.654884477401232
      ],
      [
        "▁የከ",
        -10.655757548772504
      ],
      [
        "ማታ",
        -10.656282392456111
      ],
      [
        "▁በአብ",
        -10.65785039248825
      ],
      [
        "▁ያረ",
        -10.65822490773443
      ],
      [
        "ጎበ",
        -10.660726245002937
      ],
      [
        "ፓርቲ",
        -10.661655758469943
      ],
      [
        "ክረ",
        -10.662551461102723
      ],
      [
        "ተረ",
        -10.663167419884626
      ],
      [
        "▁በሆ",
        -10.664364662417055
      ],
      [
        "▁ይሞክ",
        -10.667171897205433
      ],
      [
        "ትሪ",
        -10.6731770696584
      ],
      [
        "▁ተቃ",
        -10.677938682769845
      ],
      [
        "ሩት",
        -10.67865049669379
      ],
      [
        "▁የዋ",
        -10.678930383809718
      ],
      [
        "▁ተደ",
        -10.679239136689164
      ],
      [
        "ጋጥ",
        -10.680615670843805
      ],
      [
        "▁የጃ",
        -10.681003343830838
      ],
      [
        "▁ል",
        -10.682459490626238
      ],
      [
        "ያስፈልገው",
        -10.684317327222194
      ],
      [
        "ከታ",
        -10.686131207082957
      ],
      [
        "በቁ",
        -10.68713315708954
      ],
      [
        "ለተ",
        -10.692244721249352
      ],
      [
        "▁የ20",
        -10.693445670396528
      ],
      [
        "መዳ",
        -10.693652575914847
      ],
      [
        "ዋጋ",
        -10.696614014133688
      ],
      [
        "ቁል",
        -10.699206290076061
      ],
      [
        "ሊን",
        -10.699440612063484
      ],
      [
        "አሉ",
        -10.700318040845012
      ],
      [
        "▁ይላ",
        -10.701769416952056
      ],
      [
        "ይችል",
        -10.70300188344735
      ],
      [
        "ፍሪ",
        -10.705589310793293
      ],
      [
        "ማወቅ",
        -10.705959596811805
      ],
      [
        "ተጎዳ",
        -10.709563844523355
      ],
      [
        "ጥቃ",
        -10.711464855883655
      ],
      [
        "ብሊ",
        -10.712778839747589
      ],
      [
        "▁ሴን",
        -10.713973032003157
      ],
      [
        "ራሮ",
        -10.714590045668372
      ],
      [
        "ሆና",
        -10.714984561967093
      ],
      [
        "ካከ",
        -10.716114198027142
      ],
      [
        "ታወ",
        -10.716485129507442
      ],
      [
        "ስቡ",
        -10.718074524563459
      ],
      [
        "▁በእነ",
        -10.718485062914867
      ],
      [
        "ኢኮ",
        -10.719222219091268
      ],
      [
        "ስትሪ",
        -10.720971041913174
      ],
      [
        "▁ከፈ",
        -10.72130319528117
      ],
      [
        "ቅበት",
        -10.721394509664007
      ],
      [
        "▁በ1",
        -10.726434095015971
      ],
      [
        "▁የኒው",
        -10.728041126341662
      ],
      [
        "ዘች",
        -10.728661508328672
      ],
      [
        "ኛዎች",
        -10.73086871174717
      ],
      [
        "▁የደ",
        -10.732353361112017
      ],
      [
        "▁ፈረ",
        -10.733031086177741
      ],
      [
        "የቅ",
        -10.734049170377597
      ],
      [
        "▁ማራ",
        -10.735763610111658
      ],
      [
        "▁የቆ",
        -10.737061532247868
      ],
      [
        "ሲዎች",
        -10.73826894766543
      ],
      [
        "ፓር",
        -10.73882014865564
      ],
      [
        "▁ይቀ",
        -10.739315377514195
      ],
      [
        "መንግስቱ",
        -10.739429769091675
      ],
      [
        "na",
        -10.740050446896557
      ],
      [
        "ሁኔ",
        -10.740386894781532
      ],
[...]
