{
  "version": "1.0",
  "truncation": null,
  "padding": null,
  "added_tokens": [
    {
      "id": 0,
      "content": "<pad>",
      "single_word": false,
      "lstrip": false,
      "rstrip": false,
      "normalized": false,
      "special": true
    },
    {
      "id": 1,
      "content": "<unk>",
      "single_word": false,
      "lstrip": false,
      "rstrip": false,
      "normalized": false,
      "special": true
    },
    {
      "id": 2,
      "content": "<cls>",
      "single_word": false,
      "lstrip": false,
      "rstrip": false,
      "normalized": false,
      "special": true
    }
  ],
  "normalizer": {
    "type": "Sequence",
    "normalizers": [
      {
        "type": "Nmt"
      },
      {
        "type": "NFKC"
      },
      {
        "type": "Replace",
        "pattern": {
          "Regex": " {2,}"
        },
        "content": " "
      }
    ]
  },
  "pre_tokenizer": {
    "type": "Metaspace",
    "replacement": "▁",
    "prepend_scheme": "always",
    "split": true
  },
  "post_processor": {
    "type": "TemplateProcessing",
    "single": [
      {
        "SpecialToken": {
          "id": "<cls>",
          "type_id": 0
        }
      },
      {
        "Sequence": {
          "id": "A",
          "type_id": 0
        }
      }
    ],
    "pair": [
      {
        "Sequence": {
          "id": "A",
          "type_id": 0
        }
      },
      {
        "Sequence": {
          "id": "B",
          "type_id": 1
        }
      }
    ],
    "special_tokens": {
      "<cls>": {
        "id": "<cls>",
        "ids": [
          2
        ],
        "tokens": [
          "<cls>"
        ]
      }
    }
  },
  "decoder": {
    "type": "Metaspace",
    "replacement": "▁",
    "prepend_scheme": "always",
    "split": true
  },
  "model": {
    "type": "Unigram",
    "unk_id": 1,
    "vocab": [
      [
        "<pad>",
        0.0
      ],
      [
        "<unk>",
        0.0
      ],
      [
        "<cls>",
        0.0
      ],
      [
        "a",
        -3.5749669236049737
      ],
      [
        "n",
        -3.6241095247179143
      ],
      [
        ",",
        -3.7075747800135126
      ],
      [
        ".",
        -3.8140284614652344
      ],
      [
        "▁",
        -4.000147532031695
      ],
      [
        "▁kan",
        -4.34368552051059
      ],
      [
        "▁fi",
        -4.509596838214026
      ],
      [
        "i",
        -4.648315029172282
      ],
      [
        "▁akka",
        -4.803125332563641
      ],
      [
        "tti",
        -4.9084531674010465
      ],
      [
        "s",
        -5.039777697248093
      ],
      [
        "aa",
        -5.0695491474718235
      ],
      [
        "ii",
        -5.08599484238038
      ],
      [
        "an",
        -5.113252645422865
      ],
      [
        "f",
        -5.21867045719324
      ],
      [
        "▁yeroo",
        -5.275612965201167
      ],
      [
        "▁hin",
        -5.298569712528862
      ],
      [
        "ni",
        -5.34841799524179
      ],
      [
        "uu",
        -5.379034573138424
      ],
      [
        "ee",
        -5.426867208158857
      ],
      [
        "wwan",
        -5.54277667354131
      ],
      [
        "▁irratti",
        -5.5437792139442745
      ],
      [
        "▁keessatti",
        -5.550446686881036
      ],
      [
        "u",
        -5.657232069562896
      ],
      [
        "▁tokko",
        -5.736979045406598
      ],
      [
        "▁isaa",
        -5.743456848401227
      ],
      [
        "▁irraa",
        -5.756893296248195
      ],
      [
        "▁itti",
        -5.769928770670852
      ],
      [
        "▁gara",
        -5.807389919236631
      ],
      [
        "dha.",
        -5.847349351053667
      ],
      [
        "oo",
        -5.8514659368092765
      ],
      [
        "e",
        -5.881721813041206
      ],
      [
        "▁keessa",
        -5.911257962226966
      ],
      [
        "aan",
        -5.911460923726132
      ],
      [
        "▁akkasuma",
        -5.937934299250825
      ],
      [
        "e.",
        -5.940868979777372
      ],
      [
        "▁bakka",
        -5.9471111537676045
      ],
      [
        "ti",
        -5.973773417112797
      ],
      [
        "▁keessaa",
        -6.02982487082283
      ],
      [
        "in",
        -6.034099486497671
      ],
      [
        "▁irra",
        -6.070983980410837
      ],
      [
        "▁isaanii",
        -6.1140151105286265
      ],
      [
        "▁isa",
        -6.138699771612971
      ],
      [
        "▁waliin",
        -6.161498650151515
      ],
      [
        "a.",
        -6.193150038271716
      ],
      [
        "▁wal",
        -6.199111170973623
      ],
      [
        "iin",
        -6.203033662694123
      ],
      [
        "▁qabu",
        -6.220017267929268
      ],
      [
        "▁ture",
        -6.222551975780449
      ],
      [
        "▁inni",
        -6.232676008355361
      ],
      [
        "oota",
        -6.275970199694108
      ],
      [
        ")",
        -6.285788751121439
      ],
      [
        "een",
        -6.316424753322071
      ],
      [
        "tu",
        -6.3649420852588
      ],
      [
        "▁karaa",
        -6.366669142964506
      ],
      [
        "ta",
        -6.392747257784659
      ],
      [
        "t",
        -6.399590734103249
      ],
      [
        "▁hedduu",
        -6.406996231120336
      ],
      [
        "nni",
        -6.427011146632321
      ],
      [
        "▁garuu",
        -6.443461149543726
      ],
      [
        "uuf",
        -6.463879627999922
      ],
      [
        "nii",
        -6.467199486072639
      ],
      [
        "d",
        -6.486148363976915
      ],
      [
        "r",
        -6.507128259744253
      ],
      [
        "k",
        -6.527888336929549
      ],
      [
        "-",
        -6.544566635587232
      ],
      [
        "▁baay’ee",
        -6.545496011124481
      ],
      [
        "anii",
        -6.558912400100222
      ],
      [
        "▁of",
        -6.561675983951909
      ],
      [
        "▁wa",
        -6.563826302573047
      ],
      [
        "▁jiru",
        -6.577853169773557
      ],
      [
        "▁naannoo",
        -6.585654727304789
      ],
      [
        "▁baayee",
        -6.585902451665747
      ],
      [
        "▁walitti",
        -6.586169387176993
      ],
      [
        "▁ni",
        -6.588040027989409
      ],
      [
        "▁mana",
        -6.593173975524023
      ],
      [
        "▁ta’e",
        -6.60693366143415
      ],
      [
        "▁kun",
        -6.61889091697415
      ],
      [
        "▁A",
        -6.623292908464807
      ],
      [
        "oonni",
        -6.644580475025515
      ],
      [
        "fi",
        -6.660287839622761
      ],
      [
        "tii",
        -6.667387438871504
      ],
      [
        "▁(",
        -6.680494899243927
      ],
      [
        "ri",
        -6.689062993366219
      ],
      [
        "▁nama",
        -6.693433530987464
      ],
      [
        "dhaan",
        -6.712808142334952
      ],
      [
        "▁jira",
        -6.714931984382137
      ],
      [
        "ota",
        -6.716702668669254
      ],
      [
        "▁kana",
        -6.721185356001568
      ],
      [
        "▁ta’uu",
        -6.723425761298122
      ],
      [
        "a,",
        -6.729623465887647
      ],
      [
        "neen",
        -6.745449255399096
      ],
      [
        "▁S",
        -6.749649422124717
      ],
      [
        "▁caalaa",
        -6.756802519078054
      ],
      [
        "▁bakkee",
        -6.758429871224244
      ],
      [
        "▁ol",
        -6.7653389335474925
      ],
      [
        "l",
        -6.7689797068406525
      ],
      [
        "▁biyya",
        -6.774025080840205
      ],
      [
        "▁addunyaa",
        -6.7775068529539455
      ],
      [
        "▁y",
        -6.7883369977190835
      ],
      [
        "▁yoo",
        -6.796895379331308
      ],
      [
        "▁adda",
        -6.799456918300046
      ],
      [
        "▁guddaa",
        -6.812534163465626
      ],
      [
        "▁haala",
        -6.8172338972010005
      ],
      [
        "is",
        -6.835283435538365
      ],
      [
        "▁lafa",
        -6.848398104462701
      ],
      [
        "▁sana",
        -6.852575242470646
      ],
      [
        "tiin",
        -6.855460601862092
      ],
      [
        "uun",
        -6.856445123964686
      ],
      [
        "kn",
        -6.859770902492146
      ],
      [
        "▁hanga",
        -6.863030892939475
      ],
      [
        "taa",
        -6.867356697806379
      ],
      [
        "ichi",
        -6.872177679037151
      ],
      [
        "▁bara",
        -6.881230937973318
      ],
      [
        "▁booda",
        -6.882457095003133
      ],
      [
        "▁W",
        -6.888230734733792
      ],
      [
        "▁namoot",
        -6.91082499581236
      ],
      [
        "▁B",
        -6.916099015204605
      ],
      [
        "▁K",
        -6.920246770053149
      ],
      [
        "▁garee",
        -6.922048643326967
      ],
      [
        "▁b",
        -6.931000433413103
      ],
      [
        "n,",
        -6.9391566465195496
      ],
      [
        "▁dura",
        -6.954400981372995
      ],
      [
        "m",
        -6.958382728770357
      ],
      [
        "▁cabbii",
        -6.962817756892703
      ],
      [
        "tee",
        -6.969722374920696
      ],
      [
        "▁nam",
        -6.970361007565834
      ],
      [
        "▁jalqabaa",
        -6.990352213920031
      ],
      [
        "soo",
        -6.992116141843663
      ],
      [
        "▁o",
        -6.992333797996222
      ],
      [
        "▁k",
        -6.998175967429541
      ],
      [
        "▁isaan",
        -7.0143803917192855
      ],
      [
        "▁Yeroo",
        -7.019070575818759
      ],
      [
        "▁aadaa",
        -7.027730076617814
      ],
      [
        "▁hojii",
        -7.028534896478827
      ],
      [
        "▁I",
        -7.03023089215103
      ],
      [
        "▁qaban",
        -7.031417997288134
      ],
      [
        "▁D",
        -7.035712260406477
      ],
      [
        "itti",
        -7.062194997050343
      ],
      [
        "▁dha",
        -7.063329124556317
      ],
      [
        "icha",
        -7.077071998172955
      ],
      [
        "▁filannoo",
        -7.082173299681858
      ],
      [
        "▁tokkoo",
        -7.084643771243126
      ],
      [
        "▁daangaa",
        -7.092402584863557
      ],
      [
        "▁muraasa",
        -7.092894320724383
      ],
      [
        "▁t",
        -7.095215643022835
      ],
      [
        "▁ta’ee",
        -7.098803505783701
      ],
      [
        "▁magaala",
        -7.124876781610807
      ],
      [
        "bbaa",
        -7.125688912257845
      ],
      [
        "▁amma",
        -7.132079293673853
      ],
      [
        "ma",
        -7.1334328444589215
      ],
      [
        "▁qaba",
        -7.134519415126238
      ],
      [
        "i.",
        -7.137867125433729
      ],
      [
        "saa",
        -7.144023866910548
      ],
      [
        "▁warra",
        -7.144511397946829
      ],
      [
        "lee",
        -7.161646506716419
      ],
      [
        "maa",
        -7.163926145055122
      ],
      [
        "▁F",
        -7.167619135788207
      ],
      [
        "llee",
        -7.170410730872942
      ],
      [
        "ummaa",
        -7.174049012995706
      ],
      [
        "▁H",
        -7.179986374173208
      ],
      [
        "tni",
        -7.184454537853488
      ],
      [
        "▁gadi",
        -7.188604670004734
      ],
      [
        "▁kee",
        -7.194467606308589
      ],
      [
        "▁hunda",
        -7.2003611352886185
      ],
      [
        "”",
        -7.20282384968367
      ],
      [
        "oon",
        -7.213258012826543
      ],
      [
        "rra",
        -7.213999344650707
      ],
      [
        "yookiin",
        -7.215485873684438
      ],
      [
        "b",
        -7.217886949657375
      ],
      [
        "▁erga",
        -7.218506348429683
      ],
      [
        "▁qilleensa",
        -7.219515502651131
      ],
      [
        "▁Yoo",
        -7.221706688308071
      ],
      [
        "▁jechuun",
        -7.222575341927797
      ],
      [
        "▁malee",
        -7.223670254768871
      ],
      [
        "▁biyyoota",
        -7.22511462678597
      ],
      [
        "▁addaa",
        -7.235034780063096
      ],
      [
        "sa",
        -7.237224651331647
      ],
      [
        "▁biroo",
        -7.243343673699224
      ],
      [
        "▁“",
        -7.244116063778854
      ],
      [
        "te",
        -7.260831758150024
      ],
      [
        "▁mootummaa",
        -7.262741367052623
      ],
      [
        "li",
        -7.2720842694734085
      ],
      [
        "▁h",
        -7.283176687533704
      ],
      [
        "g",
        -7.28351140811578
      ],
      [
        "▁bishaan",
        -7.287383186447281
      ],
      [
        "▁imala",
        -7.292814106445778
      ],
      [
        "lii",
        -7.2988843256072204
      ],
      [
        "▁haaraa",
        -7.301731387153778
      ],
      [
        "sii",
        -7.3145535250747455
      ],
      [
        "▁duraa",
        -7.316281826000083
      ],
      [
        "dha,",
        -7.318040425324311
      ],
      [
        "▁yookaa",
        -7.3310480316058815
      ],
      [
        "▁konkolaataa",
        -7.338958729705061
      ],
      [
        "waan",
        -7.339496376476802
      ],
      [
        "▁M",
        -7.33991349440984
      ],
      [
        "▁qaama",
        -7.341235718389358
      ],
      [
        "▁deem",
        -7.360856936950014
      ],
      [
        "dha",
        -7.3617817393140665
      ],
      [
        "▁Kan",
        -7.363836054038684
      ],
      [
        "atti",
        -7.365186617134937
      ],
      [
        "si",
        -7.365299118490948
      ],
      [
        "▁jalqaba",
        -7.3776538221258114
      ],
      [
        "rraa",
        -7.380350982600877
      ],
      [
        "’n",
        -7.381098891328572
      ],
      [
        ";",
        -7.3818109576393685
      ],
      [
        "▁bar",
        -7.3833109794322205
      ],
      [
        "o",
        -7.38866373946327
      ],
      [
        "▁iddoo",
        -7.391042519546275
      ],
      [
        "▁sababa",
        -7.391096654200939
      ],
      [
        "▁danda’a",
        -7.397344784824529
      ],
      [
        "▁P",
        -7.400772351384537
      ],
      [
        "siin",
        -7.401212021765049
      ],
      [
        "▁\"",
        -7.401894069395253
      ],
      [
        "▁tapha",
        -7.410621317781763
      ],
      [
        "▁guyyaa",
        -7.412510144235815
      ],
      [
        "immoo",
        -7.4153076610725055
      ],
      [
        "▁lama",
        -7.415989509536033
      ],
      [
        "tuu",
        -7.421047551314677
      ],
      [
        "er",
        -7.423168124132
      ],
      [
        "illee",
        -7.431681485370985
      ],
      [
        "▁ba",
        -7.435319591712536
      ],
      [
        "▁ta’an",
        -7.439514849445098
      ],
      [
        "ra",
        -7.441137935562988
      ],
      [
        "▁ta",
        -7.44784720488388
      ],
      [
        "▁imalaa",
        -7.450792860131939
      ],
      [
        "▁nyaata",
        -7.45201863921092
      ],
      [
        "▁buufata",
        -7.454617011003062
      ],
      [
        "ichaa",
        -7.456955813032562
      ],
      [
        "▁ta’u",
        -7.456971694412411
      ],
      [
        "▁wagga",
        -7.460374224843332
      ],
      [
        "▁danda’u",
        -7.463132735701355
      ],
      [
        ":",
        -7.470599093787215
      ],
      [
        "▁ma",
        -7.4738847031847016
      ],
      [
        "▁agarsiisa",
        -7.481691488663417
      ],
      [
        "▁kutaa",
        -7.48410670075034
      ],
      [
        "’tti",
        -7.4842390833898635
      ],
      [
        "aniif",
        -7.488160084367941
      ],
      [
        "▁seera",
        -7.495315218280465
      ],
      [
        "▁N",
        -7.495634672346589
      ],
      [
        "y",
        -7.4992796714048975
      ],
      [
        "▁si",
        -7.511256952346445
      ],
      [
        "toota",
        -7.514718477420883
      ],
      [
        "▁ga",
        -7.515578991847933
      ],
      [
        "▁yaada",
        -7.517771018284206
      ],
      [
        "▁balaa",
        -7.533232142275146
      ],
      [
        "aayil",
        -7.533317603539228
      ],
      [
        "iif",
        -7.539360799120605
      ],
      [
        "▁T",
        -7.5405286943798275
      ],
      [
        "tiif",
        -7.542706178929755
      ],
      [
        "▁waa",
        -7.54887936532688
      ],
      [
        "u,",
        -7.5550441237055885
      ],
      [
        "▁kanaaf",
        -7.559065768021457
      ],
      [
        "ina",
        -7.559198523606031
      ],
      [
        "eera",
        -7.562387994352321
      ],
      [
        "▁sirrii",
        -7.564123595529083
      ],
      [
        "▁dha,",
        -7.571739684821754
      ],
      [
        "chi",
        -7.572092535052235
      ],
      [
        "▁bal’aa",
        -7.576733542154761
      ],
      [
        "▁taatee",
        -7.576923033373136
      ],
      [
        "w",
        -7.586367302115242
      ],
      [
        "j",
        -7.600410531667061
      ],
      [
        "ffaa",
        -7.610282469299143
      ],
      [
        "kii",
        -7.612135563657578
      ],
      [
        "▁gaarii",
        -7.612403023192614
      ],
      [
        "tti,",
        -7.613512636816007
      ],
      [
        "▁Bakk",
        -7.614183798848317
      ],
      [
        "▁baayyee",
        -7.632004717101793
      ],
      [
        "▁ku",
        -7.6373710111209885
      ],
      [
        "▁Q",
        -7.637631776343638
      ],
      [
        "a’ee",
        -7.639393361892247
      ],
      [
        "▁kanaa",
        -7.6492221256659665
      ],
      [
        "▁g",
        -7.656020484013805
      ],
      [
        "baa",
        -7.659831127391344
      ],
      [
        "▁ha",
        -7.660130005016361
      ],
      [
        "▁biraa",
        -7.665613309712977
      ],
      [
        "\"",
        -7.665756776083581
      ],
      [
        "chaa",
        -7.67189869454255
      ],
      [
        "▁sadarkaa",
        -7.681784608601052
      ],
      [
        "▁Addunyaa",
        -7.6817876995496
      ],
      [
        "▁lammaffaa",
        -7.681804972758206
      ],
      [
        "▁muraasni",
        -7.6827497568394065
      ],
      [
        "▁Erga",
        -7.682793212375811
      ],
      [
        "▁Raa",
        -7.6872520299741485
      ],
      [
        "onni",
        -7.687363150065485
      ],
      [
        "▁ishee",
        -7.687904983776128
      ],
      [
        "gaa",
        -7.689418190806501
      ],
      [
        "▁gidduu",
        -7.689521206793465
      ],
      [
        "▁Haa",
        -7.696988724319282
      ],
      [
        "▁qofa",
        -7.6975599428217265
      ],
      [
        "▁bishaanii",
        -7.698417270969955
      ],
      [
        "▁jedhe",
        -7.699988530921468
      ],
      [
        "2",
        -7.70021628536303
      ],
      [
        "▁bu’",
        -7.703127959494516
      ],
      [
        "▁sun",
        -7.704158308425759
      ],
      [
        "▁lamaan",
        -7.705196255645486
      ],
      [
        "▁dorgommii",
        -7.70541892961826
      ],
      [
        "cha",
        -7.707617115941307
      ],
      [
        "▁qab",
        -7.719387466268399
      ],
      [
        "▁deemu",
        -7.720199430958701
      ],
      [
        "▁m",
        -7.721554356507218
      ],
      [
        "▁mala",
        -7.721789000098952
      ],
      [
        "raa",
        -7.728588756428592
      ],
      [
        "▁E",
        -7.7340382763587625
      ],
      [
        "▁dheeraa",
        -7.7356414464013845
      ],
      [
        "▁humna",
        -7.735889390415386
      ],
      [
        "▁ati",
        -7.750842928808739
      ],
      [
        "▁deebii",
        -7.754254079145418
      ],
      [
        "▁3",
        -7.7585969934170365
      ],
      [
        "▁U",
        -7.759568285733845
      ],
      [
        "▁O",
        -7.763605305762982
      ],
      [
        "▁G",
        -7.765586540645459
      ],
      [
        "▁dh",
        -7.771998086413566
      ],
      [
        "la",
        -7.772994743924458
      ],
      [
        "▁turan",
        -7.775414857982027
      ],
      [
        "▁dhugaa",
        -7.77689476770216
      ],
      [
        "▁J",
        -7.780396267194909
      ],
      [
        "▁d",
        -7.7820767488718
      ],
      [
        "yaa",
        -7.782789760816631
      ],
      [
        "▁ala",
        -7.784352489349902
      ],
      [
        "’",
        -7.797939061376371
      ],
      [
        "▁Al",
        -7.79915412140981
      ],
      [
        "▁Akka",
        -7.806964780090329
      ],
      [
        "▁fayyaa",
        -7.810425382807278
      ],
      [
        "▁fiigicha",
        -7.811300318132684
      ],
      [
        "▁Ameerikaa",
        -7.816139396542344
      ],
      [
        "▁qarqara",
        -7.816774179705048
      ],
      [
        "en",
        -7.81728297496535
      ],
      [
        "▁Inni",
        -7.817334445788491
      ],
      [
        "iyyuu",
        -7.8178253873855965
      ],
      [
        "▁oofuu",
        -7.822054288642203
      ],
      [
        "▁Kibbaa",
        -7.824238774912739
      ],
      [
        "▁Ba",
        -7.825480985047838
      ],
      [
        "riin",
        -7.826366843945021
      ],
      [
        "▁gaafa",
        -7.834229179349161
      ],
      [
        "▁bira",
        -7.834647620069021
      ],
      [
        "▁seenaa",
        -7.838320120469213
      ],
      [
        "mii",
        -7.838838309207865
      ],
      [
        "goo",
        -7.843238980786625
      ],
      [
        "iyoona",
        -7.843928115722685
      ],
      [
        "▁darbee",
        -7.845288649073794
      ],
      [
        "af",
        -7.846633070772325
      ],
      [
        "ame",
        -7.8512798539060835
      ],
      [
        "i,",
        -7.855945191052858
      ],
      [
        "too",
        -7.859170324881591
      ],
      [
        ",000",
        -7.862155992074496
      ],
      [
        "z",
        -7.87546343643438
      ],
      [
        "▁hamma",
        -7.882022788978491
      ],
      [
        "▁galaanaa",
        -7.882735689776472
      ],
      [
        "7",
        -7.884429338811208
      ],
      [
        "chuu",
        -7.886187339128645
      ],
      [
        "▁warr",
        -7.8868417873084145
      ],
      [
        "chii",
        -7.8869832717381625
      ],
      [
        "laa",
        -7.888896665424655
      ],
      [
        "▁xiqqoo",
        -7.893645983855181
      ],
      [
        "annoo",
        -7.894152290788338
      ],
      [
        "▁j",
        -7.8964467006548205
      ],
      [
        "▁w",
        -7.898994227243549
      ],
      [
        "aatti",
        -7.900367893012393
      ],
      [
        "ne",
        -7.913102945442878
      ],
      [
        "dii",
        -7.920872763734462
      ],
      [
        "ka",
        -7.924917294871947
      ],
      [
        "▁f",
        -7.925618349865622
      ],
      [
        "▁kennu",
        -7.929994589403388
      ],
      [
        "▁jiran",
        -7.932511848503135
      ],
      [
        "▁kam",
        -7.935610732216981
      ],
      [
        "▁dhukkuba",
        -7.936033031439823
      ],
      [
        "▁jala",
        -7.937315434730478
      ],
      [
        "h",
        -7.9395462313775225
      ],
      [
        "▁L",
        -7.94123127766693
      ],
      [
        "▁darbe",
        -7.942877091341856
      ],
      [
        "▁Ta",
        -7.942891027477399
      ],
      [
        "man",
        -7.945780558744445
      ],
      [
        "▁fuf",
        -7.948419202927566
      ],
      [
        "▁muuxann",
        -7.949641869959107
      ],
      [
        "▁Awurooppaa",
        -7.949643551407139
      ],
      [
        "▁sammuu",
        -7.94968590319719
      ],
      [
        "▁tuqaa",
        -7.9497188069134666
      ],
      [
        "▁qorannoo",
        -7.950013960800694
      ],
      [
        "▁argamu",
        -7.951427797925068
      ],
      [
        "▁as",
        -7.953849295675548
      ],
      [
        "shiyaa",
        -7.956963691528589
      ],
      [
        "▁barbaachisaa",
        -7.959690368445125
      ],
      [
        "▁xiqqaa",
        -7.959954687871356
      ],
      [
        "▁bilisa",
        -7.960134750233934
      ],
      [
        "▁doonii",
        -7.960855181167954
      ],
      [
        "▁jedham",
        -7.967082952684031
      ],
      [
        "ingi",
        -7.971570371515753
      ],
      [
        "▁beekamaa",
        -7.971958517723111
      ],
      [
        "▁Joon",
        -7.974121435403093
      ],
      [
        "▁jalatti",
        -7.976204075343516
      ],
      [
        "iinsi",
        -7.980505901115504
      ],
      [
        "▁Ma",
        -7.984301186619485
      ],
      [
        "kee",
        -7.984743623673958
      ],
      [
        "▁dhiis",
        -7.987694531373484
      ],
      [
        "utti",
        -7.987880946683346
      ],
      [
        "▁ta’uun",
        -7.989147385691352
      ],
      [
        "▁Bar",
        -7.989164459067433
      ],
      [
        "arraa",
        -7.995225728451445
      ],
      [
        "▁lafaa",
        -7.996299461539612
      ],
      [
        "iyaa",
        -7.996712615555632
      ],
      [
        "8",
        -8.000104802227662
      ],
      [
        "▁rakkoo",
        -8.00242361639652
      ],
      [
        "▁ka",
        -8.004554472981553
      ],
      [
        "▁kenn",
        -8.005806842682304
      ],
      [
        "6",
        -8.008744969286225
      ],
      [
        "▁jir",
        -8.009869204959264
      ],
      [
        "▁Roo",
        -8.01082611433784
      ],
      [
        "▁qaba.",
        -8.014004354580122
      ],
      [
        "▁hundaa",
        -8.015900472244528
      ],
      [
        "aayiti",
        -8.016015349336234
      ],
      [
        "▁200",
        -8.01859813932446
      ],
      [
        "▁Isteetsi",
        -8.022548390402658
      ],
      [
        "▁gal",
        -8.027052697731811
      ],
      [
        "▁Kun",
        -8.02773410382264
      ],
      [
        "awaa",
        -8.031574079144018
      ],
      [
        "uf",
        -8.034199984254924
      ],
      [
        "rratti",
        -8.034288009109623
      ],
      [
        "rii",
        -8.035067051409559
      ],
      [
        "tarii",
        -8.035170681468488
      ],
      [
        "1",
        -8.042870839220344
      ],
      [
        "▁biyyaa",
        -8.052289459960436
      ],
      [
        "▁hark",
        -8.05430950266607
      ],
      [
        "da",
        -8.056667106780818
      ],
      [
        "▁wajji",
        -8.057362908209692
      ],
      [
        "an,",
        -8.063972831018816
      ],
      [
        "3",
        -8.080447108301275
      ],
      [
        "5",
        -8.081434859803243
      ],
      [
        "eer",
        -8.081765806620794
      ],
      [
        "D",
        -8.084473524562924
      ],
      [
        "▁Sh",
        -8.085394180341732
      ],
      [
        "C",
        -8.086168562859372
      ],
      [
        "▁R",
        -8.088220515325766
      ],
      [
        "▁miil",
        -8.088241321639767
      ],
      [
        "▁qabne",
        -8.090319444501304
      ],
      [
        "aniiru",
        -8.091833050348125
      ],
      [
        "▁Ka",
        -8.09357302362671
      ],
      [
        "▁go",
        -8.098860744111423
      ],
      [
        "niyaa",
        -8.100150272532968
      ],
      [
        "re",
        -8.106396957929269
      ],
      [
        "vii",
        -8.111343808055127
      ],
      [
        "▁beekam",
        -8.11152369413627
      ],
      [
        "am",
        -8.113718864720841
      ],
      [
        "▁Afriikaa",
        -8.116308322437035
      ],
      [
        "▁umurii",
        -8.116308692214838
      ],
      [
        "▁ijoo",
        -8.116311826931726
      ],
      [
        "▁bidiruu",
        -8.116387177054872
      ],
      [
        "▁waliigaltee",
        -8.116515445139312
      ],
      [
        "▁bareed",
        -8.116547018956338
      ],
      [
        "▁fagoo",
        -8.116640330483378
      ],
      [
        "▁carraa",
        -8.116782038550426
      ],
      [
        "▁Galaana",
        -8.1171100638462
      ],
      [
        "▁meeshaalee",
        -8.117299656916074
      ],
      [
        "▁guutummaa",
        -8.117478553587073
      ],
      [
        "▁akkuma",
        -8.117537751311247
      ],
      [
        "▁20",
        -8.117727508375424
      ],
      [
        "▁cabbiirra",
        -8.119656965466651
      ],
      [
        "▁19",
        -8.121397390183649
      ],
      [
        "▁yaalaa",
        -8.12203970482988
      ],
      [
        "▁Garuu",
        -8.12269110747251
      ],
      [
        "▁gochuuf",
        -8.125291535629254
      ],
      [
        "▁kudha",
        -8.125681294490576
      ],
      [
        "▁isaani",
        -8.125845062743636
      ],
      [
        "▁dhimm",
        -8.126686119374996
      ],
      [
        "▁walakkaa",
        -8.131412738022503
      ],
      [
        "▁guutuu",
        -8.131654176908626
      ],
      [
        "▁saala",
        -8.132661656526501
      ],
      [
        "▁2",
        -8.137189960935268
      ],
      [
        "▁agarsiis",
        -8.137712346494487
      ],
      [
        "eef",
        -8.138282235242366
      ],
      [
        "▁baruuf",
        -8.138836203253174
      ],
      [
        "nnaa",
        -8.139001606591819
      ],
      [
        "amee",
        -8.139393039677252
      ],
      [
        "▁baasii",
        -8.139560874051828
      ],
      [
        "doo",
        -8.141964292486788
      ],
      [
        "on",
        -8.142416745713163
      ],
      [
        "achuu",
        -8.142520856746486
      ],
      [
        "kaa",
        -8.143849194293315
      ],
      [
        "▁qabaachuu",
        -8.147193869808893
      ],
      [
        "▁Kaabaa",
        -8.150077495542345
      ],
      [
        "▁jirtu",
        -8.152237834130768
      ],
      [
        "▁od",
        -8.15298587232296
      ],
      [
        "dhaaf",
        -8.15320920329943
      ],
      [
        "▁jedhee",
        -8.15335184084582
      ],
      [
        "▁seenuu",
        -8.153526180489461
      ],
      [
        "▁yaalii",
        -8.153656382949382
      ],
      [
        "▁ifa",
        -8.155827009995614
      ],
      [
        "▁adeemsa",
        -8.156016701465294
      ],
      [
        "p",
        -8.15778229465432
      ],
      [
        "▁5",
        -8.157920807151612
      ],
      [
        "▁soch",
        -8.161160159908288
      ],
      [
        "▁giddu",
        -8.16371955885415
      ],
      [
        "▁jalqab",
        -8.166195596282842
      ],
      [
        "▁a",
        -8.168976887476108
      ],
      [
        "▁uum",
        -8.170991386870606
      ],
      [
        "▁Haal",
        -8.171832773420135
      ],
      [
        "▁dabalataa",
        -8.171950153616084
      ],
      [
        "▁beek",
        -8.17242442200783
      ],
      [
        "ch",
        -8.17285795939395
      ],
      [
        "4",
        -8.185677145331088
      ],
      [
        "▁miti",
        -8.186606311640785
      ],
      [
        "▁Jaa",
        -8.191757545824585
      ],
      [
        "▁4",
        -8.19199119754854
      ],
      [
        "▁gad",
        -8.192758025218081
      ],
      [
        "▁qa",
        -8.193302474555184
      ],
      [
        "▁tokkotti",
        -8.194128155528437
      ],
      [
        "▁banaa",
        -8.195152846814274
      ],
      [
        "▁hawwata",
        -8.198633636573398
      ],
      [
        "▁qabda",
        -8.202124418169934
      ],
      [
        "as",
        -8.203161653347427
      ],
      [
        "dhu",
        -8.204272692700172
      ],
      [
        "rsaa",
        -8.21155228951805
      ],
      [
        "▁hidha",
        -8.211659175630263
      ],
      [
        "▁dhuma",
        -8.214265097183311
      ],
      [
        "▁waraana",
        -8.215068599219114
      ],
      [
        "▁6",
        -8.216553440263016
      ],
      [
        "▁jedhama",
        -8.217023914926877
      ],
      [
        "▁dhaabbata",
        -8.222754225479797
      ],
      [
        "▁tajaajila",
        -8.226486734026969
      ],
      [
        "▁seen",
        -8.229439726267984
      ],
      [
        "iiwwan",
        -8.230532958209194
      ],
      [
        "▁yooka",
        -8.23189020403261
      ],
      [
        "▁biroon",
        -8.23442383905789
      ],
      [
        "▁Ch",
        -8.236874202846414
      ],
      [
        "▁haa",
        -8.238266139249763
      ],
      [
        "▁godhamu",
        -8.242480588234855
      ],
      [
        "uunfaa",
        -8.24654641895173
      ],
      [
        "▁haf",
        -8.248498598282392
      ],
      [
        "▁mo’",
        -8.24899955824509
      ],
      [
        "S",
        -8.249894449118395
      ],
      [
        "aal",
        -8.251256221733701
      ],
      [
        "▁arg",
        -8.25373640041066
      ],
      [
        "atu",
        -8.254844546485726
      ],
      [
        "▁ganna",
        -8.254889245670105
      ],
      [
        "00",
        -8.256784273482838
      ],
      [
        "▁hafe",
        -8.258502773796792
      ],
      [
        "utuu",
        -8.2605368160214
      ],
      [
        "▁c",
        -8.26146114146859
      ],
      [
        "a’aa",
        -8.262710344763988
      ],
      [
        "▁qabat",
        -8.262760380679437
      ],
      [
        "suu",
        -8.264591013990795
      ],
      [
        "M",
        -8.264883933870216
      ],
      [
        "chuuf",
        -8.267326879192758
      ],
      [
        "▁kennam",
        -8.273338797811522
      ],
      [
        "▁gatii",
        -8.278328110656615
      ],
      [
        "▁ammaa",
        -8.281418655607421
      ],
      [
        "▁Oo",
        -8.284742732216216
      ],
      [
        "▁dhiheess",
        -8.287186039826492
      ],
      [
        "A",
        -8.289664069450929
      ],
      [
        "▁dadhab",
        -8.292178845438197
      ],
      [
        "▁baa",
        -8.292362648167204
      ],
      [
        "muu",
        -8.293009970239599
      ],
      [
        "▁Ee",
        -8.299944894683254
      ],
      [
        "▁Ha",
        -8.302894636170018
      ],
      [
        "▁tuurist",
        -8.304037190809256
      ],
      [
        "▁har",
        -8.304526906532361
      ],
      [
        "▁eegal",
        -8.306417290188685
      ],
      [
        "▁miidham",
        -8.31493622316005
      ],
      [
        "▁achi",
        -8.31532678568537
      ],
      [
        "▁argama",
        -8.315568932467118
      ],
      [
        "▁Fulbaana",
        -8.316308253265593
      ],
      [
        "▁Awustiraaliyaa",
        -8.316308254001687
      ],
      [
        "▁Ziilaandi",
        -8.316308518686702
      ],
      [
        "▁maallaqa",
        -8.316309216970092
      ],
      [
        "▁Indiyaa",
        -8.316309243728588
      ],
      [
        "▁Hagayya",
        -8.316309359954904
      ],
      [
        "vaayirasii",
        -8.316311402048196
      ],
      [
        "▁Afrikaa",
        -8.316312462838598
      ],
      [
        "▁deeggar",
        -8.316314444589127
      ],
      [
        "▁Akkuma",
        -8.316317412802201
      ],
      [
        "▁afur",
        -8.316323353724796
      ],
      [
        "▁sa’aatii",
        -8.316339323453375
      ],
      [
        "▁qarshii",
        -8.316339859682518
      ],
      [
        "▁Turkii",
        -8.316392464306727
      ],
      [
        "▁halkan",
        -8.31657353716717
      ],
      [
        "▁15",
        -8.316629499235273
      ],
      [
        "▁giddugaleess",
        -8.316773100208728
      ],
      [
        "▁Olompiki",
        -8.317062591704994
      ],
      [
        "saan",
        -8.317751649540362
      ],
      [
        "▁hundaa’e",
        -8.317818294983493
      ],
      [
        "jjii",
        -8.317921570620685
      ],
      [
        "▁Garba",
        -8.318067364498486
      ],
      [
        "kan",
        -8.318250104437384
      ],
      [
        "▁boqo",
        -8.318269689261012
      ],
      [
        "▁paartii",
        -8.318356812065982
      ],
      [
        "▁Ko",
        -8.320020916315215
      ],
      [
        "▁goolii",
        -8.320885852230557
      ],
      [
        "▁fageenya",
        -8.32124923276631
      ],
      [
        "▁Mootummoot",
        -8.321785262109364
      ],
      [
        "▁tti",
        -8.322340789589777
      ],
      [
        "▁shan",
        -8.323560743043961
      ],
      [
        "▁Agarsiisa",
        -8.324435114247159
      ],
      [
        "▁toor",
        -8.324678173860038
      ],
      [
        "▁Li",
        -8.324808582424591
      ],
      [
        "▁mijataa",
        -8.325961033955993
      ],
      [
        "▁amantaa",
        -8.32694268485797
      ],
      [
        "▁qofaa",
        -8.327054297090294
      ],
      [
        "▁Mootummaa",
        -8.327988007637172
      ],
      [
        "adaa",
        -8.32813965057116
      ],
      [
        "▁duraanii",
        -8.328848749205832
      ],
      [
        "▁dhukkub",
        -8.329201384870276
      ],
      [
        "▁km",
        -8.330101552658931
      ],
      [
        "amaa",
        -8.332739484846208
      ],
      [
        "▁waqti",
        -8.332761363227027
      ],
      [
        "▁ga’",
        -8.33277648115207
      ],
      [
        "daandii",
        -8.333121686355636
      ],
      [
        "▁bit",
        -8.33428392176867
      ],
      [
        "▁V",
        -8.33523861607969
      ],
      [
        "▁sagal",
        -8.33665255194606
      ],
      [
        "▁durii",
        -8.337110350673594
      ],
      [
        "▁dandeenye",
        -8.337506352259558
      ],
      [
        "▁malu",
        -8.33752289301125
      ],
      [
        "▁(m",
        -8.338691469398043
      ],
      [
        "▁bo",
        -8.339662492243194
      ],
      [
        "▁mucuc",
        -8.341096343569907
      ],
      [
        "haa",
        -8.341472725046831
      ],
      [
        "▁laga",
        -8.34180109451952
      ],
      [
        "▁jedhu",
        -8.342874843025664
      ],
      [
        "▁dhuf",
        -8.343346254942107
      ],
      [
        "▁barbaad",
        -8.34386530193757
      ],
      [
        "ot",
        -8.347712170390125
      ],
      [
        "koo",
        -8.349196480457024
      ],
      [
        "▁beekamtii",
        -8.350659505895077
      ],
      [
        "liin",
        -8.351468321120212
      ],
      [
        "que",
        -8.352711881622369
      ],
      [
        "aanaa",
        -8.353233287194307
      ],
      [
        "▁bahaa",
        -8.355210145369243
      ],
      [
        "▁US",
        -8.355235894919009
      ],
      [
        "▁danda’am",
        -8.35805919301233
      ],
      [
        "▁fayyadamuu",
        -8.35895715701906
      ],
      [
        "▁yaad",
        -8.359696214059468
      ],
      [
        "▁gar",
        -8.359968736829018
      ],
      [
        "▁jirti",
        -8.361195735955713
      ],
      [
        "ti,",
        -8.362706683608096
      ],
      [
        "▁gama",
        -8.36301229967052
      ],
      [
        "▁war",
        -8.365119050822688
      ],
      [
        "▁Garee",
        -8.365905746521896
      ],
      [
        "shinii",
        -8.367880143224198
      ],
      [
        "▁danda’",
        -8.367920436158512
      ],
      [
        "▁Yuun",
        -8.369709000750985
      ],
      [
        "q",
        -8.370451799843686
      ],
      [
        "▁haquu",
        -8.371755805860122
      ],
      [
        "▁kann",
        -8.372024512156054
      ],
      [
        "▁kir",
        -8.372525789341122
      ],
      [
        "o’annaa",
        -8.373433062142198
      ],
      [
        "▁balali’a",
        -8.375526306032393
      ],
      [
        "▁waggoot",
        -8.375834825068825
      ],
      [
        "▁201",
        -8.38013478169394
      ],
      [
        "maan",
        -8.381465335116811
      ],
      [
        "▁hundi",
        -8.386888652175788
      ],
      [
        "▁du",
        -8.387132222927102
      ],
      [
        "▁eeg",
        -8.38783668955884
      ],
      [
        "▁ko",
        -8.389840229927445
      ],
      [
        "▁hojjetu",
        -8.390448981680757
      ],
      [
        "▁magaal",
        -8.393351973793287
      ],
      [
        "amu",
        -8.393800530683052
      ],
      [
        "▁kallattii",
        -8.39488026654466
      ],
      [
        "▁hammata",
        -8.395972080107752
      ],
      [
        "un",
        -8.39598249876824
      ],
      [
        "▁Mana",
        -8.399682933606151
      ],
      [
        "▁garaa",
        -8.399889522058798
      ],
      [
        "▁kaaba",
        -8.401671405446011
      ],
      [
        "▁hiik",
        -8.403090744883873
      ],
      [
        "rsii",
        -8.403110660264074
      ],
      [
        "—",
        -8.404352098983521
      ],
      [
        "tota",
        -8.405273443051158
      ],
      [
        "▁xumuruu",
        -8.407236348199156
      ],
      [
        "▁wajjin",
        -8.409092419867099
      ],
      [
        "attoota",
        -8.410206965515208
      ],
      [
        "▁duuba",
        -8.410794824722423
      ],
      [
        "▁bu’aa",
        -8.413355506616673
      ],
      [
        "▁mar",
        -8.416921971467115
      ],
      [
        "▁xixiqqoo",
        -8.41811475423592
      ],
      [
        "ppii",
        -8.419739272252205
      ],
      [
        "▁baha",
        -8.424432061122584
      ],
      [
        "iinsa",
        -8.424630427591675
      ],
      [
        "▁60",
        -8.425266682604766
      ],
      [
        "▁dhaabbataa",
        -8.425489556304026
      ],
      [
        "▁baayyeen",
        -8.426457367481122
      ],
      [
        "sanii",
        -8.426613645809482
      ],
      [
        "▁Fil",
        -8.427253861990728
      ],
      [
        "deemsa",
        -8.427880037245762
      ],
      [
        "▁dhufuu",
        -8.42865401125051
      ],
      [
        "▁Pool",
        -8.429386595435762
      ],
      [
        "niif",
        -8.430030498982642
      ],
      [
        "c",
        -8.43212811912874
      ],
      [
        "diyoo",
        -8.432286637599969
      ],
      [
        "▁beeksis",
        -8.43873654223346
      ],
      [
        "▁qabdi",
        -8.440971467446186
      ],
      [
        "▁ilaaluu",
        -8.442762915928288
      ],
      [
        "duu",
        -8.442766028549844
      ],
      [
        "▁i",
        -8.443588463213867
      ],
      [
        "▁deemuu",
        -8.445659320884799
      ],
      [
        "▁nagaa",
        -8.447262082542151
      ],
      [
        "leen",
        -8.450403458427928
      ],
      [
        "▁ta’",
        -8.452128430214524
      ],
      [
        "dhaa",
        -8.45216949680572
      ],
      [
        "▁ittii",
        -8.45907440480168
      ],
      [
        "▁kennuu",
        -8.460552123931555
      ],
      [
        "▁mi",
        -8.460561641669138
      ],
      [
        "daa",
        -8.464284486410145
      ],
      [
        "amuu",
        -8.467941645584784
      ],
      [
        "▁gocha",
        -8.468645114511412
      ],
      [
        "▁mo’at",
        -8.470368403595959
      ],
      [
        "waa",
        -8.47067498063188
      ],
      [
        "▁argaman",
        -8.476416917806597
      ],
      [
        "▁barbaachis",
        -8.481332203571132
      ],
      [
        "▁galaana",
        -8.483089539437195
      ],
      [
        "▁tasgabb",
        -8.484096938225488
      ],
      [
        "uu,",
        -8.485340250498638
      ],
      [
        "al",
        -8.489597800003784
      ],
      [
        "▁guut",
        -8.490133814181096
      ],
      [
        "▁isii",
        -8.494671653275768
      ],
      [
        "▁qabuu",
        -8.495685192023005
      ],
      [
        "▁Jarmanii",
        -8.496534900280782
      ],
      [
        "▁galgala",
        -8.49669995259552
      ],
      [
        "▁ji",
        -8.496903654797359
      ],
      [
        "eek",
        -8.500259540382796
      ],
      [
        "etti",
        -8.501803944393808
      ],
      [
        "▁kenname",
        -8.503535078577304
      ],
      [
        "▁ga’aa",
        -8.503850593142502
      ],
      [
        "▁biyy",
        -8.505983266330276
      ],
      [
        "▁barbaadu",
        -8.507143387772645
      ],
      [
        "niiru",
        -8.507175053780918
      ],
      [
        "▁turani",
        -8.51268605948331
      ],
      [
        "▁Jaapaan",
        -8.512689161390204
      ],
      [
        "▁dhaab",
        -8.513235563300826
      ],
      [
        "aqaa",
        -8.51402995288671
      ],
      [
        "▁Goo",
        -8.515090723387333
      ],
      [
        "▁8",
        -8.515299759704325
      ],
      [
        "▁beekaman",
        -8.515376319092303
      ],
      [
        "san",
        -8.516087438482883
      ],
      [
        "▁ibsa",
        -8.51661340866443
      ],
      [
        "▁galche",
        -8.517867446458752
      ],
      [
        "▁kaas",
        -8.51818377504038
      ],
      [
        "yeroo",
        -8.519512019047392
      ],
      [
        "▁taphat",
        -8.520547427460372
      ],
      [
        "▁naann",
        -8.52347121154406
      ],
      [
        "▁gochuu",
        -8.527190127980019
      ],
      [
        "yii",
        -8.5272539539998
      ],
      [
        "(",
        -8.527729335739462
      ],
      [
        "▁du’a",
        -8.528594477622049
      ],
      [
        "▁Wa",
        -8.528863511923223
      ],
      [
        "U",
        -8.53081492427726
      ],
      [
        "▁keenya",
        -8.533134704817543
      ],
      [
        "▁alaa",
        -8.535759782259392
      ],
      [
        "▁fedh",
        -8.53731698497617
      ],
      [
        "▁da",
        -8.537585394558361
      ],
      [
        "▁hordof",
        -8.54101615689943
      ],
      [
        "zii",
        -8.542622862220721
      ],
      [
        "▁Fe",
        -8.543232935548467
      ],
      [
        "▁dur",
        -8.54365322452907
      ],
      [
        "▁fa",
        -8.54371652086419
      ],
      [
        "▁tola",
        -8.54532202956021
      ],
      [
        "ree",
        -8.546142152070447
      ],
      [
        "affaa",
        -8.546847080146168
      ],
      [
        "akkaataa",
        -8.547974106794484
      ],
      [
        "▁lola",
        -8.54832054120828
      ],
      [
        "iiwu",
        -8.548791970100156
      ],
      [
        "▁salphaa",
        -8.550560287354838
      ],
      [
        "▁fil",
        -8.551208012832095
      ],
      [
        "▁,",
        -8.55215813385124
      ],
      [
        "▁deebis",
        -8.552815878354245
      ],
      [
        "▁Jarman",
        -8.556832323168724
      ],
      [
        "▁guyy",
        -8.55780213612426
      ],
      [
        "▁taate",
        -8.558081776403831
      ],
      [
        "▁Paar",
        -8.56042212185417
      ],
      [
        "essa",
        -8.560553760901023
      ],
      [
        "faayida",
        -8.56114392235467
      ],
      [
        "▁qaam",
        -8.561420765405412
      ],
      [
        "▁San",
        -8.562681341769746
      ],
      [
        "▁biro",
        -8.565254240595701
      ],
      [
        "▁oomisha",
        -8.566308264503652
      ],
      [
        "▁gurgur",
        -8.566308289525042
      ],
      [
        "▁baadiyyaa",
        -8.566308298364369
      ],
      [
        "▁ministeera",
        -8.566308336353496
      ],
      [
        "▁Ministeer",
        -8.566308493144769
      ],
      [
        "▁10",
        -8.566313005009258
      ],
      [
        "▁paaspoortii",
        -8.56631739575453
      ],
      [
        "▁Sadaasa",
        -8.566324186945577
      ],
      [
        "▁Paakista",
        -8.566331197652953
      ],
      [
        "▁karoorfame",
        -8.566331272902495
      ],
      [
        "▁poolisii",
        -8.566333326796698
      ],
      [
        "▁Dubbi",
        -8.566334540406007
      ],
      [
        "▁kaleessa",
        -8.566354253987962
      ],
      [
        "▁aartii",
        -8.566355374522233
      ],
      [
        "▁duula",
        -8.56637781626174
      ],
      [
        "▁mucucaachuu",
        -8.566382835999814
      ],
      [
        "▁saganta",
        -8.566408168511167
      ],
      [
        "▁qulqull",
        -8.566516371435576
      ],
      [
        "▁sirna",
        -8.566526953330195
      ],
      [
        "▁Ispoortii",
        -8.566546614489091
      ],
      [
        "▁kabaja",
        -8.566644537399576
      ],
      [
        "▁qabxii",
        -8.566720607397576
      ],
      [
        "▁suuta",
        -8.566810293548645
      ],
      [
        "▁Adoolessa",
        -8.56688959817026
      ],
      [
        "▁Biyyaalessa",
        -8.567065314774217
      ],
      [
        "▁Daandii",
        -8.567150541953968
      ],
      [
        "Lakk",
        -8.567158206074673
      ],
      [
        "▁uumamee",
        -8.567613377074336
      ],
      [
        "▁Amaazo",
        -8.567788627751526
      ],
      [
        "▁awwaala",
        -8.567979724605497
      ],
      [
        "▁baqaq",
        -8.568021344653
      ],
      [
        "▁Dhaabbat",
        -8.568745144535766
      ],
      [
        "▁lamaffaa",
        -8.568780703574642
      ],
      [
        "▁argatan",
        -8.568946252785594
      ],
      [
        "▁is",
        -8.568953781666355
      ],
      [
        "▁afaan",
        -8.569036941201826
      ],
      [
        "▁jireenya",
        -8.569043759738662
      ],
      [
        "▁motummaa",
        -8.569461886350895
      ],
      [
        "▁ammoo",
        -8.569906871491245
      ],
      [
        "▁dhibee",
        -8.56997411684144
      ],
      [
        "▁18",
        -8.570739056475297
      ],
      [
        "▁turee",
        -8.570920654953884
      ],
      [
        "▁siif",
        -8.57116400434762
      ],
      [
        "▁mirkaneess",
        -8.57125234068325
      ],
      [
        "▁qophii",
        -8.57150796667887
      ],
      [
        "▁garaagaraa",
        -8.572927660821213
      ],
      [
        "achu",
        -8.57333194882366
      ],
      [
        "▁Muummich",
        -8.573859442589121
      ],
      [
        "▁gargaarsa",
        -8.574368855923675
      ],
      [
        "▁Sochi",
        -8.574387929219956
      ],
      [
        "uudhaan",
        -8.574908099455806
      ],
      [
        "▁falm",
        -8.575184639086107
      ],
      [
        "yyuu",
        -8.575476852523442
      ],
      [
        "▁ijaarsa",
        -8.577273985109533
      ],
      [
        "▁guddina",
        -8.577292982439229
      ],
      [
        "▁yook",
        -8.577640794351067
      ],
      [
        "▁sadii",
        -8.577906215588982
      ],
      [
        "▁loltoot",
        -8.578040342987828
      ],
      [
        "▁wantoot",
        -8.578470610900807
      ],
      [
        "▁argamuu",
        -8.578704364421357
      ],
      [
        "▁hamaa",
        -8.579953247600848
      ],
      [
        "ngili",
        -8.580145413698306
      ],
      [
        "▁eegd",
        -8.580608509796795
      ],
      [
        "▁jedhan",
        -8.580761956729283
      ],
      [
        "▁Gabaas",
        -8.5813170614146
      ],
      [
        "▁jabaa",
        -8.583346992399306
      ],
      [
        "▁isaatiin",
        -8.583592366873498
      ],
      [
        "▁ba’uu",
        -8.585307694386717
      ],
      [
        "aarii",
        -8.585525398865562
      ],
      [
        "▁qabachuun",
        -8.58701946942692
      ],
      [
        "nuti",
        -8.58828212585225
      ],
      [
        "yyee",
        -8.589235732358963
      ],
      [
        "▁miillaa",
        -8.58957773798508
      ],
      [
        "ksii",
        -8.589766824722577
      ],
      [
        "▁qorich",
        -8.591163041237095
      ],
      [
        "▁maree",
        -8.59168041722204
      ],
      [
        "▁xiyyaaraa",
        -8.592367995409985
      ],
      [
        "ca",
        -8.594213076428119
      ],
      [
        "▁tol",
        -8.594302532099492
      ],
      [
        "aman",
        -8.594672369831873
      ],
      [
        "▁imaluu",
        -8.596291813443823
      ],
      [
        "▁dabalatu",
        -8.59684868282974
      ],
      [
        "▁mu",
        -8.597406082034999
      ],
      [
        "▁saffisa",
        -8.597662340683277
      ],
      [
        "▁meetir",
        -8.59788714581957
      ],
      [
        "ineensot",
        -8.598419815864103
      ],
      [
        "uufi",
        -8.600489665471208
      ],
      [
        "▁ta’eef",
        -8.60156837249952
      ],
      [
        "▁tur",
        -8.603843952857904
      ],
      [
        "▁hoggan",
        -8.604793716977865
      ],
      [
        "saanii",
        -8.604888413792247
      ],
      [
        "▁mata",
        -8.606963984769628
      ],
      [
        "▁Taphich",
        -8.607456496440026
      ],
      [
        "0",
        -8.607712764685433
      ],
      [
        "▁Yaad",
        -8.609750044354563
      ],
      [
        "▁dhabuu",
        -8.609932274626328
      ],
      [
        "▁Karaa",
        -8.610250314454044
      ],
      [
        "umsa",
        -8.611755651645629
      ],
      [
        "ata",
        -8.612003647531546
      ],
      [
        "▁bashannana",
        -8.61436867914633
      ],
      [
        "diin",
        -8.614816893238947
      ],
      [
        "▁Jaappaan",
        -8.616302531259274
      ],
      [
        "niin",
        -8.616852251422072
      ],
      [
        "ataa",
        -8.619587118972602
      ],
      [
        "▁him",
        -8.619817768760255
      ],
      [
        "▁dandeettii",
        -8.62053919947841
      ],
      [
        "▁man",
        -8.622044093393727
      ],
      [
        "▁gaara",
        -8.622074596531156
      ],
      [
        "▁hund",
        -8.622382696191602
      ],
      [
        "che",
        -8.623772555292538
      ],
      [
        "▁24",
        -8.624147487178611
      ],
      [
        "▁lamaa",
        -8.624578579926341
      ],
      [
        "▁baasan",
        -8.627400414663006
      ],
      [
        "▁hospitaala",
        -8.62787179823092
      ],
      [
        "▁Hoo",
        -8.632183694420942
      ],
      [
        "siis",
        -8.633786133701909
      ],
      [
        "▁mars",
        -8.63591022287141
      ],
      [
        "▁galeessa",
        -8.636290854295925
      ],
      [
        "▁16",
        -8.636338757943495
      ],
      [
        "▁Faransaay",
        -8.640034252013693
      ],
      [
        "21",
        -8.641220189472378
      ],
      [
        "il",
        -8.642455099670661
      ],
      [
        "▁Paa",
        -8.644788658537063
      ],
      [
        "umaa",
        -8.64597971763644
      ],
      [
        "lbii",
        -8.64749008425425
      ],
      [
        "neef",
        -8.647920733092644
      ],
      [
        "de",
        -8.648556089607679
      ],
      [
        "annaa",
        -8.649652912114437
      ],
      [
        "na",
        -8.651606108540381
      ],
      [
        "▁Jarmaniin",
        -8.651649224058904
      ],
      [
        "▁keessaatti",
        -8.655794513341336
      ],
      [
        "▁galgalaa",
        -8.656359725204393
      ],
      [
        "▁C",
        -8.656906685093135
      ],
      [
        "’ti",
        -8.658409520418111
      ],
      [
        "▁Lol",
        -8.658942006278899
      ],
      [
        "▁Is",
        -8.661536690415428
      ],
      [
        "achuun",
        -8.663334090380125
      ],
      [
        "▁dhugaati",
        -8.663568675165804
      ],
      [
        "▁daawwat",
        -8.663846411422561
      ],
      [
        "ar",
        -8.666270256020532
      ],
      [
        "▁Ho",
        -8.667289486544474
      ],
      [
        "▁Warra",
        -8.66971105999592
      ],
      [
        "’a",
        -8.67293993172266
      ],
      [
        "eessa",
        -8.67299417893894
      ],
      [
        "▁jirutti",
        -8.673174962163277
      ],
      [
        "▁dhi",
        -8.674907523031989
      ],
      [
        "▁taphatama",
        -8.675606570857333
      ],
      [
        "▁haq",
        -8.677941325007163
      ],
      [
        "...",
        -8.679598494437533
      ],
      [
        "teetti",
        -8.680377688582242
      ],
      [
        "▁beekamu",
        -8.680467837286047
      ],
      [
        "’ee",
        -8.682331805794394
      ],
      [
        "iyaas",
        -8.683595375115031
      ],
      [
        "at",
        -8.685238727764483
      ],
      [
        "ama",
        -8.685580745842698
      ],
      [
        "taan",
        -8.688737174103634
      ],
      [
        "oolojii",
        -8.689883556668715
      ],
      [
        "▁qu",
        -8.69048668455061
      ],
      [
        "▁fudhat",
        -8.691831791682882
      ],
      [
        "▁koo",
        -8.69253103145021
      ],
      [
        "mma",
        -8.692581891824792
      ],
      [
        "▁di",
        -8.693175387772685
      ],
      [
        "▁kudhaa",
        -8.69382814698801
      ],
      [
        "▁hunduma",
        -8.694126084039613
      ],
      [
        "kira",
        -8.695656307638783
      ],
      [
        "▁godham",
        -8.696330075244646
      ],
      [
        "▁ta’a",
        -8.698743525379568
      ],
      [
        "geessi",
        -8.699681693414625
      ],
      [
        "64",
        -8.70183481137272
      ],
      [
        "▁Kaa",
        -8.702537606979668
      ],
      [
        "▁jedhaa",
        -8.70375383398025
      ],
      [
        "▁walii",
        -8.70392800636637
      ],
      [
        "ga",
        -8.70510092271071
      ],
      [
        "▁ija",
        -8.70741571438215
      ],
      [
        "iyoo",
        -8.707900043759365
      ],
      [
        "▁dhukkubicha",
        -8.709419577423803
      ],
      [
        "▁ilaal",
        -8.71110471099994
      ],
      [
        "T",
        -8.711685576928389
      ],
      [
        "▁dhii",
        -8.711836029986191
      ],
      [
        "▁gochaa",
        -8.714960072986457
      ],
      [
        "aliif",
        -8.715473521642098
      ],
      [
        "▁ga’umsa",
        -8.71685515449471
      ],
      [
        "▁bulchiins",
        -8.718524313722732
      ],
      [
        "▁moo",
        -8.720191395540315
      ],
      [
        "▁akkas",
        -8.725404373583263
      ],
      [
        "▁Kuu",
        -8.725837334460223
      ],
      [
        "▁torban",
        -8.726168838806387
      ],
      [
        "▁humn",
        -8.72680940717604
      ],
      [
        "lessaa",
        -8.727081974584193
      ],
      [
        "▁gaar",
        -8.729780035230851
      ],
      [
        "eessu",
        -8.730408123644407
      ],
      [
        "’aa",
        -8.731411485829565
      ],
      [
        "aaniyaa",
        -8.738489472161469
      ],
      [
        "▁ja",
        -8.738604813035131
      ],
      [
        "fii",
        -8.741329500734956
      ],
      [
        "ummaan",
        -8.742257648730346
      ],
      [
        "▁xumur",
        -8.743454173457549
      ],
      [
        "▁La",
        -8.743696291087154
      ],
      [
        "▁danda’ama",
        -8.746452445926234
      ],
      [
        "▁garba",
        -8.74649709582642
      ],
      [
        "▁War",
        -8.747052486323032
      ],
      [
        "N",
        -8.747166081892203
      ],
      [
        "▁Imaltoo",
        -8.747387134752323
      ],
      [
        "▁in",
        -8.749405568844205
      ],
      [
        "ba",
        -8.749486440967177
      ],
      [
        "▁danda’ee",
        -8.750686526366549
      ],
      [
        "aa,",
        -8.75177417464278
      ],
      [
        "▁Sa",
        -8.753541630386081
      ],
      [
        "kuu",
        -8.75485341130659
      ],
      [
        "▁olii",
        -8.754912905956466
      ],
      [
        "anidha",
        -8.755597556933507
      ],
      [
        "see",
        -8.758249519419826
      ],
      [
        "▁dursa",
        -8.760886170378253
      ],
      [
        "▁ra",
        -8.761515415837964
      ],
      [
        "▁haal",
        -8.761929577264468
      ],
      [
        "▁Pi",
        -8.76239543336241
      ],
      [
        "▁Po",
        -8.763905340990439
      ],
      [
        "urg",
        -8.764954472997053
      ],
      [
        "▁turuu",
        -8.765538599076567
      ],
      [
        "▁gammad",
        -8.76601063351639
      ],
      [
        "▁garaagara",
        -8.768106877952846
      ],
      [
        "▁giddugala",
        -8.772857125540408
      ],
      [
        "▁caal",
        -8.77421585949808
      ],
      [
        "tanii",
        -8.774435183542085
      ],
      [
        "ber",
        -8.777173269117213
      ],
      [
        "▁gabaas",
        -8.777401653021204
      ],
      [
        "▁ri",
        -8.77780986785238
      ],
      [
        "▁torba",
        -8.778017703720868
      ],
      [
        "mataa",
        -8.778112748089903
      ],
      [
        "iisa",
        -8.779416366061266
      ],
      [
        "▁taasis",
        -8.779455440253834
      ],
      [
        "▁Wal",
        -8.7799055825554
      ],
      [
        "eess",
        -8.781078800783753
      ],
      [
        "▁galch",
        -8.781975535999056
      ],
      [
        "hii",
        -8.782220623297025
      ],
      [
        "atti,",
        -8.782358697916436
      ],
      [
        "▁diriiraa",
        -8.787324487280651
      ],
      [
        "▁s",
        -8.787494945878993
      ],
      [
        "▁ar",
        -8.78987468187258
      ],
      [
        "aadaa",
        -8.795100578030679
      ],
      [
        "moo",
        -8.79540493385968
      ],
      [
        "▁Fi",
        -8.796245090377754
      ],
      [
        "▁dhiyeess",
        -8.797046430805509
      ],
      [
        "▁jech",
        -8.799122847268007
      ],
      [
        "▁Ga",
        -8.800130021255642
      ],
      [
        "shii",
        -8.801802045182603
      ],
      [
        "▁huba",
        -8.802484248978448
      ],
      [
        "▁Gi",
        -8.804052048966204
      ],
      [
        "▁kibba",
        -8.80611790563458
      ],
      [
        "▁taasisanii",
        -8.806269124657769
      ],
      [
        "▁dursaa",
        -8.80671806808169
      ],
      [
        "▁bulch",
        -8.807267889517787
      ],
      [
        "▁ibse",
        -8.807524245125892
      ],
      [
        "▁Daa",
        -8.807803414976396
      ],
      [
        "▁injifat",
        -8.812328257824923
      ],
      [
        "▁deebi’",
        -8.81594140710748
      ],
      [
        "▁deebi",
        -8.81713619037124
      ],
      [
        "▁waraan",
        -8.817286501669237
      ],
      [
        "ner",
        -8.817904607770064
      ],
      [
        "▁dhukkubbii",
        -8.818880735984951
      ],
      [
        "abba",
        -8.81940850273827
      ],
      [
        "▁darba",
        -8.819651400439763
      ],
      [
        "▁darbuu",
        -8.821541384168945
      ],
      [
        "▁miseens",
        -8.824144634512942
      ],
      [
        "ngi",
        -8.824211189605684
      ],
      [
        "kiin",
        -8.827749395300021
      ],
      [
        "nnoo",
        -8.828463835166216
      ],
      [
        "▁fu",
        -8.828694510026253
      ],
      [
        "▁Soo",
        -8.830640335750786
      ],
      [
        "se",
        -8.832986391336611
      ],
      [
        "▁ibs",
        -8.834692328461793
      ],
      [
        "roo",
        -8.839353450541232
      ],
      [
        "▁Kaaba",
        -8.840745253715058
      ],
      [
        "▁sirb",
        -8.840925361409724
      ],
      [
        "▁wagg",
        -8.841579653903727
      ],
      [
        "▁xiyyaara",
        -8.844348260498833
      ],
      [
        "eessaa",
        -8.844815466339973
      ],
      [
        "ddaa",
        -8.845504213812758
      ],
      [
        "▁lol",
        -8.845577685560823
      ],
      [
        "500",
        -8.846683553047775
      ],
      [
        "▁ofii",
        -8.846878304332066
      ],
      [
        "▁bu",
        -8.849404613129469
      ],
      [
        "uuf,",
        -8.850498706670177
      ],
      [
        "▁jiruu",
        -8.85120263792069
      ],
      [
        "ati",
        -8.852621852838823
      ],
      [
        "fame",
        -8.856001070197456
      ],
      [
        "▁galm",
        -8.856674861065407
      ],
      [
        "aarraa",
        -8.858324812093684
      ],
      [
        "famu",
        -8.861445391125674
      ],
      [
        "▁qabanii",
        -8.86213180484497
      ],
      [
        "kumaa",
        -8.86251012624502
      ],
      [
        "▁gudda",
        -8.863084147227186
      ],
      [
        "bba",
        -8.863806860926301
      ],
      [
        "▁Warr",
        -8.864477927311755
      ],
      [
        "O",
        -8.86465807847839
      ],
      [
        "isaa",
        -8.866224502938383
      ],
      [
        "W",
        -8.866655875914292
      ],
      [
        "G",
        -8.867774772776283
      ],
      [
        "P",
        -8.870942385626746
      ],
      [
        "eet",
        -8.871008577498598
      ],
      [
        "▁fudhatu",
        -8.871259745976799
      ],
      [
        "▁maqaa",
        -8.874534700851088
      ],
      [
        "▁dhiib",
        -8.878310830466155
      ],
      [
        "▁qabachuu",
        -8.878418956378288
      ],
      [
        "buu",
        -8.87955038454787
      ],
      [
        "naa",
        -8.879842396346469
      ],
      [
        "▁bad",
        -8.879990442234426
      ],
      [
        "garuu",
        -8.880443568363326
      ],
      [
        "▁qabamu",
        -8.881786603759371
      ],
      [
        "awwan",
        -8.882255478145714
      ],
      [
        "000",
        -8.88544073021545
      ],
      [
        "msi",
        -8.887836552771224
      ],
      [
        "▁hal",
        -8.88818137915978
      ],
      [
        "▁daawwachuu",
        -8.888520931915005
      ],
      [
        "▁gabaa",
        -8.890307707506391
      ],
      [
        "bu",
        -8.890635257505643
      ],
      [
        "▁fagaat",
        -8.891254267111496
      ],
      [
        "iwwan",
        -8.8957007389799
      ],
      [
        "arra",
        -8.898666102293644
      ],
      [
        "▁jijjiir",
        -8.89889110286662
      ],
      [
        "ulqull",
        -8.899356682665795
      ],
      [
        "▁Dhukkub",
        -8.899543810310982
      ],
      [
        "▁Super-G",
        -8.89964158646618
      ],
      [
        "!",
        -8.899641586506126
      ],
      [
        "?",
        -8.899641586506126
      ],
      [
        "▁biskileettii",
        -8.89964158663827
      ],
      [
        "▁Ikuwaadoor",
        -8.899641591606692
      ],
      [
        "▁saanduqa",
        -8.899641595024928
      ],
      [
        "▁meedaaliyaa",
        -8.899641597784647
      ],
      [
        "▁Qarqar",
        -8.899641610358433
      ],
      [
        "▁baakteeriy",
        -8.899641618103345
      ],
      [
        "▁‘",
        -8.899641677949777
      ],
      [
        "▁¥",
        -8.899641677949777
      ],
      [
        "▁–",
        -8.899641678417954
      ],
      [
        "▁Xaaliyaanii",
        -8.899641683274199
      ],
      [
        "▁Afgaanistaan",
        -8.89964168407708
      ],
      [
        "▁Dhugaatii",
        -8.899641686914684
      ],
      [
        "▁saddeet",
        -8.899641760171251
      ],
      [
        "▁Xumur",
        -8.899642584863543
      ],
      [
        "▁bay’ee",
        -8.899642875542304
      ],
      [
        "▁bilbilaa",
        -8.899643624119381
      ],
      [
        "▁bukkee",
        -8.89964378996677
      ],
      [
        "▁Giraand",
        -8.89964392899855
      ],
      [
        "▁Viizaa",
        -8.899644849433669
      ],
      [
        "▁barbad",
        -8.89964795558895
      ],
      [
        "▁rakasa",
        -8.899648489698961
      ],
      [
        "▁U.S",
        -8.899659219142386
      ],
      [
        "▁tiraafik",
        -8.899659324688132
      ],
      [
        "▁sakatt",
        -8.899660122143999
      ],
      [
        "▁Oolompiikii",
        -8.899662679539741
      ],
      [
        "▁Gamtoomanii",
        -8.899677745825676
      ],
      [
        "▁dhorku",
        -8.89967956368771
      ],
      [
        "▁fuulduraa",
        -8.89968067098049
      ],
      [
        "▁Singaap",
        -8.899685612679903
      ],
      [
        "▁inshu",
        -8.899713580888386
      ],
      [
        "▁daawwannaa",
        -8.89974305877738
      ],
      [
        "▁konkolaachiftoo",
        -8.899747342691947
      ],
      [
        "▁kaamp",
        -8.899749243499814
      ],
      [
        "▁Miseens",
        -8.89975243039791
      ],
      [
        "▁balbal",
        -8.89975317256594
      ],
      [
        "▁marsariitii",
        -8.899761053847094
      ],
      [
        "▁daqiiqa",
        -8.899782012615065
      ],
      [
        "▁muuziqaa",
        -8.899812948693675
      ],
      [
        "▁kaa’am",
        -8.8998222838368
      ],
      [
        "▁nageenya",
        -8.899867023011737
      ],
      [
        "▁2009",
        -8.89988390833912
      ],
      [
        "▁dhiirota",
        -8.899887045106793
      ],
      [
        "▁Biraazil",
        -8.899929851365883
      ],
      [
        "▁dhiyaat",
        -8.899971552576565
      ],
      [
        "▁garagaraa",
        -8.899977098515908
      ],
      [
        "▁abju",
        -8.899988191939238
      ],
      [
        "▁Bitoote",
        -8.899998695439207
      ],
      [
        "▁dhukkubsattoo",
        -8.900036720637436
      ],
      [
        "▁xaxa",
        -8.90006567657742
      ],
      [
        "▁foolii",
        -8.90010916737542
      ],
      [
        "▁teessuma",
        -8.900150733025374
      ],
      [
        "▁2017",
        -8.900205709344917
      ],
      [
        "iloo",
        -8.900210381529277
      ],
      [
        "▁hayyama",
        -8.900212259684398
      ],
      [
        "▁paarla",
        -8.900248440543846
      ],
      [
        "▁1,000",
        -8.900272999891783
      ],
      [
        "▁idil-addunyaa",
        -8.900285371987316
      ],
      [
        "▁Ganama",
        -8.900357031080187
      ],
      [
        "▁100",
        -8.90041387764516
      ],
      [
        "▁Tikeet",
        -8.900441022140742
      ],
      [
        "▁yaadachiis",
        -8.900707002288073
      ],
      [
        "▁argachuu",
        -8.900769413526923
      ],
      [
        "▁Koree",
        -8.900851006615845
      ],
      [
        "▁ja’a",
        -8.900869363261918
      ],
      [
        "▁gee",
        -8.90120652882001
      ],
      [
        "reekta",
        -8.901288209341978
      ],
      [
        "▁odol",
        -8.901349401522362
      ],
      [
        "▁kuufam",
        -8.901505188145613
      ],
      [
        "▁mallattoo",
        -8.901659734070233
      ],
      [
        "▁maatii",
        -8.902116200803645
      ],
      [
        "▁taphoota",
        -8.90233720948103
      ],
      [
        "▁sadan",
        -8.902474146219614
      ],
      [
        "▁agartuu",
        -8.902567471937893
      ],
      [
        "▁Naannoo",
        -8.902871225342828
      ],
      [
        "▁dubartoota",
        -8.903128347929943
      ],
      [
        "▁milkaa’",
        -8.903185474714729
      ],
      [
        "39",
        -8.903536113581447
      ],
      [
        "▁eegumsa",
        -8.903776199251821
      ],
      [
        "anitti",
        -8.903905066966855
      ],
      [
        "▁murtaa’",
        -8.904308391182306
      ],
      [
        "▁mallatteess",
        -8.904462919587035
      ],
      [
        "▁Birit",
        -8.904805463723278
      ],
      [
        "f,",
        -8.904971604916332
      ],
      [
        "▁gargaaruuf",
        -8.90516773460145
      ],
      [
        "▁Akkasumas",
        -8.90594473008384
      ],
      [
        "▁jiraat",
        -8.906035050003332
      ],
      [
        "▁alkooli",
        -8.906306429689845
      ],
      [
        "▁dhufu",
        -8.9064722948967
      ],
      [
        "▁abdii",
        -8.906619610032049
      ],
      [
        "▁ga’e",
        -8.907083660496362
      ],
      [
        "▁Cim",
        -8.907116260219027
      ],
      [
        "▁geggeeffamu",
        -8.907209002491827
      ],
      [
        "▁ulaagaa",
        -8.907613778806116
      ],
      [
        "eellis",
        -8.90762601107759
      ],
      [
        "▁turtuu",
        -8.90776585060986
      ],
      [
        "▁dhaabuuf",
        -8.90800213115772
      ],
      [
        "eellaa",
        -8.908569700580038
      ],
      [
        "▁kilabi",
        -8.908743193425414
      ],
      [
        "▁rakkoolee",
        -8.908943579734865
      ],
      [
        "▁hoteela",
        -8.909372840058813
      ],
      [
        "▁bahanii",
        -8.909543450249684
      ],
      [
        "Waldaa",
        -8.909628403903856
      ],
      [
        "▁xumure",
        -8.9096481460532
      ],
      [
        "▁Saa",
        -8.909718602834142
      ],
      [
        "▁of-",
        -8.910081473737653
      ],
      [
        "▁dhum",
        -8.910498966348918
      ],
      [
        "▁bob",
        -8.91050817144718
      ],
      [
        "▁kessa",
        -8.910978609870693
      ],
      [
        "/",
        -8.911604008993802
      ],
      [
        "L",
        -8.91167305222941
      ],
      [
        "▁Sirbituu",
        -8.911905079939523
      ],
      [
        "▁sababni",
        -8.912057203421833
      ],
      [
        "xaa",
        -8.91205932106217
      ],
      [
        "feder",
        -8.91240136247327
      ],
      [
        "ir",
        -8.91292264710204
      ],
      [
        "▁Galm",
        -8.913186163219706
      ],
      [
        "▁wayii",
        -8.913288519052822
      ],
      [
        "tummaa",
        -8.916999643009683
      ],
      [
        "▁dabalatee",
        -8.917382384408286
      ],
      [
        "▁ta’uudhaan",
        -8.917698821307734
      ],
      [
        "▁godh",
        -8.918254572608417
      ],
      [
        "▁konkolaachisaa",
        -8.91857606122576
      ],
      [
        "▁Na",
        -8.918810098308168
      ],
      [
        "▁fudhatamuu",
        -8.919759428009995
      ],
      [
        "▁seer",
        -8.920117707252038
      ],
      [
        "llaa",
        -8.920740673216418
      ],
      [
        "▁amala",
        -8.92129947227603
      ],
      [
        "roota",
        -8.921567504291165
      ],
      [
        "ituu",
        -8.92183840536897
      ],
      [
        "▁jal",
        -8.924001369362061
      ],
      [
        "▁meeshaa",
        -8.925602432224096
      ],
      [
        "▁Le",
        -8.92561890073452
      ],
      [
        "▁Lag",
        -8.925733698278819
      ],
      [
        "K",
        -8.925777795683892
      ],
      [
        "▁eegam",
        -8.925901654127484
      ],
      [
        "▁cimaa",
        -8.926790799361571
      ],
      [
        "▁9",
        -8.927074543206706
      ],
      [
        "▁midham",
        -8.927583032504819
      ],
      [
        "mmaa",
        -8.928738727111194
      ],
      [
        "▁murt",
        -8.929686580895574
      ],
      [
        "▁bu’an",
        -8.931528469041629
      ],
      [
        "aayinaa",
        -8.931982267052588
      ],
      [
        "▁deebi’uu",
        -8.93331213001791
      ],
      [
        "▁jedhamuun",
        -8.933383972221973
      ],
      [
        "▁Ki",
        -8.93440063837416
      ],
      [
        "▁hubat",
        -8.93566744999081
      ],
      [
        "▁Bii",
        -8.936261470629141
      ],
      [
        "▁olaanaa",
        -8.936646784127252
      ],
      [
        "▁qor",
        -8.938059782868345
      ],
      [
        "ippaabili",
        -8.938341140522267
      ],
      [
        "▁turtii",
        -8.938351095880913
      ],
      [
        "▁miidhama",
        -8.93941632463752
      ],
      [
        "▁Too",
        -8.940319724979798
      ],
      [
        "▁Piroo",
        -8.940772376727868
      ],
      [
        "▁madd",
        -8.9408304232699
      ],
      [
        "▁baasuuf",
        -8.940988308134656
      ],
      [
        "▁baachuu",
        -8.941353302740207
      ],
      [
        "▁dadhabuu",
        -8.94182931784422
      ],
      [
        "▁Hamm",
        -8.942101148159228
      ],
      [
        "aalaa",
        -8.942516413153985
      ],
      [
        "▁ho’i",
        -8.942983791933736
      ],
      [
        "eez",
        -8.943268643588512
      ],
      [
        "ishaan",
        -8.943288722143215
      ],
      [
        "▁tuuristoo",
        -8.943601735685004
      ],
      [
        "gg",
        -8.945161107574904
      ],
      [
        "gan",
        -8.946694169619033
      ],
      [
        "▁geejjibaa",
        -8.948817070670959
      ],
      [
        "kuun",
        -8.94969942501758
      ],
      [
        "▁caala",
        -8.949830651952988
      ],
      [
        "▁kanniin",
        -8.950483255686631
      ],
      [
        "▁hiriyoota",
        -8.95271881841578
      ],
      [
        "▁xiqqaate",
        -8.953662148595555
      ],
      [
        "▁Bo",
        -8.954710692743776
      ],
      [
        "▁hunda’",
        -8.956237971934568
      ],
      [
        "▁ta’anii",
        -8.957121318840741
      ],
      [
        "▁Kaana",
        -8.959042575454884
      ],
      [
        "▁7",
        -8.959430000368402
      ],
      [
        "▁tureef",
        -8.961141662369169
      ],
      [
        "▁seeraa",
        -8.961319010987873
      ],
      [
        "rmaan",
        -8.96215238165989
      ],
      [
        "umayyu",
        -8.962500030792588
      ],
      [
        "ayyee",
        -8.96258569879445
      ],
      [
        "▁paarkii",
        -8.963294554585705
      ],
      [
        "▁Waan",
        -8.96330899837354
      ],
      [
        "rkii",
        -8.963424081604828
      ],
      [
        "▁Ree",
        -8.963612248116574
      ],
      [
        "▁Taphataa",
        -8.963910150722924
      ],
      [
        "▁qabnee",
        -8.964611187708316
      ],
      [
        "▁Xiyyaaraa",
        -8.965777984064049
      ],
      [
        "▁dubbi",
        -8.96595678256223
      ],
      [
        "ayyaa",
        -8.967802612499705
      ],
      [
        "▁ci",
        -8.968071642921336
      ],
      [
        "▁daaw",
        -8.968795388568044
      ],
      [
        "▁Seen",
        -8.969350846843916
      ],
      [
        "▁baas",
        -8.97150085943801
      ],
      [
        "▁jab",
        -8.971624287377546
      ],
      [
        "ven",
        -8.972315643083382
      ],
      [
        "asii",
        -8.972919949050421
      ],
      [
        "▁Koon",
        -8.973341767532617
      ],
      [
        "yy",
        -8.976333337471473
      ],
      [
        "eessisuu",
        -8.976404261944328
      ],
      [
        "▁fedhii",
        -8.976859952081178
      ],
      [
        "▁kenna",
        -8.977885626098947
      ],
      [
        "▁fida",
        -8.977966182169826
      ],
      [
        "▁hima",
        -8.978873113278617
      ],
      [
        "▁Pee",
        -8.979848411184474
      ],
      [
        "eeffamee",
        -8.979881559500793
      ],
      [
        "rasii",
        -8.98110332623225
      ],
      [
        "▁Se",
        -8.981673130615729
      ],
      [
        "▁imaltoota",
        -8.98374829396451
      ],
      [
        "▁Noor",
        -8.98400673854227
      ],
      [
        "▁Ri",
        -8.985273780178995
      ],
      [
        "▁yaa’",
        -8.98595449344137
      ],
      [
        "▁Mee",
        -8.98643502222156
      ],
      [
        "mer",
        -8.987322980179057
      ],
      [
        "▁galmaa",
        -8.98824103457784
      ],
      [
        "▁uumamu",
        -8.988467714798707
      ],
      [
        "▁ispoort",
        -8.98881854570266
      ],
      [
        "▁Koong",
        -8.988876973628827
      ],
      [
        "aa”",
        -8.990067930054138
      ],
      [
        "▁Kir",
        -8.991378190662033
      ],
      [
        "▁qabuudha",
        -8.99502894947604
      ],
      [
        "▁fakkaata",
        -8.996630130790269
      ],
      [
        "inni",
        -8.99673460675385
      ],
      [
        "▁jijjiiram",
        -8.996856138475339
      ],
      [
        "▁koph",
        -8.997172260688053
      ],
      [
        "▁197",
        -8.998259560968474
      ],
      [
        "▁karaawwan",
        -8.998984811495042
      ],
      [
        "▁naanno",
        -8.999081309369648
      ],
      [
        "▁deeme",
        -8.99939054296287
      ],
      [
        "▁ammay",
        -9.000383852313101
      ],
      [
        "yyaa",
        -9.001622672623427
      ],
      [
        "saas",
        -9.003156768061775
      ],
      [
        "▁gatiin",
        -9.003960685227947
      ],
      [
        "▁danda’an",
        -9.004191501976416
      ],
      [
        "▁kibbaa",
        -9.00432349240265
      ],
      [
        "oot",
        -9.00596046766391
      ],
      [
        "▁Maart",
        -9.006926294646396
      ],
      [
        "▁raa",
        -9.007587319121598
      ],
      [
        "▁dhaga",
        -9.00839003640651
      ],
      [
        "▁daa",
        -9.008961638904376
      ],
      [
        "▁fuula",
        -9.009496102402593
      ],
      [
        "▁waliinii",
        -9.01107962720299
      ],
      [
        "▁god",
        -9.013013089423408
      ],
      [
        "▁ho’a",
        -9.013302862212937
      ],
      [
        "lkaan",
        -9.013312646874525
      ],
      [
        "▁gosa",
        -9.013888729960696
      ],
      [
        "▁weerara",
        -9.014428790776288
      ],
      [
        "▁biraatii",
        -9.014825214188601
      ],
      [
        "▁Raan",
        -9.016821891546472
      ],
      [
        "▁se",
        -9.01684239564692
      ],
      [
        "▁godhan",
        -9.01765338639871
      ],
      [
        "▁qaxxaamura",
        -9.018184256382344
      ],
      [
        "▁dubbis",
        -9.019249881542594
      ],
      [
        "iti",
        -9.01927880978928
      ],
      [
        "akka",
        -9.020321132118877
      ],
      [
        "jijjiirama",
        -9.022101062449712
      ],
      [
        "▁vii",
        -9.023228992382533
      ],
      [
        "▁gannaa",
        -9.023298951830446
      ],
      [
        "▁ce’",
        -9.024105311671832
      ],
      [
        "▁gargaar",
        -9.024229191341908
      ],
      [
        "▁godhee",
        -9.02464834997733
      ],
      [
        "▁gaggeess",
        -9.024795207985429
      ],
      [
        "▁dig",
        -9.025093287080022
      ],
      [
        "▁Iraan",
        -9.028748418389869
      ],
      [
        "oonii",
        -9.030933950453425
      ],
      [
        "▁argaachu",
        -9.03291763257417
      ],
      [
        "aalli",
        -9.033268788578003
      ],
      [
        "qqaa",
        -9.034139263798044
      ],
      [
        "▁dabalam",
        -9.035454664380342
      ],
      [
        "▁bakk",
        -9.036587638394069
      ],
      [
        "▁keess",
        -9.036676563310879
      ],
      [
        "ees",
        -9.037211346659815
      ],
      [
        "galtee",
        -9.038016003328135
      ],
      [
        "wan",
        -9.040657000179486
      ],
      [
        "insa",
        -9.041175784246018
      ],
      [
        "harka",
        -9.042358984775053
      ],
      [
        "▁baandii",
        -9.04511592131551
      ],
      [
        "▁moo’",
        -9.045296028451684
      ],
      [
        "▁Mu",
        -9.045527238297858
      ],
      [
        "▁danda’uu",
        -9.045577690622512
      ],
      [
        "▁Guyy",
        -9.046103916525214
      ],
      [
        "iyaan",
        -9.0478770758557
      ],
      [
        "▁sodaa",
        -9.053776823384256
      ],
      [
        "▁bi",
        -9.053801415732769
      ],
      [
        "▁gudd",
        -9.054736101255106
      ],
      [
        "▁arga",
        -9.05641097814202
      ],
      [
        "▁Yaa",
        -9.057145114217352
      ],
      [
        "▁jedhamu",
        -9.057733198450698
      ],
      [
        "irree",
        -9.058417062793291
      ],
      [
        "raaq",
        -9.060456423797813
      ],
      [
        "▁1",
        -9.061194339493074
      ],
      [
        "aayi",
        -9.063337491000762
      ],
      [
        "▁darb",
        -9.063355186135798
      ],
      [
        "▁filatama",
        -9.065427206660134
      ],
      [
        "fa",
        -9.06572118830347
      ],
      [
        "▁Taph",
        -9.067473616096407
      ],
      [
        "’uun",
        -9.069001197790769
      ],
      [
        "▁dhab",
        -9.069398250841216
      ],
      [
        "chaan",
        -9.069890307678971
      ],
      [
        "▁bashannanaa",
        -9.071522454256481
      ],
      [
        "oos",
        -9.073429777995734
      ],
      [
        "▁aans",
        -9.074590217059605
      ],
      [
        "▁ijaa",
        -9.074720167864495
      ],
      [
        "fiin",
        -9.07524403714161
      ],
      [
        "▁fudhate",
        -9.07528876503973
      ],
      [
        "▁danda",
        -9.075591538335607
      ],
      [
        "▁barreeffam",
        -9.076452779708656
      ],
      [
        "▁bu’uuraa",
        -9.078415927140144
      ],
      [
        "zoon",
        -9.079717076623254
      ],
      [
        "▁tajaajil",
        -9.083085821767
      ],
      [
        "▁Ol",
        -9.083346471220864
      ],
      [
        "▁tikeet",
        -9.084494659055528
      ],
      [
        "▁Niwu",
        -9.084537284874154
      ],
      [
        "▁garbaa",
        -9.085358892954442
      ],
      [
        "uma",
        -9.085555865939098
      ],
      [
        "▁faan",
        -9.08618819119003
      ],
      [
        "▁bood",
        -9.08632898502416
      ],
      [
        "juu",
        -9.08811458397374
      ],
      [
        "x",
        -9.088269018346752
      ],
      [
        "▁kaar",
        -9.088974661592863
      ],
      [
        "▁Daaww",
        -9.090638422314958
      ],
      [
        "eeti",
        -9.091351349634516
      ],
      [
        "▁Pir",
        -9.094484545968768
      ],
      [
        "▁pirez",
        -9.095628058719722
      ],
      [
        "afa",
        -9.096420498197224
      ],
      [
        "▁bashannan",
        -9.096618243752784
      ],
      [
        "▁sa",
        -9.096888586238107
      ],
      [
        "ddoo",
        -9.098392437804383
      ],
      [
        "mu",
        -9.098393726036413
      ],
      [
        "▁ga’uu",
        -9.100001934448414
      ],
      [
        "aniin",
        -9.10037088468377
      ],
      [
        "▁guddich",
        -9.10123363426838
      ],
      [
        "▁baratam",
        -9.104274738713142
      ],
      [
        "▁soda",
        -9.104384164887346
      ],
      [
        "eeffann",
        -9.107120001003254
      ],
      [
        "▁Ar",
        -9.10981516380075
      ],
      [
        "▁biir",
        -9.114377203337428
      ],
      [
        "▁guddaaf",
        -9.116681247372759
      ],
      [
        "▁fudhatan",
        -9.116804682158635
      ],
      [
        "absii",
        -9.117873934555554
      ],
      [
        "▁hu",
        -9.118955922162668
      ],
      [
        "▁ilaalam",
        -9.11970454617131
      ],
      [
        "▁godhe",
        -9.120158397302731
      ],
      [
        "f.",
        -9.121634699138976
      ],
      [
        "ol",
        -9.123722488200915
      ],
      [
        "▁taasise",
        -9.125805745267577
      ],
      [
        "▁Gil",
        -9.126211693344118
      ],
      [
        "▁mo’am",
        -9.12637769358975
      ],
      [
        "aayiking",
        -9.126577007373234
      ],
      [
        "umma",
        -9.128252334140564
      ],
      [
        "vi",
        -9.129638394328163
      ],
      [
        "wus",
        -9.129945859609732
      ],
      [
        "ittii",
        -9.132311858004629
      ],
      [
        "jii",
        -9.13678864805335
      ],
      [
        "viid",
        -9.136873219201751
      ],
      [
        "ooma",
        -9.137199565844597
      ],
      [
        "vaa",
        -9.137405797271198
      ],
      [
        "mee",
        -9.137513736072425
      ],
      [
        "istoot",
        -9.13766555046551
      ],
      [
        "▁Laa",
        -9.138510574902252
      ],
      [
        "daan",
        -9.138856605663456
      ],
      [
        "▁adeems",
        -9.140949395919625
      ],
      [
        "▁qubata",
        -9.141566853437546
      ],
      [
        "bi",
        -9.142723421256552
      ],
      [
        "ala",
        -9.143100749797197
      ],
      [
        "guu",
        -9.14475438437577
      ],
      [
        "▁11",
        -9.146638064297681
      ],
      [
        "▁Yuuni",
        -9.147065760513351
      ],
      [
        "ki",
        -9.150864472553776
      ],
      [
        "ffa",
        -9.152978731893596
      ],
      [
        "aaf",
        -9.154290937012622
      ],
      [
        "▁gaaraa",
        -9.156446451659784
      ],
      [
        "▁kudhan",
        -9.161286454777095
      ],
      [
        "▁garaagar",
        -9.161463083218145
      ],
      [
        "ffaadha",
        -9.162274747539488
      ],
      [
        "ataan",
        -9.162334987315782
      ],
      [
        "tuun",
        -9.163809860170103
      ],
      [
        "▁eegale",
        -9.16545612647741
      ],
      [
        "▁barbaada",
        -9.165480850535419
      ],
      [
        "mi",
        -9.166180240199619
      ],
      [
        "and",
        -9.166573763930549
      ],
      [
        "iitiin",
        -9.167705201806937
      ],
      [
        "▁Saan",
        -9.168920016801701
      ],
      [
        "eenya",
        -9.169380959050782
      ],
      [
        "amb",
        -9.171141796874565
      ],
      [
        "▁ilaali",
        -9.17306716560108
      ],
      [
        "caa",
        -9.173228431367393
      ],
      [
        "▁erg",
        -9.177084060276847
      ],
      [
        "▁Hin",
        -9.177432196341837
      ],
      [
        "▁198",
        -9.17856330098722
      ],
      [
        "▁Imalto",
        -9.179367005432438
      ],
      [
        "baratamaa",
        -9.18140914279982
      ],
      [
        "▁to’a",
        -9.182196262703899
      ],
      [
        "▁ayyaan",
        -9.182668384824103
      ],
      [
        "▁tuu",
        -9.18478702124495
      ],
      [
        "▁mal",
        -9.185050451710344
      ],
      [
        "ver",
        -9.185542469771562
      ],
      [
        "nsaa",
        -9.18963783910478
      ],
      [
        "▁Room",
        -9.19033533967334
      ],
      [
        "▁gabaafame",
        -9.190663780985027
      ],
      [
        "▁Maa",
        -9.190757094715753
      ],
      [
        "▁dhug",
        -9.193716542838644
      ],
      [
        "tudha.",
        -9.195589640719135
      ],
      [
        "yuu",
        -9.199108612415406
      ],
      [
        "▁sh",
        -9.200021841309288
      ],
      [
        "▁tokk",
        -9.20017895202647
      ],
      [
        "▁kaa",
        -9.20031978494172
      ],
      [
        "▁Taat",
        -9.200813550079479
      ],
      [
        "▁kallatti",
        -9.204875023621085
      ],
      [
        "tan",
        -9.205140897995003
      ],
      [
        "▁q",
        -9.205195638250459
      ],
      [
        "os",
        -9.205307824129736
      ],
      [
        "a’umsa",
        -9.205741049992819
      ],
      [
        "chuun",
        -9.205847783929812
      ],
      [
        "▁So",
        -9.207453115688445
      ],
      [
        "pp",
        -9.208409438431811
      ],
      [
        "▁Lee",
        -9.209076993328912
      ],
      [
        "▁fiduu",
        -9.21110641127567
      ],
      [
        "▁ji’a",
        -9.211168418389336
      ],
      [
        "▁taphatt",
        -9.211963320344484
      ],
      [
        "▁qopheess",
        -9.21212393736883
      ],
      [
        "▁na",
        -9.213556629288856
      ],
      [
        "▁hirmaa",
        -9.214975457607315
      ],
      [
        "▁50",
        -9.21513400977301
      ],
      [
        "udhaaf",
        -9.21529396230001
      ],
      [
        "▁Wara",
        -9.217129999714878
      ],
      [
        "kaal",
        -9.218848409029667
      ],
      [
        "ootaa",
        -9.219230929215868
      ],
      [
        "▁teesso",
        -9.21927695299322
      ],
      [
        "▁ibsu",
        -9.219901440212867
      ],
      [
        "stii",
        -9.22004452777763
      ],
      [
        "▁maraa",
        -9.220774338733221
      ],
      [
        "ellee",
        -9.220921117961453
      ],
      [
        "yyu",
        -9.221456784477047
      ],
      [
        "▁filata",
        -9.223710132182587
      ],
      [
        "a”",
        -9.225071337130254
      ],
      [
        "▁gaafat",
        -9.230973459592498
      ],
      [
        "bii",
        -9.231606062860635
      ],
      [
        "▁qof",
        -9.234658387188748
      ],
      [
        "ler",
        -9.234700339483943
      ],
      [
        "▁weerar",
        -9.23633065798495
      ],
      [
        "▁buusa",
        -9.236990650928773
      ],
      [
        "to",
        -9.237332415863166
      ],
      [
        "me",
        -9.24114986995032
      ],
      [
        "▁to’ata",
        -9.243636291941808
      ],
      [
        "v",
        -9.24547460011829
      ],
      [
        "▁ijaar",
        -9.249613122280028
      ],
      [
        "▁Faransaayi",
        -9.249613651285241
      ],
      [
        "▁Lii",
        -9.252781778846513
      ],
      [
        "oolessa",
        -9.253135720760405
      ],
      [
        "▁himata",
        -9.257814261987395
      ],
      [
        "▁v",
        -9.25826586002362
      ],
      [
        "ru",
        -9.259642468005618
      ],
      [
        "▁xiqq",
        -9.260721897079407
      ],
      [
        "ab",
        -9.263977773471263
      ],
      [
        "alaa",
        -9.265053538902654
      ],
      [
        "▁dorgoma",
        -9.265436713917005
      ],
      [
        "nitti",
        -9.2656464514903
      ],
      [
        "▁ka’",
        -9.266862717621843
      ],
      [
        "▁z",
        -9.26737036645788
      ],
      [
        "▁baasa",
        -9.267418786671769
      ],
      [
        "mba",
        -9.267504001683248
      ],
      [
        "▁dabalame",
        -9.268472014550422
      ],
      [
        "aara",
        -9.273752499217283
      ],
      [
        "▁makiin",
        -9.277347833437851
      ],
      [
        "▁xumura",
        -9.278191295884024
      ],
      [
        "▁galaan",
        -9.279848886232795
      ],
      [
        "yem",
        -9.280127680208032
      ],
      [
        "▁ish",
        -9.28161446953077
      ],
      [
        "▁dhiy",
        -9.281740840307847
      ],
      [
        "▁gaaf",
        -9.281823176734282
      ],
      [
        "aatiin",
        -9.285756046299435
      ],
      [
        "a-",
        -9.28580934754505
      ],
      [
        "dhiisee",
        -9.28621857980298
      ],
      [
        "▁kanne",
        -9.288244839989353
      ],
      [
        "ool",
        -9.29069926602152
      ],
      [
        "▁Aari",
        -9.290816939813736
      ],
      [
        "▁konkolaata",
        -9.29151863941345
      ],
      [
        "▁agarsiisan",
        -9.291601291737479
      ],
      [
        "▁guddat",
        -9.292077598838873
      ],
      [
        "▁turte",
        -9.292218698408707
      ],
      [
        "▁cab",
        -9.293123058413796
      ],
      [
        "▁gabaasa",
        -9.296998089095005
      ],
      [
        "ll",
        -9.299167405175645
      ],
      [
        "loo",
        -9.299437568809738
      ],
      [
        "uudhaaf",
        -9.29960452822795
      ],
      [
        "▁but",
        -9.300085549516709
      ],
      [
        "▁Xiyyaar",
        -9.300257122172514
      ],
      [
        "ter",
        -9.300989602989311
      ],
      [
        "mo",
        -9.30149862605132
      ],
      [
        "mmoo",
        -9.302373688262886
      ],
      [
        "eeffachuuf",
        -9.30238927354684
      ],
      [
        "dal",
        -9.304505926753047
      ],
      [
        "I",
        -9.304740602617343
      ],
      [
        "▁mur",
        -9.305096985497412
      ],
      [
        "▁mormi",
        -9.305492981707832
      ],
      [
        "ph",
        -9.30560601559788
      ],
      [
        "faa",
        -9.30929095813876
      ],
      [
        "▁baasu",
        -9.309883923180788
      ],
      [
        "▁murteess",
        -9.31005290931964
      ],
      [
        "▁See",
        -9.310058517133063
      ],
      [
        "▁Mar",
        -9.310789352630465
      ],
      [
        "▁Yaada",
        -9.311023363957624
      ],
      [
        "▁qind",
        -9.313701341678764
      ],
      [
        "dri",
        -9.315012851097666
      ],
      [
        "▁heer",
        -9.317006547637657
      ],
      [
        "latan",
        -9.317456854918387
      ],
      [
        "▁guyya",
        -9.32005818815042
      ],
      [
        "dha”",
        -9.32233707983418
      ],
      [
        "ixee",
        -9.322493676835533
      ],
      [
        "▁qabaachu",
        -9.324958834721919
      ],
      [
        "ngii",
        -9.327414291931987
      ],
      [
        "▁beekama",
        -9.327722660038265
      ],
      [
        "▁guyyaan",
        -9.327995652131817
      ],
      [
        "▁dhiha",
        -9.329257433802642
      ],
      [
        "▁Si",
        -9.332100887230277
      ],
      [
        "▁gagg",
        -9.332483032582925
      ],
      [
        "▁hafee",
        -9.335011044475934
      ],
      [
        "▁Kibba",
        -9.336057467134264
      ],
      [
        "▁bosona",
        -9.336736124144936
      ],
      [
        "shee",
        -9.337522778281008
      ],
      [
        "▁fuul",
        -9.3380526660246
      ],
      [
        "▁lag",
        -9.33862106619498
      ],
      [
        "keessatti",
        -9.339135455920884
      ],
      [
        "▁godhu",
        -9.33946833013289
      ],
      [
        "rdii",
        -9.339642136221176
      ],
      [
        "▁yaal",
        -9.343073145198952
      ],
      [
        "ttoota",
        -9.343641346052976
      ],
      [
        "▁godaa",
        -9.34399732434262
      ],
      [
        "poor",
        -9.34492734611147
      ],
      [
        "▁n",
        -9.346803250067607
      ],
      [
        "amanii",
        -9.347185084312791
      ],
      [
        "▁Arkit",
        -9.347290638499869
      ],
      [
        "▁hir",
        -9.347346709362286
      ],
      [
        "arii",
        -9.347452490966575
      ],
      [
        "oolaa",
        -9.347863016925213
      ],
      [
        "alii",
        -9.348184732714078
      ],
      [
        "▁qabd",
        -9.348896058756873
      ],
      [
        "▁heddu",
        -9.34914656320415
      ],
      [
        "▁adeem",
        -9.35061311337774
      ],
      [
        "dichaa",
        -9.350957160997234
      ],
      [
        "▁Naa",
        -9.350966609828312
      ],
      [
        "▁al",
        -9.3531528525696
      ],
      [
        "▁jedha",
        -9.354938147777611
      ],
      [
        "nama",
        -9.355215012539007
      ],
      [
        "V",
        -9.355243666150088
      ],
      [
        "gar",
        -9.356685789745455
      ],
      [
        "▁Beer",
        -9.356932154130014
      ],
      [
        "▁du’e",
        -9.357044844515455
      ],
      [
        "ajjii",
        -9.359657609156057
      ],
      [
        "E",
        -9.35973143594029
      ],
      [
        "dhii",
        -9.360395553112653
      ],
      [
        "yaal",
        -9.360468387878054
      ],
      [
        "▁mul’at",
        -9.360974778799864
      ],
      [
        "qee",
        -9.36158854001945
      ],
      [
        "▁isaaf",
        -9.36340638045892
      ],
      [
        "▁hi",
        -9.364046331093265
      ],
      [
        "harii",
        -9.36444326836976
      ],
      [
        "▁hubam",
        -9.36460413121364
      ],
      [
        "▁Boo",
        -9.364970714198803
      ],
      [
        "▁dabal",
        -9.365245689911582
      ],
      [
        "▁ilaalch",
        -9.366495273788452
      ],
      [
        "isuuf",
        -9.367203152543457
      ],
      [
        "▁Gabaa",
        -9.367713938099904
      ],
      [
        "qa",
        -9.36820859046287
      ],
      [
        "0)",
        -9.368376800325047
      ],
      [
        "▁ban",
        -9.368749700074767
      ],
      [
        "a’iinsa",
        -9.369603293180589
      ],
      [
        "▁faal",
        -9.371710108479023
      ],
      [
        "nis",
        -9.372002855601721
      ],
      [
        "doonii",
        -9.372170654968151
      ],
      [
        "▁baasuu",
        -9.372582074147559
      ],
      [
        "a’aan",
        -9.373131154547321
      ],
      [
        "▁Bil",
        -9.374689975758056
      ],
      [
        "▁cabbi",
        -9.375354132139803
      ],
      [
        "▁Agarsiis",
        -9.376352220341852
      ],
      [
        "▁ya",
        -9.377272782108774
      ],
      [
        "▁hir’is",
        -9.377565609275612
      ],
      [
        "sha",
        -9.380012649432633
      ],
      [
        "le",
        -9.380459324253813
      ],
      [
        "▁nii",
        -9.380478614068707
      ],
      [
        "▁kanaafu",
        -9.381137136589365
      ],
      [
        "▁jedh",
        -9.381704557445575
      ],
      [
        "xii",
        -9.383886124734211
      ],
      [
        "rich",
        -9.384280523361907
      ],
      [
        "u;",
        -9.384578390588457
      ],
      [
        "▁dorgo",
        -9.38647191896717
      ],
      [
        "porti",
        -9.38727201058943
      ],
      [
        "▁fidu",
        -9.387351510979764
      ],
      [
        "▁Yu",
        -9.387413022909579
      ],
      [
        "ntaa",
        -9.387628356256437
      ],
      [
        "▁wayi",
        -9.388579908578503
      ],
      [
        "eel",
        -9.388586190242911
      ],
      [
        "nkol",
        -9.389340901620734
      ],
      [
        "▁geggeeffam",
        -9.390752006731265
      ],
      [
        "▁og",
        -9.391268304314767
      ],
      [
        "wa",
        -9.391515388711532
      ],
      [
        "gaafat",
        -9.391774371708525
      ],
      [
        "iya",
        -9.392469224817965
      ],
      [
        "eesse",
        -9.393039192531624
      ],
      [
        "beek",
        -9.393457786515903
      ],
      [
        "▁Akkasuma",
        -9.393543510935991
      ],
      [
        "▁ki",
        -9.394081709352157
      ],
      [
        "▁rakk",
        -9.395472905751618
      ],
      [
        "▁40",
        -9.396014774282374
      ],
      [
        "▁hundaa’",
        -9.396642674696073
      ],
      [
        "eenyaa",
        -9.39748987614561
      ],
      [
        "▁qood",
        -9.398028494306445
      ],
      [
        "▁Bir",
        -9.398192071269174
      ],
      [
        "aappaan",
        -9.398399471239816
      ],
      [
        "ooyya’",
        -9.398808612747644
      ],
      [
        "▁ulfa",
        -9.398985808064722
      ],
      [
        "▁Lafa",
        -9.399460727970794
      ],
      [
        "▁Piraazidant",
        -9.399641586467368
      ],
      [
        "▁bebbeekamoo",
        -9.399641586468675
      ],
      [
        "▁Pireezidantii",
        -9.399641586471624
      ],
      [
        "▁jibbisiisaa",
        -9.399641586501149
      ],
      [
        "▁Kopenhagen",
        -9.399641586506128
      ],
      [
        "archipelago",
        -9.399641586506128
      ],
      [
        "▁COVID-19",
        -9.399641586506128
      ],
      [
        "▁Geejjib",
        -9.399641586545659
      ],
      [
        "▁A1GP",
        -9.399641586606512
      ],
      [
        "▁Serengeti",
        -9.399641586641897
      ],
      [
        "▁pireezidaant",
        -9.399641586707219
      ],
      [
        "▁dinqisiis",
        -9.399641586745316
      ],
      [
        "▁caccab",
        -9.399641586846501
      ],
      [
        "▁piraamiid",
        -9.399641587428079
      ],
      [
        "▁saayintistoo",
        -9.399641587539088
      ],
      [
        "▁Olompiikii",
        -9.39964158798444
      ],
      [
        "evizhinii",
        -9.399641588422188
      ],
      [
        "▁shukkaara",
        -9.399641588892816
      ],
      [
        "H5N1",
        -9.399641589994975
      ],
      [
        "▁walqabatan",
        -9.399641592156293
      ],
      [
        "▁Biraazarii",
        -9.39964159249551
      ],
      [
        "▁daangeffama",
        -9.399641593743699
      ],
      [
        "▁Istaanbul",
        -9.399641594055986
      ],
      [
        "▁tirooppik",
        -9.399641594909236
      ],
      [
        "▁tikkeettii",
        -9.399641596407701
      ],
      [
        "▁balaqqeessa",
        -9.39964159864755
      ],
      [
        "▁Dizaayin",
        -9.399641600090257
      ],
      [
        "▁Filooriidaa",
        -9.399641603620195
      ],
      [
        "▁shaampiyoon",
        -9.399641617632051
      ],
      [
        "▁Istiwaarti",
        -9.399641617914819
      ],
      [
        "terisbergi",
        -9.399641629596339
      ],
      [
        "▁Vaankoover",
        -9.399641638513911
      ],
      [
        "▁soddoma",
        -9.399641660906841
      ],
      [
        "▁Armeeniyaa",
        -9.399641661844582
      ],
      [
        "▁4x4",
        -9.399641668189322
      ],
      [
        "▁dhukubsat",
        -9.399641672432503
      ],
      [
        "▁fayadama",
        -9.39964167253041
      ],
      [
        "▁degger",
        -9.399641695275482
      ],
      [
        "▁saaxil",
        -9.399641695625093
      ],
      [
        "▁karoorfatan",
        -9.399641697920769
      ],
      [
        "▁muddamaa",
        -9.399641698494186
      ],
      [
        "▁Fernaand",
        -9.39964174996069
      ],
      [
        "▁sassaab",
        -9.399641751437096
      ],
      [
        "▁Jiimnastikii",
        -9.399641758413553
      ],
      [
        "▁intarneetii",
        -9.399641763538115
      ],
      [
        "▁Israa’eli",
        -9.399641769745811
      ],
      [
        "oorlidi",
        -9.399641813930149
      ],
      [
        "▁muldhatan",
        -9.399641834963807
      ],
      [
        "blikaanii",
        -9.399641907229242
      ],
      [
        "▁bhajan",
        -9.399641921508584
      ],
      [
        "▁walfakaatu",
        -9.399641928805334
      ],
      [
        "▁raabsuu",
        -9.399642009204992
      ],
      [
        "▁imaammata",
        -9.39964203911185
      ],
      [
        "▁mirkaneeffam",
        -9.399642065746086
      ],
      [
        "▁Oddol",
        -9.399642111420746
      ],
      [
        "rukuta",
        -9.399642127434674
      ],
      [
        "Baaltik",
        -9.399642271787798
      ],
      [
        "▁suuqiiwwa",
        -9.399642369193076
      ],
      [
        "▁Barreeffam",
        -9.399642372118887
      ],
      [
        "▁shipich",
        -9.399642614432288
      ],
      [
        "raareedii",
        -9.399642617521323
      ],
      [
        "▁diippilo",
        -9.399642619273978
      ],
      [
        "▁qaala’aa",
        -9.399642660403435
      ],
      [
        "▁Gurracha",
        -9.399642842164747
      ],
      [
        "▁lubbu",
        -9.399642990968347
      ],
      [
        "▁moggaa",
        -9.399643099930861
      ],
      [
        "▁uwwi",
        -9.399643378481107
      ],
      [
        "▁dhibbeentaa",
        -9.399643871034666
      ],
      [
        "▁Hundaa",
        -9.399644227982185
      ],
      [
        "▁Sulul",
        -9.399644376916438
      ],
      [
        "▁daa’ima",
        -9.399644887698367
      ],
      [
        "▁beeksifam",
        -9.399645219567798
      ],
      [
        "Teeksaas",
        -9.399645357594649
      ],
      [
        "NBA",
        -9.399645785634632
      ],
      [
        "▁kayak",
        -9.399645948876469
      ],
      [
        "▁Paasifi",
        -9.399646814559098
      ],
      [
        "▁dookum",
        -9.39964688004266
      ],
      [
        "▁Aloonsoo",
        -9.399647247671988
      ],
      [
        "▁Filaagi",
        -9.399647654676928
      ],
      [
        "▁jijir",
        -9.39964803377676
      ],
      [
        "▁Baabur",
        -9.399648917657732
      ],
      [
        "▁Gurraach",
        -9.399649073316008
      ],
      [
        "▁Renboo",
        -9.399649243155553
      ],
      [
        "▁magariis",
        -9.39964925176863
      ],
      [
        "▁\"Go",
        -9.399649553696607
      ],
      [
        "▁Tookiyoo",
        -9.39964983812959
      ],
      [
        "fakkeenyaaf",
        -9.399650870500695
      ],
      [
        "▁hootel",
        -9.399650964683424
      ],
      [
        "▁socho’",
        -9.399651781958738
      ],
      [
        "▁argisiis",
        -9.399652364618959
      ],
      [
        "▁Walta’iins",
        -9.399652811580761
      ],
      [
        "▁Bulgaari",
        -9.399654694661898
      ],
      [
        "▁Fiinlaandi",
        -9.399655735551761
      ],
      [
        "▁giraafitii",
        -9.399656901600043
      ],
      [
        "▁saaphanaa",
        -9.399659652475972
      ],
      [
        "▁mirkaan",
        -9.399661251856262
      ],
      [
        "▁Kaampa",
        -9.399664874289293
      ],
      [
        "▁Filiipp",
        -9.399665002015164
      ],
      [
        "dunyaa",
        -9.39966567680639
      ],
      [
        "▁tarkaanf",
        -9.399665725376273
      ],
      [
        "▁Haawaardi",
        -9.399666667174301
      ],
      [
        "▁firoottan",
        -9.399671117888968
      ],
      [
        "▁utaal",
        -9.399672323181488
      ],
      [
        "a-Gu",
        -9.399675317294028
      ],
      [
        "▁Disnii",
        -9.399676013129355
      ],
      [
        "▁Harbar",
        -9.399678141708312
      ],
      [
        "▁jabeeffa",
        -9.399681254939015
      ],
      [
        "▁shaayii",
        -9.399685131536756
      ],
      [
        "mpaayer",
        -9.399685565394922
      ],
      [
        "▁Waashingitan",
        -9.399687014328714
      ],
      [
        "▁Ayiisla",
        -9.39969315844402
      ],
      [
        "tiroosko",
        -9.399701922848994
      ],
      [
        "▁Sabab",
        -9.399704107081156
      ],
      [
        "▁dhaga’am",
        -9.399705411444868
      ],
      [
        "▁gad-dhii",
        -9.399706667486743
      ],
      [
        "▁oddoloa",
        -9.399706919342675
      ],
      [
        "▁makame",
        -9.399722848490317
      ],
      [
        "▁Boobeek",
        -9.399728387284261
      ],
      [
        "▁Buush",
        -9.39973346943102
      ],
      [
        "▁eeggann",
        -9.399734014860199
      ],
      [
        "▁baay'ee",
        -9.399738219396154
      ],
      [
        "▁qabiyyee",
        -9.399743499539333
      ],
      [
        "▁uffat",
        -9.399747785772258
      ],
      [
        "Buufata",
        -9.399750169173114
      ],
      [
        "▁suph",
        -9.399754405532354
      ],
      [
        "▁Kunuunsa",
        -9.399754874069266
      ],
      [
        "▁Tuqaa",
        -9.399783444910542
      ],
      [
        "▁Huh",
        -9.399793595080494
      ],
      [
        "▁mudatee",
        -9.39979464940151
      ],
      [
        "▁televiziyoona",
        -9.399798485509839
      ],
      [
        "▁hanq",
        -9.399802217401202
      ],
      [
        "▁badhaas",
        -9.39980292059325
      ],
      [
        "▁Dhukkubsat",
        -9.399809641624882
      ],
      [
        "▁yuuniva",
        -9.399810537406253
      ],
      [
        "▁roobaa",
        -9.399814825322132
      ],
      [
        "▁1979",
        -9.399821674092644
      ],
      [
        "inqabnee",
        -9.399823816809473
      ],
      [
        "▁saayins",
        -9.39983543652128
      ],
      [
        "▁qajeelfam",
        -9.399836270287956
      ],
      [
        "▁Oove",
        -9.399839129018412
      ],
      [
        "▁atileetota",
        -9.399843223812267
      ],
      [
        "▁dhabdee",
        -9.399852098976908
      ],
      [
        "▁bilch",
        -9.39985781585947
      ],
      [
        "▁akeeke",
        -9.399861334385163
      ],
      [
        "▁Ji’aa",
        -9.399877750868377
      ],
      [
        "▁Karoor",
        -9.399881592844064
      ],
      [
        "▁Inc",
        -9.39988500771069
      ],
      [
        "▁muumm",
        -9.399887871458114
      ],
      [
        "▁Humn",
        -9.39989595245003
      ],
      [
        "▁Saayinti",
        -9.399903767122217
      ],
      [
        "▁maxxanfam",
        -9.399905654754642
      ],
      [
        "▁2020",
        -9.399909213607936
      ],
      [
        "▁umrii",
        -9.39991310604189
      ],
      [
        "▁affeer",
        -9.399934509765243
      ],
      [
        "▁mucucaatanii",
        -9.399953595038218
      ],
      [
        "▁qophaa’",
        -9.399965074520116
      ],
      [
        "▁heerum",
        -9.399969793170513
      ],
      [
        "▁Haayitii",
        -9.39997025060557
      ],
      [
        "▁qo’a",
        -9.400006354224717
      ],
      [
        "▁pirezidaant",
        -9.40001460203097
      ],
      [
        "▁Deevii",
        -9.400015999352357
      ],
      [
        "▁naannessu",
        -9.400020028532705
      ],
      [
        "▁qisaasu",
        -9.400036391841487
      ],
      [
        "▁Naavii",
        -9.40004865585985
      ],
      [
        "▁bookee",
        -9.400060393673353
      ],
      [
        "▁hirriba",
        -9.400060491699843
      ],
      [
        "SW",
        -9.400085799586737
      ],
      [
        "▁Del",
        -9.400094412143712
      ],
      [
        "▁seera-qabeess",
        -9.400095648719823
      ],
      [
        "▁199",
        -9.400097036585457
      ],
      [
        "▁Guutuu",
        -9.400101886609292
      ],
      [
        "▁taagii",
        -9.400116072950134
      ],
      [
        "▁Diiv",
        -9.400140455865275
      ],
      [
        "▁11:",
        -9.400144837406689
      ],
      [
        "▁Gran",
        -9.400149062649133
      ],
      [
        "▁Taaksii",
        -9.400149575466894
      ],
      [
        "▁Tuuriizimii",
        -9.400155005337275
      ],
      [
        "▁Sagalee",
        -9.400166711229677
      ],
      [
        "▁hirmaatto",
        -9.400227422742233
      ],
      [
        "▁galmeesis",
        -9.400232344650508
      ],
      [
        "aachisummaa",
        -9.400235424904393
      ],
      [
        "▁Murt",
        -9.400247289696953
      ],
      [
        "seelo",
        -9.400253498928674
      ],
      [
        "▁qeeq",
        -9.400257204662912
      ],
      [
        "▁mux",
        -9.400266193156932
      ],
      [
        "▁daddarb",
        -9.400272087763682
      ],
      [
        "dammaq",
        -9.400281288894192
      ],
      [
        "▁cittuu",
        -9.400284547163512
      ],
      [
        "▁xiyyeeffate",
        -9.400294116769233
      ],
      [
        "▁ulfaata",
        -9.400308542262504
      ],
      [
        "irooyin",
        -9.40030920405762
      ],
      [
        "▁maxxans",
        -9.400359076033896
      ],
      [
        "▁dhiph",
        -9.400366829871004
      ],
      [
        "▁“Ma",
        -9.400390729855715
      ],
      [
        "▁dhaabbilee",
        -9.400391261418415
      ],
      [
        "▁Kooriyaa",
        -9.400503843465584
      ],
      [
        "▁sa’a",
        -9.40053688599937
      ],
      [
        "ATA",
        -9.400554142073226
      ],
      [
        "▁fooyya’",
        -9.400555723917035
      ],
      [
        "▁hiriir",
        -9.40057040492953
      ],
      [
        "▁kafal",
        -9.40057531190616
      ],
      [
        "▁Daangaa",
        -9.400577005292753
      ],
      [
        "▁sirbitoota",
        -9.400607754786371
      ],
      [
        "▁Tiraay",
        -9.40062613942372
      ],
      [
        "▁Niik",
        -9.400661884733456
      ],
      [
        "▁dhihaate",
        -9.400673410127858
      ],
      [
        "▁alaabaa",
        -9.400803926885999
      ],
      [
        "oloony",
        -9.400837880058544
      ],
      [
        "▁raawwat",
        -9.40085232212121
      ],
      [
        "▁Paarlaa",
        -9.400863044799374
      ],
      [
        "▁Lafti",
        -9.40086910364775
      ],
      [
        "▁mi’aa",
        -9.40087849689258
      ],
      [
        "▁Tiraans",
        -9.400891897194132
      ],
      [
        "pane",
        -9.400902194987736
      ],
      [
        "▁jiraatte",
        -9.40099013983661
      ],
      [
        "250",
        -9.401025955247452
      ],
      [
        "▁dhiyaattee",
        -9.401034828701711
      ],
      [
        "▁53",
        -9.401156629468783
      ],
      [
        "▁shanaffa",
        -9.401179849195524
      ],
      [
        "▁Mormi",
        -9.40118732105236
      ],
      [
        "sadaffaa",
        -9.40120297992499
      ],
      [
        "▁wal’aansoo",
        -9.401206281606155
      ],
      [
        "inxalaa",
        -9.401228912663342
      ],
      [
        "goro",
        -9.401244091461885
      ],
      [
        "▁suuraa",
        -9.401283987885286
      ],
      [
        "▁Naayi",
        -9.401305523400058
      ],
      [
        "▁herre",
        -9.401413388158234
      ],
      [
        "▁geejiba",
        -9.401478200262908
      ],
      [
        "oofne",
        -9.401512917558055
      ],
      [
        "irooshiyaa",
        -9.401537956143644
      ],
      [
        "▁haarom",
        -9.401539802354177
      ],
      [
        "▁hojiisaanii",
        -9.401551453324286
      ],
      [
        "▁soor",
        -9.401611331202336
      ],
      [
        "▁gaggeeffamu",
        -9.401616555635627
      ],
      [
        "▁isp",
        -9.401707625041137
      ],
      [
        "▁boha",
        -9.40175444260921
      ],
      [
        "▁marfam",
        -9.401774107415504
      ],
      [
        "▁qoodam",
        -9.401795532899966
      ],
      [
        "▁2010",
        -9.40179648357894
      ],
      [
        "▁Siks",
        -9.401861912820387
      ],
      [
        "teel",
        -9.402023709574111
      ],
      [
        "▁dheerina",
        -9.402087765860193
      ],
      [
        "▁qabeessa",
        -9.402103663222734
      ],
      [
        "▁Meeshaalee",
        -9.40210699210848
      ],
      [
        "mucu",
        -9.402149534088373
      ],
      [
        "▁aantee",
        -9.402156963987888
      ],
      [
        "▁Suul",
        -9.402181897799258
      ],
      [
        "▁walga",
        -9.402218374355444
      ],
      [
        "▁Lafarra",
        -9.402274772202047
      ],
      [
        "aappit",
        -9.402282607337945
      ],
      [
        "468",
        -9.402317529963662
      ],
      [
        "▁darza",
        -9.402325340713285
      ],
      [
        "▁Daw",
        -9.402325724229508
      ],
      [
        "4-1",
        -9.40232666108533
      ],
      [
        "▁Miidhaa",
        -9.402363111818817
      ],
      [
        "▁baqa",
        -9.402609263160151
      ],
      [
        "▁mork",
        -9.402779092793995
      ],
      [
        "▁muud",
        -9.402865604596157
      ],
      [
        "▁Tuurki",
        -9.40286594969708
      ],
      [
        "▁qaaww",
        -9.40308615255114
      ],
      [
        "▁fard",
        -9.40317690429563
      ],
      [
        "▁talaallii",
        -9.403193869187888
      ],
      [
        "▁Dhiyee",
        -9.40329147400692
      ],
      [
        "▁dubbata",
        -9.40333405499953
      ],
      [
        "▁Gudd",
        -9.403482090924914
      ],
      [
        "▁sabab",
        -9.403561280143157
      ],
      [
        "▁dorgommi",
        -9.403586214927705
      ],
      [
        "▁gad-",
        -9.40363274300175
      ],
      [
        "ooltot",
        -9.40366281183201
      ],
      [
        "▁inf",
        -9.403746735614135
      ],
      [
        "▁gutuu",
        -9.403785270289816
      ],
      [
        "▁gahaa",
        -9.403810782990199
      ],
      [
        "▁biqiloota",
        -9.403906610685283
      ],
      [
        "▁busaa",
        -9.403916385984768
      ],
      [
        "▁Hawaa",
        -9.40393676667863
      ],
      [
        "siyaasa",
        -9.404109036506945
      ],
      [
        "▁ciisicha",
        -9.40411504319411
      ],
      [
        "▁gamoowwan",
        -9.404493048814082
      ],
      [
        "▁(U",
        -9.40457171589344
      ],
      [
        "▁dheeratee",
        -9.404584276569322
      ],
      [
        "▁xumuramee",
        -9.404703407732812
      ],
      [
        "astikii",
        -9.404707189631877
      ],
      [
        "▁hundaa’a",
        -9.404811625781974
      ],
      [
        "▁buusu",
        -9.4049326393449
      ],
      [
        "▁diina",
        -9.405048332331862
      ],
      [
        "▁godhatani",
        -9.405052986878577
      ],
      [
        "▁guguddoon",
        -9.405124548498247
      ],
      [
        "▁daawwattoota",
        -9.405139663114317
      ],
      [
        "▁ergaman",
        -9.40515845705161
      ],
      [
        "▁gommaa",
        -9.405377325832937
      ],
      [
        "▁AC",
        -9.405410410729116
      ],
      [
        "▁Osoo",
        -9.40544042569492
      ],
      [
        "▁Firaan",
        -9.405490622140372
      ],
      [
        "▁bal’ina",
        -9.405584715459357
      ],
      [
        "▁hedduudhaaf",
        -9.405617349173204
      ],
      [
        "▁Istoo",
        -9.405708805449013
      ],
      [
        "▁Namoo",
        -9.405785709528137
      ],
      [
        "▁marfa",
        -9.405887279967562
      ],
      [
        "▁Isk",
        -9.405917456593539
      ],
      [
        "▁Qor",
        -9.405980020616338
      ],
      [
        "▁darbu",
        -9.405991328626316
      ],
      [
        "▁gala",
        -9.406010367534279
      ],
      [
        "▁dhagoot",
        -9.406083180198785
      ],
      [
        "qama",
        -9.406157996479985
      ],
      [
        "▁Heek",
        -9.406280212126813
      ],
      [
        "▁dursee",
        -9.406468716642047
      ],
      [
        "▁qaroo",
        -9.406492724277824
      ],
      [
        "▁fayyadamtu",
        -9.406580737722003
      ],
      [
        "Angoolaa",
        -9.406626130287842
      ],
      [
        "▁kaartaa",
        -9.406698127171273
      ],
      [
        "▁uumamaatti",
        -9.406734607142592
      ],
      [
        "▁parsa",
        -9.406755920824585
      ],
      [
        "▁makaa",
        -9.40686714580984
      ],
      [
        "▁qubachuu",
        -9.40693146170372
      ],
      [
        "▁artii",
        -9.407056746715863
      ],
      [
        "isummaa",
        -9.407296794155306
      ],
      [
        "▁Bineenso",
        -9.40748136574358
      ],
      [
        "▁dubbachuudhaa",
        -9.407552303599877
      ],
      [
        "▁jiraate",
        -9.407781710383357
      ],
      [
        "▁shakkam",
        -9.407817869748483
      ],
      [
        "metir",
        -9.407907458658991
      ],
      [
        "▁badee",
        -9.407915430614933
      ],
      [
        "▁Faalu",
        -9.407963543084495
      ],
      [
        "▁seerot",
        -9.408142842662853
      ],
      [
        "▁Mo",
        -9.40840478582201
      ],
      [
        "car",
        -9.408951231212198
      ],
      [
        "▁Siny",
        -9.408969497239918
      ],
      [
        "▁dhibam",
        -9.40915622433478
      ],
      [
        "ppaan",
        -9.4091884342914
      ],
      [
        "liyaa",
        -9.40921733224886
      ],
      [
        "▁kaadhimam",
        -9.409590381962582
      ],
      [
        "▁homa",
        -9.409610287533908
      ],
      [
        "▁Ejan",
        -9.409700426198153
      ],
      [
        "it",
        -9.409739839899535
      ],
      [
        "serv",
        -9.409823304686919
      ],
      [
        "▁Er",
        -9.409921008489235
      ],
      [
        "▁Ayyaan",
        -9.410127571302265
      ],
      [
        "▁mo’ate",
        -9.410141984115654
      ],
      [
        "usaale",
        -9.410146025438728
      ],
      [
        "▁haroowwan",
        -9.410180495588694
      ],
      [
        "▁fiig",
        -9.410183368160197
      ],
      [
        "▁Konkolaa",
        -9.410212174811724
      ],
      [
        "▁madaal",
        -9.410236583699946
      ],
      [
        "▁Atilaantikiin",
        -9.410236632096026
      ],
      [
        "▁Yooma",
        -9.410332355865027
      ],
      [
        "▁agar",
        -9.410341007191732
      ],
      [
        "▁deebi’ee",
        -9.410345842168034
      ],
      [
        "▁Baandi",
        -9.41044021563224
      ],
      [
        "▁Obo",
        -9.410490408996456
      ],
      [
        "▁biyyi",
        -9.410643535689612
      ],
      [
        "▁kaffaltii",
        -9.410712859153197
      ],
      [
        "▁Sada",
        -9.41073386885397
      ],
      [
        "▁walmadaalchi",
        -9.410998699224832
      ],
      [
        "76",
        -9.411091228774879
      ],
      [
        "▁Tiraa",
        -9.411400011957015
      ],
      [
        "▁Sir",
        -9.411564214676694
      ],
      [
        "▁biyyoot",
        -9.41164374963734
      ],
      [
        "▁gurguddoo",
        -9.411828786500255
      ],
      [
        "▁Giriik",
        -9.412297348143015
      ],
      [
        "▁Dhi",
        -9.41247111626286
      ],
      [
        "-gad",
        -9.413012925585278
      ],
      [
        "aamame",
        -9.413085625233718
      ],
      [
        "▁wayya",
        -9.413131767326808
      ],
      [
        "▁bu’uun",
        -9.413629105988905
      ],
      [
        "qubann",
        -9.41370725276024
      ],
      [
        "▁dar",
        -9.413818245929262
      ],
      [
        "▁xumuru",
        -9.413883463788547
      ],
      [
        "biin",
        -9.41406143025351
      ],
      [
        "▁tarree",
        -9.414448271611029
      ],
      [
        "▁oolu",
        -9.414577898520136
      ],
      [
        "qicha",
        -9.414579955146456
      ],
      [
        "▁xi",
        -9.41469031265027
      ],
      [
        "▁kumaatama",
        -9.414993220378026
      ],
      [
        "▁qorat",
        -9.415026510625081
      ],
      [
        "▁Tuursi",
        -9.415118062573745
      ],
      [
        "▁quunnam",
        -9.415485921778041
      ],
      [
        "▁ammayyu",
        -9.415678432259158
      ],
      [
        "▁isheeti",
        -9.416222735459664
      ],
      [
        "▁Birii",
        -9.416225072748935
      ],
      [
        "▁Lo",
        -9.416502138502818
      ],
      [
        "▁hinjir",
        -9.416511831799202
      ],
      [
        "▁rafuu",
        -9.41690605324717
      ],
      [
        "▁daawwach",
        -9.416917072190714
      ],
      [
        "▁fid",
        -9.417280323571411
      ],
      [
        "▁fudhachuu",
        -9.417386170034195
      ],
      [
        "▁hoteelot",
        -9.417706299755409
      ],
      [
        "▁Abaa",
        -9.417799357016273
      ],
      [
        "▁pilaane",
        -9.417899862523962
      ],
      [
        "▁Cab",
        -9.41825596463773
      ],
      [
        "ja",
        -9.418545362412196
      ],
      [
        "▁barbaadanii",
        -9.418660607078873
      ],
      [
        "▁taa",
        -9.418793332704363
      ],
      [
        "ce",
        -9.418802724870007
      ],
      [
        "▁to",
        -9.41881417057792
      ],
      [
        "▁Koomi",
        -9.418853439636141
      ],
      [
        "rikaa",
        -9.418886722494884
      ],
      [
        "▁dhiiga",
        -9.419423234374303
      ],
      [
        "lom",
        -9.419609342092965
      ],
      [
        "▁Kirchi",
        -9.419657758634187
      ],
      [
        "▁infi",
        -9.419710788288091
      ],
      [
        "ellaa",
        -9.419928553747912
      ],
      [
        "dama",
        -9.42007066307546
      ],
      [
        "▁kufuu",
        -9.420094066431945
      ],
      [
        "▁qar",
        -9.420255217781536
      ],
      [
        "qunnamti",
        -9.420543166434815
      ],
      [
        "▁dabalaman",
        -9.420625464892678
      ],
      [
        "▁Yuu",
        -9.420915905035551
      ],
      [
        "400",
        -9.421343911274633
      ],
      [
        "▁Shaan",
        -9.42140405658505
      ],
      [
        "irradeebii",
        -9.421541952808528
      ],
      [
        "fee",
        -9.42163540774591
      ],
      [
        "▁ka’ee",
        -9.422101260754307
      ],
      [
        "▁Ame",
        -9.422147496406385
      ],
      [
        "▁fo",
        -9.422567496144858
      ],
      [
        "▁Saat",
        -9.422663946820725
      ],
      [
        "▁Baaf",
        -9.422672248855068
      ],
      [
        "▁komata",
        -9.423206417727798
      ],
      [
        "▁filattoo",
        -9.423797723651768
      ],
      [
        "▁dhiisan",
        -9.424059727034598
      ],
      [
        "▁humnaa",
        -9.424111788641842
      ],
      [
        "▁Loo",
        -9.42442192491248
      ],
      [
        "▁dhufan",
        -9.424474502903385
      ],
      [
        "▁imaluuf",
        -9.424481042505418
      ],
      [
        "been",
        -9.425186437861356
      ],
      [
        "4tti",
        -9.426015620813
      ],
      [
        "turr",
        -9.426500006588075
      ],
      [
        "▁Haroo",
        -9.426667194551694
      ],
      [
        "uudha",
        -9.426777711663746
      ],
      [
        "jaa",
        -9.426875425032136
      ],
      [
        "▁turanitti",
        -9.426902980310725
      ],
      [
        "i’oolooji",
        -9.427045850337036
      ],
      [
        "dil-addunyaa",
        -9.427181587773362
      ],
      [
        "▁dho",
        -9.427537564733328
      ],
      [
        "▁seenanii",
        -9.428024961464452
      ],
      [
        "▁Fili",
        -9.428154005716937
      ],
      [
        "▁wal-",
        -9.428406596543677
      ],
      [
        "▁Tu",
        -9.429099203280947
      ],
      [
        "landi",
        -9.429664374722934
      ],
      [
        "ak",
        -9.429824677411673
      ],
      [
        "▁Fa",
        -9.430025819379136
      ],
      [
        "▁hubaan",
        -9.430096121592374
      ],
      [
        "xala",
        -9.430208376676847
      ],
      [
        "▁harkisu",
        -9.430799861582262
      ],
      [
        "▁Bilaak",
        -9.430853251782223
      ],
      [
        "▁raagbii",
        -9.430973415604903
      ],
      [
        "iinsaa",
        -9.431000765080125
      ],
      [
        "▁Hale",
        -9.431185270009207
      ],
      [
        "▁fiigichi",
        -9.431509078212637
      ],
      [
        "ge",
        -9.431519195150065
      ],
      [
        "▁daawwachuuf",
        -9.43158160391246
      ],
      [
        "▁Dur",
        -9.431713492046697
      ],
      [
        "▁mad",
        -9.432083194251206
      ],
      [
        "lli",
        -9.432546695665984
      ],
      [
        "▁caalmaa",
        -9.432649435636268
      ],
      [
        "▁danda’anii",
        -9.433919371428328
      ],
      [
        "▁Tr",
        -9.434420218389988
      ],
      [
        "▁dabarsuu",
        -9.43489595095105
      ],
      [
        "lachu",
        -9.435250344267885
      ],
      [
        "▁cimaadha",
        -9.436710650198107
      ],
      [
        "▁Simi",
        -9.436960782185151
      ],
      [
        "▁ball",
        -9.437272559031898
      ],
      [
        "▁murteessu",
        -9.437316672214004
      ],
      [
        "stiraa",
        -9.437933258973429
      ],
      [
        "▁fakkat",
        -9.438279183511451
      ],
      [
        "▁Anta",
        -9.438723984883396
      ],
      [
        "▁Roobii",
        -9.439063125339578
      ],
      [
        "▁dorgom",
        -9.439125819249572
      ],
      [
        "itoot",
        -9.439318588322466
      ],
      [
        "▁geeffame",
        -9.439736580722887
      ],
      [
        "▁sanaa",
        -9.439841716119906
      ],
      [
        "▁buna",
        -9.440068628655393
      ],
      [
        "▁Ir",
        -9.440177743862705
      ],
      [
        "gir",
        -9.440605097630318
      ],
      [
        "iitii",
        -9.440616299952563
      ],
      [
        "eessuu",
        -9.44137998747865
      ],
      [
        "din",
        -9.442675503585688
      ],
      [
        "▁Koome",
        -9.442914655965438
      ],
      [
        "rreen",
        -9.443229022646223
      ],
      [
        "▁balali’uu",
        -9.443690621127768
      ],
      [
        "▁fakkaatu",
        -9.444540288328728
      ],
      [
        "▁Taayiwaanii",
        -9.44487240468619
      ],
      [
        "▁argann",
        -9.44490246483337
      ],
      [
        "▁tu",
        -9.44524270616431
      ],
      [
        "dee",
        -9.44547225774771
      ],
      [
        "▁jiranitti",
        -9.445473877511258
      ],
      [
        "▁maqaan",
        -9.446040402313882
      ],
      [
        "▁3,",
        -9.446318745208234
      ],
      [
        "room",
        -9.44663872506407
      ],
      [
        "▁gamtaa",
        -9.448693133997914
      ],
      [
        "▁Rom",
        -9.448852613004622
      ],
      [
        "▁harii",
        -9.449380284842858
      ],
      [
        "qii",
        -9.449749220249844
      ],
      [
        "ayitii",
        -9.449817098605104
      ],
      [
        "▁taasisa",
        -9.449982399982915
      ],
      [
        "oo-",
        -9.450167041846568
      ],
      [
        "▁saf",
        -9.450511542987634
      ],
      [
        "paan",
        -9.450908850086686
      ],
      [
        "91",
        -9.451030214806083
      ],
      [
        "deraa",
        -9.451176462869691
      ],
      [
        "▁Gara",
        -9.45201367407359
      ],
      [
        "▁fidee",
        -9.452853796913873
      ],
      [
        "ye",
        -9.453678701420886
      ],
      [
        "weey",
        -9.454271475225193
      ],
      [
        "he",
        -9.454423530961108
      ],
      [
        "▁Beerli",
        -9.454562422570438
      ],
      [
        "▁cabsuu",
        -9.45487880927011
      ],
      [
        "▁Paartii",
        -9.455042917065851
      ],
      [
        "▁Ittis",
        -9.455122624301506
      ],
      [
        "i'a",
        -9.4553287114832
      ],
      [
        "rkitik",
        -9.455614082109612
      ],
      [
        "▁mul’atu",
        -9.455642781136632
      ],
      [
        "▁seenu",
        -9.45580721689132
      ],
      [
        "▁birootti",
        -9.455820483262638
      ],
      [
        "▁Mas",
        -9.455959043537817
      ],
      [
        "▁Goolii",
        -9.457382195125726
      ],
      [
        "sumas",
        -9.457419279264991
      ],
      [
        "waasaa",
        -9.457494708416922
      ],
      [
        "▁qabatu",
        -9.458036443188181
      ],
      [
        "idhagfame",
        -9.458478032951875
      ],
      [
        "st",
        -9.459373252653041
      ],
      [
        "▁1.",
        -9.459465669231683
      ],
      [
        "▁deemt",
        -9.46009499622225
      ],
      [
        "Siim",
        -9.460974836577542
      ],
      [
        "giriin",
        -9.460998608899583
      ],
      [
        "▁baraar",
        -9.461053229177715
      ],
      [
        "awu",
        -9.462115521344932
      ],
      [
        "famuu",
        -9.463280247434929
      ],
      [
        "▁lammii",
        -9.464744218878504
      ],
      [
        "9",
        -9.464949628011231
      ],
      [
        "▁yaali",
        -9.465044185584004
      ],
      [
        "viyaa",
        -9.465841573123303
      ],
      [
        "▁murteessuu",
        -9.466378349847355
      ],
      [
        "▁argamtudha",
        -9.466485577986603
      ],
      [
        "▁walirra",
        -9.468032840397782
      ],
      [
        "▁Yuunayi",
        -9.46873363473954
      ],
      [
        "▁dhuguu",
        -9.46901986260358
      ],
      [
        "5-",
        -9.469298171335204
      ],
      [
        "▁sadee",
        -9.469801206409963
      ],
      [
        "▁deeman",
        -9.470148702666714
      ],
      [
        "▁gochuun",
        -9.470590021028963
      ],
      [
        "▁qaqqabsi",
        -9.471251271608159
      ],
      [
        "iddugala",
        -9.471295086249944
      ],
      [
        "ess",
        -9.471984392342254
      ],
      [
        "chiisu",
        -9.472279418251926
      ],
      [
        "▁dhaabuu",
        -9.472678994356748
      ],
      [
        "▁labse",
        -9.472963555539266
      ],
      [
        "ugda",
        -9.473590236172093
      ],
      [
        "agarsiisichi",
        -9.475309851463004
      ],
      [
        "▁komii",
        -9.475962295232577
      ],
      [
        "deebii",
        -9.476392961567882
      ],
      [
        "▁imaala",
        -9.476815130543937
      ],
      [
        "booli",
        -9.477042694057022
      ],
      [
        "ozati",
        -9.477104024201367
      ],
      [
        "▁ta'",
        -9.477160003215701
      ],
      [
        "▁Mootii",
        -9.477822526362125
      ],
      [
        "ng",
        -9.478330846474122
      ],
      [
        "umsaa",
        -9.47937547491129
      ],
      [
        "▁waliigala",
        -9.480336791939939
      ],
      [
        "▁shal",
        -9.480687118579088
      ],
      [
        "obbo",
        -9.480840642730273
      ],
      [
        "rden",
        -9.480860281808626
      ],
      [
        "▁baatan",
        -9.482144726977674
      ],
      [
        "▁kal",
        -9.482155579948623
      ],
      [
        "shin",
        -9.482420583172027
      ],
      [
        "rto",
        -9.482660647287497
      ],
      [
        "▁hambi",
        -9.482957738764545
      ],
      [
        "oongi",
        -9.484066262239946
      ],
      [
        "▁haroo",
        -9.484243187541814
      ],
      [
        "cimoo",
        -9.484578790745061
      ],
      [
        "▁Galmee",
        -9.484581703390479
      ],
      [
        "▁qofaaf",
        -9.485275117300912
      ],
      [
        "eeyitii",
        -9.4861163082854
      ],
      [
        "▁Joo",
        -9.48738193562486
      ],
      [
        "▁ariifa",
        -9.488330320356516
      ],
      [
        "eeriyaa",
        -9.488495511404556
      ],
      [
        "▁par",
        -9.488578026000582
      ],
      [
        "▁argatt",
        -9.489082935109298
      ],
      [
        "aalessaa",
        -9.489110595059515
      ],
      [
        "uwee",
        -9.489420551715666
      ],
      [
        "wwanii",
        -9.490888890723216
      ],
      [
        "faa,",
        -9.491564639134658
      ],
      [
        "ilaad",
        -9.492777658466892
      ],
      [
        "mb",
        -9.492985254537253
      ],
      [
        "ajjab",
        -9.493479639404944
      ],
      [
        "miin",
        -9.493483592723749
      ],
      [
        "▁gammach",
        -9.494108112625696
      ],
      [
        "raansii",
        -9.494926716049825
      ],
      [
        "▁hammat",
        -9.49587389065626
      ],
      [
        "ed",
        -9.496611362427622
      ],
      [
        "▁holqa",
        -9.497787105826646
      ],
      [
        "dhuma",
        -9.497859300674895
      ],
      [
        "▁barataa",
        -9.49818232440368
      ],
      [
        "▁baay’at",
        -9.498588899164366
      ],
      [
        "▁Dorgommi",
        -9.499157500182491
      ],
      [
        "mti",
        -9.499878832546276
      ],
      [
        "iwuu",
        -9.500757597193937
      ],
      [
        "aasaa",
        -9.501424893718921
      ],
      [
        "▁ilaalchi",
        -9.502560477541273
      ],
      [
        "Luunaa",
        -9.502772766247801
      ],
      [
        "qoon",
        -9.503020356243896
      ],
      [
        "gi",
        -9.503100813687018
      ],
      [
        "orookoo",
        -9.503184788244331
      ],
      [
        "a’oo",
        -9.503275743656888
      ],
      [
        "▁Pal",
        -9.504624939719427
      ],
      [
        "▁Dee",
        -9.504672969886888
      ],
      [
        "▁beekamt",
        -9.505150771784862
      ],
      [
        "▁argate",
        -9.505159078346333
      ],
      [
        "enyuy",
        -9.505244788313675
      ],
      [
        "▁qabaa",
        -9.50555509935989
      ],
      [
        "kar",
        -9.505609494761982
      ],
      [
        "▁“ma",
        -9.506119592635066
      ],
      [
        "▁xiyyeeffa",
        -9.50672392012814
      ],
      [
        "▁Maa’",
        -9.511462440691247
      ],
      [
        "ittaa",
        -9.513696952961562
      ],
      [
        "▁imaalt",
        -9.5137296074298
      ],
      [
        "▁p",
        -9.514367203216002
      ],
      [
        "odhuu",
        -9.51497555561929
      ],
      [
        "ffame",
        -9.515819865006186
      ],
      [
        "▁far",
        -9.516214859147109
      ],
      [
        "olbert",
        -9.516380081540426
      ],
      [
        "▁morm",
        -9.51746243848516
      ],
      [
        "iskii",
        -9.51791145238658
      ],
      [
        "old",
        -9.51824410431473
      ],
      [
        "bira",
        -9.51957475855914
      ],
      [
        "▁dheerata",
        -9.52002560890104
      ],
      [
        "▁2,",
        -9.520795980553677
      ],
      [
        "▁Maal",
        -9.52244626412323
      ],
      [
        "teeti",
        -9.52245882134756
      ],
      [
        "▁xumuram",
        -9.522663355119347
      ],
      [
        "nee",
        -9.522771830788951
      ],
      [
        "su",
        -9.523705950685489
      ],
      [
        "ikii",
        -9.524058882856673
      ],
      [
        "oof",
        -9.5245228270388
      ],
      [
        "▁Istaa",
        -9.525437485981424
      ],
      [
        "▁hubaman",
        -9.525914295745704
      ],
      [
        "uukil",
        -9.525924936831153
      ],
      [
        "edha",
        -9.526409342100676
      ],
      [
        "▁hundarra",
        -9.52668490553823
      ],
      [
        "▁sirriiti",
        -9.526692596876817
      ],
      [
        "totaa",
        -9.527112049329425
      ],
      [
        "▁magaalattiin",
        -9.527191299478716
      ],
      [
        "▁biy",
        -9.527503418079059
      ],
      [
        "achiisa",
        -9.527780439803747
      ],
      [
        "ashannan",
        -9.528330067396293
      ],
      [
        "▁dachaa",
        -9.528843413655657
      ],
      [
        "▁barbaachisu",
        -9.52947838803044
      ],
      [
        "▁qabamuu",
        -9.529561380805012
      ],
      [
        "▁Hir",
        -9.529977412558887
      ],
      [
        "maniiru",
        -9.530441250979461
      ],
      [
        "30",
        -9.533104400348467
      ],
      [
        "a’i",
        -9.536233342184472
      ],
      [
        "▁jee",
        -9.536666876768287
      ],
      [
        "▁dirqama",
        -9.538295717548685
      ],
      [
        "▁Aar",
        -9.538418336264552
      ],
      [
        "▁His",
        -9.538526192438443
      ],
      [
        "▁kennama",
        -9.539171749110505
      ],
      [
        "▁kakaase",
        -9.539462182749745
      ],
      [
        "isa",
        -9.539652031591194
      ],
      [
        "▁Koongir",
        -9.539938441142128
      ],
      [
        "▁Vi",
        -9.540009690227867
      ],
      [
        "▁gos",
        -9.541101600576937
      ],
      [
        "▁qabam",
        -9.541299387538437
      ],
      [
        "▁makiina",
        -9.541346129910098
      ],
      [
        "▁Bona",
        -9.541407430491452
      ],
      [
        "▁Goor",
        -9.541714052840742
      ],
      [
        "▁ba’an",
        -9.542204177971684
      ],
      [
        "▁manaa",
        -9.542221102361065
      ],
      [
        "▁boollaa",
        -9.542283902136315
      ],
      [
        "▁mo’achuu",
        -9.542404310194588
      ],
      [
        "aay",
        -9.542832455326987
      ],
      [
        "amiin",
        -9.54310707694621
      ],
      [
        "▁uummata",
        -9.543581356253542
      ],
      [
        "▁de",
        -9.543657835845192
      ],
      [
        "id",
        -9.543672813651986
      ],
      [
        "ingis",
        -9.543766329490282
      ],
      [
        "adhima",
        -9.5447119737358
      ],
      [
        "ufaatii",
        -9.544739297938857
      ],
      [
        "▁tokkicha",
        -9.545603811334079
      ],
      [
        "▁jedhamanii",
        -9.546109251352705
      ],
      [
        "niif.",
        -9.546307137871992
      ],
      [
        "17,",
        -9.546320832163188
      ],
      [
        "iyoon",
        -9.547289124945742
      ],
      [
        "smaa",
        -9.5473310171757
      ],
      [
        "▁midhaa",
        -9.5473967216287
      ],
      [
        "roonii",
        -9.547851885882324
      ],
      [
        "▁Maasa",
        -9.547931010700156
      ],
      [
        "▁qaqqaa",
        -9.54793658638077
      ],
      [
        "ush",
        -9.548618474092263
      ],
      [
        "▁jiraach",
        -9.54868798821915
      ],
      [
        "uuraa",
        -9.550803796617348
      ],
      [
        "▁du’",
        -9.550879092027602
      ],
      [
        "▁dhukkubbiin",
        -9.55222373911233
      ],
      [
        "kiloo",
        -9.553470902690368
      ],
      [
        "era",
        -9.553994414530976
      ],
      [
        "▁geessee",
        -9.553997842242408
      ],
      [
        "yid",
        -9.55402576307678
      ],
      [
        "▁tii",
        -9.555352511317443
      ],
      [
        "viil",
        -9.555833350725882
      ],
      [
        "▁Taayila",
        -9.555838767350163
      ],
      [
        "bbata",
        -9.555964414178405
      ],
      [
        "hu",
        -9.556468809823627
      ],
      [
        "▁mo’ata",
        -9.556478107891461
      ],
      [
        "▁ti",
        -9.55786390400063
      ],
      [
        "▁kennamuu",
        -9.557988680587242
      ],
      [
        "▁ka’anii",
        -9.558431878079048
      ],
      [
        "▁dandeessa",
        -9.558490711353079
      ],
      [
        "galee",
        -9.558944311300221
      ],
      [
        "aawund",
        -9.560978960282652
      ],
      [
        "▁darbuun",
        -9.562658864909494
      ],
      [
        "’ina",
        -9.563163703467644
      ],
      [
        "▁Barr",
        -9.563547074994862
      ],
      [
        "▁isin",
        -9.56359728652777
      ],
      [
        "▁Sii",
        -9.563699770150357
      ],
      [
        "stiroo",
        -9.56374234515318
      ],
      [
        "▁fincaan",
        -9.56380868792963
      ],
      [
        "▁Film",
        -9.564436968235206
      ],
      [
        "achii",
        -9.564538798832684
      ],
      [
        "▁Arje",
        -9.56455364057098
      ],
      [
        "▁dandeessi",
        -9.56514430810987
      ],
      [
        "▁olla",
        -9.565396820881489
      ],
      [
        "▁at",
        -9.56545387695848
      ],
      [
        "ajjir",
        -9.566703094151798
      ],
      [
        "▁gulaal",
        -9.566934192147137
      ],
      [
        "▁doo",
        -9.567984668984277
      ],
      [
        "▁ilaalla",
        -9.5684331345975
      ],
      [
        "▁Je",
        -9.569828166613224
      ],
      [
        "▁Sar",
        -9.571832717197067
      ],
      [
        "▁Doomini",
        -9.572021292994892
      ],
      [
        "▁tilmaamama",
        -9.574531345862423
      ],
      [
        "atuu",
        -9.574712187402383
      ],
      [
        "▁jiruuf",
        -9.575941242758152
      ],
      [
        "diteraaniyaanii",
        -9.576355954577664
      ],
      [
        "Nee",
        -9.576957387227774
      ],
      [
        "mnee",
        -9.581327413110992
      ],
      [
        "▁Naan",
        -9.581383542435272
      ],
      [
        "▁Deen",
        -9.58222982848606
      ],
      [
        "▁Baasi",
        -9.582933685502535
      ],
      [
        "keetii",
        -9.583475250484684
      ],
      [
        "zaan",
        -9.584641707727872
      ],
      [
        "▁Tiree",
        -9.585836159753455
      ],
      [
        "▁l",
        -9.585906810659088
      ],
      [
        "-d",
        -9.586316569306181
      ],
      [
        "udha.",
        -9.587335825312929
      ],
      [
        "bo",
        -9.588092644505968
      ],
      [
        "▁Tapha",
        -9.588936637853871
      ],
      [
        "qaa",
        -9.589896004162481
      ],
      [
        "llattoolee",
        -9.589952805963245
      ],
      [
        "ixata",
        -9.590870613237836
      ],
      [
        "tid",
        -9.590950658216068
      ],
      [
        "▁alatti",
        -9.591329929944688
      ],
      [
        "antii",
        -9.591604633015587
      ],
      [
        "▁marg",
        -9.592824095491213
      ],
      [
        "▁kiri",
        -9.59284650978216
      ],
      [
        "▁Saafi",
        -9.593680685300692
      ],
      [
        "ga’u",
        -9.5939768284128
      ],
      [
        "bar",
        -9.594202819968363
      ],
      [
        "igi",
        -9.594662239940677
      ],
      [
        "▁aman",
        -9.595331312255915
      ],
      [
        "izii",
        -9.595886045898615
      ],
      [
        "▁Xi",
        -9.597108081219032
      ],
      [
        "kaan",
        -9.597229940009091
      ],
      [
        "▁tilmaam",
        -9.597402603980221
      ],
      [
        "▁Bala",
        -9.598189888429916
      ],
      [
        "kaar",
        -9.599278689145445
      ],
      [
        "▁Saant",
        -9.599296764660577
      ],
      [
        "▁want",
        -9.599417257548751
      ],
      [
        "▁bosonaati",
        -9.599704152890151
      ],
      [
        "alessaa",
        -9.600230566215899
      ],
      [
        "uuriizimii",
        -9.60035190455463
      ],
      [
        "▁kennamu",
        -9.601925690691266
      ],
      [
        "ndoo",
        -9.602063274140013
      ],
      [
        "▁buus",
        -9.602064363043668
      ],
      [
        "isitti",
        -9.602081241430591
      ],
      [
        "▁hojjetan",
        -9.602266407713335
      ],
      [
        "▁jiruun",
        -9.603022103492965
      ],
      [
        "riyaa",
        -9.603127104623317
      ],
      [
        "▁Mad",
        -9.603396422254598
      ],
      [
        "▁Amal",
        -9.60366481743614
      ],
      [
        "ara",
        -9.604624446224353
      ],
      [
        "▁Za",
        -9.604871621668726
      ],
      [
        "▁hojjat",
        -9.605456626681956
      ],
      [
        "▁akkana",
        -9.606259742389907
      ],
      [
        "▁Mal",
        -9.607883305311518
      ],
      [
        "bbo",
        -9.608176258872577
      ],
      [
        "ssa",
        -9.609223670184017
      ],
      [
        "oppen",
        -9.609672677769291
      ],
      [
        "▁siq",
        -9.60973042415008
      ],
      [
        "ibiyaa",
        -9.610536815698957
      ],
      [
        "achuuf",
        -9.610945801629198
      ],
      [
        "udhaan",
        -9.611154015560468
      ],
      [
        "▁waldh",
        -9.612162558621899
      ],
      [
        "msa",
        -9.613325869468632
      ],
      [
        "pis",
        -9.613848011987045
      ],
      [
        "▁buufataa",
        -9.614064381290559
      ],
      [
        "▁diriira",
        -9.614524349315005
      ],
      [
        "▁kanaafuu",
        -9.61539349738123
      ],
      [
        "▁jedhame",
        -9.6160375492803
      ],
      [
        "▁kaba",
        -9.617237061382284
      ],
      [
        "tar",
        -9.618695450102017
      ],
      [
        "bsa",
        -9.618761548929124
      ],
      [
        "▁isaanis",
        -9.618804383747289
      ],
      [
        "aloo",
        -9.62054816000526
      ],
      [
        "ollee",
        -9.620836279190796
      ],
      [
        "▁aarsa",
        -9.621720582126656
      ],
      [
        "▁Hii",
        -9.621899115493392
      ],
      [
        "85",
        -9.623354759255488
      ],
      [
        "▁Utaa",
        -9.624771945058995
      ],
      [
        "fuu",
        -9.625082247582467
      ],
      [
        "jechuun",
        -9.625524460831398
      ],
      [
        "▁hirmaat",
        -9.626988502366283
      ],
      [
        "duraa",
        -9.628332773360391
      ],
      [
        "il’",
        -9.628550462612742
      ],
      [
        "▁taphataa",
        -9.628622572209606
      ],
      [
        "daantii",
        -9.628721842352393
      ],
      [
        "▁Ke",
        -9.629068190966978
      ],
      [
        "lo",
        -9.631318269246961
      ],
      [
        "▁dhiit",
        -9.631708253380046
      ],
      [
        "oleettii",
        -9.631985223068419
      ],
      [
        "▁caalu",
        -9.632393010100238
      ],
      [
        "sitti",
        -9.633022549758834
      ],
      [
        "▁hub",
        -9.633038769376856
      ],
      [
        "▁cim",
        -9.63411685991404
      ],
      [
        "▁Hoji",
        -9.637892023936022
      ],
      [
        "▁Da",
        -9.638968744659596
      ],
      [
        "▁eegalanii",
        -9.63925033912459
      ],
      [
        "▁barreess",
        -9.639319404107964
      ],
      [
        "xee",
        -9.63967476249989
      ],
      [
        "tiriya",
        -9.640996576414365
      ],
      [
        "wu",
        -9.642695620244215
      ],
      [
        "▁Magaal",
        -9.643133758199827
      ],
      [
        "doog",
        -9.64443446036626
      ],
      [
        "▁oddol",
        -9.645921789921388
      ],
      [
        "▁daf",
        -9.646388103667148
      ],
      [
        "▁mul’is",
        -9.646825391551944
      ],
      [
        "uggur",
        -9.647160724156848
      ],
      [
        "▁kamii",
        -9.648396078702486
      ],
      [
        "▁ijaara",
        -9.649610366619562
      ],
      [
        "▁Iraa",
        -9.649877962670697
      ],
      [
        "mina",
        -9.650894625249292
      ],
      [
        "uud",
        -9.651585011345993
      ],
      [
        "▁keessumatt",
        -9.65307934327023
      ],
      [
        "▁biyyich",
        -9.654039844705249
      ],
      [
        "▁gaafata",
        -9.654966356483836
      ],
      [
        "niya",
        -9.655510567017073
      ],
      [
        "riyoo",
        -9.65567177757389
      ],
      [
        "aalii",
        -9.657436786989669
      ],
      [
        "andelwa",
        -9.65769536323157
      ],
      [
        "▁jaal",
        -9.65862925318546
      ],
      [
        "▁ummat",
        -9.658769951528182
      ],
      [
        "oogii",
        -9.65952990563912
      ],
      [
        "eeyyat",
        -9.661830938821712
      ],
      [
        "▁ibsam",
        -9.661936290234904
      ],
      [
        "▁Tokko",
        -9.662251061978303
      ],
      [
        "▁St",
        -9.665718062116731
      ],
      [
        "▁Ii",
        -9.665775838116835
      ],
      [
        "▁Oor",
        -9.666406798334481
      ],
      [
        "▁Roob",
        -9.666563655981522
      ],
      [
        "oov",
        -9.66876192360262
      ],
      [
        "▁Gaar",
        -9.668891167169042
      ],
      [
        "oolti",
        -9.67072574845207
      ],
      [
        "▁ilaalt",
        -9.67140071838158
      ],
      [
        "▁gibira",
        -9.672371714199663
      ],
      [
        "famee",
        -9.672763477338972
      ],
      [
        "▁qusa",
        -9.673828583817643
      ],
      [
        "▁argam",
        -9.676526556923724
      ],
      [
        "▁faayi",
        -9.676998181164107
      ],
      [
        "inaa",
        -9.677426484140534
      ],
      [
        "▁Su",
        -9.6775308005718
      ],
      [
        "▁kunuunsa",
        -9.677879856633789
      ],
      [
        "▁dand",
        -9.678022507051066
      ],
      [
        "▁naannicha",
        -9.680392967505417
      ],
      [
        "▁ayyaana",
        -9.680542291661618
      ],
      [
        "▁haqam",
        -9.680685224621907
      ],
      [
        "▁194",
        -9.680873418201264
      ],
      [
        "▁gabaafam",
        -9.681012707453718
      ],
      [
        "gale.",
        -9.68138602667011
      ],
      [
        "▁giddugalaa",
        -9.685559834085563
      ],
      [
        "▁kakaas",
        -9.685915685448263
      ],
      [
        "▁duraan",
        -9.689304512344332
      ],
      [
        "ul",
        -9.689980642954852
      ],
      [
        "▁Kee",
        -9.690183386838168
      ],
      [
        "Bakka",
        -9.690593420457432
      ],
      [
        "ku",
        -9.692793857074737
      ],
      [
        "▁ho",
        -9.69432416329845
      ],
      [
        "▁tasa",
        -9.695137116575022
      ],
      [
        "▁eegu",
        -9.696562515520924
      ],
      [
        "ing",
        -9.69790621926004
      ],
      [
        "▁ga’aan",
        -9.698758843148237
      ],
      [
        "qabatanii",
        -9.698868570328571
      ],
      [
        "▁hojjet",
        -9.699237436241987
      ],
      [
        "▁Ana",
        -9.7004278986424
      ],
      [
        "▁Lamma",
        -9.704045735459319
      ],
      [
        "▁adeema",
        -9.704723602358197
      ],
      [
        "▁kakaasa",
        -9.704724477775354
      ],
      [
        "oorm",
        -9.706808306511636
      ],
      [
        "▁walfakkaat",
        -9.708485041194317
      ],
      [
        "amaniiru",
        -9.709167503686784
      ],
      [
        "▁ji’aa",
        -9.70975113964919
      ],
      [
        "reen",
        -9.710313670978609
      ],
      [
        "wutoob",
        -9.711690322816741
      ],
      [
        "▁Kaar",
        -9.711784820853522
      ],
      [
        "yu",
        -9.711943911481935
      ],
      [
        "▁baaja",
        -9.712115409664145
      ],
      [
        "yis",
        -9.713495944420053
      ],
      [
        "▁ibsat",
        -9.714731416644138
      ],
      [
        "▁gorfamu",
        -9.71475091844342
      ],
      [
        "lluu",
        -9.714845438860538
      ],
      [
        "laan",
        -9.7156911007873
      ],
      [
        "aa’aa",
        -9.715985474010665
      ],
      [
        "▁Imalaa",
        -9.716497969694846
      ],
      [
        "▁finc",
        -9.7177319354518
      ],
      [
        "▁dhaq",
        -9.71975497345031
      ],
      [
        ",”",
        -9.720455274540022
      ],
      [
        "axa",
        -9.720561425269635
      ],
      [
        "sitoot",
        -9.720681470548962
      ],
      [
        "gaan",
        -9.721711305718891
      ],
      [
        "▁dhangala’",
        -9.722706272161895
      ],
      [
        "▁bak",
        -9.723003867931993
      ],
      [
        "▁biqil",
        -9.723126127965234
      ],
      [
        "▁hir’",
        -9.724552477229604
      ],
      [
        "ooriyaa",
        -9.725770877190495
      ],
      [
        "▁ta’iin",
        -9.727170386719939
      ],
      [
        "▁miidh",
        -9.728172812696224
      ],
      [
        "▁Ra",
        -9.729285473714123
      ],
      [
        "rip",
        -9.731014384610916
      ],
      [
        "▁ta’eetti",
        -9.732177161401076
      ],
      [
        "▁beekamoo",
        -9.732520314118352
      ],
      [
        "affa",
        -9.73310686735691
      ],
      [
        "uraa",
        -9.73359246631589
      ],
      [
        "▁ammayy",
        -9.735565963336244
      ],
      [
        "▁mara",
        -9.735939929414037
      ],
      [
        "ilaa",
        -9.73617026070326
      ],
      [
        "▁tir",
        -9.736339672394951
      ],
      [
        "▁xiqqoodha",
        -9.736949201848638
      ],
      [
        "ele",
        -9.737378058932602
      ],
      [
        "▁qopheessa",
        -9.738488195626877
      ],
      [
        "aafa",
        -9.741251549375079
      ],
      [
        "a’in",
        -9.742100561171847
      ],
      [
        "▁dabalata",
        -9.74242225168265
      ],
      [
        "iicha",
        -9.742609502728248
      ],
      [
        "▁durs",
        -9.743023369792827
      ],
      [
        "“B",
        -9.743698336859891
      ],
      [
        "boo",
        -9.74721801659055
      ],
      [
        "alli",
        -9.747474344803766
      ],
      [
        "ag",
        -9.747502097630688
      ],
      [
        "hee",
        -9.747909801947927
      ],
      [
        "unfaa",
        -9.748985460620553
      ],
      [
        "▁sirri",
        -9.75471073999137
      ],
      [
        "▁jijjiirr",
        -9.754834436465107
      ],
      [
        "dhan",
        -9.75501797312134
      ],
      [
        "▁faa",
        -9.756306417249853
      ],
      [
        "mpi",
        -9.756555974913804
      ],
      [
        "▁aan",
        -9.757621814656563
      ],
      [
        "ich",
        -9.758545123463795
      ],
      [
        "▁Mis",
        -9.758779600222546
      ],
      [
        "▁Or",
        -9.759520428031285
      ],
      [
        "▁yaadas",
        -9.760168622784917
      ],
      [
        "▁kil",
        -9.762811696924036
      ],
      [
        "aawaa",
        -9.763126916336802
      ],
      [
        "itii",
        -9.763346939339016
      ],
      [
        "▁32",
        -9.765055652252414
      ],
      [
        "buuto",
        -9.765067696891881
      ],
      [
        "aaksi",
        -9.766011990174636
      ],
      [
        "▁mirkaneessuu",
        -9.766601254479834
      ],
      [
        "▁Y",
        -9.766903659163042
      ],
      [
        "▁beeksisan",
        -9.768273123669008
      ],
      [
        "▁bakkich",
        -9.768772720936939
      ],
      [
        "▁qajeele",
        -9.768896012508833
      ],
      [
        "▁jalqabe",
        -9.769153974444565
      ],
      [
        "ana",
        -9.76952855542879
      ],
      [
        "▁bituu",
        -9.77413221789325
      ],
      [
        "▁to’at",
        -9.774255345720064
      ],
      [
        "gartuu",
        -9.77697871740792
      ],
      [
        "▁kaanii",
        -9.777063847438116
      ],
      [
        "iizi",
        -9.778416341133925
      ],
      [
        "▁so",
        -9.781524847196577
      ],
      [
        "▁hoo",
        -9.781574130184456
      ],
      [
        "▁kamiy",
        -9.783477605090313
      ],
      [
        "▁Kaas",
        -9.783603513899223
      ],
      [
        "▁eega",
        -9.784658589131341
      ],
      [
        "▁cims",
        -9.78543548564338
      ],
      [
        "arv",
        -9.785954746631203
      ],
      [
        "▁Fir",
        -9.787407941619172
      ],
      [
        "▁namoo",
        -9.788201926746062
      ],
      [
        "keessa",
        -9.789294280393708
      ],
      [
        "laandi",
        -9.791019316335625
      ],
      [
        "▁taph",
        -9.792011943093407
      ],
      [
        "sni",
        -9.795507653317564
      ],
      [
        "▁balal",
        -9.795975651850071
      ],
      [
        "rsi",
        -9.796768514023567
      ],
      [
        "▁addunyaatti",
        -9.79782575575543
      ],
      [
        "▁bulchiinso",
        -9.797877381769657
      ],
      [
        "ha",
        -9.798004166906633
      ],
      [
        "if",
        -9.798540862166242
      ],
      [
        "allaa",
        -9.800665506561037
      ],
      [
        "aalee",
        -9.8023253576657
      ],
      [
        "dan",
        -9.803022449307333
      ],
      [
        "▁yaa",
        -9.807150718687993
      ],
      [
        "umamaa",
        -9.808532012246447
      ],
      [
        "noota",
        -9.80871098420328
      ],
      [
        "▁jiranii",
        -9.809316146627728
      ],
      [
        "▁dandeessu",
        -9.80972191218005
      ],
      [
        "att",
        -9.809865865249039
      ],
      [
        "nedha",
        -9.812056360374916
      ],
      [
        "oor",
        -9.81226226674811
      ],
      [
        "timaa",
        -9.812477695728509
      ],
      [
        "tiirn",
        -9.813566042435376
      ],
      [
        "▁taati",
        -9.815345432563557
      ],
      [
        "laand",
        -9.816668332103418
      ],
      [
        "▁miidhan",
        -9.816968053671904
      ],
      [
        "▁Kam",
        -9.817778378566453
      ],
      [
        "gee",
        -9.819896887557235
      ],
      [
        "ang",
        -9.820119394320539
      ],
      [
        "▁la",
        -9.823116198906982
      ],
      [
        "▁dii",
        -9.823389102203365
      ],
      [
        "iy",
        -9.825016452400417
      ],
      [
        "abaluudhaan",
        -9.826091597284679
      ],
      [
        "▁Isteets",
        -9.826101140520281
      ],
      [
        "▁ergame",
        -9.82655386014299
      ],
      [
        "▁mii",
        -9.828669056658796
      ],
      [
        "'o",
        -9.82925290385965
      ],
      [
        "iloota",
        -9.830873414335024
      ],
      [
        "▁gu",
        -9.830890068072714
      ],
      [
        "ntii",
        -9.833102093148947
      ],
      [
        "▁jarm",
        -9.834603771725355
      ],
      [
        "▁Isa",
        -9.836164539262217
      ],
      [
        "atee",
        -9.838136429655371
      ],
      [
        "▁Keen",
        -9.840888069264619
      ],
      [
        "achoo",
        -9.842575856344364
      ],
      [
        "▁Imal",
        -9.844814284162178
      ],
      [
        "▁biqilt",
        -9.846187515276261
      ],
      [
        "▁xixiqqoon",
        -9.84621197845117
      ],
      [
        "▁imaltu",
        -9.847306600680398
      ],
      [
        "▁hawwataa",
        -9.847671406517067
      ],
      [
        "rri",
        -9.850373714926498
      ],
      [
        "▁x",
        -9.850392147867085
      ],
      [
        "darban",
        -9.850417560119736
      ],
      [
        "▁gabaasaa",
        -9.851259487491024
      ],
      [
        "sh",
        -9.852038313805458
      ],
      [
        "▁dhangala’a",
        -9.853200420682334
      ],
      [
        "▁Istii",
        -9.8553801153416
      ],
      [
        "▁did",
        -9.855482529465688
      ],
      [
        "nya",
        -9.855597872641894
      ],
      [
        "▁tikeett",
        -9.85571902805909
      ],
      [
        "▁ga’a",
        -9.85790991158553
      ],
      [
        "ikeetii",
        -9.859687227902704
      ],
      [
        "▁Kuni",
        -9.861843939616831
      ],
      [
        "▁gorfam",
        -9.862345292288033
      ],
      [
        "▁Seer",
        -9.863513324178273
      ],
      [
        "irii",
        -9.865786716635032
      ],
      [
        "▁marsan",
        -9.868831790105562
      ],
      [
        "▁Piri",
        -9.869636621701265
      ],
      [
        "▁fufa",
        -9.869775251264251
      ],
      [
        "toobis",
        -9.870127682787734
      ],
      [
        "▁Niw",
        -9.870178278134293
      ],
      [
        "ola",
        -9.870509958411962
      ],
      [
        "umatti",
        -9.871481030350354
      ],
      [
        "iyuu",
        -9.872592556611707
      ],
      [
        "▁walfakkaatu",
        -9.874146029773152
      ],
      [
        "duuf",
        -9.874583242429596
      ],
      [
        "▁X",
        -9.875421662141036
      ],
      [
        "▁bu’uura",
        -9.875574557272396
      ],
      [
        "▁duubaa",
        -9.876770376827427
      ],
      [
        "tt",
        -9.877604999437722
      ],
      [
        "▁ir",
        -9.880618038495372
      ],
      [
        "▁yaadd",
        -9.880653903781477
      ],
      [
        "▁Dhuka",
        -9.880750083633664
      ],
      [
        "▁mootumm",
        -9.881587977213837
      ],
      [
        "▁Lamm",
        -9.882108479697614
      ],
      [
        "gala",
        -9.883484012414428
      ],
      [
        "▁barreeffama",
        -9.884572022975771
      ],
      [
        "raaqsa",
        -9.88574768298639
      ],
      [
        "▁fuu",
        -9.885830110192583
      ],
      [
        "lamaniin",
        -9.886097920005566
      ],
      [
        "▁Maar",
        -9.889719275393489
      ],
      [
        "28",
        -9.890970441234643
      ],
      [
        "nten",
        -9.891336035124219
      ],
      [
        "im",
        -9.8944653665691
      ],
      [
        "fam",
        -9.895281225184602
      ],
      [
        "▁walfakk",
        -9.896618035400294
      ],
      [
        "ariikeen",
        -9.897828536918258
      ],
      [
        "▁qabaman",
        -9.899095403002612
      ],
      [
        "▁lach",
        -9.903268140592296
      ],
      [
        "n—",
        -9.903611787699818
      ],
      [
        "▁hundum",
        -9.903700680935431
      ],
      [
        "aa)",
        -9.904228022091807
      ],
      [
        "▁imal",
        -9.904397373282814
      ],
      [
        "▁barr",
        -9.90702680194396
      ],
      [
        "▁kunuuns",
        -9.908427416763434
      ],
      [
        "otaa",
        -9.91313257700014
      ],
      [
        "▁gibir",
        -9.913246501559211
      ],
      [
        "▁dan",
        -9.914977500792522
      ],
      [
        "▁kaabaat",
        -9.919299802080575
      ],
      [
        "▁galii",
        -9.92038010545118
      ],
      [
        "▁fudha",
        -9.920451246362433
      ],
      [
        "ayil",
        -9.922118053566932
      ],
      [
        "▁Roomaa",
        -9.924225836384114
      ],
      [
        "waanaa",
        -9.9244311315348
      ],
      [
        "kirki",
        -9.926047255894343
      ],
      [
        "▁deebit",
        -9.926350380100072
      ],
      [
        "han",
        -9.92783315197314
      ],
      [
        "tama",
        -9.928738060830359
      ],
      [
        "▁balali",
        -9.9293498993708
      ],
      [
        "achiisuu",
        -9.929673520035678
      ],
      [
        "▁Qin",
        -9.930248002158015
      ],
      [
        "aana",
        -9.930803835391083
      ],
      [
        "▁ummata",
        -9.931358191403646
      ],
      [
        "▁haraa",
        -9.931491182539549
      ],
      [
        "▁dhukkubichaa",
        -9.932853132851104
      ],
      [
        "▁Hara",
        -9.93350861800436
      ],
      [
        "▁Sil",
        -9.934403441137663
      ],
      [
        "▁He",
        -9.937461031673855
      ],
      [
        "pu",
        -9.939245579662943
      ],
      [
        "arkanf",
        -9.940420833414453
      ],
      [
        "▁fudhata",
        -9.941861494706538
      ],
      [
        "▁miidhaa",
        -9.943529613847295
      ],
      [
        "guddoo",
        -9.943801190664475
      ],
      [
        "▁konkolaat",
        -9.944127262812476
      ],
      [
        "▁dubbisu",
        -9.944953996274648
      ],
      [
        "▁jaala",
        -9.94582655984729
      ],
      [
        "ggur",
        -9.946718577241718
      ],
      [
        "▁hir’i",
        -9.94710504708189
      ],
      [
        "▁hiika",
        -9.947143360574497
      ],
      [
        "▁Dr",
        -9.95051428372414
      ],
      [
        "zimii",
        -9.950896228048295
      ],
      [
        "▁Magaali",
        -9.951452884820899
      ],
      [
        "▁Koongi",
        -9.95274334514016
      ],
      [
        "▁finca",
        -9.953360730464228
      ],
      [
        "▁salph",
        -9.953366955132811
      ],
      [
        "▁dhi’",
        -9.955857730514365
      ],
      [
        "▁ga’umsaa",
        -9.956995895235636
      ],
      [
        "yiin",
        -9.961011158280973
      ],
      [
        "rliin",
        -9.961421309537204
      ],
      [
        "koon",
        -9.96185234344916
      ],
      [
        "▁mul’",
        -9.962066461412684
      ],
      [
        "▁mul’isu",
        -9.962472964094562
      ],
      [
        "▁Z",
        -9.965033289919482
      ],
      [
        "▁konkolaach",
        -9.965149412624909
      ],
      [
        "▁mada",
        -9.967961815773965
      ],
      [
        "88",
        -9.968514220837926
      ],
      [
        "hin",
        -9.968862491273045
      ],
      [
        "▁raf",
        -9.969155945131472
      ],
      [
        "▁mij",
        -9.969206722282863
      ],
      [
        "olli",
        -9.96995289494223
      ],
      [
        "▁dhaabb",
        -9.971549237068757
      ],
      [
        "gii",
        -9.976816590282807
      ],
      [
        "arri",
        -9.976821518515337
      ],
      [
        "▁baay",
        -9.977364584945448
      ],
      [
        "▁oddola",
        -9.977904918510683
      ],
      [
        "▁En",
        -9.978285785701823
      ],
      [
        "huud",
        -9.978433858294323
      ],
      [
        "▁Nee",
        -9.979433222146781
      ],
      [
        "▁bal",
        -9.980621589474373
      ],
      [
        "taah",
        -9.980624277580015
      ],
      [
        "▁jijjiiramu",
        -9.98203570479943
      ],
      [
        "essoo",
        -9.982438747370855
      ],
      [
        "▁barreessa",
        -9.98274048145986
      ],
      [
        "rk",
        -9.983463540185973
      ],
      [
        "▁biyyoo",
        -9.984095872083829
      ],
      [
        "ikaa",
        -9.984254919245377
      ],
      [
        "uwe",
        -9.985594862361058
      ],
      [
        "ajan",
        -9.9864455470446
      ],
      [
        "▁maal",
        -9.990000847506675
      ],
      [
        "▁keeti",
        -9.991521145983624
      ],
      [
        "iiru",
        -9.991769237379222
      ],
      [
        "ahaa",
        -9.99600926082732
      ],
      [
        "▁Dh",
        -9.99643649692161
      ],
      [
        "▁Wali",
        -9.996677746345396
      ],
      [
        "▁Kilo",
        -9.999064102635971
      ],
      [
        "▁dursaan",
        -9.999445399112872
      ],
      [
        "aze",
        -10.000057281424986
      ],
      [
        "boleetti",
        -10.001080928394188
      ],
      [
        "aman,",
        -10.001145512060763
      ],
      [
        "lannoo",
        -10.00196485297553
      ],
      [
        "▁Oot",
        -10.004461675926379
      ],
      [
        "▁jijjiirra",
        -10.007786162589799
      ],
      [
        "sit",
        -10.008664526277194
      ],
      [
        "ona",
        -10.009312687918463
      ],
      [
        "umm",
        -10.010046865747114
      ],
      [
        "▁qaxxaamur",
        -10.010775938529646
      ],
      [
        "▁bir",
        -10.011493255891224
      ],
      [
        "ucucoo",
        -10.012489860322631
      ],
      [
        "us",
        -10.013344578516195
      ],
      [
        "eey",
        -10.013562416322028
      ],
      [
        "▁ka’u",
        -10.01422181072071
      ],
      [
        "iiz",
        -10.014239921907457
      ],
      [
        "stiin",
        -10.015405444608216
      ],
      [
        "ttii",
        -10.015790522968107
      ],
      [
        "▁gaggeessu",
        -10.016387054795192
      ],
      [
        "ira",
        -10.017858604743457
      ],
      [
        "dh",
        -10.018350626587427
      ],
      [
        "▁hojjate",
        -10.020380347621174
      ],
      [
        "▁vo",
        -10.02458725485303
      ],
      [
        "▁ce’a",
        -10.025311354819703
      ],
      [
        "▁pa",
        -10.02561272502427
      ],
      [
        "▁fakkaat",
        -10.02591364494661
      ],
      [
        "xata",
        -10.026848741119679
      ],
      [
        "▁qubatan",
        -10.027081365066039
      ],
      [
        "▁ist",
        -10.027592918452305
      ],
      [
        "▁ke",
        -10.030591548843724
      ],
      [
        "▁196",
        -10.032336127684331
      ],
      [
        "afee",
        -10.032952825545731
      ],
      [
        "aatii",
        -10.034250341942135
      ],
      [
        "toon",
        -10.035745760124975
      ],
      [
        "ster",
        -10.03717405844417
      ],
      [
        "▁roo",
        -10.043209166529982
      ],
      [
        "▁Pii",
        -10.043894132293048
      ],
      [
        "oteelo",
        -10.045152249494551
      ],
      [
        "▁loo",
        -10.046767733680866
      ],
      [
        "skii",
        -10.04709630884684
      ],
      [
        "akist",
        -10.048175966675146
      ],
      [
        "▁Meedi",
        -10.048439900222185
      ],
      [
        "aarra",
        -10.04867642836555
      ],
      [
        "▁yaadam",
        -10.048944363749175
      ],
      [
        "▁gargaare",
        -10.049035257816184
      ],
      [
        "▁Har",
        -10.05018270794382
      ],
      [
        "meen",
        -10.051404439754744
      ],
      [
        "▁jalqabuu",
        -10.052633356327977
      ],
      [
        "▁darbat",
        -10.053185909401586
      ],
      [
        "▁Doomin",
        -10.0545156944213
      ],
      [
        "▁dhufee",
        -10.054881308399136
      ],
      [
        "uum",
        -10.055629823270365
      ],
      [
        "anga",
        -10.056620868803215
      ],
      [
        "ig",
        -10.056698560461031
      ],
      [
        "▁daawwatt",
        -10.057185655830756
      ],
      [
        "uba",
        -10.058144895142615
      ],
      [
        "uriizimii",
        -10.060918876581594
      ],
      [
        "boolaa",
        -10.063887419920214
      ],
      [
        "▁baandi",
        -10.06413325288554
      ],
      [
        "▁Arj",
        -10.067945144881248
      ],
      [
        "▁kami",
        -10.06855429422836
      ],
      [
        "▁gaariidha",
        -10.068980947280119
      ],
      [
        "eeg",
        -10.06904953794651
      ],
      [
        "▁kor",
        -10.069151622346736
      ],
      [
        "▁gochi",
        -10.069724971407588
      ],
      [
        "las",
        -10.069876217933846
      ],
      [
        "ni.",
        -10.069983674305107
      ],
      [
        "▁immo",
        -10.070153264478217
      ],
      [
        "eeny",
        -10.071548887691865
      ],
      [
        "aajjir",
        -10.072004663347276
      ],
      [
        "edha,",
        -10.072803028131506
      ],
      [
        "▁ga’an",
        -10.074076788573512
      ],
      [
        "▁taphatam",
        -10.074489012607327
      ],
      [
        "▁30",
        -10.075379083115731
      ],
      [
        "▁ilaalamu",
        -10.078184765494047
      ],
      [
        "▁ba’ee",
        -10.081746047250565
      ],
      [
        "laallii",
        -10.0827656324821
      ],
      [
        "▁Kit",
        -10.083993861814283
      ],
      [
        "▁bee",
        -10.084506202632367
      ],
      [
        "▁qubat",
        -10.084930648581876
      ],
      [
        "ilee",
        -10.08691734146728
      ],
      [
        "▁guuta",
        -10.087497577203713
      ],
      [
        "▁ilaall",
        -10.088021443624736
      ],
      [
        "ffannaa",
        -10.08894863107004
      ],
      [
        "▁Koo",
        -10.089481656521976
      ],
      [
        "iitti",
        -10.092011330365137
      ],
      [
        "▁Ve",
        -10.093449408260192
      ],
      [
        "atii",
        -10.095855667667388
      ],
      [
        "▁Saaf",
        -10.096409897616681
      ],
      [
        "▁Taayi",
        -10.097732021152403
      ],
      [
        "▁hospitaal",
        -10.098353412466306
      ],
      [
        "▁Mili",
        -10.098843002382436
      ],
      [
        "-ba",
        -10.100073786308291
      ],
      [
        "▁baate",
        -10.102975129782731
      ],
      [
        "▁galeess",
        -10.103683234824004
      ],
      [
        "▁80",
        -10.10398924407306
      ],
      [
        "▁boolla",
        -10.104173619983365
      ],
      [
        "▁qabata",
        -10.105095887139406
      ],
      [
        "▁Wi",
        -10.1054394065983
      ],
      [
        "▁160",
        -10.10653458863597
      ],
      [
        "eeze",
        -10.106685075333584
      ],
      [
        "▁akk",
        -10.109569890057276
      ],
      [
        "seera",
        -10.109663177837854
      ],
      [
        "▁dirqam",
        -10.110033019128569
      ],
      [
        "▁dheer",
        -10.111056792010034
      ],
      [
        "78",
        -10.112147596603265
      ],
      [
        "▁fayyadam",
        -10.112259289984605
      ],
      [
        "▁uummat",
        -10.114780376032193
      ],
      [
        "app",
        -10.116248241625565
      ],
      [
        "aadoo",
        -10.117626769013851
      ],
      [
        "▁imaltootaa",
        -10.118170426133538
      ],
      [
        "micha",
        -10.119381333796156
      ],
      [
        "nnee",
        -10.119394930081748
      ],
      [
        "▁torb",
        -10.119702523653071
      ],
      [
        "▁mo",
        -10.12069695468994
      ],
      [
        "▁abb",
        -10.122257338566563
      ],
      [
        "gon",
        -10.12320263490884
      ],
      [
        "▁fudhatuu",
        -10.124088711436759
      ],
      [
        "raawwachi",
        -10.127333949586395
      ],
      [
        "koordi",
        -10.128275057072445
      ],
      [
        "siisa",
        -10.129186548522641
      ],
      [
        "▁dandeetti",
        -10.1299936696744
      ],
      [
        "▁barbaaduu",
        -10.130457718611858
      ],
      [
        "rees",
        -10.130834739737248
      ],
      [
        "▁Bu",
        -10.131003084935333
      ],
      [
        "▁godhuu",
        -10.132530854482726
      ],
      [
        "▁Ham",
        -10.134153474379703
      ],
      [
        "▁Imala",
        -10.134317341226765
      ],
      [
        "▁17",
        -10.13449352331339
      ],
      [
        "hall",
        -10.135133787258226
      ],
      [
        "▁bosonaa",
        -10.135634562215955
      ],
      [
        "▁yaa’a",
        -10.136303723494724
      ],
      [
        "▁magaalattii",
        -10.136484665085122
      ],
      [
        "▁geesse",
        -10.13843426952924
      ],
      [
        "a-eegdo",
        -10.13886160400284
      ],
      [
        "loota",
        -10.139068131936293
      ],
      [
        "aayilaa",
        -10.141158943272968
      ],
      [
        "▁Jaar",
        -10.14147726348046
      ],
      [
        "aali",
        -10.14219211787599
      ],
      [
        "▁warre",
        -10.142394722007607
      ],
      [
        "raan",
        -10.142933174682394
      ],
      [
        "uumee",
        -10.14337014803155
      ],
      [
        "▁qabaat",
        -10.145955748720032
      ],
      [
        "oofi",
        -10.146470110757491
      ],
      [
        "▁taphattoo",
        -10.148402576646824
      ],
      [
        "▁Jaappa",
        -10.14874980959564
      ],
      [
        "xa",
        -10.149265603581862
      ],
      [
        "▁laf",
        -10.152254979775275
      ],
      [
        "est",
        -10.153232990364286
      ],
      [
        "▁goo",
        -10.15421522764411
      ],
      [
        "▁yaaduu",
        -10.15506678963148
      ],
      [
        "▁amm",
        -10.157579266139916
      ],
      [
        "Pilaa",
        -10.159484967848643
      ],
      [
        "▁Sana",
        -10.162481111758993
      ],
      [
        "amaan",
        -10.163065996513742
      ],
      [
        "▁daanga",
        -10.163793589378827
      ],
      [
        "ngil",
        -10.164253763156019
      ],
      [
        "▁mootumma",
        -10.16433776158647
      ],
      [
        "▁ga’ums",
        -10.166641504111887
      ],
      [
        "piy",
        -10.16725540044338
      ],
      [
        "▁isk",
        -10.169252311321303
      ],
      [
        "a’",
        -10.169414750875603
      ],
      [
        "aawuu",
        -10.169872908136902
      ],
      [
        "▁dadd",
        -10.16990740292555
      ],
      [
        "▁waldu",
        -10.169967556220996
      ],
      [
        "▁sab",
        -10.171007273486651
      ],
      [
        "ark",
        -10.171512903082958
      ],
      [
        "▁paarki",
        -10.17270731802143
      ],
      [
        "▁yaadi",
        -10.172929011488346
      ],
      [
        "aachoo",
        -10.174117145257892
      ],
      [
        "hi",
        -10.174264917660395
      ],
      [
        "ayiti",
        -10.175915103889253
      ],
      [
        "ndarba",
        -10.176881935411998
      ],
      [
        "▁Foo",
        -10.180950764984921
      ],
      [
        "▁tilmaamam",
        -10.181796094489544
      ],
      [
        "▁dhih",
        -10.181860334156031
      ],
      [
        "▁Dan",
        -10.182579926655338
      ],
      [
        "▁bakko",
        -10.183155078200121
      ],
      [
        "▁qabame",
        -10.183284915115681
      ],
      [
        "▁holq",
        -10.18332354066054
      ],
      [
        "’ummaan",
        -10.183796989827279
      ],
      [
        "▁Biyyoo",
        -10.184384614958022
      ],
      [
        "▁dheerat",
        -10.184490905304115
      ],
      [
        "istiin",
        -10.185250638816084
      ],
      [
        "jijjiiram",
        -10.185363502854452
      ],
      [
        "ariikeeni",
        -10.185526542862132
      ],
      [
        "achisaa",
        -10.187410311404793
      ],
      [
        "yee",
        -10.189239834106662
      ],
      [
        "miiwwan",
        -10.18955986476375
      ],
      [
        "barbaade",
        -10.191972677739907
      ],
      [
        "▁keessumat",
        -10.194170462508135
      ],
      [
        "enzaa",
        -10.194402734762981
      ],
      [
        "ila",
        -10.195900477090264
      ],
      [
        "▁Man",
        -10.196854302585848
      ],
      [
        "ez",
        -10.198319205430098
      ],
      [
        "onaa",
        -10.198496548042183
      ],
      [
        "of",
        -10.198680043809285
      ],
      [
        "fachiisu",
        -10.202557750114362
      ],
      [
        "spoortii",
        -10.20330897386906
      ],
      [
        "yyi",
        -10.203938967805042
      ],
      [
        "lle",
        -10.2039642902752
      ],
      [
        "eor",
        -10.204606973418981
      ],
      [
        "▁hiriyoot",
        -10.204679284672416
      ],
      [
        "▁qophees",
        -10.20587879841467
      ],
      [
        "▁goda",
        -10.207176057622343
      ],
      [
        "▁Moo",
        -10.208214064519849
      ],
      [
        "▁naannich",
        -10.209749054626396
      ],
      [
        "effannaa",
        -10.210549240677361
      ],
      [
        "itiin",
        -10.211626235210735
      ],
      [
        "▁turanii",
        -10.21263465551834
      ],
      [
        "ikaan",
        -10.213447609839342
      ],
      [
        "▁ajj",
        -10.21405973138582
      ],
      [
        "bame",
        -10.214596203735914
      ],
      [
        "▁geejjiba",
        -10.215731924759323
      ],
      [
        "▁Di",
        -10.21575962701232
      ],
      [
        "utu",
        -10.215789935715254
      ],
      [
        "▁adeemu",
        -10.216035239919643
      ],
      [
        "▁waliigal",
        -10.216551257821603
      ],
      [
        "Beey",
        -10.2174203333606
      ],
      [
        "matti",
        -10.218014419721806
      ],
      [
        "▁dacha",
        -10.219281682742556
      ],
      [
        "oggan",
        -10.2201004772512
      ],
      [
        "almichi",
        -10.220384692847071
      ],
      [
        "▁Olaa",
        -10.221619942630653
      ],
      [
        "naamii",
        -10.222071343326931
      ],
      [
        "▁kuta",
        -10.224350266289285
      ],
      [
        "eessi",
        -10.224722553140237
      ],
      [
        "in\"",
        -10.22575919718709
      ],
      [
        "▁Ji",
        -10.226263734874754
      ],
      [
        "for",
        -10.227339059188497
      ],
      [
        "▁Dorgom",
        -10.228211156830916
      ],
      [
        "eerii",
        -10.229651664683699
      ],
      [
        "▁hang",
        -10.230463314609207
      ],
      [
        "huu",
        -10.230869314879158
      ],
      [
        "▁beekamtu",
        -10.23110906593537
      ],
      [
        "▁labs",
        -10.232470585373493
      ],
      [
        "aliin",
        -10.233763200197632
      ],
      [
        "▁saffis",
        -10.233849703997805
      ],
      [
        "ineen",
        -10.234122391938957
      ],
      [
        "▁Giddu",
        -10.23458805759766
      ],
      [
        "'ee",
        -10.234870195067202
      ],
      [
        "yaat",
        -10.236717686451826
      ],
      [
        "▁qaqqab",
        -10.237146566827576
      ],
      [
        "▁buufat",
        -10.238670569924336
      ],
      [
        "▁bashana",
        -10.239282294835789
      ],
      [
        "▁dal",
        -10.239869990635713
      ],
      [
        "om",
        -10.240005276979884
      ],
      [
        "ordii",
        -10.243786401888126
      ],
      [
        "jj",
        -10.24404835996185
      ],
      [
        "▁haali",
        -10.245016217558291
      ],
      [
        "▁madaa",
        -10.245373532355153
      ],
      [
        "uunfa",
        -10.24694453959073
      ],
      [
        "ella",
        -10.248207661327555
      ],
      [
        "▁koor",
        -10.248220899119074
      ],
      [
        "ittaan",
        -10.249392030390377
      ],
      [
        "ant",
        -10.250757831746975
      ],
      [
        "aas",
        -10.250917550717698
      ],
      [
        "bir",
        -10.251160005424117
      ],
      [
        "aruu",
        -10.25144028752173
      ],
      [
        "taroot",
        -10.253077204515552
      ],
      [
        "▁dhiheessi",
        -10.254142384375534
      ],
      [
        "▁haayi",
        -10.254763784123455
      ],
      [
        "aayir",
        -10.255806884370683
      ],
      [
        "eeffa",
        -10.255963492167666
      ],
      [
        "amneef",
        -10.257248945764259
      ],
      [
        "mmuu",
        -10.258808204809572
      ],
      [
        "▁lamm",
        -10.259118871462553
      ],
      [
        "▁ro",
        -10.25939104897592
      ],
      [
        "adii",
        -10.261308267841223
      ],
      [
        "▁Kar",
        -10.262160075069962
      ],
      [
        "▁ham",
        -10.262566249239311
      ],
      [
        "lagam",
        -10.263458350531963
      ],
      [
        "▁dandeeny",
        -10.263524105091843
      ],
      [
        "ayiiti",
        -10.264480392850464
      ],
      [
        "arb",
        -10.26508037991602
      ],
      [
        "▁oof",
        -10.267537450516981
      ],
      [
        "tivaa",
        -10.26827336968968
      ],
      [
        "ka’ums",
        -10.268490655757791
      ],
      [
        "atanidha",
        -10.269529008339456
      ],
      [
        "▁argamtu",
        -10.269584939351242
      ],
      [
        "’uu",
        -10.271380547523307
      ],
      [
        "▁gargaaru",
        -10.27142553845488
      ],
      [
        "viy",
        -10.271640431633958
      ],
      [
        "orweey",
        -10.272406441795013
      ],
      [
        "akk",
        -10.272511442760106
      ],
      [
        "▁galt",
        -10.272802345173416
      ],
      [
        "▁ji’",
        -10.273338923117935
      ],
      [
        "dduu",
        -10.273488478645136
      ],
      [
        "▁Haarii",
        -10.274946689517376
      ],
      [
        "a-qabeess",
        -10.275837765662692
      ],
      [
        "oora",
        -10.276724347339542
      ],
      [
        "▁asi",
        -10.277910437582442
      ],
      [
        "▁wara",
        -10.27839595806033
      ],
      [
        "▁yaalu",
        -10.278419529998159
      ],
      [
        "▁qabduu",
        -10.278701855420739
      ],
      [
        "▁Ro",
        -10.279217783381585
      ],
      [
        "poortii",
        -10.279340966553306
      ],
      [
        "▁akkasumaa",
        -10.279650332642468
      ],
      [
        "dandeess",
        -10.28051250453573
      ],
      [
        "yir",
        -10.280768119575642
      ],
      [
        "▁baat",
        -10.28157289019477
      ],
      [
        "mbo",
        -10.281574426058611
      ],
      [
        "▁qarqar",
        -10.283118194535298
      ],
      [
        "▁walakk",
        -10.283775609941067
      ],
      [
        "▁kuni",
        -10.284988141298875
      ],
      [
        "▁Dabal",
        -10.285085379230166
      ],
      [
        "aar",
        -10.287047647436214
      ],
      [
        "▁ammaat",
        -10.288314909872803
      ],
      [
        "▁gamt",
        -10.288555916659764
      ],
      [
        "ootii",
        -10.288557651427597
      ],
      [
        "▁meesh",
        -10.289649388177168
      ],
      [
        "dde",
        -10.291302606607386
      ],
      [
        "▁Ameerik",
        -10.292499407742186
      ],
      [
        "▁Taayiwaan",
        -10.292808306105414
      ],
      [
        "▁yaadu",
        -10.293077042176305
      ],
      [
        "nsil",
        -10.293143136276218
      ],
      [
        "asi",
        -10.29403195885709
      ],
      [
        "don",
        -10.29429872166576
      ],
      [
        "R",
        -10.294325044357985
      ],
      [
        "▁Baa",
        -10.294801069083542
      ],
      [
        "-ga",
        -10.295938043466105
      ],
      [
        "irraa",
        -10.29658210630621
      ],
      [
        "ompikii",
        -10.298185932960733
      ],
      [
        "▁waq",
        -10.299567493587176
      ],
      [
        "▁taphate",
        -10.299747551452151
      ],
      [
        "idda",
        -10.300993395470218
      ],
      [
        "▁Iwa",
        -10.301744752956308
      ],
      [
        "rsa",
        -10.302160384465179
      ],
      [
        "▁gabaab",
        -10.304314397832732
      ],
      [
        "▁geeffam",
        -10.304334439053315
      ],
      [
        "▁bilis",
        -10.304791661884735
      ],
      [
        "geess",
        -10.305110257385909
      ],
      [
        "▁Ku",
        -10.305126619558697
      ],
      [
        "▁meet",
        -10.307538078412033
      ],
[...]
