{
  "version": "1.0",
  "truncation": null,
  "padding": null,
  "added_tokens": [
    {
      "id": 0,
      "content": "<pad>",
      "single_word": false,
      "lstrip": false,
      "rstrip": false,
      "normalized": false,
      "special": true
    },
    {
      "id": 1,
      "content": "<unk>",
      "single_word": false,
      "lstrip": false,
      "rstrip": false,
      "normalized": false,
      "special": true
    },
    {
      "id": 2,
      "content": "<cls>",
      "single_word": false,
      "lstrip": false,
      "rstrip": false,
      "normalized": false,
      "special": true
    }
  ],
  "normalizer": {
    "type": "Sequence",
    "normalizers": [
      {
        "type": "Nmt"
      },
      {
        "type": "NFKC"
      },
      {
        "type": "Replace",
        "pattern": {
          "Regex": " {2,}"
        },
        "content": " "
      }
    ]
  },
  "pre_tokenizer": {
    "type": "Metaspace",
    "replacement": "▁",
    "prepend_scheme": "always",
    "split": true
  },
  "post_processor": {
    "type": "TemplateProcessing",
    "single": [
      {
        "SpecialToken": {
          "id": "<cls>",
          "type_id": 0
        }
      },
      {
        "Sequence": {
          "id": "A",
          "type_id": 0
        }
      }
    ],
    "pair": [
      {
        "Sequence": {
          "id": "A",
          "type_id": 0
        }
      },
      {
        "Sequence": {
          "id": "B",
          "type_id": 1
        }
      }
    ],
    "special_tokens": {
      "<cls>": {
        "id": "<cls>",
        "ids": [
          2
        ],
        "tokens": [
          "<cls>"
        ]
      }
    }
  },
  "decoder": {
    "type": "Metaspace",
    "replacement": "▁",
    "prepend_scheme": "always",
    "split": true
  },
  "model": {
    "type": "Unigram",
    "unk_id": 1,
    "vocab": [
      [
        "<pad>",
        0.0
      ],
      [
        "<unk>",
        0.0
      ],
      [
        "<cls>",
        0.0
      ],
      [
        "▁da",
        -2.9890289557631053
      ],
      [
        "n",
        -3.044221370152311
      ],
      [
        "▁",
        -3.1696749127133153
      ],
      [
        ".",
        -3.644571698812081
      ],
      [
        "a",
        -3.703324228567932
      ],
      [
        ",",
        -3.7264802758022135
      ],
      [
        "▁na",
        -4.090887107292012
      ],
      [
        "▁a",
        -4.160506924802282
      ],
      [
        "r",
        -4.165783084376131
      ],
      [
        "▁ya",
        -4.365636891147782
      ],
      [
        "▁ta",
        -4.381664769509951
      ],
      [
        "i",
        -4.447762658905611
      ],
      [
        "▁ba",
        -4.794403680005905
      ],
      [
        "e",
        -4.934202525832949
      ],
      [
        "▁kuma",
        -5.034194381541272
      ],
      [
        "in",
        -5.1527567800248315
      ],
      [
        "▁su",
        -5.237367115208459
      ],
      [
        "▁ke",
        -5.240824119419491
      ],
      [
        "da",
        -5.260511394747573
      ],
      [
        "ar",
        -5.318555292963218
      ],
      [
        "▁ne",
        -5.334010924424078
      ],
      [
        "▁cikin",
        -5.3974594936365925
      ],
      [
        "▁za",
        -5.405939670690303
      ],
      [
        "▁mai",
        -5.430624171148671
      ],
      [
        "▁ka",
        -5.5353120816281525
      ],
      [
        "▁ko",
        -5.5675889903001
      ],
      [
        "▁yi",
        -5.5742063118455825
      ],
      [
        "wa",
        -5.587153362226252
      ],
      [
        "▁sun",
        -5.614766924266276
      ],
      [
        "▁shi",
        -5.655387121361241
      ],
      [
        "▁A",
        -5.661005944645672
      ],
      [
        "▁iya",
        -5.778163040636755
      ],
      [
        "▁zuwa",
        -5.795076539490874
      ],
      [
        "u",
        -5.809169789933403
      ],
      [
        "s",
        -5.813094436904048
      ],
      [
        "▁ga",
        -5.817676811007937
      ],
      [
        "an",
        -5.840738151834892
      ],
      [
        "▁kan",
        -5.851548300542261
      ],
      [
        "▁masu",
        -5.856581136075189
      ],
      [
        "o",
        -5.896390239178302
      ],
      [
        "ta",
        -5.933877560384138
      ],
      [
        "▁aka",
        -5.9614553581028265
      ],
      [
        "▁sa",
        -5.963528731971778
      ],
      [
        "daga",
        -6.0211728328461485
      ],
      [
        "▁wani",
        -6.039507589887682
      ],
      [
        "▁cewa",
        -6.052973832673626
      ],
      [
        "wanda",
        -6.103355678093935
      ],
      [
        "ga",
        -6.107896527820262
      ],
      [
        "▁ce",
        -6.146245543477961
      ],
      [
        "▁yana",
        -6.158036411687963
      ],
      [
        "▁suna",
        -6.175409910491988
      ],
      [
        "su",
        -6.175858452594595
      ],
      [
        "▁ma",
        -6.196226547412642
      ],
      [
        "▁wasan",
        -6.197309127958258
      ],
      [
        "▁wasu",
        -6.208747183291731
      ],
      [
        "sa",
        -6.2311839707123315
      ],
      [
        "on",
        -6.233553414767746
      ],
      [
        "▁suka",
        -6.240365021427268
      ],
      [
        "▁do",
        -6.24855378465946
      ],
      [
        "▁lokacin",
        -6.282108334613412
      ],
      [
        "tare",
        -6.30439989158652
      ],
      [
        "▁ruwa",
        -6.3215492119548955
      ],
      [
        "▁samu",
        -6.323534862799514
      ],
      [
        "▁d",
        -6.342067224845826
      ],
      [
        "▁wannan",
        -6.38990495777993
      ],
      [
        "▁wata",
        -6.393845577147372
      ],
      [
        ")",
        -6.3951528818729315
      ],
      [
        "amma",
        -6.439385115365276
      ],
      [
        "▁mafi",
        -6.4454847605771235
      ],
      [
        "▁bayan",
        -6.4465026926179885
      ],
      [
        "-",
        -6.451911172735917
      ],
      [
        "▁wa",
        -6.467268787375196
      ],
      [
        "ke",
        -6.486796000585418
      ],
      [
        "d",
        -6.487185586407515
      ],
      [
        "▁jirgi",
        -6.505518430101883
      ],
      [
        "▁zama",
        -6.511674159354348
      ],
      [
        "”",
        -6.517271045062783
      ],
      [
        "▁tafiya",
        -6.5184354467588115
      ],
      [
        "▁kasar",
        -6.551992494634074
      ],
      [
        "▁shiga",
        -6.569060717415459
      ],
      [
        "▁duniya",
        -6.574231191024605
      ],
      [
        "▁biyu",
        -6.575311101140015
      ],
      [
        "ya",
        -6.576499864462282
      ],
      [
        "▁T",
        -6.591620140904337
      ],
      [
        "▁gaba",
        -6.594695723694095
      ],
      [
        "▁k",
        -6.606643228045275
      ],
      [
        "y",
        -6.6110761166505965
      ],
      [
        "▁duk",
        -6.611249970547651
      ],
      [
        "ne",
        -6.615387893741113
      ],
      [
        "▁sama",
        -6.615633151636947
      ],
      [
        "war",
        -6.633233333539325
      ],
      [
        "k",
        -6.63639836595312
      ],
      [
        "▁(",
        -6.638635409279544
      ],
      [
        "▁fi",
        -6.6489794935676
      ],
      [
        "un",
        -6.666644502324038
      ],
      [
        "▁farko",
        -6.678212919882294
      ],
      [
        "omin",
        -6.687460765445385
      ],
      [
        "▁yayin",
        -6.6926318343820235
      ],
      [
        "ka",
        -6.69825775193263
      ],
      [
        "▁sha",
        -6.712071285729829
      ],
      [
        "na",
        -6.716549615400055
      ],
      [
        "don",
        -6.730944106231769
      ],
      [
        "▁har",
        -6.7353925104756485
      ],
      [
        "▁An",
        -6.736272122647704
      ],
      [
        "▁mutane",
        -6.7566230757489505
      ],
      [
        "▁ci",
        -6.759185099507436
      ],
      [
        "▁yawon",
        -6.763006316051978
      ],
      [
        "▁“",
        -6.786954745112171
      ],
      [
        "▁kai",
        -6.7933890357569595
      ],
      [
        "t",
        -6.7994905361673865
      ],
      [
        "▁yawanci",
        -6.810464477923352
      ],
      [
        "▁wajen",
        -6.816828145311674
      ],
      [
        "▁kusa",
        -6.8318023271618085
      ],
      [
        "▁yawa",
        -6.839832986664713
      ],
      [
        "▁matsayin",
        -6.844560471540468
      ],
      [
        "g",
        -6.845672297599798
      ],
      [
        "▁kasa",
        -6.856495549095258
      ],
      [
        "▁ku",
        -6.860237686813596
      ],
      [
        "m",
        -6.86769915334477
      ],
      [
        "▁I",
        -6.871025967931889
      ],
      [
        "kin",
        -6.890527965240696
      ],
      [
        "▁S",
        -6.913638361267841
      ],
      [
        "▁nun",
        -6.918894450540336
      ],
      [
        "ci",
        -6.9233680942505265
      ],
      [
        "tar",
        -6.936796247339312
      ],
      [
        "▁shekara",
        -6.937312997062891
      ],
      [
        "▁jiki",
        -6.939202960412654
      ],
      [
        "▁guda",
        -6.93930583605551
      ],
      [
        "▁gida",
        -6.945291138817833
      ],
      [
        "▁ido",
        -6.94596749073272
      ],
      [
        "ce",
        -6.957410739636172
      ],
      [
        "▁sabo",
        -6.96122446027314
      ],
      [
        "▁haka",
        -6.962800497301616
      ],
      [
        "▁yin",
        -6.975706307097845
      ],
      [
        "▁kasance",
        -6.980671345366136
      ],
      [
        "l",
        -6.989108955052009
      ],
      [
        "▁ƙasa",
        -6.989431763195098
      ],
      [
        "▁K",
        -6.989495969127294
      ],
      [
        "▁amfani",
        -6.990298195779002
      ],
      [
        "shin",
        -6.991093982513034
      ],
      [
        "rin",
        -6.9911568673132845
      ],
      [
        "▁baya",
        -6.994201809090816
      ],
      [
        "▁abin",
        -6.996985569183149
      ],
      [
        "nan",
        -6.998935476595512
      ],
      [
        "yar",
        -7.000318409912662
      ],
      [
        "ma",
        -7.0139682415444575
      ],
      [
        "kar",
        -7.017328459220368
      ],
      [
        "▁s",
        -7.0350455948305495
      ],
      [
        "▁kungiyar",
        -7.038291363519474
      ],
      [
        "▁Ma",
        -7.039096487019583
      ],
      [
        "▁hanyar",
        -7.043015084084324
      ],
      [
        "▁ƙar",
        -7.056668103679378
      ],
      [
        "▁kaya",
        -7.065797947627874
      ],
      [
        "shi",
        -7.066178681958156
      ],
      [
        "cin",
        -7.0793982436306555
      ],
      [
        "▁gari",
        -7.082228772767478
      ],
      [
        "▁ind",
        -7.089498098162909
      ],
      [
        "▁lokaci",
        -7.09539294429699
      ],
      [
        "▁babba",
        -7.104031751637036
      ],
      [
        "▁ƙasar",
        -7.106379073170308
      ],
      [
        "▁kama",
        -7.115868581751857
      ],
      [
        "▁yanayi",
        -7.120609600716685
      ],
      [
        "▁g",
        -7.1240780559028085
      ],
      [
        "▁yau",
        -7.135252495508144
      ],
      [
        "▁Amurka",
        -7.151387009844414
      ],
      [
        "▁waɗan",
        -7.152077758037436
      ],
      [
        "▁Da",
        -7.158653413234223
      ],
      [
        "▁kyau",
        -7.159228310255379
      ],
      [
        "nin",
        -7.161578775054449
      ],
      [
        "▁fara",
        -7.168286847347465
      ],
      [
        "▁wurin",
        -7.172630607276913
      ],
      [
        "▁idan",
        -7.1736061994168505
      ],
      [
        "a,",
        -7.17646475428738
      ],
      [
        "ake",
        -7.189804811394297
      ],
      [
        "dan",
        -7.200992934138765
      ],
      [
        "▁yake",
        -7.203113960748025
      ],
      [
        "▁jiragen",
        -7.213792579484251
      ],
      [
        "▁Duniya",
        -7.21393776411144
      ],
      [
        "▁shekaru",
        -7.219252490428374
      ],
      [
        "▁cutar",
        -7.221953182439805
      ],
      [
        "▁wadan",
        -7.230691478942521
      ],
      [
        "ba",
        -7.232199902233543
      ],
      [
        "▁W",
        -7.241519262692229
      ],
      [
        "▁ita",
        -7.242523695323058
      ],
      [
        "▁nasara",
        -7.251092912601091
      ],
      [
        "▁ji",
        -7.2613243363169
      ],
      [
        "▁san",
        -7.261647685745788
      ],
      [
        "▁bud",
        -7.272162345733992
      ],
      [
        "▁sosai",
        -7.280235051768649
      ],
      [
        "▁yanzu",
        -7.280609833668223
      ],
      [
        "dda",
        -7.287294523186991
      ],
      [
        "min",
        -7.289800634710861
      ],
      [
        "▁ha",
        -7.31142763125024
      ],
      [
        "▁teku",
        -7.311725477359844
      ],
      [
        "▁Ya",
        -7.321805785733462
      ],
      [
        "e-",
        -7.327563471958991
      ],
      [
        "▁irin",
        -7.3298921230665615
      ],
      [
        "mar",
        -7.3353758213147255
      ],
      [
        "h",
        -7.342815941266652
      ],
      [
        "din",
        -7.348037890659331
      ],
      [
        "▁girma",
        -7.35151519066065
      ],
      [
        "▁M",
        -7.351614657092479
      ],
      [
        "▁bincike",
        -7.351639787887972
      ],
      [
        "▁kankara",
        -7.352184601490366
      ],
      [
        "▁birni",
        -7.352961731485319
      ],
      [
        "▁hannu",
        -7.35953934079267
      ],
      [
        "▁bayyana",
        -7.363729860140378
      ],
      [
        "▁rana",
        -7.3703528969274235
      ],
      [
        "▁wurare",
        -7.387225477781314
      ],
      [
        "suke",
        -7.389238442753892
      ],
      [
        "▁Bu",
        -7.38977631216677
      ],
      [
        "▁wasannin",
        -7.391860782448371
      ],
      [
        "▁hawa",
        -7.401802538739899
      ],
      [
        "▁daya",
        -7.4069034845606465
      ],
      [
        "▁tun",
        -7.407970991228783
      ],
      [
        "▁sani",
        -7.410849671114294
      ],
      [
        "fin",
        -7.413262693411581
      ],
      [
        "▁shugaban",
        -7.420641087381741
      ],
      [
        "▁B",
        -7.421430226079988
      ],
      [
        "en",
        -7.423175400860533
      ],
      [
        "▁shakatawa",
        -7.4285480689377685
      ],
      [
        "una",
        -7.434236471824072
      ],
      [
        "re",
        -7.442899544170833
      ],
      [
        "▁yankin",
        -7.447555994074601
      ],
      [
        "uwa",
        -7.45286870578637
      ],
      [
        "▁hankali",
        -7.472066499653398
      ],
      [
        "▁t",
        -7.479387839861509
      ],
      [
        "▁sam",
        -7.482478091506185
      ],
      [
        "awa",
        -7.484175569872667
      ],
      [
        "a.",
        -7.485773147533617
      ],
      [
        "▁Ko",
        -7.487542164214709
      ],
      [
        "▁G",
        -7.493060082975019
      ],
      [
        "▁b",
        -7.497363373311855
      ],
      [
        "f",
        -7.506263887587181
      ],
      [
        "▁haifar",
        -7.506707366604137
      ],
      [
        "▁Afirka",
        -7.510642415315891
      ],
      [
        "▁Jamus",
        -7.510713225124235
      ],
      [
        "▁ana",
        -7.5145414198140035
      ],
      [
        "▁mutum",
        -7.519179961130023
      ],
      [
        "▁gudu",
        -7.520638812352138
      ],
      [
        "▁ɗaya",
        -7.5208810343389505
      ],
      [
        "akwai",
        -7.521548641919694
      ],
      [
        "▁aikin",
        -7.545786328396076
      ],
      [
        "iyar",
        -7.546402421026826
      ],
      [
        "w",
        -7.546630752037001
      ],
      [
        "tafiye",
        -7.554245905470667
      ],
      [
        "er",
        -7.555146045973759
      ],
      [
        "▁hada",
        -7.5555962463072905
      ],
      [
        "▁wuraren",
        -7.558022107489016
      ],
      [
        "▁kawa",
        -7.568149563791011
      ],
      [
        "▁la",
        -7.570322862062442
      ],
      [
        "▁Sa",
        -7.57490677317289
      ],
      [
        "▁kwa",
        -7.582358189776334
      ],
      [
        "▁wasa",
        -7.586721728280638
      ],
      [
        "she",
        -7.589788558426239
      ],
      [
        "▁kar",
        -7.590975641299941
      ],
      [
        "▁asali",
        -7.602066829658282
      ],
      [
        "iya",
        -7.605178495368477
      ],
      [
        "▁abinci",
        -7.608827565360233
      ],
      [
        "▁cuta",
        -7.613842643418053
      ],
      [
        "▁manya",
        -7.614684815322226
      ],
      [
        "rashin",
        -7.620163425470562
      ],
      [
        "▁kwallo",
        -7.620820015171466
      ],
      [
        "▁ɗauk",
        -7.635749437199022
      ],
      [
        "won",
        -7.6359776703526805
      ],
      [
        "▁kasashen",
        -7.640117374281001
      ],
      [
        "C",
        -7.645360617945013
      ],
      [
        "▁Ba",
        -7.646780101596606
      ],
      [
        "▁-",
        -7.654988632677981
      ],
      [
        "▁bai",
        -7.655066953519265
      ],
      [
        "▁ciki",
        -7.655816967560673
      ],
      [
        "▁waje",
        -7.656963724086825
      ],
      [
        "▁tsaka",
        -7.658776287238124
      ],
      [
        "▁zaman",
        -7.665408857449421
      ],
      [
        "▁ra",
        -7.66549222384281
      ],
      [
        "▁tana",
        -7.669602555305126
      ],
      [
        "▁yawan",
        -7.672688149630749
      ],
      [
        "b",
        -7.674749285697423
      ],
      [
        "▁Ana",
        -7.6747909781912185
      ],
      [
        "▁L",
        -7.678446858847585
      ],
      [
        "▁gasa",
        -7.684417375377105
      ],
      [
        "ku",
        -7.687892047574151
      ],
      [
        "▁gam",
        -7.688125870237953
      ],
      [
        "kan",
        -7.688918643369407
      ],
      [
        "▁bi",
        -7.690803127153361
      ],
      [
        "▁Za",
        -7.693126919798976
      ],
      [
        "▁lafiya",
        -7.698970482550803
      ],
      [
        "▁dare",
        -7.699300744722144
      ],
      [
        ";",
        -7.701551158667287
      ],
      [
        "▁tsibirai",
        -7.701753809465442
      ],
      [
        "▁dole",
        -7.703625593205304
      ],
      [
        "▁‘ya",
        -7.703838194102646
      ],
      [
        "▁rauni",
        -7.705361129097032
      ],
      [
        "▁sami",
        -7.705776631408327
      ],
      [
        "▁an",
        -7.706070821442038
      ],
      [
        "▁Majalisar",
        -7.707741836334025
      ],
      [
        "▁tar",
        -7.710682516992693
      ],
      [
        "▁Japan",
        -7.711556190574185
      ],
      [
        "to",
        -7.712025947567373
      ],
      [
        "i,",
        -7.713391956328069
      ],
      [
        "ɗan",
        -7.715829014559871
      ],
      [
        "▁kun",
        -7.715884016416741
      ],
      [
        "le",
        -7.717853646060461
      ],
      [
        "▁kudi",
        -7.720365088145959
      ],
      [
        "bin",
        -7.721966009365861
      ],
      [
        "lo",
        -7.723612161810625
      ],
      [
        "▁dauk",
        -7.725891515452643
      ],
      [
        "▁nan",
        -7.726155030882376
      ],
      [
        "ni",
        -7.727078363199105
      ],
      [
        "▁sake",
        -7.730279768576544
      ],
      [
        "ji",
        -7.733060251035766
      ],
      [
        "▁tabbata",
        -7.733626978077568
      ],
      [
        "ing",
        -7.735536990645963
      ],
      [
        "▁tseren",
        -7.742718859472713
      ],
      [
        "▁tashi",
        -7.7453158196247
      ],
      [
        "▁karo",
        -7.752095145851592
      ],
      [
        "annan",
        -7.760980463512549
      ],
      [
        "▁sab",
        -7.767654608203558
      ],
      [
        "▁wuce",
        -7.77045269960167
      ],
      [
        "▁f",
        -7.777700644486112
      ],
      [
        "aye",
        -7.789168825105314
      ],
      [
        "makon",
        -7.796400752577186
      ],
      [
        "fiye",
        -7.797876485827844
      ],
      [
        "▁Wa",
        -7.805236561159468
      ],
      [
        "▁kowan",
        -7.806157054359591
      ],
      [
        ":",
        -7.812607790140408
      ],
      [
        "▁abubuwa",
        -7.812663791183288
      ],
      [
        "▁motoci",
        -7.812705867570042
      ],
      [
        "▁gidaje",
        -7.8134817192685535
      ],
      [
        "▁ƙwa",
        -7.8142443939001485
      ],
      [
        "▁Duk",
        -7.815854260021949
      ],
      [
        "▁Yawanci",
        -7.817846279263204
      ],
      [
        "▁mata",
        -7.819258989798872
      ],
      [
        "▁wuri",
        -7.821508155744476
      ],
      [
        "▁mu",
        -7.822882315510327
      ],
      [
        "▁nem",
        -7.823719634218913
      ],
      [
        "▁dokar",
        -7.826623568634693
      ],
      [
        "ki",
        -7.827114234086618
      ],
      [
        "▁sojojin",
        -7.829192788241744
      ],
      [
        "▁musamman",
        -7.831537919412593
      ],
      [
        "▁gani",
        -7.835777555197501
      ],
      [
        "▁iyaka",
        -7.841822002831879
      ],
      [
        "▁ran",
        -7.845747617978603
      ],
      [
        "▁daban",
        -7.846108461188287
      ],
      [
        "ancin",
        -7.847435753363595
      ],
      [
        "▁go",
        -7.848260637096486
      ],
      [
        "▁j",
        -7.84954916608508
      ],
      [
        "▁shirin",
        -7.849686703838901
      ],
      [
        "▁C",
        -7.8502217764712565
      ],
      [
        "▁tarihi",
        -7.8521124896711125
      ],
      [
        "G",
        -7.85408171173761
      ],
      [
        "▁al'adun",
        -7.854754965574987
      ],
      [
        "▁tafiy",
        -7.858878839230153
      ],
      [
        "▁ziyarta",
        -7.859443842311957
      ],
      [
        "son",
        -7.861051162303619
      ],
      [
        "▁sany",
        -7.862930096025133
      ],
      [
        "ton",
        -7.863560952651723
      ],
      [
        "anin",
        -7.866442360812991
      ],
      [
        "▁kafa",
        -7.871876556861421
      ],
      [
        "▁mara",
        -7.8797656786486225
      ],
      [
        "▁buƙata",
        -7.8800367508421125
      ],
      [
        "▁Y",
        -7.890541657149637
      ],
      [
        "▁dutse",
        -7.893844069344237
      ],
      [
        "▁aiki",
        -7.897125096185384
      ],
      [
        "▁daji",
        -7.900806491136608
      ],
      [
        "ekun",
        -7.901062425618839
      ],
      [
        "arin",
        -7.902992306103805
      ],
      [
        "uwar",
        -7.912983967938657
      ],
      [
        "z",
        -7.91869729497347
      ],
      [
        "▁hanya",
        -7.9329106059289085
      ],
      [
        "kun",
        -7.935590433358478
      ],
      [
        "▁sauran",
        -7.93701891224827
      ],
      [
        "▁mil",
        -7.937028048191216
      ],
      [
        "▁daban-daban",
        -7.937663313958804
      ],
      [
        "▁kullun",
        -7.937802490179676
      ],
      [
        "▁'yan",
        -7.938097014153426
      ],
      [
        "▁asibiti",
        -7.938278287344284
      ],
      [
        "▁mulki",
        -7.939486423719059
      ],
      [
        "▁rahoto",
        -7.939504018026822
      ],
      [
        "▁amince",
        -7.940746928096467
      ],
      [
        "▁Bayan",
        -7.941734638612729
      ],
      [
        "▁kokari",
        -7.942054865549116
      ],
      [
        "▁ƙarfi",
        -7.942645691852343
      ],
      [
        "▁gudanar",
        -7.94281342153798
      ],
      [
        "▁gabata",
        -7.942933871391986
      ],
      [
        "▁yamma",
        -7.9469310726441655
      ],
      [
        "▁karshe",
        -7.947019911761366
      ],
      [
        "▁bambanta",
        -7.949707445845798
      ],
      [
        "▁buga",
        -7.949842629609917
      ],
      [
        "sar",
        -7.950001074668762
      ],
      [
        "▁tsawo",
        -7.950845596936736
      ],
      [
        "▁motar",
        -7.95141934666474
      ],
      [
        "fi",
        -7.953491332666768
      ],
      [
        "▁R",
        -7.955633853377474
      ],
      [
        "▁yan",
        -7.958212076970294
      ],
      [
        "▁arewa",
        -7.9584222410947545
      ],
      [
        "▁gwamnatin",
        -7.961597027497444
      ],
      [
        "▁kiman",
        -7.9617915454193104
      ],
      [
        "▁wad",
        -7.963158478881601
      ],
      [
        "▁Wasan",
        -7.963480974051442
      ],
      [
        "▁ciwo",
        -7.965900603666897
      ],
      [
        "▁tsarin",
        -7.97086345054823
      ],
      [
        "▁hana",
        -7.977478434463642
      ],
      [
        "▁P",
        -7.986292597320806
      ],
      [
        "▁3",
        -7.988221700315602
      ],
      [
        "8",
        -7.99188556728113
      ],
      [
        "▁ɗin",
        -7.996690128561089
      ],
      [
        "s,",
        -8.002461355977694
      ],
      [
        "▁kowa",
        -8.004816024150578
      ],
      [
        "▁saka",
        -8.00682646109328
      ],
      [
        "▁haɗi",
        -8.007780266937674
      ],
      [
        "sashen",
        -8.009217753732488
      ],
      [
        "▁kwana",
        -8.012520774870824
      ],
      [
        "▁Ta",
        -8.013687779296719
      ],
      [
        "▁kira",
        -8.013838291049142
      ],
      [
        "4",
        -8.014679219035443
      ],
      [
        "▁wasanni",
        -8.017854614768591
      ],
      [
        "▁abu",
        -8.019893356750712
      ],
      [
        "▁tsere",
        -8.037210894520943
      ],
      [
        "▁ƙasashe",
        -8.037923660022098
      ],
      [
        "▁hakan",
        -8.040285019745397
      ],
      [
        "ayen",
        -8.041251339426553
      ],
      [
        "▁Do",
        -8.042486916388151
      ],
      [
        "▁r",
        -8.044914472133533
      ],
      [
        "▁saba",
        -8.051540277710282
      ],
      [
        "afin",
        -8.055186832547994
      ],
      [
        "▁F",
        -8.059385488110884
      ],
      [
        "▁yara",
        -8.063033967734318
      ],
      [
        "▁dama",
        -8.066485720778415
      ],
      [
        "▁dusa",
        -8.07275836743107
      ],
      [
        "ron",
        -8.073332647338464
      ],
      [
        "▁daidai",
        -8.077438575294956
      ],
      [
        "/",
        -8.08051941264712
      ],
      [
        "▁lokuta",
        -8.080519662108955
      ],
      [
        "▁ɓangare",
        -8.08051993609816
      ],
      [
        "▁ƙanƙara",
        -8.080522544653869
      ],
      [
        "▁Yuli",
        -8.080524814056943
      ],
      [
        "▁Faransa",
        -8.080530356402546
      ],
      [
        "▁dabbobi",
        -8.080536027669307
      ],
      [
        "▁Turai",
        -8.080552159298078
      ],
      [
        "▁John",
        -8.080580588052618
      ],
      [
        "▁gwiwa",
        -8.080602018408058
      ],
      [
        "▁ƙungiyar",
        -8.080671045165706
      ],
      [
        "▁zaben",
        -8.081086596350811
      ],
      [
        "▁takarar",
        -8.081667722699457
      ],
      [
        "▁Nor",
        -8.082361463684261
      ],
      [
        "▁Kudu",
        -8.084259956369802
      ],
      [
        "▁alaka",
        -8.086127766907655
      ],
      [
        "▁shirya",
        -8.08893881002806
      ],
      [
        "ƙ",
        -8.090187176136382
      ],
      [
        "ra",
        -8.092235936834074
      ],
      [
        "▁saman",
        -8.097821674347749
      ],
      [
        "▁ƙarshen",
        -8.099983611505907
      ],
      [
        "▁miliy",
        -8.10062301813292
      ],
      [
        "▁otal",
        -8.103869560564323
      ],
      [
        "ri",
        -8.104181874801894
      ],
      [
        "▁Ro",
        -8.104937695537537
      ],
      [
        "▁canj",
        -8.10541943079886
      ],
      [
        "ai",
        -8.105847852682256
      ],
      [
        "▁Ra",
        -8.106084490979923
      ],
      [
        "▁hanyoyin",
        -8.106308017784743
      ],
      [
        "▁H",
        -8.10798845984042
      ],
      [
        "▁zafi",
        -8.112234281112272
      ],
      [
        "▁cike",
        -8.11242191955311
      ],
      [
        "▁J",
        -8.119795689381734
      ],
      [
        "▁kada",
        -8.120495359755076
      ],
      [
        "▁yakin",
        -8.122004655668755
      ],
      [
        "▁sanar",
        -8.123691059947072
      ],
      [
        "▁sau",
        -8.124545830264802
      ],
      [
        "rage",
        -8.130100880791296
      ],
      [
        "▁yad",
        -8.131550958367423
      ],
      [
        "3",
        -8.1318198631358
      ],
      [
        "▁maza",
        -8.132221848549191
      ],
      [
        "▁magana",
        -8.135279355424341
      ],
      [
        "▁baki",
        -8.136885894543495
      ],
      [
        "▁Ka",
        -8.138693700515084
      ],
      [
        "▁kamu",
        -8.145637354842144
      ],
      [
        "zo",
        -8.148236490229293
      ],
      [
        "▁Ƙ",
        -8.150700127104933
      ],
      [
        "▁O",
        -8.152997067802865
      ],
      [
        "▁N",
        -8.153307704019923
      ],
      [
        "▁faɗi",
        -8.15413218672729
      ],
      [
        "D",
        -8.155825221853574
      ],
      [
        "yi",
        -8.157060282178971
      ],
      [
        "’a",
        -8.158838017672458
      ],
      [
        "▁U",
        -8.159347367363411
      ],
      [
        "▁kaɗa",
        -8.159755970985252
      ],
      [
        "▁kashi",
        -8.163079994593865
      ],
      [
        "2",
        -8.164750044327029
      ],
      [
        "▁aboka",
        -8.165395103561808
      ],
      [
        "▁19",
        -8.16729834663541
      ],
      [
        "▁kana",
        -8.169455689553585
      ],
      [
        "aka",
        -8.170304258966311
      ],
      [
        "bu",
        -8.172572138152068
      ],
      [
        "▁La",
        -8.174342655372058
      ],
      [
        "▁4",
        -8.176437769521273
      ],
      [
        "▁Co",
        -8.180662718036695
      ],
      [
        "▁doka",
        -8.18252968293404
      ],
      [
        "▁Yana",
        -8.183338594547536
      ],
      [
        "▁tsak",
        -8.18390995437968
      ],
      [
        "▁kasashe",
        -8.183996823340399
      ],
      [
        "▁dog",
        -8.18500608822859
      ],
      [
        "▁fili",
        -8.188680597985938
      ],
      [
        "la",
        -8.190620373085842
      ],
      [
        "oma",
        -8.19322928129142
      ],
      [
        "▁han",
        -8.196979329070393
      ],
      [
        "lin",
        -8.204668431004482
      ],
      [
        "▁San",
        -8.211244563149908
      ],
      [
        "me",
        -8.220498717217088
      ],
      [
        "▁Lo",
        -8.224661262021396
      ],
      [
        "▁kasancewa",
        -8.230464448123024
      ],
      [
        "▁uku",
        -8.23599183028349
      ],
      [
        "yoyin",
        -8.238194426114937
      ],
      [
        "lon",
        -8.239109959922082
      ],
      [
        "▁Olympics",
        -8.247186079315817
      ],
      [
        "▁zanga-zanga",
        -8.247186079316048
      ],
      [
        "▁tikiti",
        -8.247187270312095
      ],
      [
        "▁buɗe",
        -8.247200221592397
      ],
      [
        "▁izini",
        -8.247204788572896
      ],
      [
        "▁zirga-zirga",
        -8.247236191968344
      ],
      [
        "▁masauki",
        -8.247246383443354
      ],
      [
        "▁gizo",
        -8.24730213992996
      ],
      [
        "▁matsaloli",
        -8.247407670715644
      ],
      [
        "▁Arewa",
        -8.247597920101493
      ],
      [
        "▁sufuri",
        -8.247799816263173
      ],
      [
        "▁alaƙa",
        -8.248178810600995
      ],
      [
        "▁tasiri",
        -8.248307118041383
      ],
      [
        "▁mahimmanci",
        -8.248343667781093
      ],
      [
        "▁jawo",
        -8.249563344609058
      ],
      [
        "▁tura",
        -8.249683042267907
      ],
      [
        "nta",
        -8.249783985508126
      ],
      [
        "ha",
        -8.250697508334596
      ],
      [
        "so",
        -8.25069973736029
      ],
      [
        "▁New",
        -8.250955369849285
      ],
      [
        "▁dukkan",
        -8.251030165876589
      ],
      [
        "▁gwaji",
        -8.251262911805382
      ],
      [
        "▁soke",
        -8.251311235047623
      ],
      [
        "▁taimaka",
        -8.251664644951337
      ],
      [
        "▁takardu",
        -8.252048545270451
      ],
      [
        "que",
        -8.252202214165692
      ],
      [
        "▁Sing",
        -8.253235667364493
      ],
      [
        "sh",
        -8.253421566879958
      ],
      [
        "▁Bir",
        -8.254406952711713
      ],
      [
        "yin",
        -8.256011649366066
      ],
      [
        "▁mots",
        -8.256166572546807
      ],
      [
        "▁kashe",
        -8.257277537778705
      ],
      [
        "▁Koda",
        -8.262523936360374
      ],
      [
        "▁tunani",
        -8.265080153814564
      ],
      [
        "▁gabatar",
        -8.26848938950043
      ],
      [
        "▁kuɗi",
        -8.27004096098932
      ],
      [
        "▁jiya",
        -8.27324882679375
      ],
      [
        "▁kaf",
        -8.275603588353075
      ],
      [
        "▁fadin",
        -8.277429572983795
      ],
      [
        "do",
        -8.277853041636373
      ],
      [
        "▁Na",
        -8.283627155120586
      ],
      [
        "▁hadari",
        -8.284362406773527
      ],
      [
        "ana",
        -8.284682592503472
      ],
      [
        "▁Sun",
        -8.285706678200613
      ],
      [
        "▁kula",
        -8.28779943229905
      ],
      [
        "▁tsibiri",
        -8.28915410296263
      ],
      [
        "yake",
        -8.289541001820252
      ],
      [
        "ncin",
        -8.289777677852918
      ],
      [
        "ukuni",
        -8.290951047851468
      ],
      [
        "▁biyar",
        -8.291608676123198
      ],
      [
        "tanta",
        -8.293921457309033
      ],
      [
        "▁2",
        -8.297410353340306
      ],
      [
        "▁kasuwa",
        -8.300332257042104
      ],
      [
        "p",
        -8.303491434108468
      ],
      [
        "P",
        -8.3070464076018
      ],
      [
        "▁karka",
        -8.310027347655279
      ],
      [
        "man",
        -8.312114920360541
      ],
      [
        "nsu",
        -8.312399272503747
      ],
      [
        "▁gan",
        -8.329418141322126
      ],
      [
        "▁in",
        -8.329999775387472
      ],
      [
        "nci",
        -8.331509918991763
      ],
      [
        "ti",
        -8.332000519865641
      ],
      [
        "1",
        -8.334439779306056
      ],
      [
        "▁kuna",
        -8.335420092407293
      ],
      [
        "▁kasancewar",
        -8.336084113176105
      ],
      [
        "▁tafiyar",
        -8.339164860682217
      ],
      [
        "▁kam",
        -8.339339536062896
      ],
      [
        "▁magani",
        -8.344753673501616
      ],
      [
        "jin",
        -8.34812170684321
      ],
      [
        "▁goy",
        -8.348998890396945
      ],
      [
        "▁fa",
        -8.349640310021035
      ],
      [
        "za",
        -8.355170372067612
      ],
      [
        "ch",
        -8.356703703995679
      ],
      [
        "O",
        -8.360398893819038
      ],
      [
        "▁Wadan",
        -8.363092312595496
      ],
      [
        "▁5",
        -8.363136775484588
      ],
      [
        "N",
        -8.36759169585483
      ],
      [
        "▁bar",
        -8.369346812286814
      ],
      [
        "▁ki",
        -8.371468001547159
      ],
      [
        "ayin",
        -8.372144972209236
      ],
      [
        "▁ts",
        -8.37571553396723
      ],
      [
        "be",
        -8.378507782912529
      ],
      [
        "60",
        -8.390228092595049
      ],
      [
        "de",
        -8.39459902840018
      ],
      [
        "▁alamu",
        -8.40246784466935
      ],
      [
        "▁faru",
        -8.403267766269344
      ],
      [
        "▁h",
        -8.404662556389912
      ],
      [
        "ruwan",
        -8.405413388721637
      ],
      [
        "har",
        -8.40880727631371
      ],
      [
        "▁tsaya",
        -8.411436047420867
      ],
      [
        "kokin",
        -8.428076514823612
      ],
      [
        "▁c",
        -8.430122056060707
      ],
      [
        "▁Majalisa",
        -8.43428127804624
      ],
      [
        "ko",
        -8.444188464652408
      ],
      [
        "▁yanki",
        -8.445194190568838
      ],
      [
        "mu",
        -8.445795549377268
      ],
      [
        "▁bukata",
        -8.446163588529943
      ],
      [
        "ƙa",
        -8.446721368322594
      ],
      [
        "▁Brazil",
        -8.447186079763426
      ],
      [
        "▁Pakistan",
        -8.447186081226626
      ],
      [
        "▁ɓangarori",
        -8.447186164787894
      ],
      [
        "▁Q",
        -8.44718621754149
      ],
      [
        "▁Agusta",
        -8.447186234532015
      ],
      [
        "▁kilomita",
        -8.447186342075192
      ],
      [
        "▁gwamnatoci",
        -8.447188938968608
      ],
      [
        "▁gefe",
        -8.447196014136251
      ],
      [
        "▁kiyaye",
        -8.44719627916875
      ],
      [
        "▁rikici",
        -8.447211316439143
      ],
      [
        "▁bacci",
        -8.447246407641746
      ],
      [
        "▁jinsi",
        -8.447281717723348
      ],
      [
        "▁Canada",
        -8.447304491699287
      ],
      [
        "▁15",
        -8.447330318715876
      ],
      [
        "▁Hakanan",
        -8.44737043469903
      ],
      [
        "▁nauyin",
        -8.447382187753107
      ],
      [
        "▁kimiyya",
        -8.447614422147494
      ],
      [
        "▁sassa",
        -8.447718117089066
      ],
      [
        "▁cigaba",
        -8.447727687263534
      ],
      [
        "▁dalili",
        -8.447967499951964
      ],
      [
        "▁ƙafa",
        -8.448142229204114
      ],
      [
        "▁koyo",
        -8.448176276524674
      ],
      [
        "▁gyara",
        -8.448214804161493
      ],
      [
        "yyuka",
        -8.448706880082046
      ],
      [
        "▁fasaha",
        -8.448938292135066
      ],
      [
        "▁ƙwall",
        -8.449392122006039
      ],
      [
        "▁aure",
        -8.449709794524622
      ],
      [
        "▁zaune",
        -8.4497206225718
      ],
      [
        "uka",
        -8.44989103857451
      ],
      [
        "▁fito",
        -8.45011909732104
      ],
      [
        "anan",
        -8.450380605795406
      ],
      [
        "▁karatu",
        -8.45038526848651
      ],
      [
        "▁mako",
        -8.45045440168871
      ],
      [
        "▁yankuna",
        -8.450625035275793
      ],
      [
        "▁tsaye",
        -8.452029655312947
      ],
      [
        "▁takardar",
        -8.45203341056605
      ],
      [
        "7",
        -8.453030102680986
      ],
      [
        "akan",
        -8.455800998700678
      ],
      [
        "▁kudu",
        -8.456094026116952
      ],
      [
        "▁bakwai",
        -8.45700463592023
      ],
      [
        "▁giya",
        -8.457048928502383
      ],
      [
        "▁mamaye",
        -8.457359174624894
      ],
      [
        "▁201",
        -8.459441349049603
      ],
      [
        "▁kara",
        -8.459790949937227
      ],
      [
        "▁farashin",
        -8.460018937762651
      ],
      [
        "▁kamfanin",
        -8.461454324427965
      ],
      [
        "▁gudana",
        -8.461592140416522
      ],
      [
        "▁yiwuwa",
        -8.462419865440536
      ],
      [
        "▁Ministan",
        -8.46371903069032
      ],
      [
        "▁ruf",
        -8.464647297020718
      ],
      [
        "▁sauƙi",
        -8.465015866203501
      ],
      [
        "▁US",
        -8.468273870548938
      ],
      [
        "▁kallo",
        -8.47041225446154
      ],
      [
        "▁saukar",
        -8.470905021267136
      ],
      [
        "▁Tu",
        -8.472701727204294
      ],
      [
        "▁iyakoki",
        -8.47325058506999
      ],
      [
        "▁bukat",
        -8.473452487891267
      ],
      [
        "▁Le",
        -8.474334871116614
      ],
      [
        ",000",
        -8.475667839990441
      ],
      [
        "land",
        -8.479748560595556
      ],
      [
        "▁kansu",
        -8.481314978576766
      ],
      [
        "▁shawara",
        -8.487378202398547
      ],
      [
        "▁matafiya",
        -8.488098425705257
      ],
      [
        "▁Cu",
        -8.49026693204037
      ],
      [
        "obi",
        -8.490765273974116
      ],
      [
        "al",
        -8.491956445031553
      ],
      [
        "c",
        -8.49499048085387
      ],
      [
        "▁zamani",
        -8.497776612783017
      ],
      [
        "▁lafiyar",
        -8.497984199452658
      ],
      [
        "▁dawo",
        -8.498523665706381
      ],
      [
        "▁mutuwa",
        -8.499072741377367
      ],
      [
        "libi",
        -8.499280690367886
      ],
      [
        "▁ri",
        -8.50195664053334
      ],
      [
        "ita",
        -8.503468275871073
      ],
      [
        "▁ajin",
        -8.50389857764256
      ],
      [
        "▁sanyi",
        -8.504308399168098
      ],
      [
        "ɗin",
        -8.504441235433092
      ],
      [
        "▁wat",
        -8.504665764427433
      ],
      [
        "▁Wan",
        -8.505344288547812
      ],
      [
        "▁w",
        -8.506193363048693
      ],
      [
        "▁tuki",
        -8.507240447122392
      ],
      [
        "akin",
        -8.508708506631072
      ],
      [
        "▁jer",
        -8.509331930499528
      ],
      [
        "▁Me",
        -8.50950937773481
      ],
      [
        "▁kwan",
        -8.510472512157556
      ],
      [
        "▁ƙasashen",
        -8.514486466339484
      ],
      [
        "gon",
        -8.514493301588436
      ],
      [
        "ƙi",
        -8.515014211011655
      ],
      [
        "▁sauka",
        -8.517052827878683
      ],
      [
        "kila",
        -8.519023136844218
      ],
      [
        "▁tekuna",
        -8.52183547417518
      ],
      [
        "A",
        -8.524396492351656
      ],
      [
        "▁karf",
        -8.526953763462416
      ],
      [
        "kwai",
        -8.52761758995739
      ],
      [
        "▁ban",
        -8.52847375423919
      ],
      [
        "▁(N",
        -8.534123716363865
      ],
      [
        "T",
        -8.534301307893845
      ],
      [
        "lar",
        -8.534490575355012
      ],
      [
        "▁Ci",
        -8.534855813170136
      ],
      [
        "bijin",
        -8.537906300817504
      ],
      [
        "▁ƙa",
        -8.53956341249511
      ],
      [
        "▁Mari",
        -8.542946309112484
      ],
      [
        "▁bu",
        -8.543295661044525
      ],
      [
        "▁matsala",
        -8.545741432697563
      ],
      [
        "▁Mas",
        -8.546027361528802
      ],
      [
        "▁tsar",
        -8.546223277556003
      ],
      [
        "▁ziyar",
        -8.547923161901616
      ],
      [
        "▁isa",
        -8.54987755997619
      ],
      [
        "▁Th",
        -8.549910192833558
      ],
      [
        "▁Jam",
        -8.553608642378112
      ],
      [
        "ong",
        -8.553699770467526
      ],
      [
        "▁Har",
        -8.559352188487065
      ],
      [
        "▁shafi",
        -8.56898275475563
      ],
      [
        "zai",
        -8.56914992513383
      ],
      [
        "▁tsa",
        -8.569156064174141
      ],
      [
        "▁had",
        -8.56998192265541
      ],
      [
        "▁kiran",
        -8.57059405695108
      ],
      [
        "▁ja",
        -8.580184665642062
      ],
      [
        "▁20",
        -8.587856976749622
      ],
      [
        "wo",
        -8.59261984419628
      ],
      [
        "▁8",
        -8.599042780345867
      ],
      [
        "ye",
        -8.599966558000828
      ],
      [
        "▁gaz",
        -8.6004426385145
      ],
      [
        "▁nisa",
        -8.601463613685905
      ],
      [
        "▁Al",
        -8.603261621829281
      ],
      [
        "▁gwan",
        -8.605042765987205
      ],
      [
        "▁fuskan",
        -8.605597792852327
      ],
      [
        "▁Sai",
        -8.607830024742059
      ],
      [
        "▁jim",
        -8.608268270883329
      ],
      [
        "▁Turkiy",
        -8.608803339924478
      ],
      [
        "is",
        -8.610368646531024
      ],
      [
        "il",
        -8.613422831911189
      ],
      [
        "▁buƙat",
        -8.615153995398037
      ],
      [
        "▁Se",
        -8.618664686699516
      ],
      [
        "M",
        -8.619172270814751
      ],
      [
        "mbobi",
        -8.61939524723543
      ],
      [
        "gin",
        -8.61943027540661
      ],
      [
        "E",
        -8.620368567201606
      ],
      [
        "▁To",
        -8.624534462871551
      ],
      [
        "▁matu",
        -8.626534214429398
      ],
      [
        "▁sauri",
        -8.628579180626193
      ],
      [
        "cce",
        -8.628602548164213
      ],
      [
        "go",
        -8.62998266522058
      ],
      [
        "mi",
        -8.631145107365253
      ],
      [
        "▁ɗauka",
        -8.631964023953953
      ],
      [
        "alibi",
        -8.640994358090015
      ],
      [
        "▁Ga",
        -8.64224791935793
      ],
      [
        "▁gidan",
        -8.64246723874559
      ],
      [
        "▁Gi",
        -8.643758768707205
      ],
      [
        "asa",
        -8.644961057349951
      ],
      [
        "1.",
        -8.645001701601242
      ],
      [
        "▁zagaye",
        -8.64559660995313
      ],
      [
        "▁shafa",
        -8.64573393150828
      ],
      [
        "▁daidaita",
        -8.647472799415974
      ],
      [
        "▁hanyoyi",
        -8.65181609558051
      ],
      [
        "▁D",
        -8.655183700866708
      ],
      [
        "▁Yan",
        -8.65567447493378
      ],
      [
        "▁Kasa",
        -8.656558676453697
      ],
      [
        "▁6",
        -8.65856837991963
      ],
      [
        "▁yaƙi",
        -8.658941072852036
      ],
      [
        "ika",
        -8.660321115696286
      ],
      [
        "yya",
        -8.661284649671579
      ],
      [
        "nnan",
        -8.662688455958703
      ],
      [
        "wan",
        -8.663754293596794
      ],
      [
        "▁shiri",
        -8.666363478590503
      ],
      [
        "▁tsari",
        -8.671918719890682
      ],
      [
        "mo",
        -8.677919877693915
      ],
      [
        "▁mota",
        -8.686940206642605
      ],
      [
        "damar",
        -8.688261979140364
      ],
      [
        "▁mas",
        -8.690191301450067
      ],
      [
        "▁Ki",
        -8.695835781528736
      ],
      [
        "▁kwall",
        -8.696863822619598
      ],
      [
        "▁fasinjoji",
        -8.697186079314804
      ],
      [
        "▁Rainbow",
        -8.697186081054703
      ],
      [
        "▁Kwamiti",
        -8.697186091661822
      ],
      [
        "▁America",
        -8.697186095626066
      ],
      [
        "▁Zealand",
        -8.697186157938322
      ],
      [
        "▁gargajiya",
        -8.697186197353899
      ],
      [
        "▁ƙungiyoyi",
        -8.697186202873098
      ],
      [
        "▁fasfo",
        -8.697186298159394
      ],
      [
        "▁Shugaba",
        -8.69718667436366
      ],
      [
        "▁Amazon",
        -8.697186918250562
      ],
      [
        "▁duwatsu",
        -8.6971869463861
      ],
      [
        "▁jihohi",
        -8.697189787257994
      ],
      [
        "▁tsirrai",
        -8.697193446963915
      ],
      [
        "▁na’ura",
        -8.697201469241882
      ],
      [
        "▁rigakafi",
        -8.697203558549658
      ],
      [
        "▁Haiti",
        -8.697215763015318
      ],
      [
        "▁jama'a",
        -8.697260615314207
      ],
      [
        "▁Satumba",
        -8.697276937603654
      ],
      [
        "▁Firayi",
        -8.697367094847849
      ],
      [
        "▁tarayya",
        -8.697378485220366
      ],
      [
        "▁bukukuwa",
        -8.697399242991366
      ],
      [
        "▁kammala",
        -8.697414181665888
      ],
      [
        "▁tsammani",
        -8.697521853784684
      ],
      [
        "▁mallak",
        -8.697548397846479
      ],
      [
        "▁kaddamar",
        -8.69756608524252
      ],
      [
        "▁canza",
        -8.697633839446226
      ],
      [
        "▁haraji",
        -8.6976569305087
      ],
      [
        "▁ƙoƙ",
        -8.697685133664576
      ],
      [
        "▁gaggawa",
        -8.697718186970409
      ],
      [
        "▁rundunar",
        -8.697720718205911
      ],
      [
        "▁Sup",
        -8.697751320841178
      ],
      [
        "tse",
        -8.69784372451314
      ],
      [
        "▁Gabas",
        -8.69881351819573
      ],
      [
        "▁sayar",
        -8.698839807905905
      ],
      [
        "▁takwas",
        -8.698915969228553
      ],
      [
        "▁tsanani",
        -8.699072159944167
      ],
      [
        "▁yarjejeniya",
        -8.699093691992058
      ],
      [
        "▁Indiya",
        -8.699259128291283
      ],
      [
        "▁majalisar",
        -8.699530195784444
      ],
      [
        "u.",
        -8.699624871292823
      ],
      [
        "shar",
        -8.699852403396825
      ],
      [
        "▁Amma",
        -8.700549899188857
      ],
      [
        "▁Yayin",
        -8.700585044589204
      ],
      [
        "▁kwaikwayo",
        -8.700722927283053
      ],
      [
        "taniya",
        -8.700951793155674
      ],
      [
        "▁ra’",
        -8.701184360405588
      ],
      [
        "▁Domin",
        -8.701373749265771
      ],
      [
        "ashin",
        -8.70170636267241
      ],
      [
        "▁kyaw",
        -8.701788451755974
      ],
      [
        "▁tsakiya",
        -8.701990780258468
      ],
      [
        "▁labarai",
        -8.702144141791749
      ],
      [
        "▁Ch",
        -8.702300039659562
      ],
      [
        "▁...",
        -8.704438005606423
      ],
      [
        "▁sansani",
        -8.704897130050332
      ],
      [
        "▁Grand",
        -8.705569161020575
      ],
      [
        "▁alh",
        -8.705661505127578
      ],
      [
        "▁haikalin",
        -8.705814641515026
      ],
      [
        "us",
        -8.706246837885582
      ],
      [
        "▁Mart",
        -8.708371849274194
      ],
      [
        "▁sarari",
        -8.709102114104763
      ],
      [
        "▁nufi",
        -8.709205613567157
      ],
      [
        "▁haɗari",
        -8.710549898872847
      ],
      [
        "▁sananne",
        -8.71087589307825
      ],
      [
        "▁Ste",
        -8.711348750290739
      ],
      [
        "▁farawa",
        -8.711404898722035
      ],
      [
        "▁tsada",
        -8.713719831273862
      ],
      [
        "▁All",
        -8.714040793814357
      ],
      [
        "▁can",
        -8.714103329111962
      ],
      [
        "yarwa",
        -8.714617894912427
      ],
      [
        "▁iko",
        -8.716257723853822
      ],
      [
        "yan",
        -8.716720642630753
      ],
      [
        "▁yaduwa",
        -8.716898586427044
      ],
      [
        "▁How",
        -8.717238849533194
      ],
      [
        "ƙe",
        -8.72136718901648
      ],
      [
        "0",
        -8.721746490153993
      ],
      [
        "ungiyar",
        -8.722165513301674
      ],
      [
        "▁24",
        -8.72239586237076
      ],
      [
        "’",
        -8.724111040639702
      ],
      [
        "▁tsayawa",
        -8.724754706516544
      ],
      [
        "▁Australia",
        -8.725203844113777
      ],
      [
        "▁jefa",
        -8.72521494430429
      ],
      [
        "as",
        -8.725585001845609
      ],
      [
        "▁jin",
        -8.726191420488215
      ],
      [
        "'a",
        -8.726924564328096
      ],
      [
        "▁fata",
        -8.727521872819871
      ],
      [
        "▁sann",
        -8.728919940200303
      ],
      [
        "▁siya",
        -8.729303211829318
      ],
      [
        "ers",
        -8.731828282282121
      ],
      [
        "▁rat",
        -8.732759930400697
      ],
      [
        "▁tsalle",
        -8.734384602921427
      ],
      [
        "▁dangan",
        -8.734902053391163
      ],
      [
        "▁ski",
        -8.736448913726992
      ],
      [
        "▁tsoh",
        -8.738132705319712
      ],
      [
        "▁banbanc",
        -8.738180331579123
      ],
      [
        "▁St",
        -8.738363760794973
      ],
      [
        "▁shigo",
        -8.741315029127046
      ],
      [
        "▁dakata",
        -8.751384590855121
      ],
      [
        "▁daula",
        -8.751486326470342
      ],
      [
        "▁cikinsu",
        -8.752833767301237
      ],
      [
        "watan",
        -8.752929333843754
      ],
      [
        "▁Vi",
        -8.752963444214606
      ],
      [
        "▁9",
        -8.753940728081727
      ],
      [
        "▁bayana",
        -8.754783193827262
      ],
      [
        "▁jami’a",
        -8.75541605532722
      ],
      [
        "▁rubuta",
        -8.756090505385881
      ],
      [
        "▁je",
        -8.757219864923744
      ],
      [
        "bi",
        -8.761075774465224
      ],
      [
        "afa",
        -8.761716655429709
      ],
      [
        "▁Re",
        -8.766804186548342
      ],
      [
        "▁Car",
        -8.767802178345447
      ],
      [
        "amar",
        -8.771830577492008
      ],
      [
        "kalm",
        -8.77185719929732
      ],
      [
        "et",
        -8.778686466522696
      ],
      [
        "ning",
        -8.78131200564449
      ],
      [
        "kari",
        -8.783508969747661
      ],
      [
        "▁haɗu",
        -8.784664226563226
      ],
      [
        "▁ƙ",
        -8.784798629520571
      ],
      [
        "ines",
        -8.78748260511032
      ],
      [
        "ban",
        -8.788524024389158
      ],
      [
        "▁18",
        -8.789125011419811
      ],
      [
        "▁1",
        -8.790186423468747
      ],
      [
        "▁zamanin",
        -8.790329140967925
      ],
      [
        "▁Turkiya",
        -8.794280194460526
      ],
      [
        "nt",
        -8.797155731693767
      ],
      [
        "▁tam",
        -8.79841600779243
      ],
      [
        "washe",
        -8.798859045700647
      ],
      [
        "▁masana",
        -8.799282735840569
      ],
      [
        "▁jan",
        -8.800516616577333
      ],
      [
        "ƙar",
        -8.803770019598119
      ],
      [
        "▁Ca",
        -8.806479415055325
      ],
      [
        "▁Ja",
        -8.806494428468383
      ],
      [
        "▁ziyara",
        -8.807026038426464
      ],
      [
        "▁duba",
        -8.807904736951642
      ],
      [
        "64",
        -8.812269873013356
      ],
      [
        "▁kodaya",
        -8.812368812515011
      ],
      [
        "▁hukum",
        -8.817625078637024
      ],
      [
        "▁Tai",
        -8.817800627505742
      ],
      [
        "v",
        -8.818497110438585
      ],
      [
        "▁Was",
        -8.820169500250438
      ],
      [
        "ll",
        -8.820989032023382
      ],
      [
        "▁to",
        -8.82314473849386
      ],
      [
        "▁alama",
        -8.823280477941967
      ],
      [
        "▁ma'a",
        -8.823976500835787
      ],
      [
        "▁doki",
        -8.826572220848176
      ],
      [
        "▁Wakil",
        -8.828684236046316
      ],
      [
        "▁dus",
        -8.830955539332
      ],
      [
        "kuna",
        -8.833789717073445
      ],
      [
        "uta",
        -8.835884767299936
      ],
      [
        "▁haɗa",
        -8.838182066362597
      ],
      [
        "ewar",
        -8.842185309322495
      ],
      [
        "▁m",
        -8.8431382526471
      ],
      [
        "iyyar",
        -8.845628761196755
      ],
      [
        "hi",
        -8.848520827075514
      ],
      [
        "bo",
        -8.848571058016304
      ],
      [
        "th",
        -8.851784598722066
      ],
      [
        "▁n",
        -8.857125414292486
      ],
      [
        "▁shigar",
        -8.857700391123823
      ],
      [
        "ur",
        -8.858513359841874
      ],
      [
        "▁Sch",
        -8.859043454814328
      ],
      [
        "▁hu",
        -8.862590379543985
      ],
      [
        "llo",
        -8.865476222563032
      ],
      [
        "▁Shi",
        -8.866697113831819
      ],
      [
        "▁Go",
        -8.86825936472814
      ],
      [
        "ts",
        -8.871428867580187
      ],
      [
        "▁nahiya",
        -8.87161424690617
      ],
      [
        "▁Sant",
        -8.874177647027215
      ],
      [
        "ng",
        -8.874461287226525
      ],
      [
        "mala",
        -8.881840569024185
      ],
      [
        "500",
        -8.88407636157073
      ],
      [
        "▁gwa",
        -8.885955656126193
      ],
      [
        "▁koma",
        -8.88642529992864
      ],
      [
        "▁fil",
        -8.890741083699591
      ],
      [
        "ihin",
        -8.891795472624043
      ],
      [
        "▁mataka",
        -8.901013154303751
      ],
      [
        "▁Fa",
        -8.902312044009781
      ],
      [
        "cewa",
        -8.90255361026069
      ],
      [
        "I",
        -8.903065841425509
      ],
      [
        "lamuran",
        -8.906411138267499
      ],
      [
        "▁kima",
        -8.907639679480495
      ],
      [
        "▁Par",
        -8.910008302201454
      ],
      [
        "▁16",
        -8.910953141470332
      ],
      [
        "afiya",
        -8.911769836007721
      ],
      [
        "▁mutu",
        -8.912334590403507
      ],
      [
        "▁al'adu",
        -8.913814645548154
      ],
      [
        "ard",
        -8.914980484713295
      ],
      [
        "▁Kamfan",
        -8.9164368667929
      ],
      [
        "▁taba",
        -8.917261761989181
      ],
      [
        "ings",
        -8.918646689533887
      ],
      [
        "6",
        -8.91988733629789
      ],
      [
        "▁kwari",
        -8.923434734610602
      ],
      [
        "▁dub",
        -8.92792535033189
      ],
      [
        "▁dadi",
        -8.934231680416575
      ],
      [
        "li",
        -8.935632835456675
      ],
      [
        "▁Mu",
        -8.944903723504096
      ],
      [
        "▁y",
        -8.945641037146896
      ],
      [
        "ul",
        -8.945755610452432
      ],
      [
        "▁Ha",
        -8.947837753237112
      ],
      [
        "R",
        -8.948528104268636
      ],
      [
        "sarar",
        -8.948693770784544
      ],
      [
        "▁ɗ",
        -8.95090112080185
      ],
      [
        "▁ma'an",
        -8.951901333955401
      ],
      [
        "alla",
        -8.952417403402336
      ],
      [
        "hoo",
        -8.953178167238484
      ],
      [
        "or",
        -8.954936560158247
      ],
      [
        "▁10",
        -8.95632016681265
      ],
      [
        "▁kuma,",
        -8.956555878631288
      ],
      [
        "bal",
        -8.956909397017656
      ],
      [
        "▁z",
        -8.958918009213905
      ],
      [
        "tro",
        -8.959974541080003
      ],
      [
        "▁gwamnati",
        -8.962744713789677
      ],
      [
        "ck",
        -8.963467102424431
      ],
      [
        "mun",
        -8.963508970129475
      ],
      [
        "▁hut",
        -8.966523339170253
      ],
      [
        "▁taka",
        -8.967914583226513
      ],
      [
        "V",
        -8.971351522845014
      ],
      [
        "tattu",
        -8.972726850141683
      ],
      [
        "▁Si",
        -8.972840543437533
      ],
      [
        "ol",
        -8.97325188946891
      ],
      [
        "▁shekar",
        -8.974040629025348
      ],
      [
        "gar",
        -8.974314882089402
      ],
      [
        "uke",
        -8.97578569075352
      ],
      [
        "▁sojoji",
        -8.978225893717797
      ],
      [
        "ff",
        -8.980115087787167
      ],
      [
        "ix",
        -8.980467217600241
      ],
      [
        "▁Pa",
        -8.983051747755173
      ],
      [
        "▁shaf",
        -8.984482964169928
      ],
      [
        "▁ƙarshe",
        -8.985081486547184
      ],
      [
        "▁kaw",
        -8.991237916436573
      ],
      [
        "ahim",
        -8.994766124083593
      ],
      [
        "▁kasan",
        -8.99912598939598
      ],
      [
        "21",
        -8.999529918926074
      ],
      [
        "▁rayuwa",
        -9.000059010747831
      ],
      [
        "▁gama",
        -9.000508695566632
      ],
      [
        "lla",
        -9.000666967289389
      ],
      [
        "ajiyar",
        -9.00154031977112
      ],
      [
        "iki",
        -9.002206823466981
      ],
      [
        "▁kirkir",
        -9.004298396072475
      ],
      [
        "nce",
        -9.0072693856872
      ],
      [
        "▁sabu",
        -9.009257212346975
      ],
      [
        "▁zango",
        -9.010502950934944
      ],
      [
        "▁Black",
        -9.01329406486455
      ],
      [
        "▁Ru",
        -9.017198969819855
      ],
      [
        "▁tash",
        -9.021155944440954
      ],
      [
        "▁ƙan",
        -9.021156725842275
      ],
      [
        "▁tatta",
        -9.024492533090383
      ],
      [
        "▁faɗ",
        -9.025138048068875
      ],
      [
        "▁Indi",
        -9.02777158065905
      ],
      [
        "▁Po",
        -9.027856523935622
      ],
      [
        "zu",
        -9.028234981230499
      ],
      [
        "ja",
        -9.0290018689357
      ],
      [
        "las",
        -9.029514571257389
      ],
      [
        "▁Copenhagen",
        -9.030519412647301
      ],
      [
        "▁Ecuador",
        -9.030519412648356
      ],
      [
        "▁shirye-shirye",
        -9.030519412651316
      ],
      [
        "▁Vancouver",
        -9.03051941266194
      ],
      [
        "?",
        -9.03051941268708
      ],
      [
        "!",
        -9.03051941268708
      ],
      [
        "▁olympic",
        -9.030519412800555
      ],
      [
        "▁Istanbul",
        -9.030519415794114
      ],
      [
        "▁girgiza",
        -9.030519416643084
      ],
      [
        "▁Argentina",
        -9.030519417113005
      ],
      [
        "▁Afghanistan",
        -9.03051941763638
      ],
      [
        "▁rugby",
        -9.030519418114077
      ],
      [
        "▁Baltic",
        -9.030519421440253
      ],
      [
        "▁Disney",
        -9.03051943068158
      ],
      [
        "▁littafi",
        -9.030519485015182
      ],
      [
        "▁magunguna",
        -9.030519554603346
      ],
      [
        "▁¥",
        -9.030519673784875
      ],
      [
        "▁mummuna",
        -9.030519859041021
      ],
      [
        "▁Italiya",
        -9.030519958016292
      ],
      [
        "▁Berlin",
        -9.030521583573966
      ],
      [
        "▁shari’a",
        -9.030521623773815
      ],
      [
        "▁shimfida",
        -9.030521842246731
      ],
      [
        "▁Tseren",
        -9.030522201528447
      ],
      [
        "▁kwalekwale",
        -9.03052283987414
      ],
      [
        "▁Nuwamba",
        -9.030523797379502
      ],
      [
        "▁Biritaniya",
        -9.0305245139497
      ],
      [
        "▁ramuka",
        -9.030527089835465
      ],
      [
        "▁Finland",
        -9.03052965233353
      ],
      [
        "▁rediyo",
        -9.030531873465732
      ],
      [
        "▁kwakwalwa",
        -9.030535295790976
      ],
      [
        "▁kullum",
        -9.030542806791386
      ],
      [
        "▁manufofi",
        -9.030545378809409
      ],
      [
        "▁Atlantika",
        -9.030556110643154
      ],
      [
        "▁Laraba",
        -9.030558704609648
      ],
      [
        "▁2009",
        -9.030562297055479
      ],
      [
        "▁Direb",
        -9.030592541597098
      ],
      [
        "▁sha'awa",
        -9.030609541203955
      ],
      [
        "▁sauƙaƙ",
        -9.030619510941962
      ],
      [
        "▁tafkuna",
        -9.030648427597612
      ],
      [
        "▁Iraki",
        -9.030669894452043
      ],
      [
        "▁kudade",
        -9.030674056768206
      ],
      [
        "▁Tarayya",
        -9.030674133676712
      ],
      [
        "▁al’amura",
        -9.030679185882098
      ],
      [
        "▁mawaƙi",
        -9.03068714476991
      ],
      [
        "▁visa",
        -9.030694038409166
      ],
      [
        "▁halarta",
        -9.030704604482434
      ],
      [
        "▁‘Yan",
        -9.030709356005797
      ],
      [
        "▁hatsarin",
        -9.030726208665449
      ],
      [
        "▁Ƙudu",
        -9.030774125759683
      ],
      [
        "▁kwarewa",
        -9.030779594589369
      ],
      [
        "▁takobi",
        -9.030884620191458
      ],
      [
        "▁1,000",
        -9.03090856269748
      ],
      [
        "▁km2",
        -9.031003787954143
      ],
      [
        "▁iska",
        -9.031030101697484
      ],
      [
        "ntarctic",
        -9.031099571468108
      ],
      [
        "▁hudu",
        -9.031174729797545
      ],
      [
        "elly",
        -9.031211167889179
      ],
      [
        "▁karbabb",
        -9.03125589102478
      ],
      [
        "tun",
        -9.031295970675613
      ],
      [
        "▁Asiya",
        -9.031302955238987
      ],
      [
        "▁bazara",
        -9.031479427474435
      ],
      [
        "▁Fall",
        -9.031576451328696
      ],
      [
        "▁akwati",
        -9.031711548397364
      ],
      [
        "▁guguwa",
        -9.031860129228846
      ],
      [
        "▁Del",
        -9.0319355160914
      ],
      [
        "▁Lamb",
        -9.032034331919665
      ],
      [
        "▁Manuf",
        -9.032169900851075
      ],
      [
        "▁nuts",
        -9.032313083886564
      ],
      [
        "▁Rahot",
        -9.032447361604156
      ],
      [
        "▁Kwana",
        -9.032643282216283
      ],
      [
        "▁nazari",
        -9.032720745062672
      ],
      [
        "▁direb",
        -9.032830417369913
      ],
      [
        "39",
        -9.033010945434754
      ],
      [
        "▁makaɗa",
        -9.033029864502852
      ],
      [
        "▁siyasa",
        -9.033343806563474
      ],
      [
        "▁sha’a",
        -9.033527611091698
      ],
      [
        "▁Massa",
        -9.034035250651742
      ],
      [
        "▁inganta",
        -9.03441124099473
      ],
      [
        "▁kewaye",
        -9.0346351369442
      ],
      [
        "▁hoto",
        -9.034642270984317
      ],
      [
        "▁haske",
        -9.034804150888336
      ],
      [
        "▁riga",
        -9.035148961024237
      ],
      [
        "▁Babba",
        -9.035493462658703
      ],
      [
        "▁Jir",
        -9.03631731752284
      ],
      [
        "▁safiya",
        -9.03632396586022
      ],
      [
        "▁Jamhuriy",
        -9.036368558880662
      ],
      [
        "▁mashig",
        -9.036412465039838
      ],
      [
        "▁dangi",
        -9.036973909768193
      ],
      [
        "▁taimakawa",
        -9.037458013065645
      ],
      [
        "▁gaske",
        -9.037689541866076
      ],
      [
        "▁juna",
        -9.03798794299327
      ],
      [
        "ther",
        -9.038473996477617
      ],
      [
        "▁2017",
        -9.038508633935551
      ],
      [
        "ctor",
        -9.038515179094304
      ],
      [
        "▁Matafiy",
        -9.038775847459096
      ],
      [
        "▁fado",
        -9.038824911427726
      ],
      [
        "os",
        -9.039027933283133
      ],
      [
        "ipp",
        -9.039118906455204
      ],
      [
        "▁sadar",
        -9.03953456417812
      ],
      [
        "▁hukumar",
        -9.041081313182085
      ],
      [
        "▁lard",
        -9.041505112436898
      ],
      [
        "▁Manya",
        -9.042444236991079
      ],
      [
        "▁yabo",
        -9.042572678673071
      ],
      [
        "▁kariya",
        -9.04292859221328
      ],
      [
        "▁Iran",
        -9.04293641725698
      ],
      [
        "▁ƙwararrun",
        -9.042983284448665
      ],
      [
        "▁Bro",
        -9.044221672805861
      ],
      [
        "kanta",
        -9.0446243148998
      ],
      [
        "▁karanta",
        -9.045048750916992
      ],
      [
        "▁damuwa",
        -9.045492622868924
      ],
      [
        "▁karba",
        -9.045884431105188
      ],
      [
        "▁dakaru",
        -9.04632082662325
      ],
      [
        "▁Gran",
        -9.046368925238834
      ],
      [
        "▁dauka",
        -9.046663641456062
      ],
      [
        "▁Wata",
        -9.047036684163611
      ],
      [
        "aika",
        -9.047129060953079
      ],
      [
        "▁Bo",
        -9.047201407571269
      ],
      [
        "▁tattaki",
        -9.047447889841873
      ],
      [
        "▁mint",
        -9.04762104348258
      ],
      [
        "▁Lit",
        -9.048795975083657
      ],
      [
        "▁taimako",
        -9.049138338002319
      ],
      [
        "▁sauro",
        -9.049390094037175
      ],
      [
        "▁zaɓe",
        -9.049905862071439
      ],
      [
        "4,",
        -9.051388754416593
      ],
      [
        "▁Ed",
        -9.052907051723238
      ],
      [
        "▁Mist",
        -9.053019591868638
      ],
      [
        "▁E",
        -9.05395549654908
      ],
      [
        "▁kwayoyi",
        -9.05429861171884
      ],
      [
        "▁Er",
        -9.055437100683491
      ],
      [
        "▁Shiri",
        -9.056014862657161
      ],
      [
        "▁yarda",
        -9.056623303938089
      ],
      [
        "▁cikakk",
        -9.056655888137644
      ],
      [
        "▁nau'i",
        -9.057879679822014
      ],
      [
        "aunuka",
        -9.058019031743049
      ],
      [
        "▁Ol",
        -9.058050508674278
      ],
      [
        "▁Yi",
        -9.058756433150641
      ],
      [
        "▁Tsara",
        -9.059407535002007
      ],
      [
        "▁gaɓ",
        -9.059476023389456
      ],
      [
        "▁kwafi",
        -9.059573541544767
      ],
      [
        "ɗa",
        -9.059638065367967
      ],
      [
        "ph",
        -9.059709811521211
      ],
      [
        "▁Bri",
        -9.060757759332418
      ],
      [
        "▁canje",
        -9.061918524086297
      ],
      [
        "▁miƙa",
        -9.063765046887731
      ],
      [
        "▁jany",
        -9.064793833113521
      ],
      [
        "▁dokokin",
        -9.065529170515402
      ],
      [
        "▁tuna",
        -9.0670260814742
      ],
      [
        "▁kare",
        -9.067079942912244
      ],
      [
        "way",
        -9.067100528779552
      ],
      [
        "▁Bi",
        -9.067388824094444
      ],
      [
        "awan",
        -9.069518780260001
      ],
      [
        "▁Ne",
        -9.071498467788103
      ],
      [
        "▁masa",
        -9.072816437319126
      ],
      [
        "▁Matsa",
        -9.072937437265665
      ],
      [
        "▁40",
        -9.073587063108084
      ],
      [
        "▁laifi",
        -9.074143517368963
      ],
      [
        "kai",
        -9.074288574058274
      ],
      [
        "hap",
        -9.077045863273097
      ],
      [
        "hog",
        -9.077971130586215
      ],
      [
        "▁zangon",
        -9.082908034917153
      ],
      [
        "▁nakasa",
        -9.08456355300358
      ],
      [
        "▁misali",
        -9.085819457893288
      ],
      [
        "sikar",
        -9.087016034279305
      ],
      [
        "▁komai",
        -9.087851817395851
      ],
      [
        "▁Je",
        -9.08929025003671
      ],
      [
        "45",
        -9.089384293894561
      ],
      [
        "hin",
        -9.089723893157023
      ],
      [
        "ami",
        -9.089756807478103
      ],
      [
        "▁sanadiy",
        -9.091013418231238
      ],
      [
        "illa",
        -9.091720431589934
      ],
      [
        "▁ma’a",
        -9.093609201233345
      ],
      [
        "▁Washin",
        -9.093743286863836
      ],
      [
        "lgar",
        -9.094527632334964
      ],
      [
        "▁yank",
        -9.099737110796497
      ],
      [
        "S",
        -9.100781556348938
      ],
      [
        "biyo",
        -9.101451897653213
      ],
      [
        "▁zaɓi",
        -9.101759558838447
      ],
      [
        "▁ƙetare",
        -9.102161967221525
      ],
      [
        "aben",
        -9.102519471637784
      ],
      [
        "▁Pal",
        -9.102881777209175
      ],
      [
        "adda",
        -9.102923437558463
      ],
      [
        "▁layi",
        -9.10459599666995
      ],
      [
        "▁rashi",
        -9.107075184845726
      ],
      [
        "ler",
        -9.107414268294685
      ],
      [
        "a’a",
        -9.10979604701414
      ],
      [
        "▁so",
        -9.110335043277871
      ],
      [
        "▁zagayen",
        -9.110493688083944
      ],
      [
        "▁yaw",
        -9.110975465787702
      ],
      [
        "▁100",
        -9.11121819301489
      ],
      [
        "▁iri",
        -9.111402708511559
      ],
      [
        "ƙin",
        -9.111678092978808
      ],
      [
        "▁kanka",
        -9.112112599588485
      ],
      [
        "por",
        -9.11269911623539
      ],
      [
        "▁He",
        -9.113399641287465
      ],
      [
        "ux",
        -9.113931593398046
      ],
      [
        "▁sh",
        -9.114364263604852
      ],
      [
        "▁al’ada",
        -9.121442532537856
      ],
      [
        "▁juya",
        -9.121655150927701
      ],
      [
        "▁197",
        -9.121817546291641
      ],
      [
        "▁alam",
        -9.122785404613879
      ],
      [
        "ragu",
        -9.124067670697949
      ],
      [
        "▁dai",
        -9.124088561207705
      ],
      [
        "▁2,",
        -9.125550195877961
      ],
      [
        "▁zarta",
        -9.12761007241228
      ],
      [
        "▁tekun",
        -9.128379954549134
      ],
      [
        "▁ɗa",
        -9.129843829794785
      ],
      [
        "▁Du",
        -9.132016362092573
      ],
      [
        "ation",
        -9.135687172534723
      ],
      [
        "dri",
        -9.135870064849076
      ],
      [
        "di",
        -9.136721492362625
      ],
      [
        "▁gar",
        -9.14050254868001
      ],
      [
        "ogon",
        -9.140593871806207
      ],
      [
        "▁Runn",
        -9.14193334360464
      ],
      [
        "▁giyar",
        -9.1488887208764
      ],
      [
        "fa",
        -9.149020848807547
      ],
      [
        "uni",
        -9.149243399185224
      ],
      [
        "▁daɗi",
        -9.149445053873656
      ],
      [
        "▁Dan",
        -9.150702050201678
      ],
      [
        "▁Han",
        -9.150983918627466
      ],
      [
        "▁De",
        -9.152193267936918
      ],
      [
        "tta",
        -9.152894177492122
      ],
      [
        "▁Tar",
        -9.154964042633003
      ],
      [
        "▁gi",
        -9.155068182485442
      ],
      [
        "▁rab",
        -9.165869942093574
      ],
      [
        "▁Tr",
        -9.166801564629637
      ],
      [
        "ese",
        -9.167498307588536
      ],
      [
        "▁Alb",
        -9.168338819569914
      ],
      [
        "▁sa-",
        -9.169667079992298
      ],
      [
        "▁dutsen",
        -9.173243430781898
      ],
      [
        "▁fuska",
        -9.173627552142442
      ],
      [
        "6.",
        -9.174417533576445
      ],
      [
        "▁Jo",
        -9.17662975598687
      ],
      [
        "udu",
        -9.177000040439431
      ],
      [
        "▁bayani",
        -9.178715292822053
      ],
      [
        "jigi",
        -9.178866209752341
      ],
      [
        "▁fam",
        -9.184053174367987
      ],
      [
        "wal",
        -9.184107210008536
      ],
      [
        "mai",
        -9.188290944941079
      ],
      [
        "▁bayanin",
        -9.189494450952383
      ],
      [
        "▁kuɗaɗ",
        -9.189731318929848
      ],
      [
        "▁Ɗa",
        -9.19105301799718
      ],
      [
        "▁lamba",
        -9.19105309084689
      ],
      [
        "asu",
        -9.191714039085184
      ],
      [
        "cewar",
        -9.19482791986116
      ],
      [
        "tawa",
        -9.200669067179517
      ],
      [
        "▁haɗ",
        -9.20068613288211
      ],
      [
        "▁bata",
        -9.20882003156065
      ],
      [
        "'",
        -9.209410837015081
      ],
      [
        "ge",
        -9.210260170102899
      ],
      [
        "00",
        -9.211112620072354
      ],
      [
        "▁bab",
        -9.213097621218784
      ],
      [
        "▁Hi",
        -9.213520468780512
      ],
      [
        "am",
        -9.216290199629572
      ],
      [
        "awo",
        -9.21692867355265
      ],
      [
        "▁mak",
        -9.219150729536622
      ],
      [
        "lu",
        -9.220347332028616
      ],
      [
        "ru",
        -9.222686415967251
      ],
      [
        "r-",
        -9.22534450614535
      ],
      [
        "ndo",
        -9.231637961220205
      ],
      [
        "▁Tsibira",
        -9.234138062918147
      ],
      [
        "▁1.",
        -9.235614779574034
      ],
      [
        "▁hankalin",
        -9.236378088313819
      ],
      [
        "biyar",
        -9.238640757177755
      ],
      [
        "▁Ku",
        -9.238994394089149
      ],
      [
        "ɓe",
        -9.239218357095147
      ],
      [
        "▁labar",
        -9.23953674716875
      ],
      [
        "maye",
        -9.239756039318422
      ],
      [
        "ya.",
        -9.244054855583475
      ],
      [
        "▁waya",
        -9.245450380141186
      ],
      [
        "▁kum",
        -9.25155516906744
      ],
      [
        "▁ukun",
        -9.255922716972954
      ],
      [
        "▁te",
        -9.257596635602706
      ],
      [
        "▁Z",
        -9.257665094407503
      ],
      [
        "▁Ts",
        -9.25877024805464
      ],
      [
        "▁gu",
        -9.259477636149306
      ],
      [
        "▁Kam",
        -9.260876162099347
      ],
      [
        "ila",
        -9.261964939781302
      ],
      [
        "ren",
        -9.26213386651316
      ],
      [
        "▁Tsibir",
        -9.266425483215603
      ],
      [
        "chne",
        -9.268422084078809
      ],
      [
        "ttu",
        -9.269518091976286
      ],
      [
        "▁kur",
        -9.269788539334497
      ],
      [
        "▁zir",
        -9.271030213330901
      ],
      [
        "san",
        -9.271087930626525
      ],
      [
        "▁50",
        -9.272217498442586
      ],
      [
        "▁hali",
        -9.273150432864085
      ],
      [
        "ofi",
        -9.276240547252149
      ],
      [
        "▁dade",
        -9.277973053737162
      ],
      [
        "▁Lak",
        -9.28038390008213
      ],
      [
        "▁Fir",
        -9.281452142527723
      ],
      [
        "waye",
        -9.282495874589754
      ],
      [
        "▁kwanc",
        -9.286414203893019
      ],
      [
        "▁gaban",
        -9.289355837666847
      ],
      [
        "danda",
        -9.290232182416927
      ],
      [
        "▁shida",
        -9.290277883430013
      ],
      [
        "▁Fi",
        -9.291010116718862
      ],
      [
        "ɓa",
        -9.291810625849015
      ],
      [
        "hon",
        -9.296341174779993
      ],
      [
        "▁mur",
        -9.296637942555702
      ],
      [
        "sai",
        -9.296822108715626
      ],
      [
        "ip",
        -9.30068000422289
      ],
      [
        "-19",
        -9.306252185341593
      ],
      [
        "▁Li",
        -9.308954142299026
      ],
      [
        "onin",
        -9.310441183887697
      ],
      [
        "der",
        -9.313375037718243
      ],
      [
        "um",
        -9.313913109169984
      ],
      [
        "▁mataki",
        -9.316415232087142
      ],
      [
        "▁zur",
        -9.317401340891287
      ],
      [
        "▁Sh",
        -9.322848307554981
      ],
      [
        "▁wats",
        -9.327446500974496
      ],
      [
        "▁nu",
        -9.327848241813149
      ],
      [
        "'i",
        -9.329433448610722
      ],
      [
        "fina",
        -9.33084792177792
      ],
      [
        "▁am",
        -9.331177130200823
      ],
      [
        "ƙam",
        -9.33534535267081
      ],
      [
        "▁Huku",
        -9.340328781592326
      ],
      [
        "▁198",
        -9.34183800964594
      ],
      [
        "▁haɗe",
        -9.342690722672272
      ],
      [
        "▁17",
        -9.347346481118693
      ],
      [
        "ani",
        -9.34753901108829
      ],
      [
        "’i",
        -9.347560000607258
      ],
      [
        "▁kuri'a",
        -9.34947170674344
      ],
      [
        "faf",
        -9.350162808204672
      ],
      [
        "uru",
        -9.353630715729611
      ],
      [
        "▁gur",
        -9.359372854308505
      ],
      [
        "tan",
        -9.362771956624455
      ],
      [
        "te",
        -9.36682863655625
      ],
      [
        "wasan",
        -9.36917279270271
      ],
      [
        "▁maka",
        -9.369736085744986
      ],
      [
        "ro",
        -9.372788043790042
      ],
      [
        "▁Zag",
        -9.373634295740256
      ],
      [
        "▁Pr",
        -9.373714794572068
      ],
      [
        "▁buƙa",
        -9.379707479330959
      ],
      [
        "▁tuk",
        -9.384046473616948
      ],
      [
        "irar",
        -9.38417279471899
      ],
      [
        "▁kall",
        -9.387387333349649
      ],
      [
        "sl",
        -9.388643452575165
      ],
      [
        "▁sal",
        -9.390713346325498
      ],
      [
        "(",
        -9.39495910278926
      ],
      [
        "ukar",
        -9.395166263772458
      ],
      [
        "bai",
        -9.3956036927108
      ],
      [
        "airu",
        -9.399648885479444
      ],
      [
        "ak",
        -9.401649276880503
      ],
      [
        "W",
        -9.406380033118403
      ],
      [
        "buka",
        -9.406454135200041
      ],
      [
        "▁Jan",
        -9.407010792362037
      ],
      [
        "bane",
        -9.411002581613987
      ],
      [
        "▁Nun",
        -9.413379426119006
      ],
      [
        "▁rag",
        -9.414501601051091
      ],
      [
        "j",
        -9.415385021290396
      ],
      [
        "▁Yak",
        -9.41678891180337
      ],
      [
        "pan",
        -9.417679860359522
      ],
      [
        "giyar",
        -9.417937768371438
      ],
      [
        "▁Hu",
        -9.419879848790524
      ],
      [
        "ziyarta",
        -9.419984529857683
      ],
      [
        "fe",
        -9.426416427668816
      ],
      [
        "▁matafiy",
        -9.42739396134423
      ],
      [
        "▁gab",
        -9.427596974368663
      ],
      [
        "canje",
        -9.432269080599408
      ],
      [
        "are",
        -9.432347190419879
      ],
      [
        "▁zaɓ",
        -9.432649725937686
      ],
      [
        "B",
        -9.432661262451315
      ],
      [
        "▁gin",
        -9.433206449671939
      ],
      [
        "▁bayyan",
        -9.433949982345586
      ],
      [
        "rus",
        -9.437496380567447
      ],
      [
        "▁tsay",
        -9.438243221621288
      ],
      [
        "doka",
        -9.440918163473933
      ],
      [
        "▁Sha",
        -9.441685059381406
      ],
      [
        "gu",
        -9.4424567686163
      ],
      [
        "rka",
        -9.44289868259093
      ],
      [
        "musamman",
        -9.44556615060102
      ],
      [
        "▁Air",
        -9.445963933025629
      ],
      [
        "▁shawar",
        -9.449115251059737
      ],
      [
        "▁11",
        -9.449785849247533
      ],
      [
        "ance",
        -9.45127859224273
      ],
      [
        "ili",
        -9.452000595462405
      ],
      [
        "▁fadi",
        -9.453423367961578
      ],
      [
        "L",
        -9.454066654593621
      ],
      [
        "▁dace",
        -9.454446632157666
      ],
      [
        "vid",
        -9.454625056918205
      ],
      [
        "lle",
        -9.456349431365291
      ],
      [
        "kwale",
        -9.457436663097818
      ],
      [
        "ewa",
        -9.45995183451025
      ],
      [
        "babba",
        -9.462308475915028
      ],
      [
        "▁kwal",
        -9.462619451075058
      ],
      [
        "che",
        -9.463199940063559
      ],
      [
        "▁ca",
        -9.466371906217264
      ],
      [
        "uma",
        -9.46805809712709
      ],
      [
        "uri",
        -9.468745736858002
      ],
      [
        "▁kay",
        -9.470117499136876
      ],
      [
        "▁ƙare",
        -9.472886760201902
      ],
      [
        "▁kwanaki",
        -9.475710029090516
      ],
      [
        "omi",
        -9.476636524630834
      ],
      [
        "goya",
        -9.477483549304974
      ],
      [
        "▁juy",
        -9.479036019877297
      ],
      [
        "pu",
        -9.479512545474359
      ],
      [
        "doga",
        -9.47999730990561
      ],
      [
        "▁dokoki",
        -9.481221153141194
      ],
      [
        "hadar",
        -9.48132291472585
      ],
      [
        "amun",
        -9.482826757834864
      ],
      [
        "▁of",
        -9.483642919015427
      ],
      [
        "▁Minista",
        -9.483813914601008
      ],
      [
        "ungu",
        -9.483918476539037
      ],
      [
        "▁yiwu",
        -9.488629937291043
      ],
      [
        "▁hak",
        -9.489285003439882
      ],
      [
        "▁Tsar",
        -9.489468760377571
      ],
      [
        "▁jih",
        -9.489841569961591
      ],
      [
        "▁takai",
        -9.491106676796429
      ],
      [
        "▁l",
        -9.491135810886881
      ],
      [
        "▁wan",
        -9.493143614509814
      ],
      [
        "▁wanna",
        -9.493178943330193
      ],
      [
        "▁danganta",
        -9.495530767346303
      ],
      [
        "▁shig",
        -9.496111308995463
      ],
      [
        "him",
        -9.497468090793994
      ],
      [
        "tsar",
        -9.497863791902208
      ],
      [
        "off",
        -9.502757003168117
      ],
      [
        "rar",
        -9.503757378074344
      ],
      [
        "mas",
        -9.506755338032322
      ],
      [
        "▁sanann",
        -9.508364551211745
      ],
      [
        "kiliya",
        -9.51082119384324
      ],
      [
        "▁Hon",
        -9.513795093441813
      ],
      [
        "▁rubut",
        -9.515286424653503
      ],
      [
        "aga",
        -9.515677417507149
      ],
      [
        "▁ƙoram",
        -9.518168793317571
      ],
      [
        "es",
        -9.519195645753234
      ],
      [
        "▁Tab",
        -9.520005592215297
      ],
      [
        "Net",
        -9.520446971862228
      ],
      [
        "irin",
        -9.521081458959069
      ],
      [
        "▁Yawan",
        -9.522695392584644
      ],
      [
        "▁ru",
        -9.522771142553742
      ],
      [
        "q",
        -9.523664094600644
      ],
      [
        "▁Sc",
        -9.524559379842936
      ],
      [
        "ayyana",
        -9.524637057805883
      ],
      [
        "sti",
        -9.524719696206633
      ],
      [
        "▁Mot",
        -9.525625172529779
      ],
      [
        "▁jig",
        -9.526796780193466
      ],
      [
        "ama’a",
        -9.527868468350743
      ],
      [
        "ü",
        -9.528442108173024
      ],
      [
        "ojojin",
        -9.529512159302406
      ],
      [
        "X",
        -9.530519412647124
      ],
      [
        "[",
        -9.530519412647124
      ],
      [
        "▁Zanga-zanga",
        -9.530519412647905
      ],
      [
        "▁Whitehall",
        -9.530519412652037
      ],
      [
        "▁Devonport",
        -9.53051941265213
      ],
      [
        "ndependence",
        -9.530519412657533
      ],
      [
        "▁Ɓangar",
        -9.530519412666827
      ],
      [
        "]",
        -9.530519412687081
      ],
      [
        "$",
        -9.530519412687081
      ],
      [
        "▁Serengeti",
        -9.530519412798096
      ],
      [
        "H5N1",
        -9.53051941279933
      ],
      [
        "▁gwagwarmaya",
        -9.530519412858645
      ],
      [
        "▁Frontiere",
        -9.53051941330677
      ],
      [
        "▁ƙwaƙwalwa",
        -9.530519413544829
      ],
      [
        "▁Croatia",
        -9.530519415649206
      ],
      [
        "▁Gwamnati",
        -9.530519416145287
      ],
      [
        "▁Republican",
        -9.530519416518755
      ],
      [
        "▁tsuntsaye",
        -9.530519416608223
      ],
      [
        "▁Oktoba",
        -9.530519417123745
      ],
      [
        "▁ZMapp",
        -9.530519417439688
      ],
      [
        "▁cututtuka",
        -9.530519417683916
      ],
      [
        "▁Olamfik",
        -9.530519419641772
      ],
      [
        "▁akai-akai",
        -9.53051942102132
      ],
      [
        "▁Isra’ila",
        -9.530519434444853
      ],
      [
        "▁kade-kade",
        -9.530519436995966
      ],
      [
        "▁Provenz",
        -9.530519437225385
      ],
      [
        "▁ƙirƙira",
        -9.53051943791194
      ],
      [
        "▁gine-gine",
        -9.530519441114285
      ],
      [
        "▁kalubale",
        -9.530519441306646
      ],
      [
        "▁bhajans",
        -9.530519443159648
      ],
      [
        "▁Caspian",
        -9.530519453280855
      ],
      [
        "▁Romney",
        -9.530519457141075
      ],
      [
        "▁Petersburg",
        -9.530519488529764
      ],
      [
        "▁Tokyo",
        -9.530519522125537
      ],
      [
        "▁Arizona",
        -9.530519535660114
      ],
      [
        "▁Florida",
        -9.530519541928461
      ],
      [
        "▁Armenia",
        -9.530519547964646
      ],
      [
        "▁wicket",
        -9.530519567700258
      ],
      [
        "▁Tasmania",
        -9.530519585685715
      ],
      [
        "▁Slalom",
        -9.530519657721522
      ],
      [
        "▁zane-zane",
        -9.530519673049236
      ],
      [
        "Simpson",
        -9.530519716503381
      ],
      [
        "▁Morocc",
        -9.530519888585543
      ],
      [
        "▁matsakaici",
        -9.530520045937504
      ],
      [
        "▁Bhajan",
        -9.530520136868226
      ],
      [
        "▁inshora",
        -9.530520203967011
      ],
      [
        "▁wajaje",
        -9.530520350580137
      ],
      [
        "▁jinkirta",
        -9.530520692457142
      ],
      [
        "▁firgitarwa",
        -9.53052073606247
      ],
      [
        "▁Davey",
        -9.530520831610126
      ],
      [
        "▁Flags",
        -9.530520944792443
      ],
      [
        "▁Ebola",
        -9.530521464137827
      ],
      [
        "▁Romania",
        -9.530521933498328
      ],
      [
        "▁Dominican",
        -9.53052219963754
      ],
      [
        "▁sarrafa",
        -9.530522302519332
      ],
      [
        "▁Iceland",
        -9.530522816154814
      ],
      [
        "▁muhawara",
        -9.530522863122282
      ],
      [
        "▁haihuwa",
        -9.530522916335904
      ],
      [
        "▁Fernand",
        -9.530523614125725
      ],
      [
        "jamhuriya",
        -9.530525192293627
      ],
      [
        "▁Stewart",
        -9.530525208868038
      ],
      [
        "▁tiketi",
        -9.530525597614341
      ],
      [
        "▁huɗu",
        -9.530527072680743
      ],
      [
        "▁ciwuka",
        -9.530529660389025
      ],
      [
        "▁unguwanni",
        -9.530529895927506
      ],
      [
        "▁Hsie",
        -9.530530353828887
      ],
      [
        "▁jagora",
        -9.530530695693164
      ],
      [
        "▁Utah",
        -9.530532455433955
      ],
      [
        "▁kacal",
        -9.530535058273653
      ],
      [
        "▁kuzari",
        -9.530535224980849
      ],
      [
        "▁Tsakiya",
        -9.530535974839236
      ],
      [
        "▁mafarki",
        -9.530537193161162
      ],
      [
        "▁Arias",
        -9.530537965493789
      ],
      [
        "▁Colbert",
        -9.530539987918656
      ],
      [
        "▁shari'a",
        -9.530539999956433
      ],
      [
        "▁ambula",
        -9.530541529175059
      ],
      [
        "▁tilasta",
        -9.53054414613298
      ],
      [
        "▁Mawaki",
        -9.530548524096238
      ],
      [
        "▁bakteri",
        -9.53055100294656
      ],
      [
        "▁Sauti",
        -9.530554183221206
      ],
      [
        "▁Taurari",
        -9.530556884738829
      ],
      [
        "undunar",
        -9.530572397229166
      ],
      [
        "▁muhimmanci",
        -9.530573086257496
      ],
      [
        "▁minist",
        -9.530576413637815
      ],
      [
        "▁otel",
        -9.530583227841804
      ],
      [
        "NBA",
        -9.530584305084304
      ],
      [
        "▁Slov",
        -9.530589371616895
      ],
      [
        "▁ƙawance",
        -9.530598180653886
      ],
      [
        "▁likit",
        -9.53059897995492
      ],
      [
        "▁Halayya",
        -9.530601004496825
      ],
      [
        "▁Hungar",
        -9.53060524682196
      ],
      [
        "▁rahotanni",
        -9.530606051834207
      ],
      [
        "▁2005",
        -9.530606341830984
      ],
      [
        "▁Fitacce",
        -9.53062484134178
      ],
      [
        "▁tsagewa",
        -9.530645078296724
      ],
      [
        "▁1979",
        -9.530647281101189
      ],
      [
        "▁Phil",
        -9.530649049599791
      ],
      [
        "mmy",
        -9.53065336093386
      ],
      [
        "▁farmaki",
        -9.530659643868812
      ],
      [
        "raliya",
        -9.530678530818816
      ],
      [
        "▁2020",
        -9.53069431212008
      ],
      [
        "30,000",
        -9.530697519255362
      ],
      [
        "▁birane",
        -9.530728844649994
      ],
      [
        "▁ƙa'id",
        -9.530747763691364
      ],
      [
        "▁Jam'iyya",
        -9.530749669034067
      ],
      [
        "▁7,000",
        -9.530769456897527
      ],
      [
        "▁Sport",
        -9.530779656244285
      ],
      [
        "▁tituna",
        -9.530799761812165
      ],
      [
        "▁jijiyoyi",
        -9.530803131737999
      ],
      [
        "▁11:",
        -9.53081846153024
      ],
      [
        "▁Reid",
        -9.53082029746181
      ],
      [
        "SW",
        -9.530823512989
      ],
      [
        "▁allura",
        -9.530827756110458
      ],
      [
        "▁'Yan",
        -9.53083190957663
      ],
      [
        "▁tsoro",
        -9.530836154341483
      ],
      [
        "▁199",
        -9.530847175367239
      ],
      [
        "▁Gudanar",
        -9.530871851115506
      ],
      [
        "▁shahara",
        -9.53087329698489
      ],
      [
        "▁Alex",
        -9.530904750078603
      ],
      [
        "▁nau’",
        -9.530908567186874
      ],
      [
        "▁Iyaye",
        -9.530987542289182
      ],
      [
        "▁gundum",
        -9.53101866260312
      ],
      [
        "▁bangare",
        -9.531021546268153
      ],
      [
        "▁Feli",
        -9.531023176315754
      ],
      [
        "▁Jarum",
        -9.531048026023447
      ],
      [
        "▁albark",
        -9.53108683362012
      ],
      [
        "250",
        -9.531087386746742
      ],
      [
        "▁2010",
        -9.531103081407327
      ],
      [
        "▁Jirage",
        -9.53110996194771
      ],
      [
        "▁Inc",
        -9.531114967399857
      ],
      [
        "ye-sh",
        -9.531221508711818
      ],
      [
        "▁Gordon",
        -9.531227485941058
      ],
      [
        "▁rajista",
        -9.531230969084783
      ],
      [
        "halar",
        -9.531278216383486
      ],
      [
        "▁Nation",
        -9.531279295856423
      ],
      [
        "▁cibiyoyi",
        -9.531296497570933
      ],
      [
        "468",
        -9.53135406148251
      ],
      [
        "▁Koriya",
        -9.531479320877343
      ],
      [
        "▁Onega",
        -9.531495484869431
      ],
      [
        "▁gilashi",
        -9.53153382039041
      ],
      [
        "▁David",
        -9.53154007069552
      ],
      [
        "sco",
        -9.53160747710372
      ],
      [
        "▁“Ma",
        -9.53165041241764
      ],
      [
        "76",
        -9.531857348070051
      ],
      [
        "▁Show",
        -9.531880185135819
      ],
      [
        "▁Gyara",
        -9.531885621344372
      ],
      [
        "▁yiyuwa",
        -9.531962295598316
      ],
      [
        "▁halitta",
        -9.531970134925835
      ],
      [
        "▁fitacce",
        -9.531980639963162
      ],
      [
        "ruwanmu",
        -9.532036547006783
      ],
      [
        "▁mamaki",
        -9.532101060097755
      ],
      [
        "chell",
        -9.532138491258674
      ],
      [
        "▁Ott",
        -9.532356342645503
      ],
      [
        "▁ibada",
        -9.532386791898212
      ],
      [
        "üm",
        -9.532600918143682
      ],
      [
        "embo",
        -9.532632578853452
      ],
      [
        "▁kantuna",
        -9.532715392161665
      ],
      [
        "▁mashaya",
        -9.532726185651125
      ],
      [
        "▁tiyata",
        -9.532774767318642
      ],
      [
        "▁gabobi",
        -9.532800119227648
      ],
      [
        "Ope",
        -9.532828529145357
      ],
      [
        "▁Sakamako",
        -9.532858129383285
      ],
      [
        "wallaf",
        -9.532989225490155
      ],
      [
        "▁Talata",
        -9.532996331859616
      ],
      [
        "▁dabam",
        -9.533005367184522
      ],
      [
        "▁tazara",
        -9.533055885553551
      ],
      [
        "▁annoba",
        -9.533058282827533
      ],
      [
        "▁fita",
        -9.533086650359555
      ],
      [
        "ATA",
        -9.533146466830724
      ],
      [
        "▁Labar",
        -9.533273830531359
      ],
      [
        "▁Tsararr",
        -9.533376854594618
      ],
      [
        "▁Abok",
        -9.533426939888646
      ],
      [
        "▁balaguro",
        -9.533443854056012
      ],
      [
        "▁Haɗa",
        -9.53363818989206
      ],
      [
        "▁2006",
        -9.533648067971356
      ],
      [
        "▁Sar",
        -9.533932176770435
      ],
      [
        "▁zinar",
        -9.53393511362604
      ],
      [
        "▁shaida",
        -9.53399341635101
      ],
      [
        "▁sharhi",
        -9.534004946854461
      ],
      [
        "▁Datt",
        -9.534075655124738
      ],
      [
        "▁Sanarwa",
        -9.534105130338672
      ],
      [
        "▁32",
        -9.534112381804555
      ],
      [
        "▁Kwal",
        -9.534116554531458
      ],
      [
        "▁Makam",
        -9.534119698259374
      ],
      [
        "▁hankalinka",
        -9.534260334461
      ],
      [
        "▁safe",
        -9.53441596238652
      ],
      [
        "▁Al’",
        -9.534451583867437
      ],
      [
        "bar",
        -9.534548762873756
      ],
      [
        "▁Ɗaya",
        -9.534551413872727
      ],
      [
        "▁ɓace",
        -9.534680839621458
      ],
      [
        "▁ciyawa",
        -9.535015427399705
      ],
      [
        "▁barci",
        -9.535258809777831
      ],
      [
        "▁cinkoso",
        -9.535310884327638
      ],
      [
        "fic",
        -9.535337955722783
      ],
      [
        "▁Harbo",
        -9.53540675693388
      ],
      [
        "▁China",
        -9.535449693320128
      ],
      [
        "▁al’am",
        -9.53585488175509
      ],
      [
        "▁“T",
        -9.536110517829476
      ],
      [
        "urg",
        -9.536134758092592
      ],
      [
        "▁lambu",
        -9.536262083002466
      ],
      [
        "▁Guguwar",
        -9.536456919264428
      ],
      [
        "lura",
        -9.536636600940989
      ],
      [
        "▁53",
        -9.536689301561104
      ],
      [
        "▁fitsari",
        -9.536722870185821
      ],
      [
        "▁(M",
        -9.53688340037317
      ],
      [
        "▁ganuwa",
        -9.537085060408144
      ],
      [
        "▁Trans",
        -9.537100233553957
      ],
      [
        "▁Ƙaram",
        -9.537116801658424
      ],
      [
        "S)",
        -9.537128424168422
      ],
      [
        "vill",
        -9.537367225071188
      ],
      [
        "▁Samun",
        -9.537607889121961
      ],
      [
        "▁yaɗuwa",
        -9.538221336963755
      ],
      [
        "scar",
        -9.538233224007897
      ],
      [
        "▁kudanci",
        -9.538611795610585
      ],
      [
        "▁wasanmu",
        -9.538736794927026
      ],
      [
        "▁nishad",
        -9.538868095753049
      ],
      [
        "▁jarid",
        -9.538950798974431
      ],
      [
        "▁zarg",
        -9.539020291154547
      ],
      [
        "▁sa'a",
        -9.5391610253599
      ],
      [
        "cep",
        -9.539162489380024
      ],
      [
        "▁Mit",
        -9.53948846322479
      ],
      [
        "“K",
        -9.53970290892664
      ],
      [
        "▁Kud",
        -9.539935266275304
      ],
      [
        "▁fage",
        -9.540002817386837
      ],
      [
        "▁aminci",
        -9.54023187115098
      ],
      [
        "chest",
        -9.541186586909152
      ],
      [
        "▁Shahararr",
        -9.541595858903824
      ],
      [
        "▁sauransu",
        -9.54162192136383
      ],
      [
        "▁ada",
        -9.54210568388227
      ],
      [
        "outh",
        -9.542318512957706
      ],
      [
        "▁adam",
        -9.542391408043635
      ],
      [
        "▁Yamma",
        -9.542557881521875
      ],
      [
        "iyya",
        -9.54367066969258
      ],
      [
        "▁dubu",
        -9.543973828571518
      ],
      [
        "ikirar",
        -9.544257014398255
      ],
      [
        "▁iso",
        -9.545335779553731
      ],
      [
        "▁kebe",
        -9.545406467146584
      ],
      [
        "▁ƙun",
        -9.545525233513516
      ],
      [
        "▁Ke",
        -9.546411168488167
      ],
      [
        "▁Ve",
        -9.547235680834154
      ],
      [
        "▁kowanne",
        -9.547666379272153
      ],
      [
        "▁Raj",
        -9.548409858770311
      ],
      [
        "▁gudanarwa",
        -9.549526588183447
      ],
      [
        "▁jimla",
        -9.55013572689955
      ],
      [
        "▁Saf",
        -9.550338341922185
      ],
      [
        "acks",
        -9.550372657989378
      ],
      [
        "▁talat",
        -9.551133544522997
      ],
      [
        "▁Tabba",
        -9.551693047708495
      ],
      [
        "▁zub",
        -9.552105185109504
      ],
      [
        "hne",
        -9.552973020922064
      ],
      [
        "est",
        -9.553168957719944
      ],
      [
        "▁karama",
        -9.553314953555313
      ],
      [
        "▁Asali",
        -9.553581440848758
      ],
      [
        "idan",
        -9.55380474417172
      ],
      [
        "▁yayi",
        -9.554012420679184
      ],
      [
        "▁Nam",
        -9.554062671434053
      ],
      [
        "▁takwa",
        -9.554080604958388
      ],
      [
        "▁fice",
        -9.554376872837786
      ],
      [
        "▁Ho",
        -9.55440058576312
      ],
      [
        "▁ƙoramu",
        -9.555795849279859
      ],
      [
        "▁Abu",
        -9.55584523255544
      ],
      [
        "▁AC",
        -9.556001064935828
      ],
      [
        "▁sadaukarwa",
        -9.556417059709442
      ],
      [
        "▁kawata",
        -9.558063292275316
      ],
      [
        "▁ƙara",
        -9.558931732566677
      ],
      [
        "▁Blacks",
        -9.559288358625725
      ],
      [
        "▁haifarwa",
        -9.560213490764056
      ],
      [
        "▁makama",
        -9.56041444209521
      ],
      [
        "▁bikin",
        -9.56095476412392
      ],
      [
        "jaye",
        -9.561542968388938
      ],
      [
        "▁ƙarami",
        -9.561704368945412
      ],
      [
        "tasw",
        -9.562017404551499
      ],
      [
        "rorin",
        -9.56216089682349
      ],
      [
        "▁tallafi",
        -9.562186815788166
      ],
      [
        "0)",
        -9.56275755106872
      ],
      [
        "▁gask",
        -9.562765688979368
      ],
      [
        "▁Binciken",
        -9.562878186992304
      ],
      [
        "asar",
        -9.563299617687724
      ],
      [
        "wanci",
        -9.563390459598034
      ],
      [
        "▁tsaron",
        -9.56381861672869
      ],
      [
        "5-",
        -9.564909194372802
      ],
      [
        "▁ƙwarewa",
        -9.566337680054293
      ],
      [
        "▁kade",
        -9.567118770884594
      ],
      [
        "▁mart",
        -9.567228181492965
      ],
      [
        "▁titi",
        -9.568110770580327
      ],
      [
        "goro",
        -9.569058441273365
      ],
      [
        "el",
        -9.569658710528481
      ],
      [
        "maima",
        -9.570345865749518
      ],
      [
        "lade",
        -9.570893598061431
      ],
      [
        "▁Con",
        -9.571648646574307
      ],
      [
        "▁tsallak",
        -9.57184106983113
      ],
      [
        "uri’",
        -9.572439320340552
      ],
      [
        "for",
        -9.573136089496284
      ],
      [
        "▁dangantaka",
        -9.573146747713784
      ],
      [
        "ght",
        -9.573640840142511
      ],
      [
        "obe",
        -9.574261237976948
      ],
      [
        "▁Orl",
        -9.574398572738085
      ],
      [
        "Gol",
        -9.575993749182865
      ],
      [
        "taba",
        -9.576738357749907
      ],
      [
        "▁Fl",
        -9.579238677652672
      ],
      [
        "▁Star",
        -9.579592285795634
      ],
      [
        "ns",
        -9.580092720796424
      ],
      [
        "7,",
        -9.580384460356068
      ],
      [
        "▁Ge",
        -9.581514619345974
      ],
      [
        "awabi",
        -9.581924342216274
      ],
      [
        "fofi",
        -9.582132943733274
      ],
      [
        "▁rayuwar",
        -9.582619667739296
      ],
      [
        "▁tallafa",
        -9.583551638963055
      ],
      [
        "▁Cal",
        -9.583579012785497
      ],
      [
        "ste",
        -9.584018388783889
      ],
      [
        "▁zayyan",
        -9.584180370073378
      ],
      [
        "bor",
        -9.585525479515134
      ],
      [
        "▁Pag",
        -9.585587294934964
      ],
      [
        "▁200",
        -9.586894683617492
      ],
      [
        "▁ta’a",
        -9.587447760791234
      ],
      [
        "▁Fe",
        -9.589270483831747
      ],
      [
        "▁bugu",
        -9.589669298412602
      ],
      [
        "▁Pat",
        -9.590174447443703
      ],
      [
        "yuka",
        -9.59033085922495
      ],
      [
        "▁lall",
        -9.590633002177093
      ],
      [
        "aƙin",
        -9.591586393430397
      ],
      [
        "▁hukunc",
        -9.5924454738132
      ],
      [
        "sha",
        -9.592502097645518
      ],
      [
        "▁hor",
        -9.593422962662757
      ],
      [
        "▁So",
        -9.594390531416805
      ],
      [
        "▁Tre",
        -9.594494560862552
      ],
      [
        "▁karye",
        -9.595039397602243
      ],
      [
        "▁jami",
        -9.595956314125083
      ],
      [
        "sarin",
        -9.59612498192235
      ],
      [
        "▁Ir",
        -9.59673501030882
      ],
      [
        "▁Fran",
        -9.5968230301894
      ],
      [
        "▁kirkira",
        -9.596872536383513
      ],
      [
        "▁kwanakin",
        -9.597506198757578
      ],
      [
        "▁zanen",
        -9.597699340754213
      ],
      [
        "furi",
        -9.598031439262133
      ],
      [
        "▁tsawa",
        -9.598480564877445
      ],
      [
        "--",
        -9.59897558093557
      ],
      [
        "umur",
        -9.599467603331375
      ],
      [
        "▁El",
        -9.60001445372966
      ],
      [
        "▁lissafi",
        -9.600126001511201
      ],
      [
        "▁wake",
        -9.60017289515801
      ],
      [
        "▁sinadari",
        -9.600507839771067
      ],
      [
        "▁fitar",
        -9.601611075194857
      ],
      [
        "▁jama",
        -9.601642518047136
      ],
      [
        "▁Kat",
        -9.602481919837123
      ],
      [
        "umla",
        -9.602909234132136
      ],
      [
        "tace",
        -9.603034006185307
      ],
      [
        "▁takarda",
        -9.604289899446659
      ],
      [
        "▁ƙetaren",
        -9.604690724202214
      ],
      [
        "ago",
        -9.606749691223737
      ],
      [
        "▁Gre",
        -9.610259470604964
      ],
      [
        "▁mawaka",
        -9.61038981940586
      ],
      [
        "▁Juy",
        -9.610483934304353
      ],
      [
        "▁Pe",
        -9.610602106118161
      ],
      [
        "▁sauyi",
        -9.610644056024691
      ],
      [
        "rum",
        -9.612061785415836
      ],
      [
        "▁Gian",
        -9.61220910684086
      ],
      [
        "kacin",
        -9.612505336200144
      ],
      [
        "omo",
        -9.613407574965544
      ],
      [
        "▁manufa",
        -9.61371315920005
      ],
      [
        "▁(mi",
        -9.614159103449202
      ],
      [
        "oci",
        -9.614289817492448
      ],
      [
        "▁Sol",
        -9.61513036929198
      ],
      [
        "'ai",
        -9.616062474851494
      ],
      [
        "▁zane",
        -9.61630219311024
      ],
      [
        "ula",
        -9.61721061310851
      ],
      [
        "erman",
        -9.617368684776178
      ],
      [
        "▁gora",
        -9.618135402495396
      ],
      [
        "ffer",
        -9.61815887169416
      ],
      [
        "▁kwarara",
        -9.619634066814518
      ],
      [
        "ejin",
        -9.621541065438747
      ],
      [
        "▁Mau",
        -9.62276891686158
      ],
      [
        "▁Gom",
        -9.624290136686529
      ],
      [
        "▁sukari",
        -9.62512575736012
      ],
      [
        "▁taso",
        -9.62749337357422
      ],
      [
        "ffa",
        -9.629616652437978
      ],
      [
        "ust",
        -9.629748335070905
      ],
      [
        "▁Jon",
        -9.63030467860113
      ],
      [
        "▁jini",
        -9.630719133838035
      ],
      [
        "▁rah",
        -9.631419073740474
      ],
      [
        "van",
        -9.634008082128567
      ],
      [
        "▁keke",
        -9.635299566318816
      ],
      [
        "▁Dauka",
        -9.64115962295799
      ],
      [
        "l)",
        -9.642526327233975
      ],
      [
        "ova",
        -9.643796392814401
      ],
      [
        "urin",
        -9.645738537860229
      ],
      [
        "▁ɗabi",
        -9.646325140833262
      ],
      [
        "▁Nas",
        -9.646460311020867
      ],
      [
        "▁Mata",
        -9.647514823099637
      ],
      [
        "▁koda",
        -9.648128149850535
      ],
      [
        "bul",
        -9.651079127030437
      ],
      [
        "▁al'ada",
        -9.65170443653801
      ],
      [
        "▁Ken",
        -9.653737971485175
      ],
      [
        "ires",
        -9.655399419653284
      ],
      [
        "▁gabas",
        -9.655846690765069
      ],
      [
        "▁Dr",
        -9.656155006042392
      ],
      [
        "▁nink",
        -9.65777348845938
      ],
      [
        "▁Cuta",
        -9.658278972421517
      ],
      [
        "▁zaka",
        -9.659089330337789
      ],
      [
        "▁gaji",
        -9.660814513821784
      ],
      [
        "ect",
        -9.6617894841153
      ],
      [
        "▁kwara",
        -9.662034242736496
      ],
      [
        "unku",
        -9.665833893810643
      ],
      [
        "▁shugabanni",
        -9.667633442292136
      ],
      [
        "mon",
        -9.668035338995677
      ],
      [
        "▁Pi",
        -9.669123668114047
      ],
      [
        "▁Dau",
        -9.669510896432016
      ],
      [
        "▁yaƙin",
        -9.66990535304223
      ],
      [
        "▁ɓa",
        -9.670342520874698
      ],
      [
        "ic",
        -9.671199441327019
      ],
      [
        "▁baku",
        -9.671259207188731
      ],
      [
        "▁dabar",
        -9.672150898369333
      ],
      [
        "▁hadd",
        -9.673623612055803
      ],
      [
        "▁Wu",
        -9.674287950780037
      ],
      [
        "uƙi",
        -9.678327402868241
      ],
      [
        "▁masala",
        -9.681348713419538
      ],
      [
        "nte",
        -9.68390773633148
      ],
      [
        "ara",
        -9.684068863989353
      ],
      [
        "rge",
        -9.684527025388658
      ],
      [
        "ngola,",
        -9.684909022550126
      ],
      [
        "mp",
        -9.685745099087265
      ],
      [
        "dal",
        -9.686105291856592
      ],
      [
        "▁km",
        -9.6888687277067
      ],
      [
        "ex",
        -9.688965885239703
      ],
      [
        "ora",
        -9.693974076672813
      ],
      [
        "lai",
        -9.694227839493896
      ],
      [
        "▁sauya",
        -9.695169143492432
      ],
      [
        "▁tu",
        -9.696640145357348
      ],
      [
        "ash",
        -9.696808872768466
      ],
      [
        "am'iyya",
        -9.697403227979043
      ],
      [
        "▁2000",
        -9.699241824202186
      ],
      [
        "irayi",
        -9.700007734812125
      ],
      [
        "▁Nuni",
        -9.703027612765698
      ],
      [
        "▁Shar",
        -9.70384262540375
      ],
      [
        "▁Va",
        -9.704737948227397
      ],
      [
        "iri",
        -9.708457152637552
      ],
      [
        "▁narka",
        -9.709255289563448
      ],
      [
        "▁maji",
        -9.7107629702552
      ],
      [
        "▁bas",
        -9.711611770452805
      ],
      [
        "▁di",
        -9.712724986015633
      ],
      [
        "▁Kon",
        -9.716381620680925
      ],
      [
        "mma",
        -9.717963992248459
      ],
      [
        "jista",
        -9.718221133526598
      ],
      [
        "mil",
        -9.718389803781557
      ],
      [
        "fti",
        -9.718421915043118
      ],
      [
        "▁Te",
        -9.723599573932836
      ],
      [
        "▁rami",
        -9.72371166251628
      ],
      [
        "▁kogi",
        -9.724441166791234
      ],
      [
        "halli",
        -9.728790451866919
      ],
      [
        "▁dame",
        -9.731846267669859
      ],
      [
        "▁faruwa",
        -9.734314897595644
      ],
      [
        "arshe",
        -9.734558444527785
      ],
      [
        "▁cin",
        -9.736444208081917
      ],
      [
        "x",
        -9.738005703538457
      ],
      [
        "▁Cika",
        -9.742397730998912
      ],
      [
        "ma’a",
        -9.74397801143218
      ],
      [
        "arfajiya",
        -9.745341761937267
      ],
      [
        "ɗi",
        -9.745697880334236
      ],
      [
        "▁al",
        -9.746812083941045
      ],
      [
        "▁Or",
        -9.749664355200354
      ],
      [
        "ssu",
        -9.749741793936876
      ],
      [
        "▁Sho",
        -9.749959643960713
      ],
      [
        "▁kuri'",
        -9.750400433627611
      ],
      [
        "▁Kamfani",
        -9.750967271947935
      ],
      [
        "▁rabu",
        -9.755749193033143
      ],
      [
        "nkali",
        -9.755796444923568
      ],
      [
        "▁Kas",
        -9.758101123241843
      ],
      [
        "▁Ni",
        -9.761146439618015
      ],
      [
        "o-",
        -9.762306869769489
      ],
      [
        "char",
        -9.763113505455108
      ],
      [
        "▁kogo",
        -9.763888540124094
      ],
      [
        "▁karuwa",
        -9.766626595602785
      ],
      [
        "if",
        -9.769449126182698
      ],
      [
        "oyi",
        -9.770171656996576
      ],
      [
        "▁koli",
        -9.777758142233388
      ],
      [
        "avi",
        -9.780818524747115
      ],
      [
        "▁gad",
        -9.782978871277056
      ],
      [
        "▁cikinsa",
        -9.787826618946347
      ],
      [
        "▁7",
        -9.789001192256476
      ],
      [
        "ian",
        -9.791980097941764
      ],
      [
        "▁dari",
        -9.794205531785424
      ],
      [
        "▁tuta",
        -9.794459554872184
      ],
      [
        "▁cibiy",
        -9.79472459818807
      ],
      [
        "dd",
        -9.797288629816048
      ],
      [
        "oto",
        -9.79847542899159
      ],
      [
        "nburg",
        -9.799272458104387
      ],
      [
        "▁waƙa",
        -9.800483546158565
      ],
      [
        "rist",
        -9.800861643172292
      ],
      [
        "▁gas",
        -9.800983987435554
      ],
      [
        "saki",
        -9.801192411614695
      ],
      [
        "▁sauki",
        -9.80124671531552
      ],
      [
        "▁kofa",
        -9.802143198051013
      ],
      [
        "▁wucewa",
        -9.802704841617185
      ],
      [
        "ulka",
        -9.802992172913068
      ],
      [
        "marin",
        -9.808857168567178
      ],
      [
        "rabe",
        -9.809456876518462
      ],
      [
        "▁kyau.",
        -9.809723568652961
      ],
      [
        "▁far",
        -9.810695609504124
      ],
      [
        "▁karb",
        -9.811103462137238
      ],
      [
        "tsa",
        -9.812692966434579
      ],
      [
        "ikin",
        -9.813822201974558
      ],
      [
        "▁v",
        -9.814272268565414
      ],
      [
        "▁Gl",
        -9.817975484158262
      ],
      [
        "▁Str",
        -9.820388843646743
      ],
      [
        "ve",
        -9.821704259887623
      ],
      [
        "4-1",
        -9.82381901780498
      ],
      [
        "▁Sto",
        -9.825084156070155
      ],
      [
        "▁Biy",
        -9.826429320941722
      ],
      [
        "rika",
        -9.829921507848082
      ],
      [
        "▁cu",
        -9.83102077253337
      ],
      [
        "ca",
        -9.834085640538246
      ],
      [
        "infr",
        -9.834865385747452
      ],
      [
        "▁tso",
        -9.835748133241474
      ],
      [
        "▁abok",
        -9.839175044391634
      ],
      [
        "▁til",
        -9.840352791144543
      ],
      [
        "▁matakin",
        -9.841055991741126
      ],
      [
        "ido",
        -9.84192517463176
      ],
      [
        "▁daki",
        -9.84489248520603
      ],
      [
        "▁tab",
        -9.846833812422025
      ],
      [
        "▁gini",
        -9.847796738919568
      ],
      [
        "▁karam",
        -9.850151666231916
      ],
      [
        "85",
        -9.852828267752834
      ],
      [
        "▁zakar",
        -9.853289434612773
      ],
      [
        "mawa",
        -9.855834642906817
      ],
      [
        "▁mat",
        -9.85893256355943
      ],
      [
        "aron",
        -9.863051269252475
      ],
      [
        "ushi",
        -9.864513337710147
      ],
      [
        "91",
        -9.86498883663873
      ],
      [
        "han",
        -9.870405052529144
      ],
      [
        "▁nahiy",
        -9.870744755193742
      ],
      [
        "▁Iwa",
        -9.871143719390878
      ],
      [
        "ver",
        -9.871340219862196
      ],
      [
        "▁dan",
        -9.874005071944984
      ],
      [
        "ace",
        -9.875788884668044
      ],
      [
        "▁Di",
        -9.876050610451532
      ],
      [
        "ld",
        -9.882006798472123
      ],
      [
        "ows",
        -9.88307517459026
      ],
      [
        "gila",
        -9.885062312323619
      ],
      [
        "▁share",
        -9.887798096028156
      ],
      [
        "gen",
        -9.888275750221759
      ],
      [
        "▁muna",
        -9.892605973970896
      ],
      [
        "tacce",
        -9.893594049882124
      ],
      [
        "▁Lu",
        -9.895786988702506
      ],
      [
        "ffi",
        -9.89593329351323
      ],
      [
        "soh",
        -9.898610175549646
      ],
      [
        "loli",
        -9.900642915178288
      ],
      [
        "▁cika",
        -9.903545810033231
      ],
      [
        "▁tara",
        -9.90360037817531
      ],
      [
        "▁bin",
        -9.903601816089791
      ],
      [
        "▁sabi",
        -9.905526333528112
      ],
      [
        "rce",
        -9.906415015448996
      ],
      [
        "aƙi",
        -9.911476988671287
      ],
      [
        "▁taƙai",
        -9.914259425099393
      ],
      [
        "nkin",
        -9.914784216082369
      ],
      [
        "vi",
        -9.915324194062665
      ],
      [
        "▁shayi",
        -9.915484613279494
      ],
      [
        "▁kyauta",
        -9.917183028974003
      ],
      [
        "▁kofi",
        -9.919285735601806
      ],
      [
        "▁Uk",
        -9.920904351963179
      ],
      [
        "rsa",
        -9.921903919202652
      ],
      [
        "▁taƙaita",
        -9.922047779554868
      ],
      [
        "nshi",
        -9.923346594683604
      ],
      [
        "erry",
        -9.923400423382912
      ],
      [
        "▁shag",
        -9.924121592642894
      ],
      [
        "ry",
        -9.92691681406157
      ],
      [
        "▁Pri",
        -9.927349042857271
      ],
      [
        "ft",
        -9.92743369972553
      ],
      [
        "▁bak",
        -9.92899921732022
      ],
      [
        "▁wakilan",
        -9.931719893636238
      ],
      [
        "▁Ri",
        -9.932580445076393
      ],
      [
        "▁labara",
        -9.933090461084833
      ],
      [
        "▁Gor",
        -9.933301461437692
      ],
      [
        "manin",
        -9.943293907447268
      ],
      [
        "jer",
        -9.946740676355455
      ],
      [
        "▁Hal",
        -9.947280790757503
      ],
      [
        "ew",
        -9.947815995792935
      ],
      [
        "swa",
        -9.953587829228484
      ],
      [
        "▁ganga",
        -9.95466667028175
      ],
      [
        "▁ab",
        -9.954977610465523
      ],
      [
        "alo",
        -9.956854551616907
      ],
      [
        "okacin",
        -9.96107613435065
      ],
      [
        "▁Ham",
        -9.96144600548043
      ],
      [
        "iriri",
        -9.961510968306797
      ],
      [
        "ntar",
        -9.962843585398021
      ],
      [
        "▁alƙ",
        -9.963608234770577
      ],
      [
        "▁(U",
        -9.965521538149279
      ],
      [
        "ilin",
        -9.967195328482653
      ],
      [
        "uj",
        -9.969375522069049
      ],
      [
        "▁Lay",
        -9.969932971514444
      ],
      [
        "roe",
        -9.970462910262697
      ],
      [
        "ari",
        -9.973062446672984
      ],
      [
        "se",
        -9.977984164872792
      ],
      [
        "taɓ",
        -9.97825251302557
      ],
      [
        "▁bus",
        -9.978654824716994
      ],
      [
        "▁Mul",
        -9.979801201660536
      ],
      [
        "ech",
        -9.980131439125543
      ],
      [
        "▁shafu",
        -9.980155904976709
      ],
      [
        "kazar",
        -9.980198264661867
      ],
      [
        "lan",
        -9.9802095479737
      ],
      [
        "ngon",
        -9.981255596036355
      ],
      [
        "owa",
        -9.98688284936143
      ],
      [
        "Wakila",
        -9.99028220202757
      ],
      [
        "▁ƙi",
        -9.991800398876654
      ],
      [
        "▁kaza",
        -9.993738582219876
      ],
      [
        "akunan",
        -9.995594140209224
      ],
      [
        "af",
        -9.996272945975578
      ],
      [
        "loba",
        -9.997172443063157
      ],
      [
        "▁hadu",
        -9.99819844151841
      ],
      [
        "wuri,",
        -9.999412872188874
      ],
      [
        "nda",
        -10.00050064909552
      ],
      [
        "iff",
        -10.006144238016102
      ],
      [
        "wai",
        -10.00619859844739
      ],
      [
        "oji",
        -10.006682085233926
      ],
      [
        "▁dalib",
        -10.007245006206414
      ],
      [
        "▁gada",
        -10.008537903380354
      ],
      [
        "uɓ",
        -10.009114412990352
      ],
      [
        "rse",
        -10.010165833909351
      ],
      [
        "a-",
        -10.010233938027417
      ],
      [
        "garo",
        -10.020318740927415
      ],
      [
        "ek",
        -10.020352223309672
      ],
      [
        "▁suk",
        -10.020630467949955
      ],
      [
        "la'",
        -10.02645008534334
      ],
      [
        "ede",
        -10.029036966705874
      ],
      [
        "▁bari",
        -10.030026370101673
      ],
      [
        "yay",
        -10.030348172553074
      ],
      [
        "F",
        -10.03055363089354
      ],
      [
        "▁inf",
        -10.03174436097341
      ],
      [
        "▁Ɗ",
        -10.033141842598376
      ],
      [
        "ss",
        -10.034841129911454
      ],
      [
        "▁Col",
        -10.034945758109679
      ],
      [
        "▁aik",
        -10.03756393364469
      ],
      [
        "pl",
        -10.040253035521054
      ],
      [
        "ata",
        -10.04459643457836
      ],
      [
        "▁gina",
        -10.045525995233088
      ],
      [
        "▁sand",
        -10.046449054958922
      ],
      [
        "abin",
        -10.046530164711376
      ],
      [
        "burg",
        -10.051424516119884
      ],
      [
        "hu",
        -10.052163017605544
      ],
      [
        "zan",
        -10.058269864029954
      ],
      [
        "▁zar",
        -10.058302974136723
      ],
      [
        "akamako",
        -10.062815024303966
      ],
      [
        "anta",
        -10.065101991126623
      ],
      [
        "▁Pu",
        -10.065247131853585
      ],
      [
        "cus",
        -10.069014195337695
      ],
      [
        "▁Mar",
        -10.070633364444527
      ],
      [
        "▁Dar",
        -10.074354508868222
      ],
      [
        "yyar",
        -10.082317301958621
      ],
      [
        "88",
        -10.08232047018784
      ],
      [
        "st",
        -10.082941704626212
      ],
      [
        "ston",
        -10.088489828292131
      ],
      [
        "▁tarihin",
        -10.092280413415052
      ],
      [
        "▁tsam",
        -10.0926140887665
      ],
      [
        "▁tafi",
        -10.09294355420583
      ],
      [
        "uɗaɗe",
        -10.097612300383403
      ],
      [
        "▁du",
        -10.097991938512966
      ],
      [
        "▁mi",
        -10.098483407992203
      ],
      [
        "int",
        -10.101546104897384
      ],
      [
        "sp",
        -10.104312948773732
      ],
      [
        "ege",
        -10.10762144718555
      ],
      [
        "▁V",
        -10.109899387299143
      ],
      [
        "uku",
        -10.109916462711109
      ],
      [
        "ura",
        -10.117382007016111
      ],
      [
        "imin",
        -10.122137523926657
      ],
      [
        "5",
        -10.123460111413928
      ],
      [
        "800",
        -10.123509603931375
      ],
      [
        "▁Man",
        -10.127000145110575
      ],
      [
        "tofa",
        -10.128334805492669
      ],
      [
        "▁fid",
        -10.133965998117782
      ],
      [
        "▁Jami",
        -10.134176980176662
      ],
      [
        "▁kasancewars",
        -10.135406833574852
      ],
      [
        "mbi",
        -10.135883859151628
      ],
      [
        "ulkin",
        -10.136532808359595
      ],
      [
        "▁tabba",
        -10.136730760676125
      ],
      [
        "ose",
        -10.136942219113182
      ],
      [
        "uk",
        -10.13757328568935
      ],
      [
        "▁196",
        -10.138687137934527
      ],
      [
        "▁ƙetar",
        -10.139312363508921
      ],
      [
        "ski",
        -10.141010376418702
      ],
      [
        "cher",
        -10.150176964818138
      ],
      [
        "▁zuw",
        -10.152327484809351
      ],
      [
        "ez",
        -10.15467698830953
      ],
      [
        "ine",
        -10.155654970484076
      ],
      [
        "lak",
        -10.157288393216586
      ],
      [
        "oron",
        -10.160261622702762
      ],
      [
        "▁Karan",
        -10.162063255617495
      ],
      [
        "▁wakila",
        -10.162440263749495
      ],
      [
        "ok",
        -10.169201306939367
      ],
      [
        "▁haram",
        -10.172204336108404
      ],
      [
        "▁Kan",
        -10.172365583835917
      ],
      [
        "▁tak",
        -10.173404445256331
      ],
      [
        "ent",
        -10.177480870645265
      ],
      [
        "▁Wad",
        -10.18030948582282
      ],
      [
        "▁hal",
        -10.182892155737994
      ],
      [
        "aris",
        -10.185316565634713
      ],
      [
        "noni",
        -10.190281912536728
      ],
      [
        "rki",
        -10.192283104717802
      ],
      [
        "▁Mo",
        -10.194247572478295
      ],
      [
        "maki",
        -10.195070848280533
      ],
      [
        "▁Kar",
        -10.201765866758882
      ],
      [
        "▁kway",
        -10.202283027604473
      ],
      [
        "iɗa",
        -10.202504561145279
      ],
      [
        "▁ƙari",
        -10.202721108661592
      ],
      [
        "lokacin",
        -10.205927483814868
      ],
      [
        "▁wakili",
        -10.206170444242044
      ],
      [
        "aiwa",
        -10.214853130986848
      ],
      [
        "▁Tan",
        -10.216388002987172
      ],
      [
        "Angola",
        -10.21941630008855
      ],
      [
        "jefi",
        -10.221865496843458
      ],
      [
        "auran",
        -10.22198644620464
      ],
      [
        "ho",
        -10.222842468234552
      ],
      [
        "▁al’ad",
        -10.223567231990518
      ],
      [
        "afi",
        -10.226348188343376
      ],
      [
        "78",
        -10.22670051096428
      ],
      [
        "▁tari",
        -10.226845537114425
      ],
      [
        "set",
        -10.227792777693717
      ],
      [
        "gi",
        -10.231431631992665
      ],
      [
        "buri",
        -10.234520923056639
      ],
      [
        "akalar",
        -10.234698107480385
      ],
      [
        "▁zakara",
        -10.236949610859861
      ],
      [
        "▁Bab",
        -10.237197612694034
      ],
      [
        "▁tsu",
        -10.237284542260541
      ],
      [
        "ƙasa,",
        -10.238024758351424
      ],
      [
        "bba",
        -10.2412642661947
      ],
      [
        "▁jami’",
        -10.244138482296936
      ],
      [
        "▁lafiy",
        -10.244869422963472
      ],
      [
        "olin",
        -10.246359648574476
      ],
      [
        "abu",
        -10.248057927944728
      ],
      [
        "arban",
        -10.249847241867895
      ],
      [
        "▁30",
        -10.249926330837713
      ],
      [
        "▁ak",
        -10.250337973880825
      ],
      [
        "▁sashe",
        -10.25648567530756
      ],
      [
        "aranta",
        -10.259770093503752
      ],
      [
        "rade",
        -10.260641208477725
      ],
      [
        "nes",
        -10.262818248689799
      ],
      [
        "allin",
        -10.266439253879053
      ],
      [
        "▁Jana",
        -10.27061551718832
      ],
      [
        "bl",
        -10.271104665780241
      ],
      [
        "▁mura",
        -10.273190654231511
      ],
      [
        "▁ju",
        -10.273661188702894
      ],
      [
        "oli",
        -10.273776454822304
      ],
      [
        "▁Sea",
        -10.275532351458095
      ],
      [
        "ashi",
        -10.276038331350142
      ],
      [
        "▁Zi",
        -10.278411373243399
      ],
      [
        "e”",
        -10.278789365972134
      ],
      [
        "▁Hari",
        -10.278795915791715
      ],
      [
        "▁Ji",
        -10.27967443437486
      ],
      [
        "▁ɗab",
        -10.289470319612555
      ],
      [
        "je",
        -10.294297069802768
      ],
      [
        "▁Ju",
        -10.294505434765858
      ],
      [
        "duniya",
        -10.301288537228787
      ],
      [
        "rjejeniya",
        -10.302266202381373
      ],
      [
        "yayin",
        -10.305440494830691
      ],
      [
        "'aikata",
        -10.305615705830242
      ],
      [
        "zama",
        -10.306596157939099
      ],
      [
        "itu",
        -10.306633329607283
      ],
      [
        "yau",
        -10.311858474122438
      ],
      [
        "▁kwam",
        -10.312327842674131
      ],
      [
        "▁masan",
        -10.314470807833372
      ],
      [
        "▁kus",
        -10.319058323276362
      ],
      [
        "dim",
        -10.320100563592389
      ],
      [
        "uki",
        -10.322084990668404
      ],
      [
        "arauta",
        -10.322207680549731
      ],
      [
        "oda",
        -10.324967069634498
      ],
      [
        "▁banban",
        -10.326326336325735
      ],
      [
        "pe",
        -10.328178417495256
      ],
      [
        "Bay",
        -10.331393873629827
      ],
      [
        "K",
        -10.333455733154317
      ],
      [
        "men",
        -10.33641425336296
      ],
      [
        "▁194",
        -10.33802315006252
      ],
      [
        "momi",
        -10.340766219858072
      ],
      [
        "amba",
        -10.342021712740504
      ],
      [
        "'aun",
        -10.34255930758348
      ],
      [
        "gaba",
        -10.344870435390046
      ],
      [
        "ude",
        -10.346492095332216
      ],
      [
        "kasari",
        -10.347758258413391
      ],
      [
        "tion",
        -10.350491035738854
      ],
      [
        "▁sanadi",
        -10.352388992861059
      ],
      [
        "▁rak",
        -10.353014154880414
      ],
      [
        "aki",
        -10.354302654350542
      ],
      [
        "▁biyun",
        -10.357345024630305
      ],
      [
        "hannu",
        -10.357958875026991
      ],
      [
        "om",
        -10.358000798963644
      ],
      [
        "ƙasa",
        -10.36470538874853
      ],
      [
        "adadi",
        -10.366183268578121
      ],
      [
        "ubutu",
        -10.367307455678244
      ],
      [
        "▁Yaw",
        -10.367460183890483
      ],
      [
        "▁sinadar",
        -10.370062461033836
      ],
      [
        "▁lissaf",
        -10.370822507158506
      ],
      [
        "▁sauk",
        -10.371647992951553
      ],
      [
        "▁bay",
        -10.372234456255383
      ],
      [
        "400",
        -10.37298695457303
      ],
      [
        "▁Stat",
        -10.373852694315872
      ],
      [
        "fan",
        -10.37386579847361
      ],
      [
        "▁shugaba",
        -10.375321533431407
      ],
      [
        "baro",
        -10.37563186885711
      ],
      [
        "▁bama",
        -10.376564996823404
      ],
      [
        "Pl",
        -10.377333651833688
      ],
      [
        "▁fad",
        -10.378965389373027
      ],
      [
        "▁Australi",
        -10.380982883577122
      ],
      [
        "▁laif",
        -10.383101651162441
      ],
      [
        "▁kaka",
        -10.38368728067986
      ],
      [
        "ɗaya",
        -10.384175781989217
      ],
      [
        "Japan",
        -10.385099014032633
      ],
      [
        "tseren",
        -10.385147476335964
      ],
      [
        "hukunce",
        -10.387101252835832
      ],
      [
        "▁kasu",
        -10.389758677009425
      ],
      [
        "▁Tra",
        -10.391124517506825
      ],
      [
        "bambanta",
        -10.39159236013857
      ],
      [
        "0,000",
        -10.392503646674266
      ],
      [
        "orafi",
        -10.3943706869841
      ],
      [
        "ashe",
        -10.395048621979495
      ],
      [
        "tsalle",
        -10.398225975017926
      ],
      [
        "ayy",
        -10.398938447983294
      ],
      [
        "otal",
        -10.400072898587442
      ],
      [
        "▁misal",
        -10.400384589107942
      ],
      [
        "shing",
        -10.400786401391521
      ],
      [
        "ta-",
        -10.401271049957533
      ],
      [
        "▁tas",
        -10.4059981880051
      ],
      [
        "▁haƙ",
        -10.40780966550158
      ],
      [
        "▁takadd",
        -10.41175412318459
      ],
      [
        "zuwa",
        -10.412111572697185
      ],
      [
        "zarta",
        -10.412595645079488
      ],
      [
        "U",
        -10.414414179474747
      ],
      [
        "▁me",
        -10.415179635939634
      ],
      [
        "▁hala",
        -10.416135790523331
      ],
      [
        "▁Ƙa",
        -10.417477207727107
      ],
      [
        "iƙa",
        -10.417820593354117
      ],
      [
        "zango",
        -10.41811012112776
      ],
      [
        "ri,",
        -10.41840177456229
      ],
      [
        "SA",
        -10.418530822064087
      ],
      [
        "haɗe",
        -10.42054631254925
      ],
      [
        "s)",
        -10.421535534859276
      ],
      [
        "ick",
        -10.42285542328448
      ],
      [
        "cuta",
        -10.423513049097371
      ],
      [
        "reen",
        -10.423786642368249
      ],
      [
        "▁nau'",
        -10.423857106290383
      ],
      [
        "▁Rea",
        -10.424646161154802
      ],
      [
        "og",
        -10.426461134210404
      ],
      [
        "zayyane",
        -10.428396097555932
      ],
      [
        "cikakk",
        -10.42869882025415
      ],
      [
        "afuwa",
        -10.428756676187128
      ],
      [
        "igh",
        -10.429589280302975
      ],
      [
        "ock",
        -10.430150746490902
      ],
      [
        "▁matsayi",
        -10.431980447303905
      ],
      [
        "▁Lon",
        -10.432026555396053
      ],
      [
        "kamfanin",
        -10.433564644150337
      ],
      [
        "sallake",
        -10.435993861233483
      ],
      [
        "▁mawak",
        -10.437931576901033
      ],
      [
        "▁cut",
        -10.43935142120952
      ],
      [
        "▁jam",
        -10.448011671332573
      ],
      [
        "▁tsoka",
        -10.448935571906459
      ],
      [
        "ich",
        -10.448957436990007
      ],
      [
        "rubuta",
        -10.449446602308539
      ],
      [
        "tur",
        -10.451198321865098
      ],
      [
        "ju",
        -10.451589386107925
      ],
      [
        "gow",
        -10.452154302927953
      ],
      [
        "zza",
        -10.452479553335685
      ],
      [
        "▁ajiy",
        -10.453945928199367
      ],
      [
        "uɗaɗɗ",
        -10.4539925004541
      ],
      [
        "juya",
        -10.456898396601021
      ],
      [
        "ah",
        -10.458071186717733
      ],
      [
        "ma'an",
        -10.458507181841652
      ],
      [
        "▁miƙ",
        -10.459551534429314
      ],
      [
        "tuki",
        -10.461882157222076
      ],
      [
        "▁Bincike",
        -10.464562508714156
      ],
      [
        "shu",
        -10.46643921462034
      ],
      [
        "hun",
        -10.469430219670926
      ],
      [
        "lli",
        -10.470172924400245
      ],
      [
        "3,",
        -10.470878741029846
      ],
      [
        "shafa",
        -10.472885320674955
      ],
      [
        "▁sadaukar",
        -10.473464285110744
      ],
      [
        "shirin",
        -10.474651632901994
      ],
      [
        "tsoh",
        -10.477573906968077
      ],
      [
        "kirkire",
        -10.478987836924093
      ],
      [
        "▁shak",
        -10.480790623303077
      ],
      [
        "via",
        -10.480984806850469
      ],
      [
        "▁haikali",
        -10.481801250793515
      ],
      [
        "▁lamb",
        -10.484417826946235
      ],
      [
        "980",
        -10.487255286182
      ],
      [
        "▁ƙwararru",
        -10.489191893301438
      ],
      [
        "▁farashi",
        -10.489262725637357
      ],
      [
        "abi",
        -10.490804962445253
      ],
      [
        "▁ƙware",
        -10.49129437463866
      ],
      [
        "▁hankal",
        -10.491647107366328
      ],
      [
        "▁‘",
        -10.494578947133942
      ],
      [
        "▁mamay",
        -10.495670898183484
      ],
      [
        "tu",
        -10.4966109046188
      ],
      [
        "usamman",
        -10.49697981836305
      ],
      [
        "usa",
        -10.50022061155123
      ],
      [
        "sof",
        -10.501246375463374
      ],
      [
        "kaɗe",
        -10.50143596206413
      ],
      [
        "▁Shaharar",
        -10.502770651400388
      ],
      [
        "qu",
        -10.503009981640881
      ],
      [
        "▁biki",
        -10.503140471931545
      ],
      [
        "▁tsaro",
        -10.50346676422629
      ],
      [
        "▁Ky",
        -10.506498734038672
      ],
      [
        "huriyar",
        -10.506513306877403
      ],
      [
        "Je",
        -10.507750154600616
      ],
      [
        "kalle",
        -10.50869632454441
      ],
      [
        "-kwa",
        -10.508919725135016
      ],
      [
        "stin",
        -10.509649952410037
      ],
      [
        "jira",
        -10.509721142441451
      ],
      [
        "▁kwaikway",
        -10.510246212417659
      ],
      [
        "Asali",
        -10.511005063317322
      ],
      [
        "rry",
        -10.513539375887627
      ],
      [
        "yoyi",
        -10.514391321417982
      ],
      [
        "▁al'a",
        -10.514898772314737
      ],
      [
        "▁Guguwa",
        -10.515561608633623
      ],
      [
        "▁kungiya",
        -10.51671656023747
      ],
      [
        "▁Rep",
        -10.516983246031861
      ],
      [
        "▁majalisa",
        -10.517030793266755
      ],
      [
        "rook",
        -10.51738365052226
      ],
      [
        "▁Bincik",
        -10.517411128264214
      ],
      [
        "stra",
        -10.517654881526829
      ],
      [
        "▁buka",
        -10.518642201388609
      ],
      [
        "▁mahimm",
        -10.51888709287801
      ],
      [
        "gs",
        -10.518922895581271
      ],
      [
        "duba",
        -10.518975757096557
      ],
      [
        "ukun",
        -10.52040263602856
      ],
      [
        "dawo",
        -10.520798144291746
      ],
      [
        "▁ƙwararr",
        -10.521458009055623
      ],
      [
        "▁hask",
        -10.52234635533232
      ],
      [
        "1895",
        -10.522416000595753
      ],
      [
        "sibiti",
        -10.522992169326146
      ],
      [
        "laguro",
        -10.52309668905356
      ],
      [
        "idg",
        -10.523338276125584
      ],
      [
        "ats",
        -10.523749795469758
      ],
      [
        "▁yawo",
        -10.525397398752386
      ],
      [
        "halit",
        -10.527357164616195
      ],
      [
        "ud",
        -10.527651731762568
      ],
      [
        "gwad",
        -10.527940038344322
      ],
      [
        "FA",
        -10.528019540155833
      ],
      [
        "▁gagga",
        -10.528048026382487
      ],
      [
        "rctic",
        -10.528106669905318
      ],
      [
        "▁wurar",
        -10.528318925666694
      ],
      [
        "stria",
        -10.528352940158982
      ],
      [
        "TA",
        -10.528642610607076
      ],
      [
        "imiyya",
        -10.52888869633166
      ],
      [
        "ɗari",
        -10.528911280251032
      ],
      [
        "LA",
        -10.529482830750004
      ],
      [
        "irga-zirga",
        -10.530064901513256
      ],
      [
        "▁tayi",
        -10.530355882901086
      ],
      [
        "▁Atlant",
        -10.530370801558563
      ],
      [
        "Ü",
        -10.530519412687068
      ],
      [
        "£",
        -10.530519412687068
      ],
      [
        "Ƴ",
        -10.530519412687074
      ],
      [
        "ƴ",
        -10.530519412687074
      ],
      [
        "ã",
        -10.53051941268708
      ],
      [
        "%",
        -10.53051941268708
      ],
      [
        "ç",
        -10.53051941268708
      ],
      [
        "+",
        -10.53051941268708
      ],
      [
        "ú",
        -10.53051941268708
      ],
      [
        "blica",
        -10.530581345276268
      ],
      [
        "anistan",
        -10.530673006078068
      ],
      [
        "▁Peter",
        -10.53067764158067
      ],
      [
        "▁Afg",
        -10.53073978240704
      ],
      [
        "cco",
        -10.530774202737199
      ],
      [
        "▁firgi",
        -10.530774697133767
      ],
      [
        "▁80",
        -10.530943565633534
      ],
      [
        "96",
        -10.530967162221597
      ],
      [
        "▁46",
        -10.531262602599258
      ],
      [
        "urkiya",
        -10.531288575269375
      ],
      [
        "mbo",
        -10.531293291872275
      ],
      [
        "▁muhimm",
        -10.531402974483372
      ],
      [
        "ukukuwa",
        -10.531607966287991
      ],
      [
        "oƙo",
        -10.531638697947443
      ],
      [
        "tumba",
        -10.531737408645323
      ],
      [
        "-daba",
        -10.531923822044574
      ],
      [
        "II",
        -10.532035936316575
      ],
      [
        "▁Soj",
        -10.532381026871988
      ],
      [
        "kirk",
        -10.53267855634557
      ],
      [
        "9",
        -10.53295476170134
      ],
      [
        "▁Bel",
        -10.533671010035821
      ],
      [
        "▁Isra",
        -10.533742938858753
      ],
      [
        "misali",
        -10.533967918393504
      ],
      [
        "▁mahimman",
        -10.53414322197874
      ],
      [
        "▁jijiy",
        -10.534188513684567
      ],
      [
        "▁(1",
        -10.535306076889231
      ],
      [
        "rs",
        -10.535404172979216
      ],
      [
        "▁loka",
        -10.53603581718407
      ],
      [
        "▁Austr",
        -10.53644867188397
      ],
      [
        "sirr",
        -10.536748466819935
      ],
      [
        "▁Ma'a",
        -10.53719024439359
      ],
      [
        "▁Ak",
        -10.537199236545332
      ],
      [
        "ungiya",
        -10.538025481262231
      ],
      [
        "ymp",
        -10.538664810340885
      ],
      [
        "895",
        -10.538826722473283
      ],
      [
        "lic",
        -10.539465043369054
      ],
      [
        "▁Amur",
        -10.53962015233349
      ],
      [
        "akardar",
        -10.539929344811283
      ],
      [
        "tsts",
        -10.540449693546531
      ],
      [
        "▁Guda",
        -10.540986176682203
      ],
      [
        "den",
        -10.541204380289955
      ],
      [
        "e-za",
        -10.542038735878874
      ],
      [
        "hel",
        -10.542813222269439
      ],
      [
        "cou",
        -10.543275518028281
      ],
      [
        "▁Tala",
        -10.543501854456439
      ],
      [
        "189",
        -10.543693397704867
      ],
      [
        "diyo",
        -10.544280832923072
      ],
      [
        "▁Rah",
        -10.544986837079602
      ],
      [
        "ola,",
        -10.545037728898441
      ],
      [
        "muran",
        -10.546534955020723
      ],
      [
        "baya",
        -10.546958426612711
      ],
      [
        "▁gwamna",
        -10.54707695372043
      ],
      [
        "▁Sp",
        -10.548032984795764
      ],
      [
        "▁zagay",
        -10.548688639501064
      ],
      [
        "▁Whi",
        -10.550036847215237
      ],
      [
        "dire",
        -10.550715574565565
      ],
      [
        "bert",
        -10.552280314002921
      ],
      [
        "▁masha",
        -10.555578561831283
      ],
      [
        "isa",
        -10.556059511254047
      ],
      [
        "vad",
        -10.556593966628423
      ],
      [
        "pane",
        -10.561425868467072
      ],
      [
        "▁alba",
        -10.562268380809241
      ],
      [
        "tier",
        -10.562903435656
      ],
      [
        "Rea",
        -10.56330795879873
      ],
      [
        "at",
        -10.563562633704258
      ],
      [
        "taimak",
        -10.563629400812577
      ],
      [
        "▁wakil",
        -10.564380222869628
      ],
      [
        "port",
        -10.564729709470452
      ],
      [
        "kewa",
        -10.565082118051254
      ],
      [
        "nkoson",
        -10.565570131800312
      ],
      [
        "banci",
        -10.565989407311314
      ],
      [
        "▁Nuwa",
        -10.566159399046025
      ],
      [
        "anyo",
        -10.566199860485023
      ],
      [
        "dic",
        -10.567242628120313
      ],
      [
        "ɓi",
        -10.568079463526889
      ],
      [
        "▁Mis",
        -10.568661058329885
      ],
      [
        "▁Haka",
        -10.569059928089983
      ],
      [
        "oks",
        -10.570112168320122
      ],
      [
        "mata",
        -10.571258098642193
      ],
      [
        "bbe",
        -10.571843708473398
      ],
      [
        "▁(ba",
        -10.571998823975424
      ],
      [
        "rrun",
        -10.572181148056071
      ],
      [
        "ala",
        -10.573361606075515
      ],
      [
        "koda",
        -10.573903085744153
      ],
      [
        "▁No",
        -10.575464832913694
      ],
      [
        "-c",
        -10.575831633569365
      ],
      [
        "zaun",
        -10.57589888526595
      ],
      [
        "▁fasa",
        -10.576244929301065
      ],
      [
        "olle",
        -10.576457960515437
      ],
      [
        "▁tsir",
        -10.580275194142017
      ],
      [
        "unduma",
        -10.581446704359507
      ],
      [
        "och",
        -10.58250330828681
      ],
      [
        "ɗaɗ",
        -10.583216839296359
      ],
      [
        "sassu",
        -10.583424700692321
      ],
      [
        "▁Ame",
        -10.583921379025465
      ],
      [
        "▁ƙo",
        -10.585790043065204
      ],
      [
        "yanci",
        -10.58735597519921
      ],
      [
        "bok",
        -10.589181156013964
      ],
      [
        "gins",
        -10.589724986044114
      ],
      [
        "9,",
        -10.59230073064696
      ],
      [
        "a'a",
        -10.59578374973176
      ],
      [
        "aut",
        -10.596303653152383
      ],
      [
        "reb",
        -10.596859978748709
      ],
      [
        "▁“ba",
        -10.598702939344271
      ],
      [
        "uɗ",
        -10.599557297936833
      ],
      [
        "kawar",
        -10.600074453242762
      ],
      [
        "a'ida",
        -10.60183170169995
      ],
      [
        "wararru",
        -10.602377986647706
      ],
      [
        "ma,",
        -10.604598614028463
      ],
      [
        "ebo",
        -10.604795595475094
      ],
      [
        "bus",
        -10.604876226833936
      ],
      [
        "we",
        -10.605900864085253
      ],
      [
        "Da",
        -10.605945389707772
      ],
      [
        "▁kamf",
        -10.605948223793325
      ],
      [
        "lasta",
        -10.608735967946377
      ],
      [
        "ntaka",
        -10.609779477585962
      ],
      [
        "ter",
        -10.61302462065395
      ],
      [
        "▁matsa",
        -10.61435676531622
      ],
      [
        "Baya",
        -10.614436478735335
      ],
      [
        "ters",
        -10.61455783792017
      ],
      [
        "▁One",
        -10.615276091024452
      ],
      [
        "utane",
        -10.618399736764053
      ],
      [
        "enza",
        -10.618976413120736
      ],
      [
        "ayuwa",
        -10.619649184330061
      ],
      [
        "ndro",
        -10.620261022416464
      ],
      [
        "83",
        -10.622811355811148
      ],
      [
        "▁mar",
        -10.627097836671965
      ],
      [
        "orm",
        -10.628575492489656
      ],
      [
        "chu",
        -10.630084752232694
      ],
      [
        "tsaki",
        -10.632160430297017
      ],
      [
        "▁manu",
        -10.633237381977624
      ],
      [
        "▁danda",
        -10.636390411519942
      ],
      [
        "2,",
        -10.640545186117738
      ],
      [
        "▁aboki",
        -10.64161914685521
      ],
      [
        "Dan",
        -10.642196862799077
      ],
      [
        "▁yaki",
        -10.64569152299039
      ],
      [
        "hit",
        -10.651730548607206
      ],
      [
        "▁fir",
        -10.653909364202834
      ],
      [
        "▁zab",
        -10.654607211507763
      ],
      [
        "▁6,",
        -10.655798342331856
      ],
      [
        "0s",
        -10.65741599036479
      ],
      [
        "ir",
        -10.658482647964277
      ],
      [
        "mfa",
        -10.658580992752139
      ],
      [
        "▁zu",
        -10.66019622622023
      ],
      [
        "iyo",
        -10.660468229852702
      ],
      [
        "kwalw",
        -10.66091635051012
      ],
      [
        "ƙuri",
        -10.662510995681902
      ],
      [
        "▁gata",
        -10.663708962198122
      ],
      [
        "ame",
        -10.665224252193536
      ],
      [
        "nnoba",
        -10.666118581354404
      ],
      [
        "▁nis",
        -10.667619883603255
      ],
      [
        "kaddama",
        -10.668310495452667
      ],
      [
        "▁ƙarf",
        -10.670395338420212
      ],
      [
        "fani",
        -10.672097350864593
      ],
      [
        "ket",
        -10.67517676493121
      ],
      [
        "uman",
        -10.675375753319276
      ],
      [
        "uhimm",
        -10.67552422470791
      ],
      [
        "▁tasi",
        -10.675545974387731
      ],
      [
        "gewa",
        -10.677834690247805
      ],
      [
        "▁Gra",
        -10.678124149534895
      ],
      [
        "law",
        -10.67870505209869
      ],
      [
        "▁Ang",
        -10.681199101558269
      ],
      [
        "kla",
        -10.681473196253148
      ],
      [
        "arorin",
        -10.682288896017553
      ],
      [
        "▁Pol",
        -10.684683514565243
      ],
      [
        "▁Iya",
        -10.685449200475906
      ],
      [
        "▁Bay",
        -10.68754264261402
      ],
      [
        "daya",
        -10.687605438331712
      ],
      [
        "car",
        -10.688227427485208
      ],
      [
        "ven",
        -10.69033229183051
      ],
      [
        "▁Mada",
        -10.691807559803781
      ],
      [
        "ucewa",
        -10.694708855660371
      ],
      [
        "i'a",
        -10.694748402714014
      ],
      [
        "▁kwas",
        -10.696255886370416
      ],
      [
        "Ƙa",
        -10.6971822129537
      ],
      [
        "manya",
        -10.698534608164511
      ],
      [
        "ist",
        -10.699350971049636
      ],
      [
        "ƙiya",
        -10.701015645798595
      ],
      [
        "▁Chi",
        -10.701095186265174
      ],
      [
        "▁202",
        -10.70265894198566
      ],
      [
        "ot",
        -10.704907217207024
      ],
      [
        "saraut",
        -10.706243896811571
      ],
      [
        "iyarsa",
        -10.707050269642904
      ],
      [
        "jeri",
        -10.710164255132343
      ],
      [
        "fuka",
        -10.710823617563747
      ],
      [
        "ibi",
        -10.71137179549608
      ],
      [
        "tako",
        -10.713314014650908
      ],
      [
        "asancewar",
        -10.714189213263445
      ],
      [
        "lad",
        -10.715275346658569
      ],
      [
        "suna",
        -10.717194379664257
      ],
      [
        "▁Gu",
        -10.71981309968471
      ],
      [
        "guwar",
        -10.720152406772689
      ],
      [
        "▁kull",
        -10.721564322698535
      ],
      [
        "▁karat",
        -10.722178013312647
      ],
      [
        "old",
        -10.722556433397688
      ],
      [
        "▁Lan",
        -10.727752585887412
      ],
      [
        "gare",
        -10.72782219263572
      ],
      [
        "rk",
        -10.727889993537744
      ],
      [
        "MS",
        -10.7289810202683
      ],
      [
        "wane",
        -10.73130724064599
      ],
      [
        "rgen",
        -10.731702705678192
      ],
      [
        "akonni",
        -10.732011406779462
      ],
      [
        "-ga",
        -10.732485680920963
      ],
      [
        "itin",
        -10.734479549627727
      ],
      [
        "▁Sac",
        -10.735104648059595
      ],
      [
        "abo",
        -10.738889494894927
      ],
      [
        "▁jira",
        -10.739211574581425
      ],
      [
        "ore",
        -10.739648015177204
      ],
      [
        "▁daɗ",
        -10.740434801970752
      ],
      [
        "jini",
        -10.741793132415731
      ],
      [
        "▁Tas",
        -10.744885712783113
      ],
      [
        "oyin",
        -10.745469253970217
      ],
      [
        "ion",
        -10.74621466856494
      ],
      [
        "addamar",
        -10.74732810757219
      ],
      [
        "alin",
        -10.748788225680562
      ],
      [
        "kuma",
        -10.749254356836673
      ],
      [
        "wanni",
        -10.74926535633048
      ],
      [
        "ind",
        -10.752116040636523
      ],
      [
        "awari",
        -10.752511076914127
      ],
      [
        "antar",
        -10.758935999421345
      ],
      [
        "res",
        -10.759395981994409
      ],
      [
        "rash",
        -10.76114157326358
      ],
      [
        "▁hadar",
        -10.76119610185247
      ],
      [
        "▁1,",
        -10.762401437195633
      ],
      [
        "ap",
        -10.763520051442626
      ],
      [
        "▁ungu",
        -10.765707985999907
      ],
      [
        "▁Hai",
        -10.76747475976226
      ],
      [
        "jir",
        -10.770567026798167
      ],
      [
        "epu",
        -10.771992153934205
      ],
      [
        "mer",
        -10.772390630457098
      ],
      [
        "▁cunk",
        -10.77500849813553
      ],
      [
        "▁Su",
        -10.775180843226808
      ],
      [
        "umi",
        -10.779570602265672
      ],
      [
        "her",
        -10.779740306151519
      ],
      [
        "bab",
        -10.780691448908575
      ],
      [
        "▁biya",
        -10.782510271018754
      ],
      [
        "rama",
        -10.782855755711605
      ],
      [
        "▁Dun",
        -10.784523569792043
      ],
      [
        "lat",
        -10.787692204570092
      ],
      [
        "lt",
        -10.791025379873117
      ],
      [
        "dam",
        -10.792917805984127
      ],
      [
        "it",
        -10.793808120726572
      ],
      [
        "tsen",
        -10.793890182307965
      ],
      [
        "avid",
        -10.794746903725548
      ],
      [
        "▁tal",
        -10.79552288752431
      ],
      [
        "▁Far",
        -10.79957963896938
      ],
      [
        "arjejeniya",
        -10.802891325384023
      ],
      [
        "buga",
        -10.8033695286038
      ],
      [
        "mis",
        -10.803723113746083
      ],
      [
        "Ta",
        -10.805244628429692
      ],
      [
        "kashi",
        -10.805793969079827
      ],
      [
        "▁dabb",
        -10.81011405090373
      ],
      [
        "a'aikata",
        -10.814614204390884
      ],
      [
        "Yanci",
        -10.817318123133012
      ],
      [
        "aj",
        -10.819034313071011
      ],
      [
        "▁bir",
        -10.819190750998992
      ],
      [
        "aya",
        -10.820022696026184
      ],
      [
        "ub",
        -10.82110299965685
      ],
      [
        "kor",
        -10.822085062146291
      ],
      [
        "ken",
        -10.822486210810409
      ],
      [
        "anci",
        -10.824035482022
      ],
      [
        "ans",
        -10.828710139905033
      ],
      [
        "▁Gwa",
        -10.828764781886743
      ],
      [
        "age",
        -10.833631506987027
      ],
      [
        "annin",
        -10.838062015204043
      ],
      [
        "zz",
        -10.838556269749496
      ],
      [
        "▁gya",
        -10.839986482787777
      ],
      [
        "a’i",
        -10.842025490387446
      ],
      [
        "karar",
        -10.84946937628046
      ],
      [
        "▁tafk",
        -10.850800479699913
      ],
      [
        "ahu",
        -10.850818713968843
      ],
      [
        "karu",
        -10.855805285710515
      ],
      [
        "gaji",
        -10.857900795154844
      ],
      [
        "jen",
        -10.861033257249549
      ],
      [
        "orin",
        -10.863618066327865
      ],
      [
        "▁Ale",
        -10.864625997757475
      ],
      [
        "zin",
        -10.865341219805162
      ],
      [
        "sari",
        -10.873837545794116
      ],
      [
        "fik",
        -10.874721271859936
      ],
      [
        "▁biy",
        -10.87561231379878
      ],
      [
        "▁kat",
        -10.881635626549098
      ],
      [
        "▁Mi",
        -10.882913806908377
      ],
      [
        "▁magan",
        -10.884542993628955
      ],
      [
        "bari",
        -10.886765993209021
      ],
      [
        "▁Wasa",
        -10.886939078476189
      ],
      [
        "sali",
        -10.886964255914496
      ],
      [
        "▁kya",
        -10.887528988149356
      ],
      [
        "▁Be",
        -10.888420319121252
      ],
      [
        "tuka",
        -10.889461683239176
      ],
      [
        "tin",
        -10.893951621213258
      ],
      [
        "nar",
        -10.895084584546588
      ],
      [
        "fun",
        -10.895304973133562
      ],
      [
        "shen",
        -10.897593823407588
      ],
      [
        "uriya",
        -10.908669355628216
      ],
      [
        "ayan",
        -10.909222601387365
      ],
      [
        "ayi",
        -10.90991936326774
      ],
      [
        "30,",
        -10.91081323826997
      ],
      [
        "orama",
        -10.911254603875532
      ],
      [
        "ite",
        -10.915800017282178
      ],
      [
        "ssar",
        -10.916341866326528
      ],
      [
        "▁dok",
        -10.923922388741131
      ],
      [
        "▁daidait",
        -10.924770344704754
      ],
      [
        "▁Jar",
        -10.927098898898228
      ],
      [
        "bark",
        -10.9301252190774
      ],
      [
        "▁maima",
        -10.931045347858824
      ],
      [
        "toci",
        -10.932129698298425
      ],
      [
        "kon",
        -10.93527869506612
      ],
      [
        "ɗauka",
        -10.937052825825507
      ],
      [
        "asaraut",
        -10.942644137113222
      ],
      [
        "▁fu",
        -10.945825026110034
      ],
      [
        "a'i",
        -10.950195007517369
      ],
      [
        "▁Can",
        -10.950196773808539
      ],
      [
        "▁jari",
        -10.951690209738626
      ],
      [
        "mur",
        -10.952112265757107
      ],
      [
        "▁Tak",
        -10.9552771646987
      ],
      [
        "konni",
        -10.957867976605947
      ],
      [
        "▁hau",
        -10.962615738302258
      ],
      [
        "Par",
        -10.969145533890481
      ],
      [
        "uba",
        -10.97622650015586
      ],
      [
        "anar",
        -10.978997349688514
      ],
      [
        "azz",
        -10.98183530660448
      ],
      [
        "owar",
        -10.984460438740442
      ],
      [
        "sso",
        -10.986713051489827
      ],
      [
        "kafa",
        -10.987250505168774
      ],
      [
        "▁kil",
        -10.990609268304242
      ],
      [
        "okacins",
        -10.994097554998277
      ],
      [
        "lom",
        -11.000834439541403
      ],
      [
        "aw",
        -11.00283318228195
      ],
      [
        "▁wada",
        -11.008016605095113
      ],
      [
        "nun",
        -11.008761251950068
      ],
      [
        "ij",
        -11.01325473889168
      ],
      [
        "ey",
        -11.017300809963809
      ],
      [
        "▁rik",
        -11.026600345346559
      ],
      [
        "Fa",
        -11.028271775494154
      ],
      [
        "akar",
        -11.036834062113567
      ],
      [
        "rsu",
        -11.04430464176127
      ],
      [
        "haj",
        -11.045602437318074
      ],
      [
        "tal",
        -11.046343826982255
      ],
      [
        "taki",
        -11.057828632159735
      ],
      [
        "rc",
        -11.058252623670612
      ],
      [
        "ando",
        -11.059788267802187
      ],
      [
        "lace",
        -11.06021986939081
      ],
      [
        "ɗ",
        -11.061116514401235
      ],
      [
        "oton",
        -11.065914442363884
      ],
      [
        "zon",
        -11.068204078665072
      ],
      [
        "kamako",
        -11.068854457412733
      ],
      [
        "▁3,",
        -11.072578082650745
      ],
      [
        "ɗai",
        -11.073939324921243
      ],
      [
        "oram",
        -11.078051651157859
      ],
      [
        "▁gw",
        -11.078679821949544
      ],
      [
        "anzu",
        -11.085469164546199
      ],
      [
        "▁ƙora",
        -11.092040192524784
      ],
      [
        "▁ro",
        -11.093855390005295
      ],
      [
        "va",
        -11.094546736542469
      ],
      [
        "fo",
        -11.097291791156955
      ],
      [
        "▁zam",
        -11.097662205903044
      ],
      [
        "mbar",
        -11.098187606780838
      ],
      [
        "ami'a",
        -11.101451697315296
      ],
      [
        "ɓu",
        -11.101591145661796
      ],
      [
        "ramun",
        -11.103145494863043
      ],
      [
        "▁Tsa",
        -11.104008256385526
      ],
      [
        "unuka",
        -11.106061554511824
      ],
      [
        "biy",
        -11.10870154972487
      ],
      [
        "tsaka",
        -11.114286920959643
      ],
      [
        "enge",
        -11.114313463078409
      ],
      [
        "eb",
        -11.124339623157109
      ],
      [
        "ruru",
        -11.133130741373575
      ],
      [
        "▁sk",
        -11.140769857298938
      ],
      [
        "▁ɓac",
        -11.143682642849226
      ],
      [
        "sa,",
        -11.144955218504697
      ],
      [
        "itani",
        -11.148061360309399
      ],
      [
        "kasa",
        -11.148241536842203
      ],
      [
        "umar",
        -11.156355761614241
      ],
      [
        "ade",
        -11.159183136038168
      ],
      [
        "▁Cr",
        -11.160656196334282
      ],
      [
        "▁ti",
        -11.166789449632786
      ],
      [
        "wu",
        -11.167591046258902
      ],
      [
        "▁Sin",
        -11.167838585644024
      ],
      [
        "ƙas",
        -11.173752051818097
      ],
      [
        "irka",
        -11.175823377335126
      ],
      [
        "guna",
        -11.178529657369706
      ],
      [
        "dar",
        -11.18146427905069
      ],
      [
        "ab",
        -11.182687797443114
      ],
      [
        "ama",
        -11.185932739189168
      ],
      [
        "gawa",
        -11.1972103022431
      ],
      [
        "▁ota",
        -11.19762303636989
      ],
      [
        "gol",
        -11.209326486299267
      ],
      [
        "yat",
        -11.21415809654626
      ],
      [
        "▁jef",
        -11.221157020300826
      ],
      [
        "wata",
        -11.244919887630852
      ],
      [
        "▁shim",
        -11.245427779497518
      ],
      [
        "nd",
        -11.263177595261096
      ],
      [
        "alle-",
        -11.264624147031572
      ],
      [
        "▁mun",
        -11.265867168583839
      ],
      [
        "▁lam",
        -11.26772423850596
      ],
      [
        "bon",
        -11.27047906579567
      ],
      [
        "fiya",
        -11.27183406140189
      ],
      [
        "ayarwa",
        -11.27783994973716
      ],
      [
        "iru",
        -11.281199663620788
      ],
      [
        "tt",
        -11.292157086140866
      ],
      [
        "tosh",
        -11.2991271223987
      ],
      [
        "ransa",
        -11.301707827039962
      ],
      [
        "tsu",
        -11.302276176740907
      ],
      [
        "▁nisha",
        -11.311756525234202
      ],
      [
        "pi",
        -11.313430445253084
      ],
      [
        "▁kim",
        -11.316440400142358
      ],
      [
        "▁'",
        -11.321502658783174
      ],
      [
        "azari",
        -11.323672623184803
      ],
      [
        "20",
        -11.324289588234086
      ],
      [
        "inci",
        -11.335433634997448
      ],
      [
        "ukumar",
        -11.336583313958403
      ],
      [
        "▁hark",
        -11.337363598314557
      ],
      [
        "od",
        -11.346175538676247
      ],
      [
        "uran",
        -11.354952170797466
      ],
      [
        "▁lal",
        -11.355615725217799
      ],
      [
        "-i",
        -11.376058631592539
      ],
      [
        "▁sok",
        -11.377920209228819
      ],
      [
        "sen",
        -11.378950425976226
      ],
      [
        "▁“t",
        -11.38258482186323
      ],
      [
        "sun",
        -11.383925689367725
      ],
      [
        "▁Yar",
        -11.38799026191283
      ],
      [
        "17,",
        -11.394081877931844
      ],
      [
        "gine",
        -11.3975110116055
      ],
      [
        "eth",
        -11.398828814191456
      ],
      [
        "▁dala",
        -11.41513935501044
      ],
      [
        "tut",
        -11.417827823925935
      ],
      [
        "amanin",
        -11.418599998730883
      ],
      [
        "ririn",
        -11.420023595985334
      ],
      [
        "arki",
        -11.429422320352293
      ],
      [
        "bada",
        -11.436887892381753
      ],
      [
        "osa",
        -11.444376601839066
      ],
      [
        "▁amin",
        -11.445990316873964
      ],
      [
        "▁500",
        -11.450425688920095
      ],
      [
        "eno",
        -11.450864098509195
      ],
      [
        "duwa",
        -11.452842798526058
      ],
      [
        "ar-",
        -11.463200854049367
      ],
      [
        "aini",
        -11.463370389900915
      ],
      [
        "ovi",
        -11.470211171670998
      ],
      [
        "lata",
        -11.471093301544714
      ],
      [
        "▁nasa",
        -11.473915421007147
      ],
      [
        "oni",
        -11.474240244294531
      ],
      [
        "atacce",
        -11.477709148543338
      ],
      [
        "iwa",
        -11.478004300057743
      ],
      [
        "▁ƙwar",
        -11.481760421573163
      ],
      [
        "▁Sou",
        -11.492651860982203
      ],
      [
        "atse",
        -11.493052824684018
      ],
      [
        "ira",
        -11.496600213053274
      ],
      [
        "wanc",
        -11.505590565983258
      ],
      [
        "rad",
        -11.507193231330032
      ],
      [
        "otoci",
        -11.517008667014107
      ],
      [
        "xi",
        -11.52101059994604
      ],
      [
        "ano",
        -11.525121843798418
      ],
      [
        "▁jima",
        -11.526902460562347
      ],
      [
        "dauka",
        -11.531943455636302
      ],
      [
        "▁zat",
        -11.532737119485002
      ],
      [
        "alƙi",
        -11.533652429877346
      ],
      [
        "amin",
        -11.53960851570134
      ],
      [
        "daukar",
        -11.549964025517166
      ],
      [
        "atta",
        -11.555208061820478
      ],
      [
        "nye",
        -11.555392520008533
      ],
      [
        "urfi",
        -11.560006592229739
      ],
      [
        "ice",
        -11.560247761889936
      ],
      [
        "owe",
        -11.560479032214818
      ],
      [
        "▁wak",
        -11.563778713348297
      ],
      [
        "rewar",
        -11.572165486929048
      ],
      [
        "nos",
        -11.573599497176573
      ],
      [
        "▁has",
        -11.577932372659012
      ],
      [
        "aƙ",
        -11.590927826004787
      ],
      [
        "alt",
        -11.59147573999641
      ],
      [
        "aɗe-",
        -11.601289397794101
      ],
      [
        "▁shar",
        -11.604610233236002
      ],
      [
        "US",
        -11.611938991891375
      ],
      [
        "rni",
        -11.612903572328705
      ],
      [
        "ure",
        -11.61330319033054
      ],
      [
        "▁sunan",
        -11.613991178168755
      ],
      [
        "atsa",
        -11.617636548960888
      ],
      [
        "ssa",
        -11.626830210356779
      ],
      [
        "inin",
        -11.648078474610683
      ],
      [
        "▁kor",
        -11.681513223320067
      ],
      [
        "sannin",
        -11.683213870622568
      ],
      [
        "▁mah",
        -11.70562229167082
      ],
      [
        "ruwa",
        -11.710712967250924
      ],
      [
        "▁On",
        -11.710817989874636
      ],
      [
        "▁musa",
        -11.711056802041533
      ],
      [
        "rewa",
        -11.717020659249542
      ],
      [
        "ɓ",
        -11.717102994420424
      ],
      [
        "uma,",
        -11.717652529377666
      ],
      [
        "-ka",
        -11.720403530983601
      ],
      [
        "io",
        -11.725194934990398
      ],
      [
        "aɗan",
        -11.725967514445392
      ],
      [
        "mita",
        -11.738067282572057
      ],
      [
        "nton",
        -11.73988498692889
      ],
      [
        "rwa",
        -11.753169551173025
      ],
      [
        "▁bana",
        -11.7605605192898
      ],
      [
        "▁kaɗ",
        -11.765003723889821
      ],
      [
        "eri",
        -11.796307122036035
      ],
      [
        "arka",
        -11.816474831423
      ],
      [
        "▁sansan",
        -11.820114822871723
      ],
      [
        "ilashi",
        -11.831425914750156
      ],
      [
        "cke",
        -11.837390483948035
      ],
      [
        "▁kak",
        -11.842097086287806
      ],
      [
        "win",
        -11.84292615387886
      ],
      [
        "aman",
        -11.842965425312984
      ],
      [
        "ali",
        -11.859922834438901
      ],
      [
        "du",
        -11.861728740334799
      ],
      [
        "mba",
        -11.86537173094274
      ],
      [
        "▁rai",
        -11.866658307998971
      ],
      [
        "12",
        -11.890932348474418
      ],
      [
        "▁kog",
        -11.900298442621052
      ],
      [
        "ayya",
        -11.90906968478073
      ],
      [
        "J",
        -11.911132222550531
      ],
      [
        "Y",
        -11.911232222550531
      ],
      [
        "“",
        -11.91133222255053
      ],
      [
        "¥",
        -11.91143222255053
      ],
      [
        "H",
        -11.91153222255053
      ],
      [
        "Ɓ",
        -11.91163222255053
      ],
      [
        "Z",
        -11.91173222255053
      ],
      [
        "‘",
        -11.911832222550531
      ],
      [
        "Ɗ",
        -11.911932222550531
      ],
      [
        "Ƙ",
        -11.91203222255053
      ],
      [
        "Q",
        -11.91213222255053
      ],
      [
        "-da",
        -11.91213222255053
      ]
    ],
    "byte_fallback": false
  }
}