{
  "version": "1.0",
  "truncation": null,
  "padding": null,
  "added_tokens": [
    {
      "id": 0,
      "content": "<pad>",
      "single_word": false,
      "lstrip": false,
      "rstrip": false,
      "normalized": false,
      "special": true
    },
    {
      "id": 1,
      "content": "<unk>",
      "single_word": false,
      "lstrip": false,
      "rstrip": false,
      "normalized": false,
      "special": true
    },
    {
      "id": 2,
      "content": "<cls>",
      "single_word": false,
      "lstrip": false,
      "rstrip": false,
      "normalized": false,
      "special": true
    }
  ],
  "normalizer": {
    "type": "Sequence",
    "normalizers": [
      {
        "type": "Nmt"
      },
      {
        "type": "NFKC"
      },
      {
        "type": "Replace",
        "pattern": {
          "Regex": " {2,}"
        },
        "content": " "
      }
    ]
  },
  "pre_tokenizer": {
    "type": "Metaspace",
    "replacement": "▁",
    "prepend_scheme": "always",
    "split": true
  },
  "post_processor": {
    "type": "TemplateProcessing",
    "single": [
      {
        "SpecialToken": {
          "id": "<cls>",
          "type_id": 0
        }
      },
      {
        "Sequence": {
          "id": "A",
          "type_id": 0
        }
      }
    ],
    "pair": [
      {
        "Sequence": {
          "id": "A",
          "type_id": 0
        }
      },
      {
        "Sequence": {
          "id": "B",
          "type_id": 1
        }
      }
    ],
    "special_tokens": {
      "<cls>": {
        "id": "<cls>",
        "ids": [
          2
        ],
        "tokens": [
          "<cls>"
        ]
      }
    }
  },
  "decoder": {
    "type": "Metaspace",
    "replacement": "▁",
    "prepend_scheme": "always",
    "split": true
  },
  "model": {
    "type": "Unigram",
    "unk_id": 1,
    "vocab": [
      [
        "<pad>",
        0.0
      ],
      [
        "<unk>",
        0.0
      ],
      [
        "<cls>",
        0.0
      ],
      [
        "▁",
        -3.0883561755623594
      ],
      [
        "▁na",
        -3.4064708839021796
      ],
      [
        ",",
        -3.642675766846608
      ],
      [
        ".",
        -3.6709466996529967
      ],
      [
        "▁nke",
        -4.0869146609595
      ],
      [
        "a",
        -4.1629310701714575
      ],
      [
        "▁ndị",
        -4.288977846452462
      ],
      [
        "e",
        -4.461384883919655
      ],
      [
        "▁ahụ",
        -4.557977139825065
      ],
      [
        "▁ma",
        -4.593619698690947
      ],
      [
        "▁bụ",
        -4.6611744361177525
      ],
      [
        "▁a",
        -4.690523771503236
      ],
      [
        "ụ",
        -4.812691983977305
      ],
      [
        "▁ka",
        -4.877321631191317
      ],
      [
        "i",
        -4.904130719357184
      ],
      [
        "▁ọ",
        -4.929912001611427
      ],
      [
        "▁ya",
        -4.937058018145031
      ],
      [
        "▁ihe",
        -4.949978426205336
      ],
      [
        "▁dị",
        -4.981162316693572
      ],
      [
        "▁n'",
        -5.003210571200238
      ],
      [
        "▁ha",
        -5.115546442491024
      ],
      [
        "ị",
        -5.199100415885753
      ],
      [
        "o",
        -5.251669749881699
      ],
      [
        "▁nwere",
        -5.26045629652494
      ],
      [
        "▁m",
        -5.2890554750164025
      ],
      [
        "▁ike",
        -5.30412798746551
      ],
      [
        "▁otu",
        -5.334651873305616
      ],
      [
        "▁n",
        -5.351351657435546
      ],
      [
        "▁ebe",
        -5.383763790743069
      ],
      [
        "u",
        -5.403322238058852
      ],
      [
        "▁mba",
        -5.458178967399134
      ],
      [
        "ọ",
        -5.501255059967214
      ],
      [
        "▁njem",
        -5.520587021957749
      ],
      [
        "▁onye",
        -5.55548985476639
      ],
      [
        "▁ị",
        -5.607431551738596
      ],
      [
        "n",
        -5.608599316104907
      ],
      [
        "m",
        -5.696815399164779
      ],
      [
        "▁mgbe",
        -5.777913884994837
      ],
      [
        "▁Ọ",
        -5.793147633965717
      ],
      [
        "s",
        -5.794680137342996
      ],
      [
        "▁o",
        -5.809758451133335
      ],
      [
        "▁n’",
        -5.842081252019686
      ],
      [
        "re",
        -5.853800417346774
      ],
      [
        "▁site",
        -5.873548749469003
      ],
      [
        "▁mmiri",
        -5.8737084188677535
      ],
      [
        "ara",
        -5.879857705782423
      ],
      [
        "▁mak",
        -5.902825373702612
      ],
      [
        "na",
        -5.929007933073494
      ],
      [
        "kwa",
        -5.940963376772066
      ],
      [
        "ra",
        -5.941286812090648
      ],
      [
        "▁A",
        -5.967706713104539
      ],
      [
        "ghị",
        -5.969147925514678
      ],
      [
        "▁e",
        -5.981591491867612
      ],
      [
        "▁anya",
        -6.021249320047229
      ],
      [
        "▁ga",
        -6.034140553152567
      ],
      [
        "ta",
        -6.089022864915751
      ],
      [
        "▁obodo",
        -6.095873648555825
      ],
      [
        "▁isi",
        -6.102548045915849
      ],
      [
        "▁mere",
        -6.12322591433277
      ],
      [
        "▁ụmụ",
        -6.124802024438808
      ],
      [
        "▁iche",
        -6.157253418188221
      ],
      [
        "▁oge",
        -6.166056694443265
      ],
      [
        "ka",
        -6.216628151604423
      ],
      [
        "▁ụgbọ",
        -6.223427289915814
      ],
      [
        "▁egwuregwu",
        -6.243778932197765
      ],
      [
        "▁nọ",
        -6.250931588227457
      ],
      [
        "t",
        -6.256612909076007
      ],
      [
        "aka",
        -6.257045839946956
      ],
      [
        "▁E",
        -6.261276140976352
      ],
      [
        "-",
        -6.26498144281689
      ],
      [
        "▁gị",
        -6.2844427388754855
      ],
      [
        "ere",
        -6.290164375158943
      ],
      [
        "▁N",
        -6.293797163596134
      ],
      [
        "▁oke",
        -6.29463441043027
      ],
      [
        "▁abụọ",
        -6.302051055027208
      ],
      [
        "▁ala",
        -6.3045691297916076
      ],
      [
        "▁iri",
        -6.31453163450247
      ],
      [
        "la",
        -6.327571032190354
      ],
      [
        "▁Ndị",
        -6.328476800263527
      ],
      [
        ")",
        -6.336855753680316
      ],
      [
        "▁ndi",
        -6.342418310071286
      ],
      [
        "ọrụ",
        -6.352046744809922
      ],
      [
        "ro",
        -6.3586918421123535
      ],
      [
        "▁ọzọ",
        -6.384212289731664
      ],
      [
        "▁si",
        -6.389965396869475
      ],
      [
        "▁agha",
        -6.3910850208487044
      ],
      [
        "y",
        -6.409373245132536
      ],
      [
        "▁ụfọdụ",
        -6.411070444760169
      ],
      [
        "▁afọ",
        -6.417604946766972
      ],
      [
        "▁i",
        -6.434951887091595
      ],
      [
        "k",
        -6.439849157332737
      ],
      [
        "▁mma",
        -6.443967553413279
      ],
      [
        "ime",
        -6.454475751181905
      ],
      [
        "▁ụzọ",
        -6.466792739778134
      ],
      [
        "▁M",
        -6.490822570560292
      ],
      [
        "▁O",
        -6.4917668055224995
      ],
      [
        "▁bu",
        -6.508869265704112
      ],
      [
        "r",
        -6.515063012763601
      ],
      [
        "▁mmadụ",
        -6.5351501467780935
      ],
      [
        "▁maọb",
        -6.536279652279436
      ],
      [
        "\"",
        -6.536728573718276
      ],
      [
        "▁ama",
        -6.547607465112503
      ],
      [
        "▁bụrụ",
        -6.559230306097268
      ],
      [
        "▁ụlọ",
        -6.561327791435311
      ],
      [
        "▁n’ime",
        -6.569092533184821
      ],
      [
        "▁ọrịa",
        -6.57088674340455
      ],
      [
        "tụtụ",
        -6.572770857876825
      ],
      [
        "ri",
        -6.573155036204613
      ],
      [
        "ha",
        -6.577949394507272
      ],
      [
        "▁di",
        -6.593970522806551
      ],
      [
        "▁aka",
        -6.5946558938180875
      ],
      [
        "d",
        -6.601856045108771
      ],
      [
        "▁ọchịchị",
        -6.606241935093694
      ],
      [
        "▁ruo",
        -6.61206414343278
      ],
      [
        "wa",
        -6.62217676672768
      ],
      [
        "▁niile",
        -6.637547183950173
      ],
      [
        "▁akwụkwọ",
        -6.647824168145238
      ],
      [
        "▁ugwu",
        -6.65260412435507
      ],
      [
        "▁ọtụt",
        -6.660493082004148
      ],
      [
        "▁ime",
        -6.667997330051943
      ],
      [
        "▁ọnụ",
        -6.678981650059264
      ],
      [
        "nyere",
        -6.7038218504468325
      ],
      [
        "ọrọ",
        -6.707919806999659
      ],
      [
        "▁na-a",
        -6.733201846830378
      ],
      [
        "▁iji",
        -6.742581611706013
      ],
      [
        "▁I",
        -6.744893728157717
      ],
      [
        "▁Onye",
        -6.753276659200156
      ],
      [
        "▁osimiri",
        -6.758409287140919
      ],
      [
        "▁obere",
        -6.761206733680572
      ],
      [
        "▁Na",
        -6.796044611270153
      ],
      [
        "▁kachas",
        -6.801046629140895
      ],
      [
        "gharị",
        -6.802789044706326
      ],
      [
        "▁egwu",
        -6.805066304925317
      ],
      [
        "▁S",
        -6.8051928386076055
      ],
      [
        "kwara",
        -6.810932926034617
      ],
      [
        "▁aga",
        -6.828587644236552
      ],
      [
        "were",
        -6.836305976673671
      ],
      [
        "dị",
        -6.842613314688312
      ],
      [
        "▁na-eme",
        -6.848965255520511
      ],
      [
        "ala",
        -6.850031394355295
      ],
      [
        "rị",
        -6.881246335175646
      ],
      [
        "▁elu",
        -6.884723939030081
      ],
      [
        "l",
        -6.889460866531328
      ],
      [
        "▁na-e",
        -6.895248406768882
      ],
      [
        "▁iwu",
        -6.900825209548405
      ],
      [
        "ma",
        -6.901664594409165
      ],
      [
        "▁Ma",
        -6.9059670998847755
      ],
      [
        "uru",
        -6.907670126385476
      ],
      [
        "ọdụ",
        -6.910695366550393
      ],
      [
        "▁onwe",
        -6.923785060657143
      ],
      [
        "soro",
        -6.927282412818922
      ],
      [
        "dịka",
        -6.928931211950683
      ],
      [
        "▁U",
        -6.939310348397786
      ],
      [
        "▁\"",
        -6.953847932157125
      ],
      [
        "▁eme",
        -6.9578156399989926
      ],
      [
        "▁ego",
        -6.959119188078001
      ],
      [
        "ru",
        -6.979430803767336
      ],
      [
        "bụ",
        -6.981044369588091
      ],
      [
        "▁omume",
        -6.986807089378626
      ],
      [
        "▁ya.",
        -6.993713495611679
      ],
      [
        "▁ahu",
        -6.996854696177648
      ],
      [
        "▁ngosi",
        -7.002802195144099
      ],
      [
        "▁(",
        -7.010874142228391
      ],
      [
        "iri",
        -7.015511213494708
      ],
      [
        "a,",
        -7.021521226151938
      ],
      [
        "▁Ka",
        -7.031204536128467
      ],
      [
        "g",
        -7.033176277938816
      ],
      [
        "▁karịa",
        -7.042134926425127
      ],
      [
        "anị",
        -7.045730225960873
      ],
      [
        "▁nwee",
        -7.048346995530192
      ],
      [
        "▁ndọrọ",
        -7.051320335560497
      ],
      [
        "nye",
        -7.0527178600323195
      ],
      [
        "▁gara",
        -7.055451170854397
      ],
      [
        "▁mme",
        -7.056563219359456
      ],
      [
        "▁mbụ",
        -7.056914409040941
      ],
      [
        "▁na-",
        -7.061928676207392
      ],
      [
        "ukwu",
        -7.070919141083769
      ],
      [
        "h",
        -7.072788677706277
      ],
      [
        "▁ibu",
        -7.082006985505374
      ],
      [
        "▁ọbụla",
        -7.089266604931757
      ],
      [
        "▁n'otu",
        -7.092276793815113
      ],
      [
        "b",
        -7.096205205084562
      ],
      [
        "▁k",
        -7.097928349815132
      ],
      [
        "▁kacha",
        -7.098747808644431
      ],
      [
        "▁kwuru",
        -7.104388378304951
      ],
      [
        "aghara",
        -7.106040037437495
      ],
      [
        "▁ji",
        -7.115482503979494
      ],
      [
        "▁gba",
        -7.145403515346163
      ],
      [
        "▁gburugburu",
        -7.147874353912954
      ],
      [
        "▁Nke",
        -7.1539692605441765
      ],
      [
        "ji",
        -7.164214502217926
      ],
      [
        "▁n'ih",
        -7.168021356959354
      ],
      [
        "▁nn",
        -7.176037305888601
      ],
      [
        "▁K",
        -7.18226639979148
      ],
      [
        "▁okwu",
        -7.185968352491492
      ],
      [
        "anya",
        -7.191044122129055
      ],
      [
        "▁mkpa",
        -7.195254899159957
      ],
      [
        "zi",
        -7.198267733700106
      ],
      [
        "ba",
        -7.204990936805254
      ],
      [
        ";",
        -7.208153011052433
      ],
      [
        "ike",
        -7.213062161856304
      ],
      [
        "▁B",
        -7.231027736014592
      ],
      [
        "fe",
        -7.236476812985764
      ],
      [
        "pụtara",
        -7.243781933720155
      ],
      [
        "▁na-aga",
        -7.257790083275769
      ],
      [
        "si",
        -7.2583200674664
      ],
      [
        "mpi",
        -7.2586624002284506
      ],
      [
        "▁kara",
        -7.267078936663718
      ],
      [
        "me",
        -7.269946042396482
      ],
      [
        "▁mmemme",
        -7.2768612625743545
      ],
      [
        "karị",
        -7.277059845874543
      ],
      [
        "bu",
        -7.281932970278438
      ],
      [
        "banye",
        -7.283189924782981
      ],
      [
        "▁ski",
        -7.290058805843628
      ],
      [
        "▁ụtụ",
        -7.2911025922402874
      ],
      [
        "▁ụgbọala",
        -7.292648628724995
      ],
      [
        "▁mp",
        -7.297830446637147
      ],
      [
        "▁N'",
        -7.309102254967221
      ],
      [
        "▁gbas",
        -7.313186205832837
      ],
      [
        "pụta",
        -7.313597403766576
      ],
      [
        "olog",
        -7.315933115141166
      ],
      [
        "▁enwe",
        -7.328801290530175
      ],
      [
        "le",
        -7.330885796883764
      ],
      [
        "▁mgba",
        -7.331708837870759
      ],
      [
        "elu",
        -7.334675828060366
      ],
      [
        "▁ọgwụ",
        -7.339274238494288
      ],
      [
        ":",
        -7.346248249147699
      ],
      [
        "òt",
        -7.346248251638861
      ],
      [
        "▁n'ụwa",
        -7.352023644586087
      ],
      [
        "▁G",
        -7.355248079591037
      ],
      [
        "c",
        -7.362053309300184
      ],
      [
        "▁ugbo",
        -7.36325649634335
      ],
      [
        "▁chọrọ",
        -7.3702452624946515
      ],
      [
        "ebe",
        -7.371322386878392
      ],
      [
        "▁anọ",
        -7.377077412382752
      ],
      [
        "▁ụbọchị",
        -7.379598974000816
      ],
      [
        "▁Ụ",
        -7.380753871845897
      ],
      [
        "▁bido",
        -7.382127163963585
      ],
      [
        "ing",
        -7.392454016409598
      ],
      [
        "▁n’og",
        -7.398777019084065
      ],
      [
        "▁ọsọ",
        -7.399099419978674
      ],
      [
        "▁atọ",
        -7.4016820834460155
      ],
      [
        "ghi",
        -7.402812985529846
      ],
      [
        "▁ịga",
        -7.40986118841019
      ],
      [
        "siri",
        -7.422374974108225
      ],
      [
        "ù",
        -7.423171326070818
      ],
      [
        "▁Ih",
        -7.42327045005079
      ],
      [
        "▁gọọment",
        -7.4246636849152114
      ],
      [
        "▁nsogbu",
        -7.424715671496238
      ],
      [
        "▁nleta",
        -7.426398148903337
      ],
      [
        "etiti",
        -7.430136823272509
      ],
      [
        "oge",
        -7.431281492156956
      ],
      [
        "▁enwere",
        -7.43258924788244
      ],
      [
        "ahụ",
        -7.4332912122997294
      ],
      [
        "▁ise",
        -7.4356520827848245
      ],
      [
        "▁na-enye",
        -7.451514833922786
      ],
      [
        "a.",
        -7.456778832426301
      ],
      [
        "di",
        -7.458448052387853
      ],
      [
        "▁ezi",
        -7.45845146191815
      ],
      [
        "▁n'aka",
        -7.461462053002599
      ],
      [
        "▁ndụ",
        -7.461692800872921
      ],
      [
        "▁ọma",
        -7.466853373788849
      ],
      [
        "ihe",
        -7.469675904650082
      ],
      [
        "▁Ha",
        -7.471973523147414
      ],
      [
        "zigbo",
        -7.481228306568806
      ],
      [
        "okpuru",
        -7.48476599146686
      ],
      [
        "ugbu",
        -7.490930161619051
      ],
      [
        "bọọlụ",
        -7.506528361756661
      ],
      [
        "▁n'afọ",
        -7.510483245075061
      ],
      [
        "▁Oke",
        -7.511154006856105
      ],
      [
        "gwuregwu",
        -7.514104649395033
      ],
      [
        "▁ije",
        -7.516374775072563
      ],
      [
        "upu",
        -7.517364654391329
      ],
      [
        "bi",
        -7.520341967298343
      ],
      [
        "▁ụwa",
        -7.522493426376222
      ],
      [
        "▁ụgwọ",
        -7.525297737096723
      ],
      [
        "jiri",
        -7.542012591170414
      ],
      [
        "▁ụdị",
        -7.548719011848764
      ],
      [
        "▁ga-a",
        -7.552571615892205
      ],
      [
        "zọ",
        -7.555342094729525
      ],
      [
        "▁akụk",
        -7.5571530832545015
      ],
      [
        "mume",
        -7.557949236691213
      ],
      [
        "al",
        -7.565042743157162
      ],
      [
        "obodo",
        -7.5651733082620085
      ],
      [
        "sọ",
        -7.572425604349568
      ],
      [
        "gwu",
        -7.575442688867231
      ],
      [
        "pu",
        -7.579579079202535
      ],
      [
        "▁gụ",
        -7.583848294435574
      ],
      [
        "ụzọ",
        -7.585051598067885
      ],
      [
        "ya",
        -7.589253819201623
      ],
      [
        "▁nye",
        -7.597608975691143
      ],
      [
        "▁Otu",
        -7.598537014517565
      ],
      [
        "gafe",
        -7.599076289388258
      ],
      [
        "▁nwoke",
        -7.602674010450219
      ],
      [
        "▁Amerịka",
        -7.608436480094648
      ],
      [
        "▁ruru",
        -7.61286443077031
      ],
      [
        "▁nje",
        -7.61908042357881
      ],
      [
        "▁ga-e",
        -7.631746508621165
      ],
      [
        "▁obi",
        -7.637676749523759
      ],
      [
        "ko",
        -7.643863164863369
      ],
      [
        "▁bụla",
        -7.650097864919343
      ],
      [
        "▁nyocha",
        -7.650343254471814
      ],
      [
        "do",
        -7.653069175077145
      ],
      [
        "▁US",
        -7.655125732402059
      ],
      [
        "C",
        -7.655488505108638
      ],
      [
        "gbanwe",
        -7.6564507836560844
      ],
      [
        "be",
        -7.67304979819763
      ],
      [
        "▁og",
        -7.674334790304817
      ],
      [
        "chara",
        -7.676499475846912
      ],
      [
        "oro",
        -7.681074912582286
      ],
      [
        "metụta",
        -7.683197639576321
      ],
      [
        "te",
        -7.685898455428362
      ],
      [
        "oto",
        -7.686352818450937
      ],
      [
        "ochi",
        -7.686482112320347
      ],
      [
        "▁nde",
        -7.686938991835223
      ],
      [
        "▁bi",
        -7.687028928116144
      ],
      [
        "chi",
        -7.688784542230417
      ],
      [
        "eze",
        -7.688990493379406
      ],
      [
        "▁Afrịka",
        -7.697413858219635
      ],
      [
        "p",
        -7.699458290001282
      ],
      [
        "▁mmanya",
        -7.69990966492454
      ],
      [
        "▁t",
        -7.7018674469103665
      ],
      [
        "tụ",
        -7.702504325955501
      ],
      [
        "▁Ụmụ",
        -7.708641887678217
      ],
      [
        "▁Japan",
        -7.708779598217445
      ],
      [
        "mita",
        -7.708824891553257
      ],
      [
        "▁Se",
        -7.710763379491338
      ],
      [
        "▁ịgba",
        -7.713857015007562
      ],
      [
        "▁ulo",
        -7.714326137100048
      ],
      [
        "▁anyanwụ",
        -7.714432081945667
      ],
      [
        "▁anaghị",
        -7.71547920356196
      ],
      [
        "de",
        -7.719112121700189
      ],
      [
        "▁agba",
        -7.720222960576457
      ],
      [
        "▁n'og",
        -7.722632050757074
      ],
      [
        "ụgbọelu",
        -7.72508714289326
      ],
      [
        "▁u",
        -7.731135638280042
      ],
      [
        "▁nri",
        -7.735402978198888
      ],
      [
        "gha",
        -7.737616874659226
      ],
      [
        "mmiri",
        -7.738251560513557
      ],
      [
        "cha",
        -7.738839685239082
      ],
      [
        "▁ukwu",
        -7.739540086764963
      ],
      [
        "ga",
        -7.741537557988021
      ],
      [
        "▁enye",
        -7.745561814329278
      ],
      [
        "▁C",
        -7.756162012780338
      ],
      [
        "▁La",
        -7.776121540374877
      ],
      [
        "▁buru",
        -7.77641641543191
      ],
      [
        "▁P",
        -7.777078715641204
      ],
      [
        "hi",
        -7.77872038020112
      ],
      [
        "▁ọn",
        -7.791596348727218
      ],
      [
        "z",
        -7.806368213679306
      ],
      [
        "▁n'i",
        -7.808148316370463
      ],
      [
        "▁steeti",
        -7.808531674244393
      ],
      [
        "▁asatọ",
        -7.808587203564881
      ],
      [
        "▁ohere",
        -7.809249544266546
      ],
      [
        "▁mgbochi",
        -7.809795617745246
      ],
      [
        "▁ọhụrụ",
        -7.810323304387461
      ],
      [
        "▁nwanyị",
        -7.8107447627666815
      ],
      [
        "▁inweta",
        -7.811346041926309
      ],
      [
        "tu",
        -7.811966684608475
      ],
      [
        "er",
        -7.813861568728017
      ],
      [
        "▁adị",
        -7.814730126093905
      ],
      [
        "▁dara",
        -7.815775570123618
      ],
      [
        "▁asaa",
        -7.816430131461752
      ],
      [
        "sa",
        -7.816877517748134
      ],
      [
        "bata",
        -7.817099165601913
      ],
      [
        "▁eji",
        -7.817137540852192
      ],
      [
        "▁abalị",
        -7.817878842858848
      ],
      [
        "da",
        -7.817917444854855
      ],
      [
        "▁n'akụk",
        -7.819494494687144
      ],
      [
        "▁agwaetiti",
        -7.821505579855506
      ],
      [
        "G",
        -7.827947274628083
      ],
      [
        "▁sị",
        -7.827974698147974
      ],
      [
        "sị",
        -7.834753824964306
      ],
      [
        "▁anyị",
        -7.8354700924479115
      ],
      [
        "▁Ta",
        -7.835806476878997
      ],
      [
        "▁Ụlọ",
        -7.835852224144258
      ],
      [
        "▁Eb",
        -7.838325976415264
      ],
      [
        "▁mee",
        -7.842295056481978
      ],
      [
        "ọsọ",
        -7.844266571686427
      ],
      [
        "▁njik",
        -7.853787525293427
      ],
      [
        "▁na-agba",
        -7.853976982237719
      ],
      [
        "▁iwe",
        -7.854178772538795
      ],
      [
        "rụ",
        -7.857941360346751
      ],
      [
        "▁W",
        -7.8626005664713166
      ],
      [
        "2",
        -7.868480769528419
      ],
      [
        "wara",
        -7.872736725515237
      ],
      [
        "▁mm",
        -7.878066681795879
      ],
      [
        "nọ",
        -7.878298434688968
      ],
      [
        "riri",
        -7.8795357641639665
      ],
      [
        "▁akụ",
        -7.885409495589986
      ],
      [
        "n'ụlọ",
        -7.888746391907953
      ],
      [
        "▁narị",
        -7.890333094328786
      ],
      [
        "on",
        -7.890535613674744
      ],
      [
        "pụ",
        -7.8909038115228265
      ],
      [
        "▁kwa",
        -7.892417325396579
      ],
      [
        "ụlọ",
        -7.895547857923221
      ],
      [
        "ụwa",
        -7.905277711348695
      ],
      [
        "ju",
        -7.908130784644415
      ],
      [
        "▁inwe",
        -7.908495865364445
      ],
      [
        "goro",
        -7.914031553840546
      ],
      [
        "S",
        -7.916127048798259
      ],
      [
        "puta",
        -7.929150569286192
      ],
      [
        "▁ngwụcha",
        -7.933528353462098
      ],
      [
        "▁ntuli",
        -7.933535936299142
      ],
      [
        "▁izizi",
        -7.933550862061145
      ],
      [
        "▁enyi",
        -7.934687098472385
      ],
      [
        "▁nchekwa",
        -7.937396135009932
      ],
      [
        "▁nkwado",
        -7.938621321808754
      ],
      [
        "▁mmeri",
        -7.940788545543482
      ],
      [
        "▁nile",
        -7.941635921117605
      ],
      [
        "▁gosiri",
        -7.942172051591025
      ],
      [
        "▁ọwụwa",
        -7.944886722224479
      ],
      [
        "kpebi",
        -7.945823570110717
      ],
      [
        "▁n'ihu",
        -7.949573486532645
      ],
      [
        "▁wee",
        -7.949864828087316
      ],
      [
        "▁Enwere",
        -7.950975361496358
      ],
      [
        "▁ngwa",
        -7.9532722053762015
      ],
      [
        "▁Mba",
        -7.953428495920432
      ],
      [
        "▁ọnwa",
        -7.954183816915592
      ],
      [
        "▁na-enwe",
        -7.957706545451501
      ],
      [
        "O",
        -7.95856147666615
      ],
      [
        "▁nso",
        -7.967035373249351
      ],
      [
        "▁omenala",
        -7.967039954389231
      ],
      [
        "go",
        -7.967205904237177
      ],
      [
        "ola",
        -7.9730889683331085
      ],
      [
        "shọn",
        -7.976550740952041
      ],
      [
        "▁ngaghar",
        -7.980926161844829
      ],
      [
        "kpesa",
        -7.982210703997586
      ],
      [
        "▁nkwa",
        -7.984380779823513
      ],
      [
        "▁igwe",
        -7.98725566694237
      ],
      [
        "ihu",
        -7.988306889671176
      ],
      [
        "okwu",
        -8.000446293827197
      ],
      [
        "▁bute",
        -8.007856412304411
      ],
      [
        "akụk",
        -8.01963281471826
      ],
      [
        "▁na-adị",
        -8.022061855878349
      ],
      [
        "gafee",
        -8.025572950285902
      ],
      [
        "▁na-ach",
        -8.029821996128863
      ],
      [
        "fu",
        -8.029907587849213
      ],
      [
        "D",
        -8.037721144425188
      ],
      [
        "▁g",
        -8.039040157222038
      ],
      [
        "▁F",
        -8.039433617826155
      ],
      [
        "ton",
        -8.039544829917713
      ],
      [
        "efu",
        -8.045489284721532
      ],
      [
        "an",
        -8.05302576272569
      ],
      [
        "ụmụ",
        -8.056349770717707
      ],
      [
        "w",
        -8.061848840956555
      ],
      [
        "▁Mgb",
        -8.062655724955738
      ],
      [
        "kwụ",
        -8.071190205352
      ],
      [
        "▁ịrị",
        -8.072909611280185
      ],
      [
        "tara",
        -8.073073683044933
      ],
      [
        "▁ikike",
        -8.075736345047138
      ],
      [
        "▁visa",
        -8.076396743232554
      ],
      [
        "▁ezumike",
        -8.076407205034446
      ],
      [
        "▁kpatara",
        -8.076692416905955
      ],
      [
        "▁Njem",
        -8.076967162322678
      ],
      [
        "▁Agbanyeghị",
        -8.07700636335793
      ],
      [
        "▁oyi",
        -8.077329161085595
      ],
      [
        "▁sọ",
        -8.077355615781357
      ],
      [
        "▁Tọk",
        -8.078470936220473
      ],
      [
        "▁N’",
        -8.078647738019724
      ],
      [
        "▁meriri",
        -8.078757660249684
      ],
      [
        "▁z",
        -8.07959307936735
      ],
      [
        "▁nhazi",
        -8.080705214266976
      ],
      [
        "ndia",
        -8.081774686217685
      ],
      [
        "▁nlere",
        -8.084056452927607
      ],
      [
        "▁ozo",
        -8.084418858146446
      ],
      [
        "▁na-ahụ",
        -8.084421975562448
      ],
      [
        "▁n’ebe",
        -8.08700775827328
      ],
      [
        "ịtị",
        -8.087735259925319
      ],
      [
        "▁ụra",
        -8.08795715092865
      ],
      [
        "▁n'obodo",
        -8.087999337725709
      ],
      [
        "▁ọgụ",
        -8.089456098264304
      ],
      [
        "egwuregwu",
        -8.089706352553584
      ],
      [
        "▁mfe",
        -8.089799342874308
      ],
      [
        "▁agbanwe",
        -8.093377181018994
      ],
      [
        "▁ndịda",
        -8.09421673750922
      ],
      [
        "▁nta",
        -8.094362889700486
      ],
      [
        "▁kemgb",
        -8.095948834622572
      ],
      [
        "▁H",
        -8.095997832842784
      ],
      [
        "▁ogige",
        -8.098654443671377
      ],
      [
        "se",
        -8.099218555630904
      ],
      [
        "▁nka",
        -8.101013663035028
      ],
      [
        "▁atụ",
        -8.10376247456907
      ],
      [
        "▁onu",
        -8.104384792677735
      ],
      [
        "ole",
        -8.104719142253938
      ],
      [
        "pụrụ",
        -8.11033633315136
      ],
      [
        "tụma",
        -8.110705979675492
      ],
      [
        "▁kp",
        -8.113402904509423
      ],
      [
        "sara",
        -8.113578696817223
      ],
      [
        "▁tu",
        -8.113673733165607
      ],
      [
        "▁aha",
        -8.118519845270912
      ],
      [
        "▁megide",
        -8.118919374327211
      ],
      [
        "▁ana",
        -8.119591473072314
      ],
      [
        "rọ",
        -8.121586001430877
      ],
      [
        "▁Je",
        -8.12210619187174
      ],
      [
        "ana",
        -8.12319480969543
      ],
      [
        "gide",
        -8.12326787247863
      ],
      [
        "▁ụka",
        -8.123609351612956
      ],
      [
        "ke",
        -8.12623460120782
      ],
      [
        "▁kwe",
        -8.12717195088543
      ],
      [
        "▁Ni",
        -8.134628442368614
      ],
      [
        "ch",
        -8.134993472075077
      ],
      [
        "▁mpe",
        -8.135152220629635
      ],
      [
        "▁3",
        -8.135337106962897
      ],
      [
        "▁isii",
        -8.136507615875669
      ],
      [
        "▁taa",
        -8.138042750718014
      ],
      [
        "▁Dị",
        -8.138076897203188
      ],
      [
        "et",
        -8.14002356997761
      ],
      [
        "▁n'eb",
        -8.14583749594845
      ],
      [
        "onwe",
        -8.148331824698786
      ],
      [
        "3",
        -8.14908367135968
      ],
      [
        "iti",
        -8.151353058538348
      ],
      [
        "▁n’ọ",
        -8.151807735537806
      ],
      [
        "nyocha",
        -8.152454276648498
      ],
      [
        "▁ke",
        -8.158077652217186
      ],
      [
        "kọ",
        -8.159726162148113
      ],
      [
        "A",
        -8.161442598010181
      ],
      [
        ",000",
        -8.16602198870771
      ],
      [
        "▁n'ọ",
        -8.169276685864855
      ],
      [
        "▁nk",
        -8.188240330147037
      ],
      [
        "ng",
        -8.190794957474594
      ],
      [
        "▁ol",
        -8.191002106989306
      ],
      [
        "▁ọkpụ",
        -8.196902808838978
      ],
      [
        "▁ede",
        -8.198349919696035
      ],
      [
        "▁R",
        -8.198494716301214
      ],
      [
        "nabata",
        -8.200280767630137
      ],
      [
        "in",
        -8.200587771929042
      ],
      [
        "▁n'ụ",
        -8.21627600629682
      ],
      [
        "▁nweta",
        -8.222106871092711
      ],
      [
        "is",
        -8.237895353369455
      ],
      [
        "▁okpo",
        -8.242235315847314
      ],
      [
        "▁onyonyo",
        -8.243048782507515
      ],
      [
        "▁Yurop",
        -8.243055552159486
      ],
      [
        "▁nwayọ",
        -8.243064092112462
      ],
      [
        "▁ngwaahịa",
        -8.243296870938831
      ],
      [
        "▁Briten",
        -8.24338361163168
      ],
      [
        "▁umu",
        -8.243431304559923
      ],
      [
        "▁Obodo",
        -8.243605077602695
      ],
      [
        "▁eziokwu",
        -8.24373794714888
      ],
      [
        "▁na-akpọ",
        -8.24389292081875
      ],
      [
        "▁osisi",
        -8.244377453297405
      ],
      [
        "▁okwute",
        -8.244532535710416
      ],
      [
        "▁na-akwado",
        -8.244555839182494
      ],
      [
        "▁akwa",
        -8.244991199001742
      ],
      [
        "▁esere",
        -8.245036980575662
      ],
      [
        "ti",
        -8.245707669678813
      ],
      [
        "▁oso",
        -8.24716025636355
      ],
      [
        "ilo",
        -8.248016373905017
      ],
      [
        "ọn",
        -8.249297585755459
      ],
      [
        "dere",
        -8.252975266536563
      ],
      [
        "▁oji",
        -8.255629062607294
      ],
      [
        "we",
        -8.257037495817366
      ],
      [
        "▁nkịtị",
        -8.257195420680915
      ],
      [
        "▁ga-eme",
        -8.257751157561957
      ],
      [
        "▁ikuku",
        -8.258022766941812
      ],
      [
        "▁meju",
        -8.259991578540028
      ],
      [
        "▁udi",
        -8.261104209140257
      ],
      [
        "ghara",
        -8.264036961077242
      ],
      [
        "▁ga-es",
        -8.265069668013755
      ],
      [
        "▁gi",
        -8.26545472833631
      ],
      [
        "ọkụ",
        -8.26737765518607
      ],
      [
        "uzo",
        -8.267570111254381
      ],
      [
        "so",
        -8.27051752666274
      ],
      [
        "mak",
        -8.271074554075243
      ],
      [
        "tik",
        -8.272464598944739
      ],
      [
        "oko",
        -8.27408832202687
      ],
      [
        "▁Ro",
        -8.279607868506869
      ],
      [
        "▁Ja",
        -8.281500696491879
      ],
      [
        "▁Le",
        -8.287501548179263
      ],
      [
        "▁b",
        -8.288461992227159
      ],
      [
        "▁Mana",
        -8.29547704608153
      ],
      [
        "▁Ala",
        -8.297874418939653
      ],
      [
        "gbakọ",
        -8.297952837131971
      ],
      [
        "rịa",
        -8.2986371647313
      ],
      [
        "kwuo",
        -8.299734033366502
      ],
      [
        "▁mmekọ",
        -8.309284610603614
      ],
      [
        "emba",
        -8.311076137994204
      ],
      [
        "M",
        -8.311738214365388
      ],
      [
        "▁nkwar",
        -8.313661770395939
      ],
      [
        "as",
        -8.313761844926963
      ],
      [
        "▁Ị",
        -8.316573491809859
      ],
      [
        "họrọ",
        -8.322300427479709
      ],
      [
        "ar",
        -8.323931151686033
      ],
      [
        "ers",
        -8.325672628763986
      ],
      [
        "ns",
        -8.329735692599911
      ],
      [
        "▁1",
        -8.330066156708288
      ],
      [
        "▁inye",
        -8.330383504874078
      ],
      [
        "man",
        -8.33382334178012
      ],
      [
        "ọhịa",
        -8.336031558536723
      ],
      [
        "afo",
        -8.33633599816175
      ],
      [
        "ọbụ",
        -8.336400159980185
      ],
      [
        "▁nwe",
        -8.33688739596116
      ],
      [
        "▁L",
        -8.337840999556088
      ],
      [
        "▁T",
        -8.33789705615173
      ],
      [
        "▁Sh",
        -8.339039696850877
      ],
      [
        "P",
        -8.339878652747952
      ],
      [
        "pe",
        -8.344951309664767
      ],
      [
        "▁n’onw",
        -8.345401983171163
      ],
      [
        "paghar",
        -8.346774298679923
      ],
      [
        "▁ọha",
        -8.347044421745856
      ],
      [
        "ey",
        -8.348010125623404
      ],
      [
        "land",
        -8.349122565746091
      ],
      [
        "à",
        -8.349169578380154
      ],
      [
        "dum",
        -8.351901648067171
      ],
      [
        "▁ahịa",
        -8.352913544622844
      ],
      [
        "ịn",
        -8.353842692453778
      ],
      [
        "gburu",
        -8.355112567528653
      ],
      [
        "▁nwa",
        -8.359854345970204
      ],
      [
        "bụrụ",
        -8.36460128405397
      ],
      [
        "ụbọchị",
        -8.365661206157036
      ],
      [
        "bere",
        -8.366100033169584
      ],
      [
        "▁Sa",
        -8.367081297428651
      ],
      [
        "ct",
        -8.373671120857848
      ],
      [
        "to",
        -8.378044100547505
      ],
      [
        "▁nna",
        -8.378057810503897
      ],
      [
        "chọpụta",
        -8.378476677303096
      ],
      [
        "▁ịkwụ",
        -8.38124957793351
      ],
      [
        "etu",
        -8.383140326461069
      ],
      [
        "ku",
        -8.391566762851493
      ],
      [
        "gosipụta",
        -8.395253762955953
      ],
      [
        "oche",
        -8.395823943130544
      ],
      [
        "▁s",
        -8.397181816525606
      ],
      [
        "nụ",
        -8.397761121795513
      ],
      [
        "▁mkp",
        -8.405237912343013
      ],
      [
        "buru",
        -8.416024670601935
      ],
      [
        "bịara",
        -8.419935762749903
      ],
      [
        "kọrọ",
        -8.423167334182331
      ],
      [
        "▁ok",
        -8.430798970787594
      ],
      [
        "ik",
        -8.432129508971373
      ],
      [
        "▁kwado",
        -8.437007752383565
      ],
      [
        "▁azu",
        -8.439919041843327
      ],
      [
        "fọdụ",
        -8.442966599954186
      ],
      [
        "”",
        -8.443048671000849
      ],
      [
        "è",
        -8.443048671000849
      ],
      [
        "▁Jula",
        -8.443226927903316
      ],
      [
        "▁Olimpik",
        -8.44331553823203
      ],
      [
        "▁echiche",
        -8.443559752579691
      ],
      [
        "▁tinyere",
        -8.444893969618544
      ],
      [
        "▁ịhụ",
        -8.44596952364741
      ],
      [
        "▁201",
        -8.446209615100244
      ],
      [
        "▁abuo",
        -8.446684819612829
      ],
      [
        "▁karịrị",
        -8.447489551815565
      ],
      [
        "▁Sawụt",
        -8.448349734433945
      ],
      [
        "▁Isi",
        -8.449563484483194
      ],
      [
        "▁emepe",
        -8.44964934106289
      ],
      [
        "▁onyeisi",
        -8.449789438054944
      ],
      [
        "nite",
        -8.450252510871204
      ],
      [
        "j",
        -8.451177970325972
      ],
      [
        "▁iz",
        -8.451756884844668
      ],
      [
        "▁enweta",
        -8.451787160695561
      ],
      [
        "▁ofufe",
        -8.452376986959964
      ],
      [
        "▁ga-anọ",
        -8.454603845475987
      ],
      [
        "▁as",
        -8.458354650918546
      ],
      [
        "▁etiti",
        -8.458833150641652
      ],
      [
        "▁ozugbo",
        -8.459122102218764
      ],
      [
        "▁Taị",
        -8.461064980339923
      ],
      [
        "▁nkiri",
        -8.461638018823766
      ],
      [
        "▁nchịk",
        -8.461870517521692
      ],
      [
        "▁Gọ",
        -8.46398295321146
      ],
      [
        "▁nnọchiteanya",
        -8.464263757482122
      ],
      [
        "▁Ụwa",
        -8.46576313925523
      ],
      [
        "tụrụ",
        -8.465913276684155
      ],
      [
        "ler",
        -8.466612176208493
      ],
      [
        "▁akụkọ",
        -8.466702143799036
      ],
      [
        "▁ọkọ",
        -8.469469945751081
      ],
      [
        "▁amaara",
        -8.470140485470555
      ],
      [
        "▁J",
        -8.4760825077897
      ],
      [
        "▁na-egosi",
        -8.478648680521404
      ],
      [
        "▁San",
        -8.478704525332331
      ],
      [
        "▁Og",
        -8.48021344449312
      ],
      [
        "▁Ez",
        -8.480890526494576
      ],
      [
        "▁abụ",
        -8.48148498195876
      ],
      [
        "ịrị",
        -8.483149451581491
      ],
      [
        "7",
        -8.486597001329642
      ],
      [
        "pt",
        -8.488905705813151
      ],
      [
        "kọta",
        -8.490134392781135
      ],
      [
        "bute",
        -8.493061585210434
      ],
      [
        "kagbu",
        -8.493987657898732
      ],
      [
        "wan",
        -8.494626962737339
      ],
      [
        "▁ikpe",
        -8.49697359822927
      ],
      [
        "simiri",
        -8.49737457698214
      ],
      [
        "▁nti",
        -8.500704151037898
      ],
      [
        "▁agagh",
        -8.501579014135956
      ],
      [
        "▁putara",
        -8.503942609361275
      ],
      [
        "▁Ol",
        -8.507010189597018
      ],
      [
        "▁nle",
        -8.507995836816729
      ],
      [
        "▁Bu",
        -8.510560058454018
      ],
      [
        "chaa",
        -8.513240620417173
      ],
      [
        "lee",
        -8.51834787189081
      ],
      [
        "▁Al",
        -8.51880851298171
      ],
      [
        "▁in",
        -8.520647758274823
      ],
      [
        "▁gb",
        -8.52224219264139
      ],
      [
        "▁makwa",
        -8.525930409142395
      ],
      [
        "zute",
        -8.528537922641402
      ],
      [
        "▁Ste",
        -8.529030410282372
      ],
      [
        "▁anụ",
        -8.529719214919517
      ],
      [
        "▁oghe",
        -8.530614687209702
      ],
      [
        "nwe",
        -8.532017288469985
      ],
      [
        "▁ome",
        -8.532300007039535
      ],
      [
        "▁esi",
        -8.535452202182768
      ],
      [
        "▁nj",
        -8.536121688271173
      ],
      [
        "▁banye",
        -8.537105214999642
      ],
      [
        "▁5",
        -8.53932297581539
      ],
      [
        "▁n'e",
        -8.539770922328522
      ],
      [
        "▁Ra",
        -8.54153220089146
      ],
      [
        "▁amachi",
        -8.542308252527608
      ],
      [
        "9",
        -8.546674474105979
      ],
      [
        "▁Ọl",
        -8.549656005287606
      ],
      [
        "▁ezube",
        -8.555500886699656
      ],
      [
        "▁Pr",
        -8.557251401447223
      ],
      [
        "nweta",
        -8.559965196237506
      ],
      [
        "▁n'u",
        -8.561680002354821
      ],
      [
        "▁mbu",
        -8.570694229953954
      ],
      [
        "▁Ụgbọ",
        -8.577261857678536
      ],
      [
        "▁n’o",
        -8.578549215356832
      ],
      [
        "ahịa",
        -8.578949800608957
      ],
      [
        "▁nwekwa",
        -8.581262552748896
      ],
      [
        "ụrụ",
        -8.587326440096025
      ],
      [
        "igwe",
        -8.588023363961463
      ],
      [
        "▁Pa",
        -8.591536223245974
      ],
      [
        "▁Lo",
        -8.59157101726345
      ],
      [
        "ter",
        -8.59237155249295
      ],
      [
        "▁19",
        -8.601320422132005
      ],
      [
        "gbu",
        -8.605411990993051
      ],
      [
        "▁ọmụm",
        -8.610450802910721
      ],
      [
        "kwuputa",
        -8.610761904243365
      ],
      [
        "50",
        -8.616151557090507
      ],
      [
        "▁mmem",
        -8.620301598475926
      ],
      [
        "1.",
        -8.620534058372847
      ],
      [
        "tinye",
        -8.621430602968678
      ],
      [
        "▁so",
        -8.625160741447857
      ],
      [
        "va",
        -8.626258450912019
      ],
      [
        "lo",
        -8.632806166286938
      ],
      [
        "▁uru",
        -8.637741391589902
      ],
      [
        "agbanyeghị",
        -8.641740720045254
      ],
      [
        "kpụrụ",
        -8.642080415304088
      ],
      [
        "chọrọ",
        -8.64263946989828
      ],
      [
        "'",
        -8.644081134940324
      ],
      [
        "uo",
        -8.64526532984378
      ],
      [
        "ugbo",
        -8.645299489174555
      ],
      [
        "hụ",
        -8.64556016811186
      ],
      [
        "hu",
        -8.64696473258052
      ],
      [
        "v",
        -8.647904689145369
      ],
      [
        "ne",
        -8.648216284235941
      ],
      [
        "mefu",
        -8.648636636543241
      ],
      [
        "kpọ",
        -8.64870089175221
      ],
      [
        "▁f",
        -8.650685010677611
      ],
      [
        "▁ezu",
        -8.653209587304943
      ],
      [
        "kọrịta",
        -8.653406157802273
      ],
      [
        "ki",
        -8.653821186080242
      ],
      [
        "kwu",
        -8.657142658582995
      ],
      [
        "kwado",
        -8.65754264879433
      ],
      [
        "▁200",
        -8.66200501179216
      ],
      [
        "lu",
        -8.663351849690372
      ],
      [
        "▁akp",
        -8.663550171903255
      ],
      [
        "▁nabata",
        -8.666704999174781
      ],
      [
        "N",
        -8.667369715252889
      ],
      [
        "laghachi",
        -8.671413675677654
      ],
      [
        "sụ",
        -8.673081798644272
      ],
      [
        "kwụsị",
        -8.673549816137566
      ],
      [
        "gwaetiti",
        -8.675515148503507
      ],
      [
        "▁mb",
        -8.675694075567858
      ],
      [
        "▁ahụm",
        -8.676376832969254
      ],
      [
        "▁Ke",
        -8.684357480681241
      ],
      [
        "ogug",
        -8.684880881233656
      ],
      [
        "kọwa",
        -8.687603868420757
      ],
      [
        "ịsọ",
        -8.687874474852082
      ],
      [
        "▁Frans",
        -8.689733978868393
      ],
      [
        "ru-ahu",
        -8.690703524341702
      ],
      [
        "fufe",
        -8.691018686816562
      ],
      [
        "ọdịnala",
        -8.692839259195143
      ],
      [
        "▁akpọ",
        -8.692848658268302
      ],
      [
        "▁họteelụ",
        -8.693048670989521
      ],
      [
        "▁ịnyịnya",
        -8.693049597635168
      ],
      [
        "▁John",
        -8.69305509270108
      ],
      [
        "▁sistem",
        -8.693072814550776
      ],
      [
        "▁mberede",
        -8.693208218786829
      ],
      [
        "▁Brazil",
        -8.693386738346764
      ],
      [
        "▁sno",
        -8.693513669192148
      ],
      [
        "wapụ",
        -8.693527674617007
      ],
      [
        "▁merụrụ",
        -8.69371623802223
      ],
      [
        "▁mmụta",
        -8.693856101549095
      ],
      [
        "▁na-abịa",
        -8.693990129684376
      ],
      [
        "▁tiket",
        -8.694002796717122
      ],
      [
        "▁Iran",
        -8.694054398448493
      ],
      [
        "▁itoolu",
        -8.694077698906321
      ],
      [
        "▁n'enwegh",
        -8.694504314142147
      ],
      [
        "▁pụọ",
        -8.694612959702802
      ],
      [
        "▁UN",
        -8.69464478278283
      ],
      [
        "▁gafere",
        -8.69504621576518
      ],
      [
        "▁ụbụrụ",
        -8.695074325711577
      ],
      [
        "▁nlegharị",
        -8.696049552882574
      ],
      [
        "wunye",
        -8.697636922617917
      ],
      [
        "▁abịa",
        -8.69795448467961
      ],
      [
        "▁na-atụ",
        -8.698632436564697
      ],
      [
        "▁n'agbanyeghị",
        -8.699075948115823
      ],
      [
        "▁nkwekọrịta",
        -8.699688915992871
      ],
      [
        "▁n’isi",
        -8.700005783689168
      ],
      [
        "▁n'ọnụ",
        -8.70029774177462
      ],
      [
        "▁mkpụrụ",
        -8.700414557291788
      ],
      [
        "▁n’ụlọ",
        -8.700801865633435
      ],
      [
        "▁n’otu",
        -8.701443681517484
      ],
      [
        "4,",
        -8.70154661536169
      ],
      [
        "▁ọdọ",
        -8.701664086372096
      ],
      [
        "▁mgbede",
        -8.70184419217866
      ],
      [
        "▁ụgbọmmiri",
        -8.702198873709042
      ],
      [
        "▁mbido",
        -8.702686468286972
      ],
      [
        "us",
        -8.702938947877797
      ],
      [
        "▁Sup",
        -8.7031884737648
      ],
      [
        "▁na-esi",
        -8.703567204093652
      ],
      [
        "▁nzuk",
        -8.70716110957466
      ],
      [
        "▁ọkacha",
        -8.707554485868053
      ],
      [
        "▁Mart",
        -8.708725523905132
      ],
      [
        "▁Di",
        -8.709241135366298
      ],
      [
        "▁ozi",
        -8.709614645929124
      ],
      [
        "▁Runn",
        -8.709745633739434
      ],
      [
        "gụgụ",
        -8.710414227308645
      ],
      [
        "egbu",
        -8.710607400822116
      ],
      [
        "▁igba",
        -8.711703106739122
      ],
      [
        "▁ikpeazụ",
        -8.711742182881553
      ],
      [
        "▁sayens",
        -8.713103248811434
      ],
      [
        "▁ile",
        -8.713720614923531
      ],
      [
        "kpata",
        -8.714278768722695
      ],
      [
        "▁eje",
        -8.71458926676224
      ],
      [
        "▁gasị",
        -8.714961098480098
      ],
      [
        "▁anụmanụ",
        -8.716341290806087
      ],
      [
        "wu",
        -8.716459641252737
      ],
      [
        "▁obula",
        -8.717079902437192
      ],
      [
        "ekọrịta",
        -8.719196052930608
      ],
      [
        "▁na-anya",
        -8.72103118619791
      ],
      [
        "▁To",
        -8.721488548576659
      ],
      [
        "▁gool",
        -8.723406630201172
      ],
      [
        "T",
        -8.723776992157358
      ],
      [
        "isi",
        -8.725075450534538
      ],
      [
        "▁n'anya",
        -8.727669635242362
      ],
      [
        "▁efe",
        -8.733491493817375
      ],
      [
        "▁Air",
        -8.733659977228022
      ],
      [
        "▁akwukwo",
        -8.73844174042495
      ],
      [
        "▁dab",
        -8.738911356135606
      ],
      [
        "▁malite",
        -8.740742460341593
      ],
      [
        "▁nnọ",
        -8.74086038543179
      ],
      [
        "▁How",
        -8.741972657644517
      ],
      [
        "▁ogwu",
        -8.743776200414093
      ],
      [
        "4",
        -8.744889856773433
      ],
      [
        "▁N'agbanyegh",
        -8.745702104325199
      ],
      [
        "▁ịnọ",
        -8.746966265553786
      ],
      [
        "▁azụ",
        -8.747096025263215
      ],
      [
        "es",
        -8.747511394572202
      ],
      [
        "▁De",
        -8.749046175770166
      ],
      [
        "ghọta",
        -8.752217719175484
      ],
      [
        "ur",
        -8.75337249357146
      ],
      [
        "lia",
        -8.753397876146524
      ],
      [
        "ata",
        -8.754848153336045
      ],
      [
        "eti",
        -8.75561110228465
      ],
      [
        "▁na-arị",
        -8.757667551253743
      ],
      [
        "entị",
        -8.757905489137046
      ],
      [
        "▁Wash",
        -8.759550638110294
      ],
      [
        "▁mbara",
        -8.759579230987757
      ],
      [
        "uwa",
        -8.760385187250693
      ],
      [
        "ina",
        -8.76264962047021
      ],
      [
        "cke",
        -8.763265170607125
      ],
      [
        "▁enwegh",
        -8.76499351585781
      ],
      [
        "▁isonye",
        -8.766511894586417
      ],
      [
        "achị",
        -8.767673234879076
      ],
      [
        "▁uche",
        -8.767676743943024
      ],
      [
        "▁akwado",
        -8.769987004546367
      ],
      [
        "ugwu",
        -8.772491314833214
      ],
      [
        "chị",
        -8.773471125866692
      ],
      [
        "▁Che",
        -8.773831052025356
      ],
      [
        "nwa",
        -8.77414877817021
      ],
      [
        "lele",
        -8.775381737769875
      ],
      [
        "lob",
        -8.776583067185294
      ],
      [
        "apụ",
        -8.778200697814519
      ],
      [
        "ks",
        -8.778387826934349
      ],
      [
        "ile",
        -8.778467022347732
      ],
      [
        "iwu",
        -8.778675678112192
      ],
      [
        "64",
        -8.778962978067947
      ],
      [
        "▁Sant",
        -8.779517914483204
      ],
      [
        "▁is",
        -8.77958323438177
      ],
      [
        "ghachi",
        -8.780501461865029
      ],
      [
        "▁wi",
        -8.780509372946067
      ],
      [
        "▁gbaa",
        -8.782925960964072
      ],
      [
        "sịrị",
        -8.784985229556817
      ],
      [
        "tutu",
        -8.785097123062448
      ],
      [
        "iche",
        -8.786054000108745
      ],
      [
        "s,",
        -8.788877464262221
      ],
      [
        "▁4",
        -8.790464456029325
      ],
      [
        "mgbe",
        -8.791029180496462
      ],
      [
        "▁kwu",
        -8.793034567212782
      ],
      [
        "aghị",
        -8.793086956554845
      ],
      [
        "ọla",
        -8.793554466531525
      ],
      [
        "▁tinye",
        -8.800664763243606
      ],
      [
        "f",
        -8.800927138012788
      ],
      [
        "▁gosi",
        -8.801407269912758
      ],
      [
        "▁ọmụma",
        -8.804930224938381
      ],
      [
        "gbalị",
        -8.808615740609692
      ],
      [
        "▁Tu",
        -8.810413974048616
      ],
      [
        "ọkwa",
        -8.814603939370715
      ],
      [
        "ong",
        -8.816920539021783
      ],
      [
        "▁na-eche",
        -8.816958864942762
      ],
      [
        "bara",
        -8.818179946604644
      ],
      [
        "son",
        -8.818764520532225
      ],
      [
        "▁Ba",
        -8.82187399425513
      ],
      [
        "▁nche",
        -8.822963538364535
      ],
      [
        "bido",
        -8.823120210484879
      ],
      [
        "▁kwụsị",
        -8.828653272708221
      ],
      [
        "▁agaghị",
        -8.829068503928436
      ],
      [
        "▁ịda",
        -8.830584314289744
      ],
      [
        "▁alụ",
        -8.831711416183538
      ],
      [
        "▁n'ị",
        -8.83337699945727
      ],
      [
        "▁dum",
        -8.834168503015423
      ],
      [
        "nwere",
        -8.835855897839277
      ],
      [
        "chne",
        -8.83604350177263
      ],
      [
        "ari",
        -8.840669824575988
      ],
      [
        "li",
        -8.84198813138664
      ],
      [
        "gala",
        -8.842566240122272
      ],
      [
        "▁mmad",
        -8.84362056292931
      ],
      [
        "▁kamp",
        -8.844203203879134
      ],
      [
        "▁Kl",
        -8.846560868417619
      ],
      [
        "I",
        -8.846606883579582
      ],
      [
        "▁j",
        -8.846996285791791
      ],
      [
        "che",
        -8.849614888965508
      ],
      [
        "lite",
        -8.850576986736122
      ],
      [
        "E",
        -8.852235052042898
      ],
      [
        "otu",
        -8.855655054686496
      ],
      [
        "rụrụ",
        -8.864283817798619
      ],
      [
        "▁nne",
        -8.865704528365377
      ],
      [
        "ol",
        -8.86859512249898
      ],
      [
        "onye",
        -8.875695340260373
      ],
      [
        "ach",
        -8.877554303520647
      ],
      [
        "wụ",
        -8.878970107413746
      ],
      [
        "merie",
        -8.88684475478393
      ],
      [
        "▁ọbụ",
        -8.887275777649293
      ],
      [
        "tro",
        -8.887441808468107
      ],
      [
        "▁d",
        -8.889933972100517
      ],
      [
        "▁kwuputa",
        -8.890108881244549
      ],
      [
        "ede",
        -8.890317546103704
      ],
      [
        "ation",
        -8.891354676091181
      ],
      [
        "▁na-ama",
        -8.892967673848199
      ],
      [
        "1",
        -8.895366539000134
      ],
      [
        "mi",
        -8.900762454918523
      ],
      [
        "ndọrọ",
        -8.90503855245408
      ],
      [
        "la,",
        -8.907577046856648
      ],
      [
        "n̄ụ",
        -8.907852549318307
      ],
      [
        "hazi",
        -8.907978873489586
      ],
      [
        "gwụ",
        -8.90842912352447
      ],
      [
        "hịa",
        -8.91062969662991
      ],
      [
        "▁onwegh",
        -8.910971289630771
      ],
      [
        "ọta",
        -8.912567923445012
      ],
      [
        "(",
        -8.912637832065101
      ],
      [
        "utu",
        -8.913505915151918
      ],
      [
        "▁Ed",
        -8.921389873376114
      ],
      [
        "▁de",
        -8.921957991584168
      ],
      [
        "opu",
        -8.922069260400278
      ],
      [
        "▁nwet",
        -8.925351951942572
      ],
      [
        "ọdịdị",
        -8.930625285948523
      ],
      [
        "omenala",
        -8.934533578994701
      ],
      [
        "▁agụ",
        -8.934825853072175
      ],
      [
        "▁izu",
        -8.935329878938862
      ],
      [
        "nd",
        -8.935351737943638
      ],
      [
        "▁aj",
        -8.936356616305435
      ],
      [
        "▁n'ọgba",
        -8.936414340681182
      ],
      [
        "▁Bi",
        -8.937383477927213
      ],
      [
        "V",
        -8.939053654984603
      ],
      [
        "st",
        -8.940873878105034
      ],
      [
        "su",
        -8.941998472561266
      ],
      [
        "uche",
        -8.942735230387743
      ],
      [
        "R",
        -8.944438180795814
      ],
      [
        "▁eke",
        -8.94457404890056
      ],
      [
        "est",
        -8.944922194092477
      ],
      [
        "▁arụ",
        -8.945606737742068
      ],
      [
        "▁ch",
        -8.947678806438235
      ],
      [
        "nke",
        -8.950551335039789
      ],
      [
        "ikpe",
        -8.951939374561926
      ],
      [
        "▁ife",
        -8.95332714743718
      ],
      [
        "▁ịb",
        -8.956406930587356
      ],
      [
        "kwụkwọ",
        -8.956838108330471
      ],
      [
        "▁ho",
        -8.961149653844442
      ],
      [
        "ush",
        -8.96141072533314
      ],
      [
        "▁ga-",
        -8.964781767465725
      ],
      [
        "akwụkwọ",
        -8.966066136866084
      ],
      [
        "▁maịl",
        -8.969054086873802
      ],
      [
        "▁Li",
        -8.972753802404187
      ],
      [
        "ọm",
        -8.97546818441565
      ],
      [
        "stra",
        -8.97840870941838
      ],
      [
        "▁Sk",
        -8.97866481184797
      ],
      [
        "▁akpụ",
        -8.98086762050323
      ],
      [
        "ndo",
        -8.980927324683433
      ],
      [
        "▁-",
        -8.98124792580106
      ],
      [
        "awa",
        -8.981420904638961
      ],
      [
        "gh",
        -8.98375317657659
      ],
      [
        "ck",
        -8.987824914206085
      ],
      [
        "▁akwador",
        -8.994130950819606
      ],
      [
        "▁ịchọ",
        -8.996237760790946
      ],
      [
        "...",
        -9.003807784047769
      ],
      [
        "▁Fe",
        -9.00396465812333
      ],
      [
        "▁metụta",
        -9.004410014415722
      ],
      [
        "ngwu",
        -9.013828219227666
      ],
      [
        "▁ọgba",
        -9.0147863236559
      ],
      [
        "kwuru",
        -9.015996464469579
      ],
      [
        "hia",
        -9.016083198971861
      ],
      [
        "▁ikwu",
        -9.017138816550233
      ],
      [
        "gụnye",
        -9.02054674508385
      ],
      [
        "megide",
        -9.020726837879401
      ],
      [
        "▁mgb",
        -9.021241153646788
      ],
      [
        "▁Go",
        -9.022115617093094
      ],
      [
        "maara",
        -9.022280167903071
      ],
      [
        "fụ",
        -9.023499263920137
      ],
      [
        "▁nnọchi",
        -9.026023215928818
      ],
      [
        "é",
        -9.026382004294224
      ],
      [
        "ì",
        -9.026382004294224
      ],
      [
        "—",
        -9.026382004334181
      ],
      [
        "$",
        -9.026382004334181
      ],
      [
        "?",
        -9.026382004334181
      ],
      [
        "▁Pakịstan",
        -9.026382004943677
      ],
      [
        "▁ntọrọmọchị",
        -9.026382005177432
      ],
      [
        "▁Israel",
        -9.026382017627508
      ],
      [
        "▁kọntinent",
        -9.026382066843242
      ],
      [
        "▁Dizni",
        -9.026382093981923
      ],
      [
        "▁¥",
        -9.026382270445195
      ],
      [
        "▁Q",
        -9.026382270445197
      ],
      [
        "▁ọn̄ụn̄ụ",
        -9.02638258232473
      ],
      [
        "▁ntụrụndụ",
        -9.0263838090585
      ],
      [
        "▁States",
        -9.026385876997791
      ],
      [
        "Ọstrelia",
        -9.026386443412708
      ],
      [
        "▁fiim",
        -9.026387841573731
      ],
      [
        "▁197",
        -9.02638950709747
      ],
      [
        "▁bhajan",
        -9.026390951468507
      ],
      [
        "▁ọpụpụ",
        -9.026400019740672
      ],
      [
        "▁bekee",
        -9.026400750115503
      ],
      [
        "▁ebumn",
        -9.026400923628781
      ],
      [
        "▁pasent",
        -9.026409926766647
      ],
      [
        "▁azụmahịa",
        -9.026418720074089
      ],
      [
        "▁ụlọikwu",
        -9.026419009327524
      ],
      [
        "▁kpuchiri",
        -9.026455410816094
      ],
      [
        "▁Ziland",
        -9.026523459160401
      ],
      [
        "▁larịị",
        -9.026532355967733
      ],
      [
        "zav",
        -9.026558038582792
      ],
      [
        "▁24",
        -9.026567993200667
      ],
      [
        "▁olileanya",
        -9.02662649311168
      ],
      [
        "▁ụnyaahụ",
        -9.026665405691123
      ],
      [
        "ekwentị",
        -9.0266818167167
      ],
      [
        "▁mepere",
        -9.026726236120833
      ],
      [
        "▁Atlant",
        -9.026749618733376
      ],
      [
        "▁Kanada",
        -9.026789609836996
      ],
      [
        "▁esonye",
        -9.026923772501686
      ],
      [
        "elly",
        -9.02693728863189
      ],
      [
        "▁Itali",
        -9.027028753107448
      ],
      [
        "▁omeiwu",
        -9.027238418634097
      ],
      [
        "▁Koria",
        -9.027292812493304
      ],
      [
        "▁ọfụma",
        -9.027485001431335
      ],
      [
        "▁ulo-o",
        -9.02748939566308
      ],
      [
        "fọdụrụ",
        -9.027592537670417
      ],
      [
        "▁opekata",
        -9.027739396164067
      ],
      [
        "▁ele",
        -9.02777213626375
      ],
      [
        "▁Jọn",
        -9.027877884845582
      ],
      [
        "▁ga-ewe",
        -9.028072909684886
      ],
      [
        "▁(Nu",
        -9.02818054105536
      ],
      [
        "▁ọnwụ",
        -9.028478705297687
      ],
      [
        "chapụ",
        -9.028509952160912
      ],
      [
        "▁iyi",
        -9.0285253909191
      ],
      [
        "▁Del",
        -9.028882829617185
      ],
      [
        "▁Tupu",
        -9.028988388399734
      ],
      [
        "▁ahaziri",
        -9.02919825463444
      ],
      [
        "laks",
        -9.029442794358719
      ],
      [
        "▁Rọs",
        -9.029557197353903
      ],
      [
        "▁Za",
        -9.02985144040128
      ],
      [
        "▁Brit",
        -9.029962790136066
      ],
      [
        "▁Dev",
        -9.0303144562617
      ],
      [
        "▁Par",
        -9.03041193946499
      ],
      [
        "lọt",
        -9.030531377110414
      ],
      [
        "▁itinye",
        -9.030754231329624
      ],
      [
        "▁Okwu",
        -9.030856297355212
      ],
      [
        "▁na-agbanwe",
        -9.031094607923134
      ],
      [
        "▁gasịrị",
        -9.031114170071088
      ],
      [
        "jiji",
        -9.031140624857494
      ],
      [
        "▁ga-enye",
        -9.031451887485979
      ],
      [
        "▁n’ugwu",
        -9.03203157990135
      ],
      [
        "▁chee",
        -9.032054774983239
      ],
      [
        "▁2017",
        -9.032582661227048
      ],
      [
        "▁mkpuchi",
        -9.032811267608297
      ],
      [
        "▁Elu",
        -9.032928184975788
      ],
      [
        "▁n'ezie",
        -9.032998967826986
      ],
      [
        "▁Grand",
        -9.03377585151668
      ],
      [
        "inista",
        -9.03409223875894
      ],
      [
        "▁yiri",
        -9.034193158168291
      ],
      [
        "▁Jamanị",
        -9.0344496864455
      ],
      [
        "ain",
        -9.034599609325673
      ],
      [
        "▁ga-eji",
        -9.035258548624235
      ],
      [
        "um",
        -9.035451732969028
      ],
      [
        "▁na-anọ",
        -9.035463026508666
      ],
      [
        "▁n’ihu",
        -9.035588770874845
      ],
      [
        "▁rụ",
        -9.035917013371396
      ],
      [
        "▁kw",
        -9.036204825202791
      ],
      [
        "-mmiri",
        -9.037250381315447
      ],
      [
        "▁nd",
        -9.03726552423806
      ],
      [
        "▁ịzụ",
        -9.037307093706954
      ],
      [
        "▁Rom",
        -9.037455651374753
      ],
      [
        "▁Sịn",
        -9.03757472673987
      ],
      [
        "▁ony",
        -9.038537401887476
      ],
      [
        "▁na-arụ",
        -9.038609820884714
      ],
      [
        "hụrụ",
        -9.03932790809943
      ],
      [
        "▁ozigbo",
        -9.039943870635641
      ],
      [
        "kwekọrịta",
        -9.040552032773908
      ],
      [
        "▁id",
        -9.040897523930933
      ],
      [
        "ines",
        -9.041660441598593
      ],
      [
        "▁kwụrụ",
        -9.04172270652049
      ],
      [
        "▁kwesị",
        -9.04181381841525
      ],
      [
        "port",
        -9.042090622079806
      ],
      [
        "▁p",
        -9.042608101966586
      ],
      [
        "▁Dav",
        -9.044122415775686
      ],
      [
        "▁sonyere",
        -9.04534340247479
      ],
      [
        "▁anwụ",
        -9.045605993577981
      ],
      [
        "ofi",
        -9.045652920261611
      ],
      [
        "▁mechara",
        -9.045658556257125
      ],
      [
        "▁Jaman",
        -9.046566089722106
      ],
      [
        "▁mkpata",
        -9.046987359608233
      ],
      [
        "▁Ya",
        -9.048436104165598
      ],
      [
        "▁udo",
        -9.048741305153976
      ],
      [
        "▁njikọ",
        -9.050250806486222
      ],
      [
        "ifik",
        -9.051079388901286
      ],
      [
        "kwuchite",
        -9.051182593124866
      ],
      [
        "▁Ndi",
        -9.051192514673023
      ],
      [
        "ten",
        -9.051635770135388
      ],
      [
        "▁Akụ",
        -9.053598863380072
      ],
      [
        "▁Ch",
        -9.0540582838061
      ],
      [
        "▁nwany",
        -9.056093735568828
      ],
      [
        "▁Amazọn",
        -9.056624168984388
      ],
      [
        "▁igbochi",
        -9.05728066229172
      ],
      [
        "▁ọdịda",
        -9.05743004280712
      ],
      [
        "▁n’ọrụ",
        -9.057666466605815
      ],
      [
        "▁Vi",
        -9.062425905005256
      ],
      [
        "▁n’ezi",
        -9.062779483673546
      ],
      [
        "stro",
        -9.066650090802721
      ],
      [
        "▁Abụ",
        -9.066908763890023
      ],
      [
        "▁Ca",
        -9.067070403090698
      ],
      [
        "▁egosi",
        -9.06794926276612
      ],
      [
        "▁Saf",
        -9.067967443489657
      ],
      [
        "mani",
        -9.07065849895118
      ],
      [
        "▁bịa",
        -9.071246434565898
      ],
      [
        "wezụga",
        -9.072888057205951
      ],
      [
        "▁Po",
        -9.07366030928646
      ],
      [
        "kacha",
        -9.073787710804021
      ],
      [
        "▁Sta",
        -9.074865185631378
      ],
      [
        "▁nch",
        -9.076005576460709
      ],
      [
        "▁ọgwụgw",
        -9.076919663125636
      ],
      [
        "▁40",
        -9.07711957095401
      ],
      [
        "▁Mas",
        -9.080333112994406
      ],
      [
        "▁gbochi",
        -9.08210292559792
      ],
      [
        "erman",
        -9.083244332737246
      ],
      [
        "ọtọ",
        -9.083248713592614
      ],
      [
        "▁dịk",
        -9.083335057590475
      ],
      [
        "6.",
        -9.085232891745248
      ],
      [
        "fal",
        -9.085235991798987
      ],
      [
        "mba",
        -9.086078520680223
      ],
      [
        "▁Sho",
        -9.086234452561063
      ],
      [
        "ndab",
        -9.086601828322152
      ],
      [
        "▁Ar",
        -9.086704792476558
      ],
      [
        "▁me",
        -9.086706990908127
      ],
      [
        "▁Es",
        -9.087628819693824
      ],
      [
        "▁akpo",
        -9.087964788748025
      ],
      [
        "ami",
        -9.08904372483074
      ],
      [
        "▁iru",
        -9.091231335965198
      ],
      [
        "▁kampe",
        -9.091783723556006
      ],
      [
        "▁n'ala",
        -9.091897428070872
      ],
      [
        "bochi",
        -9.092565110307532
      ],
      [
        "putara",
        -9.09538507758604
      ],
      [
        "▁maob",
        -9.095658832598545
      ],
      [
        "▁akara",
        -9.09629238833062
      ],
      [
        "▁metụtara",
        -9.096535351844786
      ],
      [
        "▁n’A",
        -9.098506998582739
      ],
      [
        "▁Str",
        -9.098850060162457
      ],
      [
        "▁Sing",
        -9.099657112009172
      ],
      [
        "▁kari",
        -9.100012429360435
      ],
      [
        "45",
        -9.102906411228718
      ],
      [
        "sino",
        -9.104318970451459
      ],
      [
        "dio",
        -9.105192128815363
      ],
      [
        "tozuo",
        -9.11112163844277
      ],
      [
        "▁hụ",
        -9.115891630103528
      ],
      [
        "oria",
        -9.1159638881574
      ],
      [
        "pan",
        -9.116934499535212
      ],
      [
        "nyekarị",
        -9.117326842220384
      ],
      [
        "ver",
        -9.117911966892597
      ],
      [
        "▁Medi",
        -9.11878016718248
      ],
      [
        "▁Kọn",
        -9.11880643367191
      ],
      [
        "ve",
        -9.121481586278897
      ],
      [
        "▁ọtọ",
        -9.12785043148938
      ],
      [
        "ters",
        -9.13148975811265
      ],
      [
        "rist",
        -9.1320371693967
      ],
      [
        "ndị",
        -9.133504776650767
      ],
      [
        "▁8",
        -9.134002350321177
      ],
      [
        "▁na-ewe",
        -9.134231670597707
      ],
      [
        "▁na-akọ",
        -9.138193487988698
      ],
      [
        "▁ib",
        -9.139180876330842
      ],
      [
        "▁ụkw",
        -9.13981533721141
      ],
      [
        "-egwu",
        -9.141135732370664
      ],
      [
        "▁uw",
        -9.141312844706645
      ],
      [
        "▁Er",
        -9.143240310828642
      ],
      [
        "ọnwa",
        -9.145657042473866
      ],
      [
        "▁abanye",
        -9.145847472303561
      ],
      [
        "▁nz",
        -9.148421127075473
      ],
      [
        "▁n'ogb",
        -9.14888358822078
      ],
      [
        "▁du",
        -9.149170195164691
      ],
      [
        "dee",
        -9.15029041874192
      ],
      [
        "▁na-egosipụ",
        -9.150641973098514
      ],
      [
        "▁km",
        -9.151171184413267
      ],
      [
        "rute",
        -9.151879169219963
      ],
      [
        "▁dịrị",
        -9.154924352300549
      ],
      [
        "▁Cu",
        -9.15605342953281
      ],
      [
        "rịrị",
        -9.15763467035773
      ],
      [
        "kin",
        -9.157893757008148
      ],
      [
        "▁Ken",
        -9.159433020468484
      ],
      [
        "iou",
        -9.160485965551961
      ],
      [
        "▁we",
        -9.160891694474277
      ],
      [
        "▁ju",
        -9.16140627376369
      ],
      [
        "rak",
        -9.161944944867724
      ],
      [
        "▁na-ebu",
        -9.162899388581348
      ],
      [
        ",500",
        -9.165740442222967
      ],
      [
        "▁bel",
        -9.166401516180182
      ],
      [
        "din",
        -9.16722474678244
      ],
      [
        "▁ụf",
        -9.16722580257097
      ],
      [
        "ese",
        -9.169662714621369
      ],
      [
        "it",
        -9.173777349391766
      ],
      [
        "▁Nn",
        -9.174164156698922
      ],
      [
        "8",
        -9.174721711623707
      ],
      [
        "▁mmer",
        -9.174721837108912
      ],
      [
        "▁mpi",
        -9.179693709502704
      ],
      [
        "oputa",
        -9.180010325935667
      ],
      [
        "jide",
        -9.180103937415197
      ],
      [
        "bo",
        -9.181715295964645
      ],
      [
        "x",
        -9.18385339486796
      ],
      [
        "pa",
        -9.185580527683078
      ],
      [
        "▁n’u",
        -9.187256001831827
      ],
      [
        "kwe",
        -9.194269858189017
      ],
      [
        "▁na-akw",
        -9.194969004645836
      ],
      [
        "▁ndu",
        -9.196202659650359
      ],
      [
        "▁mw",
        -9.196948399639288
      ],
      [
        "▁chọpụta",
        -9.202643963900961
      ],
      [
        "0",
        -9.20361379308091
      ],
      [
        "6",
        -9.20374551105165
      ],
      [
        "▁He",
        -9.208740294565013
      ],
      [
        "▁eche",
        -9.211584258736638
      ],
      [
        "▁nga",
        -9.21260073603087
      ],
      [
        "site",
        -9.214660548219653
      ],
      [
        "▁ịsọ",
        -9.215545028920621
      ],
      [
        "og",
        -9.217655666019116
      ],
      [
        "▁Iw",
        -9.218070120814103
      ],
      [
        "▁ga-aka",
        -9.219063642991815
      ],
      [
        "njem",
        -9.219996023501139
      ],
      [
        "▁Kon",
        -9.221648244185912
      ],
      [
        "▁Akt",
        -9.22296825077983
      ],
      [
        "gwa",
        -9.227384483136632
      ],
      [
        "▁tụ",
        -9.22752912151281
      ],
      [
        "rịtara",
        -9.227673035405322
      ],
      [
        "▁n'ọdịd",
        -9.230244610089386
      ],
      [
        "▁16",
        -9.230761893967625
      ],
      [
        "▁otut",
        -9.232917606538422
      ],
      [
        "▁gburu",
        -9.23353334512909
      ],
      [
        "▁ume",
        -9.235926376775227
      ],
      [
        "▁1.",
        -9.238638789072729
      ],
      [
        "▁18",
        -9.244348657420833
      ],
      [
        "ama",
        -9.244713286421238
      ],
      [
        "gw",
        -9.253583509188527
      ],
      [
        "▁bara",
        -9.255640244671174
      ],
      [
        "▁Tr",
        -9.25993384039301
      ],
      [
        "▁9",
        -9.25995035874297
      ],
      [
        "▁Mmem",
        -9.26304575287808
      ],
      [
        "du",
        -9.265747321617674
      ],
      [
        "▁Aị",
        -9.267251265729499
      ],
      [
        "-ike",
        -9.26832357868672
      ],
      [
        "eji",
        -9.270443999848727
      ],
      [
        "▁of",
        -9.274422126532059
      ],
      [
        "▁dik",
        -9.27521964524113
      ],
      [
        "▁weta",
        -9.276233792909414
      ],
      [
        "ix",
        -9.27805478451518
      ],
      [
        "▁ibi",
        -9.280578256742684
      ],
      [
        "▁a.",
        -9.281258779413013
      ],
      [
        "▁Fl",
        -9.28428829610862
      ],
      [
        "▁asu",
        -9.288074905863475
      ],
      [
        "orit",
        -9.290623581591872
      ],
      [
        "vi",
        -9.290883721500808
      ],
      [
        "▁ah",
        -9.294270637045276
      ],
      [
        "▁da",
        -9.296732228588066
      ],
      [
        "ge",
        -9.307789036915965
      ],
      [
        "sh",
        -9.30788790140558
      ],
      [
        "▁eru",
        -9.308583662001412
      ],
      [
        "▁Nga",
        -9.309696838951458
      ],
      [
        "00",
        -9.311803399367736
      ],
      [
        "▁mkpọ",
        -9.313810329223541
      ],
      [
        "▁mma.",
        -9.315068993274735
      ],
      [
        "odu",
        -9.316884298501293
      ],
      [
        "▁ịny",
        -9.317039031150347
      ],
      [
        "el",
        -9.317392943972356
      ],
      [
        "fi",
        -9.319145147940873
      ],
      [
        "anụ",
        -9.327518427289359
      ],
      [
        "wepụ",
        -9.329674975854493
      ],
      [
        "▁kpa",
        -9.33364635955077
      ],
      [
        "B",
        -9.335862473321292
      ],
      [
        "▁pụrụ",
        -9.336961666286928
      ],
      [
        "▁ịkpa",
        -9.337182431712055
      ],
      [
        "ela",
        -9.337357204211674
      ],
      [
        "titi",
        -9.343273560491825
      ],
      [
        "000",
        -9.344901233037922
      ],
      [
        "▁agwọ",
        -9.345027682376148
      ],
      [
        "▁na-eji",
        -9.34548659918256
      ],
      [
        "▁na-ara",
        -9.350983968330235
      ],
      [
        "sl",
        -9.351472569501457
      ],
      [
        "nso",
        -9.354756171198002
      ],
      [
        "nzan",
        -9.355809328662865
      ],
      [
        "puk",
        -9.356055493821701
      ],
      [
        "▁Ak",
        -9.362899168557497
      ],
      [
        "▁nda",
        -9.363259442620786
      ],
      [
        "U",
        -9.373769552870375
      ],
      [
        "▁6,",
        -9.374083028162786
      ],
      [
        "▁ekwu",
        -9.375623965928725
      ],
      [
        "▁dabe",
        -9.376193959490994
      ],
      [
        "ment",
        -9.377285245357061
      ],
      [
        "ili",
        -9.377664888940696
      ],
      [
        "▁n'a",
        -9.378704286274221
      ],
      [
        "nta",
        -9.378922111912404
      ],
      [
        "inye",
        -9.380622355001906
      ],
      [
        "▁na-aba",
        -9.386404308079006
      ],
      [
        "ino",
        -9.388162027938591
      ],
      [
        "▁ọs",
        -9.388452214182003
      ],
      [
        "wal",
        -9.398841604002763
      ],
      [
        "ings",
        -9.401897683147798
      ],
      [
        "▁Pal",
        -9.4033151299778
      ],
      [
        "▁Ho",
        -9.403585302171031
      ],
      [
        "ci",
        -9.404247269902715
      ],
      [
        "▁ugb",
        -9.405594570020295
      ],
      [
        "chebe",
        -9.406175942616441
      ],
      [
        "Ụlọ",
        -9.406692400332211
      ],
      [
        "osis",
        -9.407748799720471
      ],
      [
        "▁Pi",
        -9.40805756040223
      ],
      [
        "ndụ",
        -9.409164556581542
      ],
      [
        "idi",
        -9.409959254874858
      ],
      [
        "achara",
        -9.410095708870083
      ],
      [
        "kpukp",
        -9.411404947264707
      ],
      [
        "esi",
        -9.41172561028343
      ],
      [
        "agha",
        -9.412239439492012
      ],
      [
        "▁okw",
        -9.414200373174026
      ],
      [
        "ski",
        -9.41475255157108
      ],
      [
        "▁n’ak",
        -9.414884347709368
      ],
      [
        "▁kwụ",
        -9.414994212258982
      ],
      [
        "▁Pe",
        -9.415921317117032
      ],
      [
        "hụhụ",
        -9.416221171376339
      ],
      [
        "he",
        -9.417369893695536
      ],
      [
        "á",
        -9.417374501648156
      ],
      [
        "▁V",
        -9.419093449751742
      ],
      [
        "W",
        -9.419292380198431
      ],
      [
        "bịa",
        -9.420534143266966
      ],
      [
        "ụgwọ",
        -9.422687503940187
      ],
      [
        "miri",
        -9.423300018152268
      ],
      [
        "-19",
        -9.424820139498335
      ],
      [
        "▁n'ụgbọ",
        -9.424840270322303
      ],
      [
        "'afọ",
        -9.426205529569947
      ],
      [
        "ụọ",
        -9.426582953565195
      ],
      [
        "▁na-apụ",
        -9.429573700545191
      ],
      [
        "akwukwo",
        -9.4301834489844
      ],
      [
        "▁na-ew",
        -9.434606649360363
      ],
      [
        "▁mgbagha",
        -9.436767307242038
      ],
      [
        "obi",
        -9.436979534160006
      ],
      [
        "ngwa",
        -9.437216291710342
      ],
      [
        "▁ọkw",
        -9.437569952864012
      ],
      [
        "▁Lu",
        -9.43769402727507
      ],
      [
        "▁n’e",
        -9.439240402715333
      ],
      [
        "▁St",
        -9.44149834599934
      ],
      [
        "▁ala,",
        -9.443970956278081
      ],
      [
        "▁Kọ",
        -9.444122777713373
      ],
      [
        "mm",
        -9.444759310749113
      ],
      [
        "ff",
        -9.44480043670013
      ],
      [
        "med",
        -9.445129068101824
      ],
      [
        "ahia",
        -9.446235306242327
      ],
      [
        "▁Va",
        -9.455778886226675
      ],
      [
        "▁pu",
        -9.45618341156363
      ],
      [
        "kara",
        -9.457730357926092
      ],
      [
        "uba",
        -9.457754904548757
      ],
      [
        "leta",
        -9.461831463497766
      ],
      [
        "▁kwes",
        -9.464178612521815
      ],
      [
        "nos",
        -9.464719495721154
      ],
      [
        "azụ",
        -9.464944752035905
      ],
      [
        "▁Nle",
        -9.466132265575512
      ],
      [
        "meda",
        -9.4674593073291
      ],
      [
        "▁Obu",
        -9.467724359526027
      ],
      [
        "/",
        -9.468002802496407
      ],
      [
        "kwupụta",
        -9.46850722598904
      ],
      [
        "ig",
        -9.469360496875534
      ],
      [
        "ogige",
        -9.470745572969973
      ],
      [
        "▁na-eso",
        -9.471340249595862
      ],
      [
        "obere",
        -9.474197415727225
      ],
      [
        "▁Bo",
        -9.475352474452434
      ],
      [
        "olo",
        -9.479001738709991
      ],
      [
        "ec",
        -9.479630314834996
      ],
      [
        "▁igosi",
        -9.481384659715602
      ],
      [
        "chite",
        -9.4834341112334
      ],
      [
        "▁Pra",
        -9.484582945370532
      ],
      [
        "7,",
        -9.48568439495526
      ],
      [
        "▁ga-aga",
        -9.48664508366101
      ],
      [
        "ean",
        -9.487012879965105
      ],
      [
        "nle",
        -9.487946838662035
      ],
      [
        "▁Ge",
        -9.489563666362631
      ],
      [
        "hne",
        -9.48984202327611
      ],
      [
        "nyeghị",
        -9.493204591287308
      ],
      [
        "alem",
        -9.493440174583965
      ],
      [
        "nne",
        -9.493603881082814
      ],
      [
        "▁mmef",
        -9.49588552497832
      ],
      [
        "ịna",
        -9.496271948547783
      ],
      [
        "gol",
        -9.496445087925391
      ],
      [
        "▁na-ekwu",
        -9.497232173095295
      ],
      [
        "▁any",
        -9.497408675467065
      ],
      [
        "▁Si",
        -9.499034176396979
      ],
      [
        "vid",
        -9.500453932024476
      ],
      [
        "▁Sc",
        -9.501531552186915
      ],
      [
        "▁tozu",
        -9.505692565301477
      ],
      [
        "kuku",
        -9.506178234547928
      ],
      [
        "gbasa",
        -9.506680223137867
      ],
      [
        "ss",
        -9.507153332013825
      ],
      [
        "▁ofuf",
        -9.507206844370812
      ],
      [
        "em",
        -9.507591298924941
      ],
      [
        "ato",
        -9.508379769617017
      ],
      [
        "rich",
        -9.50844835674949
      ],
      [
        "ụgbọala",
        -9.508463560515976
      ],
      [
        "▁ịm",
        -9.509007678593203
      ],
      [
        "▁20",
        -9.509218833795217
      ],
      [
        "▁goo",
        -9.509254104063205
      ],
      [
        "bor",
        -9.509576148503305
      ],
      [
        "▁(1",
        -9.510951113651837
      ],
      [
        "àmà",
        -9.511240714146142
      ],
      [
        "▁wube",
        -9.51165271408079
      ],
      [
        "gị",
        -9.515417655370644
      ],
      [
        "ak",
        -9.51568690404298
      ],
      [
        "▁Gran",
        -9.516413140548485
      ],
      [
        "lata",
        -9.516417422306601
      ],
      [
        "nya",
        -9.517000879083207
      ],
      [
        "▁ịma",
        -9.517380022269855
      ],
      [
        "▁Jo",
        -9.51797434321862
      ],
      [
        "kari",
        -9.519974036175892
      ],
      [
        "anyanwụ",
        -9.52008289366183
      ],
      [
        "ü",
        -9.520447663625802
      ],
      [
        "▁D",
        -9.52134588955493
      ],
      [
        "kiri",
        -9.52446298909457
      ],
      [
        "enda",
        -9.524533163245364
      ],
      [
        "ider",
        -9.524876124436465
      ],
      [
        "▁“",
        -9.526052042181934
      ],
      [
        "▁Họng",
        -9.526161504013011
      ],
      [
        "burugburu",
        -9.526228699931362
      ],
      [
        "que",
        -9.526375983253171
      ],
      [
        "ú",
        -9.526382004294224
      ],
      [
        "▁influenza",
        -9.526382004294227
      ],
      [
        "▁Whitehall",
        -9.526382004294334
      ],
      [
        "▁ZMapp",
        -9.526382004297629
      ],
      [
        "í",
        -9.52638200433418
      ],
      [
        "X",
        -9.526382004334181
      ],
      [
        "!",
        -9.526382004334181
      ],
      [
        "ç",
        -9.526382004334181
      ],
      [
        "H5N1",
        -9.526382004395645
      ],
      [
        "▁Istanbul",
        -9.526382004448063
      ],
      [
        "▁Rainbow",
        -9.526382004484566
      ],
      [
        "▁Jimnastik",
        -9.526382004624871
      ],
      [
        "▁Argentina",
        -9.526382005205246
      ],
      [
        "▁Frontiere",
        -9.526382006121446
      ],
      [
        "▁Buffalo",
        -9.526382006702832
      ],
      [
        "▁kpọmkwem",
        -9.526382008627856
      ],
      [
        "▁Ekụadọ",
        -9.526382010208486
      ],
      [
        "▁Vankuva",
        -9.526382014632556
      ],
      [
        "(F",
        -9.526382029583232
      ],
      [
        "▁Pakistan",
        -9.526382031691169
      ],
      [
        "▁Afghanistan",
        -9.526382055331814
      ],
      [
        "▁Schengen",
        -9.526382064224318
      ],
      [
        "▁Beelịn",
        -9.5263820651022
      ],
      [
        "▁Africa",
        -9.526382071709186
      ],
      [
        "▁Finlandị",
        -9.526382071759128
      ],
      [
        "▁Daniel",
        -9.526382095128191
      ],
      [
        "▁Tokyo",
        -9.526382113994671
      ],
      [
        "▁Arizona",
        -9.526382131488381
      ],
      [
        "▁krọstụ",
        -9.526382172652252
      ],
      [
        "▁Lọndọn",
        -9.526382183442948
      ],
      [
        "▁Stewart",
        -9.526382190634216
      ],
      [
        "▁Florida",
        -9.526382259124757
      ],
      [
        "▁Ọktoba",
        -9.526382465107725
      ],
      [
        "▁Filip",
        -9.526382711736142
      ],
      [
        "▁bakteri",
        -9.526382902021519
      ],
      [
        "gwongwo",
        -9.526382934389103
      ],
      [
        "▁Wenezde",
        -9.526383025867867
      ],
      [
        "▁n'ịntaneetị",
        -9.526383685950448
      ],
      [
        "▁Nọọwe",
        -9.526384251397488
      ],
      [
        "▁Kroesh",
        -9.52638439342467
      ],
      [
        "▁Bobek",
        -9.526384730567122
      ],
      [
        "▁Nọvemba",
        -9.526384952185682
      ],
      [
        "▁Brọda",
        -9.526385176640035
      ],
      [
        "▁Flags",
        -9.52638529393639
      ],
      [
        "▁Ntuli",
        -9.526385763196824
      ],
      [
        "Simpson",
        -9.52638744423458
      ],
      [
        "▁Tagzi",
        -9.526388559671927
      ],
      [
        "▁na-asato",
        -9.52638867819959
      ],
      [
        "▁Alex",
        -9.526390137151475
      ],
      [
        "▁mkpirisi",
        -9.526395626201515
      ],
      [
        "▁n'Ọgọọst",
        -9.526397211877807
      ],
      [
        "▁Dominica",
        -9.526399422728772
      ],
      [
        "▁France",
        -9.526400397875893
      ],
      [
        "NBA",
        -9.526404790239392
      ],
      [
        "▁jimnas",
        -9.526406011872767
      ],
      [
        "bourg",
        -9.526410212007674
      ],
      [
        "ịpọblik",
        -9.52641076383666
      ],
      [
        "▁ahịhịa",
        -9.526422155962885
      ],
      [
        "▁shuga",
        -9.526424003821774
      ],
      [
        "▁praịm",
        -9.526429597038355
      ],
      [
        "gbagwoju",
        -9.526436523143804
      ],
      [
        "▁iyi-egwu",
        -9.52645613982417
      ],
      [
        "▁Romenia",
        -9.526462863112247
      ],
      [
        "▁Ọgọst",
        -9.526465156553941
      ],
      [
        "▁n'Ọd",
        -9.526500185634438
      ],
      [
        "ltip",
        -9.526504033359624
      ],
      [
        "▁Reid",
        -9.526510114092861
      ],
      [
        "comm",
        -9.52651023535109
      ],
      [
        "▁Nzuk",
        -9.52651848429
      ],
      [
        "▁Copenhagen",
        -9.526521685413744
      ],
      [
        "▁ekwesị",
        -9.526555697850823
      ],
      [
        "▁'N",
        -9.526561070798648
      ],
      [
        "▁ak",
        -9.526587415530608
      ],
      [
        "▁paspọ",
        -9.526609749389184
      ],
      [
        "30,000",
        -9.526614564447673
      ],
      [
        "▁basketbọl",
        -9.526617141945101
      ],
      [
        "-nlere",
        -9.526618428922555
      ],
      [
        "▁anwụọla",
        -9.526619514561911
      ],
      [
        "▁izuụka",
        -9.526623731230286
      ],
      [
        "▁Tọọz",
        -9.526636033673299
      ],
      [
        "▁Onega",
        -9.526638455024194
      ],
      [
        "▁2005",
        -9.526638709568848
      ],
      [
        "▁2020",
        -9.526660671169775
      ],
      [
        "468",
        -9.52666834490644
      ],
      [
        "▁(maịl",
        -9.526668543841096
      ],
      [
        "▁Họngarị",
        -9.526669745929404
      ],
      [
        "iquet",
        -9.526689444490898
      ],
      [
        "▁Wọl",
        -9.52671084493925
      ],
      [
        "▁“N",
        -9.52671254994914
      ],
      [
        "▁Trans",
        -9.52672146462088
      ],
      [
        "▁1980",
        -9.526777323416768
      ],
      [
        "▁ehicha",
        -9.526790005947056
      ],
      [
        "▁ohuru",
        -9.52679216777224
      ],
      [
        "▁1979",
        -9.526796286487912
      ],
      [
        "▁Omeiwu",
        -9.526801974609649
      ],
      [
        "▁ịrụ",
        -9.526814766844144
      ],
      [
        "▁polo",
        -9.526825280486772
      ],
      [
        "76",
        -9.526828952982923
      ],
      [
        "Ajent",
        -9.52684621903241
      ],
      [
        "▁2010",
        -9.526882906896512
      ],
      [
        "▁Ọwụw",
        -9.526895139515908
      ],
      [
        "▁Rep",
        -9.52690913418977
      ],
      [
        "SW",
        -9.526934817845532
      ],
      [
        "▁Inc",
        -9.526940235116323
      ],
      [
        "▁199",
        -9.526977635504648
      ],
      [
        "guzogide",
        -9.526980958911135
      ],
      [
        "▁kọpị",
        -9.526985790899092
      ],
      [
        "▁ewi",
        -9.527072295737439
      ],
      [
        "▁Hsie",
        -9.527093935615314
      ],
      [
        "edà",
        -9.527102876415602
      ],
      [
        "▁West",
        -9.527123589523763
      ],
      [
        "▁Slov",
        -9.527145406538551
      ],
      [
        "▁Feli",
        -9.527190362558299
      ],
      [
        "▁Republi",
        -9.52725311422362
      ],
      [
        "zdee",
        -9.527275409868972
      ],
      [
        "▁flu",
        -9.527335149884532
      ],
      [
        "▁lụrụ",
        -9.52737088788614
      ],
      [
        "▁ọz",
        -9.527388214173325
      ],
      [
        "▁zigara",
        -9.527413659370527
      ],
      [
        "▁keọdịnala",
        -9.527439260343217
      ],
      [
        "39",
        -9.527449893950582
      ],
      [
        "▁ọbị",
        -9.52750961828917
      ],
      [
        "▁Zi",
        -9.52751862810693
      ],
      [
        "awụpụta",
        -9.527525853292339
      ],
      [
        "gbà",
        -9.527575666219922
      ],
      [
        "ulo",
        -9.527709402142671
      ],
      [
        "ATA",
        -9.527895728979036
      ],
      [
        "▁Sul",
        -9.527900191720311
      ],
      [
        "▁akụkọụwa",
        -9.527940571576579
      ],
      [
        "60",
        -9.5280183841882
      ],
      [
        "▁owuwa-anyanwu",
        -9.528032007343263
      ],
      [
        "▁32",
        -9.528245490046556
      ],
      [
        "skop",
        -9.528408542941442
      ],
      [
        "▁n’ebido",
        -9.528543868439982
      ],
      [
        "▁Aịzi",
        -9.528581726755752
      ],
      [
        "▁na-amasị",
        -9.528623856710288
      ],
      [
        "▁nnọgharị",
        -9.528662772474275
      ],
      [
        "▁foro",
        -9.528709910099375
      ],
      [
        "▁ịnọgharị",
        -9.528758852455143
      ],
      [
        "▁mmekpa",
        -9.528846041829622
      ],
      [
        "▁ntụgharị",
        -9.529117110877639
      ],
      [
        "▁ahịrị",
        -9.529264795698396
      ],
      [
        "▁na-amụba",
        -9.529450857303114
      ],
      [
        "▁n'agba",
        -9.529521955177954
      ],
      [
        "▁ifuru",
        -9.529661444394545
      ],
      [
        "II",
        -9.529700827285044
      ],
      [
        "▁na-etinye",
        -9.529711586839364
      ],
      [
        "▁PA",
        -9.529869703013157
      ],
      [
        "▁\"iwu",
        -9.529916581710516
      ],
      [
        "▁Sunda",
        -9.529933669573085
      ],
      [
        "▁Ekwe",
        -9.529942534028342
      ],
      [
        "▁Hel",
        -9.529972933438103
      ],
      [
        "debere",
        -9.529977768025809
      ],
      [
        "▁cla",
        -9.530035493514406
      ],
      [
        "▁ekwesịghị",
        -9.530099685528679
      ],
      [
        "▁na-alụ",
        -9.530183659715197
      ],
      [
        "▁udu",
        -9.530286517825175
      ],
      [
        "1)",
        -9.53029680766047
      ],
      [
        "▁nyefe",
        -9.530386930676812
      ],
      [
        "▁akpas",
        -9.53059579093373
      ],
      [
        "▁Ọdọ",
        -9.530671262410904
      ],
      [
        "▁Ụda",
        -9.53082590635952
      ],
      [
        "▁Ọmụm",
        -9.530854095818771
      ],
      [
        "ñụ",
        -9.530889035935237
      ],
      [
        "gwụrụ",
        -9.530893620518743
      ],
      [
        "▁Ngwa",
        -9.531069691175803
      ],
      [
        "▁senti",
        -9.531165191352034
      ],
      [
        "co",
        -9.531212681609585
      ],
      [
        "▁uburu",
        -9.53161470832448
      ],
      [
        "▁MP",
        -9.5321702689442
      ],
      [
        "▁Ebola",
        -9.532314458631582
      ],
      [
        "üm",
        -9.532350758607805
      ],
      [
        "▁akọwapụtara",
        -9.532452541132546
      ],
      [
        "▁ịwe",
        -9.532506448680333
      ],
      [
        "akpode",
        -9.532671412771045
      ],
      [
        "▁Anta",
        -9.532933770239694
      ],
      [
        "bert",
        -9.53322728744136
      ],
      [
        "pụrụiche",
        -9.533268746486808
      ],
      [
        "▁ugbommiri",
        -9.53343709605916
      ],
      [
        "-anya",
        -9.533640390296702
      ],
      [
        "▁ịhụta",
        -9.533714846514577
      ],
      [
        "▁odim",
        -9.533822334833216
      ],
      [
        "nsul",
        -9.533976689886085
      ],
      [
        "ọlf",
        -9.534461692484065
      ],
      [
        "▁Onyeisi",
        -9.534614154999929
      ],
      [
        "▁(karị",
        -9.534628030620325
      ],
      [
        "hihi",
        -9.534859497500122
      ],
      [
        "hà",
        -9.53516847910782
      ],
      [
        "▁ziri",
        -9.53533920042492
      ],
      [
        "▁2006",
        -9.535382483285108
      ],
      [
        "họpụta",
        -9.535401298619957
      ],
      [
        "ven",
        -9.535496747245881
      ],
      [
        "bọl",
        -9.535786506363689
      ],
      [
        "nwụọ",
        -9.536044451957476
      ],
      [
        "▁sonye",
        -9.536388977316658
      ],
      [
        "▁guo",
        -9.536395783177952
      ],
      [
        "os",
        -9.536547797831366
      ],
      [
        "bịarute",
        -9.536774809803257
      ],
      [
        "Baltik",
        -9.537008509639138
      ],
      [
        "am",
        -9.537116121397819
      ],
      [
        "▁Ott",
        -9.537185556959212
      ],
      [
        "anada",
        -9.537263463125159
      ],
      [
        "vill",
        -9.53733094244801
      ],
      [
        "▁ogo",
        -9.537597963359234
      ],
      [
        "▁ikikere",
        -9.537640349808937
      ],
      [
        "▁ekwenye",
        -9.538232004910235
      ],
      [
        "ụj",
        -9.53888208052049
      ],
      [
        "enti",
        -9.539053270847292
      ],
      [
        "▁na-ebi",
        -9.53910846951049
      ],
      [
        "arama-a",
        -9.539423624713251
      ],
      [
        "eline",
        -9.539466110721092
      ],
      [
        "grii",
        -9.539628181888286
      ],
      [
        "▁osote",
        -9.539830572381813
      ],
      [
        "bịaghachi",
        -9.540635387911811
      ],
      [
        "kà",
        -9.540651121455682
      ],
      [
        "▁Rịpọ",
        -9.541235931054684
      ],
      [
        "▁na-eru",
        -9.5412494321557
      ],
      [
        "▁ogbo",
        -9.541804042574254
      ],
      [
        "▁Bar",
        -9.541804697246075
      ],
      [
        "àrà",
        -9.54194635761127
      ],
      [
        "infr",
        -9.54202864069644
      ],
      [
        "▁iweta",
        -9.542342228616487
      ],
      [
        "▁imetụta",
        -9.542503208505291
      ],
      [
        "38",
        -9.542572548510485
      ],
      [
        "▁agh",
        -9.542884100723818
      ],
      [
        "▁Pas",
        -9.543155603228238
      ],
      [
        "▁ekpuchi",
        -9.543195551558055
      ],
      [
        "ning",
        -9.543219229535923
      ],
      [
        "▁gachara",
        -9.543389011726518
      ],
      [
        "▁kpod",
        -9.54346210828347
      ],
      [
        "wubere",
        -9.543472698054265
      ],
      [
        "▁AC",
        -9.543736185664478
      ],
      [
        "chọ",
        -9.543753732810456
      ],
      [
        "▁kpụkọ",
        -9.543850706324992
      ],
      [
        "ral",
        -9.543886341903368
      ],
      [
        "-otu",
        -9.544117772450877
      ],
      [
        "▁Moro",
        -9.544238601621043
      ],
      [
        "hap",
        -9.544502994388761
      ],
      [
        "▁Onwe",
        -9.5445263534736
      ],
      [
        "▁Pen",
        -9.544653901560888
      ],
      [
        "▁ugbo-",
        -9.544944304217196
      ],
      [
        "▁tag",
        -9.544972765953426
      ],
      [
        "▁ịchị",
        -9.545267530465734
      ],
      [
        "amịrị",
        -9.545648073059912
      ],
      [
        "gue",
        -9.545911773177574
      ],
      [
        "▁ken",
        -9.546114081919395
      ],
      [
        "▁n’ụwa",
        -9.546544119517092
      ],
      [
        "▁Fransị",
        -9.546746761896975
      ],
      [
        "ndez",
        -9.546917931835093
      ],
      [
        "▁ikpu",
        -9.548187032310473
      ],
      [
        "▁ikpo",
        -9.548736635207254
      ],
      [
        "mir",
        -9.549047803209943
      ],
      [
        "▁obu",
        -9.549094910689393
      ],
      [
        "ffer",
        -9.549789311296523
      ],
      [
        "gwo",
        -9.550459935715136
      ],
      [
        "uru-ahu",
        -9.550993947108822
      ],
      [
        "kpori",
        -9.551416533437093
      ],
      [
        "gbakwunye",
        -9.55186939958921
      ],
      [
        "▁azum",
        -9.552276823689493
      ],
      [
        "-isi",
        -9.552302645454645
      ],
      [
        "▁agwụ",
        -9.552681087502947
      ],
      [
        "▁agbata",
        -9.552801140431434
      ],
      [
        "▁karịa.",
        -9.552832231082727
      ],
      [
        "▁ek",
        -9.552859806074414
      ],
      [
        "▁an̄ụ",
        -9.553046660527658
      ],
      [
        "Luna",
        -9.554753234869933
      ],
      [
        "▁(ma",
        -9.555103285354386
      ],
      [
        "ahapu",
        -9.555127910163403
      ],
      [
        "5-",
        -9.555696094019776
      ],
      [
        "▁n'efu",
        -9.556272071668232
      ],
      [
        "▁Rị",
        -9.55687132550594
      ],
      [
        "▁Sp",
        -9.557993880912708
      ],
      [
        "arị",
        -9.558500348550488
      ],
      [
        "▁ebub",
        -9.561287731872739
      ],
      [
        "igh",
        -9.561964951554973
      ],
      [
        "▁rọg",
        -9.56217232474001
      ],
      [
        "fon",
        -9.562735607782834
      ],
      [
        "▁Dọ",
        -9.562792486242959
      ],
      [
        "▁eju",
        -9.563096336562324
      ],
      [
        "ezi",
        -9.563229164637102
      ],
      [
        "ọnde",
        -9.563606338292967
      ],
      [
        "▁Kat",
        -9.564031747975328
      ],
      [
        "ulka",
        -9.56416210123107
      ],
      [
        "▁m'",
        -9.564946498737173
      ],
      [
        "▁abali",
        -9.565397815277368
      ],
      [
        "▁Maas",
        -9.566020662803599
      ],
      [
        "▁bh",
        -9.56670405313901
      ],
      [
        "▁fen",
        -9.56711638744919
      ],
      [
        "▁nkwụ",
        -9.56812325264374
      ],
      [
        "▁Sim",
        -9.568432654096913
      ],
      [
        "▁n’iji",
        -9.568513296693594
      ],
      [
        "ure",
        -9.569312924293046
      ],
      [
        "▁Gian",
        -9.56990072741867
      ],
      [
        "▁n’a",
        -9.57003887477015
      ],
      [
        "▁tele",
        -9.570725326501371
      ],
      [
        "furu",
        -9.571227405611836
      ],
      [
        "sie",
        -9.571566454261161
      ],
      [
        "▁ọgan",
        -9.572339851396734
      ],
      [
        "ihi",
        -9.572434055434496
      ],
      [
        "▁emerie",
        -9.57277711864647
      ],
      [
        "▁2,",
        -9.572815552851894
      ],
      [
        "▁We",
        -9.573196983499283
      ],
      [
        "▁gbatị",
        -9.573434921715437
      ],
      [
        "▁na/",
        -9.573979363074105
      ],
      [
        "lọji",
        -9.5740471466774
      ],
      [
        "▁abụo",
        -9.574287414603994
      ],
      [
        "▁ngwa-",
        -9.574738300720114
      ],
      [
        "asị",
        -9.575167022542853
      ],
      [
        "aịn",
        -9.576391944215931
      ],
      [
        "akpo",
        -9.57665027989024
      ],
      [
        "ịnị",
        -9.576665764911942
      ],
      [
        "lom",
        -9.57671545048714
      ],
      [
        "ogugo",
        -9.576736042508458
      ],
      [
        "ịng",
        -9.577306704800264
      ],
      [
        "liva",
        -9.57736990136666
      ],
      [
        "▁Nov",
        -9.577570527947762
      ],
      [
        "tali",
        -9.577759518962896
      ],
      [
        "▁ufodu",
        -9.578650980143024
      ],
      [
        "▁akọ",
        -9.579487279006472
      ],
      [
        "▁ọmụmaatụ",
        -9.579888242906497
      ],
      [
        "ft",
        -9.580374945109769
      ],
      [
        "▁mkparịta",
        -9.580620631931396
      ],
      [
        "▁dọk",
        -9.581006873774129
      ],
      [
        "▁bata",
        -9.581730315180868
      ],
      [
        "malite",
        -9.582720542957395
      ],
      [
        "▁amata",
        -9.582935094234156
      ],
      [
        "burg",
        -9.583056969928094
      ],
      [
        "cont",
        -9.584217469499597
      ],
      [
        "▁nil",
        -9.586268430506129
      ],
      [
        "▁meter",
        -9.587159906602748
      ],
      [
        "adị",
        -9.587347782361018
      ],
      [
        "▁ịkọ",
        -9.587664925048164
      ],
      [
        "▁Mon",
        -9.587889825034042
      ],
      [
        "-na-",
        -9.588751410365424
      ],
      [
        "en",
        -9.590755210786176
      ],
      [
        "▁ọnụọgụ",
        -9.592933120381382
      ],
      [
        "Gol",
        -9.593043622181089
      ],
      [
        "ita",
        -9.593666195262433
      ],
      [
        "mile",
        -9.593884577050341
      ],
      [
        "kpuchi",
        -9.595190284818646
      ],
      [
        "▁h",
        -9.595406433624907
      ],
      [
        "▁Nor",
        -9.595711263724438
      ],
      [
        "sso",
        -9.597211265878169
      ],
      [
        "▁Ndo",
        -9.598288658142378
      ],
      [
        "emefu",
        -9.598354652855122
      ],
      [
        "àm",
        -9.598918038629694
      ],
      [
        "▁nto",
        -9.599043793646164
      ],
      [
        "▁Pu",
        -9.600819713264285
      ],
      [
        "tic",
        -9.602318242980866
      ],
      [
        "rd",
        -9.602927740286026
      ],
      [
        "▁mgbu",
        -9.603034655737936
      ],
      [
        "▁day",
        -9.603179843153866
      ],
      [
        "rus",
        -9.603625506379064
      ],
      [
        "▁ebido",
        -9.603656244486022
      ],
      [
        "▁sote",
        -9.603722037111933
      ],
      [
        "▁100",
        -9.603863397628926
      ],
      [
        "kwenye",
        -9.604266054998993
      ],
      [
        "▁2000",
        -9.604549892836285
      ],
      [
        "▁Ameri",
        -9.605044666858014
      ],
      [
        "ruo",
        -9.605507382718542
      ],
      [
        "▁okporo",
        -9.605515124932973
      ],
      [
        "arine",
        -9.605646732562736
      ],
      [
        "▁Ham",
        -9.60644678078779
      ],
      [
        "riba",
        -9.608473153540109
      ],
      [
        "uegwu",
        -9.608667867647174
      ],
      [
        "▁agafe",
        -9.60926471764762
      ],
      [
        "▁As",
        -9.612719099746034
      ],
      [
        "▁Ari",
        -9.613007207639487
      ],
      [
        "ekwo",
        -9.613937096772199
      ],
      [
        "▁ala-a",
        -9.614299699376954
      ],
      [
        "▁chọpụtara",
        -9.614691259454737
      ],
      [
        "▁Gom",
        -9.615515259439228
      ],
      [
        "▁nav",
        -9.615734001708818
      ],
      [
        "gbo",
        -9.616049455134876
      ],
      [
        "puru",
        -9.617235559337534
      ],
      [
        "▁iga",
        -9.617727752670854
      ],
      [
        "mini",
        -9.618184822981114
      ],
      [
        "ekwe",
        -9.618501232233355
      ],
      [
        "▁akwụ",
        -9.619226541882426
      ],
      [
        "onu",
        -9.619420720894317
      ],
      [
        "▁Han",
        -9.62073982728102
      ],
      [
        "▁Nde",
        -9.621518587623822
      ],
      [
        "▁Jan",
        -9.621903804212012
      ],
      [
        "▁ez",
        -9.622095043952664
      ],
      [
        "kwazi",
        -9.622183526908465
      ],
      [
        "via",
        -9.623170899994154
      ],
      [
        "▁11",
        -9.62362116003469
      ],
      [
        "▁Re",
        -9.6254429535639
      ],
      [
        "ọdịnihu",
        -9.626190998543205
      ],
      [
        "▁bọọ",
        -9.626222927686294
      ],
      [
        "▁Sol",
        -9.630352423552708
      ],
      [
        "▁Mau",
        -9.630380162077968
      ],
      [
        "▁Kan",
        -9.631054646423529
      ],
      [
        "ma-",
        -9.631651759778698
      ],
      [
        "-ok",
        -9.631998190131894
      ],
      [
        "▁agwa",
        -9.633168397444349
      ],
      [
        "▁emetụta",
        -9.636121920276125
      ],
      [
        "▁kekọ",
        -9.636780691938775
      ],
      [
        "ichel",
        -9.639324722061605
      ],
      [
        "jet",
        -9.64073823121241
      ],
      [
        "▁Njik",
        -9.641359033589282
      ],
      [
        "4-1",
        -9.641988137787989
      ],
      [
        "▁ụtụtụ",
        -9.642174508133222
      ],
      [
        "lekwas",
        -9.643576472759868
      ],
      [
        "▁ahụrụ",
        -9.643708259451651
      ],
      [
        "pi",
        -9.644805628157853
      ],
      [
        "▁ejikọta",
        -9.644830982582056
      ],
      [
        "erede",
        -9.647102273925025
      ],
      [
        "▁á",
        -9.648313622103597
      ],
      [
        "▁n'ahụ",
        -9.648764953640486
      ],
      [
        "▁tra",
        -9.650380119761676
      ],
      [
        "▁ada",
        -9.650859875798105
      ],
      [
        "res",
        -9.650953582229416
      ],
      [
        "ze",
        -9.651193928824505
      ],
      [
        "lad",
        -9.651987620173742
      ],
      [
        "▁Mbu",
        -9.653028371389087
      ],
      [
        "gar",
        -9.65355211700256
      ],
      [
        "▁Th",
        -9.65364514025579
      ],
      [
        "ịns",
        -9.654877029373255
      ],
      [
        "mkpọtụ",
        -9.654990899435687
      ],
      [
        "wapụta",
        -9.655149765522538
      ],
      [
        "bighị",
        -9.655468340518158
      ],
      [
        "aịlị",
        -9.656063039032581
      ],
      [
        "▁elek",
        -9.657055300248128
      ],
      [
        "ic",
        -9.657719817084711
      ],
      [
        "▁ewere",
        -9.657806749706408
      ],
      [
        "▁Mis",
        -9.659714767006955
      ],
      [
        "▁Wa",
        -9.659802260824067
      ],
      [
        "akwa",
        -9.65994724367248
      ],
      [
        "▁nnwere",
        -9.660182066559821
      ],
      [
        "▁Gre",
        -9.663507943832483
      ],
      [
        "essa",
        -9.664083541593005
      ],
      [
        "chọpụtara",
        -9.66440919994091
      ],
      [
        "▁Ti",
        -9.664603504064544
      ],
      [
        "▁ọcha",
        -9.666410132402067
      ],
      [
        "▁Ki",
        -9.668682074886174
      ],
      [
        "▁Lọ",
        -9.669045928470583
      ],
      [
        "mpụ",
        -9.670360544162024
      ],
      [
        "▁yọ",
        -9.672067819090104
      ],
      [
        "here",
        -9.673273438066008
      ],
      [
        "▁ịnwe",
        -9.673794910773562
      ],
      [
        "pere",
        -9.675873573470444
      ],
      [
        "▁Ọk",
        -9.676500692640229
      ],
      [
        "▁agafee",
        -9.677651968105456
      ],
      [
        "sen",
        -9.67806040065314
      ],
      [
        "nwebegh",
        -9.678466579720837
      ],
      [
        "rụkọ",
        -9.68006398266835
      ],
      [
        "rụgharị",
        -9.680122804992111
      ],
      [
        "ụta",
        -9.682514215164426
      ],
      [
        "shu",
        -9.68310982067297
      ],
      [
        "▁Gri",
        -9.68356098091688
      ],
      [
        "ban",
        -9.685472955371349
      ],
      [
        "nọgide",
        -9.692515174790914
      ],
      [
        "trah",
        -9.69904500643524
      ],
      [
        "ux",
        -9.700953730875232
      ],
      [
        "▁Gl",
        -9.701634610084378
      ],
      [
        "hoo",
        -9.704321587850513
      ],
      [
        "ugo",
        -9.706084267741378
      ],
      [
        "▁ng",
        -9.707903803573243
      ],
      [
        "nda",
        -9.708507076710156
      ],
      [
        "▁6",
        -9.709191856666486
      ],
      [
        "▁Rea",
        -9.711848264897789
      ],
      [
        "▁Dr",
        -9.712939164614394
      ],
      [
        "▁Mar",
        -9.71761377385365
      ],
      [
        "th",
        -9.721313624923194
      ],
      [
        "kwọ",
        -9.722499383852544
      ],
      [
        "▁n’ụ",
        -9.722517887333147
      ],
      [
        "uku",
        -9.723072902478453
      ],
      [
        "▁ekewa",
        -9.723973936052175
      ],
      [
        "kaps",
        -9.724164742796791
      ],
      [
        "▁ete",
        -9.72615158839964
      ],
      [
        "anaghị",
        -9.727296404189339
      ],
      [
        "▁Fer",
        -9.732655701038716
      ],
      [
        "anyị",
        -9.733347254397653
      ],
      [
        "▁aku",
        -9.736206853907202
      ],
      [
        "▁ọdị",
        -9.737152061735038
      ],
      [
        "▁akọwa",
        -9.73764471168113
      ],
      [
        "chekwa",
        -9.737696521588651
      ],
      [
        "para",
        -9.742062398316852
      ],
      [
        "ulu",
        -9.743262645726523
      ],
      [
        "ọst",
        -9.744054695162095
      ],
      [
        "▁igb",
        -9.748384203747214
      ],
      [
        "omo",
        -9.752030025977218
      ],
      [
        "zan",
        -9.753663986225344
      ],
      [
        "91",
        -9.753941097931591
      ],
      [
        "gb",
        -9.754207890843997
      ],
      [
        "kere",
        -9.757739376071159
      ],
      [
        "chido",
        -9.757743241071122
      ],
      [
        "▁na-ete",
        -9.758533934508977
      ],
      [
        "▁nji",
        -9.7586401297076
      ],
      [
        "▁Stam",
        -9.765377894274943
      ],
      [
        "▁eruo",
        -9.766104354148984
      ],
      [
        "▁Sat",
        -9.767098857424553
      ],
      [
        "lere",
        -9.768401251930214
      ],
      [
        "▁na-akwa",
        -9.76904480587314
      ],
      [
        "ahu",
        -9.770858800696105
      ],
      [
        "▁Ji",
        -9.770996122692143
      ],
      [
        "eghi",
        -9.77102390273527
      ],
      [
        "▁onw",
        -9.771552131098877
      ],
      [
        "▁nt",
        -9.77401424220529
      ],
      [
        "▁mpụ",
        -9.774769064238162
      ],
      [
        "gbe",
        -9.775356785279486
      ],
      [
        "int",
        -9.776191576462455
      ],
      [
        "▁Te",
        -9.776365428656142
      ],
      [
        "▁Rọ",
        -9.778306688548192
      ],
      [
        "▁an",
        -9.779168658338405
      ],
      [
        "ons",
        -9.78105748380697
      ],
      [
        "▁ag",
        -9.782450475094382
      ],
      [
        "tone",
        -9.78671100312232
      ],
      [
        "ngola,",
        -9.78774796845125
      ],
      [
        "ịbịa",
        -9.791494971538953
      ],
      [
        "▁17",
        -9.792352716241542
      ],
      [
        "iji",
        -9.798283695040057
      ],
      [
        "▁ih",
        -9.799397743740476
      ],
      [
        "88",
        -9.799577461963313
      ],
      [
        "ick",
        -9.80056156570559
      ],
      [
        "yi",
        -9.80120027624629
      ],
      [
        "anwu",
        -9.801610707997217
      ],
      [
        "erde",
        -9.80423752536693
      ],
      [
        "▁ese",
        -9.805581884336688
      ],
      [
        "aja",
        -9.8060012105443
      ],
      [
        "bọg",
        -9.80812116088952
      ],
      [
        "gba",
        -9.811411770396894
      ],
      [
        "▁al",
        -9.81158314943791
      ],
      [
        "▁Ve",
        -9.817155649964546
      ],
      [
        "▁sa",
        -9.819728807655574
      ],
      [
        "▁ịtụ",
        -9.81984365494381
      ],
      [
        "ion",
        -9.8212720854454
      ],
      [
        "▁ọb",
        -9.82168161780485
      ],
      [
        "richa",
        -9.822526364130454
      ],
      [
        "-ma",
        -9.82275036060216
      ],
      [
        "pir",
        -9.82327455762109
      ],
      [
        "uputa",
        -9.826163386913402
      ],
      [
        "tion",
        -9.828886369970995
      ],
      [
        "arter",
        -9.829103733225079
      ],
      [
        "▁Mit",
        -9.829433782269843
      ],
      [
        "tos",
        -9.832577590757747
      ],
      [
        "a-esonye",
        -9.836793805852874
      ],
      [
        "ls",
        -9.843054670600816
      ],
      [
        "▁\"N",
        -9.843863422156806
      ],
      [
        "▁olimpi",
        -9.84637778997836
      ],
      [
        "▁Pri",
        -9.84703646578956
      ],
      [
        "▁Hi",
        -9.847521499255985
      ],
      [
        "▁ga-ar",
        -9.853653305159236
      ],
      [
        "▁Kr",
        -9.854293090786745
      ],
      [
        "mp",
        -9.855919518333987
      ],
      [
        "▁ịf",
        -9.856015310801464
      ],
      [
        "▁Tre",
        -9.859630009664265
      ],
      [
        "dọta",
        -9.864537923333598
      ],
      [
        "ọdịka",
        -9.867190500940385
      ],
      [
        "▁ọka",
        -9.87361736965837
      ],
      [
        "-o",
        -9.880307025483646
      ],
      [
        "gap",
        -9.88062344066187
      ],
      [
        "’okporo",
        -9.882499551523834
      ],
      [
        "SA",
        -9.8830997566465
      ],
      [
        "ut",
        -9.88350024471722
      ],
      [
        "kiti",
        -9.885768784844359
      ],
      [
        "uri",
        -9.886300128059762
      ],
      [
        "dọrọ",
        -9.88681242467643
      ],
      [
        "nuk",
        -9.88893647344695
      ],
      [
        "▁na-ej",
        -9.88959597054387
      ],
      [
        "tụọ",
        -9.890235582230485
      ],
      [
        "nyi",
        -9.89240867125331
      ],
      [
        "▁na-ekw",
        -9.892578884510876
      ],
      [
        "▁2",
        -9.89471674870014
      ],
      [
        "tị",
        -9.896219165348692
      ],
      [
        "osiri",
        -9.899553165368783
      ],
      [
        "ek",
        -9.90078359247451
      ],
      [
        "-u",
        -9.913304461439914
      ],
      [
        "▁Ir",
        -9.913967114024793
      ],
      [
        "ebufe",
        -9.916406661892367
      ],
      [
        "800",
        -9.920939904801898
      ],
      [
        "aju",
        -9.92671823112493
      ],
      [
        "aịt",
        -9.927652886092229
      ],
      [
        "vad",
        -9.928190903212638
      ],
      [
        "adịgide",
        -9.931403909161896
      ],
      [
        "▁ad",
        -9.934523649439598
      ],
      [
        "▁(U",
        -9.936790355389496
      ],
      [
        "▁Mme",
        -9.937810965636254
      ],
      [
        "▁ba",
        -9.938960595554537
      ],
      [
        "▁Pale",
        -9.939497631933172
      ],
      [
        "▁koo",
        -9.940185275974274
      ],
      [
        "rita",
        -9.942558481208755
      ],
      [
        "zu\"",
        -9.94829372357106
      ],
      [
        "ove",
        -9.949484893788608
      ],
      [
        "▁on",
        -9.952617124863608
      ],
      [
        "ran",
        -9.956696762860803
      ],
      [
        "kwador",
        -9.958362533573334
      ],
      [
        "▁emech",
        -9.959945582564512
      ],
      [
        "ian",
        -9.961161781220135
      ],
      [
        "rli",
        -9.962186560159106
      ],
      [
        "kal",
        -9.962341359669207
      ],
      [
        "▁eti",
        -9.963690904658108
      ],
      [
        "▁mmep",
        -9.964197017802931
      ],
      [
        "ọgụ",
        -9.965365200448208
      ],
      [
        "ọgbọ",
        -9.965466795273601
      ],
      [
        "▁na-ar",
        -9.96872093742991
      ],
      [
        "metuta",
        -9.969548641194589
      ],
      [
        "▁ọgh",
        -9.971297697710593
      ],
      [
        "▁Iwa",
        -9.971509323615166
      ],
      [
        "▁nw",
        -9.975542233840844
      ],
      [
        "igharị",
        -9.975784429349455
      ],
      [
        "inya",
        -9.976051129347498
      ],
      [
        "▁leta",
        -9.976777029851654
      ],
      [
        "mo",
        -9.983193150540528
      ],
      [
        "limpik",
        -9.983520815885086
      ],
      [
        "▁Maz",
        -9.989857635610196
      ],
      [
        "ogi",
        -9.993512804163919
      ],
      [
        "cia",
        -10.000382175733636
      ],
      [
        "ia",
        -10.002544180412285
      ],
      [
        "▁Ko",
        -10.006080845159563
      ],
      [
        "5",
        -10.00738090507792
      ],
      [
        "▁it",
        -10.008486297179438
      ],
      [
        "oke",
        -10.01322430715933
      ],
      [
        "etro",
        -10.015404034761145
      ],
      [
        "▁ito",
        -10.016551283467036
      ],
      [
        "▁mi",
        -10.018203482959263
      ],
      [
        "▁Fall",
        -10.019423485906554
      ],
      [
        "▁Ịg",
        -10.019837759557966
      ],
      [
        "ir",
        -10.020876624487682
      ],
      [
        "▁Ik",
        -10.022769559598546
      ],
      [
        "dal",
        -10.025123802356674
      ],
      [
        "▁160",
        -10.026060032186628
      ],
      [
        "▁ọnọ",
        -10.026924410506306
      ],
      [
        "van",
        -10.027080588232597
      ],
      [
        "ụkọ",
        -10.030318407903138
      ],
      [
        "▁Car",
        -10.030669126627496
      ],
      [
        "▁ogbu",
        -10.031865499785344
      ],
      [
        "▁el",
        -10.032880237667028
      ],
      [
        "vol",
        -10.041086522234462
      ],
      [
        "set",
        -10.042385183805482
      ],
      [
        "▁kpọ",
        -10.043871342155672
      ],
      [
        "buo",
        -10.055813757265817
      ],
      [
        "kla",
        -10.056141651138852
      ],
      [
        "▁chọ",
        -10.057799933483581
      ],
      [
        "▁Sch",
        -10.057994510849761
      ],
      [
        "and",
        -10.059267588554981
      ],
      [
        "Angola",
        -10.060337406540011
      ],
      [
        "kp",
        -10.06302046975065
      ],
      [
        "aki",
        -10.066484149737
      ],
      [
        "okporo",
        -10.068472981163392
      ],
      [
        "kpuru",
        -10.07289274472219
      ],
      [
        "▁daba",
        -10.076885284938017
      ],
      [
        "gụ",
        -10.078005551228353
      ],
      [
        "▁n'ọgb",
        -10.079510338895487
      ],
      [
        "ofe",
        -10.079884809015077
      ],
      [
        "▁Mi",
        -10.079940726679446
      ],
      [
        "pọ",
        -10.080772705253313
      ],
      [
        "▁N'i",
        -10.084121151311738
      ],
      [
        "akwado",
        -10.085605073283995
      ],
      [
        "▁n’i",
        -10.08596032911689
      ],
      [
        "ger",
        -10.088176563444051
      ],
      [
        "nami",
        -10.089329432395227
      ],
      [
        "▁kewa",
        -10.090634521747074
      ],
      [
        "▁eb",
        -10.091951115233428
      ],
      [
        "-a",
        -10.097225685403584
      ],
      [
        "ap",
        -10.097346382926496
      ],
      [
        "dịrị",
        -10.099201855378812
      ],
      [
        "lin",
        -10.104198122938804
      ],
      [
        "weta",
        -10.104577942718894
      ],
      [
        "osi",
        -10.105054966922365
      ],
      [
        "vish",
        -10.110838294221118
      ],
      [
        "luja",
        -10.111328009180964
      ],
      [
        "▁Ngosi",
        -10.11547145161708
      ],
      [
        "▁Osi",
        -10.121548913429086
      ],
      [
        "agbanyeghi",
        -10.12174199051626
      ],
      [
        "zu",
        -10.122487158666013
      ],
      [
        "▁Har",
        -10.122742068509258
      ],
      [
        "▁Igw",
        -10.12285652703132
      ],
      [
        "atụ",
        -10.123113776036215
      ],
      [
        "▁nha",
        -10.130100047144314
      ],
      [
        "▁Ku",
        -10.130278541167542
      ],
      [
        "mb",
        -10.133429295714796
      ],
      [
        "pat",
        -10.136472495047801
      ],
      [
        "gara",
        -10.136708602393142
      ],
      [
        "ot",
        -10.137453456080383
      ],
      [
        "ep",
        -10.138034929159867
      ],
      [
        "▁17,",
        -10.13830522521997
      ],
      [
        "▁meri",
        -10.13833220955542
      ],
      [
        "▁mer",
        -10.139481151513793
      ],
      [
        "kpọka",
        -10.140647881581602
      ],
      [
        "ụka",
        -10.141170957094904
      ],
      [
        "ịta",
        -10.141907938489867
      ],
      [
        "ọf",
        -10.147365188786758
      ],
      [
        "afe",
        -10.14896930706263
      ],
      [
        "lọ",
        -10.151355589892688
      ],
      [
        "ekwuo",
        -10.151363987239353
      ],
      [
        "del",
        -10.152513203173399
      ],
      [
        "▁rol",
        -10.153386182818743
      ],
      [
        "▁nma",
        -10.15383790430984
      ],
      [
        "▁achọpụta",
        -10.159967415442019
      ],
      [
        "sk",
        -10.160723773692808
      ],
      [
        "dịda",
        -10.162917612272597
      ],
      [
        "▁us",
        -10.166577398897957
      ],
      [
        "sụl",
        -10.167158078973957
      ],
      [
        "▁nl",
        -10.168303862602832
      ],
      [
        "gosiputa",
        -10.173398282340486
      ],
      [
        "ụl",
        -10.175303516116028
      ],
      [
        "▁agbasi",
        -10.177149373439395
      ],
      [
        "mebe",
        -10.178173297973306
      ],
      [
        "▁agụnye",
        -10.178370207832053
      ],
      [
        "akwuru",
        -10.180172869171042
      ],
      [
        "▁198",
        -10.189594923923773
      ],
      [
        "▁196",
        -10.190350179908307
      ],
      [
        "chiri",
        -10.193822416891118
      ],
      [
        "tọ",
        -10.194350406452852
      ],
      [
        "▁ịna",
        -10.195803590036176
      ],
      [
        "ụgbọ",
        -10.200450123503655
      ],
      [
        "ume",
        -10.202698261875545
      ],
      [
        "our",
        -10.20303488600259
      ],
      [
        "ụs",
        -10.204997640140624
      ],
      [
        "▁N’o",
        -10.208793924874973
      ],
      [
        "shing",
        -10.209942636224175
      ],
      [
        "uzi",
        -10.210007602894974
      ],
      [
        "▁ite",
        -10.21022343424822
      ],
      [
        "▁Fa",
        -10.211547612254877
      ],
      [
        "or",
        -10.21368138365182
      ],
      [
        "gaghị",
        -10.215219196358618
      ],
      [
        "uta",
        -10.218704772004223
      ],
      [
        "aịkịn",
        -10.22019634288499
      ],
      [
        "cel",
        -10.220844538954882
      ],
      [
        "ọtụ",
        -10.222797287314764
      ],
      [
        "eghị",
        -10.225056642612252
      ],
      [
        "masị",
        -10.225915029743605
      ],
      [
        "▁na-agw",
        -10.232436872704914
      ],
      [
        "▁Ọrụ",
        -10.23279052265632
      ],
      [
        "▁gbago",
        -10.23408841686448
      ],
      [
        "tuta",
        -10.23550989366625
      ],
      [
        "ibi",
        -10.236856628221343
      ],
      [
        "ist",
        -10.23921404201255
      ],
      [
        "begh",
        -10.239827712795806
      ],
      [
        "ligh",
        -10.240016332412214
      ],
      [
        "▁Sit",
        -10.241852511571686
      ],
      [
        "chụ",
        -10.242996551063182
      ],
      [
        "▁kwụsi",
        -10.24416235415259
      ],
      [
        "har",
        -10.245322329876355
      ],
      [
        "ọchịchị",
        -10.24778870143323
      ],
      [
        "▁ịr",
        -10.248620614854687
      ],
      [
        "▁Ne",
        -10.25015037409485
      ],
      [
        "▁ịghọ",
        -10.2516810456971
      ],
      [
        "ova",
        -10.254318767207527
      ],
      [
        "strị",
        -10.254523164229834
      ],
      [
        "▁v",
        -10.255382981144393
      ],
      [
        "o-",
        -10.25548251458454
      ],
      [
        "wepụta",
        -10.2563063401115
      ],
      [
        "nu",
        -10.256569918158121
      ],
      [
        "▁194",
        -10.258298834272402
      ],
      [
        "many",
        -10.258452764206464
      ],
      [
        "mezi",
        -10.25926447173639
      ],
      [
        "ọga",
        -10.260236736717182
      ],
      [
        "▁Y",
        -10.263224531044559
      ],
      [
        "▁Agwa",
        -10.26530711719671
      ],
      [
        "ego",
        -10.266404511696868
      ],
      [
        "500",
        -10.268078957952483
      ],
      [
        "sote",
        -10.268772819470016
      ],
      [
        "▁na-ad",
        -10.270193673709063
      ],
      [
        "ịz",
        -10.272997526526854
      ],
      [
        "ce",
        -10.280226113433006
      ],
      [
        "▁ejikwa",
        -10.280314326277956
      ],
      [
        "▁(50",
        -10.281750075158405
      ],
      [
        "gu",
        -10.284309518211035
      ],
      [
        "bọọ",
        -10.28527329791844
      ],
      [
        "▁vo",
        -10.288828843077601
      ],
      [
        "afọ",
        -10.290687136076146
      ],
      [
        "egosiputa",
        -10.295532070348221
      ],
      [
        "bachagh",
        -10.296109793094221
      ],
      [
        "ọk",
        -10.29706193895742
      ],
      [
        "ọbu",
        -10.297355600387172
      ],
      [
        "▁N'o",
        -10.302158770902913
      ],
      [
        "ụkpụrụ",
        -10.308226341020312
      ],
      [
        "gbatị",
        -10.309215544383566
      ],
      [
        "tozu",
        -10.310126275204293
      ],
      [
        "ris",
        -10.312987740169149
      ],
      [
        "ebighị",
        -10.313196632807095
      ],
      [
        "▁ej",
        -10.313621789299125
      ],
      [
        "▁na-enw",
        -10.314538169369971
      ],
      [
        "▁Ọn",
        -10.315697746634697
      ],
      [
        "▁ọk",
        -10.318794810255511
      ],
      [
        "zụ",
        -10.320090051131121
      ],
      [
        "ọnụ",
        -10.320642716448926
      ],
      [
        "inyere",
        -10.324155120805157
      ],
      [
        "▁Eji",
        -10.325208214700062
      ],
      [
        "mepe",
        -10.327106021846785
      ],
      [
        "rola",
        -10.327353431071923
      ],
      [
        "ọs",
        -10.327840252118175
      ],
      [
        "leba",
        -10.327970145742768
      ],
      [
        "▁ịn",
        -10.330354449159556
      ],
      [
        "las",
        -10.331027503060724
      ],
      [
        "▁Med",
        -10.333773784726295
      ],
      [
        "▁pe",
        -10.33440603514394
      ],
      [
        "gbochi",
        -10.337385225685347
      ],
      [
        "▁sọọ",
        -10.33791743141422
      ],
      [
        "▁mbịa",
        -10.338403863055426
      ],
      [
        "lgar",
        -10.338936459547396
      ],
      [
        "400",
        -10.339874429498458
      ],
      [
        "wee",
        -10.340413442252107
      ],
      [
        "sus",
        -10.349312224361881
      ],
      [
        "kw",
        -10.349606966673608
      ],
      [
        "▁ejikọ",
        -10.349981316535981
      ],
      [
        "naghị",
        -10.350233117935135
      ],
      [
        "moc",
        -10.350435839669315
      ],
      [
        "Amerịka",
        -10.351390795742041
      ],
      [
        "osimiri",
        -10.353096783526608
      ],
      [
        "id",
        -10.35416150338843
      ],
      [
        "nti",
        -10.356464480341355
      ],
      [
        "▁ewez",
        -10.35685521399423
      ],
      [
        "▁Ru",
        -10.357096896800563
      ],
      [
        "▁N’i",
        -10.361547258756552
      ],
      [
        "uum",
        -10.364041382123975
      ],
      [
        "kwet",
        -10.365201088712679
      ],
      [
        "Ụmụ",
        -10.366518669432537
      ],
      [
        "gana",
        -10.3682334649449
      ],
      [
        "Japan",
        -10.369268842091781
      ],
      [
        "ock",
        -10.369744359613625
      ],
      [
        "▁na-awa",
        -10.372460815036682
      ],
      [
        "▁oka",
        -10.372629385895413
      ],
      [
        "Enwere",
        -10.374730872570757
      ],
      [
        "bl",
        -10.38189117682198
      ],
      [
        "K",
        -10.382733601918504
      ],
      [
        "ịa",
        -10.383678409127029
      ],
      [
        "▁gbata",
        -10.38379572835784
      ],
      [
        "▁Sin",
        -10.386729814934238
      ],
      [
        "▁kwụs",
        -10.38747202856309
      ],
      [
        "▁nwekw",
        -10.39164707038717
      ],
      [
        "▁ụd",
        -10.392156193160732
      ],
      [
        "bọ",
        -10.392810725375426
      ],
      [
        "apu",
        -10.39304699943806
      ],
      [
        "bodo",
        -10.393898714971527
      ],
      [
        "atọ",
        -10.393985916934152
      ],
      [
        "nnọchiteanya",
        -10.395693885181531
      ],
      [
        "ọwụwa",
        -10.396378187829432
      ],
      [
        "▁gụpụ",
        -10.397517824884286
      ],
      [
        "▁fọ",
        -10.39852238897774
      ],
      [
        "▁okwe",
        -10.399524043478433
      ],
      [
        "Ụwa",
        -10.400258942174148
      ],
      [
        "anụmanụ",
        -10.400358337096614
      ],
      [
        "obula",
        -10.400670078448977
      ],
      [
        "ọmụmaatụ",
        -10.401475948183274
      ],
      [
        "ufodu",
        -10.403412998543978
      ],
      [
        "eli",
        -10.403617105818691
      ],
      [
        "mkparịta",
        -10.403823827655795
      ],
      [
        "▁Ad",
        -10.406387995980467
      ],
      [
        "bọchị",
        -10.407132047224643
      ],
      [
        "n̄",
        -10.408056543685465
      ],
      [
        "ọl",
        -10.408240189708366
      ],
      [
        "Amazọn",
        -10.408706686581318
      ],
      [
        "ntag",
        -10.409457791122271
      ],
      [
        "10",
        -10.411912688433429
      ],
      [
        "mkpụ",
        -10.412031145182347
      ],
      [
        "▁rụọ",
        -10.413171920199064
      ],
      [
        "stin",
        -10.413938659163797
      ],
      [
        "ozugbo",
        -10.41509150026476
      ],
      [
        "Rea",
        -10.415942239149269
      ],
      [
        "mkpa",
        -10.416521573448216
      ],
      [
        "ansa",
        -10.416796812143941
      ],
      [
        "ọlọji",
        -10.417234297961194
      ],
      [
        "▁sayen",
        -10.417375916109826
      ],
      [
        "jem",
        -10.417559882879761
      ],
      [
        "batị",
        -10.418314164744741
      ],
      [
        "▁ewe",
        -10.418569508786751
      ],
      [
        "▁Jem",
        -10.420418072521082
      ],
      [
        "ikpeazụ",
        -10.424702993983578
      ],
      [
        "nkịtị",
        -10.425085818265874
      ],
      [
        "▁ich",
        -10.425872924697243
      ],
      [
        "▁Man",
        -10.42682128935755
      ],
      [
        "ozu",
        -10.428836923696661
      ],
      [
        "▁Chee",
        -10.430536394051684
      ],
      [
        "-onu",
        -10.431958403862499
      ],
      [
        "ọpụrụ",
        -10.434171619323545
      ],
      [
        "igbochi",
        -10.435105672395371
      ],
      [
        "ij",
        -10.435534614380874
      ],
      [
        "abali",
        -10.435593082089875
      ],
      [
        "Ala",
        -10.436771297018447
      ],
      [
        "Fe",
        -10.440846115989899
      ],
      [
        "▁iso",
        -10.44194311011945
      ],
      [
        "-ah",
        -10.444020458373434
      ],
      [
        "anca",
        -10.444110202023689
      ],
      [
        "ọkpụ",
        -10.444724771793311
      ],
      [
        "nwany",
        -10.4453936485719
      ],
      [
        "eb",
        -10.44660258679349
      ],
      [
        "wanye",
        -10.447335494816338
      ],
      [
        "-ez",
        -10.447414677094711
      ],
      [
        "▁n’aga",
        -10.44792200335338
      ],
      [
        "ica",
        -10.448882642806074
      ],
      [
        "agafe",
        -10.449756522414644
      ],
      [
        "▁Ama",
        -10.449970239258748
      ],
      [
        "L",
        -10.450752761731028
      ],
      [
        "▁ebu",
        -10.451818036121546
      ],
      [
        "omen",
        -10.454686062386925
      ],
      [
        "fik",
        -10.45580368940236
      ],
      [
        "▁ogb",
        -10.456198289330475
      ],
      [
        "mechi",
        -10.457277400180557
      ],
      [
        "abata",
        -10.461594076443188
      ],
      [
        "▁10",
        -10.461648320557147
      ],
      [
        "Med",
        -10.46224043635289
      ],
      [
        "ije",
        -10.462455386429031
      ],
      [
        "kike",
        -10.463670378447793
      ],
      [
        "ebido",
        -10.464362493256147
      ],
      [
        "▁ozu",
        -10.4645593384518
      ],
      [
        "’",
        -10.46464426916826
      ],
      [
        "▁ga-eb",
        -10.464693621643354
      ],
      [
        "▁kl",
        -10.465477519901231
      ],
      [
        "gwọ",
        -10.467239699548308
      ],
      [
        "napụta",
        -10.467297766233356
      ],
      [
        "▁Am",
        -10.469138257595748
      ],
      [
        "▁ịgụ",
        -10.471342773123203
      ],
      [
        "▁ndo",
        -10.473527664181692
      ],
      [
        "gige",
        -10.473810593407771
      ],
      [
        "wuru",
        -10.474752620015924
      ],
      [
        "▁Col",
        -10.474961294933673
      ],
      [
        "▁Ụlọọ",
        -10.475998616787905
      ],
      [
        "ewere",
        -10.47827046174848
      ],
      [
        "nwụn",
        -10.479837544317578
      ],
      [
        "mpe",
        -10.48020556123433
      ],
      [
        "▁Ọg",
        -10.483204735813718
      ],
      [
        "ando",
        -10.483558520821008
      ],
      [
        "pọt",
        -10.484384906356722
      ],
      [
        "Par",
        -10.484470876538706
      ],
      [
        "ense",
        -10.485304706275933
      ],
      [
        "▁od",
        -10.485786664959868
      ],
      [
        "-mp",
        -10.485921293930561
      ],
      [
        "nyanwụ",
        -10.488631286628573
      ],
      [
        "gasị",
        -10.48964416481973
      ],
      [
        "▁Nkwekọr",
        -10.491351655460011
      ],
      [
        "▁Sawụ",
        -10.491414463846041
      ],
      [
        "per",
        -10.493219898468041
      ],
      [
        "kpoda",
        -10.493511966562663
      ],
      [
        "jikọ",
        -10.49438661652978
      ],
      [
        "rth",
        -10.494770713319426
      ],
      [
        "rse",
        -10.494802439603916
      ],
      [
        "▁Fran",
        -10.495469010902399
      ],
      [
        "ọt",
        -10.496437470847274
      ],
      [
        "char",
        -10.50000221033539
      ],
      [
        "let",
        -10.500036342092763
      ],
      [
        "85",
        -10.500308843034325
      ],
      [
        "▁nzu",
        -10.500466534824692
      ],
      [
        "ịkọp",
        -10.50129785320423
      ],
      [
        "▁Balti",
        -10.501315419818905
      ],
      [
        "▁ekpe",
        -10.502368813522859
      ],
      [
        "om",
        -10.504450647949438
      ],
      [
        "abalị",
        -10.505012722003569
      ],
      [
        "mbụ",
        -10.506889648209938
      ],
      [
        "gr",
        -10.507126295828458
      ],
      [
        "kut",
        -10.507375896765657
      ],
      [
        "ans",
        -10.509543573666917
      ],
      [
        "nọchiteanya",
        -10.510032253346147
      ],
      [
        "mber",
        -10.511534834468712
      ],
      [
        "▁Akp",
        -10.511813221160761
      ],
      [
        "▁dep",
        -10.512860976993066
      ],
      [
        "ozo",
        -10.513520500456249
      ],
      [
        "vil",
        -10.5138641379016
      ],
      [
        "dọt",
        -10.514847176068441
      ],
      [
        "ñ",
        -10.514969826519275
      ],
      [
        "▁Geo",
        -10.515120229339466
      ],
      [
        "▁na-eny",
        -10.515198661269883
      ],
      [
        "zụma",
        -10.517061620876623
      ],
      [
        "▁sent",
        -10.517406096930587
      ],
      [
        "21",
        -10.517608467650561
      ],
      [
        "ịghị",
        -10.517924227680892
      ],
      [
        "ntanet",
        -10.518369350167497
      ],
      [
        "omul",
        -10.518584196971648
      ],
      [
        "kọwapụtara",
        -10.519204978817065
      ],
      [
        "egwu",
        -10.519452069102055
      ],
      [
        "▁Agbanyegh",
        -10.519886557408318
      ],
      [
        "ejupụta",
        -10.519922809614663
      ],
      [
        "▁Japa",
        -10.519969218462881
      ],
      [
        "▁itool",
        -10.521060222560942
      ],
      [
        "▁emeri",
        -10.52132040658325
      ],
      [
        "▁ọchịch",
        -10.521426026746024
      ],
      [
        "ite",
        -10.521908887533208
      ],
      [
        "wuwa-anyanwu",
        -10.522184804218037
      ],
      [
        "pekata",
        -10.52360156082678
      ],
      [
        "LA",
        -10.523856325507117
      ],
      [
        "▁enyo",
        -10.523913214521045
      ],
      [
        "1895",
        -10.524450366806706
      ],
      [
        "▁Braz",
        -10.524495896461833
      ],
      [
        "ublic",
        -10.524959668168258
      ],
      [
        "egu",
        -10.525133769367013
      ],
      [
        "q",
        -10.525613600502915
      ],
      [
        "asketbọl",
        -10.525785677001267
      ],
      [
        "openhagen",
        -10.52602582181249
      ],
      [
        "TA",
        -10.526037099287084
      ],
      [
        "▁80",
        -10.526048417969982
      ],
      [
        "▁akọwapụta",
        -10.52622139740467
      ],
      [
        "980",
        -10.526223786182392
      ],
      [
        "▁n'Ọgọ",
        -10.526348470503189
      ],
      [
        "Ü",
        -10.526382004294234
      ],
      [
        "–",
        -10.526382004294234
      ],
      [
        "£",
        -10.526382004294234
      ],
      [
        "ū",
        -10.52638200433417
      ],
      [
        "‘",
        -10.526382004334181
      ],
      [
        "ö",
        -10.526382004334181
      ],
      [
        "ã",
        -10.526382004334181
      ],
      [
        "ó",
        -10.526382004334181
      ],
      [
        "[",
        -10.526382004334181
      ],
      [
        "]",
        -10.526382004334181
      ],
      [
        "ṅ",
        -10.526382004334181
      ],
      [
        "%",
        -10.526382004334181
      ],
      [
        "+",
        -10.526382004334181
      ],
      [
        "ǹ",
        -10.526382004334181
      ],
      [
        "blica",
        -10.526399142224012
      ],
      [
        "▁Afghan",
        -10.526446203386701
      ],
      [
        "▁Domin",
        -10.526510150137424
      ],
      [
        "anistan",
        -10.526532639584604
      ],
      [
        "30,",
        -10.526576029155162
      ],
      [
        "▁46",
        -10.526618496612413
      ],
      [
        "nkir",
        -10.527150239445165
      ],
      [
        "96",
        -10.527357638882194
      ],
      [
        "▁n'obo",
        -10.527810804026675
      ],
      [
        "kọnt",
        -10.527934174857371
      ],
      [
        "▁II",
        -10.528353036968614
      ],
      [
        "895",
        -10.528457265507852
      ],
      [
        "▁olile",
        -10.528632458538166
      ],
      [
        "▁nkwek",
        -10.52866503199536
      ],
      [
        "83",
        -10.528686475479315
      ],
      [
        "▁Afg",
        -10.528983691523798
      ],
      [
        "okwa",
        -10.529304502727705
      ],
      [
        "▁(N",
        -10.52938786575609
      ],
      [
        "▁nnọchite",
        -10.529852814789642
      ],
      [
        "urop",
        -10.53237912613184
      ],
      [
        "illa",
        -10.533595609891695
      ],
      [
        "▁meruru",
        -10.533713344366102
      ],
      [
        "tbọl",
        -10.534001441154638
      ],
      [
        "nu-o",
        -10.534784321426928
      ],
      [
        "ọchị",
        -10.534795263150025
      ],
      [
        "n'",
        -10.534835685421822
      ],
      [
        "▁Bel",
        -10.53613745563403
      ],
      [
        "▁nkwekọ",
        -10.536595665185555
      ],
      [
        "chiche",
        -10.537010675061172
      ],
      [
        "fela",
        -10.53788739847926
      ],
      [
        "omi",
        -10.53803366253633
      ],
      [
        "ums",
        -10.539093801040364
      ],
      [
        "ilandị",
        -10.540140017296984
      ],
      [
        "mekpa",
        -10.540970112092396
      ],
      [
        "orh",
        -10.541133064073238
      ],
      [
        "spọt",
        -10.541428786906442
      ],
      [
        "▁guzo",
        -10.541667830082524
      ],
      [
        "af",
        -10.541752545717904
      ],
      [
        "▁n'ịntane",
        -10.542038495318954
      ],
      [
        "awụt",
        -10.542991303945865
      ],
      [
        "mụba",
        -10.543050078887271
      ],
      [
        "▁Egwu",
        -10.543269326210053
      ],
      [
        "ared",
        -10.54361995572432
      ],
      [
        "lic",
        -10.54376581831879
      ],
      [
        "0,000",
        -10.544006524150085
      ],
      [
        "ntịn",
        -10.544041967018636
      ],
      [
        "nist",
        -10.54491645855347
      ],
      [
        "achi",
        -10.545141022105735
      ],
      [
        "rugb",
        -10.545592814996402
      ],
      [
        "nọt",
        -10.546121811787778
      ],
      [
        "haziri",
        -10.54748127572531
      ],
      [
        "tlant",
        -10.547651053240822
      ],
      [
        "pac",
        -10.547919323853836
      ],
      [
        "▁ọgb",
        -10.548192991100635
      ],
      [
        "▁202",
        -10.548364080222088
      ],
      [
        "eetị",
        -10.548581061909225
      ],
      [
        "▁Mkp",
        -10.549083712480707
      ],
      [
        "echeb",
        -10.549512213246686
      ],
      [
        "ump",
        -10.549895776346538
      ],
      [
        "▁pi",
        -10.550238776217343
      ],
      [
        "▁opeka",
        -10.551115066181765
      ],
      [
        "▁Tọọ",
        -10.551462180635472
      ],
      [
        "old",
        -10.55227721787563
      ],
      [
        "tier",
        -10.553976223231487
      ],
      [
        "mps",
        -10.554258505851207
      ],
      [
        "▁Ang",
        -10.554552225696687
      ],
      [
        "▁mk",
        -10.554561783653655
      ],
      [
        "madụ",
        -10.5550316055079
      ],
      [
        "kụ",
        -10.556862995459976
      ],
      [
        "▁ghe",
        -10.557435226279262
      ],
      [
        "ọpị",
        -10.55838797683986
      ],
      [
        "agagh",
        -10.559327735302631
      ],
      [
        "▁n’egwu",
        -10.559574099980466
      ],
      [
        "olbe",
        -10.559907113222632
      ],
      [
        "’ak",
        -10.560222522389527
      ],
      [
        "ọlọ",
        -10.560262735672083
      ],
      [
        "▁azụma",
        -10.560548499520477
      ],
      [
        "Ed",
        -10.56189702790099
      ],
      [
        "Te",
        -10.562089932098056
      ],
      [
        "jisi",
        -10.563641951410334
      ],
      [
        "▁ọhụ",
        -10.564494877674822
      ],
      [
        "ezum",
        -10.564814186505036
      ],
      [
        "ajan",
        -10.565332599890205
      ],
      [
        "tell",
        -10.566074676636978
      ],
      [
        "onye-",
        -10.566084861004569
      ],
      [
        "anye",
        -10.566831501993946
      ],
      [
        "▁n'ezi",
        -10.567209317872349
      ],
      [
        "▁Ul",
        -10.567306794583205
      ],
      [
        "Pl",
        -10.569657605645926
      ],
      [
        "Je",
        -10.569893272198785
      ],
      [
        "stik",
        -10.569935094499519
      ],
      [
        "sho",
        -10.570627601420748
      ],
      [
        "rge",
        -10.571272237748023
      ],
      [
        "▁ste",
        -10.57157243350574
      ],
      [
        "▁Win",
        -10.572611456152064
      ],
      [
        "189",
        -10.572875933352574
      ],
      [
        "▁ụmụnw",
        -10.57317535198848
      ],
      [
        "▁ụnya",
        -10.573657997543698
      ],
      [
        "▁mbi",
        -10.574878561156098
      ],
      [
        "gbas",
        -10.57510794711045
      ],
      [
        "▁buu",
        -10.575582496624548
      ],
      [
        "enia",
        -10.576531211395157
      ],
      [
        "▁Kar",
        -10.577831558952544
      ],
      [
        "il",
        -10.578153330930947
      ],
      [
        "aga",
        -10.578487555497016
      ],
      [
        "rida",
        -10.578693926709867
      ],
      [
        "feghar",
        -10.579641859450556
      ],
      [
        "▁ziga",
        -10.579832242948806
      ],
      [
        "▁n’ih",
        -10.580319382618503
      ],
      [
        "▁One",
        -10.580873502497981
      ],
      [
        "▁ano",
        -10.581248729812392
      ],
      [
        "▁Pak",
        -10.582140539463627
      ],
      [
        "dọn",
        -10.582422335513822
      ],
      [
        "▁Van",
        -10.588817057512355
      ],
      [
        "ntib",
        -10.589163896520109
      ],
      [
        "▁omena",
        -10.589285105326612
      ],
      [
        "▁bas",
        -10.590696143612625
      ],
      [
        "mbu",
        -10.59371095855228
      ],
      [
        "▁taị",
        -10.59492571593718
      ],
      [
        "eg",
        -10.595001743204534
      ],
      [
        "-op",
        -10.595109300332913
      ],
      [
        "-emep",
        -10.595581405825953
      ],
      [
        "mbi",
        -10.59559804375499
      ],
      [
        "▁wepụ",
        -10.596101182042174
      ],
      [
        "legharị",
        -10.596635887374172
      ],
      [
        "▁ụta",
        -10.59681794963466
      ],
      [
        "▁n’akp",
        -10.59769338682901
      ],
      [
        "hụma",
        -10.59947826874093
      ],
      [
        "▁mgbaghar",
        -10.601761880661128
      ],
      [
        "▁obo",
        -10.601852775500465
      ],
      [
        "▁ukw",
        -10.60273965578293
      ],
      [
        "kar",
        -10.603284654229565
      ],
      [
        "ya.",
        -10.603395540465023
      ],
      [
        "ọdịn",
        -10.60368729833735
      ],
      [
        "kọb",
        -10.6038555446037
      ],
      [
        "▁gụọ",
        -10.60393343362555
      ],
      [
        "for",
        -10.604967676587131
      ],
      [
        "▁Ec",
        -10.604992063787083
      ],
      [
        "▁am",
        -10.608015731411367
      ],
      [
        "▁bak",
        -10.608024847659856
      ],
      [
        "▁gh",
        -10.608960412189262
      ],
      [
        "▁ahazi",
        -10.60948154050931
      ],
      [
        "tiere",
        -10.609781322143942
      ],
      [
        "▁Oka",
        -10.610549050588324
      ],
      [
        "▁mmek",
        -10.61117203258091
      ],
      [
        "can",
        -10.612275178951826
      ],
      [
        "pane",
        -10.612981485785376
      ],
      [
        "Ba",
        -10.613649589943073
      ],
      [
        "ụcha",
        -10.61416138087581
      ],
      [
        "▁tel",
        -10.614390833945057
      ],
      [
        "akụba",
        -10.61479693429215
      ],
      [
        "hel",
        -10.615505872937801
      ],
      [
        "ri-n",
        -10.615663443780347
      ],
      [
        "▁imi",
        -10.62073011548721
      ],
      [
        "sp",
        -10.62144820830046
      ],
      [
        "▁Na-",
        -10.622598636420685
      ],
      [
        "▁Sha",
        -10.624469818080005
      ],
      [
        "ny",
        -10.625356771969784
      ],
      [
        "ọmmiri",
        -10.626020088548103
      ],
      [
        "▁n'A",
        -10.62674725645176
      ],
      [
        "dri",
        -10.627557669382123
      ],
      [
        "As",
        -10.627587931154942
      ],
      [
        "▁\"n",
        -10.62901083093943
      ],
      [
        "ọọ",
        -10.62944918145949
      ],
      [
        "larị",
        -10.630768547022557
      ],
      [
        "wegha",
        -10.631702373852562
      ],
      [
        "enwegh",
        -10.632646487046586
      ],
      [
        "ịza",
        -10.633504490553943
      ],
      [
        "▁ekwes",
        -10.634933178668668
      ],
      [
        "▁kem",
        -10.635226285895115
      ],
      [
        "fụma",
        -10.637019832892213
      ],
      [
        "▁sk",
        -10.63733160361404
      ],
      [
        "menia",
        -10.637507080369478
      ],
      [
        "uzu",
        -10.637850578697226
      ],
      [
        "kwesịghị",
        -10.638374454780138
      ],
      [
        "gos",
        -10.639549711771414
      ],
      [
        "enụ",
        -10.639843828807852
      ],
      [
        "kepụ",
        -10.642862967142408
      ],
      [
        "▁50",
        -10.643015022729083
      ],
      [
        "igbo",
        -10.643546067279281
      ],
      [
        "▁Ju",
        -10.643867835786478
      ],
      [
        "etinye",
        -10.645780625659473
      ],
      [
        "dịnihu",
        -10.651777270350781
      ],
      [
        "yin",
        -10.652224461277356
      ],
      [
        "ụgha",
        -10.654220351187405
      ],
      [
        "nwoke",
        -10.655438870862389
      ],
      [
        "temụ",
        -10.656699713507198
      ],
      [
        "ah",
        -10.658210014062115
      ],
      [
        "edepụta",
        -10.659625846921221
      ],
      [
        "ọb",
        -10.6597369161851
      ],
      [
        "ania",
        -10.66155505853676
      ],
      [
        "rin",
        -10.664384706871616
      ],
      [
        "▁Oli",
        -10.667871598428682
      ],
      [
        "kum",
        -10.668614630195078
      ],
      [
        "ọrịa",
        -10.668973744850412
      ],
      [
        "▁El",
        -10.670645266862389
      ],
      [
        "sar",
        -10.671347454870276
      ],
      [
        "▁Co",
        -10.671454374262133
      ],
      [
        "▁omen",
        -10.671743804601078
      ],
      [
        "ụnd",
        -10.67233657558198
      ],
      [
        "ọpụ",
        -10.673180094918834
      ],
      [
        "▁Tọ",
        -10.675669104256029
      ],
      [
        "hiri",
        -10.676806811323829
      ],
      [
        "nes",
        -10.67782405267147
      ],
      [
        "aghachi",
        -10.67852903826779
      ],
      [
        "akk",
        -10.680023659184076
      ],
      [
        "-is",
        -10.680686798162922
      ],
      [
        "asa",
        -10.682911553966793
      ],
      [
        "amani",
        -10.684099264939512
      ],
      [
        "▁ọga",
        -10.684922735673869
      ],
      [
        "landị",
        -10.687634982386921
      ],
      [
        "▁ir",
        -10.688734216551318
      ],
      [
        "law",
        -10.691511701726595
      ],
      [
        "ghe",
        -10.691840983058464
      ],
      [
        "▁mman",
        -10.692530381496535
      ],
      [
        "▁ut",
        -10.693426970574166
      ],
      [
        "ador",
        -10.696273673772719
      ],
      [
        "hapụ",
        -10.698481046660998
      ],
      [
        "▁iku",
        -10.698914412346843
      ],
      [
        "rịọ",
        -10.700681321432981
      ],
      [
        "▁ụ",
        -10.703028155284262
      ],
      [
        "leg",
        -10.704208824391207
      ],
      [
        "nwere-",
        -10.704668591835429
      ],
      [
        "▁ịch",
        -10.705768697328935
      ],
      [
        "▁Fal",
        -10.705820179902807
      ],
      [
        "pek",
        -10.711380912180754
      ],
      [
        "▁Ri",
        -10.713126304622019
      ],
      [
        "r-",
        -10.715631661408699
      ],
      [
        "▁No",
        -10.716819370681389
      ],
      [
        "▁az",
        -10.727478968668537
      ],
      [
        "Man",
        -10.734589798824462
      ],
      [
        "ele",
        -10.7368156544445
      ],
      [
        "▁et",
        -10.74322150470246
      ],
      [
        "uk",
        -10.74323804645264
      ],
      [
        "ichar",
        -10.743787483551982
      ],
      [
        "▁Ag",
        -10.745195355934419
      ],
      [
        "ruru",
        -10.746422626180351
      ],
      [
        "ezute",
        -10.746508497671504
      ],
      [
        "zie",
        -10.747442030184233
      ],
      [
        "ofu",
        -10.74777729582839
      ],
      [
        "▁ịbịa",
        -10.752544099233432
      ],
      [
        "▁Yu",
        -10.753603121912462
      ],
      [
        "▁or",
        -10.757894536007708
      ],
      [
        "ọj",
        -10.758007430285065
      ],
      [
        "ụghị",
        -10.760879373058494
      ],
      [
        "ye",
        -10.766882764357696
      ],
      [
        "gi",
        -10.767310306694672
      ],
      [
        "ras",
        -10.77073456813312
      ],
      [
        "▁Akw",
        -10.773212114064922
      ],
      [
        "▁os",
        -10.773891648157187
      ],
      [
        "rigo",
        -10.77390807461321
      ],
      [
        "oo",
        -10.776137397309242
      ],
      [
        "▁Nas",
        -10.778001903753228
      ],
      [
        "esh",
        -10.7790969129281
      ],
      [
        "onwere",
        -10.780665120673463
      ],
      [
        "▁ịme",
        -10.780724347985132
      ],
      [
        "▁3,",
        -10.781755256341484
      ],
      [
        "agwaetiti",
        -10.788634770359979
      ],
      [
        "▁na-ag",
        -10.789374680637795
      ],
      [
        "ụtụtụ",
        -10.793710192624022
      ],
      [
        "fes",
        -10.794211499037313
      ],
      [
        "▁anu",
        -10.795141404166113
      ],
      [
        "gbacha",
        -10.797624963199183
      ],
      [
        "rdo",
        -10.798066923763939
      ],
      [
        "alaghachi",
        -10.798488152805835
      ],
      [
        "▁ịra",
        -10.798697888586155
      ],
      [
        "ọọs",
        -10.80089881441534
      ],
      [
        "ikuku",
        -10.803732260281098
      ],
      [
        "▁Mm",
        -10.80645995671511
      ],
      [
        "huu",
        -10.807351414148478
      ],
      [
        "mà",
        -10.807645529353396
      ],
      [
        "▁akwu",
        -10.808057743851684
      ],
      [
        "▁oz",
        -10.809675113548534
      ],
      [
        "▁na-emeb",
        -10.814143480766036
      ],
      [
        "▁ot",
        -10.817667688737288
      ],
      [
        "tii",
        -10.817710213724927
      ],
      [
        "jikwa",
        -10.820094165892597
      ],
      [
        "kuk",
        -10.821353536326475
      ],
      [
        "zuo",
        -10.822740904878899
      ],
      [
        "lị",
        -10.829031164194438
      ],
      [
        "▁Ame",
        -10.830502870696398
      ],
      [
        "etik",
        -10.8333486957927
      ],
      [
        "wen",
        -10.833529259518503
      ],
      [
        "▁mpu",
        -10.83448028477818
      ],
      [
        "▁do",
        -10.839076060092326
      ],
      [
        "epu",
        -10.839438218018401
      ],
      [
        "ote",
        -10.843180283395782
      ],
      [
        "▁Be",
        -10.844146622698897
      ],
      [
        "▁nwer",
        -10.844529151486748
      ],
      [
        "ịtụn",
        -10.84655878903167
      ],
      [
        "stụ",
        -10.846833226150688
      ],
      [
        "tan",
        -10.847725951712887
      ],
      [
        "yl",
        -10.84832585406842
      ],
      [
        "maọb",
        -10.852718964159912
      ],
      [
        "asịrị",
        -10.855461812282886
      ],
      [
        "agabu",
        -10.85832934655583
      ],
      [
        "▁zu",
        -10.862366274483698
      ],
      [
        "wụrụ",
        -10.862781520643619
      ],
      [
        "▁Ede",
        -10.867797456632934
      ],
      [
        "dogh",
        -10.868638699245869
      ],
      [
        "▁at",
        -10.870273953825812
      ],
      [
        "▁egwur",
        -10.870748791654211
      ],
      [
        "ịrụ",
        -10.87665370552753
      ],
      [
        "desi",
        -10.877564537211239
      ],
      [
        "adal",
        -10.878129230781951
      ],
      [
        "▁eso",
        -10.88507870671931
      ],
      [
        "okpukp",
        -10.8911583104206
      ],
      [
        "ib",
        -10.892028412897147
      ],
      [
        "ekt",
        -10.900508603841496
      ],
      [
        "agide",
        -10.901892112647493
      ],
      [
        "▁akpụk",
        -10.904079534969304
      ],
      [
        "rọn",
        -10.904493320219363
      ],
      [
        "uike",
        -10.905970383930459
      ],
      [
        "▁cha",
        -10.906172658833125
      ],
      [
        "dik",
        -10.908852546779437
      ],
      [
        "▁Nt",
        -10.908938813951313
      ],
      [
        "nọọ",
        -10.911908002268863
      ],
      [
        "rol",
        -10.916879202712614
      ],
      [
        "kata",
        -10.916929269797043
      ],
      [
        "arịrị",
        -10.925770956144188
      ],
      [
        "▁Wi",
        -10.926273580381805
      ],
      [
        "olu",
        -10.927606341518276
      ],
      [
        "▁Ọstr",
        -10.930763096541819
      ],
      [
        "▁Sto",
        -10.933101826077845
      ],
      [
        "ting",
        -10.936504182203402
      ],
      [
        "zia",
        -10.937599600324967
      ],
      [
        "lo-",
        -10.937946597435753
      ],
      [
        "mike",
        -10.937953588301841
      ],
      [
        "a/",
        -10.938903767247647
      ],
      [
        "▁osis",
        -10.939740811327962
      ],
      [
        "ag",
        -10.940734673203515
      ],
      [
        "uga",
        -10.94083305143038
      ],
      [
        "▁Tra",
        -10.941081209610479
      ],
      [
        "▁ụt",
        -10.946729183976728
      ],
      [
        "ịkịn",
        -10.95114168245473
      ],
      [
        "▁ọp",
        -10.955163140694738
      ],
      [
        "ị\"",
        -10.955468516235555
      ],
      [
        "my",
        -10.95967797172182
      ],
      [
        "off",
        -10.959822320453714
      ],
      [
        "mebig",
        -10.961550470598345
      ],
      [
        "▁ohu",
        -10.96465534489892
      ],
      [
        "zipu",
        -10.965612963135703
      ],
      [
        "ewepụt",
        -10.96661209423212
      ],
      [
        "nia",
        -10.966746926989822
      ],
      [
        "▁agw",
        -10.967557234729442
      ],
      [
        "àg",
        -10.967816035102917
      ],
      [
        "fere",
        -10.970158251469305
      ],
      [
        "eta",
        -10.971207816012035
      ],
      [
        "nc",
        -10.973204000749238
      ],
      [
        "atik",
        -10.976662468007541
      ],
      [
        "▁So",
        -10.97769757183662
      ],
      [
        "▁mkpụ",
        -10.983189919871359
      ],
      [
        "sọm",
        -10.991676278071978
      ],
      [
        "▁n'ọn",
        -10.994640384744487
      ],
      [
        "rit",
        -11.001329518820915
      ],
      [
        "▁n'ọg",
        -11.003939245299893
      ],
      [
        "▁Gi",
        -11.010412041441784
      ],
      [
        "nịa",
        -11.010536763772766
      ],
      [
        "ọdị",
        -11.011030539699341
      ],
      [
        "▁agbat",
        -11.013168435801564
      ],
      [
        "god",
        -11.013642595168294
      ],
      [
        "ọdi",
        -11.021105628441696
      ],
      [
        "▁Do",
        -11.023252206651152
      ],
      [
        "▁Ọr",
        -11.026155662361392
      ],
      [
        "20",
        -11.028291627841895
      ],
      [
        "unye",
        -11.037319809534521
      ],
      [
        "▁Ban",
        -11.040692401620518
      ],
      [
        "nde",
        -11.041187058354376
      ],
      [
        "han",
        -11.042449388799277
      ],
      [
        "ụm",
        -11.04286038962348
      ],
      [
        "ew",
        -11.043650032449369
      ],
      [
        "raịm",
        -11.043860216801134
      ],
      [
        "ghar",
        -11.049238490347767
      ],
      [
        "▁mgbat",
        -11.049598211137177
      ],
      [
        "▁emef",
        -11.054874921585284
      ],
      [
        "▁ịgh",
        -11.058482562858908
      ],
      [
        "▁Sl",
        -11.059792222062754
      ],
      [
        "ịpụ",
        -11.06032690307162
      ],
      [
        "-ama",
        -11.06076688874721
      ],
      [
        "shi",
        -11.060865690813342
      ],
      [
        "▁Mọ",
        -11.064545926469329
      ],
      [
        "ola,",
        -11.068036146261058
      ],
      [
        "ene",
        -11.07514235866435
      ],
      [
        "▁em",
        -11.077241048691585
      ],
      [
        "▁Br",
        -11.07824178741239
      ],
      [
        "ria",
        -11.081008396902186
      ],
      [
        "▁pa",
        -11.084061694640862
      ],
      [
        "▁ga-ag",
        -11.08772530121454
      ],
      [
        "ide",
        -11.099312556993597
      ],
      [
        "der",
        -11.10006235043996
      ],
      [
        "▁ịd",
        -11.102611263744341
      ],
      [
        "ziga",
        -11.105158550635158
      ],
      [
        "ni",
        -11.105805207738547
      ],
      [
        "sti",
        -11.10757427325711
      ],
      [
        "ja",
        -11.113338348311942
      ],
      [
        "no",
        -11.121893955354443
      ],
      [
        "16",
        -11.125981038129922
      ],
      [
        "▁kpu",
        -11.127531634721084
      ],
      [
        "sli",
        -11.12763050333333
      ],
      [
        "▁Sọ",
        -11.131488998236897
      ],
      [
        "her",
        -11.132919134358296
      ],
      [
        "▁(n",
        -11.134659669744815
      ],
      [
        "debe",
        -11.141169910379194
      ],
      [
        "▁nọọ",
        -11.143543842297642
      ],
      [
        "▁kpata",
        -11.144300648756957
      ],
      [
        "▁n'agbanyegh",
        -11.145100959647262
      ],
      [
        "▁mar",
        -11.148549755977944
      ],
      [
        "ez",
        -11.149458299971819
      ],
      [
        "ikwa",
        -11.156191530944717
      ],
      [
        "▁nwegh",
        -11.161531369763162
      ],
      [
        "esa",
        -11.161917376738225
      ],
      [
        "-i",
        -11.165435798692059
      ],
      [
        "▁hu",
        -11.173258199290082
      ],
      [
        "gan",
        -11.175490395899905
      ],
      [
        "▁emer",
        -11.175501019648921
      ],
      [
        "▁na-an",
        -11.176699919921285
      ],
      [
        "▁En",
        -11.178296545270573
      ],
      [
        "▁gbal",
        -11.179639792989242
      ],
      [
        "▁bụk",
        -11.182604474265634
      ],
      [
        "yak",
        -11.185541420379414
      ],
      [
        "ịl",
        -11.187399195244538
      ],
      [
        "ịla",
        -11.187745229061925
      ],
      [
        "osu",
        -11.19126326876136
      ],
      [
        "▁mmas",
        -11.19399169127367
      ],
      [
        "gre",
        -11.198586808035094
      ],
      [
        "tur",
        -11.201132883023794
      ],
      [
        "imiri",
        -11.203445767963721
      ],
      [
        "▁web",
        -11.203871255836807
      ],
      [
        "ejikọta",
        -11.204168904625186
      ],
      [
        "▁nno",
        -11.20587428109453
      ],
      [
        "▁na-es",
        -11.206103257362882
      ],
      [
        "▁n'ọh",
        -11.213600740646253
      ],
      [
        "▁na-ala",
        -11.216236017389338
      ],
      [
        "▁asa",
        -11.22755980851865
      ],
      [
        "uke",
        -11.234712110281057
      ],
      [
        "uja",
        -11.235843492259896
      ],
      [
        "oven",
        -11.239189165114576
      ],
      [
        "▁n'ịn",
        -11.24076729471805
      ],
      [
        "▁anagh",
        -11.244795682799035
      ],
      [
        "nland",
        -11.247190595028465
      ],
      [
        "▁anw",
        -11.267519060068253
      ],
      [
        "▁enweg",
        -11.274115624325269
      ],
      [
        "ini",
        -11.275245660291272
      ],
      [
        "m.",
        -11.275434751586136
      ],
      [
        "▁keu",
        -11.29285243682043
      ],
      [
        "▁eg",
        -11.29369081858156
      ],
      [
        "▁Any",
        -11.295723044909362
      ],
      [
        "egharị",
        -11.296740508003207
      ],
      [
        "ago",
        -11.30187629605607
      ],
      [
        "eet",
        -11.302498524419686
      ],
      [
        "amasị",
        -11.309582927886092
      ],
      [
        "ham",
        -11.310185732006914
      ],
      [
        "▁7",
        -11.314050309608627
      ],
      [
        "ren",
        -11.319990466169303
      ],
      [
        "pik",
        -11.330846333269639
      ],
      [
        "▁ikw",
        -11.334639035191227
      ],
      [
        "iga",
        -11.336595004210368
      ],
      [
        "▁bịar",
        -11.341662637079303
      ],
      [
        "eriri",
        -11.346675255697548
      ],
      [
        "▁Bri",
        -11.360883120426285
      ],
      [
        "▁ọf",
        -11.364533699523719
      ],
      [
        "epụ",
        -11.36463586320968
      ],
      [
        "kpu",
        -11.368018270899466
      ],
      [
        "▁On",
        -11.371727348190026
      ],
      [
        "▁ntụ",
        -11.38049765975953
      ],
      [
        "▁ig",
        -11.384360072858476
      ],
      [
        "▁An",
        -11.387235080423993
      ],
      [
        "hichap",
        -11.387523580403185
      ],
      [
        "ọgb",
        -11.387654396640798
      ],
      [
        "omume",
        -11.390289782339108
      ],
      [
        "ial",
        -11.391537314076508
      ],
      [
        "nka",
        -11.393167064849917
      ],
      [
        "▁hi",
        -11.400575125732113
      ],
      [
        "▁na-ech",
        -11.411444574657954
      ],
      [
        "▁ach",
        -11.411501602742193
      ],
      [
        "nning",
        -11.412486120931021
      ],
      [
        "-e",
        -11.419962772071122
      ],
      [
        "n̄ụr",
        -11.42845327262799
      ],
      [
        "▁emel",
        -11.432025573588971
      ],
      [
        "sịa",
        -11.444364036029112
      ],
      [
        "enye",
        -11.463870453241974
      ],
      [
        "kwụrụ",
        -11.465619082755136
      ],
      [
        "Ndị",
        -11.479088843420875
      ],
      [
        "sko",
        -11.485940692568489
      ],
      [
        "ssa",
        -11.489483282892424
      ],
      [
        "iv",
        -11.499783019868328
      ],
      [
        "▁anap",
        -11.50871724889311
      ],
      [
        "ma.",
        -11.508771963733535
      ],
      [
        "ụrị",
        -11.511497342159164
      ],
      [
        "▁ina",
        -11.511609410880574
      ],
      [
        "▁na-emep",
        -11.519441104265626
      ],
      [
        "evi",
        -11.529161714665324
      ],
      [
        "rchi",
        -11.535189810324663
      ],
      [
        "nị",
        -11.539242251435656
      ],
      [
        "▁nkw",
        -11.542900606204386
      ],
      [
        "▁Af",
        -11.544026615116493
      ],
      [
        "▁ntu",
        -11.550768179981043
      ],
      [
        "▁Ok",
        -11.554912468166366
      ],
      [
        "ọg",
        -11.56472661693471
      ],
      [
        "▁mech",
        -11.573065583567132
      ],
      [
        "itu",
        -11.577461641971723
      ],
      [
        "17",
        -11.58575826403619
      ],
      [
        "▁Bọ",
        -11.590140293425696
      ],
      [
        "ntị",
        -11.59600429598356
      ],
      [
        "ok",
        -11.608287293818748
      ],
      [
        "US",
        -11.61078012552147
      ],
      [
        "mere",
        -11.612537201650857
      ],
      [
        "▁ic",
        -11.613982326562066
      ],
      [
        "ub",
        -11.621663716016817
      ],
      [
        "mechara",
        -11.641667081382336
      ],
      [
        "ts",
        -11.644101548897481
      ],
      [
        "eme",
        -11.645566794399777
      ],
      [
        "ịt",
        -11.650102525325861
      ],
      [
        "▁ny",
        -11.652215605245392
      ],
      [
        "ston",
        -11.659212566387838
      ],
      [
        "nyaa",
        -11.659438124772596
      ],
      [
        "kap",
        -11.66245038323152
      ],
      [
        "gbọelu",
        -11.66701014856646
      ],
      [
        "▁be",
        -11.667571411509785
      ],
      [
        "-any",
        -11.668984631590437
      ],
      [
        "▁ndab",
        -11.67907378257403
      ],
      [
        "▁n'o",
        -11.682646928400036
      ],
      [
        "gbawa",
        -11.69288194833615
      ],
      [
        "i-",
        -11.696497144179244
      ],
      [
        "ịtụ",
        -11.717405033345452
      ],
      [
        "ook",
        -11.720171911993717
      ],
      [
        "iko",
        -11.723878065012075
      ],
      [
        "je",
        -11.727191308948193
      ],
      [
        "▁Ut",
        -11.731679254746819
      ],
      [
        "▁hazi",
        -11.739978654176678
      ],
      [
        "▁Nkw",
        -11.747060968022852
      ],
      [
        "fọ",
        -11.751210566358422
      ],
      [
        "osa",
        -11.75753476228759
      ],
      [
        "▁ọg",
        -11.773648270212615
      ],
      [
        "mpik",
        -11.774669495914523
      ],
      [
        "▁N'ak",
        -11.776543067732698
      ],
      [
        "mar",
        -11.783157821095797
      ],
      [
        "▁n’ik",
        -11.786114155094491
      ],
      [
        "lan",
        -11.789255171425665
      ],
      [
        "mon",
        -11.800565521067638
      ],
      [
        "Ch",
        -11.801034421836931
      ],
      [
        "nt",
        -11.812266881360593
      ],
      [
        "ibu",
        -11.816032001917232
      ],
      [
        "▁Gr",
        -11.819759563548873
      ],
      [
        "aba",
        -11.82069381666256
      ],
      [
        "▁inw",
        -11.82986898255363
      ],
      [
        "any",
        -11.832142217124705
      ],
      [
        "▁ik",
        -11.833994398748294
      ],
      [
        "ins",
        -11.835801213082297
      ],
      [
        "ow",
        -11.83927150026069
      ],
      [
        "▁nku",
        -11.84353590172637
      ],
      [
        "▁ga-et",
        -11.85291312980204
      ],
      [
        "▁ec",
        -11.855775212691634
      ],
      [
        "▁Họ",
        -11.869968282106587
      ],
      [
        "udo",
        -11.872711460427928
      ],
      [
        "▁Mb",
        -11.87479980494683
      ],
      [
        "▁met",
        -11.882871573031489
      ],
      [
        "did",
        -11.887056094740633
      ],
      [
        "ụdị",
        -11.902448885086555
      ],
      [
        "tụgharị",
        -11.908431273646222
      ],
      [
        "“",
        -11.908896104075845
      ],
      [
        "H",
        -11.908996104075847
      ],
      [
        "J",
        -11.909096104075847
      ],
      [
        "¥",
        -11.909196104075846
      ],
      [
        "̄",
        -11.909296104075846
      ],
      [
        "F",
        -11.909396104075846
      ],
      [
        "Ọ",
        -11.909496104075846
      ],
      [
        "ò",
        -11.909596104075845
      ],
      [
        "Q",
        -11.909696104075845
      ],
      [
        "Ụ",
        -11.909796104075847
      ],
      [
        "Y",
        -11.909896104075846
      ],
      [
        "Z",
        -11.909996104075846
      ],
      [
        "Ị",
        -11.910096104075846
      ],
      [
        "eda",
        -11.910096104075846
      ]
    ],
    "byte_fallback": false
  }
}