{
  "version": "1.0",
  "truncation": null,
  "padding": null,
  "added_tokens": [
    {
      "id": 0,
      "content": "<pad>",
      "single_word": false,
      "lstrip": false,
      "rstrip": false,
      "normalized": false,
      "special": true
    },
    {
      "id": 1,
      "content": "<unk>",
      "single_word": false,
      "lstrip": false,
      "rstrip": false,
      "normalized": false,
      "special": true
    },
    {
      "id": 2,
      "content": "<cls>",
      "single_word": false,
      "lstrip": false,
      "rstrip": false,
      "normalized": false,
      "special": true
    }
  ],
  "normalizer": {
    "type": "Sequence",
    "normalizers": [
      {
        "type": "Nmt"
      },
      {
        "type": "NFKC"
      },
      {
        "type": "Replace",
        "pattern": {
          "Regex": " {2,}"
        },
        "content": " "
      }
    ]
  },
  "pre_tokenizer": {
    "type": "Metaspace",
    "replacement": "▁",
    "prepend_scheme": "always",
    "split": true
  },
  "post_processor": {
    "type": "TemplateProcessing",
    "single": [
      {
        "SpecialToken": {
          "id": "<cls>",
          "type_id": 0
        }
      },
      {
        "Sequence": {
          "id": "A",
          "type_id": 0
        }
      }
    ],
    "pair": [
      {
        "Sequence": {
          "id": "A",
          "type_id": 0
        }
      },
      {
        "Sequence": {
          "id": "B",
          "type_id": 1
        }
      }
    ],
    "special_tokens": {
      "<cls>": {
        "id": "<cls>",
        "ids": [
          2
        ],
        "tokens": [
          "<cls>"
        ]
      }
    }
  },
  "decoder": {
    "type": "Metaspace",
    "replacement": "▁",
    "prepend_scheme": "always",
    "split": true
  },
  "model": {
    "type": "Unigram",
    "unk_id": 1,
    "vocab": [
      [
        "<pad>",
        0.0
      ],
      [
        "<unk>",
        0.0
      ],
      [
        "<cls>",
        0.0
      ],
      [
        "▁",
        -3.2948758394912545
      ],
      [
        "▁mu",
        -3.6376139425952054
      ],
      [
        ".",
        -3.6939319288859664
      ],
      [
        ",",
        -3.7148799344275103
      ],
      [
        "a",
        -3.8422749866009553
      ],
      [
        "▁ku",
        -4.24321731110666
      ],
      [
        "▁nga",
        -4.31714174992922
      ],
      [
        "o",
        -4.9196452858961806
      ],
      [
        "▁e",
        -4.98902271438835
      ],
      [
        "e",
        -5.031201564132329
      ],
      [
        "▁ne",
        -5.137830008082459
      ],
      [
        "wa",
        -5.206163209448271
      ],
      [
        "▁oku",
        -5.252070842895295
      ],
      [
        "▁b",
        -5.3127767680076365
      ],
      [
        "mu",
        -5.372755817672972
      ],
      [
        "▁ya",
        -5.381126114750484
      ],
      [
        "i",
        -5.477279131433333
      ],
      [
        "s",
        -5.566515439645507
      ],
      [
        "▁ba",
        -5.587934173442375
      ],
      [
        "za",
        -5.596054909481509
      ],
      [
        "▁o",
        -5.655137676746165
      ],
      [
        "▁aba",
        -5.66294572917206
      ],
      [
        "▁era",
        -5.6793874328157
      ],
      [
        "▁nti",
        -5.685559367053262
      ],
      [
        "▁oba",
        -5.754007445279725
      ],
      [
        "▁kya",
        -5.794548827105785
      ],
      [
        "sobola",
        -5.824807639019477
      ],
      [
        "la",
        -5.85405223312691
      ],
      [
        "wo",
        -5.88577368654166
      ],
      [
        "▁n",
        -5.888704097550345
      ],
      [
        "▁ebi",
        -5.910706002843868
      ],
      [
        "▁E",
        -5.912406243722549
      ],
      [
        "zi",
        -5.917348468049258
      ],
      [
        "ko",
        -5.917875857223385
      ],
      [
        "yo",
        -5.96930797202201
      ],
      [
        "ba",
        -5.974297605729511
      ],
      [
        "▁wa",
        -5.982243848758817
      ],
      [
        "ra",
        -5.992751252631848
      ],
      [
        "ka",
        -5.99518603924815
      ],
      [
        "▁k",
        -6.00376118741082
      ],
      [
        "u",
        -6.011170430002232
      ],
      [
        "ya",
        -6.018111722893527
      ],
      [
        "dde",
        -6.035039138362764
      ],
      [
        "na",
        -6.0745824850454575
      ],
      [
        "▁naye",
        -6.12110795454859
      ],
      [
        "nga",
        -6.128674074637253
      ],
      [
        "▁eri",
        -6.135190707406158
      ],
      [
        "▁ga",
        -6.1552591833435155
      ],
      [
        "y",
        -6.186216334204598
      ],
      [
        "▁obu",
        -6.194587498367732
      ],
      [
        "▁ki",
        -6.195729379277051
      ],
      [
        "era",
        -6.231253284706357
      ],
      [
        "▁okuva",
        -6.2560310956079626
      ],
      [
        "sa",
        -6.273892739205001
      ],
      [
        "li",
        -6.288308989985332
      ],
      [
        "▁ye",
        -6.293661511199089
      ],
      [
        "▁omu",
        -6.297955349029479
      ],
      [
        "▁Mu",
        -6.300062719660885
      ],
      [
        "n",
        -6.301128411941518
      ],
      [
        "▁bya",
        -6.303378577354067
      ],
      [
        "no",
        -6.323630783888891
      ],
      [
        "lina",
        -6.340699505242832
      ],
      [
        "bwa",
        -6.3473710578686315
      ],
      [
        ")",
        -6.354391465065924
      ],
      [
        "▁eki",
        -6.3627496010375
      ],
      [
        "l",
        -6.400399298129994
      ],
      [
        "▁bi",
        -6.421043874989742
      ],
      [
        "▁nsi",
        -6.423832469187013
      ],
      [
        "▁A",
        -6.455243639343869
      ],
      [
        "ga",
        -6.458786869619829
      ],
      [
        "ira",
        -6.4608463039975685
      ],
      [
        "▁gwa",
        -6.484148217309319
      ],
      [
        "▁lwa",
        -6.493278508407905
      ],
      [
        "▁bwa",
        -6.516636297725908
      ],
      [
        "genda",
        -6.5193782228201105
      ],
      [
        "▁a",
        -6.52554957522465
      ],
      [
        "▁buli",
        -6.55495431680606
      ],
      [
        "▁kwa",
        -6.557832214208149
      ],
      [
        "▁za",
        -6.574298631071235
      ],
      [
        "▁Ku",
        -6.578566088028557
      ],
      [
        "r",
        -6.581308382112832
      ],
      [
        "ibwa",
        -6.591751918702371
      ],
      [
        "k",
        -6.625623486439051
      ],
      [
        "▁S",
        -6.653879760889501
      ],
      [
        "”",
        -6.691156570037316
      ],
      [
        "ze",
        -6.69213663552585
      ],
      [
        "▁g",
        -6.694093454707771
      ],
      [
        "jja",
        -6.698605186920403
      ],
      [
        "▁abantu",
        -6.70900891296114
      ],
      [
        "▁ezi",
        -6.7147700725279895
      ],
      [
        "▁(",
        -6.719099291229295
      ],
      [
        "ate",
        -6.728069761182759
      ],
      [
        "▁O",
        -6.741508944135683
      ],
      [
        "ta",
        -6.74221172489068
      ],
      [
        "ngeri",
        -6.7542667398656615
      ],
      [
        "ro",
        -6.760288951172379
      ],
      [
        "▁bwe",
        -6.773424689138436
      ],
      [
        "▁bu",
        -6.773663089107235
      ],
      [
        "▁yonna",
        -6.780526920525418
      ],
      [
        "▁z",
        -6.786437767146161
      ],
      [
        "singa",
        -6.8099217485826795
      ],
      [
        "▁B",
        -6.812585814637149
      ],
      [
        "▁eya",
        -6.8196965456139
      ],
      [
        "ala",
        -6.829352922385528
      ],
      [
        "▁Aba",
        -6.8346725680752645
      ],
      [
        "ali",
        -6.839556599925803
      ],
      [
        "ana",
        -6.84267695426378
      ],
      [
        "we",
        -6.8755411525728
      ],
      [
        "nyonyi",
        -6.881667076693627
      ],
      [
        "▁en",
        -6.882546222565023
      ],
      [
        "▁ekya",
        -6.888728948709879
      ],
      [
        "va",
        -6.893169215384164
      ],
      [
        "awo",
        -6.899908979584566
      ],
      [
        "▁Oku",
        -6.903180900280663
      ],
      [
        "▁zi",
        -6.906598543482697
      ],
      [
        "▁ka",
        -6.909834568970516
      ],
      [
        "▁ensi",
        -6.91784469844262
      ],
      [
        "▁“",
        -6.919600237135533
      ],
      [
        "▁ama",
        -6.919743396410567
      ],
      [
        "nya",
        -6.9368802321902985
      ],
      [
        "▁lya",
        -6.9530313069385095
      ],
      [
        "ki",
        -6.959055673047781
      ],
      [
        "eera",
        -6.967580300330131
      ],
      [
        "▁Nga",
        -6.9898278984728
      ],
      [
        "▁aka",
        -6.990939028254011
      ],
      [
        "▁kye",
        -6.992137127378781
      ],
      [
        "▁yali",
        -7.0082301394906565
      ],
      [
        "▁l",
        -7.019790476509433
      ],
      [
        "▁G",
        -7.024005090994054
      ],
      [
        "b",
        -7.031423104621915
      ],
      [
        "t",
        -7.034653133038264
      ],
      [
        "g",
        -7.044522284078152
      ],
      [
        "m",
        -7.047658689684651
      ],
      [
        "lo",
        -7.05032505951241
      ],
      [
        "▁K",
        -7.055070518254052
      ],
      [
        "d",
        -7.065387364906337
      ],
      [
        "teeka",
        -7.080429528265038
      ],
      [
        "si",
        -7.084937386242551
      ],
      [
        "er",
        -7.103258269554983
      ],
      [
        "▁eb",
        -7.105675934693751
      ],
      [
        "de",
        -7.109673216533715
      ],
      [
        "▁okusinga",
        -7.122660383128851
      ],
      [
        "ku",
        -7.122764293762607
      ],
      [
        "ayo",
        -7.128179407703042
      ],
      [
        "▁ma",
        -7.129316895790083
      ],
      [
        "ma",
        -7.132375631462467
      ],
      [
        "▁okubeera",
        -7.136947436198686
      ],
      [
        "se",
        -7.144375491894496
      ],
      [
        "'",
        -7.157501037971429
      ],
      [
        "nyo",
        -7.161636005609956
      ],
      [
        "ereza",
        -7.167644631137989
      ],
      [
        "amu",
        -7.168028988559035
      ],
      [
        "tongole",
        -7.174233269241583
      ],
      [
        "gala",
        -7.181039814014287
      ],
      [
        "funa",
        -7.18424386095414
      ],
      [
        "▁ebya",
        -7.204493918301721
      ],
      [
        "yi",
        -7.205690083578798
      ],
      [
        "yuma",
        -7.206563114361186
      ],
      [
        "le",
        -7.2153871223789015
      ],
      [
        "a,",
        -7.219403991078558
      ],
      [
        "▁Omu",
        -7.225693411957677
      ],
      [
        "kibuga",
        -7.230546908687657
      ],
      [
        "bi",
        -7.232746059497779
      ],
      [
        "abwe",
        -7.237445164531057
      ],
      [
        "uka",
        -7.254712387450175
      ],
      [
        "gira",
        -7.257027075500927
      ],
      [
        "ye",
        -7.278404991682994
      ],
      [
        "▁Bu",
        -7.281373156589945
      ],
      [
        "▁na",
        -7.28626198916003
      ],
      [
        "undi",
        -7.287167274077742
      ],
      [
        "ng",
        -7.289154492470212
      ],
      [
        "▁kwe",
        -7.2893474655689685
      ],
      [
        "vu",
        -7.292058218695079
      ],
      [
        "te",
        -7.294952595707645
      ],
      [
        "mpi",
        -7.320756395805719
      ],
      [
        "limu",
        -7.322590206811929
      ],
      [
        "▁P",
        -7.322615285960744
      ],
      [
        "▁gavumenti",
        -7.323134950434049
      ],
      [
        "bula",
        -7.325320375721784
      ],
      [
        "fo",
        -7.3271405458391365
      ],
      [
        "h",
        -7.329481174602696
      ],
      [
        "liwo",
        -7.3334233786661756
      ],
      [
        "▁ekifo",
        -7.333717247741782
      ],
      [
        "itundu",
        -7.334196475386019
      ],
      [
        "ebwa",
        -7.343360527967106
      ],
      [
        "▁ab",
        -7.343966944086194
      ],
      [
        "▁W",
        -7.345698241612068
      ],
      [
        "kola",
        -7.347569684836235
      ],
      [
        "▁okwe",
        -7.347999032219633
      ],
      [
        "▁C",
        -7.350879400056794
      ],
      [
        "▁ek",
        -7.354272862956412
      ],
      [
        "▁olu",
        -7.362616994057868
      ],
      [
        "▁ob",
        -7.36936019100145
      ],
      [
        "dwa",
        -7.371111465219822
      ],
      [
        "tu",
        -7.386805102230756
      ],
      [
        "ri",
        -7.3946234901467305
      ],
      [
        "fu",
        -7.396459386352992
      ],
      [
        "▁gwe",
        -7.397090725293494
      ],
      [
        "nsi",
        -7.399182287715865
      ],
      [
        "▁mwe",
        -7.401225723433025
      ],
      [
        "mazzi",
        -7.40365265581363
      ],
      [
        "▁awo",
        -7.405411677678076
      ],
      [
        "▁ddala",
        -7.410905055879753
      ],
      [
        "▁Ebi",
        -7.412185847814805
      ],
      [
        "▁kino",
        -7.414678822792025
      ],
      [
        "▁emi",
        -7.419002162278162
      ],
      [
        "nda",
        -7.421333716517897
      ],
      [
        "lu",
        -7.421741678714868
      ],
      [
        "sooka",
        -7.427919791502665
      ],
      [
        "atte",
        -7.428152011805556
      ],
      [
        "▁m",
        -7.435763754239966
      ],
      [
        "bu",
        -7.439395476225167
      ],
      [
        "lwa",
        -7.44660092225202
      ],
      [
        "▁okuba",
        -7.450253565203619
      ],
      [
        "isa",
        -7.450995423361528
      ],
      [
        "▁eby",
        -7.451330385580688
      ],
      [
        "w",
        -7.462199921935074
      ],
      [
        "▁n'",
        -7.46425696017782
      ],
      [
        "ola",
        -7.469000953420341
      ],
      [
        "a.",
        -7.4698711088410015
      ],
      [
        "al",
        -7.482107920434245
      ],
      [
        "aba",
        -7.482839351824043
      ],
      [
        "▁oluvan",
        -7.493907262855355
      ],
      [
        "binja",
        -7.495741544575807
      ],
      [
        "▁Eki",
        -7.49656941594027
      ],
      [
        "▁ebirala",
        -7.496681561730133
      ],
      [
        "▁ebintu",
        -7.497162889985223
      ],
      [
        "▁wakati",
        -7.497606822988068
      ],
      [
        "kifo",
        -7.499161086766399
      ],
      [
        "kulu",
        -7.502891503549581
      ],
      [
        "▁okufuna",
        -7.503185883860645
      ],
      [
        "▁T",
        -7.5178207408811755
      ],
      [
        "gga",
        -7.524910113489603
      ],
      [
        "asa",
        -7.528705158198603
      ],
      [
        "gi",
        -7.528724145177614
      ],
      [
        "di",
        -7.536211513498483
      ],
      [
        "ntu",
        -7.536433544397665
      ],
      [
        "▁En",
        -7.548460745219592
      ],
      [
        "▁em",
        -7.549579752073477
      ],
      [
        "ina",
        -7.5617911366527775
      ],
      [
        "dda",
        -7.56661911523646
      ],
      [
        "kolebwa",
        -7.566953817752937
      ],
      [
        "ami",
        -7.567116754215315
      ],
      [
        "▁lu",
        -7.5674483264451355
      ],
      [
        "▁ok",
        -7.571220291928253
      ],
      [
        "▁n’ebi",
        -7.576729988653015
      ],
      [
        "on",
        -7.578267051941592
      ],
      [
        "▁ze",
        -7.584556175581804
      ],
      [
        "▁n’",
        -7.589172752880213
      ],
      [
        "en",
        -7.58961043370105
      ],
      [
        "▁olwa",
        -7.5898133999197
      ],
      [
        ":",
        -7.593840579547379
      ],
      [
        "▁bulungi",
        -7.594983312795429
      ],
      [
        "▁okumala",
        -7.597177480241497
      ],
      [
        "▁U",
        -7.602734464576425
      ],
      [
        "tundu",
        -7.604895114368777
      ],
      [
        "▁mbeera",
        -7.606338549071792
      ],
      [
        "ti",
        -7.606932913812846
      ],
      [
        "rina",
        -7.609375338720705
      ],
      [
        "▁F",
        -7.615864940464345
      ],
      [
        "ota",
        -7.620298321638495
      ],
      [
        "▁w",
        -7.621415407244596
      ],
      [
        "to",
        -7.624380023206513
      ],
      [
        "mbi",
        -7.624632216411494
      ],
      [
        "talo",
        -7.625804406487498
      ],
      [
        "▁bitundu",
        -7.625875210238894
      ],
      [
        "motoka",
        -7.626973158243748
      ],
      [
        "o.",
        -7.631812993467762
      ],
      [
        "bulijjo",
        -7.631935651485357
      ],
      [
        "beera",
        -7.6336187477427355
      ],
      [
        "▁n’oku",
        -7.634950172805967
      ],
      [
        "olo",
        -7.637907329887684
      ],
      [
        "tibwa",
        -7.648280076595757
      ],
      [
        "satu",
        -7.649030961516781
      ],
      [
        "▁te",
        -7.650026836408562
      ],
      [
        "solo",
        -7.651434077395969
      ],
      [
        "ddwa",
        -7.656706984234413
      ],
      [
        "▁y",
        -7.661162712242558
      ],
      [
        "be",
        -7.664783588426711
      ],
      [
        "wadde",
        -7.667369242873314
      ],
      [
        "▁obwa",
        -7.6689812286273025
      ],
      [
        "yin",
        -7.671557217651825
      ],
      [
        "dd",
        -7.672365967091563
      ],
      [
        "▁bw",
        -7.672516242012458
      ],
      [
        "kuba",
        -7.675154560119184
      ],
      [
        "eza",
        -7.678538838026039
      ],
      [
        "udde",
        -7.684582843424338
      ],
      [
        "nza",
        -7.691265521265054
      ],
      [
        "go",
        -7.695750341089454
      ],
      [
        "▁okusa",
        -7.698944827212024
      ],
      [
        "land",
        -7.704237795417978
      ],
      [
        "▁n’e",
        -7.704713998420036
      ],
      [
        "▁Newankubadde",
        -7.704971691544919
      ],
      [
        "ino",
        -7.706374881148699
      ],
      [
        "kka",
        -7.707276997178425
      ],
      [
        "an",
        -7.70865584750236
      ],
      [
        "▁kati",
        -7.709958671422103
      ],
      [
        "ita",
        -7.710776876915363
      ],
      [
        "▁L",
        -7.7141006111893535
      ],
      [
        "emyaka",
        -7.716668349120328
      ],
      [
        "▁Bwo",
        -7.722710805079884
      ],
      [
        "ulu",
        -7.724923117161962
      ],
      [
        "▁t",
        -7.726140448912901
      ],
      [
        "▁engeri",
        -7.726876765859943
      ],
      [
        "▁by",
        -7.731283317914489
      ],
      [
        "kubo",
        -7.7339690842748166
      ],
      [
        "bwe",
        -7.734310580718308
      ],
      [
        "iddwa",
        -7.739881637465332
      ],
      [
        "ing",
        -7.741978198388594
      ],
      [
        "p",
        -7.744498534244774
      ],
      [
        "ch",
        -7.7459084160049905
      ],
      [
        "▁ky",
        -7.74657181442647
      ],
      [
        "ako",
        -7.74776550379635
      ],
      [
        "▁Ki",
        -7.752710313957047
      ],
      [
        "ne",
        -7.756312491591773
      ],
      [
        "ambula",
        -7.756960252936587
      ],
      [
        "▁emir",
        -7.758089097730524
      ],
      [
        "▁Ta",
        -7.76119575760157
      ],
      [
        "▁nyo",
        -7.76361503796853
      ],
      [
        "▁eky",
        -7.765894802851298
      ],
      [
        "▁okusi",
        -7.768668152237598
      ],
      [
        "▁kibuga",
        -7.770326002871986
      ],
      [
        "▁ebimu",
        -7.781995319796808
      ],
      [
        "▁we",
        -7.792272253434021
      ],
      [
        "lawo",
        -7.7928300273535065
      ],
      [
        "▁gya",
        -7.798463547637371
      ],
      [
        "yali",
        -7.80357939253955
      ],
      [
        "badde",
        -7.815994760524976
      ],
      [
        "▁ja",
        -7.820675975161619
      ],
      [
        "alo",
        -7.821536900370884
      ],
      [
        "▁ez",
        -7.821863271133617
      ],
      [
        "yisa",
        -7.824585277835245
      ],
      [
        "myaka",
        -7.826739142122699
      ],
      [
        "abaka",
        -7.834614784303291
      ],
      [
        "▁awamu",
        -7.834883397972304
      ],
      [
        "▁mpaka",
        -7.835367521482817
      ],
      [
        "▁yagamba",
        -7.8384898949711665
      ],
      [
        "enti",
        -7.8402789459018924
      ],
      [
        "tuuka",
        -7.846131267844122
      ],
      [
        "▁Ab",
        -7.847532114222798
      ],
      [
        "▁mi",
        -7.8541464699464125
      ],
      [
        "▁M",
        -7.855551758395898
      ],
      [
        "▁bis",
        -7.860334544473538
      ],
      [
        "kolagana",
        -7.862441907147512
      ],
      [
        "▁okus",
        -7.866131448238427
      ],
      [
        "kyasinze",
        -7.869714923130889
      ],
      [
        "▁okuyingi",
        -7.871463399548439
      ],
      [
        "sula",
        -7.872963041244356
      ],
      [
        "tambula",
        -7.8732437929067185
      ],
      [
        "▁egy",
        -7.874032143220271
      ],
      [
        "in",
        -7.874412649298868
      ],
      [
        "kulonda",
        -7.875751719895094
      ],
      [
        "zany",
        -7.876132797115389
      ],
      [
        "da",
        -7.877619377178806
      ],
      [
        "▁H",
        -7.880578130830344
      ],
      [
        "▁wamu",
        -7.891338101288506
      ],
      [
        "nyanja",
        -7.892548475456069
      ],
      [
        "enya",
        -7.896086862479188
      ],
      [
        "▁lwe",
        -7.8962681834427535
      ],
      [
        "uzi",
        -7.89691368868708
      ],
      [
        "zza",
        -7.902696146000317
      ],
      [
        "ni",
        -7.903298402154355
      ],
      [
        "iiko",
        -7.904748389230456
      ],
      [
        "abantu",
        -7.904755724558343
      ],
      [
        "mala",
        -7.907255376314136
      ],
      [
        "nji",
        -7.909106363092951
      ],
      [
        "nnyanja",
        -7.911328296048892
      ],
      [
        "o,",
        -7.912368278538967
      ],
      [
        "adde",
        -7.914503530689092
      ],
      [
        "D",
        -7.919017760699319
      ],
      [
        "zaamu",
        -7.928490521471942
      ],
      [
        "ezi",
        -7.931603825227879
      ],
      [
        "nyi",
        -7.931721186003394
      ],
      [
        "ggwanga",
        -7.933490810967825
      ],
      [
        "▁n’o",
        -7.9338571877617765
      ],
      [
        "’",
        -7.934524711406077
      ],
      [
        "▁om",
        -7.934786704976641
      ],
      [
        "kyo",
        -7.935066057295431
      ],
      [
        "▁wo",
        -7.935640118040823
      ],
      [
        "kawo",
        -7.940399030932201
      ],
      [
        "▁La",
        -7.944136163252822
      ],
      [
        "umu",
        -7.948909152721562
      ],
      [
        "manyi",
        -7.9597395809430225
      ],
      [
        "kiriza",
        -7.960061263844046
      ],
      [
        "▁Ba",
        -7.961831326260415
      ],
      [
        "tambulira",
        -7.96242941229721
      ],
      [
        "iza",
        -7.965082559536228
      ],
      [
        "nene",
        -7.9670458710335845
      ],
      [
        "▁okut",
        -7.968471253837198
      ],
      [
        "▁Al",
        -7.969408261015113
      ],
      [
        "kadde",
        -7.971212858449443
      ],
      [
        ";",
        -7.972808833567171
      ],
      [
        "▁Australia",
        -7.9728126121519685
      ],
      [
        "▁Africa",
        -7.972819778594392
      ],
      [
        "▁Amerika",
        -7.973127926679506
      ],
      [
        "▁obunene",
        -7.974144694728026
      ],
      [
        "▁abalala",
        -7.975418006745797
      ],
      [
        "kubanga",
        -7.9758483736603285
      ],
      [
        "▁obulwadde",
        -7.97616045684678
      ],
      [
        "▁ensozi",
        -7.976724750489371
      ],
      [
        "wendo",
        -7.977324360233577
      ],
      [
        "zibu",
        -7.9786439123390185
      ],
      [
        "▁emp",
        -7.979345472540895
      ],
      [
        "▁bingi",
        -7.98006862436091
      ],
      [
        "▁obutono",
        -7.980156991219579
      ],
      [
        "▁okulaba",
        -7.980341868446716
      ],
      [
        "▁emabega",
        -7.98127792020962
      ],
      [
        "ekumi",
        -7.98303264045566
      ],
      [
        "wezi",
        -7.98508668681968
      ],
      [
        "▁abo",
        -7.990996501441436
      ],
      [
        "▁Ma",
        -7.991543652855115
      ],
      [
        "kibiina",
        -7.991757641685082
      ],
      [
        "▁j",
        -8.000494482550474
      ],
      [
        "▁kimu",
        -8.008537041515343
      ],
      [
        "ava",
        -8.011065549846705
      ],
      [
        "ula",
        -8.011434350641213
      ],
      [
        "▁ekiro",
        -8.01170860313688
      ],
      [
        "▁emu",
        -8.01331495675578
      ],
      [
        "iira",
        -8.018681349547025
      ],
      [
        "gatta",
        -8.018893633817669
      ],
      [
        "mwaka",
        -8.019415963646622
      ],
      [
        "▁19",
        -8.020132779515082
      ],
      [
        "▁I",
        -8.023792827416047
      ],
      [
        "ndi",
        -8.029379540807549
      ],
      [
        "taano",
        -8.036395597545472
      ],
      [
        "7",
        -8.037562984665385
      ],
      [
        "ago",
        -8.038630158504274
      ],
      [
        "ika",
        -8.0435376443437
      ],
      [
        "mba",
        -8.049913774525848
      ],
      [
        "do",
        -8.05190111666199
      ],
      [
        "buli",
        -8.05260792876188
      ],
      [
        "jje",
        -8.054650312364815
      ],
      [
        "zanyi",
        -8.056093839894327
      ],
      [
        "▁J",
        -8.057098215448583
      ],
      [
        "ko.",
        -8.05905713311264
      ],
      [
        "tono",
        -8.059417482295297
      ],
      [
        "biri",
        -8.060210738356156
      ],
      [
        "lira",
        -8.066837585667512
      ],
      [
        "ilo",
        -8.067073812109808
      ],
      [
        "▁Na",
        -8.074045697158468
      ],
      [
        "nywa",
        -8.07589856982316
      ],
      [
        "ey",
        -8.076695262444783
      ],
      [
        "▁s",
        -8.080702054286736
      ],
      [
        "ic",
        -8.081572948501202
      ],
      [
        "id",
        -8.081806086526361
      ],
      [
        "G",
        -8.081941329878589
      ],
      [
        "kozes",
        -8.082271129395426
      ],
      [
        "C",
        -8.083036394837059
      ],
      [
        "ananyi",
        -8.085381098034137
      ],
      [
        "imu",
        -8.086903614258407
      ],
      [
        "f",
        -8.087427240920906
      ],
      [
        "ifo",
        -8.091325400090867
      ],
      [
        "z",
        -8.092716316870591
      ],
      [
        "▁Ro",
        -8.093970296502249
      ],
      [
        "mbe",
        -8.096805852587016
      ],
      [
        "oolo",
        -8.097665899032302
      ],
      [
        "vuga",
        -8.10057826064022
      ],
      [
        "▁ey",
        -8.106084631985956
      ],
      [
        "▁gu",
        -8.110873101225934
      ],
      [
        "kumi",
        -8.111831498491773
      ],
      [
        "▁ak",
        -8.113815537001981
      ],
      [
        "▁bye",
        -8.115072552605033
      ],
      [
        "om",
        -8.115192938010793
      ],
      [
        "zibwa",
        -8.117853967771456
      ],
      [
        "▁gye",
        -8.11836441711856
      ],
      [
        "▁n’aba",
        -8.118420206751463
      ],
      [
        "utalo",
        -8.12022296050859
      ],
      [
        "ff",
        -8.122186303416186
      ],
      [
        "▁egi",
        -8.124381058344543
      ],
      [
        "owooz",
        -8.128477890630778
      ],
      [
        "kya",
        -8.134346070607887
      ],
      [
        "▁5",
        -8.134460302818729
      ],
      [
        "irira",
        -8.135617816428038
      ],
      [
        "▁kis",
        -8.137811089357033
      ],
      [
        "▁John",
        -8.139476995390185
      ],
      [
        "papula",
        -8.139751614268567
      ],
      [
        "▁Bugirimaani",
        -8.139941448341274
      ],
      [
        "wanvu",
        -8.140946895993732
      ],
      [
        "▁ekikyasinze",
        -8.141060259583096
      ],
      [
        "yagambye",
        -8.14207555995675
      ],
      [
        "iriza",
        -8.142929664568232
      ],
      [
        "yita",
        -8.143278686060556
      ],
      [
        "▁ewa",
        -8.144524645692538
      ],
      [
        "P",
        -8.144676565378797
      ],
      [
        "▁bonna",
        -8.144968323749383
      ],
      [
        "▁obuta",
        -8.145522234652455
      ],
      [
        "▁ko",
        -8.147950453854186
      ],
      [
        "▁ebisinga",
        -8.148876496681371
      ],
      [
        "8",
        -8.151063565971047
      ],
      [
        "outh",
        -8.152300363969776
      ],
      [
        "uko",
        -8.153567001673057
      ],
      [
        "use",
        -8.153803893483715
      ],
      [
        "gaba",
        -8.154368262146061
      ],
      [
        "zzi",
        -8.154423549321653
      ],
      [
        "▁munsi",
        -8.155100677809168
      ],
      [
        "▁muzira",
        -8.155944328832778
      ],
      [
        "v",
        -8.157341470094659
      ],
      [
        "sh",
        -8.158692378189635
      ],
      [
        "ato",
        -8.162788008386027
      ],
      [
        "gwa",
        -8.16320924299797
      ],
      [
        "byobulamu",
        -8.16339874272117
      ],
      [
        "ha",
        -8.167173054689165
      ],
      [
        "▁Ne",
        -8.169806876793988
      ],
      [
        "▁Wa",
        -8.169856705770407
      ],
      [
        "▁enyo",
        -8.17194852510921
      ],
      [
        "umba",
        -8.172022294178195
      ],
      [
        "ler",
        -8.176182903670334
      ],
      [
        "▁N",
        -8.180535543668544
      ],
      [
        "▁mambuka",
        -8.181342582680141
      ],
      [
        "▁ng",
        -8.183928849298436
      ],
      [
        "ambi",
        -8.185000429832378
      ],
      [
        "▁kw",
        -8.185768920878672
      ],
      [
        "bo",
        -8.185792912201954
      ],
      [
        "▁to",
        -8.188202085857839
      ],
      [
        "▁ebis",
        -8.188527429437649
      ],
      [
        "▁Pa",
        -8.190755277408234
      ],
      [
        "c",
        -8.192564836590485
      ],
      [
        "bwaako",
        -8.194287025057731
      ],
      [
        "▁byo",
        -8.19745759181726
      ],
      [
        "anya",
        -8.200553117346546
      ],
      [
        "▁teba",
        -8.200782107948317
      ],
      [
        ",000",
        -8.203303513900341
      ],
      [
        "▁omup",
        -8.205009432122925
      ],
      [
        "ter",
        -8.206062950692386
      ],
      [
        "▁be",
        -8.208732564906803
      ],
      [
        "aka",
        -8.21099684026614
      ],
      [
        "wale",
        -8.212335897151062
      ],
      [
        "▁okw",
        -8.218174616892966
      ],
      [
        "▁ebyo",
        -8.218733485624556
      ],
      [
        "manyidwa",
        -8.2200859915211
      ],
      [
        "inga",
        -8.220242775852627
      ],
      [
        "que",
        -8.220913245963803
      ],
      [
        "▁Sh",
        -8.221317992398095
      ],
      [
        "mi",
        -8.225979030013455
      ],
      [
        "▁gw",
        -8.231528213185262
      ],
      [
        "▁y’",
        -8.236276506333901
      ],
      [
        "▁Pr",
        -8.236981773359116
      ],
      [
        "okka",
        -8.238140685313722
      ],
      [
        "W",
        -8.24220016971058
      ],
      [
        "▁zo",
        -8.243029531888604
      ],
      [
        "▁gy",
        -8.243039687418086
      ],
      [
        "idwa",
        -8.245383756215357
      ],
      [
        "ere",
        -8.250409927502556
      ],
      [
        "ono",
        -8.251134902029374
      ],
      [
        "▁teb",
        -8.25228336244797
      ],
      [
        "▁gyo",
        -8.252527456197452
      ],
      [
        "enda",
        -8.253985884169518
      ],
      [
        "angu",
        -8.254785349696729
      ],
      [
        "-",
        -8.256240242534393
      ],
      [
        "▁ebiri",
        -8.261042982344996
      ],
      [
        "lambuzi",
        -8.262957192397938
      ],
      [
        "▁Kin",
        -8.265935460236236
      ],
      [
        "▁bali",
        -8.269049930283938
      ],
      [
        "▁Ja",
        -8.26991085569545
      ],
      [
        "aga",
        -8.275564979157526
      ],
      [
        "waka",
        -8.279937640581023
      ],
      [
        "S",
        -8.281036332631512
      ],
      [
        "60",
        -8.281776683335256
      ],
      [
        "leeta",
        -8.285545083964724
      ],
      [
        "bukiika",
        -8.288231203444756
      ],
      [
        "mambuka",
        -8.292147339905643
      ],
      [
        "onna",
        -8.292350388692547
      ],
      [
        "i,",
        -8.298028543447511
      ],
      [
        "▁lw",
        -8.299647934140708
      ],
      [
        "lirwa",
        -8.303671805972499
      ],
      [
        "yiga",
        -8.304450742787038
      ],
      [
        "▁gw'",
        -8.306511948935762
      ],
      [
        "2",
        -8.307590935338196
      ],
      [
        "▁bag",
        -8.307723859113208
      ],
      [
        "keber",
        -8.311638512057241
      ],
      [
        "▁balin",
        -8.312354039027282
      ],
      [
        "or",
        -8.313001440026198
      ],
      [
        "la.",
        -8.313804896447095
      ],
      [
        "eb",
        -8.31613265739551
      ],
      [
        "tiimu",
        -8.316373729446141
      ],
      [
        "▁yo",
        -8.317314561935309
      ],
      [
        "▁awa",
        -8.31804670537006
      ],
      [
        "ce",
        -8.318174427709323
      ],
      [
        "asi",
        -8.320867246544116
      ],
      [
        "▁ebyoku",
        -8.322935635758876
      ],
      [
        "sanga",
        -8.324836878486845
      ],
      [
        "▁Eb",
        -8.325423509989147
      ],
      [
        "▁ol",
        -8.326373999323545
      ],
      [
        "▁no",
        -8.330555728866427
      ],
      [
        "ikiti",
        -8.331648014368746
      ],
      [
        "kwata",
        -8.332691794805353
      ],
      [
        "gambo",
        -8.333101544001904
      ],
      [
        "dwaliro",
        -8.3373196506995
      ],
      [
        "▁neba",
        -8.338719291189484
      ],
      [
        "kamalirizo",
        -8.339511197982235
      ],
      [
        "▁sizoni",
        -8.339519254540514
      ],
      [
        "tendeke",
        -8.340118605415888
      ],
      [
        "▁(N",
        -8.34056081367679
      ],
      [
        "▁State",
        -8.34059409355221
      ],
      [
        "▁New",
        -8.340903248251761
      ],
      [
        "▁visa",
        -8.341306445498748
      ],
      [
        "▁obulungi",
        -8.34173182455195
      ],
      [
        "▁endala",
        -8.342164561613837
      ],
      [
        "▁mingi",
        -8.342930462842006
      ],
      [
        "kyuusa",
        -8.343566765946928
      ],
      [
        "▁ensalo",
        -8.343616402177414
      ],
      [
        "▁guno",
        -8.34384722507482
      ],
      [
        "▁tewali",
        -8.344999174417927
      ],
      [
        "▁ssemayanja",
        -8.345009031839885
      ],
      [
        "lunaku",
        -8.34612352875035
      ],
      [
        "▁maaso",
        -8.346863528710442
      ],
      [
        "▁waggulu",
        -8.34767681755995
      ],
      [
        "▁li",
        -8.348427595004893
      ],
      [
        "▁Japan",
        -8.348821207507523
      ],
      [
        "▁eno",
        -8.349664780908986
      ],
      [
        "▁kkumi",
        -8.349679466680076
      ],
      [
        "▁tebi",
        -8.35081277049915
      ],
      [
        "▁ski",
        -8.351046319969608
      ],
      [
        "▁okugeza",
        -8.35181785323075
      ],
      [
        "▁Ra",
        -8.351875832430935
      ],
      [
        "kozesebwa",
        -8.352389388014934
      ],
      [
        "▁pule",
        -8.35305106703896
      ],
      [
        "uuka",
        -8.354510123072425
      ],
      [
        "▁emotoka",
        -8.35499031396786
      ],
      [
        "▁ogwa",
        -8.355035015598785
      ],
      [
        "agala",
        -8.356031436428324
      ],
      [
        "▁abalambuzi",
        -8.356041823316435
      ],
      [
        "yise",
        -8.356118413607932
      ],
      [
        "menti",
        -8.3565192103216
      ],
      [
        "▁n'oku",
        -8.356898436261712
      ],
      [
        "▁1",
        -8.357433148830285
      ],
      [
        "4",
        -8.357962367379418
      ],
      [
        "gana",
        -8.358422237769469
      ],
      [
        "amawanga",
        -8.359771872194136
      ],
      [
        "▁kir",
        -8.359902015255035
      ],
      [
        "▁musanvu",
        -8.359951256877428
      ],
      [
        "▁yabadde",
        -8.360172897105658
      ],
      [
        "▁Lo",
        -8.360726004000039
      ],
      [
        "▁ky’e",
        -8.3612905111506
      ],
      [
        "▁semayanja",
        -8.362961762812635
      ],
      [
        "bera",
        -8.363742835108345
      ],
      [
        "irwa",
        -8.364858384346892
      ],
      [
        "ngi",
        -8.367023295967412
      ],
      [
        "0",
        -8.367117356486764
      ],
      [
        "▁Rom",
        -8.367550663453025
      ],
      [
        "▁yabwe",
        -8.367579433032875
      ],
      [
        "nite",
        -8.36819968698705
      ],
      [
        "ero",
        -8.371085460335706
      ],
      [
        "▁se",
        -8.37180719985306
      ],
      [
        "fa",
        -8.378387890815672
      ],
      [
        "▁bantu",
        -8.379099450056161
      ],
      [
        "paka",
        -8.37947456538643
      ],
      [
        "omusanvu",
        -8.379516159290155
      ],
      [
        "endera",
        -8.380568439603671
      ],
      [
        "ong",
        -8.382003121368156
      ],
      [
        "▁p",
        -8.382752828278342
      ],
      [
        "sale",
        -8.383855995155198
      ],
      [
        "ona",
        -8.383862025995835
      ],
      [
        "▁kil",
        -8.385468115722327
      ],
      [
        "liko",
        -8.388728830993852
      ],
      [
        "▁mizan",
        -8.389195746802146
      ],
      [
        "▁byeb",
        -8.389751555575417
      ],
      [
        "▁D",
        -8.389945744382487
      ],
      [
        "dala",
        -8.392326215454263
      ],
      [
        "yamba",
        -8.392868065055449
      ],
      [
        "rwa",
        -8.394475977092947
      ],
      [
        "▁Sch",
        -8.3947772246877
      ],
      [
        "ja",
        -8.395235849151108
      ],
      [
        "▁201",
        -8.398072307637085
      ],
      [
        "enyi",
        -8.398602665904214
      ],
      [
        "ama",
        -8.400298319798853
      ],
      [
        "kyala",
        -8.401737673450347
      ],
      [
        "▁baba",
        -8.402924536334812
      ],
      [
        "▁18",
        -8.403055741966115
      ],
      [
        "▁weba",
        -8.405032972582855
      ],
      [
        "nge",
        -8.406194438965858
      ],
      [
        "pya",
        -8.409781323345133
      ],
      [
        "zid",
        -8.410645205449736
      ],
      [
        "▁emit",
        -8.413883035428348
      ],
      [
        "▁nyoo",
        -8.414393223616557
      ],
      [
        "kwatagan",
        -8.414611882150385
      ],
      [
        "▁neku",
        -8.417818527551487
      ],
      [
        "zo",
        -8.418583762092616
      ],
      [
        "▁Em",
        -8.420877180592138
      ],
      [
        "ensi",
        -8.42097969463704
      ],
      [
        "▁abatambu",
        -8.42197035539069
      ],
      [
        "dyo",
        -8.422747365297397
      ],
      [
        "▁obw",
        -8.422989192297532
      ],
      [
        "'enjawulo",
        -8.426144918081627
      ],
      [
        "ph",
        -8.426890003745774
      ],
      [
        "son",
        -8.432052852001817
      ],
      [
        "▁Okul",
        -8.436872220046219
      ],
      [
        "▁oyin",
        -8.437031312825551
      ],
      [
        "njuba",
        -8.437867765633747
      ],
      [
        "yimiri",
        -8.438644450722203
      ],
      [
        "1.",
        -8.438828889334221
      ],
      [
        "isinga",
        -8.440518970271995
      ],
      [
        "and",
        -8.44370422474758
      ],
      [
        "▁okuv",
        -8.44800060850883
      ],
      [
        "▁aga",
        -8.448007947658466
      ],
      [
        "aki",
        -8.451008549385465
      ],
      [
        "uffu",
        -8.451508229945219
      ],
      [
        "▁Y",
        -8.45189682280158
      ],
      [
        "kwano",
        -8.453242036923982
      ],
      [
        "enjawulo",
        -8.455095050443422
      ],
      [
        "ol",
        -8.456105837635267
      ],
      [
        "▁okukakas",
        -8.456750491012212
      ],
      [
        "bitundu",
        -8.457396571943953
      ],
      [
        "nne",
        -8.462146408424315
      ],
      [
        "baka",
        -8.463289003900146
      ],
      [
        "gu",
        -8.463626867511373
      ],
      [
        "▁amat",
        -8.463889870608526
      ],
      [
        "▁n’ama",
        -8.468193037628536
      ],
      [
        "▁bwob",
        -8.468647031055548
      ],
      [
        "byentambula",
        -8.470825113264393
      ],
      [
        "kubiri",
        -8.473835421079203
      ],
      [
        "st",
        -8.476198661909839
      ],
      [
        "eero",
        -8.477232757239745
      ],
      [
        "yangu",
        -8.477484339476602
      ],
      [
        "ck",
        -8.47753510919761
      ],
      [
        "▁okul",
        -8.479423861744664
      ],
      [
        "anyo",
        -8.479452205565671
      ],
      [
        "pi",
        -8.48056723710357
      ],
      [
        "aawe",
        -8.481145914216864
      ],
      [
        "▁Er",
        -8.481331841016887
      ],
      [
        "▁okukyal",
        -8.481490984438999
      ],
      [
        "▁bin",
        -8.489066540372397
      ],
      [
        "▁Le",
        -8.489142493996553
      ],
      [
        "▁gwo",
        -8.490577449125844
      ],
      [
        "eko",
        -8.492774321454245
      ],
      [
        "▁akas",
        -8.49538389876912
      ],
      [
        "▁egya",
        -8.497145044379593
      ],
      [
        "udo",
        -8.497432297163144
      ],
      [
        "▁but",
        -8.498174597476591
      ],
      [
        "▁okusala",
        -8.499983287577725
      ],
      [
        "boner",
        -8.502607691027519
      ],
      [
        "▁ow",
        -8.503666478037623
      ],
      [
        "V",
        -8.505377951604178
      ],
      [
        "amaanyi",
        -8.50637643051538
      ],
      [
        "▁okumany",
        -8.51013578047499
      ],
      [
        "▁z'",
        -8.51726607556082
      ],
      [
        "▁Se",
        -8.518236214315198
      ],
      [
        "▁vi",
        -8.52108728556479
      ],
      [
        "3",
        -8.524562768114286
      ],
      [
        "E",
        -8.52959480813828
      ],
      [
        "▁omuzany",
        -8.529682918986007
      ],
      [
        "eri",
        -8.529864861917668
      ],
      [
        "muntu",
        -8.532094738125716
      ],
      [
        "ttaka",
        -8.532686863947054
      ],
      [
        "▁omul",
        -8.535985928074213
      ],
      [
        "I",
        -8.539673950457587
      ],
      [
        "suka",
        -8.540913181823042
      ],
      [
        "tambuz",
        -8.541118446810849
      ],
      [
        "▁n'o",
        -8.541710069596144
      ],
      [
        "nna",
        -8.542861538171424
      ],
      [
        "kiri",
        -8.543780812340698
      ],
      [
        "▁Re",
        -8.544929630310005
      ],
      [
        "N",
        -8.54891392635191
      ],
      [
        "baawo",
        -8.549418819974212
      ],
      [
        "vi",
        -8.550935344969089
      ],
      [
        "ayin",
        -8.55279351421807
      ],
      [
        "▁ali",
        -8.55585037241918
      ],
      [
        "yimba",
        -8.558853512875697
      ],
      [
        "ekyo",
        -8.560179645435325
      ],
      [
        "fumbo",
        -8.562130428361197
      ],
      [
        "▁Olu",
        -8.562805032754266
      ],
      [
        "ili",
        -8.564951676605016
      ],
      [
        "▁Sa",
        -8.565067051764235
      ],
      [
        "laga",
        -8.566783464990273
      ],
      [
        "fi",
        -8.572310279566954
      ],
      [
        "oni",
        -8.572931398765792
      ],
      [
        "gwanga",
        -8.574156222655459
      ],
      [
        "▁eta",
        -8.57445781937553
      ],
      [
        "dduk",
        -8.575182863346345
      ],
      [
        "▁eza",
        -8.575661097191704
      ],
      [
        "ngulu",
        -8.578538682654564
      ],
      [
        "500",
        -8.580613260671214
      ],
      [
        "twal",
        -8.58073179960815
      ],
      [
        "▁Ek",
        -8.580737575935357
      ],
      [
        "▁kas",
        -8.582709145603319
      ],
      [
        "▁wali",
        -8.582810496749028
      ],
      [
        "6",
        -8.584432549730245
      ],
      [
        "▁g’",
        -8.585593882336358
      ],
      [
        "▁amanyi",
        -8.587928020903446
      ],
      [
        "uyi",
        -8.58794806054436
      ],
      [
        "eddagala",
        -8.588400962362263
      ],
      [
        "obuwangwa",
        -8.589139901431512
      ],
      [
        "–",
        -8.589475500233839
      ],
      [
        "▁Zealand",
        -8.589475558230035
      ],
      [
        "▁Q",
        -8.589475603445763
      ],
      [
        "▁Brazil",
        -8.589476032975842
      ],
      [
        "▁Iraq",
        -8.58947637350472
      ],
      [
        "▁Buyindi",
        -8.589530282436112
      ],
      [
        "▁Haiti",
        -8.589562490328445
      ],
      [
        "nyumirwa",
        -8.589635969597245
      ],
      [
        "▁Pakistan",
        -8.589637529264547
      ],
      [
        "▁Amazon",
        -8.589704015535785
      ],
      [
        "▁24",
        -8.58971260964524
      ],
      [
        "▁okwetolo",
        -8.589742048851257
      ],
      [
        "▁15",
        -8.589781200021768
      ],
      [
        "sinzizo",
        -8.589922425655152
      ],
      [
        "▁obuwuka",
        -8.589969968195867
      ],
      [
        "▁ssente",
        -8.590156034129338
      ],
      [
        "▁Butulu",
        -8.590171237846107
      ],
      [
        "▁omwenge",
        -8.590214564524501
      ],
      [
        "▁akabanga",
        -8.59036105323919
      ],
      [
        "ge",
        -8.590655733834959
      ],
      [
        "gezako",
        -8.590818361551657
      ],
      [
        "feder",
        -8.590835412801217
      ],
      [
        "▁ennyo",
        -8.590907566961027
      ],
      [
        "tic",
        -8.591310710647104
      ],
      [
        "▁ezenjawulo",
        -8.59234623563011
      ],
      [
        "▁byonna",
        -8.592484965851654
      ],
      [
        "▁kutegee",
        -8.592644235245096
      ],
      [
        "fulum",
        -8.592838247846883
      ],
      [
        "▁kyekimu",
        -8.593065361196548
      ],
      [
        "▁omuk",
        -8.593892251924524
      ],
      [
        "▁enungi",
        -8.594992217250981
      ],
      [
        "▁ely",
        -8.595150844321887
      ],
      [
        "sente",
        -8.595288492505059
      ],
      [
        "goberer",
        -8.595367650797067
      ],
      [
        "▁okusinziira",
        -8.596248484350031
      ],
      [
        "lowoz",
        -8.596406694144395
      ],
      [
        "ngu",
        -8.596726733577057
      ],
      [
        "▁amangu",
        -8.598428372942786
      ],
      [
        "▁mateeka",
        -8.598556814074177
      ],
      [
        "paaka",
        -8.598790590312204
      ],
      [
        "▁okukolebwa",
        -8.599023946592304
      ],
      [
        "▁okusooka",
        -8.599722492309382
      ],
      [
        "▁US",
        -8.599741607806472
      ],
      [
        "▁Canada",
        -8.600047890154377
      ],
      [
        "▁omukulu",
        -8.600092627630831
      ],
      [
        "▁wooteri",
        -8.600156807648514
      ],
      [
        "▁amateeka",
        -8.602324130170631
      ],
      [
        "aali",
        -8.602621713470976
      ],
      [
        "▁mumaaso",
        -8.60266552229196
      ],
      [
        "soboka",
        -8.604352155532297
      ],
      [
        "▁eyo",
        -8.605003925861865
      ],
      [
        "▁gyeba",
        -8.606883344392532
      ],
      [
        "▁Singa",
        -8.607456475691547
      ],
      [
        "▁okozes",
        -8.608352212388509
      ],
      [
        "ry",
        -8.608943212397273
      ],
      [
        "lungi",
        -8.609187135671261
      ],
      [
        "▁mukaaga",
        -8.61080970685141
      ],
      [
        "bona",
        -8.611580061634765
      ],
      [
        "▁ziri",
        -8.611604928128232
      ],
      [
        "▁emisinde",
        -8.612041609176138
      ],
      [
        "ju",
        -8.613432339382669
      ],
      [
        "okwekalaka",
        -8.614296887822954
      ],
      [
        "▁okulambul",
        -8.615079052016702
      ],
      [
        "ci",
        -8.61544403476623
      ],
      [
        "▁bibiri",
        -8.615559797940168
      ],
      [
        "▁okwa",
        -8.61568824563182
      ],
      [
        "▁yona",
        -8.616534236416022
      ],
      [
        "maanyi",
        -8.617287359392062
      ],
      [
        "▁byasa",
        -8.6176677043598
      ],
      [
        "ddagala",
        -8.618960023818005
      ],
      [
        "naku",
        -8.61955195597473
      ],
      [
        "yam",
        -8.6207026285689
      ],
      [
        "▁Tr",
        -8.621039965452711
      ],
      [
        "abaminis",
        -8.62130604032046
      ],
      [
        "▁How",
        -8.622874515055155
      ],
      [
        "▁Wali",
        -8.623685122425067
      ],
      [
        "▁emmer",
        -8.624778284424709
      ],
      [
        "obulumbaganyi",
        -8.625733766091662
      ],
      [
        "mbiro",
        -8.626103622846395
      ],
      [
        "▁olin",
        -8.626270554068359
      ],
      [
        "lo,",
        -8.626523805628743
      ],
      [
        "▁balaafu",
        -8.627601106876032
      ],
      [
        "uula",
        -8.628267616345628
      ],
      [
        "▁Mw",
        -8.62955859048232
      ],
      [
        "re",
        -8.630538458390985
      ],
      [
        "ek",
        -8.630920332496716
      ],
      [
        "▁lw’",
        -8.631145982797435
      ],
      [
        "kuuma",
        -8.632833835265561
      ],
      [
        "bulwadde",
        -8.633210417843937
      ],
      [
        "po",
        -8.633779961762823
      ],
      [
        "gulu",
        -8.63396285580655
      ],
      [
        "uusa",
        -8.637007257553634
      ],
      [
        "▁okukom",
        -8.637704533923873
      ],
      [
        "▁okuyit",
        -8.641104145874534
      ],
      [
        "▁bangi",
        -8.64215072421416
      ],
      [
        "▁mwaka",
        -8.644281414696888
      ],
      [
        "64",
        -8.644477503641205
      ],
      [
        "▁Hu",
        -8.64485269517951
      ],
      [
        "▁maserengeta",
        -8.646692161581576
      ],
      [
        "▁tek",
        -8.648856390483072
      ],
      [
        "▁er",
        -8.649324271565602
      ],
      [
        "▁lunaku",
        -8.6493888276843
      ],
      [
        "suwa",
        -8.649801724886284
      ],
      [
        "kana",
        -8.649916584408617
      ],
      [
        "▁erimu",
        -8.650691441382548
      ],
      [
        "yilo",
        -8.652337370299168
      ],
      [
        "▁197",
        -8.653310450212116
      ],
      [
        "M",
        -8.654046017754075
      ],
      [
        "is",
        -8.655921177733216
      ],
      [
        "bweru",
        -8.656719438714575
      ],
      [
        "lwadde",
        -8.657374178684897
      ],
      [
        "▁4",
        -8.65751558570566
      ],
      [
        "okulonda",
        -8.657965512700468
      ],
      [
        "▁Li",
        -8.659682347933794
      ],
      [
        "▁obwe",
        -8.661107648946345
      ],
      [
        "▁omw",
        -8.66203319113019
      ],
      [
        "nsi,",
        -8.662550317465621
      ],
      [
        "gye",
        -8.662702281433335
      ],
      [
        "edwa",
        -8.663500049956413
      ],
      [
        "▁Dav",
        -8.663619705811723
      ],
      [
        "wandis",
        -8.664050020009235
      ],
      [
        "▁lwo",
        -8.665808511649697
      ],
      [
        "▁Ca",
        -8.666394836968625
      ],
      [
        "▁okudda",
        -8.668680747894474
      ],
      [
        "▁kibiina",
        -8.669254984274492
      ],
      [
        "▁8",
        -8.671627617985214
      ],
      [
        "atwal",
        -8.671648759575723
      ],
      [
        "▁ezo",
        -8.673102707415289
      ],
      [
        "gaali",
        -8.675351593924821
      ],
      [
        "▁Okuv",
        -8.676239874791033
      ],
      [
        "1",
        -8.680532665663492
      ],
      [
        "▁Sant",
        -8.681556570988823
      ],
      [
        "uku",
        -8.682550022648632
      ],
      [
        "ny",
        -8.68278028436008
      ],
      [
        "▁gw’o",
        -8.684828573406506
      ],
      [
        "ige",
        -8.685091228337273
      ],
      [
        "▁R",
        -8.68534617308232
      ],
      [
        "▁ebita",
        -8.687779352286697
      ],
      [
        "ibuga",
        -8.688332638528536
      ],
      [
        "iti",
        -8.688493940896016
      ],
      [
        "▁6",
        -8.688641995977434
      ],
      [
        "▁yok",
        -8.688901244309669
      ],
      [
        "lipo",
        -8.689358743399955
      ],
      [
        "B",
        -8.69189826553963
      ],
      [
        "bakola",
        -8.694493828567078
      ],
      [
        "tta",
        -8.69561812160517
      ],
      [
        "▁Vi",
        -8.696842278543214
      ],
      [
        "ns",
        -8.696854798800569
      ],
      [
        "anyizibwa",
        -8.696955171229602
      ],
      [
        "▁3",
        -8.697395308187149
      ],
      [
        "▁bateeka",
        -8.697569997231176
      ],
      [
        "mawanga",
        -8.698853551243637
      ],
      [
        "nd",
        -8.703792280614488
      ],
      [
        "som",
        -8.70507167988871
      ],
      [
        "me",
        -8.705153639071634
      ],
      [
        "apu",
        -8.70547942999418
      ],
      [
        "▁Bo",
        -8.708223622367615
      ],
      [
        "kukola",
        -8.712837355733399
      ],
      [
        "ongo",
        -8.71342404641399
      ],
      [
        "so",
        -8.713509384259767
      ],
      [
        "ulwa",
        -8.71751188345566
      ],
      [
        "▁enzi",
        -8.7181839186065
      ],
      [
        "▁San",
        -8.718215096719844
      ],
      [
        "▁ng’o",
        -8.71875651414112
      ],
      [
        "▁d",
        -8.719361427177468
      ],
      [
        "nj",
        -8.719877091924426
      ],
      [
        "tikiti",
        -8.724909300994645
      ],
      [
        "th",
        -8.725503099332943
      ],
      [
        "’oku",
        -8.726986914059452
      ],
      [
        "’ensi",
        -8.727575404730587
      ],
      [
        "▁Ok",
        -8.727793607419896
      ],
      [
        "▁oluk",
        -8.728529010465017
      ],
      [
        "bika",
        -8.728786340998003
      ],
      [
        "dwako",
        -8.729171319814386
      ],
      [
        "▁ekyoku",
        -8.731006196218702
      ],
      [
        "▁Cu",
        -8.731468965906688
      ],
      [
        "▁mit",
        -8.731792187017296
      ],
      [
        "siig",
        -8.73360646082092
      ],
      [
        "mutimbagano",
        -8.734811667992382
      ],
      [
        "omugaso",
        -8.73753808062231
      ],
      [
        "▁embala",
        -8.737601633201411
      ],
      [
        "ton",
        -8.740125187866553
      ],
      [
        "T",
        -8.742257831075731
      ],
      [
        "▁abali",
        -8.74438822374325
      ],
      [
        "gon",
        -8.747825714990078
      ],
      [
        "▁ezis",
        -8.747886291553538
      ],
      [
        "▁Bula",
        -8.747981105529467
      ],
      [
        "ers",
        -8.748641515375809
      ],
      [
        "▁semat",
        -8.749268330412567
      ],
      [
        "banga",
        -8.750872426550673
      ],
      [
        "tula",
        -8.753285108277598
      ],
      [
        "bili",
        -8.754053452044724
      ],
      [
        "iko",
        -8.754566977285414
      ],
      [
        "kira",
        -8.757550492024464
      ],
      [
        "nafu",
        -8.75774337650504
      ],
      [
        "▁omuko",
        -8.758382277875478
      ],
      [
        "▁ogw",
        -8.758593504947346
      ],
      [
        "oku",
        -8.759998288372026
      ],
      [
        "▁og",
        -8.761501129449986
      ],
      [
        "▁kun",
        -8.765608167108951
      ],
      [
        "omu",
        -8.765614443558881
      ],
      [
        "ard",
        -8.76711582710128
      ],
      [
        "ngo",
        -8.76732549542756
      ],
      [
        "us",
        -8.767452535954245
      ],
      [
        "▁He",
        -8.768504993617
      ],
      [
        "ele",
        -8.768857441399492
      ],
      [
        "▁100",
        -8.773026389555135
      ],
      [
        "),",
        -8.773981683364369
      ],
      [
        "wesimb",
        -8.780584840910349
      ],
      [
        "ivu",
        -8.782438886075735
      ],
      [
        "ano",
        -8.783039650352375
      ],
      [
        "ok",
        -8.7833108427063
      ],
      [
        "▁Ebya",
        -8.783614229245226
      ],
      [
        "kuwa",
        -8.786784043557011
      ],
      [
        "y'ensi",
        -8.786937027061093
      ],
      [
        "▁ag",
        -8.787604271131741
      ],
      [
        "wabadde",
        -8.788031419478163
      ],
      [
        "mangu",
        -8.789963320383833
      ],
      [
        "▁bbiri",
        -8.796798140989297
      ],
      [
        "▁eyali",
        -8.79753614791581
      ],
      [
        "ll",
        -8.799502299338041
      ],
      [
        "▁okuwa",
        -8.799994329425957
      ],
      [
        "gumu",
        -8.803145879396222
      ],
      [
        "▁20",
        -8.80424633942451
      ],
      [
        "▁16",
        -8.804286203209726
      ],
      [
        "▁et",
        -8.80703542036493
      ],
      [
        "▁ekikul",
        -8.81227868023306
      ],
      [
        "▁Eya",
        -8.813778527279961
      ],
      [
        "▁Ol",
        -8.81389206122396
      ],
      [
        "▁abe",
        -8.82092741387838
      ],
      [
        "ufu",
        -8.821453018758511
      ],
      [
        "▁ogu",
        -8.822211407063024
      ],
      [
        "beyi",
        -8.82266065541584
      ],
      [
        "yingi",
        -8.823671745652508
      ],
      [
        "wan",
        -8.828087300377094
      ],
      [
        "wanguzi",
        -8.828699263980399
      ],
      [
        "A",
        -8.830986624933546
      ],
      [
        "▁z’e",
        -8.831618967101294
      ],
      [
        "▁abasing",
        -8.836046482510946
      ],
      [
        "njawulo",
        -8.83673888119282
      ],
      [
        "▁bweba",
        -8.83783495295678
      ],
      [
        "muli",
        -8.83925653703176
      ],
      [
        "▁Bul",
        -8.83951370165249
      ],
      [
        "tonotono",
        -8.840687153526414
      ],
      [
        "zze",
        -8.841031509852817
      ],
      [
        "burg",
        -8.842841910377992
      ],
      [
        "obufuzi",
        -8.845238821494108
      ],
      [
        "lugendo",
        -8.849758650389415
      ],
      [
        "▁okug",
        -8.85056428269778
      ],
      [
        "sala",
        -8.852209305648444
      ],
      [
        "yini",
        -8.85232596188033
      ],
      [
        "tekebwa",
        -8.852550096184274
      ],
      [
        "addala",
        -8.853349720430941
      ],
      [
        "kwas",
        -8.853786833476091
      ],
      [
        "gibwa",
        -8.85430426679933
      ],
      [
        "▁ewali",
        -8.854413467797208
      ],
      [
        "▁ng’e",
        -8.854671204056265
      ],
      [
        "▁ng'",
        -8.854816774920655
      ],
      [
        "kakasa",
        -8.854984236471351
      ],
      [
        "▁sen",
        -8.858680611780091
      ],
      [
        "▁tezi",
        -8.859010434445068
      ],
      [
        "ekiwandiiko",
        -8.864979313426971
      ],
      [
        "andiik",
        -8.866462193949065
      ],
      [
        "irimu",
        -8.866692419175067
      ],
      [
        "▁by’",
        -8.867669306584006
      ],
      [
        "▁11",
        -8.867693931808262
      ],
      [
        "bye",
        -8.868530235663767
      ],
      [
        "O",
        -8.869011217569422
      ],
      [
        "▁si",
        -8.870008440998562
      ],
      [
        "nye",
        -8.871894458273974
      ],
      [
        "el",
        -8.87193302562874
      ],
      [
        "balaafu",
        -8.873539847111452
      ],
      [
        "▁n’ab",
        -8.873901150521643
      ],
      [
        "abu",
        -8.874699350767735
      ],
      [
        "▁Abatambu",
        -8.875068770161844
      ],
      [
        "balambuzi",
        -8.876321050550956
      ],
      [
        "▁singa",
        -8.876783349515776
      ],
      [
        "▁ekye",
        -8.877818837807268
      ],
      [
        "▁enj",
        -8.878206114877488
      ],
      [
        "fay",
        -8.880550245188012
      ],
      [
        "▁Pal",
        -8.883647285503237
      ],
      [
        "▁yin",
        -8.8848253904324
      ],
      [
        "kisa",
        -8.886112868253267
      ],
      [
        "R",
        -8.88735797631902
      ],
      [
        "agana",
        -8.888641599504272
      ],
      [
        "▁enkola",
        -8.893558351265131
      ],
      [
        "ung",
        -8.894106465149822
      ],
      [
        "buka",
        -8.895257872587909
      ],
      [
        "kyali",
        -8.896916003067984
      ],
      [
        "▁bate",
        -8.89725056505911
      ],
      [
        "avumenti",
        -8.89793660290486
      ],
      [
        "'abantu",
        -8.900630543501212
      ],
      [
        "nno",
        -8.90135144494704
      ],
      [
        "▁eg",
        -8.90137194462564
      ],
      [
        "▁ezaa",
        -8.902005467767966
      ],
      [
        "▁bun",
        -8.902847091420641
      ],
      [
        "▁ngaba",
        -8.903233138737319
      ],
      [
        "kin",
        -8.903628990876616
      ],
      [
        "yimbi",
        -8.910579164135555
      ],
      [
        "twe",
        -8.910607664102882
      ],
      [
        "nvu",
        -8.91127575031315
      ],
      [
        "eter",
        -8.911868527405478
      ],
      [
        "ttiimu",
        -8.913475392232728
      ],
      [
        "mwoleso",
        -8.914245559128762
      ],
      [
        "mir",
        -8.915073255658987
      ],
      [
        "i.",
        -8.916914752623015
      ],
      [
        "agamba",
        -8.919242563617392
      ],
      [
        "enge",
        -8.919802379715009
      ],
      [
        "▁Nor",
        -8.920410648684868
      ],
      [
        "leete",
        -8.921864665249059
      ],
      [
        "izibwa",
        -8.921926702388662
      ],
      [
        "$",
        -8.922808833527213
      ],
      [
        "▁Vancouver",
        -8.922808833527224
      ],
      [
        "▁Ecuador",
        -8.922808833527856
      ],
      [
        "!",
        -8.92280883356717
      ],
      [
        "?",
        -8.92280883356717
      ],
      [
        "▁Graffiti",
        -8.922808835799747
      ],
      [
        "▁Florida",
        -8.922808840944828
      ],
      [
        "▁Washington",
        -8.922808844220292
      ],
      [
        "▁Japaani",
        -8.922808845937986
      ],
      [
        "▁¥",
        -8.922808983463135
      ],
      [
        "▁kyetagisa",
        -8.922809021888055
      ],
      [
        "▁Berlin",
        -8.922810159022251
      ],
      [
        "nnyonnyol",
        -8.922811058823724
      ],
      [
        "▁U.S",
        -8.92283324833451
      ],
      [
        "▁Afri",
        -8.92283379593549
      ],
      [
        "bayolesez",
        -8.922837892576593
      ],
      [
        "ndagaano",
        -8.922869025430607
      ],
      [
        "▁oteeked",
        -8.92289515995481
      ],
      [
        "ntarctic",
        -8.9228980145549
      ],
      [
        "orld",
        -8.922911997101979
      ],
      [
        "uuki",
        -8.922947767123405
      ],
      [
        "▁n'olwe",
        -8.922990689178215
      ],
      [
        "▁ogwokubiri",
        -8.922990775131323
      ],
      [
        "▁oguwedde",
        -8.92301786339274
      ],
      [
        "▁21",
        -8.923062319971102
      ],
      [
        "▁Iran",
        -8.923136284924114
      ],
      [
        "▁Olympic",
        -8.923142923178599
      ],
      [
        "amaduuka",
        -8.923145015637838
      ],
      [
        "▁ssema",
        -8.923159023244128
      ],
      [
        "lekulira",
        -8.923182302320276
      ],
      [
        "▁wiik",
        -8.923186433339499
      ],
      [
        "▁byomunsiko",
        -8.923276317742884
      ],
      [
        "▁Massa",
        -8.923473221179284
      ],
      [
        "▁n’olwe",
        -8.923482849658885
      ],
      [
        "▁Del",
        -8.923486384754387
      ],
      [
        "▁2017",
        -8.92349046175077
      ],
      [
        "▁eziwerako",
        -8.923502740751173
      ],
      [
        "▁2009",
        -8.923582516507738
      ],
      [
        "▁nebirala",
        -8.923665528941196
      ],
      [
        "▁z'omuzira",
        -8.92367710007365
      ],
      [
        "▁Peter",
        -8.923720489126813
      ],
      [
        "ress",
        -8.923764233164539
      ],
      [
        "▁Omuyimbi",
        -8.923773934971939
      ],
      [
        "▁amaaso",
        -8.9238558267036
      ],
      [
        "▁ekuumi",
        -8.92406560413277
      ],
      [
        "▁ntono",
        -8.924234429061357
      ],
      [
        "kubagany",
        -8.924267998349638
      ],
      [
        "▁okuwulir",
        -8.924577495270634
      ],
      [
        "ine”",
        -8.924666123333639
      ],
      [
        "nyuvu",
        -8.92468948307045
      ],
      [
        "39",
        -8.924929750051982
      ],
      [
        "▁zombie",
        -8.924965111651298
      ],
      [
        "▁entono",
        -8.925210520346086
      ],
      [
        "▁basuubir",
        -8.925556333217585
      ],
      [
        "▁owokubiri",
        -8.925566456667804
      ],
      [
        "▁obugazi",
        -8.925803721626666
      ],
      [
        "▁Str",
        -8.925845955263306
      ],
      [
        "kujjuk",
        -8.926265714103128
      ],
      [
        "▁okukosebwa",
        -8.926572292051624
      ],
      [
        "▁Ng",
        -8.926666722316714
      ],
      [
        "▁ekkumi",
        -8.926939644579939
      ],
      [
        "▁emere",
        -8.927909122449995
      ],
      [
        "▁okufulum",
        -8.927965269675889
      ],
      [
        "▁mawulire",
        -8.928145033379227
      ],
      [
        "▁ennaku",
        -8.928170883570843
      ],
      [
        "abakulembeze",
        -8.92829775894602
      ],
      [
        "▁olugendo",
        -8.92833354351576
      ],
      [
        "▁ebyenjawulo",
        -8.929388332397519
      ],
      [
        "▁okuyamba",
        -8.92953140430214
      ],
      [
        "▁ekitegez",
        -8.929935845990604
      ],
      [
        "▁banna",
        -8.930654216088339
      ],
      [
        "▁ababadde",
        -8.931011488915248
      ],
      [
        "▁kikumi",
        -8.93139368503806
      ],
      [
        "▁Car",
        -8.931585653455645
      ],
      [
        "ez",
        -8.932023410042731
      ],
      [
        "▁emirembe",
        -8.932049152364744
      ],
      [
        "▁butab",
        -8.932109208662013
      ],
      [
        "▁akawuka",
        -8.932447798188608
      ],
      [
        "▁kiyin",
        -8.93326224462879
      ],
      [
        "▁Akaz",
        -8.93334270119555
      ],
      [
        "iwan",
        -8.93430337535543
      ],
      [
        "▁gyeya",
        -8.935059852778718
      ],
      [
        "dri",
        -8.935063374811035
      ],
      [
        "na.",
        -8.93518304801357
      ],
      [
        "▁Ho",
        -8.935499068345164
      ],
      [
        "ght",
        -8.935544157708238
      ],
      [
        "▁lw’oku",
        -8.93659130733458
      ],
      [
        "kkirizi",
        -8.937270246033979
      ],
      [
        "tate",
        -8.9375157271519
      ],
      [
        "▁miwendo",
        -8.938432870133116
      ],
      [
        "▁Olwo",
        -8.9386729547037
      ],
      [
        "lukalu",
        -8.939115897856427
      ],
      [
        "ugirimaani",
        -8.939592537537045
      ],
      [
        "▁ekifa",
        -8.940140382474501
      ],
      [
        "pp",
        -8.94108943169397
      ],
      [
        "▁negu",
        -8.941245024708962
      ],
      [
        "▁nnyo",
        -8.941521691742137
      ],
      [
        "teberez",
        -8.9432213281969
      ],
      [
        "nungi",
        -8.943653104564813
      ],
      [
        "▁byota",
        -8.944249716187496
      ],
      [
        "▁lumu",
        -8.944602908474508
      ],
      [
        "▁nkola",
        -8.944822774786171
      ],
      [
        "▁40",
        -8.945166515584226
      ],
      [
        "▁ebizi",
        -8.945201328934543
      ],
      [
        "ddyo",
        -8.945994561554878
      ],
      [
        "▁luzan",
        -8.946120076979742
      ],
      [
        "▁yawangula",
        -8.946185669583341
      ],
      [
        "▁Grand",
        -8.947152604906934
      ],
      [
        "▁ebbanga",
        -8.947558312682913
      ],
      [
        "▁nab",
        -8.948121138988673
      ],
      [
        "▁lw'",
        -8.948230429930605
      ],
      [
        "kulakulana",
        -8.948298790207042
      ],
      [
        "ux",
        -8.949099035548638
      ],
      [
        "▁enkyukakyuka",
        -8.949282250370347
      ],
      [
        "evu",
        -8.95048486989332
      ],
      [
        "▁embeera",
        -8.950717097630207
      ],
      [
        "▁Okulaba",
        -8.95134602249804
      ],
      [
        "▁bulamu",
        -8.951493235112807
      ],
      [
        "ddene",
        -8.951715808000191
      ],
      [
        "▁z’",
        -8.952015377956611
      ],
      [
        "▁bandi",
        -8.952079615207756
      ],
      [
        "▁200",
        -8.952672537554523
      ],
      [
        "▁g’e",
        -8.953171572890803
      ],
      [
        "▁beeyi",
        -8.953580186663785
      ],
      [
        "labika",
        -8.954183703980075
      ],
      [
        "eesi",
        -8.954568930550732
      ],
      [
        "▁nso",
        -8.954641488545382
      ],
      [
        "maserengeta",
        -8.955611379228447
      ],
      [
        "ule",
        -8.955751931870227
      ],
      [
        "▁eyet",
        -8.95686034597441
      ],
      [
        "enyini",
        -8.957723170010373
      ],
      [
        "▁babwe",
        -8.959163934676585
      ],
      [
        "saabaz",
        -8.959187368926436
      ],
      [
        "▁okugula",
        -8.960016524129445
      ],
      [
        "ose",
        -8.96102142232175
      ],
      [
        "▁cham",
        -8.96148576802866
      ],
      [
        "▁Saf",
        -8.962165999202927
      ],
      [
        "sang",
        -8.962708895091335
      ],
      [
        "▁big",
        -8.96282451764609
      ],
      [
        "gema",
        -8.963060443086412
      ],
      [
        "▁kilina",
        -8.96323703951023
      ],
      [
        "▁Mar",
        -8.964844295188826
      ],
      [
        "▁pa",
        -8.965524813587365
      ],
      [
        "angibwa",
        -8.9656701526785
      ],
      [
        "▁ettut",
        -8.966168025187352
      ],
      [
        "ensero",
        -8.96657914998791
      ],
      [
        "▁okudduk",
        -8.966654038496543
      ],
      [
        "kibumba",
        -8.966873825456652
      ],
      [
        "rimu",
        -8.967266924640333
      ],
      [
        "▁okujju",
        -8.967338654899908
      ],
      [
        "▁edda",
        -8.968649749611082
      ],
      [
        "▁eyok",
        -8.968925834470182
      ],
      [
        "▁mukutu",
        -8.969313965024881
      ],
      [
        "▁Cong",
        -8.970159405417316
      ],
      [
        "▁kw’",
        -8.97068521656928
      ],
      [
        "▁tena",
        -8.972284921708434
      ],
      [
        "▁okutwali",
        -8.972992835197054
      ],
      [
        "▁2",
        -8.974024062486844
      ],
      [
        "▁olw’o",
        -8.97445719272101
      ],
      [
        "▁mage",
        -8.977355778070086
      ],
      [
        "▁ttiimu",
        -8.977741547887474
      ],
      [
        "kende",
        -8.978956275083442
      ],
      [
        "▁n'en",
        -8.979077789138728
      ],
      [
        "ganda",
        -8.980390733476305
      ],
      [
        "▁yensi",
        -8.980561889918238
      ],
      [
        "tandika",
        -8.980990941544226
      ],
      [
        "lula",
        -8.98124059724841
      ],
      [
        "iri",
        -8.98126980298241
      ],
      [
        "▁site",
        -8.983632594690908
      ],
      [
        "ezza",
        -8.984443026028325
      ],
      [
        "▁okutambula",
        -8.985113983081629
      ],
      [
        "atikiro",
        -8.985751475778926
      ],
      [
        "il",
        -8.986120277175
      ],
      [
        "▁Tewa",
        -8.986733639745093
      ],
      [
        "45",
        -8.986742638547591
      ],
      [
        "▁bak",
        -8.987820759287882
      ],
      [
        "kyaali",
        -8.988197893048277
      ],
      [
        "ntambula",
        -8.989838265999618
      ],
      [
        "▁Obu",
        -8.990655223931714
      ],
      [
        "▁Kas",
        -8.993408352349487
      ],
      [
        "▁obungi",
        -8.99347259682606
      ],
      [
        "▁Nay",
        -8.994822486963068
      ],
      [
        "▁n'ebi",
        -8.99518410224616
      ],
      [
        "▁oggend",
        -8.99870584176885
      ],
      [
        "▁bw’",
        -8.999416002376517
      ],
      [
        "▁obulum",
        -9.001059418928797
      ],
      [
        "▁guli",
        -9.001373634500478
      ],
      [
        "▁kuyin",
        -9.001873814714939
      ],
      [
        "emmotoka",
        -9.002541684962898
      ],
      [
        "▁kulwa",
        -9.002766717836256
      ],
      [
        "iro",
        -9.00555779200598
      ],
      [
        "kuwalampa",
        -9.005561255732026
      ],
      [
        "▁binn",
        -9.00701481846253
      ],
      [
        "idde",
        -9.007464746506564
      ],
      [
        "nn",
        -9.008023066925464
      ],
      [
        "▁Tu",
        -9.009957975503864
      ],
      [
        "por",
        -9.0108393744786
      ],
      [
        "nkyukakyuka",
        -9.011207754031265
      ],
      [
        "mizan",
        -9.013972208886901
      ],
      [
        "ner",
        -9.015183814974142
      ],
      [
        "▁Ya",
        -9.01533357175826
      ],
      [
        "gamba",
        -9.01636669242153
      ],
      [
        "uma",
        -9.016465499624484
      ],
      [
        "▁ebyedd",
        -9.016575876158013
      ],
      [
        "▁okuku",
        -9.021315922264352
      ],
      [
        "bufuzi",
        -9.0215319410977
      ],
      [
        "▁omwe",
        -9.024328517655974
      ],
      [
        "nyingi",
        -9.024787759486776
      ],
      [
        "stro",
        -9.02592775488552
      ],
      [
        "▁kamu",
        -9.028399422498051
      ],
      [
        "▁ky'e",
        -9.029021462085359
      ],
      [
        "▁Okula",
        -9.029415503453343
      ],
      [
        "mbeera",
        -9.029527494527919
      ],
      [
        "▁by’o",
        -9.031459398159257
      ],
      [
        "'amaanyi",
        -9.031525449795316
      ],
      [
        "▁-",
        -9.032584246357333
      ],
      [
        "▁amaanyi",
        -9.032632014882914
      ],
      [
        "▁yab",
        -9.034328290910352
      ],
      [
        "agga",
        -9.034347151449163
      ],
      [
        "nze",
        -9.03445414679727
      ],
      [
        "lika",
        -9.034836543436635
      ],
      [
        "kusula",
        -9.035563576168258
      ],
      [
        "▁ajja",
        -9.03765452249345
      ],
      [
        "▁ekikol",
        -9.039954051666497
      ],
      [
        "lwal",
        -9.042839958348848
      ],
      [
        "ango",
        -9.043389161235948
      ],
      [
        "▁Dani",
        -9.044414569508726
      ],
      [
        "▁bwo",
        -9.045531671636187
      ],
      [
        "▁abasinga",
        -9.04662080877439
      ],
      [
        "Obuzi",
        -9.04874026223812
      ],
      [
        "eka",
        -9.051184709149338
      ],
      [
        "zing",
        -9.053205053830748
      ],
      [
        "wokusatu",
        -9.055461797852413
      ],
      [
        "inji",
        -9.05614122001644
      ],
      [
        "▁tan",
        -9.058873268067417
      ],
      [
        "anga",
        -9.059336296345824
      ],
      [
        "golo",
        -9.059885468091844
      ],
      [
        "▁naba",
        -9.060530527336407
      ],
      [
        "ileeta",
        -9.061378331152627
      ],
      [
        "misinde",
        -9.063133440787107
      ],
      [
        "▁Ove",
        -9.064555794197068
      ],
      [
        "usi",
        -9.065056219002603
      ],
      [
        "▁lwoku",
        -9.06535357416829
      ],
      [
        "▁okumanyi",
        -9.066812965265399
      ],
      [
        "▁Z",
        -9.068282015851358
      ],
      [
        "itwal",
        -9.0691884909737
      ],
      [
        "▁ggwanga",
        -9.070176054712158
      ],
      [
        "▁okufu",
        -9.070698639896053
      ],
      [
        "▁gyi",
        -9.070795083239194
      ],
      [
        "ning",
        -9.071667900050818
      ],
      [
        "▁ebitam",
        -9.071674510229514
      ],
      [
        "ul",
        -9.074532716269793
      ],
      [
        "alabise",
        -9.075590464776292
      ],
      [
        "▁ngaki",
        -9.080899116577118
      ],
      [
        "▁okub",
        -9.083507191925662
      ],
      [
        "umpi",
        -9.083979613914021
      ],
      [
        "wayo",
        -9.08401886567055
      ],
      [
        "kisi",
        -9.084202234961566
      ],
      [
        "kukeberebwa",
        -9.08431758717575
      ],
      [
        "▁Ob",
        -9.084788606235296
      ],
      [
        "agany",
        -9.085192748819766
      ],
      [
        "▁muntu",
        -9.089379712546641
      ],
      [
        "▁bukya",
        -9.08962744946141
      ],
      [
        "▁okuw",
        -9.090426350909665
      ],
      [
        "maliriza",
        -9.09058807730629
      ],
      [
        "if",
        -9.091871312898526
      ],
      [
        "▁Emi",
        -9.092944747379322
      ],
      [
        "omuzira",
        -9.097804862802985
      ],
      [
        "akola",
        -9.098167174314975
      ],
      [
        "▁To",
        -9.098836431404912
      ],
      [
        "man",
        -9.098998949817766
      ],
      [
        "▁okujja",
        -9.100835713125456
      ],
      [
        "wogera",
        -9.101353692251724
      ],
      [
        "ezo",
        -9.101751409799814
      ],
      [
        "▁olw",
        -9.102604655234941
      ],
      [
        "▁nd",
        -9.10387451254464
      ],
      [
        "ikolo",
        -9.104457024888495
      ],
      [
        "ddukir",
        -9.106072759308498
      ],
      [
        "▁mazzi",
        -9.110370233651082
      ],
      [
        "▁ej",
        -9.112450742040433
      ],
      [
        "bendera",
        -9.112559005577658
      ],
      [
        "▁Omuz",
        -9.112626292423354
      ],
      [
        "saba",
        -9.113229080203517
      ],
      [
        "▁n’emi",
        -9.11380873866317
      ],
      [
        "oka",
        -9.113964215080602
      ],
      [
        "at",
        -9.114822562828966
      ],
      [
        "semba",
        -9.115308266423023
      ],
      [
        "bakyaala",
        -9.117286895531636
      ],
      [
        "nakyeewa",
        -9.117349973275001
      ],
      [
        "▁gy’",
        -9.117427922859973
      ],
      [
        "umi",
        -9.117597488525284
      ],
      [
        "▁Ke",
        -9.11795453307162
      ],
      [
        "▁bif",
        -9.118077098074878
      ],
      [
        "kir",
        -9.11821983100508
      ],
      [
        "▁obuk",
        -9.118954850065247
      ],
      [
        "▁mw",
        -9.124818911974176
      ],
      [
        "▁kyeki",
        -9.124943512655841
      ],
      [
        "▁erya",
        -9.125725760783526
      ],
      [
        "▁abasa",
        -9.12629115787795
      ],
      [
        "isi",
        -9.126312356800698
      ],
      [
        "tund",
        -9.126435555690245
      ],
      [
        "gongo",
        -9.130053807498065
      ],
      [
        "app",
        -9.131660596383119
      ],
      [
        "▁by’e",
        -9.13194009342819
      ],
      [
        "uga",
        -9.132489353976347
      ],
      [
        "wenjawulo",
        -9.133222299094568
      ],
      [
        "▁okuwo",
        -9.13418881556763
      ],
      [
        "avu",
        -9.134478682462806
      ],
      [
        "ekatek",
        -9.13570516238988
      ],
      [
        "▁base",
        -9.136159733033297
      ],
      [
        "ole",
        -9.137618735019041
      ],
      [
        "▁amagat",
        -9.13898096241756
      ],
      [
        "’ebisoro",
        -9.140023627472178
      ],
      [
        "kuma",
        -9.141310190460263
      ],
      [
        "ebigere",
        -9.141602937391925
      ],
      [
        "byafa",
        -9.143623572598903
      ],
      [
        "okukwata",
        -9.143768472081486
      ],
      [
        "ya.",
        -9.144941913534453
      ],
      [
        "alibwa",
        -9.145739572458407
      ],
      [
        "▁obuzi",
        -9.148449686642364
      ],
      [
        "wako",
        -9.149619232323932
      ],
      [
        "ewo",
        -9.149892310940196
      ],
      [
        "000",
        -9.151482298109327
      ],
      [
        "omukulembeze",
        -9.153454321183775
      ],
      [
        "▁ebif",
        -9.154532749777648
      ],
      [
        "▁ana",
        -9.155869654008745
      ],
      [
        "ayita",
        -9.155980247206566
      ],
      [
        "adi",
        -9.156606312576447
      ],
      [
        "▁ly",
        -9.157405211179743
      ],
      [
        "muzany",
        -9.158473157521238
      ],
      [
        "▁emiz",
        -9.160951389811641
      ],
      [
        "lya",
        -9.161824742150571
      ],
      [
        "▁ayi",
        -9.166816935201911
      ],
      [
        "▁erin",
        -9.168264014119707
      ],
      [
        "omuzanny",
        -9.16870584819216
      ],
      [
        "▁basa",
        -9.171219579084354
      ],
      [
        "vv",
        -9.171270912470522
      ],
      [
        "▁musu",
        -9.172364824880907
      ],
      [
        "▁oluku",
        -9.172844538552893
      ],
      [
        "ukka",
        -9.17286899700468
      ],
      [
        "▁ngazi",
        -9.173464657255531
      ],
      [
        "der",
        -9.174565100690778
      ],
      [
        "▁ogw'",
        -9.175014574065687
      ],
      [
        "▁eby’",
        -9.178632167872369
      ],
      [
        "▁ly'",
        -9.180860739098467
      ],
      [
        "▁abavu",
        -9.181806528897072
      ],
      [
        "komek",
        -9.184374148147015
      ],
      [
        "mp",
        -9.184647650472014
      ],
      [
        "wamu",
        -9.184803761712413
      ],
      [
        "van",
        -9.189443835869147
      ],
      [
        "wandi",
        -9.190435696652688
      ],
      [
        "ush",
        -9.192684708322291
      ],
      [
        "gy",
        -9.192736272073404
      ],
      [
        "▁Ru",
        -9.195134983328202
      ],
      [
        "lukale",
        -9.196162075197089
      ],
      [
        "ulidwa",
        -9.196373474327675
      ],
      [
        "▁abayi",
        -9.1974352037799
      ],
      [
        "▁bayi",
        -9.198447429899344
      ],
      [
        "ob",
        -9.199260924939075
      ],
      [
        "gwako",
        -9.200271621018736
      ],
      [
        "▁Ed",
        -9.201401485820254
      ],
      [
        "kudduk",
        -9.201939198802021
      ],
      [
        "▁neki",
        -9.202493589538921
      ],
      [
        "omo",
        -9.203618217390316
      ],
      [
        "kula",
        -9.203821339034093
      ],
      [
        "kolo",
        -9.204247550965603
      ],
      [
        "-19",
        -9.20743413688805
      ],
      [
        "▁obwo",
        -9.208531930104773
      ],
      [
        "ell",
        -9.209424732586674
      ],
      [
        "makya",
        -9.210224112307214
      ],
      [
        "yat",
        -9.21065966563429
      ],
      [
        "▁Za",
        -9.212799826960278
      ],
      [
        "▁omusa",
        -9.213417587178306
      ],
      [
        "▁ke",
        -9.214458065231652
      ],
      [
        "ugavu",
        -9.215844612849576
      ],
      [
        "lako",
        -9.21667593056613
      ],
      [
        "aaga",
        -9.216859145529446
      ],
      [
        "▁Ni",
        -9.21720270252765
      ],
      [
        "▁yama",
        -9.219129385269552
      ],
      [
        "▁mus",
        -9.219765857074895
      ],
      [
        "▁ch",
        -9.22319668607847
      ],
      [
        "ps",
        -9.223230558145252
      ],
      [
        "ziddwa",
        -9.223613008041731
      ],
      [
        "kungu",
        -9.223638749999362
      ],
      [
        "ac",
        -9.224159150005315
      ],
      [
        "asooka",
        -9.224921043570413
      ],
      [
        "▁kwo",
        -9.226595729106194
      ],
      [
        "uwa",
        -9.22681504856343
      ],
      [
        "ag",
        -9.227191568754293
      ],
      [
        "▁kili",
        -9.227693129015
      ],
      [
        "▁bise",
        -9.230120966480264
      ],
      [
        "▁pak",
        -9.230569907220184
      ],
      [
        "amaliriza",
        -9.230835192013323
      ],
      [
        "est",
        -9.23149843151979
      ],
      [
        "▁okunyw",
        -9.231608965483495
      ],
      [
        "aya",
        -9.231810360178471
      ],
      [
        "▁Fl",
        -9.23229942025858
      ],
      [
        "tonde",
        -9.234109347962939
      ],
      [
        "▁kyon",
        -9.234654678227608
      ],
      [
        "tebe",
        -9.234679232275003
      ],
      [
        "ggi",
        -9.235324906859965
      ],
      [
        "▁Su",
        -9.23562314872052
      ],
      [
        "▁neb",
        -9.235926669834074
      ],
      [
        "amba",
        -9.237806196987524
      ],
      [
        "pu",
        -9.238323510228508
      ],
      [
        "tere",
        -9.23947889208689
      ],
      [
        "gezaa",
        -9.24020192258649
      ],
      [
        "▁Jo",
        -9.241461993013669
      ],
      [
        "nde",
        -9.243785006487434
      ],
      [
        "ondebwa",
        -9.24535470509076
      ],
      [
        "▁by'eb",
        -9.247124464337103
      ],
      [
        "5",
        -9.247882438009686
      ],
      [
        "su",
        -9.249836739753322
      ],
      [
        "▁kunsi",
        -9.251650836207375
      ],
      [
        "uti",
        -9.253746731972763
      ],
      [
        "kiwandiiko",
        -9.253796484755977
      ],
      [
        "▁omus",
        -9.254580541263469
      ],
      [
        "▁eziri",
        -9.254721520462194
      ],
      [
        "▁Ama",
        -9.2551140290898
      ],
      [
        "kwebaka",
        -9.255300011593542
      ],
      [
        "▁ji",
        -9.25538567686556
      ],
      [
        "ver",
        -9.256661455899005
      ],
      [
        "kabenje",
        -9.2582315482087
      ],
      [
        "yiziddwa",
        -9.258609002841855
      ],
      [
        "ale",
        -9.258619434799185
      ],
      [
        "▁ekigend",
        -9.263960528523732
      ],
      [
        "▁mul",
        -9.264976914458915
      ],
      [
        "ngi.",
        -9.26536917111865
      ],
      [
        "og",
        -9.265869611878227
      ],
      [
        "▁wab",
        -9.266871947963633
      ],
      [
        "bwat",
        -9.26752798750445
      ],
      [
        "lidde",
        -9.268072429046644
      ],
      [
        "ungi",
        -9.269463708533262
      ],
      [
        "bela",
        -9.270794515438302
      ],
      [
        "ir",
        -9.271523686683718
      ],
      [
        "ombi",
        -9.271655531734895
      ],
      [
        "▁kul",
        -9.273027933067738
      ],
      [
        "▁otu",
        -9.273285313367586
      ],
      [
        "mugaso",
        -9.27360294301412
      ],
      [
        "ezid",
        -9.273630040948312
      ],
      [
        "by",
        -9.273748375576005
      ],
      [
        "▁ng'e",
        -9.273968817264878
      ],
      [
        "▁kw'e",
        -9.274409223038964
      ],
      [
        "kere",
        -9.275856135551711
      ],
      [
        "▁okudd",
        -9.279476030317488
      ],
      [
        "▁kwali",
        -9.279779550335258
      ],
      [
        "kufuna",
        -9.281691049554562
      ],
      [
        "▁by’a",
        -9.28184281018042
      ],
      [
        "▁kumi",
        -9.283501590423562
      ],
      [
        "ik",
        -9.284250469943313
      ],
      [
        "▁ey’",
        -9.28637231009319
      ],
      [
        "merika",
        -9.287377698004882
      ],
      [
        "▁Atlant",
        -9.287539659072127
      ],
      [
        "▁Okus",
        -9.288987743339458
      ],
      [
        "reza",
        -9.289541619821396
      ],
      [
        "balama",
        -9.289584263632646
      ],
      [
        "line",
        -9.290257300541018
      ],
      [
        "gule",
        -9.291610234826654
      ],
      [
        "yan",
        -9.295165253026319
      ],
      [
        "▁ge",
        -9.297245599810529
      ],
      [
        "▁sa",
        -9.297782863801187
      ],
      [
        "▁nk",
        -9.298144003309261
      ],
      [
        "suubi",
        -9.29869211525684
      ],
      [
        "bya",
        -9.299003827322815
      ],
      [
        "walampa",
        -9.304138838820892
      ],
      [
        "▁Obuk",
        -9.304849901125623
      ],
      [
        "dembe",
        -9.307437620608177
      ],
      [
        "▁ekizi",
        -9.31057594020181
      ],
      [
        "▁kusi",
        -9.31072693678976
      ],
      [
        "▁alin",
        -9.311289903256478
      ],
      [
        "▁Ekir",
        -9.312803033887255
      ],
      [
        "asinze",
        -9.31296677473409
      ],
      [
        "tuuz",
        -9.316056952330753
      ],
      [
        "semayanja",
        -9.317438031608006
      ],
      [
        "▁eny",
        -9.31995750239014
      ],
      [
        "woge",
        -9.320495533702772
      ],
      [
        "iff",
        -9.321033469356287
      ],
      [
        "aana",
        -9.321461109025071
      ],
      [
        "um",
        -9.321635932312887
      ],
      [
        "▁go",
        -9.321890222995426
      ],
      [
        "▁kiku",
        -9.322677856390237
      ],
      [
        "▁Ko",
        -9.322846628134409
      ],
      [
        "tro",
        -9.323053401311887
      ],
      [
        "nnaku",
        -9.323639874232896
      ],
      [
        "eet",
        -9.32414308910785
      ],
      [
        "▁yat",
        -9.324851321991007
      ],
      [
        "subir",
        -9.325251727558502
      ],
      [
        "▁n’en",
        -9.32568887392076
      ],
      [
        "ebikuj",
        -9.325830291808419
      ],
      [
        "mwe",
        -9.327659222614226
      ],
      [
        "▁kusa",
        -9.32823145166914
      ],
      [
        "serengeta",
        -9.32869930937026
      ],
      [
        "▁esinga",
        -9.331743367351883
      ],
      [
        "buzi",
        -9.33187641150511
      ],
      [
        "y'amaanyi",
        -9.332278962995197
      ],
      [
        "▁bw’o",
        -9.33499434291981
      ],
      [
        "ord",
        -9.33517344447623
      ],
      [
        "edda",
        -9.335731173457319
      ],
      [
        "iyo",
        -9.336078609913399
      ],
      [
        "nce",
        -9.337263170859652
      ],
      [
        "as",
        -9.337720730999427
      ],
      [
        "ikolebwa",
        -9.338953790267023
      ],
      [
        "iva",
        -9.33935718178958
      ],
      [
        "yazi",
        -9.340322685262151
      ],
      [
        "ene",
        -9.341346586853025
      ],
      [
        "▁okuk",
        -9.341992536600074
      ],
      [
        "ata",
        -9.344823949969527
      ],
      [
        "▁6,",
        -9.345366853103528
      ],
      [
        "irowooz",
        -9.346230632628053
      ],
      [
        "lulag",
        -9.34678416303757
      ],
      [
        "ss",
        -9.348031114695036
      ],
      [
        "▁obuz",
        -9.348974389781374
      ],
      [
        "kanya",
        -9.349731674349803
      ],
      [
        "▁ta",
        -9.350225107182723
      ],
      [
        "▁ekiri",
        -9.350489588620508
      ],
      [
        "▁budde",
        -9.35170736721442
      ],
      [
        "aano",
        -9.351723909349088
      ],
      [
        "situl",
        -9.352372635530074
      ],
      [
        "(",
        -9.353949100953876
      ],
      [
        "s”",
        -9.355299808552758
      ],
      [
        "▁kuk",
        -9.358446516185914
      ],
      [
        "▁oli",
        -9.361633792935445
      ],
      [
        "itebe",
        -9.362369552149495
      ],
      [
        "▁byebi",
        -9.36308722528382
      ],
      [
        "▁okusinzi",
        -9.363660226395858
      ],
      [
        "sono",
        -9.36491207951861
      ],
      [
        "wamba",
        -9.365117950608656
      ],
      [
        "lamu",
        -9.366125069041157
      ],
      [
        "ila",
        -9.36681074560863
      ],
      [
        "U",
        -9.367382607502329
      ],
      [
        "kk",
        -9.367409632871011
      ],
      [
        "eken",
        -9.368579254317902
      ],
      [
        "▁ekyali",
        -9.368802693143595
      ],
      [
        "ssaawa",
        -9.369699029783888
      ],
      [
        "esimb",
        -9.371704085254333
      ],
      [
        "ettut",
        -9.372780907502335
      ],
      [
        "buwangwa",
        -9.374370979664198
      ],
      [
        "way",
        -9.37550471972031
      ],
      [
        "amb",
        -9.375582099426547
      ],
      [
        "bugazi",
        -9.3760948065858
      ],
      [
        "izza",
        -9.376508075993211
      ],
      [
        "ish",
        -9.376675104161986
      ],
      [
        "mukaaga",
        -9.376697853511903
      ],
      [
        "uza",
        -9.3769376323091
      ],
      [
        "ilila",
        -9.380092825318306
      ],
      [
        "▁Co",
        -9.380155409047436
      ],
      [
        "kuta",
        -9.380574457731067
      ],
      [
        "end",
        -9.381645013960355
      ],
      [
        "kunonyelez",
        -9.381949154976729
      ],
      [
        "idi",
        -9.38314619212108
      ],
      [
        "▁pul",
        -9.387532109783148
      ],
      [
        "▁Geo",
        -9.38753783635928
      ],
      [
        "▁Gran",
        -9.388555214947004
      ],
      [
        "kaga",
        -9.38914262895925
      ],
      [
        "emu",
        -9.389626282529198
      ],
      [
        "eru",
        -9.389867690371858
      ],
      [
        "rce",
        -9.392572149319657
      ],
      [
        "▁okuly",
        -9.3929967524674
      ],
      [
        "▁Okwe",
        -9.393781513428424
      ],
      [
        "▁Pe",
        -9.393830820536976
      ],
      [
        "ongose",
        -9.395933628690898
      ],
      [
        "embe",
        -9.396373868816974
      ],
      [
        "kolera",
        -9.397722443773675
      ],
      [
        "▁olw'",
        -9.400146206371918
      ],
      [
        "▁ebyen",
        -9.40089005375885
      ],
      [
        "esobola",
        -9.401792440129077
      ],
      [
        "hne",
        -9.402996298429345
      ],
      [
        "▁bana",
        -9.403367145828003
      ],
      [
        "▁eli",
        -9.403528745000559
      ],
      [
        "▁Sing",
        -9.403818478491356
      ],
      [
        "▁luk",
        -9.40435773129473
      ],
      [
        "▁ng’",
        -9.405336582481038
      ],
      [
        "▁bakyal",
        -9.405853733106756
      ],
      [
        "▁abag",
        -9.406375291431946
      ],
      [
        "suubir",
        -9.408260564988314
      ],
      [
        "nyu",
        -9.408443103324943
      ],
      [
        "londe",
        -9.408515487235153
      ],
      [
        "yasoka",
        -9.409191571856494
      ],
      [
        "▁(eki",
        -9.409723754772859
      ],
      [
        "▁Ch",
        -9.410147384625924
      ],
      [
        "avugany",
        -9.411036519509242
      ],
      [
        "▁yetaag",
        -9.411487159464135
      ],
      [
        "engen",
        -9.411948592212056
      ],
      [
        "▁yaf",
        -9.413344497909282
      ],
      [
        "mmer",
        -9.413792984083942
      ],
      [
        "▁Oluk",
        -9.41393690079732
      ],
      [
        "egi",
        -9.414027215828439
      ],
      [
        "▁olw’",
        -9.415766449119522
      ],
      [
        "ney",
        -9.416907152288024
      ],
      [
        "w'aba",
        -9.417209660443307
      ],
      [
        "’e",
        -9.417211275016935
      ],
      [
        "kye",
        -9.41783391192017
      ],
      [
        "▁omwo",
        -9.41810875336026
      ],
      [
        "q",
        -9.418154410199973
      ],
      [
        "jjo",
        -9.41823552199609
      ],
      [
        "▁kamp",
        -9.41839135031095
      ],
      [
        "▁bhajan",
        -9.418427220631521
      ],
      [
        "▁okuny",
        -9.418525702873612
      ],
      [
        "onso",
        -9.41899686891371
      ],
      [
        "njazi",
        -9.419269751740583
      ],
      [
        "▁kubyenta",
        -9.4194142664937
      ],
      [
        "▁yeya",
        -9.420760693280569
      ],
      [
        "soma",
        -9.420775615114598
      ],
      [
        "ü",
        -9.421069455829322
      ],
      [
        "oleso",
        -9.42107279387302
      ],
      [
        "▁embi",
        -9.422278772607047
      ],
      [
        "ttu",
        -9.422290842752686
      ],
      [
        "lwanyi",
        -9.422358235095745
      ],
      [
        "▁Copenhagen",
        -9.422808833527215
      ],
      [
        "▁Association",
        -9.422808833527354
      ],
      [
        "▁Organisation",
        -9.422808833527629
      ],
      [
        "▁Devonport",
        -9.422808833532228
      ],
      [
        "▁Mediterranea",
        -9.422808833549839
      ],
      [
        "▁Fallujah",
        -9.4228088335651
      ],
      [
        "X",
        -9.422808833567169
      ],
      [
        "H5N1",
        -9.422808833790336
      ],
      [
        "(F",
        -9.422808834047773
      ],
      [
        "▁Frontiere",
        -9.422808834180719
      ],
      [
        "yamuwereke",
        -9.422808834961879
      ],
      [
        "▁Armenia",
        -9.42280883558807
      ],
      [
        "▁Istanbul",
        -9.422808837013324
      ],
      [
        "▁Colbert",
        -9.422808838648807
      ],
      [
        "bateesiteesi",
        -9.42280884057171
      ],
      [
        "▁kakuyege",
        -9.422808843246596
      ],
      [
        "▁Stewart",
        -9.422808844208989
      ],
      [
        "▁Morocco",
        -9.422808847245783
      ],
      [
        "▁Nintendo",
        -9.422808848931584
      ],
      [
        "▁Afghanistan",
        -9.422808850278495
      ],
      [
        "▁Stearns",
        -9.422808851257942
      ],
      [
        "▁martian",
        -9.422808862192133
      ],
      [
        "▁hockey",
        -9.422808884583542
      ],
      [
        "▁Fernand",
        -9.422808887246699
      ],
      [
        "▁obwetwaze",
        -9.42280889406388
      ],
      [
        "▁Croatia",
        -9.422808901817355
      ],
      [
        "▁4x4",
        -9.422808903071562
      ],
      [
        "▁Caspian",
        -9.42280893501788
      ],
      [
        "ynasty",
        -9.42280898534041
      ],
      [
        "▁k'ebyok",
        -9.422809076985239
      ],
      [
        "lipagano",
        -9.422809133318498
      ],
      [
        "Simpson",
        -9.422809288578932
      ],
      [
        "▁Israel",
        -9.422809394927933
      ],
      [
        "▁engwiira",
        -9.422809472231823
      ],
      [
        "▁Gordon",
        -9.422809488835854
      ],
      [
        "▁zetagisa",
        -9.4228095592936
      ],
      [
        "▁Arizona",
        -9.422809633853173
      ],
      [
        "▁Dominican",
        -9.42280966549816
      ],
      [
        "lweggulo",
        -9.42280976126992
      ],
      [
        "▁London",
        -9.422809810028623
      ],
      [
        "ndarban",
        -9.422810845104006
      ],
      [
        "▁lutimbe",
        -9.42281113743211
      ],
      [
        "firiddwa",
        -9.4228133982215
      ],
      [
        "▁Utah",
        -9.422814526673756
      ],
      [
        "▁Bobek",
        -9.422814715628789
      ],
      [
        "▁Ameefuga",
        -9.422815552688771
      ],
      [
        "▁Texas",
        -9.422815623274818
      ],
      [
        "▁Musoke",
        -9.422816464996776
      ],
      [
        "ataganyizibwa",
        -9.422818103885724
      ],
      [
        "ommittee",
        -9.42281854562123
      ],
      [
        "▁by'obutiti",
        -9.422820651585727
      ],
      [
        "II.",
        -9.42282161438649
      ],
      [
        "▁Yitale",
        -9.42282235899227
      ],
      [
        "ogeragerany",
        -9.42282310494837
      ],
      [
        "▁enjatika",
        -9.422825344709176
      ],
      [
        "▁Disney",
        -9.42282852611383
      ],
      [
        "▁Harbour",
        -9.422829628599992
      ],
      [
        "▁ebiwundu",
        -9.42283157219996
      ],
      [
        "ebyetaagisibwa",
        -9.422840650687439
      ],
      [
        "▁Russia",
        -9.422843695084547
      ],
      [
        "NBA",
        -9.422855156043273
      ],
      [
        "30,000",
        -9.422863738951133
      ],
      [
        "bunyogovu",
        -9.422868779344125
      ],
      [
        "▁Lwakubanga",
        -9.422869253532445
      ],
      [
        "▁endagamunt",
        -9.42287199236145
      ],
      [
        "ebyokwerin",
        -9.422872539564283
      ],
      [
        "yayongede",
        -9.422873446791007
      ],
      [
        "▁passipo",
        -9.422876723459327
      ],
      [
        "▁USOC",
        -9.422898924235765
      ],
      [
        "komelero",
        -9.422906071926423
      ],
      [
        "▁liiso",
        -9.422913239523151
      ],
      [
        "▁z’omukka",
        -9.422919032493567
      ],
      [
        "Net",
        -9.422919447698753
      ],
      [
        "teeso",
        -9.42292266269856
      ],
      [
        "▁yasaziz",
        -9.422922813747562
      ],
      [
        "teguna",
        -9.422925954912278
      ],
      [
        "iwereze",
        -9.422929125722828
      ],
      [
        "▁enjawukana",
        -9.422935903283728
      ],
      [
        "fananyiriza",
        -9.422938946587252
      ],
      [
        "erusalem",
        -9.422939132577772
      ],
      [
        "▁teyalumizid",
        -9.42293943259207
      ],
      [
        "America",
        -9.422961327938713
      ],
      [
        "omulonzi",
        -9.422964046522047
      ],
      [
        "▁2020",
        -9.422986698071252
      ],
      [
        "▁Hungar",
        -9.422996811293594
      ],
      [
        "▁ez'ok",
        -9.423002832635419
      ],
      [
        "▁Inc",
        -9.4230057913222
      ],
      [
        "▁n’obwangu",
        -9.423032905245178
      ],
      [
        "▁Aires",
        -9.423038663729086
      ],
      [
        "▁woteeri",
        -9.423054947386042
      ],
      [
        "▁oluvannyuma",
        -9.423055958946481
      ],
      [
        "▁kutambul",
        -9.423065879279033
      ],
      [
        "▁Nation",
        -9.423103233575373
      ],
      [
        "▁n'omunaana",
        -9.423115060278166
      ],
      [
        "▁y'omu",
        -9.423115142295734
      ],
      [
        "▁y’obuy",
        -9.423123656197186
      ],
      [
        "▁ebizib",
        -9.423140500483177
      ],
      [
        "▁2006",
        -9.423154077564565
      ],
      [
        "250",
        -9.423173146283728
      ],
      [
        "▁eggulo",
        -9.42318129555114
      ],
      [
        "▁nolwe",
        -9.423188555656905
      ],
      [
        "kwettanir",
        -9.42319603086569
      ],
      [
        "oliisi",
        -9.423201963807568
      ],
      [
        "▁mmeeri",
        -9.42320405736768
      ],
      [
        "▁Argentine",
        -9.423208256935101
      ],
      [
        "abalonzi",
        -9.423231170376738
      ],
      [
        "▁Korea",
        -9.423253600155322
      ],
      [
        "▁guwedde,",
        -9.423276242883446
      ],
      [
        "▁Alex",
        -9.423316533241525
      ],
      [
        "▁German",
        -9.42334239282431
      ],
      [
        "sanyalaz",
        -9.42339858473489
      ],
      [
        "kwongeza",
        -9.423406128233427
      ],
      [
        "▁32",
        -9.423410440258401
      ],
      [
        "obwegendereza",
        -9.4234175811422
      ],
      [
        "▁West",
        -9.423430927441947
      ],
      [
        "▁Hsie",
        -9.423464981772886
      ],
      [
        "yeesuu",
        -9.42347092004037
      ],
      [
        "▁Gaton",
        -9.423534215342869
      ],
      [
        "chell",
        -9.42355010103848
      ],
      [
        "ATA",
        -9.42356430099326
      ],
      [
        "▁USA",
        -9.423575833515788
      ],
      [
        "▁okufaana",
        -9.423587299784382
      ],
      [
        "sunsul",
        -9.423593931039132
      ],
      [
        "▁w'ensi",
        -9.423594320953601
      ],
      [
        "76",
        -9.423594943945849
      ],
      [
        "▁Star",
        -9.423609434345662
      ],
      [
        "▁oje",
        -9.423624523472991
      ],
      [
        "▁Onega",
        -9.423626946223413
      ],
      [
        "kalulu",
        -9.423644551175226
      ],
      [
        "▁km2",
        -9.423656728982039
      ],
      [
        "▁okuziyi",
        -9.42366458247584
      ],
      [
        "▁engazi",
        -9.42367501203453
      ],
      [
        "▁2010",
        -9.423679924975035
      ],
      [
        "▁53",
        -9.423718548539265
      ],
      [
        "▁byalete",
        -9.423748025245764
      ],
      [
        "▁okuvumbul",
        -9.423752147377877
      ],
      [
        "kasambat",
        -9.423758432122085
      ],
      [
        "▁nakwega",
        -9.423796340380864
      ],
      [
        "▁Slov",
        -9.423821086419188
      ],
      [
        "cine",
        -9.423905392827502
      ],
      [
        "▁z'omu",
        -9.423920060377501
      ],
      [
        "alemere",
        -9.423926586726598
      ],
      [
        "scar",
        -9.423937387646962
      ],
      [
        "▁Omusom",
        -9.423990756422484
      ],
      [
        "▁tewetag",
        -9.424011652768806
      ],
      [
        "juvu",
        -9.424029858181948
      ],
      [
        "▁kampuni",
        -9.424047430113445
      ],
      [
        "▁2000",
        -9.424074849300592
      ],
      [
        "okusanyuka",
        -9.424095668887723
      ],
      [
        "▁zin",
        -9.424096617197783
      ],
      [
        "y’obutond",
        -9.424108537984106
      ],
      [
        "▁bakikoze",
        -9.424203079719431
      ],
      [
        "468",
        -9.424229488846384
      ],
      [
        "▁amefuga",
        -9.42423795460841
      ],
      [
        "yakosebwa",
        -9.424365988952259
      ],
      [
        "dukka",
        -9.424389396971248
      ],
      [
        "▁eyawukana",
        -9.424423712082165
      ],
      [
        "▁g’ekiwandiiko",
        -9.424510520585686
      ],
      [
        "▁enddala",
        -9.424549844918522
      ],
      [
        "üm",
        -9.424551155655971
      ],
      [
        "▁Whi",
        -9.424587175905947
      ],
      [
        "▁Feli",
        -9.424619577807855
      ],
      [
        "vill",
        -9.424664717917418
      ],
      [
        "tegerek",
        -9.424743457999627
      ],
      [
        "▁kwetuli",
        -9.424763420889729
      ],
      [
        "▁emik",
        -9.424778836971269
      ],
      [
        "▁ezabulijjo",
        -9.424791401656769
      ],
      [
        "▁Ebyobu",
        -9.424923519254643
      ],
      [
        "▁okugezes",
        -9.42494057813428
      ],
      [
        "▁MS",
        -9.425071692278188
      ],
      [
        "▁tebamanyi",
        -9.42507259372948
      ],
      [
        "saasanya",
        -9.425152739494171
      ],
      [
        "▁buyamb",
        -9.425184630984841
      ],
      [
        "▁Wabula",
        -9.4251991219682
      ],
      [
        "rica",
        -9.425209086867035
      ],
      [
        "▁zimala",
        -9.425244424288074
      ],
      [
        "mpola",
        -9.425276786299396
      ],
      [
        "▁MP",
        -9.425311883927144
      ],
      [
        "▁lwokusatu",
        -9.425321908342813
      ],
      [
        "kiika",
        -9.425396197426988
      ],
      [
        "blica",
        -9.42541061055402
      ],
      [
        "chest",
        -9.4254843436889
      ],
      [
        "▁Okuyingi",
        -9.42549461468026
      ],
      [
        "anca",
        -9.425616644145538
      ],
      [
        "▁kwatandi",
        -9.425642248041207
      ],
      [
        "▁ezasooka",
        -9.425707469346957
      ],
      [
        "kose",
        -9.425737855782936
      ],
      [
        "▁Afi",
        -9.42578038951266
      ],
      [
        "▁“N",
        -9.425876079186265
      ],
      [
        "▁Alipo",
        -9.425880850630193
      ],
      [
        "▁fili",
        -9.42590912839268
      ],
      [
        "▁ekyenk",
        -9.425926652395525
      ],
      [
        "▁teganat",
        -9.425970902590851
      ],
      [
        "dde,",
        -9.425983219673988
      ],
      [
        "port",
        -9.426269082179235
      ],
      [
        "▁amanene",
        -9.426289089630021
      ],
      [
        "▁ezisas",
        -9.42629155616619
      ],
      [
        "▁Mukas",
        -9.42631437184343
      ],
      [
        "▁“M",
        -9.426327641280388
      ],
      [
        "▁bamaze",
        -9.426567468793102
      ],
      [
        "▁webye",
        -9.426672260991761
      ],
      [
        "▁“E",
        -9.426695712597994
      ],
      [
        "▁Trans",
        -9.426711653637899
      ],
      [
        "▁w’aba",
        -9.426779682160163
      ],
      [
        "▁enkadde",
        -9.426813297849346
      ],
      [
        "dal",
        -9.426903972757726
      ],
      [
        "▁Fran",
        -9.426978188057866
      ],
      [
        "▁gwekumi",
        -9.427019992607091
      ],
      [
        "▁bhajans",
        -9.427209227924063
      ],
      [
        "jjanjab",
        -9.427239423663842
      ],
      [
        "▁okukyaala",
        -9.427301109482054
      ],
      [
        "masekati",
        -9.427346469137872
      ],
      [
        "▁kumina",
        -9.427500427847969
      ],
      [
        "▁Ebola",
        -9.42755827162382
      ],
      [
        "▁entonotono",
        -9.427825753467266
      ],
      [
        "▁ezikya",
        -9.427904557091072
      ],
      [
        "▁w'olu",
        -9.427947678708232
      ],
      [
        "▁obupya",
        -9.427948827886627
      ],
      [
        "▁bandisa",
        -9.428097613774874
      ],
      [
        "▁bawangu",
        -9.428098466036674
      ],
      [
        "▁zileeta",
        -9.428144975815929
      ],
      [
        "Tokyo",
        -9.428208109299955
      ],
      [
        "maloboozi",
        -9.428272177787154
      ],
      [
        "▁Noo",
        -9.428389024489366
      ],
      [
        "lengera",
        -9.428398551063427
      ],
      [
        "▁kkoo",
        -9.428427787572698
      ],
      [
        "▁muku",
        -9.428460408131476
      ],
      [
        "mph",
        -9.428470224797003
      ],
      [
        "▁amaato",
        -9.428530311607918
      ],
      [
        "▁North",
        -9.428629739641654
      ],
      [
        "▁nnyingi",
        -9.428771935032294
      ],
      [
        "rother",
        -9.42879927112126
      ],
      [
        "iici",
        -9.428884284947511
      ],
      [
        "▁busatu",
        -9.428932501382485
      ],
      [
        "yawagulu",
        -9.428974982486269
      ],
      [
        "neti",
        -9.42901082232481
      ],
      [
        "▁Kat",
        -9.429022617022305
      ],
      [
        "▁okukwas",
        -9.429174928782434
      ],
      [
        "▁n'obu",
        -9.429183029794098
      ],
      [
        "▁bunene",
        -9.429247458322248
      ],
      [
        "▁ezoku",
        -9.429334515269085
      ],
      [
        "▁kubikwata",
        -9.429536502850423
      ],
      [
        "▁eky’",
        -9.429641107952666
      ],
      [
        "▁avia",
        -9.429724900079368
      ],
      [
        "▁AC",
        -9.429815504766477
      ],
      [
        "▁ebilungi",
        -9.430009461798429
      ],
      [
        "wegugung",
        -9.430058695272832
      ],
      [
        "▁ky’ama",
        -9.430089773724127
      ],
      [
        "▁kyekyo",
        -9.430162099606124
      ],
      [
        "▁ekyasooka",
        -9.430238052510987
      ],
      [
        "▁omulala",
        -9.43034478031587
      ],
      [
        "▁kubulamu",
        -9.430596393230488
      ],
      [
        "▁ngatona",
        -9.430736595492737
      ],
      [
        "▁fe",
        -9.43074817642472
      ],
      [
        "▁n’obute",
        -9.430861874553798
      ],
      [
        "kulember",
        -9.431266316175805
      ],
      [
        "eyolek",
        -9.431371306656409
      ],
      [
        "▁Air",
        -9.4314766137413
      ],
      [
        "▁eyoger",
        -9.431513266590173
      ],
      [
        "▁nakyo",
        -9.431648386244644
      ],
      [
        "ball",
        -9.431888078699348
      ],
      [
        "ect",
        -9.431963542453378
      ],
      [
        "gne,",
        -9.431978869100108
      ],
      [
        "rge",
        -9.4320225765499
      ],
      [
        "-3",
        -9.432080760599224
      ],
      [
        "gwateekebwa",
        -9.43210813551699
      ],
      [
        "▁ebiwanvu",
        -9.432145657413784
      ],
      [
        "▁zabulijjo",
        -9.432345459915588
      ],
      [
        "sayansi",
        -9.432390699937809
      ],
      [
        "▁eyaso",
        -9.432606609711463
      ],
      [
        "lipin",
        -9.433121205597498
      ],
      [
        "▁n’okutee",
        -9.43316919739761
      ],
      [
        "▁Part",
        -9.433184175691473
      ],
      [
        "▁okusoma",
        -9.433267914955387
      ],
      [
        "▁bw'eki",
        -9.433403088780453
      ],
      [
        "▁okugoberer",
        -9.433605686826976
      ],
      [
        "▁ne’ama",
        -9.434066874363559
      ],
      [
        "▁Sup",
        -9.434072567184703
      ],
      [
        "▁akulembera",
        -9.434222907679459
      ],
      [
        "▁Sul",
        -9.43423746666953
      ],
      [
        "▁Arti",
        -9.434347605541145
      ],
      [
        "▁lwok",
        -9.434468385812972
      ],
      [
        "▁webif",
        -9.434832985879808
      ],
      [
        "▁owokuk",
        -9.435228344672637
      ],
      [
        "▁yategez",
        -9.435525091190664
      ],
      [
        "▁Har",
        -9.43554120574635
      ],
      [
        "▁beeta",
        -9.435615764221236
      ],
      [
        "akuuma",
        -9.435829983811537
      ],
      [
        "▁yandiba",
        -9.436173052545335
      ],
      [
        "Gore",
        -9.43617422455562
      ],
      [
        "▁Mis",
        -9.43644122486551
      ],
      [
        "isita",
        -9.4365662995874
      ],
      [
        "anisa",
        -9.436851623026493
      ],
      [
        "▁okubye",
        -9.43694764978854
      ],
      [
        "bulijo",
        -9.436972651338568
      ],
      [
        "dagala",
        -9.437189795355414
      ],
      [
        "▁kac",
        -9.43730133981861
      ],
      [
        "ufaransa",
        -9.43737123064684
      ],
      [
        "oven",
        -9.437612981923015
      ],
      [
        "ji",
        -9.43763969264211
      ],
      [
        "▁Jon",
        -9.437687411330026
      ],
      [
        "pa",
        -9.43798983043442
      ],
      [
        "▁okutegek",
        -9.438006080864774
      ],
      [
        "▁akakod",
        -9.438234129396633
      ],
      [
        "▁bikolebwa",
        -9.438272790835654
      ],
      [
        "▁obukya",
        -9.438348198810079
      ],
      [
        "kyaala",
        -9.438424540732274
      ],
      [
        "itani",
        -9.438497907006273
      ],
      [
        "japan",
        -9.438835912436307
      ],
      [
        "musana",
        -9.438892372276669
      ],
      [
        "▁kons",
        -9.438902531118883
      ],
      [
        "'olusozi",
        -9.438956268628605
      ],
      [
        "Okwatu",
        -9.43898271725384
      ],
      [
        "▁bwabwe",
        -9.439224367117205
      ],
      [
        "▁ogye",
        -9.439280546312906
      ],
      [
        "gwawo",
        -9.439360857305834
      ],
      [
        "wetolodd",
        -9.439913635109553
      ],
      [
        "sinziira",
        -9.440150245672427
      ],
      [
        "kusanyu",
        -9.440492409396278
      ],
      [
        "ulamu",
        -9.440587292106574
      ],
      [
        "alangibwa",
        -9.440607252144018
      ],
      [
        "▁Mit",
        -9.440745519390859
      ],
      [
        "▁n’obu",
        -9.440761844640713
      ],
      [
        "▁bala",
        -9.440903895026905
      ],
      [
        "▁mweba",
        -9.440985616678848
      ],
      [
        "▁agamu",
        -9.44110990954363
      ],
      [
        "tell",
        -9.44121411649416
      ],
      [
        "▁lubalama",
        -9.441237782239842
      ],
      [
        "bor",
        -9.441241275119278
      ],
      [
        "▁mumpe",
        -9.441286769239206
      ],
      [
        "meler",
        -9.441616232739312
      ],
      [
        "▁kyangu",
        -9.441853731798707
      ],
      [
        "lugambo",
        -9.441898747032129
      ],
      [
        "▁enkulu",
        -9.442570980664453
      ],
      [
        "▁Ham",
        -9.44258235522456
      ],
      [
        "▁King",
        -9.442652972172397
      ],
      [
        "entiisa",
        -9.442903159079178
      ],
      [
        "▁enyingi",
        -9.443139861651678
      ],
      [
        "omwoleso",
        -9.44319508736295
      ],
      [
        "kubye",
        -9.443662766629826
      ],
      [
        "ebbanga",
        -9.443727856051883
      ],
      [
        "▁Ve",
        -9.443782191250499
      ],
      [
        "shi",
        -9.444235990752297
      ],
      [
        "▁Omut",
        -9.444304673383751
      ],
      [
        "ub",
        -9.44435347054833
      ],
      [
        "▁kuyimba",
        -9.445107882142787
      ],
      [
        "kilagala",
        -9.445401169782992
      ],
      [
        "kizuul",
        -9.445588495319518
      ],
      [
        "▁Ste",
        -9.44581064541297
      ],
      [
        "▁agata",
        -9.44630871930774
      ],
      [
        "▁y’ek",
        -9.446657394231645
      ],
      [
        "▁Baf",
        -9.446723753808731
      ],
      [
        "▁bazany",
        -9.446900257608952
      ],
      [
        "noony",
        -9.447055315882606
      ],
      [
        "▁nogumu",
        -9.447256492953048
      ],
      [
        "▁akazan",
        -9.447543308054016
      ],
      [
        "▁okukolera",
        -9.44754535467951
      ],
      [
        "▁batan",
        -9.447775023717243
      ],
      [
        "▁mub",
        -9.447784642200123
      ],
      [
        "▁archipelago",
        -9.448155217962528
      ],
      [
        "weesa",
        -9.448311215719688
      ],
      [
        "▁199",
        -9.448396324322436
      ],
      [
        "▁emitono",
        -9.448489032036413
      ],
      [
        "▁egaba",
        -9.448759998271871
      ],
      [
        "rch",
        -9.448842366603614
      ],
      [
        "kinoomu",
        -9.449201371397166
      ],
      [
        "▁ddwaliro",
        -9.44927684900071
      ],
      [
        "▁okulet",
        -9.449586455974528
      ],
      [
        "▁Sse",
        -9.449628602171133
      ],
      [
        "▁ejaa",
        -9.450116622662167
      ],
      [
        "▁mutawa",
        -9.450139846297098
      ],
      [
        "vumiri",
        -9.450285237824106
      ],
      [
        "▁aja",
        -9.450389604768546
      ],
      [
        "▁batono",
        -9.450412068895664
      ],
      [
        "▁lukumi",
        -9.450775221958567
      ],
      [
        "eyongera",
        -9.451200164514153
      ],
      [
        "▁binnya",
        -9.451222909006193
      ],
      [
        "▁oluli",
        -9.451261617861032
      ],
      [
        "▁enteger",
        -9.451367943587039
      ],
      [
        "▁kunno",
        -9.451372329495161
      ],
      [
        "kiba",
        -9.451521189133786
      ],
      [
        "▁ow’",
        -9.451951658772927
      ],
      [
        "▁jeba",
        -9.452998026390356
      ],
      [
        "▁nkozes",
        -9.453013611824673
      ],
      [
        "wakanya",
        -9.453061802954371
      ],
      [
        "manyili",
        -9.45314373182994
      ],
      [
        "tegeke",
        -9.453172660247164
      ],
      [
        "akoze",
        -9.453277817138297
      ],
      [
        "okubuuka",
        -9.453837044895142
      ],
      [
        "ofiis",
        -9.45433847447266
      ],
      [
        "▁Zi",
        -9.454743871548752
      ],
      [
        "▁bakis",
        -9.455219829791913
      ],
      [
        "biya",
        -9.4552299376701
      ],
      [
        "yetaagisa",
        -9.455249685640263
      ],
      [
        "▁kuyamba",
        -9.45563282528941
      ],
      [
        "▁Pen",
        -9.456199247207294
      ],
      [
        "ebyuuma",
        -9.45621731790703
      ],
      [
        "▁ziter",
        -9.456743019556745
      ],
      [
        "’ebyobusuubuzi",
        -9.456892009649774
      ],
      [
        "nyony",
        -9.457412762507825
      ],
      [
        "unga",
        -9.457585787358354
      ],
      [
        "▁End",
        -9.458056464133175
      ],
      [
        "ib",
        -9.458611186942795
      ],
      [
        "▁wade",
        -9.458805392217343
      ],
      [
        "▁tel",
        -9.459691720033023
      ],
      [
        "ssar",
        -9.459972821652627
      ],
      [
        "▁bakaf",
        -9.459996140340378
      ],
      [
        "▁gog",
        -9.46071327352601
      ],
      [
        "▁okwewandi",
        -9.461196564150223
      ],
      [
        "▁mumaserengeta",
        -9.461305542134449
      ],
      [
        "▁bwongo",
        -9.461806115124629
      ],
      [
        "▁ziyi",
        -9.46213598805972
      ],
      [
        "▁okuwagir",
        -9.462750627226178
      ],
      [
        "▁Ang",
        -9.463202168910222
      ],
      [
        "▁kazany",
        -9.463661384571587
      ],
      [
        "▁enjazi",
        -9.463749715677302
      ],
      [
        "▁nsozi",
        -9.46440049425343
      ],
      [
        "▁okwoger",
        -9.464799384958061
      ],
      [
        "dewo",
        -9.464828771979324
      ],
      [
        "yabwe",
        -9.464892094366633
      ],
      [
        "▁ebim",
        -9.465378007187798
      ],
      [
        "▁lutindo",
        -9.465465790798476
      ],
      [
        "wend",
        -9.46605792013886
      ],
      [
        "y”",
        -9.46694093932236
      ],
      [
        "yawade",
        -9.466977443326716
      ],
      [
        "▁Man",
        -9.466978757429253
      ],
      [
        "▁e’",
        -9.46699312033858
      ],
      [
        "▁yakut",
        -9.467362011145928
      ],
      [
        "▁efuu",
        -9.468202067408406
      ],
      [
        "eti",
        -9.468527154498997
      ],
      [
        "▁Bwe",
        -9.468819703276127
      ],
      [
        "awali",
        -9.470105941387658
      ],
      [
        "rist",
        -9.470992176583362
      ],
      [
        "cher",
        -9.471127744636194
      ],
      [
        "▁V",
        -9.471219411379174
      ],
      [
        "▁enene",
        -9.471457276074407
      ],
      [
        "▁nto",
        -9.471743295472905
      ],
      [
        "byokulwani",
        -9.471846782695508
      ],
      [
        "▁okutang",
        -9.471965791611757
      ],
      [
        "riri",
        -9.473201893983516
      ],
      [
        "▁Je",
        -9.474079255352201
      ],
      [
        "▁bugazi",
        -9.475085793895154
      ],
      [
        "ekilala",
        -9.475295639571362
      ],
      [
        "▁Lad",
        -9.475595056942137
      ],
      [
        "▁gwaz",
        -9.475644529646857
      ],
      [
        "▁kuyiga",
        -9.475999029652037
      ],
      [
        "▁ewala",
        -9.476094794862366
      ],
      [
        "omukazi",
        -9.476117053670093
      ],
      [
        "▁Rep",
        -9.476537010570642
      ],
      [
        "▁makya",
        -9.476818120500049
      ],
      [
        "▁kyeba",
        -9.476830342099845
      ],
      [
        "▁buva",
        -9.477242673756189
      ],
      [
        "okuwangul",
        -9.477356588719665
      ],
      [
        "▁butono",
        -9.477456109553616
      ],
      [
        "▁c",
        -9.477755675434949
      ],
      [
        "w'ob",
        -9.478133799790976
      ],
      [
        "9",
        -9.478452350880403
      ],
      [
        "▁abasi",
        -9.478688049440967
      ],
      [
        "▁lad",
        -9.47957698579011
      ],
      [
        "▁obus",
        -9.479660168185962
      ],
      [
        "irizi",
        -9.479701594299781
      ],
      [
        "▁ezomuma",
        -9.480311564955402
      ],
      [
        "▁3,",
        -9.480462442371419
      ],
      [
        "▁okusinzii",
        -9.480811932808647
      ],
      [
        "▁ssaawa",
        -9.481644912106175
      ],
      [
        "labila",
        -9.481851745280624
      ],
      [
        "▁mmotoka",
        -9.482057775142502
      ],
      [
        "▁yalangili",
        -9.48213896132759
      ],
      [
        "▁ezisob",
        -9.482491627559655
      ],
      [
        "▁okuwumul",
        -9.483112806578756
      ],
      [
        "▁kw'",
        -9.484905577080857
      ],
      [
        "key",
        -9.485263078019935
      ],
      [
        "kifuula",
        -9.485523338607804
      ],
      [
        "goberedd",
        -9.485614108098538
      ],
      [
        "▁mat",
        -9.48564586231484
      ],
      [
        "bikol",
        -9.485924182868192
      ],
      [
        "ffer",
        -9.48613629183913
      ],
      [
        "▁Th",
        -9.486642024085382
      ],
      [
        "▁bh",
        -9.487897033573566
      ],
      [
        "▁bafumb",
        -9.488250628154558
      ],
      [
        "wekum",
        -9.489199108230261
      ],
      [
        "▁17",
        -9.490929224133252
      ],
      [
        "epu",
        -9.492188580172623
      ],
      [
        "▁bajja",
        -9.492486143375682
      ],
      [
        "erra",
        -9.492621947221869
      ],
      [
        "abadugavu",
        -9.493565655749602
      ],
      [
        "▁Gom",
        -9.493786934962055
      ],
      [
        "eta",
        -9.493789828897745
      ],
      [
        "▁kwaba",
        -9.49390238315879
      ],
      [
        "bubinja",
        -9.494283062805366
      ],
      [
        "▁lyomun",
        -9.49464888278025
      ],
      [
        "oma.",
        -9.495256076145324
      ],
      [
        "▁ensaa",
        -9.49565883717294
      ],
      [
        "uddo",
        -9.496097728614222
      ],
      [
        "▁Bann",
        -9.49624463648054
      ],
      [
        "labi",
        -9.496976091763184
      ],
      [
        "▁ogw’",
        -9.497300052805087
      ],
      [
        "sco",
        -9.49730645982792
      ],
      [
        "annono",
        -9.498535736378294
      ],
      [
        "4,",
        -9.498684742013015
      ],
      [
        "▁amala",
        -9.49889836732767
      ],
      [
        "biri,",
        -9.499696523900386
      ],
      [
        "kilwadde",
        -9.499872180158135
      ],
      [
        "▁Bana",
        -9.500160201875833
      ],
      [
        "beerawo",
        -9.5011892356115
      ],
      [
        "zimbiddwa",
        -9.501463034045429
      ],
      [
        "▁2,",
        -9.501514623760864
      ],
      [
        "▁bus",
        -9.502911863996669
      ],
      [
        "▁pr",
        -9.503069681668519
      ],
      [
        "ayiri",
        -9.504384598841693
      ],
      [
        "▁akak",
        -9.505342671315638
      ],
      [
        "kitege",
        -9.505459037391335
      ],
      [
        "bukuumi",
        -9.507054558361439
      ],
      [
        "uki",
        -9.507200972864528
      ],
      [
        "▁9",
        -9.50800170423313
      ],
      [
        "▁kuwalampa",
        -9.508235151437352
      ],
      [
        "▁fens",
        -9.508269534189518
      ],
      [
        "▁Ri",
        -9.508360034994752
      ],
      [
        "▁bazu",
        -9.508458096826125
      ],
      [
        "▁ekir",
        -9.50865123483289
      ],
      [
        "▁bawe",
        -9.509417892983246
      ],
      [
        "▁n’a",
        -9.509428835703352
      ],
      [
        "longoos",
        -9.50953984284586
      ],
      [
        "▁kitono",
        -9.509831218321812
      ],
      [
        "▁zobu",
        -9.510790355516608
      ],
      [
        "gidde",
        -9.511552857759623
      ],
      [
        "▁amaka",
        -9.512158500842954
      ],
      [
        "▁nungi",
        -9.51273918752396
      ],
      [
        "▁Pi",
        -9.513536490174978
      ],
      [
        "mar",
        -9.514014945500369
      ],
      [
        "mukutu",
        -9.514682351149656
      ],
      [
        "▁kuwangula",
        -9.514740541150925
      ],
      [
        "uba",
        -9.515534481043591
      ],
      [
        "▁ebigende",
        -9.516486438978387
      ],
      [
        "▁(na",
        -9.518339232960507
      ],
      [
        "koma",
        -9.518395290992233
      ],
      [
        "▁Du",
        -9.519507494191563
      ],
      [
        "▁olufu",
        -9.521279769228567
      ],
      [
        "▁inf",
        -9.521401203099309
      ],
      [
        "”,",
        -9.523251698156479
      ],
      [
        "tuukir",
        -9.523489635052977
      ],
      [
        "▁ky'",
        -9.523980020117499
      ],
      [
        "tur",
        -9.524042668898886
      ],
      [
        "har",
        -9.524312297554374
      ],
      [
        "akwaat",
        -9.525764739385306
      ],
      [
        "wandiik",
        -9.525902296554285
      ],
      [
        "toned",
        -9.526817972324828
      ],
      [
        "manyik",
        -9.527082558568333
      ],
      [
        "▁ly’e",
        -9.527638658708282
      ],
      [
        "▁yakakas",
        -9.528041607178883
      ],
      [
        "▁my",
        -9.528305620333779
      ],
      [
        "▁Nab",
        -9.52875771497282
      ],
      [
        "ekika",
        -9.529227012991853
      ],
      [
        "▁Yatuu",
        -9.530566530025553
      ],
      [
        "▁agamba",
        -9.531251917898471
      ],
      [
        "SW",
        -9.532250408791967
      ],
      [
        "▁sse",
        -9.53250937365023
      ],
      [
        "wangu",
        -9.533216538754477
      ],
      [
        "ebaka",
        -9.533288877674597
      ],
      [
        "ooter",
        -9.533534471584495
      ],
      [
        "ssom",
        -9.534229306217494
      ],
      [
        "▁byentambula",
        -9.534251852707513
      ],
      [
        "▁munyanja",
        -9.53448835772916
      ],
      [
        "▁kubeerawo",
        -9.534499606446573
      ],
      [
        "ann",
        -9.53466720692557
      ],
      [
        "waako",
        -9.534997872951385
      ],
      [
        "▁eyokuk",
        -9.536375636190368
      ],
      [
        "tindo",
        -9.536615733862345
      ],
      [
        "▁ogw’omu",
        -9.537806137549236
      ],
      [
        "▁okuta",
        -9.538264555908565
      ],
      [
        "▁n'a",
        -9.53883469624813
      ],
      [
        "▁okuli",
        -9.53954883629697
      ],
      [
        "▁Po",
        -9.539622588490767
      ],
      [
        "musindik",
        -9.539646085918282
      ],
      [
        "ulka",
        -9.539682663714782
      ],
      [
        "▁obukug",
        -9.539831457492399
      ],
      [
        "ator",
        -9.54032424242039
      ],
      [
        "mani",
        -9.540446342584493
      ],
      [
        "▁n'ek",
        -9.540499378912067
      ],
      [
        "bweeru",
        -9.540900095093411
      ],
      [
        "▁biwa",
        -9.542090326381855
      ],
      [
        "ebi",
        -9.542106888902039
      ],
      [
        "▁kusula",
        -9.542398709385752
      ],
      [
        "▁ngo",
        -9.542686128015406
      ],
      [
        "etaba",
        -9.543031659560594
      ],
      [
        "et",
        -9.543901462912684
      ],
      [
        "nnyonyi",
        -9.54462763215136
      ],
      [
        "▁Gree",
        -9.545176219180838
      ],
      [
        "▁njuba",
        -9.545342054118828
      ],
      [
        "▁okwega",
        -9.545653990484809
      ],
      [
        "em",
        -9.546837986701748
      ],
      [
        "obwak",
        -9.548499668320623
      ],
      [
        "kuka",
        -9.548586227665618
      ],
      [
        "jju",
        -9.548782827250628
      ],
      [
        "▁ntambula",
        -9.548893726329466
      ],
      [
        "▁v",
        -9.54911361401657
      ],
      [
        "ew",
        -9.5500072381249
      ],
      [
        "▁198",
        -9.550102112356209
      ],
      [
        "▁kubu",
        -9.550862870173983
      ],
      [
        "ayir",
        -9.551403392427869
      ],
      [
        "gr",
        -9.551630885995051
      ],
      [
        "ramu",
        -9.5530531762016
      ],
      [
        "▁kaka",
        -9.55317955050802
      ],
      [
        "▁nnyonyi",
        -9.553797967021726
      ],
      [
        "gw’omunana",
        -9.553890324505186
      ],
      [
        "▁Mart",
        -9.554334263477728
      ],
      [
        "obuvune",
        -9.554566663057413
      ],
      [
        "▁Mari",
        -9.555749453224486
      ],
      [
        "▁ziwa",
        -9.556575931671793
      ],
      [
        "▁pol",
        -9.556780026945626
      ],
      [
        "yebyobuwangwa",
        -9.557108394624693
      ],
      [
        "▁mubi",
        -9.557418875344615
      ],
      [
        "▁okuwamb",
        -9.558049992672434
      ],
      [
        "▁byeba",
        -9.559365825719926
      ],
      [
        "▁gumu",
        -9.559864419241329
      ],
      [
        "▁ebika",
        -9.560117067330003
      ],
      [
        "it",
        -9.560151191594537
      ],
      [
        "▁Prin",
        -9.560410932083109
      ],
      [
        "yira",
        -9.560986747063655
      ],
      [
        "ian",
        -9.560993016109874
      ],
      [
        "▁w’em",
        -9.561392354398935
      ],
      [
        "▁mumaka",
        -9.561862604572092
      ],
      [
        "▁ly’",
        -9.562345831776899
      ],
      [
        "atu",
        -9.562374165358055
      ],
      [
        "▁Kyo",
        -9.56242339399804
      ],
      [
        "▁bawag",
        -9.563993323160277
      ],
      [
        "gugwa",
        -9.564425915963547
      ],
      [
        "tiv",
        -9.56460469536316
      ],
      [
        "...o",
        -9.565183883144096
      ],
      [
        "▁obutak",
        -9.56549638957093
      ],
      [
        "▁b'",
        -9.566463059556742
      ],
      [
        "nsasanya",
        -9.566701646967182
      ],
      [
        "▁Gla",
        -9.567876458811778
      ],
      [
        "bogera",
        -9.567915864693125
      ],
      [
        "▁afun",
        -9.568082619657375
      ],
      [
        "▁bwek",
        -9.568234935481007
      ],
      [
        "kwatibwa",
        -9.568676431841828
      ],
      [
        "lom",
        -9.568805873748442
      ],
      [
        "ekka",
        -9.569143607478725
      ],
      [
        "'omuzira",
        -9.569149906710914
      ],
      [
        "▁agom",
        -9.569319068151227
      ],
      [
        "nburg",
        -9.569334496107095
      ],
      [
        "▁supa",
        -9.569603618210124
      ],
      [
        "lutindo",
        -9.569603770967838
      ],
      [
        "▁okulond",
        -9.569631819931802
      ],
      [
        "▁jo",
        -9.57017729280856
      ],
      [
        "akawungeezi",
        -9.570439662056025
      ],
      [
        "▁omuvu",
        -9.570463412380626
      ],
      [
        "▁nokutambul",
        -9.570475428227846
      ],
      [
        "▁du",
        -9.570729664912102
      ],
      [
        "▁kyasa",
        -9.571521431909781
      ],
      [
        "▁y'",
        -9.571912799366206
      ],
      [
        "ffe",
        -9.572896703981513
      ],
      [
        "ssatu",
        -9.573294457918102
      ],
      [
        "▁Oli",
        -9.573776015320089
      ],
      [
        "▁ogwen",
        -9.575333330731203
      ],
      [
        "▁mukag",
        -9.575856798462183
      ],
      [
        "ogera",
        -9.576744258183307
      ],
      [
        "omunsiko",
        -9.577099655235713
      ],
      [
        "▁Atlanta",
        -9.578576209617081
      ],
      [
        "eddwa",
        -9.57897199495017
      ],
      [
        "▁Go",
        -9.579008965750447
      ],
      [
        "▁engu",
        -9.579193804474656
      ],
      [
        "kubi",
        -9.579575030417976
      ],
      [
        "▁zak",
        -9.579809703297636
      ],
      [
        "mulembe",
        -9.580256147045542
      ],
      [
        "▁lugendo",
        -9.580721806622627
      ],
      [
        "▁birag",
        -9.581140103339454
      ],
      [
        "kizibu",
        -9.581970086478762
      ],
      [
        "▁km",
        -9.582197626795503
      ],
      [
        "▁ttaka",
        -9.58244960859428
      ],
      [
        "▁bal",
        -9.582580446366363
      ],
      [
        "▁okuyim",
        -9.5826285167946
      ],
      [
        "lizo",
        -9.582893607807554
      ],
      [
        "▁ebiz",
        -9.583027816289704
      ],
      [
        "▁kiko",
        -9.58312695801841
      ],
      [
        "ngamu",
        -9.583895587683825
      ],
      [
        "▁teziri",
        -9.584368449296374
      ],
      [
        "▁yagobe",
        -9.585550754343434
      ],
      [
        "▁emy",
        -9.585561655366405
      ],
      [
        "▁Butu",
        -9.585641155807764
      ],
      [
        "qu",
        -9.585704070916464
      ],
      [
        "▁kukola",
        -9.586621762209138
      ],
      [
        "naba",
        -9.58704916106416
      ],
      [
        "Gol",
        -9.587253392957749
      ],
      [
        "▁ns",
        -9.587534086637245
      ],
      [
        "▁enkyu",
        -9.589104805634049
      ],
      [
        "▁yateeb",
        -9.589233013700547
      ],
      [
        "’obwongo",
        -9.590143546208209
      ],
      [
        "es",
        -9.590177681623528
      ],
      [
        "▁yatandik",
        -9.59087833504577
      ],
      [
        "gale",
        -9.591766502127781
      ],
      [
        "▁Ka",
        -9.592115095440336
      ],
      [
        "▁b'eb",
        -9.5935148828834
      ],
      [
        "km",
        -9.594018492988049
      ],
      [
        "ogula",
        -9.59466020448869
      ],
      [
        "▁kula",
        -9.594803717651303
      ],
      [
        "▁okwekk",
        -9.595424067142545
      ],
      [
        "subi",
        -9.595566925931807
      ],
      [
        "oba",
        -9.596463084191939
      ],
      [
        "▁bukiika",
        -9.596554268943569
      ],
      [
        "▁abakya",
        -9.596834668320893
      ],
      [
        "gulwa",
        -9.597273285263995
      ],
      [
        "ke",
        -9.597335499415797
      ],
      [
        "gany",
        -9.59740245695336
      ],
      [
        "layisi",
        -9.597562249022516
      ],
      [
        "simu",
        -9.598050801035702
      ],
      [
        "kibwa",
        -9.598489446048847
      ],
      [
        "▁ey'okub",
        -9.59873319235758
      ],
      [
        "▁evu",
        -9.599361986245011
      ],
      [
        "musaayi",
        -9.6000272195703
      ],
      [
        "▁Han",
        -9.600475857325744
      ],
      [
        "▁abak",
        -9.600774868316492
      ],
      [
        "'okutambula",
        -9.601719540737827
      ],
      [
        "ig",
        -9.602155508542161
      ],
      [
        "▁luku",
        -9.602705737662742
      ],
      [
        "0)",
        -9.603579094679342
      ],
      [
        "▁Is",
        -9.604671634383783
      ],
      [
        "lin",
        -9.604914762389313
      ],
      [
        "buwanga",
        -9.606307154096159
      ],
      [
        "▁ky’",
        -9.606534976307575
      ],
      [
        "ang",
        -9.606657602507163
      ],
      [
        "▁kyekizi",
        -9.60667270620591
      ],
      [
        "eyonge",
        -9.607906733079293
      ],
      [
        "wano",
        -9.608491636070484
      ],
      [
        "agu",
        -9.608641209239199
      ],
      [
        "y'emmotoka",
        -9.608667177698544
      ],
      [
        "usoma",
        -9.609058875937931
      ],
      [
        "lero",
        -9.610304369314342
      ],
      [
        "▁lwaba",
        -9.610510743080958
      ],
      [
        "dugavu",
        -9.610585593685014
      ],
      [
        "▁es",
        -9.610659045715794
      ],
      [
        "85",
        -9.611003788724616
      ],
      [
        "tale",
        -9.611047161824416
      ],
      [
        "▁lut",
        -9.611904640198894
      ],
      [
        "▁bweb",
        -9.613421351882504
      ],
      [
        "yiti",
        -9.613999859277431
      ],
      [
        "bintu",
        -9.615202147145146
      ],
      [
        "▁byayoged",
        -9.616072788495185
      ],
      [
        "▁ebye",
        -9.616140412970234
      ],
      [
        "emb",
        -9.618141422663122
      ],
      [
        "kakasiddwa",
        -9.618271351274114
      ],
      [
        "ajja",
        -9.6187164662514
      ],
      [
        "akabenje",
        -9.618784831712412
      ],
      [
        "wagi",
        -9.619148402859926
      ],
      [
        "ty",
        -9.619938492476937
      ],
      [
        "lila",
        -9.62100874398962
      ],
      [
        "kwesu",
        -9.621059166074886
      ],
      [
        "▁okulag",
        -9.621478560553186
      ],
      [
        "▁n’eb",
        -9.621545089348018
      ],
      [
        "▁obuy",
        -9.623850135787219
      ],
      [
        "▁oguli",
        -9.62394321012053
      ],
      [
        "▁teki",
        -9.624168228341448
      ],
      [
        "▁Ent",
        -9.624514630356632
      ],
      [
        "ndika",
        -9.625291505693394
      ],
      [
        "▁teban",
        -9.625625143560157
      ],
      [
        "ma,",
        -9.625989851256026
      ],
      [
        "▁noku",
        -9.626088373226604
      ],
      [
        "abulik",
        -9.626869764516865
      ],
      [
        "via",
        -9.62844508390963
      ],
      [
        "▁n’obula",
        -9.628564483642462
      ],
      [
        "▁okuleme",
        -9.62891503365353
      ],
      [
        "enyigiramu",
        -9.63233742722085
      ],
      [
        "▁tebina",
        -9.632596663653377
      ],
      [
        "▁wano",
        -9.63444157309803
      ],
      [
        "izing",
        -9.63515828812601
      ],
      [
        "uzibu",
        -9.63580729129657
      ],
      [
        "kati",
        -9.635831769250483
      ],
      [
        "sigadde",
        -9.636312094565616
      ],
      [
        "▁bilabi",
        -9.638692058051713
      ],
      [
        "bulaya",
        -9.639107555208662
      ],
      [
        "kuwuga",
        -9.639146797055067
      ],
      [
        "▁mubu",
        -9.639701919770134
      ],
      [
        "ire",
        -9.640530596307647
      ],
      [
        "sanduuk",
        -9.640810739016862
      ],
      [
        "ger",
        -9.642037205677301
      ],
      [
        "emi",
        -9.64247536346025
      ],
      [
        "ra,",
        -9.643536559003273
      ],
      [
        "▁okwek",
        -9.64457027839616
      ],
      [
        "▁Di",
        -9.645009484429943
      ],
      [
        "▁awag",
        -9.645116249109094
      ],
      [
        "eolog",
        -9.645624710486329
      ],
      [
        "...",
        -9.646840810837883
      ],
      [
        "obwerere",
        -9.647434524729215
      ],
      [
        "etro",
        -9.647702094989832
      ],
      [
        "maato",
        -9.647760573872409
      ],
      [
        "muddo",
        -9.648221369111482
      ],
      [
        "iki",
        -9.648752309831027
      ],
      [
        "ukili",
        -9.648917562005103
      ],
      [
        "asibuka",
        -9.649385900775219
      ],
      [
        "▁ekyo",
        -9.650293198682416
      ],
      [
        "▁w’ebi",
        -9.65046936007535
      ],
      [
        "alemererwa",
        -9.650616015107028
      ],
      [
        "obuwanguzi",
        -9.650715892548444
      ],
      [
        "lwokubiri",
        -9.650978944792241
      ],
      [
        "utekebwa",
        -9.651284403222594
      ],
      [
        "ela",
        -9.651548972617757
      ],
      [
        "labir",
        -9.651885553300867
      ],
      [
        "▁n’okusi",
        -9.65298388116612
      ],
      [
        "’amadda",
        -9.65353967610383
      ],
      [
        "▁bweya",
        -9.653622622944091
      ],
      [
        "nnya",
        -9.654622747160914
      ],
      [
        "▁nens",
        -9.655876087515736
      ],
      [
        "▁ey'o",
        -9.656443038351993
      ],
      [
        "pan",
        -9.656543959835922
      ],
      [
        "▁oluwum",
        -9.65860831932124
      ],
      [
        "ansa",
        -9.659338960413816
      ],
      [
        "kwawukana",
        -9.66067084906199
      ],
      [
        "amag",
        -9.661127684255758
      ],
      [
        "▁ezig",
        -9.66163555986466
      ],
      [
        "▁bisang",
        -9.662068338381172
      ],
      [
        "menye",
        -9.662599664951218
      ],
      [
        "China",
        -9.663417972593159
      ],
      [
        "▁Iwa",
        -9.663446631528874
      ],
      [
        "tege",
        -9.664059705932125
      ],
      [
        "▁gw’omw",
        -9.66425417465774
      ],
      [
        "▁Sol",
        -9.664890752723572
      ],
      [
        "kwetegeke",
        -9.665515552381123
      ],
      [
        "fananyi",
        -9.666609127314329
      ],
      [
        "fiira",
        -9.666851925765332
      ],
      [
        "▁okutandika",
        -9.666868748036627
      ],
      [
        "▁cl",
        -9.667181388283485
      ],
      [
        "tisibwa",
        -9.66830278177987
      ],
      [
        "ab",
        -9.668960758541056
      ],
      [
        "▁amako",
        -9.669467179895943
      ],
      [
        "wakuba",
        -9.669778421794863
      ],
      [
        "law",
        -9.66979581066358
      ],
      [
        "tatege",
        -9.67075326543023
      ],
      [
        "anyizidwa",
        -9.671622882189798
      ],
      [
        "▁weet",
        -9.671648226700968
      ],
      [
        "balaza",
        -9.67193513949444
      ],
      [
        "▁Tra",
        -9.672484360319638
      ],
      [
        "wez",
        -9.673115115964878
      ],
      [
        "▁ent",
        -9.673173937739854
      ],
      [
        "▁bisi",
        -9.674345485259497
      ],
      [
        "kole",
        -9.675130890620714
      ],
      [
        "abika",
        -9.675502009273215
      ],
      [
        "nafuyizi",
        -9.67584894898345
      ],
      [
        "▁abavuga",
        -9.676229093157335
      ],
      [
        "balirira",
        -9.677027501544671
      ],
      [
        "kitiisa",
        -9.67732595851962
      ],
      [
        "▁Okutambul",
        -9.678263657202395
      ],
      [
        "kugu",
        -9.678722891365222
      ],
      [
        "mula",
        -9.678860272829667
      ],
      [
        "seb",
        -9.678952188458624
      ],
      [
        "singako",
        -9.679370596561467
      ],
      [
        "ru",
        -9.679588709713908
      ],
      [
        "iwandiiko",
        -9.680167451527865
      ],
      [
        "banji",
        -9.681159161399975
      ],
      [
        "tali",
        -9.681692210481257
      ],
      [
        "kutu",
        -9.681779105345107
      ],
      [
        "wandiiko",
        -9.68261221191369
      ],
      [
        "usa",
        -9.682725889799759
      ],
      [
        "▁eryaa",
        -9.68308396795942
      ],
      [
        "▁bbaa",
        -9.684665217401944
      ],
      [
        "▁jje",
        -9.685606466117594
      ],
      [
        "bw",
        -9.685740799040296
      ],
      [
        "men",
        -9.686033914937413
      ],
      [
        "kirungi.",
        -9.686137347829035
      ],
      [
        "▁okuzz",
        -9.688095080607381
      ],
      [
        "▁Do",
        -9.688111327161273
      ],
      [
        "▁akasal",
        -9.688207586059598
      ],
      [
        "aliriza",
        -9.68851089148472
      ],
      [
        "▁gi",
        -9.689414331663775
      ],
      [
        "▁asi",
        -9.689515663845942
      ],
      [
        "▁kan",
        -9.692060864667203
      ],
      [
        "buva",
        -9.692791563688328
      ],
      [
        "▁eby'",
        -9.692825967399449
      ],
      [
        "▁ho",
        -9.693116722031728
      ],
      [
        "ziyise",
        -9.693174755663602
      ],
      [
        "budde,",
        -9.693606049953056
      ],
      [
        "misana",
        -9.6941104713636
      ],
      [
        "▁sab",
        -9.69445416090181
      ],
      [
        "4-1",
        -9.695251826986636
      ],
      [
        "▁Gu",
        -9.69662141467111
      ],
      [
        "▁okukol",
        -9.697030824159025
      ],
      [
        "yeeta",
        -9.698628945877473
      ],
      [
        "ini",
        -9.699695716437597
      ],
      [
        "ddir",
        -9.701162954801921
      ],
      [
        "▁ky’ol",
        -9.701466152210205
      ],
      [
        "▁okuzi",
        -9.702380443329725
      ],
      [
        "mumaaso",
        -9.702776120258092
      ],
      [
        "kyomugaso",
        -9.703259986882326
      ],
      [
        "mbuka",
        -9.704385801670439
      ],
      [
        "▁Ebis",
        -9.70472677399335
      ],
      [
        "ulo",
        -9.704791472696126
      ],
      [
        "▁okusaza",
        -9.705948876490702
      ],
      [
        "▁okuyi",
        -9.706373050554316
      ],
      [
        "▁zezi",
        -9.70739851340748
      ],
      [
        "▁abako",
        -9.708823178568268
      ],
      [
        "▁okwewa",
        -9.709140236243309
      ],
      [
        "▁endabi",
        -9.709349871158475
      ],
      [
        "ky",
        -9.709970663369642
      ],
      [
        "ef",
        -9.71114799951133
      ],
      [
        "▁ezz",
        -9.711242802841504
      ],
      [
        "gomu",
        -9.71229163595382
      ],
      [
        "rira",
        -9.712393257848976
      ],
      [
        "ffa",
        -9.713076049388812
      ],
      [
        "iga",
        -9.713474916725964
      ],
      [
        "▁lw’e",
        -9.713999920273423
      ],
      [
        "muyaga",
        -9.714157773827155
      ],
      [
        "okulaba",
        -9.718373410265535
      ],
      [
        "sir",
        -9.720428236969052
      ],
      [
        "kika",
        -9.722647696608048
      ],
      [
        "ur",
        -9.724966542538318
      ],
      [
        "nas",
        -9.727980241629306
      ],
      [
        "yansa",
        -9.72847083497754
      ],
      [
        "abayingi",
        -9.7284859431267
      ],
      [
        "amawulire",
        -9.730692856079417
      ],
      [
        "▁ezimanyid",
        -9.731297738769022
      ],
      [
        "▁Sto",
        -9.731323461477006
      ],
      [
        "▁omwa",
        -9.733212818736218
      ],
      [
        "▁egim",
        -9.73330248807852
      ],
      [
        "▁ngali",
        -9.734130666854261
      ],
      [
        "bwa.",
        -9.736161228978386
      ],
      [
        "timu",
        -9.737167910966766
      ],
      [
        "awukana",
        -9.737460931621342
      ],
      [
        "ans",
        -9.737548777818514
      ],
      [
        "▁kyat",
        -9.737985586161338
      ],
      [
        "olwo",
        -9.738274054033006
      ],
      [
        "buga",
        -9.738401472891036
      ],
      [
        "ris",
        -9.74027287038565
      ],
      [
        "▁okusika",
        -9.741901158249116
      ],
      [
        "char",
        -9.742755187245493
      ],
      [
        "kyusi",
        -9.743885163269812
      ],
      [
        "▁Omwo",
        -9.745132789565147
      ],
      [
        "▁okuzzu",
        -9.74522421642236
      ],
      [
        "▁nt",
        -9.746159906962006
      ],
      [
        "▁Fe",
        -9.746593306552423
      ],
      [
        "▁bazz",
        -9.748181918570202
      ],
      [
        "byali",
        -9.75002635272453
      ],
      [
        "▁kyobulam",
        -9.751008214652218
      ],
      [
        "▁kyakul",
        -9.75140641539725
      ],
      [
        "▁ekita",
        -9.751476218820619
      ],
      [
        "esigam",
        -9.7514982797786
      ],
      [
        "00",
        -9.751682693684305
      ],
      [
        "guzi",
        -9.752104485508571
      ],
      [
        "▁newankuba",
        -9.753996991979593
      ],
      [
        "▁omuzan",
        -9.754716966311854
      ],
      [
        "▁gwon",
        -9.75493048856339
      ],
      [
        "nsozi",
        -9.756581993299742
      ],
      [
        "▁gw'omu",
        -9.757290122469549
      ],
      [
        "iya",
        -9.757671473268015
      ],
      [
        "▁Abalambu",
        -9.758467828006632
      ],
      [
        "▁nokukol",
        -9.758519340339054
      ],
      [
        "ski",
        -9.758739576282752
      ],
      [
        "aayo",
        -9.759240230184615
      ],
      [
        "▁obubon",
        -9.759560189961222
      ],
      [
        "gujja",
        -9.759835751053224
      ],
      [
        "▁bakole",
        -9.760543562323166
      ],
      [
        "▁kyaba",
        -9.760689770984262
      ],
      [
        "▁so",
        -9.76129144969583
      ],
      [
        "—",
        -9.761397136384092
      ],
      [
        "waaka",
        -9.762990762090936
      ],
      [
        "igga",
        -9.763900433213534
      ],
      [
        "kutono",
        -9.76445716799405
      ],
      [
        "eni",
        -9.766132125669928
      ],
      [
        "▁n’ol",
        -9.767278851733918
      ],
      [
        "teri",
        -9.769663653416035
      ],
      [
        "▁zab",
        -9.769776632035013
      ],
      [
        "▁bas",
        -9.769867773429896
      ],
      [
        "91",
        -9.77055093690445
      ],
      [
        "▁ess",
        -9.771317684865641
      ],
      [
        "isitul",
        -9.771411005252244
      ],
      [
        "r-",
        -9.773470383888911
      ],
      [
        "amanyi",
        -9.773531759540028
      ],
      [
        "▁ekika",
        -9.773783712617853
      ],
      [
        "obulamu",
        -9.77437399609222
      ],
      [
        "▁nnya",
        -9.77507042329287
      ],
      [
        "urg",
        -9.775349952179857
      ],
      [
        "izi",
        -9.776893560691743
      ],
      [
        "e,",
        -9.779040245313338
      ],
      [
        "zira",
        -9.781059795727048
      ],
      [
        "▁okuteka",
        -9.781274714721015
      ],
      [
        "ipo",
        -9.781682093780853
      ],
      [
        "che",
        -9.784207581139468
      ],
      [
        "imba",
        -9.787945156072615
      ],
      [
        "kimanyidwa",
        -9.78813229784286
      ],
      [
        "▁emiso",
        -9.791379093721222
      ],
      [
        "w'edda",
        -9.792673567211764
      ],
      [
        "17",
        -9.792847205924172
      ],
      [
        "obulambu",
        -9.795273230678387
      ],
      [
        "▁obul",
        -9.7955697804089
      ],
      [
        "ions",
        -9.797173586934813
      ],
      [
        "cep",
        -9.797367097750644
      ],
      [
        "g’oku",
        -9.798217223447136
      ],
      [
        "▁gut",
        -9.800220725319889
      ],
      [
        "▁biri",
        -9.800428572638262
      ],
      [
        "olukale",
        -9.800430570989734
      ],
      [
        "imir",
        -9.80100157245926
      ],
      [
        "naani",
        -9.801134521917504
      ],
      [
        "ham",
        -9.802613627164831
      ],
      [
        "▁n'eb",
        -9.802921757318348
      ],
      [
        "endo",
        -9.803442719278207
      ],
      [
        "▁Pale",
        -9.805481329603149
      ],
      [
        "kebe",
        -9.805761765307645
      ],
      [
        "▁ebyokole",
        -9.807600839530075
      ],
      [
        "ude",
        -9.80965768355929
      ],
      [
        "x",
        -9.810080340882813
      ],
      [
        "▁yak",
        -9.811720358951773
      ],
      [
        "▁olutu",
        -9.812345289771667
      ],
      [
        "ggwa",
        -9.813072541181493
      ],
      [
        "▁Ge",
        -9.814354133150745
      ],
      [
        "▁ngate",
        -9.819949733009041
      ],
      [
        "yung",
        -9.820093613602358
      ],
      [
        "▁byeya",
        -9.820211973210636
      ],
      [
        "olwa",
        -9.823118950881858
      ],
      [
        "▁gw'o",
        -9.823613601372568
      ],
      [
        "▁kibu",
        -9.824400549084515
      ],
      [
        "bigere",
        -9.825080003189147
      ],
      [
        "andi",
        -9.825134318709065
      ],
      [
        "▁ekik",
        -9.825581181780358
      ],
      [
        "ebisoro",
        -9.826201224938425
      ],
      [
        "sipo",
        -9.826312481225264
      ],
      [
        "▁buta",
        -9.826458506894578
      ],
      [
        "okwewa",
        -9.82792364123468
      ],
      [
        "okwew",
        -9.830921720808988
      ],
      [
        "timbagano",
        -9.830988710584183
      ],
      [
        "aliliz",
        -9.831152350367944
      ],
      [
        "▁abawer",
        -9.831792640340383
      ],
      [
        "pe",
        -9.832979451121432
      ],
      [
        "▁Gi",
        -9.835310103072558
      ],
      [
        "agan",
        -9.835945851998602
      ],
      [
        "bele",
        -9.837441918065105
      ],
      [
        "ege",
        -9.837974710882655
      ],
      [
        "ober",
        -9.838219552077282
      ],
      [
        "▁obulu",
        -9.83869143059577
      ],
      [
        "▁okukyala",
        -9.838838853108852
      ],
      [
        "▁eyoku",
        -9.838991352708652
      ],
      [
        "muguwa",
        -9.840447783771296
      ],
      [
        "ston",
        -9.841594296311467
      ],
      [
        "cord",
        -9.84626860601532
      ],
      [
        "nimi",
        -9.846432657671127
      ],
      [
        "atonda",
        -9.846866003761763
      ],
      [
        "yetoolo",
        -9.848491728895509
      ],
      [
        "nyiza",
        -9.848649686544448
      ],
      [
        "▁kwakole",
        -9.850178162318386
      ],
      [
        "fe",
        -9.8513884060865
      ],
      [
        "▁Mang",
        -9.854055325740594
      ],
      [
        "▁kuba",
        -9.854587118138907
      ],
      [
        "▁baa",
        -9.854829889142472
      ],
      [
        "akuba",
        -9.855137103549914
      ],
      [
        "yaga",
        -9.858862787637333
      ],
      [
        "—n",
        -9.859070343813746
      ],
      [
        "▁Bri",
        -9.859677456351688
      ],
      [
        "▁n’ens",
        -9.86117375012688
      ],
      [
        "sl",
        -9.862260593563962
      ],
      [
        "ati",
        -9.862391762981556
      ],
      [
        "▁ky’omun",
        -9.862723139940009
      ],
      [
        "▁ekit",
        -9.863245358738297
      ],
      [
        "bakugu",
        -9.863938113140698
      ],
      [
        "▁kiba",
        -9.864031260408108
      ],
      [
        "▁byebisi",
        -9.864552663556484
      ],
      [
        "▁(1",
        -9.865044420394964
      ],
      [
        "▁kila",
        -9.866457159858042
      ],
      [
        "▁bagi",
        -9.866512249307787
      ],
      [
        "▁yasa",
        -9.866687990431329
      ],
      [
        "sisi",
        -9.867310719734117
      ],
      [
        "88",
        -9.868251544338582
      ],
      [
        "izo",
        -9.869089319739047
      ],
      [
        "seza",
        -9.869246648270508
      ],
      [
        "▁lw'e",
        -9.86949773952117
      ],
      [
        "▁de",
        -9.870058719061356
      ],
      [
        "▁kw’omu",
        -9.870351341289272
      ],
      [
        "▁mubis",
        -9.872690448454774
      ],
      [
        "asigaziz",
        -9.874092565379117
      ],
      [
        "▁kibeera",
        -9.875200775811344
      ],
      [
        "oks",
        -9.875711595782347
      ],
      [
        "rala",
        -9.875742994882852
      ],
      [
        "beer",
        -9.876185762420393
      ],
      [
        "▁eng",
        -9.876526055284272
      ],
      [
        "▁Kya",
        -9.877573970705951
      ],
      [
        "owo",
        -9.879879091134683
      ],
      [
        "yesig",
        -9.880374981605934
      ],
      [
        "'ensi",
        -9.88148487814334
      ],
      [
        "edde",
        -9.88224620688618
      ],
      [
        "hal",
        -9.882640771720299
      ],
      [
        "ddeko",
        -9.883466524414313
      ],
      [
        "rabu",
        -9.884100836220098
      ],
      [
        "▁Kon",
        -9.88440338485879
      ],
      [
        "bantu",
        -9.885018957288416
      ],
      [
        "uzanyib",
        -9.88601871933331
      ],
      [
        "akalo",
        -9.886101189240923
      ],
      [
        "▁weg",
        -9.886352396930441
      ],
      [
        "▁Hi",
        -9.886629680104186
      ],
      [
        "ug",
        -9.887918252514636
      ],
      [
        "mukwano",
        -9.888467142455374
      ],
      [
        "▁zaali",
        -9.889411353005103
      ],
      [
        "▁“e",
        -9.890034438612902
      ],
      [
        "▁Ind",
        -9.89039800430828
      ],
      [
        "▁Ha",
        -9.890771803962874
      ],
      [
        "▁obut",
        -9.891115937419372
      ],
      [
        "▁ngagu",
        -9.891627738619448
      ],
      [
        "▁ow’o",
        -9.892475552086026
      ],
      [
        "guwa",
        -9.893340920697668
      ],
      [
        "sikiriza",
        -9.895027675640137
      ],
      [
        "geza",
        -9.896653739436557
      ],
      [
        "am",
        -9.898060889503835
      ],
      [
        "▁okumu",
        -9.902467702972455
      ],
      [
        "▁nu",
        -9.902704704454115
      ],
      [
        "anta",
        -9.90409742733631
      ],
      [
        "▁kij",
        -9.905440245144383
      ],
      [
        "yasooka",
        -9.906205950626115
      ],
      [
        "maze",
        -9.906308652946542
      ],
      [
        "ta,",
        -9.907358866734604
      ],
      [
        "▁Olut",
        -9.909899779367642
      ],
      [
        "azanyir",
        -9.910077702876551
      ],
      [
        "fuu",
        -9.910355710194972
      ],
      [
        "emisinde",
        -9.91196083407901
      ],
      [
        "im",
        -9.913238212141609
      ],
      [
        "▁obubone",
        -9.913870556919669
      ],
      [
        "▁ebisa",
        -9.914263685173935
      ],
      [
        "▁eji",
        -9.914692198575723
      ],
      [
        "letta",
        -9.915135047221773
      ],
      [
        "ckla",
        -9.915232420911742
      ],
      [
        "▁nej",
        -9.917675168154908
      ],
      [
        "▁Med",
        -9.918573626578143
      ],
      [
        "▁okutuu",
        -9.91880556613256
      ],
      [
        "okunyw",
        -9.919090718331976
      ],
      [
        "wumula",
        -9.920466816757816
      ],
      [
        "j",
        -9.921200572394167
      ],
      [
        "▁ebiton",
        -9.922024301231847
      ],
      [
        "▁osi",
        -9.923754872905835
      ],
      [
        "▁da",
        -9.925027017677133
      ],
      [
        "▁ens",
        -9.925695491815189
      ],
      [
        "abaawo",
        -9.92657446186338
      ],
      [
        "aasi",
        -9.92681137820098
      ],
      [
        "kago",
        -9.93064326350074
      ],
      [
        "kwe",
        -9.930751858897137
      ],
      [
        "bikuj",
        -9.931229416952426
      ],
      [
        "▁ot",
        -9.931879498499827
      ],
      [
        "geri",
        -9.933833528543177
      ],
      [
        "kubiriz",
        -9.93560977899003
      ],
      [
        "▁nn",
        -9.93581272436147
      ],
      [
        "eno",
        -9.936449748247247
      ],
      [
        "twaal",
        -9.936549438165809
      ],
      [
        "980",
        -9.937220469414605
      ],
      [
        "▁ky’omu",
        -9.937228379087555
      ],
      [
        "esa",
        -9.937886958399016
      ],
      [
        "entambula",
        -9.937898649003024
      ],
      [
        "weyongera",
        -9.938635007437854
      ],
      [
        "imanyi",
        -9.939619671824683
      ],
      [
        "▁Par",
        -9.940049093060624
      ],
      [
        "▁ayim",
        -9.940521326322099
      ],
      [
        "okutaano",
        -9.94985019506564
      ],
      [
        "▁kusal",
        -9.952090975537436
      ],
      [
        "▁z’en",
        -9.952251626513
      ],
      [
        "▁akir",
        -9.955699567490356
      ],
      [
        "▁ky’o",
        -9.95725885417823
      ],
      [
        "ikibwa",
        -9.959158606968412
      ],
      [
        "▁ebiko",
        -9.959511239649887
      ],
      [
        "▁Or",
        -9.959660305742887
      ],
      [
        "wonna",
        -9.96310761885977
      ],
      [
        "▁ss",
        -9.963154765709419
      ],
      [
        "egaw",
        -9.964711663721568
      ],
      [
        "webaka",
        -9.966360210862748
      ],
      [
        "▁Fi",
        -9.966834365728428
      ],
      [
        "ings",
        -9.967469185252114
      ],
      [
        "rds",
        -9.967962464631281
      ],
      [
        "nyizidwa",
        -9.96848544211727
      ],
      [
        "liza",
        -9.968565498315213
      ],
      [
        "▁okutere",
        -9.970897061622853
      ],
      [
        "▁In",
        -9.971055798269308
      ],
      [
        "ukunga",
        -9.971125182673882
      ],
      [
        "utwal",
        -9.971310203818067
      ],
      [
        "mutindo",
        -9.972915401874502
      ],
      [
        "erwa",
        -9.973469546333442
      ],
      [
        "off",
        -9.973752897949275
      ],
      [
        "a-",
        -9.975142309946502
      ],
      [
        "▁omulwad",
        -9.975308125063814
      ],
      [
        "▁lye",
        -9.975598151891997
      ],
      [
        "▁akat",
        -9.976156521812127
      ],
      [
        "akulembe",
        -9.97975273820368
      ],
      [
        "wali",
        -9.980881506471727
      ],
      [
        "▁yabul",
        -9.98152679753159
      ],
      [
        "egende",
        -9.982230637187762
      ],
      [
        "bonere",
        -9.98230830848627
      ],
      [
        "cy",
        -9.98304076367909
      ],
      [
        "▁okutuuk",
        -9.984600236271339
      ],
      [
        "▁bayiz",
        -9.98497749204097
      ],
      [
        "utambuz",
        -9.985193596306699
      ],
      [
        "mb",
        -9.985767875606564
      ],
      [
        "bwo",
        -9.986207173767292
      ],
      [
        "▁kumik",
        -9.988005860972663
      ],
      [
        "kungan",
        -9.989112632470741
      ],
      [
        "ereka",
        -9.989618914225426
      ],
      [
        "▁gw’",
        -9.990007460406522
      ],
      [
        "▁ofun",
        -9.991378717032026
      ],
      [
        "▁ebise",
        -9.991718590937342
      ],
      [
        "amusi",
        -9.991960499636143
      ],
      [
        "▁ng’oyi",
        -9.992005903640818
      ],
      [
        "riza",
        -9.994185765042616
      ],
      [
        "emis",
        -9.9949597072365
      ],
      [
        "azzi",
        -9.995034590153443
      ],
      [
        "▁ekifu",
        -9.99560018475323
      ],
      [
        "lemererwa",
        -9.99592467702334
      ],
      [
        "▁Bufa",
        -9.997345549755423
      ],
      [
        "dii",
        -9.997793583649678
      ],
      [
        "ayiti",
        -9.998168997743377
      ],
      [
        "▁zez",
        -9.998636250145395
      ],
      [
        "munaana",
        -9.998911944564053
      ],
      [
        "dep",
        -9.998974155180292
      ],
      [
        "▁abalwa",
        -10.002152478454887
      ],
      [
        "uzze",
        -10.002364684761755
      ],
      [
        "▁ekili",
        -10.002862492712742
      ],
      [
        "▁lwokub",
        -10.003016753310717
      ],
      [
        "n’oku",
        -10.003346212600505
      ],
      [
        "▁mug",
        -10.006083207850166
      ],
      [
        "insu",
        -10.006284275816233
      ],
      [
        "▁lube",
        -10.007182162426242
      ],
      [
        "▁n’omu",
        -10.007626385374305
      ],
      [
        "▁amag",
        -10.008022650698987
      ],
      [
        "yentambula",
        -10.00814499885945
      ],
      [
        "yamb",
        -10.010326694560671
      ],
      [
        "sindik",
        -10.010999381389848
      ],
      [
        "yindi",
        -10.011932176165606
      ],
      [
        "kyukakyuka",
        -10.012120736581071
      ],
      [
        "anja",
        -10.015881221493494
      ],
      [
        "ahu",
        -10.017542641123239
      ],
      [
        "mes",
        -10.018221901635663
      ],
      [
        "▁n'em",
        -10.018283367064162
      ],
      [
        "▁gy’o",
        -10.018423117709201
      ],
      [
        "af",
        -10.02190120129345
      ],
      [
        "▁Chi",
        -10.023938275325536
      ],
      [
        "alu",
        -10.02426175924711
      ],
      [
        "▁asiga",
        -10.025877877061134
      ],
      [
        "ovu",
        -10.02630948623338
      ],
      [
        "eg",
        -10.027330157586135
      ],
      [
        "▁bateek",
        -10.027806241307323
      ],
      [
        "kutambu",
        -10.028714726589717
      ],
      [
        "▁noo",
        -10.029928586290783
      ],
      [
        "ines",
        -10.030271495402594
      ],
      [
        "▁okulem",
        -10.031297371896985
      ],
      [
        "aabwe",
        -10.031742385770746
      ],
      [
        "kilwa",
        -10.031911610815746
      ],
      [
        "pani",
        -10.032669745147594
      ],
      [
        "▁obuw",
        -10.034721952748844
      ],
      [
        "▁kyo",
        -10.034860545117393
      ],
      [
        "▁bwaba",
        -10.035684349935451
      ],
      [
        "kut",
        -10.035920196046478
      ],
      [
        "▁kik",
        -10.03895521034192
      ],
      [
        "kusoma",
        -10.039374655366386
      ],
      [
        "bwongo",
        -10.040388642176811
      ],
      [
        "emp",
        -10.041422940691838
      ],
      [
        "meny",
        -10.042404930751564
      ],
      [
        "ot",
        -10.042693343440552
      ],
      [
        "▁okusiki",
        -10.043630658204481
      ],
      [
        "▁kut",
        -10.044496596598128
      ],
      [
        "engere",
        -10.045323224721496
      ],
      [
        "▁ebyatu",
        -10.047262957370767
      ],
      [
        "▁ssand",
        -10.047758762801713
      ],
      [
        "ingi",
        -10.04828483342456
      ],
      [
        "ateeka",
        -10.050343498678844
      ],
      [
        "a)",
        -10.05247970210036
      ],
      [
        "▁ezit",
        -10.052866568131211
      ],
      [
        "▁bik",
        -10.054019710925767
      ],
      [
        "yamugaso",
        -10.054071301112842
      ],
      [
        "imo",
        -10.054093783372112
      ],
      [
        "nyuma",
        -10.054579475488206
      ],
      [
        "▁z’o",
        -10.054926975642777
      ],
      [
        "800",
        -10.056493037394038
      ],
      [
        "mayanja",
        -10.057010212096984
      ],
      [
        "ziba",
        -10.057270184184166
      ],
      [
        "gwaako",
        -10.057352621980085
      ],
      [
        "uli",
        -10.059769415071203
      ],
      [
        "oto",
        -10.060330728099716
      ],
      [
        "obusol",
        -10.060619890221014
      ],
      [
        "’ekiwandiiko",
        -10.062259217901524
      ],
      [
        "▁ekikwata",
        -10.064332861890398
      ],
      [
        "enkola",
        -10.064439725216817
      ],
      [
        "▁by’obu",
        -10.065443738368042
      ],
      [
        "▁am",
        -10.066446053169916
      ],
      [
        "ima",
        -10.067695651557667
      ],
      [
        "▁okugg",
        -10.070997160632404
      ],
      [
        "▁n’em",
        -10.071211289212112
      ],
      [
        "bamanyi",
        -10.071768301996695
      ],
      [
        "▁kw'om",
        -10.072968210655944
      ],
      [
        "▁amaz",
        -10.073393470611236
      ],
      [
        "akakasi",
        -10.073547782458522
      ],
      [
        "▁w’eb",
        -10.074579597653303
      ],
      [
        "▁w’e",
        -10.074859573847384
      ],
      [
        "rungi",
        -10.075388644214641
      ],
      [
        "▁okubu",
        -10.075899780740984
      ],
      [
        "tonda",
        -10.076232964299228
      ],
      [
        "▁yalayi",
        -10.076426644449871
      ],
      [
        "▁ngomu",
        -10.07710287036226
      ],
      [
        "▁byayoge",
        -10.07771657836349
      ],
      [
        "▁tu",
        -10.079800504515042
      ],
      [
        "▁kay",
        -10.082742957849982
      ],
      [
        "kiro",
        -10.082756723522483
      ],
      [
        "▁baan",
        -10.08449626850988
      ],
      [
        "agenda",
        -10.08676960924001
      ],
      [
        "▁ovud",
        -10.087372729625105
      ],
      [
        "bal",
        -10.088175947624736
      ],
      [
        "kyusa",
        -10.088975303802744
      ],
      [
        "▁30",
        -10.089536489328669
      ],
      [
        "▁Orl",
        -10.089551302483542
      ],
      [
        "▁emis",
        -10.089657346115116
      ],
      [
        "▁kuvug",
        -10.090050587074316
      ],
      [
        "lus",
        -10.09084767268932
      ],
      [
        "etut",
        -10.090885907697915
      ],
      [
        "lala",
        -10.091034027741863
      ],
      [
        "kisubi",
        -10.091409892344956
      ],
      [
        "gobele",
        -10.094268698942614
      ],
      [
        "sen",
        -10.094412747115392
      ],
      [
        "▁tikit",
        -10.0955573034157
      ],
      [
        "tiisa",
        -10.095719169210385
      ],
      [
        "aw",
        -10.096256192837533
      ],
      [
        "adio",
        -10.096820474458404
      ],
      [
        "bwerere",
        -10.09786259633887
      ],
      [
        "▁wot",
        -10.098220898303921
      ],
      [
        "▁Pu",
        -10.09859731704528
      ],
      [
        "▁ebyabu",
        -10.100719895024236
      ],
      [
        "▁Sha",
        -10.103469168370806
      ],
      [
        "kamu",
        -10.104097834708856
      ],
      [
        "zz",
        -10.105574771778361
      ],
      [
        "ker",
        -10.106467097534976
      ],
      [
        "ebye",
        -10.107040720984735
      ],
      [
        "▁eziku",
        -10.109214271150426
      ],
      [
        "ibiina",
        -10.109540924016553
      ],
      [
        "▁joo",
        -10.10993356538926
      ],
      [
        "▁kko",
        -10.110376000653858
      ],
      [
        "ix",
        -10.112992856427308
      ],
      [
        "▁Okw",
        -10.115013609465294
      ],
      [
        "awakati",
        -10.115095893263899
      ],
      [
        "hoo",
        -10.116091472121587
      ],
      [
        "78",
        -10.117101426341469
      ],
      [
        "gwe",
        -10.118836839759487
      ],
      [
        "Abo",
        -10.12016882869798
      ],
      [
        "▁okutandik",
        -10.120473926846987
      ],
      [
        "yebakola",
        -10.120860537755618
      ],
      [
        "▁sup",
        -10.12172350228646
      ],
      [
        "utu",
        -10.122070227901286
      ],
      [
        "▁osobol",
        -10.123259543138875
      ],
      [
        "▁Yal",
        -10.123519543282011
      ],
      [
        "kawungeezi",
        -10.123984410419313
      ],
      [
        "▁ng’aba",
        -10.124539265608904
      ],
      [
        "mer",
        -10.126570450302827
      ],
      [
        "▁tot",
        -10.126930563606875
      ],
      [
        "▁mulu",
        -10.127050126935826
      ],
      [
        "▁kase",
        -10.128239800344641
      ],
      [
        "imyans",
        -10.128819013512246
      ],
      [
        "▁ezisi",
        -10.129497699843355
      ],
      [
        "▁ovug",
        -10.129872401906972
      ],
      [
        "▁gy'",
        -10.130513660716144
      ],
      [
        "▁yabu",
        -10.13134020124573
      ],
      [
        "imuli",
        -10.131701189229707
      ],
      [
        "▁guyi",
        -10.131748671724445
      ],
      [
        "▁ogw’om",
        -10.133567150506256
      ],
      [
        "kilil",
        -10.135140111208292
      ],
      [
        "sin",
        -10.135272295379275
      ],
      [
        "ulembe",
        -10.137365773748972
      ],
      [
        "▁ekyaka",
        -10.141632377414663
      ],
      [
        "▁w’eki",
        -10.141889925870275
      ],
      [
        "obeera",
        -10.142328768974288
      ],
      [
        "▁Be",
        -10.1423443129868
      ],
      [
        "▁muli",
        -10.142511983962894
      ],
      [
        "’omukulembeze",
        -10.142724387400465
      ],
      [
        "▁bw'oku",
        -10.144320441828764
      ],
      [
        "▁kab",
        -10.145760994868258
      ],
      [
        "op",
        -10.145843568904148
      ],
      [
        "oteri",
        -10.147034784080343
      ],
      [
        "▁yala",
        -10.150795837369474
      ],
      [
        "lagib",
        -10.151444384100497
      ],
      [
        "tana",
        -10.15163169315985
      ],
      [
        "▁okwet",
        -10.152047109304318
      ],
      [
        "▁abas",
        -10.152513058079048
      ],
      [
        "endi",
        -10.156293513167876
      ],
      [
        "nkola",
        -10.15631713599836
      ],
      [
        "▁bw'",
        -10.1570936719899
      ],
      [
        "▁196",
        -10.158188638952637
      ],
      [
        "▁kw’o",
        -10.158814621573821
      ],
      [
        "▁yeyo",
        -10.161931836909787
      ],
      [
        "guse",
        -10.162682994018462
      ],
      [
        "olu",
        -10.163473041851649
      ],
      [
        "▁kirungi",
        -10.165088864157843
      ],
      [
        "▁gali",
        -10.166359036596015
      ],
      [
        "▁Mi",
        -10.16682433844497
      ],
      [
        "kudda",
        -10.168309359822736
      ],
      [
        "▁abap",
        -10.168906576198875
      ],
      [
        "sita",
        -10.171685066037538
      ],
      [
        "umwa",
        -10.173695362857444
      ],
      [
        "ooka",
        -10.174036672273397
      ],
      [
        "▁biragi",
        -10.174093966012203
      ],
      [
        "▁Gre",
        -10.174831363556688
      ],
      [
        "gula",
        -10.175338377212194
      ],
      [
        "sindiki",
        -10.177338328701556
      ],
      [
        "gez",
        -10.177479415841608
      ],
      [
        "▁Ti",
        -10.179195544376222
      ],
      [
        "vid",
        -10.182430394448808
      ],
      [
        "okozes",
        -10.184155191745399
      ],
      [
        "biv",
        -10.185856954692042
      ],
      [
        "▁gyab",
        -10.186010207646065
      ],
      [
        "sidwa",
        -10.186470753136517
      ],
      [
        "▁gw’omwa",
        -10.187848823692367
      ],
      [
        "▁teri",
        -10.187853762461883
      ],
      [
        "ererwa",
        -10.188337640405361
      ],
      [
        "▁ky'oku",
        -10.188430494436705
      ],
      [
        "abafumb",
        -10.189226224176636
      ],
      [
        "▁kali",
        -10.190015446426973
      ],
      [
        "okulagir",
        -10.192213758383575
      ],
      [
        "▁yasab",
        -10.19319980131707
      ],
      [
        "miz",
        -10.193797831730244
      ],
      [
        "acks",
        -10.195352875703719
      ],
      [
        "▁lip",
        -10.195427576322201
      ],
      [
        "▁Mus",
        -10.196180274697443
      ],
      [
        "▁(S",
        -10.19638373923381
      ],
      [
        "erero",
        -10.197164545602297
      ],
      [
        "aza",
        -10.198677169131743
      ],
      [
        "bis",
        -10.198984530609955
      ],
      [
        "▁194",
        -10.198995164991416
      ],
      [
        "ft",
        -10.199043025417257
      ],
      [
        "kuyiga",
        -10.201884820760014
      ],
      [
        "▁b'e",
        -10.201980330732438
      ],
      [
        "wandik",
        -10.202191173948759
      ],
      [
        "buza",
        -10.202388046071658
      ],
      [
        "▁abazan",
        -10.202914440647696
      ],
      [
        "ebweru",
        -10.20366993332916
      ],
      [
        "infr",
        -10.208201053319192
      ],
      [
        "▁f",
        -10.208325895235966
      ],
      [
        "low",
        -10.210696498750867
      ],
      [
        "ulonda",
        -10.213719082672915
      ],
      [
        "okubeera",
        -10.213851204913695
      ],
      [
        "▁Ebye",
        -10.21527555272743
      ],
      [
        "bw’eki",
        -10.215834933933182
      ],
      [
        "▁lili",
        -10.217394344592723
      ],
      [
        "kuvu",
        -10.217619079709973
      ],
      [
        "▁njo",
        -10.217827936354276
      ],
      [
        "mukulembeze",
        -10.218766073513363
      ],
      [
        "ubwa.",
        -10.219150158897198
      ],
      [
        "▁gw'a",
        -10.222244043888194
      ],
      [
        "gendele",
        -10.222569346350264
      ],
      [
        "▁olwoku",
        -10.223510327539648
      ],
      [
        "akoleddwa",
        -10.223638179661256
      ],
      [
        "our",
        -10.2244314746588
      ],
      [
        "▁Buf",
        -10.22539084988587
      ],
      [
        "▁obutab",
        -10.225532199044087
      ],
      [
        "w’ebi",
        -10.226167453270675
      ],
      [
        "ise",
        -10.22625980846054
      ],
      [
        "▁okusasa",
        -10.226330483931578
      ],
      [
        "ses",
        -10.226498702248909
      ],
      [
        "awona",
        -10.226565781603385
      ],
      [
        "▁obulamb",
        -10.226583120177551
      ],
      [
        "nti",
        -10.226667740759265
      ],
      [
        "▁biy",
        -10.226802955500077
      ],
      [
        "▁yaka",
        -10.227463326417237
      ],
      [
        "kusanga",
        -10.229572904228458
      ],
      [
        "taago",
        -10.230306632197435
      ],
      [
        "pang",
        -10.230795697567052
      ],
      [
        "jj",
        -10.232118183691277
      ],
      [
        "▁okusaa",
        -10.23262836089017
      ],
      [
        "▁ebir",
        -10.233209777940258
      ],
      [
        "sanvu",
        -10.234878753462414
      ],
      [
        "ten",
        -10.236145229068336
      ],
      [
        "▁yatandi",
        -10.238785032667337
      ],
      [
        "▁bung",
        -10.239007894725997
      ],
      [
        "olera",
        -10.239402818854947
      ],
      [
        "mbuli",
        -10.24032263387322
      ],
      [
        "wokubiri",
        -10.240651861966379
      ],
      [
        "rungi.",
        -10.240713385765405
      ],
      [
        "▁gw’omu",
        -10.241697576338998
      ],
      [
        "▁Emp",
        -10.241913393653997
      ],
      [
        "▁ag’",
        -10.243051026274605
      ],
      [
        "▁abatuu",
        -10.243326709294005
      ],
      [
        "▁abata",
        -10.243878059555973
      ],
      [
        "▁ejj",
        -10.245520833055929
      ],
      [
        "uty",
        -10.24656677124003
      ],
      [
        "byobuwangwa",
        -10.247127331408397
      ],
      [
        "▁emye",
        -10.25103597189455
      ],
      [
        "▁birim",
        -10.252431061572114
      ],
      [
        "kulaba",
        -10.252457656383134
      ],
      [
        "my",
        -10.252505816339353
      ],
      [
        "kikol",
        -10.253834321680777
      ],
      [
        "rerwa",
        -10.254643750780748
      ],
      [
        "kar",
        -10.254643921872912
      ],
      [
        "balu",
        -10.254794195870357
      ],
      [
        "▁Ak",
        -10.255783728714356
      ],
      [
        "koze",
        -10.257204417839175
      ],
      [
        "▁ober",
        -10.258222310656427
      ],
      [
        "▁yayin",
        -10.258293538076595
      ],
      [
        "▁egis",
        -10.258765807603893
      ],
      [
        "omuli",
        -10.259473457546306
      ],
      [
        "neny",
        -10.2612271752719
      ],
      [
        "ikiri",
        -10.26210862696913
      ],
      [
        "▁bav",
        -10.26433195579946
      ],
      [
        "▁di",
        -10.265092601443081
      ],
      [
        "ugu",
        -10.266598864819363
      ],
      [
        "▁webaat",
        -10.26679186255581
      ],
      [
        "’o",
        -10.268875994663198
      ],
      [
        "yabadde",
        -10.272914013548974
      ],
      [
        "bikadde",
        -10.274790079440518
      ],
      [
        "ssa",
        -10.274882040572528
      ],
      [
        "aliya",
        -10.275000761961367
      ],
      [
        "▁abalambu",
        -10.276751592451262
      ],
      [
        "waanga",
        -10.276940037024293
      ],
      [
        "▁by’omu",
        -10.278760117231679
      ],
      [
        "ayini",
        -10.279151166119725
      ],
      [
        "▁g'e",
        -10.27979166237803
      ],
      [
        "▁nj",
        -10.280310241733751
      ],
      [
        "eng",
        -10.280881775378912
      ],
      [
        "▁olwe",
        -10.28231157944163
      ],
      [
        "yayimiri",
        -10.28280419712979
      ],
      [
        "▁ezoo",
        -10.283110400569843
      ],
      [
        "▁An",
        -10.283711220374435
      ],
      [
        "▁kuza",
        -10.283916358114919
      ],
      [
        "okunywe",
        -10.284199582549174
      ],
      [
        "serenget",
        -10.28429952089007
      ],
      [
        "▁avuga",
        -10.284769555617222
      ],
      [
        "▁weya",
        -10.285447652504724
      ],
      [
        "▁egy'",
        -10.285653285487886
      ],
      [
        "jet",
        -10.285880079630441
      ],
      [
        "▁lukal",
        -10.286814923172642
      ],
      [
        "kiti",
        -10.287167572975315
      ],
      [
        "ujju",
        -10.28856933801836
      ],
      [
        "alira",
        -10.289562013497342
      ],
      [
        "▁yalangi",
        -10.289970201968911
      ],
      [
        "scop",
        -10.290034852267878
      ],
      [
        "mbiddwa",
        -10.29028406832846
      ],
      [
        "gw’ebi",
        -10.290443746026984
      ],
      [
        "unya",
        -10.29087445010744
      ],
      [
        "ongoose",
        -10.291634135699304
      ],
      [
        "eeba",
        -10.29330614215954
      ],
      [
        "imbi",
        -10.29405909616925
      ],
      [
        "▁wabwe",
        -10.294289417932768
      ],
      [
        "erina",
        -10.295286364564168
      ],
      [
        "bubi",
        -10.295328758646114
      ],
      [
        "▁okuyin",
        -10.296930436520045
      ],
      [
        "rako",
        -10.299689301669718
      ],
      [
        "usula",
        -10.300267088381604
      ],
      [
        "ekimanyidwa",
        -10.300682606268325
      ],
      [
        "zigul",
        -10.30071247210994
      ],
      [
        "▁10",
        -10.30167590228277
      ],
      [
        "▁ogw’omuna",
        -10.301999021643116
      ],
      [
        "▁ekyeby",
        -10.303416711644465
      ],
      [
        "andika",
        -10.304202300963306
      ],
      [
        "ow",
        -10.30491384271974
      ],
      [
        "▁gaba",
        -10.3066047887451
      ],
      [
        "tono.",
        -10.306750431873734
      ],
      [
        "▁eky'e",
        -10.306757172273281
      ],
      [
        "▁ekibu",
        -10.307193624984107
      ],
      [
        "▁kuz",
        -10.307968030914072
      ],
      [
        "▁yadd",
        -10.309831303038917
      ],
      [
        "werere",
        -10.310922122932777
      ],
      [
        "mid",
        -10.311940425846593
      ],
      [
        "▁gy'e",
        -10.3135620693547
      ],
      [
        "▁Ken",
        -10.314361106348837
      ],
      [
        "▁oguk",
        -10.317198379582802
      ],
      [
        "▁mig",
        -10.318049477349795
      ],
      [
        "yizi",
[...]
