{
  "version": "1.0",
  "truncation": null,
  "padding": null,
  "added_tokens": [
    {
      "id": 0,
      "content": "<pad>",
      "single_word": false,
      "lstrip": false,
      "rstrip": false,
      "normalized": false,
      "special": true
    },
    {
      "id": 1,
      "content": "<unk>",
      "single_word": false,
      "lstrip": false,
      "rstrip": false,
      "normalized": false,
      "special": true
    },
    {
      "id": 2,
      "content": "<cls>",
      "single_word": false,
      "lstrip": false,
      "rstrip": false,
      "normalized": false,
      "special": true
    }
  ],
  "normalizer": {
    "type": "Sequence",
    "normalizers": [
      {
        "type": "Nmt"
      },
      {
        "type": "NFKC"
      },
      {
        "type": "Replace",
        "pattern": {
          "Regex": " {2,}"
        },
        "content": " "
      }
    ]
  },
  "pre_tokenizer": {
    "type": "Metaspace",
    "replacement": "▁",
    "prepend_scheme": "always",
    "split": true
  },
  "post_processor": {
    "type": "TemplateProcessing",
    "single": [
      {
        "SpecialToken": {
          "id": "<cls>",
          "type_id": 0
        }
      },
      {
        "Sequence": {
          "id": "A",
          "type_id": 0
        }
      }
    ],
    "pair": [
      {
        "Sequence": {
          "id": "A",
          "type_id": 0
        }
      },
      {
        "Sequence": {
          "id": "B",
          "type_id": 1
        }
      }
    ],
    "special_tokens": {
      "<cls>": {
        "id": "<cls>",
        "ids": [
          2
        ],
        "tokens": [
          "<cls>"
        ]
      }
    }
  },
  "decoder": {
    "type": "Metaspace",
    "replacement": "▁",
    "prepend_scheme": "always",
    "split": true
  },
  "model": {
    "type": "Unigram",
    "unk_id": 1,
    "vocab": [
      [
        "<pad>",
        0.0
      ],
      [
        "<unk>",
        0.0
      ],
      [
        "<cls>",
        0.0
      ],
      [
        "▁",
        -3.1812179280089765
      ],
      [
        ",",
        -3.5851950689552545
      ],
      [
        ".",
        -3.6833386750630313
      ],
      [
        "a",
        -3.8397550378703427
      ],
      [
        "▁mu",
        -3.9720005948959773
      ],
      [
        "o",
        -4.4196070069449025
      ],
      [
        "e",
        -4.451350205771659
      ],
      [
        "▁ku",
        -4.568831166838197
      ],
      [
        "ra",
        -4.95707534468804
      ],
      [
        "▁muri",
        -5.0329922289232245
      ],
      [
        "i",
        -5.051518983806533
      ],
      [
        "▁ya",
        -5.108422336772523
      ],
      [
        "▁i",
        -5.117969741108041
      ],
      [
        "we",
        -5.194524258464162
      ],
      [
        "▁na",
        -5.279664878586267
      ],
      [
        "ye",
        -5.372687312256188
      ],
      [
        "▁b",
        -5.386310145455229
      ],
      [
        "wa",
        -5.458332187009607
      ],
      [
        "▁ko",
        -5.490606889644124
      ],
      [
        "▁kandi",
        -5.5657000695697185
      ],
      [
        "ko",
        -5.571745662260164
      ],
      [
        "▁ni",
        -5.586144002103886
      ],
      [
        "▁u",
        -5.6075846171061
      ],
      [
        "▁I",
        -5.620033736515716
      ],
      [
        "▁n",
        -5.675011558284452
      ],
      [
        "▁k",
        -5.681659601078319
      ],
      [
        "canke",
        -5.757089167139594
      ],
      [
        "▁cane",
        -5.837122623224246
      ],
      [
        "▁yo",
        -5.848942018152602
      ],
      [
        "▁ca",
        -5.851663717772856
      ],
      [
        "aho",
        -5.874646149061775
      ],
      [
        "za",
        -5.883344672914204
      ],
      [
        "▁wa",
        -5.885867399365942
      ],
      [
        "▁bi",
        -5.913289668293456
      ],
      [
        "▁ba",
        -5.93416904702644
      ],
      [
        "▁n'",
        -5.950355909009406
      ],
      [
        "u",
        -6.0074841244737645
      ],
      [
        "▁hamwe",
        -6.017977280940417
      ],
      [
        "▁ibi",
        -6.032960953624988
      ],
      [
        "▁y",
        -6.061507525136511
      ],
      [
        "ba",
        -6.062092490349326
      ],
      [
        "ri",
        -6.0786899403169965
      ],
      [
        "▁no",
        -6.083545755370787
      ],
      [
        "▁ari",
        -6.091885916718599
      ],
      [
        "yo",
        -6.117838048269553
      ],
      [
        "▁kugira",
        -6.117914989684374
      ],
      [
        "s",
        -6.122145284140815
      ],
      [
        "▁z",
        -6.1242926831271145
      ],
      [
        "ntu",
        -6.128451776400421
      ],
      [
        "▁Mu",
        -6.158201368569652
      ],
      [
        "▁hari",
        -6.19646709417691
      ],
      [
        "n",
        -6.216017978221847
      ],
      [
        "ze",
        -6.2411321533848305
      ],
      [
        "▁za",
        -6.271653299967282
      ],
      [
        "ho",
        -6.274901693017181
      ],
      [
        "mwo",
        -6.296719043793207
      ],
      [
        "▁ama",
        -6.304328325653366
      ],
      [
        "ro",
        -6.314915056690597
      ],
      [
        "▁y'",
        -6.315312654203465
      ],
      [
        "ise",
        -6.326820532705414
      ],
      [
        "▁vya",
        -6.344210392285537
      ],
      [
        "▁in",
        -6.3648050595551435
      ],
      [
        ")",
        -6.3742546194876
      ],
      [
        "▁vy",
        -6.384722541174625
      ],
      [
        "▁zi",
        -6.389484339301834
      ],
      [
        "iye",
        -6.420680576384569
      ],
      [
        "▁ivyo",
        -6.422711942289272
      ],
      [
        "\"",
        -6.440398190054393
      ],
      [
        "abo",
        -6.44156026184026
      ],
      [
        "y",
        -6.447163879990342
      ],
      [
        "▁rya",
        -6.451178540229273
      ],
      [
        "▁mbere",
        -6.494544826222702
      ],
      [
        "▁neza",
        -6.503842902440239
      ],
      [
        "enshi",
        -6.508600124205218
      ],
      [
        "na",
        -6.526447378299537
      ],
      [
        "▁c",
        -6.590281915780829
      ],
      [
        "r",
        -6.592038937774904
      ],
      [
        "▁yose",
        -6.605727202263888
      ],
      [
        "▁abantu",
        -6.618337614245269
      ],
      [
        "ga",
        -6.621687359405264
      ],
      [
        "▁A",
        -6.6250369563825995
      ],
      [
        "ka",
        -6.632471997580399
      ],
      [
        "se",
        -6.6387418384904695
      ],
      [
        "▁bwa",
        -6.646354142576118
      ],
      [
        "▁ngo",
        -6.654747238949026
      ],
      [
        "▁N",
        -6.660143388231242
      ],
      [
        "▁kuri",
        -6.669317142896061
      ],
      [
        "▁U",
        -6.672573179271912
      ],
      [
        "▁aba",
        -6.677488629871499
      ],
      [
        "▁kuba",
        -6.686020695726163
      ],
      [
        "▁ru",
        -6.688652811393108
      ],
      [
        "▁rwa",
        -6.708438568415517
      ],
      [
        "▁imbere",
        -6.717903908348658
      ],
      [
        "▁ubu",
        -6.722154632096395
      ],
      [
        "shobor",
        -6.722699590842565
      ],
      [
        "▁co",
        -6.739166533021542
      ],
      [
        "kino",
        -6.740375508932516
      ],
      [
        "▁ha",
        -6.74102448747086
      ],
      [
        "▁im",
        -6.74779504891897
      ],
      [
        "ira",
        -6.75480913943759
      ],
      [
        "ma",
        -6.76063117985284
      ],
      [
        "k",
        -6.765573287407818
      ],
      [
        "▁yari",
        -6.771585357315561
      ],
      [
        "▁wo",
        -6.776067543999421
      ],
      [
        "ya",
        -6.778068425982133
      ],
      [
        "▁Ama",
        -6.803941086209111
      ],
      [
        "▁n'i",
        -6.80530348322001
      ],
      [
        "▁m",
        -6.820437094647842
      ],
      [
        "▁K",
        -6.828529701233872
      ],
      [
        "▁bwo",
        -6.832429405092938
      ],
      [
        "anye",
        -6.83465732922058
      ],
      [
        "▁vyo",
        -6.841881833841747
      ],
      [
        "jwe",
        -6.847577246006434
      ],
      [
        "▁Ku",
        -6.851742840105734
      ],
      [
        "h",
        -6.860394591048928
      ],
      [
        "▁a",
        -6.867785818403318
      ],
      [
        "uko",
        -6.868763589249371
      ],
      [
        "m",
        -6.882219432611302
      ],
      [
        "▁r",
        -6.900987618538842
      ],
      [
        "zi",
        -6.9042032839173775
      ],
      [
        "higanwa",
        -6.9065458253186165
      ],
      [
        "▁iki",
        -6.931426899704965
      ],
      [
        "▁gu",
        -6.935913706239637
      ],
      [
        "je",
        -6.937160940033804
      ],
      [
        "tuma",
        -6.942017842105477
      ],
      [
        "shirahamwe",
        -6.943605986196166
      ],
      [
        "▁(",
        -6.944168437597064
      ],
      [
        "ta",
        -6.95464269967246
      ],
      [
        "re",
        -6.955234110620317
      ],
      [
        "▁ico",
        -6.957263239352306
      ],
      [
        "ne",
        -6.971395722015846
      ],
      [
        "▁umu",
        -6.973122785348465
      ],
      [
        "nga",
        -6.984504376279196
      ],
      [
        "si",
        -6.993374010844876
      ],
      [
        "▁igih",
        -7.003297514735859
      ],
      [
        "t",
        -7.006830827889578
      ],
      [
        "▁kw",
        -7.007799191574723
      ],
      [
        "▁ry",
        -7.00797045972946
      ],
      [
        "▁ariko",
        -7.009102952874665
      ],
      [
        "ndi",
        -7.009341419987884
      ],
      [
        "ura",
        -7.014401091783314
      ],
      [
        "itwa",
        -7.016606379059694
      ],
      [
        "▁ma",
        -7.023049934220186
      ],
      [
        "▁ing",
        -7.0278324165793125
      ],
      [
        "era",
        -7.032157516154513
      ],
      [
        "▁rimwe",
        -7.036097911056068
      ],
      [
        "▁bu",
        -7.036715118338442
      ],
      [
        "d",
        -7.045158204102533
      ],
      [
        "gihe",
        -7.0516574752988515
      ],
      [
        "bo",
        -7.0577601446617635
      ],
      [
        "▁gihe",
        -7.068749120410985
      ],
      [
        "ari",
        -7.0780314635075925
      ],
      [
        "l",
        -7.078461213790227
      ],
      [
        "kuru",
        -7.078546560695205
      ],
      [
        "uza",
        -7.07867086417072
      ],
      [
        "mukuru",
        -7.080144324435636
      ],
      [
        "iza",
        -7.083726694348686
      ],
      [
        "co",
        -7.087299100682618
      ],
      [
        ":",
        -7.089172259452932
      ],
      [
        "▁kabiri",
        -7.089499517540247
      ],
      [
        "▁kubera",
        -7.095080433710676
      ],
      [
        "▁bo",
        -7.103646281142339
      ],
      [
        "▁w",
        -7.106607066636602
      ],
      [
        "▁biri",
        -7.109223109780868
      ],
      [
        "c",
        -7.110252858420557
      ],
      [
        "▁\"",
        -7.1175718364358405
      ],
      [
        "nze",
        -7.1268968499056164
      ],
      [
        "ingo",
        -7.132289897597376
      ],
      [
        "zwa",
        -7.134757255631667
      ],
      [
        "ama",
        -7.1364663931331265
      ],
      [
        "▁h",
        -7.139244174823029
      ],
      [
        "▁iyo",
        -7.14331314256417
      ],
      [
        "ja",
        -7.14505553169969
      ],
      [
        "▁Amerika",
        -7.14805678616376
      ],
      [
        "▁hagati",
        -7.14811676696139
      ],
      [
        "▁imi",
        -7.150888982451404
      ],
      [
        "▁C",
        -7.152422581457969
      ],
      [
        "▁Let",
        -7.152600193657689
      ],
      [
        "▁gusa",
        -7.1561881779533465
      ],
      [
        "nyuma",
        -7.157104629507987
      ],
      [
        "-",
        -7.161190853691675
      ],
      [
        "▁bari",
        -7.161861128305107
      ],
      [
        "▁bij",
        -7.169486909477609
      ],
      [
        "ihugu",
        -7.170755357106545
      ],
      [
        "▁B",
        -7.177189743869073
      ],
      [
        "ing",
        -7.1853359650656525
      ],
      [
        "nye",
        -7.197192126151058
      ],
      [
        "tegeko",
        -7.1981761413398075
      ],
      [
        "▁S",
        -7.198730489838432
      ],
      [
        "inyi",
        -7.200733761476328
      ],
      [
        "▁zo",
        -7.205240989786802
      ],
      [
        "ire",
        -7.205692067316193
      ],
      [
        "ha",
        -7.206785314201353
      ],
      [
        "nya",
        -7.210849312723574
      ],
      [
        "wo",
        -7.2211698287783115
      ],
      [
        "▁ib",
        -7.229898900531184
      ],
      [
        "g",
        -7.238609689886017
      ],
      [
        "aze",
        -7.2393748389376675
      ],
      [
        "▁bw",
        -7.2398625475814296
      ],
      [
        "wi",
        -7.241127162018867
      ],
      [
        "▁mi",
        -7.260137439622678
      ],
      [
        "ije",
        -7.275354323582947
      ],
      [
        "yaka",
        -7.2765973317507004
      ],
      [
        "b",
        -7.286782023766724
      ],
      [
        "kaba",
        -7.288330194038217
      ],
      [
        "▁c'",
        -7.289235930742857
      ],
      [
        "mu",
        -7.29003456459454
      ],
      [
        "▁ki",
        -7.309586688206634
      ],
      [
        "▁ri",
        -7.315474872825501
      ],
      [
        "tse",
        -7.317271563436785
      ],
      [
        "aba",
        -7.317794978956549
      ],
      [
        "▁gihugu",
        -7.3180015158592004
      ],
      [
        "ana",
        -7.328150328097953
      ],
      [
        "▁hafi",
        -7.349002268856582
      ],
      [
        "▁vyinshi",
        -7.349023246818549
      ],
      [
        "▁yavuze",
        -7.349937358634087
      ],
      [
        "zo",
        -7.350532163864578
      ],
      [
        "ara",
        -7.352958718415186
      ],
      [
        "▁ikibanza",
        -7.353797699717809
      ],
      [
        "kiyaga",
        -7.357622558265183
      ],
      [
        "▁inyuma",
        -7.358715871776356
      ],
      [
        "▁ingenzi",
        -7.3615867434456455
      ],
      [
        "▁n'aba",
        -7.36807602029828
      ],
      [
        "▁In",
        -7.3789491976041575
      ],
      [
        "▁ata",
        -7.384956860673556
      ],
      [
        "eze",
        -7.387529792209433
      ],
      [
        "he",
        -7.393347436778884
      ],
      [
        "▁bara",
        -7.403491114311182
      ],
      [
        "▁vy'",
        -7.404480862399028
      ],
      [
        "rwa",
        -7.404631192294699
      ],
      [
        "▁kiri",
        -7.404757508021828
      ],
      [
        "▁ryo",
        -7.404850608528996
      ],
      [
        "▁Aba",
        -7.406856854740115
      ],
      [
        "▁uru",
        -7.419369640282685
      ],
      [
        "no",
        -7.419743062076705
      ],
      [
        "ni",
        -7.422884441267027
      ],
      [
        "ryango",
        -7.4277914796943545
      ],
      [
        "▁M",
        -7.42840996621576
      ],
      [
        "▁bose",
        -7.429790400129248
      ],
      [
        "▁ski",
        -7.430529629118051
      ],
      [
        "▁kuva",
        -7.443701062268639
      ],
      [
        "indi",
        -7.445662849638607
      ],
      [
        "gira",
        -7.454188582508561
      ],
      [
        "ite",
        -7.458820236947506
      ],
      [
        "▁rw",
        -7.462063894538749
      ],
      [
        "▁nka",
        -7.471757911026834
      ],
      [
        "▁gushik",
        -7.473278006469579
      ],
      [
        "▁W",
        -7.4786220932020395
      ],
      [
        "▁gi",
        -7.48145841153051
      ],
      [
        "iri",
        -7.492062142944322
      ],
      [
        "ibanza",
        -7.496132918602089
      ],
      [
        "an",
        -7.497214645975518
      ],
      [
        "in",
        -7.499792331408974
      ],
      [
        "▁igi",
        -7.506494757913824
      ],
      [
        "▁vyose",
        -7.512509604895638
      ],
      [
        "▁Ibi",
        -7.513652472722548
      ],
      [
        "▁menshi",
        -7.513736356110298
      ],
      [
        "▁Hari",
        -7.519329341392856
      ],
      [
        "▁urugendo",
        -7.526531791855792
      ],
      [
        "▁kwi",
        -7.529197904259268
      ],
      [
        "▁T",
        -7.529433595192528
      ],
      [
        "er",
        -7.533885195503677
      ],
      [
        "▁g",
        -7.546039497576734
      ],
      [
        "isha",
        -7.547652392177312
      ],
      [
        "nyene",
        -7.548050968561505
      ],
      [
        "▁ayo",
        -7.551982273493177
      ],
      [
        "gize",
        -7.561474957059357
      ],
      [
        "ti",
        -7.57091514470627
      ],
      [
        "▁Umu",
        -7.573263905727038
      ],
      [
        "umugwi",
        -7.574517188297289
      ],
      [
        "▁nta",
        -7.580281566463212
      ],
      [
        "▁nk'",
        -7.594069166787561
      ],
      [
        "▁kwa",
        -7.597836963592508
      ],
      [
        "▁mpuzamakungu",
        -7.599931798388184
      ],
      [
        "▁y'i",
        -7.6007378951986055
      ],
      [
        "da",
        -7.600932368467893
      ],
      [
        "be",
        -7.603797970464578
      ],
      [
        "▁umuntu",
        -7.612350458357124
      ],
      [
        "▁haba",
        -7.613411281450665
      ],
      [
        "abaye",
        -7.615546139675908
      ],
      [
        "▁z'",
        -7.619255061857616
      ],
      [
        "▁cane.",
        -7.6196787668575015
      ],
      [
        "anya",
        -7.620605236484035
      ],
      [
        "▁H",
        -7.621972791259709
      ],
      [
        "hinga",
        -7.622344294754311
      ],
      [
        "▁ubwo",
        -7.62408310711619
      ],
      [
        "kirere",
        -7.62716115369599
      ],
      [
        "usanga",
        -7.632582769890027
      ],
      [
        "mbere",
        -7.64022733595308
      ],
      [
        "▁iri",
        -7.640379681111498
      ],
      [
        "baye",
        -7.6408734278207096
      ],
      [
        "I",
        -7.641784359572943
      ],
      [
        "▁ka",
        -7.643874893659594
      ],
      [
        "a,",
        -7.64413140835132
      ],
      [
        "gendera",
        -7.644904904604745
      ],
      [
        "w",
        -7.644914742343367
      ],
      [
        "f",
        -7.648945677240619
      ],
      [
        "e.",
        -7.653438775113427
      ],
      [
        "▁yac",
        -7.661639435481421
      ],
      [
        "hugu",
        -7.661831537209165
      ],
      [
        "que",
        -7.662444974551146
      ],
      [
        "▁F",
        -7.666979606162439
      ],
      [
        "▁yaho",
        -7.672472248067223
      ],
      [
        "yitwa",
        -7.674537068656713
      ],
      [
        "mi",
        -7.675476073296105
      ],
      [
        "oro",
        -7.676220986466973
      ],
      [
        "ryo",
        -7.680329134624707
      ],
      [
        "tu",
        -7.6826779119178905
      ],
      [
        "▁mw",
        -7.684063006593792
      ],
      [
        "iro",
        -7.68935037100051
      ],
      [
        "aka",
        -7.692825036360535
      ],
      [
        "▁umw",
        -7.69618250390054
      ],
      [
        "sha",
        -7.696201080003853
      ],
      [
        "▁ukwo",
        -7.7008863531537095
      ],
      [
        "mwe",
        -7.703032807293567
      ],
      [
        "rongo",
        -7.7030339602694085
      ],
      [
        "▁kw'isi",
        -7.704512791975514
      ],
      [
        "▁n'ibi",
        -7.706270064350362
      ],
      [
        "go",
        -7.706974152430023
      ],
      [
        "▁ingendo",
        -7.707017662570937
      ],
      [
        "▁abandi",
        -7.707361932698493
      ],
      [
        "▁mwaka",
        -7.707843638305703
      ],
      [
        "▁kimwe",
        -7.71378776853285
      ],
      [
        "riko",
        -7.714493220991596
      ],
      [
        "vyo",
        -7.714837561863403
      ],
      [
        "a.",
        -7.7169514534282335
      ],
      [
        "v",
        -7.717573813405341
      ],
      [
        "ng",
        -7.719611089482134
      ],
      [
        "she",
        -7.725656074361112
      ],
      [
        "umwe",
        -7.7270494526183136
      ],
      [
        "▁ubwa",
        -7.727297192704517
      ],
      [
        "uro",
        -7.73120620542775
      ],
      [
        "en",
        -7.737491998539506
      ],
      [
        "ashobor",
        -7.747896398193991
      ],
      [
        "▁mug",
        -7.7584421905723016
      ],
      [
        "▁rwo",
        -7.758580238671639
      ],
      [
        "fata",
        -7.75994237910578
      ],
      [
        "▁G",
        -7.760679537364208
      ],
      [
        "▁mw'i",
        -7.763389422495857
      ],
      [
        "pira",
        -7.763910952059466
      ],
      [
        "bu",
        -7.765198054545915
      ],
      [
        "▁rw'",
        -7.767486793618568
      ],
      [
        "▁yar",
        -7.778250295578762
      ],
      [
        "oni",
        -7.782138150408878
      ],
      [
        "bwato",
        -7.785978773401785
      ],
      [
        "va",
        -7.786755444815817
      ],
      [
        "saba",
        -7.794122095574343
      ],
      [
        "gihugu",
        -7.79645643657215
      ],
      [
        "▁3",
        -7.799136276686234
      ],
      [
        "sanzwe",
        -7.801281771492021
      ],
      [
        "▁nyinshi",
        -7.811132241608121
      ],
      [
        "▁ahantu",
        -7.8125471073488075
      ],
      [
        "▁w'igihugu",
        -7.81459825999066
      ],
      [
        "sa",
        -7.816257766601753
      ],
      [
        "umuduga",
        -7.816475845431098
      ],
      [
        "▁amazi",
        -7.8172612448639605
      ],
      [
        "vye",
        -7.8178070474943135
      ],
      [
        "onga",
        -7.8214566862598325
      ],
      [
        "uka",
        -7.825518560499856
      ],
      [
        "to",
        -7.826213438162581
      ],
      [
        "▁gutembera",
        -7.828109705256043
      ],
      [
        "nini",
        -7.828780096935129
      ],
      [
        "ngo",
        -7.830475953085436
      ],
      [
        "▁c'i",
        -7.832010698581984
      ],
      [
        "▁́i",
        -7.83661437041566
      ],
      [
        "igihugu",
        -7.843444642443687
      ],
      [
        "▁leta",
        -7.845933288406017
      ],
      [
        "▁du",
        -7.850922300696449
      ],
      [
        "giye",
        -7.859519791798399
      ],
      [
        "▁R",
        -7.859971339379726
      ],
      [
        "zwe",
        -7.8627244852435965
      ],
      [
        "garuka",
        -7.8662790873674595
      ],
      [
        "▁ah",
        -7.867261871812456
      ],
      [
        "ce",
        -7.867593726701784
      ],
      [
        "▁yara",
        -7.869148321547207
      ],
      [
        "ota",
        -7.869747116307414
      ],
      [
        "▁bar",
        -7.870834528221737
      ],
      [
        "vyi",
        -7.872384658744471
      ],
      [
        "ejwe",
        -7.872736879056006
      ],
      [
        "▁tu",
        -7.873079794486378
      ],
      [
        "biri",
        -7.879421630178448
      ],
      [
        "▁y’",
        -7.880071224487153
      ],
      [
        "ene",
        -7.880598987650085
      ],
      [
        "bikorwa",
        -7.888692727359371
      ],
      [
        "zuma",
        -7.889095820654235
      ],
      [
        "▁Ma",
        -7.889761876824492
      ],
      [
        "kora",
        -7.894557945436768
      ],
      [
        "ki",
        -7.896977131418094
      ],
      [
        "▁ho",
        -7.897646329807499
      ],
      [
        "▁E",
        -7.8991746741249855
      ],
      [
        "▁uw",
        -7.8995265609623955
      ],
      [
        "ch",
        -7.908144830806034
      ],
      [
        "so",
        -7.910954313914427
      ],
      [
        "gara",
        -7.912550971904102
      ],
      [
        "▁w'",
        -7.913258266711831
      ],
      [
        "▁if",
        -7.913285713972034
      ],
      [
        "yi",
        -7.915309185427045
      ],
      [
        "▁tw",
        -7.917195162953485
      ],
      [
        "bijan",
        -7.918201381964408
      ],
      [
        "▁P",
        -7.918726056984203
      ],
      [
        "▁nti",
        -7.922535012958566
      ],
      [
        "urukino",
        -7.922628295226481
      ],
      [
        "do",
        -7.923785513509536
      ],
      [
        "zinga",
        -7.924441497942403
      ],
      [
        "banza",
        -7.929840666036267
      ],
      [
        "kunda",
        -7.9300495927833845
      ],
      [
        "ca",
        -7.930660693431939
      ],
      [
        "uye",
        -7.931246582345951
      ],
      [
        "teri",
        -7.932546020204992
      ],
      [
        "ke",
        -7.934773971353245
      ],
      [
        "▁«",
        -7.9359240664368365
      ],
      [
        "▁indwi",
        -7.936088084135488
      ],
      [
        "tegur",
        -7.937381736650767
      ],
      [
        "▁cumi",
        -7.938111238357089
      ],
      [
        "▁kw’isi",
        -7.938206065379318
      ],
      [
        "▁make",
        -7.938546610383412
      ],
      [
        "shi",
        -7.939408614184298
      ],
      [
        "▁ivy",
        -7.941798237365791
      ],
      [
        "▁ry'i",
        -7.942264599439968
      ],
      [
        "▁ruhande",
        -7.9489652805351625
      ],
      [
        "▁kuja",
        -7.949014678824035
      ],
      [
        "▁bic",
        -7.952406871432013
      ],
      [
        "bera",
        -7.952563150597826
      ],
      [
        "ati",
        -7.952766187081908
      ],
      [
        "▁kera",
        -7.955747179346039
      ],
      [
        "nji",
        -7.958477419744458
      ],
      [
        "▁gisagara",
        -7.964101868589074
      ],
      [
        "▁Arik",
        -7.9642276263897855
      ],
      [
        "▁mugwi",
        -7.966706724270091
      ],
      [
        "▁Z",
        -7.968850539407964
      ],
      [
        "mye",
        -7.970032492435513
      ],
      [
        "uvu",
        -7.972335620708337
      ],
      [
        "tumber",
        -7.974319245692993
      ],
      [
        "ar",
        -7.98077985147275
      ],
      [
        "▁izo",
        -7.9838980380717794
      ],
      [
        "guma",
        -7.984058455046189
      ],
      [
        "tike",
        -7.995731331900572
      ],
      [
        "twara",
        -7.9972519227925085
      ],
      [
        "vu",
        -8.000118259063287
      ],
      [
        "ego",
        -8.000505685762088
      ],
      [
        "▁5",
        -8.001299780631651
      ],
      [
        "iganir",
        -8.00565203776224
      ],
      [
        "wara",
        -8.00705102975909
      ],
      [
        "▁ivya",
        -8.009977700804686
      ],
      [
        "bitaro",
        -8.010604696508565
      ],
      [
        "indwara",
        -8.012767586579805
      ],
      [
        "▁kuny",
        -8.015995927668534
      ],
      [
        "▁kw'i",
        -8.020572258579055
      ],
      [
        "nganya",
        -8.024460768620813
      ],
      [
        "▁iryo",
        -8.024646848020735
      ],
      [
        "▁Ro",
        -8.028362937246865
      ],
      [
        "▁Bu",
        -8.028729606340727
      ],
      [
        "ganga",
        -8.028963520254479
      ],
      [
        "▁kwiga",
        -8.030251706419012
      ],
      [
        "imba",
        -8.030334068052769
      ],
      [
        "ika",
        -8.03423939100402
      ],
      [
        "▁mazi",
        -8.03578979899951
      ],
      [
        "▁bishobo",
        -8.036319617226281
      ],
      [
        "▁O",
        -8.038312717763146
      ],
      [
        "al",
        -8.039897904732298
      ],
      [
        "▁ako",
        -8.040615983063498
      ],
      [
        "anga",
        -8.046268228805907
      ],
      [
        "▁La",
        -8.047199869199881
      ],
      [
        "le",
        -8.04805386539627
      ],
      [
        "▁n’",
        -8.048254973085552
      ],
      [
        "ubwo",
        -8.052846805460968
      ],
      [
        "ririm",
        -8.052924234886058
      ],
      [
        "▁bira",
        -8.053981399005595
      ],
      [
        "▁kumeny",
        -8.059267038912216
      ],
      [
        "uru",
        -8.059707163040466
      ],
      [
        "rika",
        -8.06001935793905
      ],
      [
        "as",
        -8.060019565209487
      ],
      [
        "▁be",
        -8.060932281583552
      ],
      [
        "uma",
        -8.064442956787598
      ],
      [
        "▁Ivy",
        -8.06507791641378
      ],
      [
        "yapani",
        -8.066336446925135
      ],
      [
        "shikira",
        -8.06682041826333
      ],
      [
        "unz",
        -8.06862216716967
      ],
      [
        "ngenzi",
        -8.068671453910605
      ],
      [
        "▁w'aba",
        -8.068800677573103
      ],
      [
        "▁V",
        -8.068990716374682
      ],
      [
        "igwa",
        -8.07093725628475
      ],
      [
        "z",
        -8.075079546074967
      ],
      [
        "gi",
        -8.078381566845767
      ],
      [
        "▁gusumba",
        -8.07891038000134
      ],
      [
        "▁viza",
        -8.079460108572588
      ],
      [
        "bare",
        -8.082394105966946
      ],
      [
        "▁mato",
        -8.083706468486406
      ],
      [
        "▁L",
        -8.083818275476848
      ],
      [
        "▁ciwe",
        -8.083870889332992
      ],
      [
        "jabuka",
        -8.083906038254174
      ],
      [
        "▁karere",
        -8.085785341468169
      ],
      [
        "▁buraruko",
        -8.086616337087563
      ],
      [
        "buga",
        -8.087526734042125
      ],
      [
        "8",
        -8.087767724646984
      ],
      [
        "▁uri",
        -8.087910621413151
      ],
      [
        "fasha",
        -8.088602018700609
      ],
      [
        "▁Ubudagi",
        -8.090286557492137
      ],
      [
        "enge",
        -8.091203904668268
      ],
      [
        "nwa",
        -8.091597694954988
      ],
      [
        "▁y'isi",
        -8.092399150044537
      ],
      [
        "▁aca",
        -8.093728256809838
      ],
      [
        "▁Muri",
        -8.094903688504997
      ],
      [
        "akaranga",
        -8.096353422825226
      ],
      [
        "▁gukora",
        -8.097276257473455
      ],
      [
        "▁matora",
        -8.097286894896337
      ],
      [
        "▁aga",
        -8.097952694602727
      ],
      [
        "two",
        -8.098852576859578
      ],
      [
        "▁Ni",
        -8.10300425553118
      ],
      [
        "▁ga",
        -8.104238407052314
      ],
      [
        "▁2",
        -8.106773213754995
      ],
      [
        "▁uku",
        -8.109157087314832
      ],
      [
        "genda",
        -8.110113262508522
      ],
      [
        "4",
        -8.115715678351823
      ],
      [
        "▁umwe",
        -8.116805243667425
      ],
      [
        "▁uk",
        -8.118076525127186
      ],
      [
        "nde",
        -8.129196338254305
      ],
      [
        "intu",
        -8.129316566192012
      ],
      [
        "▁4",
        -8.130785839951464
      ],
      [
        "iliy",
        -8.134470291301247
      ],
      [
        "▁Uru",
        -8.135409882114097
      ],
      [
        "▁N'",
        -8.135935050350485
      ],
      [
        "twar",
        -8.136798337777622
      ],
      [
        "▁gut",
        -8.138888568461727
      ],
      [
        "wiri",
        -8.140392777641088
      ],
      [
        "irya",
        -8.144461597463414
      ],
      [
        "tandukanye",
        -8.145647974655473
      ],
      [
        "▁n'ama",
        -8.145762101697615
      ],
      [
        "▁ur",
        -8.149062340496819
      ],
      [
        "▁gus",
        -8.154608567962129
      ],
      [
        "▁twa",
        -8.155270559739193
      ],
      [
        "uyu",
        -8.155978389226146
      ],
      [
        "bure",
        -8.156195969453037
      ],
      [
        "M",
        -8.158592758127782
      ],
      [
        "eter",
        -8.159355729222561
      ],
      [
        "vuye",
        -8.16069863320314
      ],
      [
        "▁Kom",
        -8.160805854655887
      ],
      [
        "ukuru",
        -8.16121425571924
      ],
      [
        "gerageza",
        -8.164501023695303
      ],
      [
        "de",
        -8.164839733649638
      ],
      [
        "mo",
        -8.166458353896578
      ],
      [
        "▁y'u",
        -8.174687264626497
      ],
      [
        "G",
        -8.17604868909223
      ],
      [
        "or",
        -8.176353828808972
      ],
      [
        "ntamba",
        -8.184791174776173
      ],
      [
        "▁ubury",
        -8.186410848302804
      ],
      [
        "▁Ra",
        -8.186602132570698
      ],
      [
        "tangura",
        -8.188010368642606
      ],
      [
        "▁yi",
        -8.188772861090428
      ],
      [
        "▁n'umu",
        -8.191132447745241
      ],
      [
        "apur",
        -8.19541536735898
      ],
      [
        "ngendo",
        -8.197732603771698
      ],
      [
        "ge",
        -8.19878371087414
      ],
      [
        "bumwe",
        -8.201854596553119
      ],
      [
        "▁bita",
        -8.202297817700297
      ],
      [
        "nda",
        -8.202386821905076
      ],
      [
        "▁uf",
        -8.204197038774385
      ],
      [
        "D",
        -8.204345061778737
      ],
      [
        "▁Lo",
        -8.20536158070317
      ],
      [
        "enewe",
        -8.206086862848963
      ],
      [
        "wezi",
        -8.206958023360302
      ],
      [
        "▁uba",
        -8.210153164366794
      ],
      [
        "kibanza",
        -8.210236422012962
      ],
      [
        "eje",
        -8.211227058580961
      ],
      [
        "▁Ba",
        -8.21210837150509
      ],
      [
        "▁cari",
        -8.213236942527782
      ],
      [
        "▁Al",
        -8.213687330337054
      ],
      [
        "injira",
        -8.214648771745926
      ],
      [
        "sh",
        -8.220718365084519
      ],
      [
        "▁Re",
        -8.224941590597695
      ],
      [
        "▁kum",
        -8.225742285244635
      ],
      [
        "iwe",
        -8.22738659566192
      ],
      [
        "te",
        -8.227526850153703
      ],
      [
        "▁Sa",
        -8.232168798113465
      ],
      [
        "▁ibiri",
        -8.240158262552054
      ],
      [
        "zoga",
        -8.241823536510642
      ],
      [
        "»",
        -8.242184659429945
      ],
      [
        "▁Tirikiya",
        -8.245447986445793
      ],
      [
        "▁Olempike",
        -8.245447994697095
      ],
      [
        "▁rusangi",
        -8.245449952271784
      ],
      [
        "▁hejuru",
        -8.245457236307288
      ],
      [
        "▁Mukakaro",
        -8.245478149468255
      ],
      [
        "▁John",
        -8.245497618051163
      ],
      [
        "▁Runn",
        -8.24552950574111
      ],
      [
        "▁kanaka",
        -8.245547941661133
      ],
      [
        "▁15",
        -8.245748105040311
      ],
      [
        "retse",
        -8.246855391050866
      ],
      [
        "▁n'ibindi",
        -8.247170368470444
      ],
      [
        "▁bitandukanye",
        -8.24726208957158
      ],
      [
        "▁rero",
        -8.24779081542886
      ],
      [
        "genzi",
        -8.248667796608105
      ],
      [
        "▁ub",
        -8.24969775475773
      ],
      [
        "▁mugoroba",
        -8.250156736711427
      ],
      [
        "▁kuraba",
        -8.250610185002005
      ],
      [
        "▁bw'i",
        -8.251503756455357
      ],
      [
        "▁igice",
        -8.252468474428609
      ],
      [
        "▁n’i",
        -8.253328144030801
      ],
      [
        "▁myinshi",
        -8.253562901015037
      ],
      [
        "▁bumanuko",
        -8.25418006009406
      ],
      [
        "▁kubona",
        -8.25455664248247
      ],
      [
        "▁Le",
        -8.254674755040782
      ],
      [
        "boneka",
        -8.25506556623854
      ],
      [
        "ns",
        -8.255510628733681
      ],
      [
        "▁bimwe",
        -8.257226177080964
      ],
      [
        "▁binini",
        -8.260456114673831
      ],
      [
        "rane",
        -8.262113498665126
      ],
      [
        "▁ubw",
        -8.262559300577479
      ],
      [
        "▁bamwe",
        -8.264343094137732
      ],
      [
        "▁k'",
        -8.265525715249549
      ],
      [
        "▁uwu",
        -8.265832605338154
      ],
      [
        "nd",
        -8.26649118284307
      ],
      [
        "▁inc",
        -8.266735117181915
      ],
      [
        "ipfuz",
        -8.268849947393225
      ],
      [
        "▁kwiyunguruza",
        -8.268971577772422
      ],
      [
        "▁inzo",
        -8.270682250679611
      ],
      [
        "akazi",
        -8.273050524175572
      ],
      [
        "▁buri",
        -8.273154407129793
      ],
      [
        "▁ubwato",
        -8.27397789575382
      ],
      [
        "teye",
        -8.274837872313736
      ],
      [
        "▁gufat",
        -8.279884784829193
      ],
      [
        "mbo",
        -8.283125580740213
      ],
      [
        "▁amakuru",
        -8.283133140988095
      ],
      [
        "▁kika",
        -8.285570731448223
      ],
      [
        "irwa",
        -8.28947072655629
      ],
      [
        "bidukikije",
        -8.290956238999547
      ],
      [
        "▁birashobo",
        -8.292459856435622
      ],
      [
        "▁intamb",
        -8.292655443479871
      ],
      [
        "shasha",
        -8.292723244915926
      ],
      [
        "ol",
        -8.296856053532684
      ],
      [
        "yubak",
        -8.29736666704991
      ],
      [
        "ton",
        -8.298088430040586
      ],
      [
        "guye",
        -8.299568693132748
      ],
      [
        "ab",
        -8.300116367287794
      ],
      [
        "▁Ha",
        -8.300577061488575
      ],
      [
        "▁kam",
        -8.300588176770184
      ],
      [
        "▁biga",
        -8.302110572100919
      ],
      [
        "ndege",
        -8.302192769268313
      ],
      [
        "▁wawe",
        -8.302331515677462
      ],
      [
        "ter",
        -8.303265528867064
      ],
      [
        "▁rukino",
        -8.304911776511673
      ],
      [
        "s.",
        -8.306458844563508
      ],
      [
        "ereye",
        -8.30687427705923
      ],
      [
        "tangaz",
        -8.307940006884376
      ],
      [
        "▁19",
        -8.308093627726286
      ],
      [
        "gore",
        -8.309008781414654
      ],
      [
        "kanye",
        -8.311288325596257
      ],
      [
        "▁20",
        -8.311961534291614
      ],
      [
        "▁z'i",
        -8.31289986338423
      ],
      [
        "▁yerekan",
        -8.312905996377268
      ],
      [
        "gice",
        -8.31345562325962
      ],
      [
        "▁nt",
        -8.315054705205752
      ],
      [
        "▁nya",
        -8.31618617787544
      ],
      [
        "▁ik",
        -8.316635392263375
      ],
      [
        "uguru",
        -8.319690112230406
      ],
      [
        "p",
        -8.320438348712898
      ],
      [
        "▁ab",
        -8.320805014769265
      ],
      [
        "etse",
        -8.322539530131388
      ],
      [
        "cane",
        -8.323991290547932
      ],
      [
        "▁zishobo",
        -8.325858632435613
      ],
      [
        "▁n'uku",
        -8.326230579262402
      ],
      [
        "buri",
        -8.32721973327286
      ],
      [
        "▁buryo",
        -8.335926365156856
      ],
      [
        "gero",
        -8.336546686755947
      ],
      [
        "ora",
        -8.336615154148397
      ],
      [
        "▁tur",
        -8.340722327536268
      ],
      [
        "▁kiza",
        -8.346082202487317
      ],
      [
        "tera",
        -8.346600301574542
      ],
      [
        "ts",
        -8.347032836981178
      ],
      [
        "ry",
        -8.347104130243562
      ],
      [
        "hinduka",
        -8.349308423025777
      ],
      [
        "1",
        -8.349381867959135
      ],
      [
        "▁azo",
        -8.353401109308592
      ],
      [
        "on",
        -8.354598753777596
      ],
      [
        "abantu",
        -8.356353193648076
      ],
      [
        "tegerezwa",
        -8.35660120097759
      ],
      [
        "eme",
        -8.35939911100197
      ],
      [
        "gana",
        -8.360227705521405
      ],
      [
        "onyene",
        -8.364566310595642
      ],
      [
        "▁n’aba",
        -8.369752538785663
      ],
      [
        "▁yatsin",
        -8.36984045763866
      ],
      [
        "▁uzo",
        -8.370539027964906
      ],
      [
        "bunga",
        -8.374127564299771
      ],
      [
        "▁um",
        -8.374984871829215
      ],
      [
        "▁kw'",
        -8.37646068059679
      ],
      [
        "▁Af",
        -8.380504795298771
      ],
      [
        "leta",
        -8.384071555129605
      ],
      [
        "tora",
        -8.386403862701444
      ],
      [
        "lo",
        -8.387801221394454
      ],
      [
        "nzira",
        -8.3883485901538
      ],
      [
        "P",
        -8.393588500724526
      ],
      [
        "▁Ja",
        -8.394480049410394
      ],
      [
        "bi",
        -8.395849921366683
      ],
      [
        "▁we",
        -8.396113475046008
      ],
      [
        "uriro",
        -8.397891702907105
      ],
      [
        "▁ig",
        -8.39958188831146
      ],
      [
        "ere",
        -8.400240272508489
      ],
      [
        "▁́",
        -8.404495187990891
      ],
      [
        "▁musi",
        -8.405847815166107
      ],
      [
        "▁ivy'",
        -8.408623147281316
      ],
      [
        "korwa",
        -8.408937697033481
      ],
      [
        "▁kubi",
        -8.409902961100187
      ],
      [
        "▁bw'",
        -8.411971029746741
      ],
      [
        "umv",
        -8.412283493780327
      ],
      [
        "iya",
        -8.418014002803183
      ],
      [
        "atanguye",
        -8.424984134946673
      ],
      [
        "▁vy'ama",
        -8.426650894270209
      ],
      [
        "migwi",
        -8.43154999147568
      ],
      [
        "▁igisagar",
        -8.434967392528815
      ],
      [
        "ita",
        -8.436373217905839
      ],
      [
        "▁afi",
        -8.43664829391227
      ],
      [
        "▁gutsind",
        -8.441106990611123
      ],
      [
        "7",
        -8.442821602117476
      ],
      [
        "imitsi",
        -8.444097467414784
      ],
      [
        "▁Myandagaro",
        -8.445447824216364
      ],
      [
        "▁Q",
        -8.445447914319567
      ],
      [
        "▁bimwebimwe",
        -8.445448410506414
      ],
      [
        "▁Nyakanga",
        -8.445450261108409
      ],
      [
        "hayanish",
        -8.44559218586133
      ],
      [
        "▁Nouvelle",
        -8.445598717812521
      ],
      [
        "▁gishasha",
        -8.446143758424139
      ],
      [
        "▁amasezerano",
        -8.446281162176373
      ],
      [
        "▁nyamukuru",
        -8.446650464860294
      ],
      [
        "▁Reta",
        -8.44697106648971
      ],
      [
        "▁runini",
        -8.44738019265448
      ],
      [
        "▁amahera",
        -8.447754673287141
      ],
      [
        "2",
        -8.450158019209795
      ],
      [
        "sinzi",
        -8.45051017245568
      ],
      [
        "▁kwo",
        -8.451068668128654
      ],
      [
        "▁kahise",
        -8.452782844930073
      ],
      [
        "▁bwose",
        -8.452843872875658
      ],
      [
        "▁imbibe",
        -8.453863053621891
      ],
      [
        "▁imp",
        -8.453997752911452
      ],
      [
        "▁munsi",
        -8.454205765785392
      ],
      [
        "▁baf",
        -8.456692215148415
      ],
      [
        "buzima",
        -8.457628516728633
      ],
      [
        "mba",
        -8.45922761718677
      ],
      [
        "▁kama",
        -8.46163860825099
      ],
      [
        "cegera",
        -8.461732402649758
      ],
      [
        "▁gatatu",
        -8.462452860783285
      ],
      [
        "▁201",
        -8.465018756713174
      ],
      [
        "▁amategeko",
        -8.466104437060988
      ],
      [
        "▁1",
        -8.467314162922323
      ],
      [
        "▁Urw",
        -8.4708760167123
      ],
      [
        "▁Ki",
        -8.471573370593102
      ],
      [
        "yongeye",
        -8.472209568505363
      ],
      [
        "▁amatora",
        -8.472780729924855
      ],
      [
        "▁bata",
        -8.472963437918812
      ],
      [
        "inini",
        -8.47370193930991
      ],
      [
        "▁c’i",
        -8.474511635397313
      ],
      [
        "bona",
        -8.476308113611795
      ],
      [
        "▁pa",
        -8.476535162455868
      ],
      [
        "▁n'ubu",
        -8.477762988555845
      ],
      [
        "vuga",
        -8.47811918731492
      ],
      [
        "▁n'imige",
        -8.478696636340267
      ],
      [
        "nonots",
        -8.48115182101277
      ],
      [
        "isagara",
        -8.481795305133282
      ],
      [
        "▁imic",
        -8.482593334728762
      ],
      [
        "▁Kub",
        -8.483073616157174
      ],
      [
        "▁muga",
        -8.483559038460726
      ],
      [
        "ux",
        -8.487076063488477
      ],
      [
        "▁10",
        -8.48759910882639
      ],
      [
        "▁w'i",
        -8.488825154904093
      ],
      [
        "shika",
        -8.489356543594585
      ],
      [
        "▁n'I",
        -8.489675914282882
      ],
      [
        "▁ica",
        -8.491074124195073
      ],
      [
        "▁kugenda",
        -8.493540191783293
      ],
      [
        "ku",
        -8.495119612089969
      ],
      [
        "▁Igi",
        -8.498397000689534
      ],
      [
        "kwiye",
        -8.502140823884098
      ],
      [
        "ete",
        -8.502862507887652
      ],
      [
        "▁́aba",
        -8.503771995252546
      ],
      [
        "▁is",
        -8.504259311217035
      ],
      [
        "▁akab",
        -8.507489497793127
      ],
      [
        "▁umugwa",
        -8.510972779208428
      ],
      [
        "enza",
        -8.512529759276308
      ],
      [
        "shigiki",
        -8.514541630354861
      ],
      [
        "▁y'I",
        -8.516746995137874
      ],
      [
        "▁bashobor",
        -8.517972285352489
      ],
      [
        "mara",
        -8.523071772489981
      ],
      [
        "bilom",
        -8.523584313534771
      ],
      [
        "▁8",
        -8.524202574637986
      ],
      [
        "▁Iy",
        -8.529496125069638
      ],
      [
        "yira",
        -8.53053112723514
      ],
      [
        "iyerekan",
        -8.531977811916914
      ],
      [
        "▁Ab",
        -8.534425854788655
      ],
      [
        "▁nko",
        -8.53524119519058
      ],
      [
        "▁gato",
        -8.538018334381023
      ],
      [
        "um",
        -8.53919380968667
      ],
      [
        "man",
        -8.54156319577827
      ],
      [
        "wa.",
        -8.542217830772746
      ],
      [
        "▁kirek",
        -8.543779587014726
      ],
      [
        "▁Ari",
        -8.54807631365171
      ],
      [
        "avuga",
        -8.55229462875273
      ],
      [
        "▁gutang",
        -8.553376055627474
      ],
      [
        "▁bito",
        -8.555349751024703
      ],
      [
        "▁n'in",
        -8.559224386069294
      ],
      [
        "raliya",
        -8.565386951064006
      ],
      [
        "ayandi",
        -8.565537092873605
      ],
      [
        "ugutu",
        -8.566503661955071
      ],
      [
        "gu",
        -8.568227013243984
      ],
      [
        "son",
        -8.569662790878105
      ],
      [
        "▁y'ama",
        -8.571430261372777
      ],
      [
        "it",
        -8.572575269246082
      ],
      [
        "▁vyi",
        -8.574732217045936
      ],
      [
        "uva",
        -8.579025007683889
      ],
      [
        "▁uko",
        -8.586294599214717
      ],
      [
        "▁imwe",
        -8.58687322039495
      ],
      [
        "eza",
        -8.58773963242907
      ],
      [
        "kweg",
        -8.588441348742778
      ],
      [
        "aha",
        -8.58994044634259
      ],
      [
        "mbibe",
        -8.591222523098061
      ],
      [
        "▁ry'",
        -8.593120163059139
      ],
      [
        "▁Li",
        -8.593593029276796
      ],
      [
        "niro",
        -8.594940966614319
      ],
      [
        "shinzwe",
        -8.595586869895854
      ],
      [
        "umuziki",
        -8.597215613410402
      ],
      [
        "▁Ing",
        -8.598397606753336
      ],
      [
        "▁irya",
        -8.59894440359726
      ],
      [
        "▁ham",
        -8.600348085455371
      ],
      [
        "▁Je",
        -8.60051284628829
      ],
      [
        "usho",
        -8.605978067704157
      ],
      [
        "is",
        -8.607218569803312
      ],
      [
        "tagira",
        -8.614212726564947
      ],
      [
        "▁rug",
        -8.614412806888142
      ],
      [
        "▁ry'u",
        -8.617366052819328
      ],
      [
        "60",
        -8.62050657797809
      ],
      [
        "▁Pr",
        -8.620980748970702
      ],
      [
        "▁de",
        -8.62116483876569
      ],
      [
        "▁To",
        -8.62236323127258
      ],
      [
        "▁muk",
        -8.622719127912315
      ],
      [
        "C",
        -8.623147251401514
      ],
      [
        "▁gak",
        -8.62396281990172
      ],
      [
        "hari",
        -8.625884938055018
      ],
      [
        "ringo",
        -8.627978708879184
      ],
      [
        "of",
        -8.628945143720692
      ],
      [
        "umu",
        -8.62953963565159
      ],
      [
        "▁c'umu",
        -8.63111116004335
      ],
      [
        "gariyamoshi",
        -8.63156677024093
      ],
      [
        "amo",
        -8.632556285494902
      ],
      [
        "gire",
        -8.63965085329301
      ],
      [
        "'",
        -8.640012290077763
      ],
      [
        "ose",
        -8.642784971640566
      ],
      [
        "▁iz",
        -8.644995101065161
      ],
      [
        "▁isi",
        -8.645221053485153
      ],
      [
        "▁y'umu",
        -8.646011658521672
      ],
      [
        "tani",
        -8.647119242680917
      ],
      [
        "akoreshejwe",
        -8.648125269962422
      ],
      [
        "vid",
        -8.648502048054825
      ],
      [
        "avuye",
        -8.649844160816034
      ],
      [
        "▁y'ivy",
        -8.654075665377901
      ],
      [
        "▁kugur",
        -8.654204291431494
      ],
      [
        "▁Ru",
        -8.655168053594599
      ],
      [
        "bumenyi",
        -8.658061839030488
      ],
      [
        "▁gutor",
        -8.658384463408243
      ],
      [
        "▁ug",
        -8.661360536959432
      ],
      [
        "▁Iki",
        -8.66288114444359
      ],
      [
        "▁bah",
        -8.664824279998266
      ],
      [
        "bane",
        -8.666677403487789
      ],
      [
        "▁gusubir",
        -8.666795605087213
      ],
      [
        "▁n'iz",
        -8.667594614516297
      ],
      [
        "iyo",
        -8.667945774392766
      ],
      [
        "▁ry’",
        -8.669354033999358
      ],
      [
        "gura",
        -8.669693449498997
      ],
      [
        "indege",
        -8.670249835833838
      ],
      [
        "si.",
        -8.671435054623416
      ],
      [
        "nzo",
        -8.672471789048576
      ],
      [
        "▁imy",
        -8.676681455829554
      ],
      [
        "bahari",
        -8.67687981987061
      ],
      [
        "et",
        -8.67732675399624
      ],
      [
        "isi",
        -8.682242740312645
      ],
      [
        "koresh",
        -8.683481493066045
      ],
      [
        "mazinga",
        -8.683775352968103
      ],
      [
        "▁shirahamwe",
        -8.685031657531926
      ],
      [
        "gera",
        -8.685670804176484
      ],
      [
        "ju",
        -8.686690429124436
      ],
      [
        "misi",
        -8.688404739506248
      ],
      [
        "j",
        -8.689273983136655
      ],
      [
        "▁Mug",
        -8.689298041423251
      ],
      [
        "▁nk’",
        -8.69004538670088
      ],
      [
        "sip",
        -8.69022789724853
      ],
      [
        "▁af",
        -8.69150483356483
      ],
      [
        "▁kinj",
        -8.692560652614771
      ],
      [
        "▁Umuk",
        -8.692579792981528
      ],
      [
        "▁w’",
        -8.693257646763607
      ],
      [
        "▁yinji",
        -8.694064289525665
      ],
      [
        ";",
        -8.695447824249078
      ],
      [
        "▁ONU",
        -8.695447836916804
      ],
      [
        "▁olempike",
        -8.695448063615565
      ],
      [
        "Ubufaransa",
        -8.695448268524759
      ],
      [
        "▁Hayiti",
        -8.695448296644042
      ],
      [
        "▁makungu",
        -8.695449811009341
      ],
      [
        "▁kuzunguruk",
        -8.695451084955025
      ],
      [
        "▁amwamwe",
        -8.695452621989343
      ],
      [
        "▁Pakisitani",
        -8.69546370288733
      ],
      [
        "▁Tours",
        -8.695466037344431
      ],
      [
        "▁(mayi",
        -8.695473026501832
      ],
      [
        "▁ibihumbi",
        -8.69547793044294
      ],
      [
        "▁Iraki",
        -8.695507426637159
      ],
      [
        "▁Buraya",
        -8.695517989911377
      ],
      [
        "▁Amazon",
        -8.695665021530953
      ],
      [
        "▁y'Epfo",
        -8.695729845692938
      ],
      [
        "▁kw'ijana",
        -8.695787830591314
      ],
      [
        "akamaro",
        -8.695806422808154
      ],
      [
        "▁amakori",
        -8.696047529616134
      ],
      [
        "nywe",
        -8.69664056704224
      ],
      [
        "▁kwemezwa",
        -8.6967730328135
      ],
      [
        "▁yashitse",
        -8.696804865338521
      ],
      [
        "▁yuzuye",
        -8.696824938791895
      ],
      [
        "▁mpera",
        -8.69700010901769
      ],
      [
        "tele",
        -8.697104588295
      ],
      [
        "▁hino",
        -8.697279473339966
      ],
      [
        "▁Sch",
        -8.69755936891095
      ],
      [
        "▁bivan",
        -8.698250432554536
      ],
      [
        "▁Nor",
        -8.69870856534505
      ],
      [
        ",000",
        -8.699881508428101
      ],
      [
        "▁nshingamateka",
        -8.699952519534772
      ],
      [
        "yobo",
        -8.70024869869305
      ],
      [
        "▁bitatu",
        -8.70045146406475
      ],
      [
        "▁Sing",
        -8.700654674605339
      ],
      [
        "▁imodoka",
        -8.7009266775491
      ],
      [
        "▁Gutember",
        -8.701173698086883
      ],
      [
        "▁Hong",
        -8.701530207315482
      ],
      [
        "▁Ubumwe",
        -8.70211791519113
      ],
      [
        "sirikare",
        -8.702205017404957
      ],
      [
        "yerekan",
        -8.703572384756054
      ],
      [
        "▁The",
        -8.703695495180066
      ],
      [
        "▁18",
        -8.704165030894922
      ],
      [
        "▁bisanzwe",
        -8.704547919084602
      ],
      [
        "ji",
        -8.70512575744898
      ],
      [
        "▁Nta",
        -8.70516572724045
      ],
      [
        "serukira",
        -8.706422932989414
      ],
      [
        "▁nk'akarorero",
        -8.706591518952786
      ],
      [
        "ivya",
        -8.706641256738706
      ],
      [
        "gisagara",
        -8.706844096337027
      ],
      [
        "nge",
        -8.707808169034209
      ],
      [
        "▁politike",
        -8.707852314279418
      ],
      [
        "▁nabi",
        -8.707915716518649
      ],
      [
        "▁Zélande",
        -8.708001416335708
      ],
      [
        "▁gusu",
        -8.709323198954934
      ],
      [
        "▁umugamb",
        -8.709506007694953
      ],
      [
        "tanguye",
        -8.709799953041733
      ],
      [
        "▁Uwo",
        -8.710459551709581
      ],
      [
        "▁ntango",
        -8.711169902219634
      ],
      [
        "▁ibindi",
        -8.711240002910941
      ],
      [
        "▁muduga",
        -8.711517660297467
      ],
      [
        "nono",
        -8.711560738096773
      ],
      [
        "▁gukoresh",
        -8.711727775029697
      ],
      [
        "▁ibiter",
        -8.712046623400092
      ],
      [
        "ami",
        -8.713231968169714
      ],
      [
        "erera",
        -8.713611827622763
      ],
      [
        "▁guhagar",
        -8.713628086773948
      ],
      [
        "▁icum",
        -8.714124482226211
      ],
      [
        "▁J",
        -8.714816825176685
      ],
      [
        "▁aka",
        -8.715625948195347
      ],
      [
        "kin",
        -8.716464170961617
      ],
      [
        "bura",
        -8.717250102776578
      ],
      [
        "▁Ste",
        -8.717486409917248
      ],
      [
        "tonde",
        -8.719139759063085
      ],
      [
        "▁misozi",
        -8.72500488783444
      ],
      [
        "▁Uwu",
        -8.727495252299247
      ],
      [
        "▁aja",
        -8.727673949190956
      ],
      [
        "▁Umuvu",
        -8.730501156882468
      ],
      [
        "▁kija",
        -8.731523527984342
      ],
      [
        "igi",
        -8.731857263408152
      ],
      [
        "▁kugendera",
        -8.732015231789099
      ],
      [
        "line",
        -8.732135533705897
      ],
      [
        "sigur",
        -8.735795003028057
      ],
      [
        "shira",
        -8.736876635017222
      ],
      [
        "li",
        -8.736973580509574
      ],
      [
        "▁Ubwongereza",
        -8.737345509055242
      ],
      [
        "▁m'",
        -8.738981372045922
      ],
      [
        "urugendo",
        -8.739634742947556
      ],
      [
        "isaha",
        -8.741323938893414
      ],
      [
        "▁guhe",
        -8.741914172888857
      ],
      [
        "▁abak",
        -8.743290236059334
      ],
      [
        "▁arenga",
        -8.74334537231092
      ],
      [
        "eye",
        -8.74395697068907
      ],
      [
        "▁Air",
        -8.745444752979108
      ],
      [
        "▁muto",
        -8.74697778995098
      ],
      [
        "imwe",
        -8.747487704918592
      ],
      [
        "iki",
        -8.748741929150645
      ],
      [
        "koreshejwe",
        -8.74927364366275
      ],
      [
        "▁ndwara",
        -8.749918505215877
      ],
      [
        "▁maso",
        -8.750662850107958
      ],
      [
        "▁rugendo",
        -8.750868792257382
      ],
      [
        "▁nzira",
        -8.751530700378048
      ],
      [
        "barabara",
        -8.751806932759862
      ],
      [
        "tewe",
        -8.75315479231403
      ],
      [
        "▁n'ib",
        -8.753162989349851
      ],
      [
        "▁bwari",
        -8.7531853986366
      ],
      [
        "▁yagiz",
        -8.753768658433886
      ],
      [
        "▁ruj",
        -8.754811480008053
      ],
      [
        "bira",
        -8.756584209859087
      ],
      [
        "▁bwabo",
        -8.756858235884035
      ],
      [
        "kozwe",
        -8.760910785509669
      ],
      [
        "not",
        -8.761499310570493
      ],
      [
        "sabwa",
        -8.761642869743135
      ],
      [
        "▁kub",
        -8.763076428996174
      ],
      [
        "▁Se",
        -8.764240081903717
      ],
      [
        "▁nzu",
        -8.764303828070169
      ],
      [
        "▁min",
        -8.765195176514078
      ],
      [
        "▁bakoresh",
        -8.76533501973097
      ],
      [
        "▁indege",
        -8.765850149364388
      ],
      [
        "▁mw'ih",
        -8.766633920301766
      ],
      [
        "▁sham",
        -8.768329665903128
      ],
      [
        "bikoko",
        -8.769777923337182
      ],
      [
        "ngu",
        -8.771673827589069
      ],
      [
        "sita",
        -8.772549380982401
      ],
      [
        "kiye",
        -8.77255487748836
      ],
      [
        "▁Sho",
        -8.773695676640129
      ],
      [
        "▁zit",
        -8.775502203608475
      ],
      [
        "▁bw’i",
        -8.777298413760185
      ],
      [
        "▁uwa",
        -8.777461284025799
      ],
      [
        "▁ntiya",
        -8.778883147490147
      ],
      [
        "▁c'aba",
        -8.779297074804894
      ],
      [
        "▁Ya",
        -8.7816378892854
      ],
      [
        "'Ubudagi",
        -8.78165244345397
      ],
      [
        "uri",
        -8.78279465310053
      ],
      [
        "▁vy'i",
        -8.782926277831637
      ],
      [
        "twa",
        -8.786402669034024
      ],
      [
        "nkengera",
        -8.78659562087287
      ],
      [
        "ringan",
        -8.78737025112357
      ],
      [
        "gereranij",
        -8.787558837215617
      ],
      [
        "shinga",
        -8.78864616951416
      ],
      [
        "rato",
        -8.789065607966322
      ],
      [
        "▁\"I",
        -8.789884222232935
      ],
      [
        "kere",
        -8.790017916273642
      ],
      [
        "me",
        -8.790221049493324
      ],
      [
        "T",
        -8.79081371083215
      ],
      [
        "▁ar",
        -8.792792658891688
      ],
      [
        "▁myi",
        -8.792915901205385
      ],
      [
        "ll",
        -8.793666677274064
      ],
      [
        "fatiye",
        -8.798264919143955
      ],
      [
        "▁bak",
        -8.798744346128936
      ],
      [
        "▁bantu",
        -8.800450636433732
      ],
      [
        "▁St",
        -8.80096251941558
      ],
      [
        "▁vyerekan",
        -8.801539514209729
      ],
      [
        "myi",
        -8.804319158223283
      ],
      [
        "tsindo",
        -8.80728379302531
      ],
      [
        "rasi",
        -8.807429658563708
      ],
      [
        "mp",
        -8.80816153422399
      ],
      [
        "pi",
        -8.810895654894084
      ],
      [
        "▁Ek",
        -8.811519085557732
      ],
      [
        "A",
        -8.812667125296047
      ],
      [
        "▁muma",
        -8.813178798947217
      ],
      [
        "ur",
        -8.813595225843612
      ],
      [
        "▁ic",
        -8.813613039043283
      ],
      [
        "?",
        -8.815129296253348
      ],
      [
        "himba",
        -8.817012410851266
      ],
      [
        "rwanish",
        -8.817453419543696
      ],
      [
        "iganwa",
        -8.817553679715626
      ],
      [
        "nzwe",
        -8.817628503517023
      ],
      [
        "witwa",
        -8.818401657260734
      ],
      [
        "▁guca",
        -8.818402449475592
      ],
      [
        "uruzi",
        -8.819856816802623
      ],
      [
        "ph",
        -8.8206440116926
      ],
      [
        "▁guh",
        -8.82381273557311
      ],
      [
        "▁ntiy",
        -8.824196619900718
      ],
      [
        "▁amez",
        -8.82970621469925
      ],
      [
        "ci",
        -8.829860323663736
      ],
      [
        "menyesha",
        -8.83133645259657
      ],
      [
        "soho",
        -8.831638715839482
      ],
      [
        "▁riri",
        -8.835331688834552
      ],
      [
        "gwa",
        -8.836583983929723
      ],
      [
        "anco",
        -8.837320229990961
      ],
      [
        "▁gif",
        -8.838393606620503
      ],
      [
        "rengana",
        -8.839005881222143
      ],
      [
        "menyerewe",
        -8.840541561510392
      ],
      [
        "-19",
        -8.842370263399955
      ],
      [
        "sanga",
        -8.844207641370879
      ],
      [
        "nkaratasi",
        -8.844440752111005
      ],
      [
        "▁bik",
        -8.847366181057094
      ],
      [
        "kiri",
        -8.851288331005934
      ],
      [
        "tiro",
        -8.852587816802913
      ],
      [
        "ongereza",
        -8.85262829088668
      ],
      [
        "▁gushing",
        -8.85478292430476
      ],
      [
        "riza",
        -8.854906925485235
      ],
      [
        "▁ici",
        -8.85737468595386
      ],
      [
        "▁impu",
        -8.858173114904188
      ],
      [
        "winjir",
        -8.858250554932667
      ],
      [
        "bikoresh",
        -8.8601117740611
      ],
      [
        "uhe",
        -8.860445605885298
      ],
      [
        "▁Go",
        -8.86120070767719
      ],
      [
        "amwo",
        -8.861645342035462
      ],
      [
        "angana",
        -8.862753341087652
      ],
      [
        "pine",
        -8.865904350668531
      ],
      [
        "▁y'ah",
        -8.86622517002986
      ],
      [
        "▁How",
        -8.866742955587995
      ],
      [
        "▁atsind",
        -8.866811835204627
      ],
      [
        "isunga",
        -8.866823170490846
      ],
      [
        "▁mub",
        -8.867464078828219
      ],
      [
        "makuru",
        -8.868299541445776
      ],
      [
        "x",
        -8.868831913129453
      ],
      [
        "▁yawe",
        -8.869908400902967
      ],
      [
        "▁umuk",
        -8.870419311509034
      ],
      [
        "▁Cu",
        -8.872961184659706
      ],
      [
        "▁z'u",
        -8.874027434782093
      ],
      [
        "▁vyara",
        -8.875160899951174
      ],
      [
        "B",
        -8.87720330736384
      ],
      [
        "ola",
        -8.877504005197132
      ],
      [
        "niya",
        -8.877744740493798
      ],
      [
        "tembera",
        -8.879060254989732
      ],
      [
        "▁ugu",
        -8.88515381750382
      ],
      [
        "rangiye",
        -8.885318579814195
      ],
      [
        "ugwa",
        -8.885945755020469
      ],
      [
        "▁Sh",
        -8.891182653292383
      ],
      [
        "▁Nim",
        -8.892117282407785
      ],
      [
        "bakunda",
        -8.894082541319861
      ],
      [
        "▁ara",
        -8.894745807989919
      ],
      [
        "irako",
        -8.89546148077696
      ],
      [
        "am",
        -8.897712082878266
      ],
      [
        "ashigiki",
        -8.898485753082069
      ],
      [
        "ima",
        -8.8984945288555
      ],
      [
        "shingamateka",
        -8.902228009143972
      ],
      [
        "yu",
        -8.902394914973826
      ],
      [
        "utse",
        -8.906134004126745
      ],
      [
        "▁ingen",
        -8.906338189467547
      ],
      [
        "▁ij",
        -8.908777203490915
      ],
      [
        "▁16",
        -8.909082809826376
      ],
      [
        "▁hak",
        -8.90996230752381
      ],
      [
        "▁ak",
        -8.910339249535609
      ],
      [
        "bur",
        -8.91048760051602
      ],
      [
        "igitsina",
        -8.910836391654245
      ],
      [
        "th",
        -8.91129635884907
      ],
      [
        "▁yeme",
        -8.912248642353942
      ],
      [
        "▁ng",
        -8.912324901659828
      ],
      [
        "ru",
        -8.913112384968475
      ],
      [
        "la",
        -8.913254777174474
      ],
      [
        "abana",
        -8.91430073166675
      ],
      [
        "▁kiz",
        -8.914757042680025
      ],
      [
        "rugendo",
        -8.914939913481163
      ],
      [
        "nta",
        -8.915314349091782
      ],
      [
        "bacu",
        -8.917052969599055
      ],
      [
        "hantu",
        -8.918166017355322
      ],
      [
        "swe",
        -8.921158364019648
      ],
      [
        "yifat",
        -8.921602606411268
      ],
      [
        "▁babo",
        -8.925991978773038
      ],
      [
        "wirind",
        -8.92941556749729
      ],
      [
        "es",
        -8.932780990907574
      ],
      [
        "app",
        -8.934132778830968
      ],
      [
        "twe",
        -8.934720809286661
      ],
      [
        "500",
        -8.935923535902512
      ],
      [
        "wambere",
        -8.935927083568941
      ],
      [
        "▁Vy",
        -8.936375959571182
      ],
      [
        "▁nk'u",
        -8.93723071144805
      ],
      [
        "mugwi",
        -8.937250685618553
      ],
      [
        "▁y'aba",
        -8.938372015692584
      ],
      [
        "vy",
        -8.939657148022576
      ],
      [
        "iburi",
        -8.940367398687341
      ],
      [
        "▁baga",
        -8.944614182351504
      ],
      [
        "▁n'uru",
        -8.945088910727643
      ],
      [
        "vug",
        -8.947249105758834
      ],
      [
        "ina",
        -8.952712474291722
      ],
      [
        "subir",
        -8.953306024673441
      ],
      [
        "ava",
        -8.954725017745917
      ],
      [
        "▁Vi",
        -8.955593969719343
      ],
      [
        "N",
        -8.955801060954135
      ],
      [
        "inshi",
        -8.956105724611447
      ],
      [
        "▁ikiyag",
        -8.956163250054823
      ],
      [
        "▁Da",
        -8.956240218388071
      ],
      [
        "riye",
        -8.958928463384378
      ],
      [
        "O",
        -8.959037364751964
      ],
      [
        "▁at",
        -8.959277656497248
      ],
      [
        "▁bac",
        -8.959390399964308
      ],
      [
        "▁baka",
        -8.962405175200661
      ],
      [
        "▁batwar",
        -8.963352921125129
      ],
      [
        "kwa",
        -8.963463600721363
      ],
      [
        "iyumvir",
        -8.964350067990296
      ],
      [
        "6",
        -8.96511366479892
      ],
      [
        "guke",
        -8.965301082387626
      ],
      [
        "ukira",
        -8.971752167997606
      ],
      [
        "nzi",
        -8.972583136883122
      ],
      [
        "V",
        -8.973234159367205
      ],
      [
        "E",
        -8.973434542609374
      ],
      [
        "▁rura",
        -8.975042526909853
      ],
      [
        "▁kuz",
        -8.977099132312576
      ],
      [
        "▁Gu",
        -8.977384804211097
      ],
      [
        "▁c’",
        -8.979789517127633
      ],
      [
        "buke",
        -8.98016893269296
      ],
      [
        "▁bura",
        -8.980449976945055
      ],
      [
        "hama",
        -8.981834141345505
      ],
      [
        "kwiyunguruza",
        -8.98188164946811
      ],
      [
        "▁amas",
        -8.982574698372684
      ],
      [
        "▁Ca",
        -8.985562449014507
      ],
      [
        "st",
        -8.985948361241928
      ],
      [
        "shize",
        -8.987183430742107
      ],
      [
        "▁mike",
        -8.987704347464003
      ],
      [
        "▁aha",
        -8.991116420672531
      ],
      [
        "▁San",
        -8.993998672119739
      ],
      [
        "▁ntamb",
        -8.994172414310299
      ],
      [
        "bwo",
        -8.994494397202828
      ],
      [
        "ig",
        -8.994864086926434
      ],
      [
        "'Abanyamerika",
        -8.995423596848175
      ],
      [
        "izi",
        -8.9961272722105
      ],
      [
        "▁Ta",
        -8.997278830125195
      ],
      [
        "21",
        -8.997354148076482
      ],
      [
        "▁Igih",
        -8.99746063204979
      ],
      [
        "▁Ubu",
        -8.998263418005271
      ],
      [
        "▁imvu",
        -8.998277752493632
      ],
      [
        "rwandiko",
        -8.998873882605636
      ],
      [
        "▁Co",
        -8.999317158085159
      ],
      [
        "▁Can",
        -8.999971857614607
      ],
      [
        "▁kuzi",
        -9.00180029997725
      ],
      [
        "▁ububa",
        -9.002116748690968
      ],
      [
        "▁igik",
        -9.002932911369722
      ],
      [
        "tandukany",
        -9.006180154205625
      ],
      [
        "▁urw",
        -9.006204650657784
      ],
      [
        "64",
        -9.006675592390202
      ],
      [
        "▁Har",
        -9.008112755971293
      ],
      [
        "▁umwa",
        -9.008157270564524
      ],
      [
        "goye",
        -9.008544122375046
      ],
      [
        "▁buke",
        -9.010883207395839
      ],
      [
        "▁n'ivy",
        -9.011185142854394
      ],
      [
        "ihiganwa",
        -9.011669904751862
      ],
      [
        "hindu",
        -9.01223394686779
      ],
      [
        "▁ahabon",
        -9.012372941824957
      ],
      [
        "▁wari",
        -9.01536018100812
      ],
      [
        "▁mun",
        -9.016826856419897
      ],
      [
        "▁rukin",
        -9.017890276216301
      ],
      [
        "ico",
        -9.018188374066046
      ],
      [
        "jamb",
        -9.0200900095152
      ],
      [
        "rukino",
        -9.021304251317646
      ],
      [
        "▁ibic",
        -9.022702530871447
      ],
      [
        "rezile",
        -9.028027855891388
      ],
      [
        "”",
        -9.02878115758241
      ],
      [
        "▁Vancouver",
        -9.028781157618456
      ],
      [
        "▁Disney",
        -9.028781158107076
      ],
      [
        "▁Berlin",
        -9.028781164443327
      ],
      [
        "▁Tayiwani",
        -9.028781171348104
      ],
      [
        "▁Munyonyo",
        -9.028781729324967
      ],
      [
        "▁Afuganis",
        -9.028782442668678
      ],
      [
        "butegetsi",
        -9.02878270379007
      ],
      [
        "herekeje",
        -9.028784891814102
      ],
      [
        "▁2009",
        -9.028790772829193
      ],
      [
        "irazuba",
        -9.028791407893829
      ],
      [
        "▁Koreya",
        -9.028798437367145
      ],
      [
        "▁amakenga",
        -9.028811462160807
      ],
      [
        "▁Aziya",
        -9.02883094173628
      ],
      [
        "bhajan",
        -9.028832244367742
      ],
      [
        "▁Del",
        -9.028836224466882
      ],
      [
        "▁rushana",
        -9.028851518778886
      ],
      [
        "epfo",
        -9.028863456517332
      ],
      [
        "▁White",
        -9.028877280597037
      ],
      [
        "▁mw'ijoro",
        -9.028929503810387
      ],
      [
        "▁gitondo",
        -9.028949347424645
      ],
      [
        "▁Kanada",
        -9.02903990936837
      ],
      [
        "▁Prov",
        -9.029053803496742
      ],
      [
        "karata",
        -9.0291631145913
      ],
      [
        "▁ry'ukwikukira",
        -9.029187419330167
      ],
      [
        "▁2017",
        -9.029220527833584
      ],
      [
        "▁Ubuyapani",
        -9.029261428459881
      ],
      [
        "▁tw'u",
        -9.02929376240816
      ],
      [
        "▁imiduga",
        -9.029314900741223
      ],
      [
        "▁mpuza",
        -9.029315224304797
      ],
      [
        "▁vuba",
        -9.02934208137764
      ],
      [
        "▁Ruguru",
        -9.029519291472456
      ],
      [
        "▁isano",
        -9.02961196281648
      ],
      [
        "▁aririmb",
        -9.029622795271873
      ],
      [
        "burengero",
        -9.029647947206369
      ],
      [
        "pfira",
        -9.029752740454597
      ],
      [
        "▁(N",
        -9.029839338332968
      ],
      [
        "▁cabon",
        -9.029857111413142
      ],
      [
        "▁kuryama",
        -9.029859751575435
      ],
      [
        "▁amahoro",
        -9.030111090782587
      ],
      [
        "39",
        -9.030172689558245
      ],
      [
        "▁akarere",
        -9.030241740060761
      ],
      [
        "▁ivy'ingendo",
        -9.030334241143931
      ],
      [
        "▁uburiro",
        -9.030517334834414
      ],
      [
        "▁40",
        -9.030613988657423
      ],
      [
        "▁n'amaguru",
        -9.030730129730683
      ],
      [
        "▁ahandi",
        -9.030825836081423
      ],
      [
        "▁kuruta",
        -9.031175939794338
      ],
      [
        "guruka",
        -9.031199645024133
      ],
      [
        "abashoferi",
        -9.03122046231551
      ],
      [
        "wigere",
        -9.031256536161605
      ],
      [
        "▁Sol",
        -9.031285504026254
      ],
      [
        "▁ibiciro",
        -9.031370897213684
      ],
      [
        "▁vy'u",
        -9.031530988501634
      ],
      [
        "▁rurangira",
        -9.03172367918219
      ],
      [
        "▁yashikirij",
        -9.031814094788084
      ],
      [
        "▁c'I",
        -9.031974772330887
      ],
      [
        "▁yafash",
        -9.032005648550143
      ],
      [
        "▁vy'imi",
        -9.032058454982982
      ],
      [
        "▁Wi",
        -9.03213199978471
      ],
      [
        "egeranyo",
        -9.032324627728253
      ],
      [
        "▁k'u",
        -9.03236031056973
      ],
      [
        "▁Sup",
        -9.032731045411824
      ],
      [
        "▁ntiha",
        -9.032829971052497
      ],
      [
        "▁Ed",
        -9.03320390488968
      ],
      [
        "lorid",
        -9.033365678041891
      ],
      [
        "heze",
        -9.033401920527062
      ],
      [
        "▁guso",
        -9.033551876938947
      ],
      [
        "▁bit",
        -9.033861574329372
      ],
      [
        "▁w'im",
        -9.03420973469624
      ],
      [
        "30",
        -9.034675914124662
      ],
      [
        "▁kwiruka",
        -9.035264402888265
      ],
      [
        "ibimenye",
        -9.035303546280806
      ],
      [
        "▁n'amategeko",
        -9.035312791965218
      ],
      [
        "▁bikomeye",
        -9.03538043919386
      ],
      [
        "▁hose",
        -9.035390735188463
      ],
      [
        "▁yabo",
        -9.03576396183585
      ],
      [
        "▁amato",
        -9.035838239781842
      ],
      [
        "▁Ubwo",
        -9.035850482197105
      ],
      [
        "▁po",
        -9.03643759923417
      ],
      [
        "▁bushira",
        -9.036546141555107
      ],
      [
        "vyita",
        -9.036662300507357
      ],
      [
        "▁kw’i",
        -9.03679768126396
      ],
      [
        "▁babiri",
        -9.03686592480659
      ],
      [
        "▁gutuma",
        -9.036977120661255
      ],
      [
        "▁gutsindwa",
        -9.037117918177824
      ],
      [
        "▁z’",
        -9.037387782936158
      ],
      [
        "▁imfungurwa",
        -9.0377000354544
      ],
      [
        "kenerwa",
        -9.038998787010005
      ],
      [
        "▁kir",
        -9.039047952177697
      ],
      [
        "▁ifatir",
        -9.039577420928945
      ],
      [
        "▁y'abantu",
        -9.039648936156759
      ],
      [
        "▁Er",
        -9.039736025911166
      ],
      [
        "▁n’ibi",
        -9.040088889822178
      ],
      [
        "▁Pa",
        -9.040201727930889
      ],
      [
        "▁neje",
        -9.041899747723203
      ],
      [
        "▁ntiz",
        -9.041967746191432
      ],
      [
        "▁kuronka",
        -9.042006958433703
      ],
      [
        "my",
        -9.042249193488619
      ],
      [
        "▁ira",
        -9.042281947282166
      ],
      [
        "▁mayi",
        -9.042577669477097
      ],
      [
        "▁17",
        -9.042667264774737
      ],
      [
        "▁ntibashobo",
        -9.042879585267247
      ],
      [
        "▁n'imi",
        -9.042990023965949
      ],
      [
        "Ubuseruk",
        -9.044312449263039
      ],
      [
        "▁Afirika",
        -9.044535413816437
      ],
      [
        "▁bibarafu",
        -9.044619728999201
      ],
      [
        "▁bakingir",
        -9.044625466466933
      ],
      [
        "▁parike",
        -9.046192222374358
      ],
      [
        "1.",
        -9.046569388577659
      ],
      [
        "pfu",
        -9.046604328553258
      ],
      [
        "▁atari",
        -9.046838505342254
      ],
      [
        "hamara",
        -9.047253246410724
      ],
      [
        "ld",
        -9.047846489619143
      ],
      [
        "▁kumara",
        -9.04797205280119
      ],
      [
        "▁nivyo",
        -9.04825342130033
      ],
      [
        "▁yinjira",
        -9.048609711141337
      ],
      [
        "▁ruzi",
        -9.048810932306829
      ],
      [
        "▁bab",
        -9.048970557293625
      ],
      [
        "koreshwa",
        -9.04937765891855
      ],
      [
        "▁hato",
        -9.049415452891388
      ],
      [
        "▁f",
        -9.050543740083267
      ],
      [
        "pu",
        -9.052108721116923
      ],
      [
        "▁kwurir",
        -9.052222247141941
      ],
      [
        "▁cambere",
        -9.053428813847194
      ],
      [
        "aboneka",
        -9.054306091243948
      ],
      [
        "▁Pla",
        -9.05562129678835
      ],
      [
        "budanda",
        -9.055770559909927
      ],
      [
        "▁9",
        -9.056580605622155
      ],
      [
        "zimbutse",
        -9.056677502862142
      ],
      [
        "▁atandukanye",
        -9.056795109318731
      ],
      [
        "umukenguzamateka",
        -9.057007109815611
      ],
      [
        "▁bisigu",
        -9.057050173757085
      ],
      [
        "45",
        -9.057111915075149
      ],
      [
        "angiye",
        -9.057508847865037
      ],
      [
        "i.",
        -9.05786036262926
      ],
      [
        "ande",
        -9.058273266030456
      ],
      [
        "▁ciza",
        -9.060530861328374
      ],
      [
        "sab",
        -9.060706986025647
      ],
      [
        "fal",
        -9.0610744220396
      ],
      [
        "▁yambere",
        -9.06160528781388
      ],
      [
        "▁kugirwa",
        -9.063484931998296
      ],
      [
        "▁zija",
        -9.065107451437648
      ],
      [
        "▁mboneshakure",
        -9.065347855063447
      ],
      [
        "▁nyamu",
        -9.065527053745013
      ],
      [
        "0",
        -9.065914843348674
      ],
      [
        "yanyu",
        -9.066213497009928
      ],
      [
        "▁ugiye",
        -9.066355154665365
      ],
      [
        "▁bag",
        -9.066774275843652
      ],
      [
        "▁y'ibi",
        -9.06729658247306
      ],
      [
        "'ingenzi",
        -9.067790614514802
      ],
      [
        "▁umwaka",
        -9.068524664077229
      ],
      [
        "ronka",
        -9.069034985235476
      ],
      [
        "▁murongo",
        -9.069054970337254
      ],
      [
        "ubutungane",
        -9.072564694819773
      ],
      [
        "▁umusi",
        -9.07521301092633
      ],
      [
        "atera",
        -9.075447467122844
      ],
      [
        "▁burengero",
        -9.076027046608203
      ],
      [
        "▁gute",
        -9.076494767193603
      ],
      [
        "hit",
        -9.076656575844309
      ],
      [
        "▁Kong",
        -9.076851907319078
      ],
      [
        "ano",
        -9.077288317494698
      ],
      [
        "▁inzu",
        -9.079568583888777
      ],
      [
        "ciyumvir",
        -9.079791578906276
      ],
      [
        "mete",
        -9.080181691802705
      ],
      [
        "ra.",
        -9.080416193818586
      ],
      [
        "▁kwereka",
        -9.080952286692666
      ],
      [
        "▁gukingir",
        -9.08159164464665
      ],
      [
        "tatu",
        -9.081925314357806
      ],
      [
        "nsi",
        -9.082473992712295
      ],
      [
        "razimvye",
        -9.082909443565116
      ],
      [
        "avuzwe",
        -9.08444542535044
      ],
      [
        "▁kuda",
        -9.085513994002483
      ],
      [
        "gurira",
        -9.086817910005403
      ],
      [
        "ran",
        -9.086867021033193
      ],
      [
        "▁iga",
        -9.087849226846625
      ],
      [
        "▁Si",
        -9.088425636031499
      ],
      [
        "▁kiba",
        -9.088565768532767
      ],
      [
        "▁vyatu",
        -9.0886561267099
      ],
      [
        "▁wose",
        -9.088931916489653
      ],
      [
        "nza",
        -9.089847325425644
      ],
      [
        "▁nk'i",
        -9.091543964955433
      ],
      [
        "▁Sant",
        -9.091544210434042
      ],
      [
        "▁icari",
        -9.093031911246957
      ],
      [
        "▁Ka",
        -9.093157493497015
      ],
      [
        "▁Ingen",
        -9.093384578639224
      ],
      [
        "tum",
        -9.09460375422967
      ],
      [
        "▁b'",
        -9.095416535783423
      ],
      [
        "▁mategeko",
        -9.095781191912984
      ],
      [
        "▁bikoko",
        -9.096592499273827
      ],
      [
        "▁6",
        -9.097520200064592
      ],
      [
        "njira",
        -9.097862703501146
      ],
      [
        "▁nshasha",
        -9.099312892869085
      ],
      [
        "▁bumenyi",
        -9.100961330764271
      ],
      [
        "▁amajamb",
        -9.101170834045895
      ],
      [
        "▁mugih",
        -9.101952723660693
      ],
      [
        "▁Im",
        -9.102099799225778
      ],
      [
        "komeye",
        -9.103511453695434
      ],
      [
        "nyi",
        -9.105158787903857
      ],
      [
        "▁nk",
        -9.105929664959811
      ],
      [
        "0.000",
        -9.106753455452125
      ],
      [
        "▁mete",
        -9.108925436834221
      ],
      [
        "▁3.",
        -9.110945258973496
      ],
      [
        "4.",
        -9.112288220038616
      ],
      [
        "▁ura",
        -9.112745050400102
      ],
      [
        "ck",
        -9.113500463172219
      ],
      [
        "mahanga",
        -9.11439912310658
      ],
      [
        "▁batwara",
        -9.115009427142313
      ],
      [
        "anje",
        -9.115786997996812
      ],
      [
        "▁am",
        -9.117111319820754
      ],
      [
        "▁197",
        -9.118318496153211
      ],
      [
        "▁bizo",
        -9.118669167955996
      ],
      [
        "▁Bara",
        -9.119533547750866
      ],
      [
        "untu",
        -9.119695539235636
      ],
      [
        "birwa",
        -9.119857623484151
      ],
      [
        "ings",
        -9.119875110286259
      ],
      [
        "▁Za",
        -9.120266963848964
      ],
      [
        "▁rih",
        -9.120349444214131
      ],
      [
        "▁Iz",
        -9.122613890717545
      ],
      [
        "shoboye",
        -9.122703853077713
      ],
      [
        "rusha",
        -9.123018700401966
      ],
      [
        "insi",
        -9.124065902998275
      ],
      [
        "▁Su",
        -9.12640787351702
      ],
      [
        "buryo",
        -9.126855918138608
      ],
      [
        "ahagaze",
        -9.127354029169346
      ],
      [
        "▁vy’u",
        -9.127720336553917
      ],
      [
        "▁it",
        -9.127778872015849
      ],
      [
        "kuri",
        -9.12941748004509
      ],
      [
        "ban",
        -9.129475335943376
      ],
      [
        "ic",
        -9.131399255164762
      ],
      [
        "▁Ibic",
        -9.132775413393427
      ],
      [
        "ubushakashatsi",
        -9.133937624102579
      ],
      [
        "ciro",
        -9.134154416665965
      ],
      [
        "akunda",
        -9.13600861426625
      ],
      [
        "▁Car",
        -9.136510192437678
      ],
      [
        "Ubwongereza",
        -9.137876221961736
      ],
      [
        "▁bica",
        -9.139420806139942
      ],
      [
        "▁gatoy",
        -9.140970298708174
      ],
      [
        "▁He",
        -9.142138898483154
      ],
      [
        "ang",
        -9.143048275984198
      ],
      [
        "biyaga",
        -9.143136633399942
      ],
      [
        "▁1.",
        -9.143570421249914
      ],
      [
        "▁Tra",
        -9.144667237929749
      ],
      [
        "mbi",
        -9.144895705664446
      ],
      [
        "ejo",
        -9.146089555124775
      ],
      [
        "ine",
        -9.14626527990198
      ],
      [
        "giz",
        -9.146387610692363
      ],
      [
        "ir",
        -9.152127625827243
      ],
      [
        "▁ry'ibi",
        -9.15343345905002
      ],
      [
        "ukwiye",
        -9.155195105214386
      ],
      [
        "buka",
        -9.155335225026791
      ],
      [
        "▁kwitwa",
        -9.155818147512857
      ],
      [
        "▁Ol",
        -9.161531983128297
      ],
      [
        "▁izin",
        -9.162235845179264
      ],
      [
        "ons",
        -9.163486408317164
      ],
      [
        "▁ukoresh",
        -9.164826823776533
      ],
      [
        "misozi",
        -9.1649308919568
      ],
      [
        "intara",
        -9.165897059463985
      ],
      [
        "majamb",
        -9.166491733063836
      ],
      [
        "▁́ing",
        -9.166889733047606
      ],
      [
        "som",
        -9.167380708450612
      ],
      [
        "▁Ur",
        -9.168608568444839
      ],
      [
        "ashikirij",
        -9.16922888844254
      ],
      [
        "▁basan",
        -9.170073414376544
      ],
      [
        "▁bam",
        -9.170599325243716
      ],
      [
        "bavuze",
        -9.173297820814325
      ],
      [
        "atsinda",
        -9.173301496186777
      ],
      [
        "w'ibarabara",
        -9.17384841173882
      ],
      [
        "▁y’u",
        -9.173949063382812
      ],
      [
        "▁uruhu",
        -9.1741608266248
      ],
      [
        "zura",
        -9.176723654230909
      ],
      [
        "ler",
        -9.178738382756464
      ],
      [
        "kana",
        -9.17946634333213
      ],
      [
        "▁w'umu",
        -9.180898334819549
      ],
      [
        "'abantu",
        -9.181368438511656
      ],
      [
        "▁Yak",
        -9.181482458794926
      ],
      [
        "▁kumenye",
        -9.18213866399136
      ],
      [
        "▁basa",
        -9.183681628761931
      ],
      [
        "ndwara",
        -9.187798858625667
      ],
      [
        "▁mash",
        -9.189159203712808
      ],
      [
        "▁kugen",
        -9.189737116525064
      ],
      [
        "▁ngwa",
        -9.190266214232647
      ],
      [
        "ashing",
        -9.192572588164591
      ],
      [
        "▁Abak",
        -9.19330883575224
      ],
      [
        "tswe",
        -9.194413257092679
      ],
      [
        "giri",
        -9.194765881898253
      ],
      [
        "agore",
        -9.197850409640235
      ],
      [
        "Abanyamerika",
        -9.197883779749217
      ],
      [
        "kura",
        -9.199006307250622
      ],
      [
        "amakuru",
        -9.201608434519962
      ],
      [
        "werekan",
        -9.20189828594149
      ],
      [
        "▁kwinji",
        -9.202613361042593
      ],
      [
        "▁k'i",
        -9.204328429409456
      ],
      [
        "faran",
        -9.205439025303553
      ],
      [
        "tro",
        -9.207566847372604
      ],
      [
        "gaban",
        -9.207995005392739
      ],
      [
        "▁ibih",
        -9.210185667915178
      ],
      [
        "▁bireng",
        -9.212317736823785
      ],
      [
        "▁Yar",
        -9.212593959993331
      ],
      [
        "▁zim",
        -9.213327961736388
      ],
      [
        "ong",
        -9.214107348229678
      ],
      [
        "▁y'in",
        -9.217138945903276
      ],
      [
        "tara",
        -9.21854101361675
      ],
      [
        "▁band",
        -9.219503744436382
      ],
      [
        "▁kizo",
        -9.220513762999902
      ],
      [
        "karyo",
        -9.220635533820467
      ],
      [
        "amazinga",
        -9.220796641166956
      ],
      [
        "ushobo",
        -9.22350250535725
      ],
      [
        "▁n'amah",
        -9.22357449711711
      ],
      [
        "▁mw’i",
        -9.224678875455805
      ],
      [
        "bwa",
        -9.227234892080842
      ],
      [
        "▁ci",
        -9.228797662819039
      ],
      [
        "▁bakiny",
        -9.231474676936495
      ],
      [
        "yaga",
        -9.232794504503275
      ],
      [
        "▁kubu",
        -9.23384699191432
      ],
      [
        "hora",
        -9.234805561429486
      ],
      [
        "▁gukor",
        -9.236648926840887
      ],
      [
        "'Ubuhind",
        -9.236980358439919
      ],
      [
        "atum",
        -9.238459101048262
      ],
      [
        "iver",
        -9.23857233809165
      ],
      [
        "▁hara",
        -9.239742956321614
      ],
      [
        "ani",
        -9.241729404753231
      ],
      [
        "nt",
        -9.241748844652406
      ],
      [
        "wongereza",
        -9.242022978261875
      ],
      [
        "agira",
        -9.242186019071227
      ],
      [
        "▁int",
        -9.244487036557915
      ],
      [
        "ishasha",
        -9.244690124933992
      ],
      [
        "abaje",
        -9.244994684214518
      ],
      [
        "pfa",
        -9.244997146960829
      ],
      [
        "mir",
        -9.245693893056604
      ],
      [
        "ers",
        -9.245974718471768
      ],
      [
        "▁kita",
        -9.250811073291805
      ],
      [
        "▁har",
        -9.252424705884614
      ],
      [
        "us",
        -9.253673931875817
      ],
      [
        "uwundi",
        -9.254201936457576
      ],
      [
        "karatasi",
        -9.255697612297022
      ],
      [
        "jan",
        -9.256156922886825
      ],
      [
        "fi",
        -9.259693048902548
      ],
      [
        "▁mase",
        -9.261371427914334
      ],
      [
        "ihambaye",
        -9.262918651297287
      ],
      [
        "musozi",
        -9.265610251261357
      ],
      [
        "▁umuko",
        -9.26598220215517
      ],
      [
        "'urusengero",
        -9.267528600415602
      ],
      [
        "▁Sha",
        -9.268229413378345
      ],
      [
        "ariko",
        -9.269585860231853
      ],
      [
        "wundi",
        -9.269974132432022
      ],
      [
        "om",
        -9.270093905780708
      ],
      [
        "iwanyu",
        -9.270412490298401
      ],
      [
        "▁bagum",
        -9.271029404211728
      ],
      [
        "▁rure",
        -9.274610533087992
      ],
      [
        "sohor",
        -9.275498787352372
      ],
      [
        "▁gifi",
        -9.275582265278029
      ],
      [
        "kugirira",
        -9.275690816776235
      ],
      [
        "atandatu",
        -9.276807785175086
      ],
      [
        "shoboka",
        -9.280022755490135
      ],
      [
        "▁amah",
        -9.28040184696446
      ],
      [
        "▁kut",
        -9.281115533859538
      ],
      [
        "▁dut",
        -9.282848760158128
      ],
      [
        "▁ikig",
        -9.28403072843693
      ],
      [
        "u,",
        -9.284764575393307
      ],
      [
        "ayo",
        -9.285617504243271
      ],
      [
        "iyon",
        -9.286318179924116
      ],
      [
        "tebe",
        -9.286846451095334
      ],
      [
        "at",
        -9.28812416258402
      ],
      [
        "mire",
        -9.289082954271096
      ],
      [
        "▁Na",
        -9.29058948824719
      ],
      [
        "rwi",
        -9.29215913009638
      ],
      [
        "buseruk",
        -9.294668217879076
      ],
      [
        "anza",
        -9.295465497542978
      ],
      [
        "abanya",
        -9.295655028316748
      ],
      [
        "yavuga",
        -9.297255455888333
      ],
      [
        "'ivya",
        -9.297359742015015
      ],
      [
        "ariki",
        -9.29749483915976
      ],
      [
        "▁yab",
        -9.297692255847679
      ],
      [
        "renge",
        -9.30110547937328
      ],
      [
        "▁nke",
        -9.30115761154521
      ],
      [
        "ezi",
        -9.302887817570596
      ],
      [
        "ende",
        -9.304047554509166
      ],
      [
        "aheze",
        -9.30483549890577
      ],
      [
        "urika",
        -9.30558153756454
      ],
      [
        "Igihugu",
        -9.306282314520278
      ],
      [
        "▁utu",
        -9.306829902243708
      ],
      [
        "▁Ukw",
        -9.306961689182899
      ],
      [
        "uhus",
        -9.30872969854978
      ],
      [
        "bana",
        -9.310074561314044
      ],
      [
        "camwo",
        -9.310419300943657
      ],
      [
        "gisha",
        -9.31168966641567
      ],
      [
        "emezwa",
        -9.311693873231606
      ],
      [
        "hanam",
        -9.31293473637552
      ],
      [
        "▁nawe",
        -9.31470962217805
      ],
      [
        "▁biba",
        -9.315189049512739
      ],
      [
        "▁wi",
        -9.316183486295731
      ],
      [
        "pim",
        -9.318282187456086
      ],
      [
        "ero",
        -9.319898031536486
      ],
      [
        "▁vyar",
        -9.323125376580165
      ],
      [
        "▁cit",
        -9.32422092115619
      ],
      [
        "int",
        -9.325631985495262
      ],
      [
        "amatora",
        -9.328083965152095
      ],
      [
        "▁Bi",
        -9.328381565460537
      ],
      [
        "itani",
        -9.328629638762155
      ],
      [
        "anyuma",
        -9.328814678251742
      ],
      [
        "kener",
        -9.329898456307044
      ],
      [
        "▁uruge",
        -9.330182877332668
      ],
      [
        "▁zita",
        -9.330757644421784
      ],
      [
        "▁kuwa",
        -9.331527124484108
      ],
      [
        "hus",
        -9.33470172269194
      ],
      [
        "▁zir",
        -9.334733550513228
      ],
      [
        "▁baje",
        -9.335149146576432
      ],
      [
        "zu",
        -9.336095972773606
      ],
      [
        "▁Hu",
        -9.336227596459295
      ],
      [
        "▁bisa",
        -9.339009842780658
      ],
      [
        "▁24",
        -9.339534214278503
      ],
      [
        "erekan",
        -9.34083766699511
      ],
      [
        "▁kuge",
        -9.340923143779204
      ],
      [
        "▁nzi",
        -9.342767216228888
      ],
      [
        "sumbane",
        -9.3437200562726
      ],
      [
        "shaka",
        -9.35023149416554
      ],
      [
        "▁ikigan",
        -9.350242122376079
      ],
      [
        "ushikira",
        -9.350999125778177
      ],
      [
        "▁w'umug",
        -9.35213967223294
      ],
      [
        "isi.",
        -9.352387324818665
      ],
      [
        "agutse",
        -9.353394209821735
      ],
      [
        "gan",
        -9.353825970336343
      ],
      [
        "▁y’I",
        -9.355029644091442
      ],
      [
        "▁nk'uk",
        -9.355491475338544
      ],
      [
        "raba",
        -9.35645407321829
      ],
      [
        "▁ut",
        -9.356902336264802
      ],
      [
        "▁Rea",
        -9.35956041021343
      ],
      [
        "yobozi",
        -9.360936774265802
      ],
      [
        "kira",
        -9.362493223925048
      ],
      [
        "winjiri",
        -9.362914589259084
      ],
      [
        "▁mwi",
        -9.363310469974497
      ],
      [
        "▁yandits",
        -9.363648931980617
      ],
      [
        "ma,",
        -9.367288456912352
      ],
      [
        "tion",
        -9.367836232120254
      ],
      [
        "▁vyihu",
        -9.368115173722588
      ],
      [
        "ciy",
        -9.36984155427801
      ],
      [
        "▁Par",
        -9.370502469525004
      ],
      [
        "obe",
        -9.370776939461892
      ],
      [
        "▁y’i",
        -9.371809467862967
      ],
      [
        "hamwe",
        -9.372320160380431
      ],
      [
        "kombe",
        -9.375301526197223
      ],
      [
        "ura.",
        -9.375983035196581
      ],
      [
        "ahagari",
        -9.376878377923951
      ],
      [
        "▁abari",
        -9.377396789118984
      ],
      [
        "koreshe",
        -9.379042220090746
      ],
      [
        "▁gushi",
        -9.37966520534708
      ],
      [
        "kari",
        -9.380755536506564
      ],
      [
        "bitanga",
        -9.381576392286096
      ],
      [
        "▁bikab",
        -9.38213192254857
      ],
      [
        "▁t",
        -9.383199786019073
      ],
      [
        "sanganya",
        -9.383384292259306
      ],
      [
        "▁yat",
        -9.383835368935987
      ],
      [
        "vyatsi",
        -9.387027157624553
      ],
      [
        "▁w'I",
        -9.387250913721608
      ],
      [
        "▁mab",
        -9.388424088662179
      ],
      [
        "▁vy'aba",
        -9.390333896704174
      ],
      [
        "▁kigi",
        -9.392203180365568
      ],
      [
        "▁c'a",
        -9.394117213993315
      ],
      [
        "'indege",
        -9.39439696282709
      ],
      [
        "aruka",
        -9.396156596103625
      ],
      [
        "▁izi",
        -9.399270886713845
      ],
      [
        "bindi",
        -9.401605550916823
      ],
      [
        "sagara",
        -9.401935782201972
      ],
      [
        "huhu",
        -9.40584227526553
      ],
      [
        "ako",
        -9.40710646922857
      ],
      [
        "bandanya",
        -9.410247281126072
      ],
      [
        "▁bwi",
        -9.41354719726349
      ],
      [
        "jana",
        -9.415253688764867
      ],
      [
        "▁100",
        -9.415767968703463
      ],
      [
        "▁bur",
        -9.416190015119728
      ],
      [
        "ma.",
        -9.41749451179318
      ],
      [
        "▁Y",
        -9.419213080756606
      ],
      [
        "shu",
        -9.419307780522892
      ],
      [
        "yaya",
        -9.420673032610837
      ],
      [
        "umusozi",
        -9.42182671938317
      ],
      [
        "▁bama",
        -9.422526065038703
      ],
      [
        "shakashatsi",
        -9.423700875846023
      ],
      [
        "mwaka",
        -9.42473059272353
      ],
      [
        "ibiri",
        -9.426248615069365
      ],
      [
        "hony",
        -9.426634329954679
      ],
      [
        "umutekano",
        -9.427479797028186
      ],
      [
        "▁ruh",
        -9.427528345836397
      ],
      [
        "il",
        -9.429043778446548
      ],
      [
        "ore",
        -9.431604349139505
      ],
      [
        "▁bazo",
        -9.43276887701889
      ],
      [
        "ny",
        -9.433402338532355
      ],
      [
        "rashobo",
        -9.433552426742482
      ],
      [
        "uruza",
        -9.43437826557538
      ],
      [
        "▁kun",
        -9.435765916489125
      ],
      [
        "gufasha",
        -9.43611011892097
      ],
      [
        "▁gukin",
        -9.438232578120385
      ],
      [
        "itse",
        -9.438370803929914
      ],
      [
        "▁baraku",
        -9.438982325773098
      ],
      [
        "oho",
        -9.44138782812966
      ],
      [
        "▁urik",
        -9.442113886409011
      ],
      [
        "kanogo",
        -9.442707249192011
      ],
      [
        "▁n’u",
        -9.443101671793919
      ],
      [
        "ikomeye",
        -9.443438959467468
      ],
      [
        "gar",
        -9.443727099336604
      ],
      [
        "ate",
        -9.445350327201837
      ],
      [
        "hanu",
        -9.447989528404598
      ],
      [
        "▁itan",
        -9.448641634110903
      ],
      [
        "▁bas",
        -9.449069287293753
      ],
      [
        "S",
        -9.450629262397268
      ],
      [
        "aje",
        -9.451512337141022
      ],
      [
        "▁Fi",
        -9.452492367422531
      ],
      [
        "3",
        -9.45302421332876
      ],
      [
        "'amategeko",
        -9.453114629480098
      ],
      [
        "▁kuvu",
        -9.453784573483814
      ],
      [
        "K",
        -9.454280482866105
      ],
      [
        "▁mpa",
        -9.454889972431399
      ],
      [
        "▁d",
        -9.455002053118283
      ],
      [
        "che",
        -9.45597946890361
      ],
      [
        "▁11",
        -9.460427188565747
      ],
      [
        "rere",
        -9.460996540535698
      ],
      [
        "ivy'ubu",
        -9.46102710925444
      ],
      [
        "bwir",
        -9.461620216676499
      ],
      [
        "ned",
        -9.462234383166997
      ],
      [
        "arafash",
        -9.462499084156637
      ],
      [
        "▁Tur",
        -9.467171299075476
      ],
      [
        "buraro",
        -9.467955652097476
      ],
      [
        "kamang",
        -9.468242775990717
      ],
      [
        "ruhande",
        -9.468914499315794
      ],
      [
        "bor",
        -9.469279153706198
      ],
      [
        "fa",
        -9.469436591191005
      ],
      [
        "acks",
        -9.469703021651206
      ],
      [
        "mboneshakure",
        -9.47174415026602
      ],
      [
        "igaruri",
        -9.472230475642409
      ],
      [
        "▁ngende",
        -9.472380665903623
      ],
      [
        "ion",
        -9.473959666052
      ],
      [
        "▁car",
        -9.474309003810916
      ],
      [
        "▁yakoz",
        -9.475613259186549
      ],
      [
        "girwa",
        -9.47676468865041
      ],
      [
        "gafata",
        -9.47737675735494
      ],
      [
        "ve",
        -9.47744269763883
      ],
      [
        "▁birah",
        -9.477518384089782
      ],
      [
        "bushakashatsi",
        -9.477607919403443
      ],
      [
        "sasa",
        -9.47872885363527
      ],
      [
        "ago",
        -9.47874663297409
      ],
      [
        "ewe",
        -9.47995856505107
      ],
      [
        "rimi",
        -9.480306525372963
      ],
      [
        "tegekany",
        -9.480555353213447
      ],
      [
        "R",
        -9.482071196274145
      ],
      [
        "▁udu",
        -9.482525552681741
      ],
      [
        "rure",
        -9.483314122916552
      ],
      [
        "kenguzamateka",
        -9.484309206015256
      ],
      [
        "▁Bar",
        -9.485197176068516
      ],
      [
        "'abanya",
        -9.485933942610856
      ],
      [
        "ononeka",
        -9.48715553670678
      ],
      [
        "su",
        -9.487542341299648
      ],
      [
        "▁ukan",
        -9.487938079684174
      ],
      [
        "nani",
        -9.490271002576563
      ],
      [
        "reme",
        -9.490416042148095
      ],
      [
        "▁ugut",
        -9.49117386890667
      ],
      [
        "▁zikwi",
        -9.492895188576247
      ],
      [
        "imisi",
        -9.493062743176818
      ],
      [
        "▁Po",
        -9.49454405774124
      ],
      [
        "gamb",
        -9.49514648911504
      ],
      [
        "goran",
        -9.495831821646123
      ],
      [
        "ezwe",
        -9.496551853306078
      ],
      [
        "▁cam",
        -9.497670692864903
      ],
      [
        "ryoher",
        -9.497805790727947
      ],
      [
        "wiyumv",
        -9.498099434674591
      ],
      [
        "kimwe",
        -9.499385292843172
      ],
      [
        "ell",
        -9.49954677096554
      ],
      [
        "one",
        -9.501706690482013
      ],
      [
        "▁n’imi",
        -9.503651253476725
      ],
      [
        "ane",
        -9.504374261168323
      ],
      [
        "kir",
        -9.505142136204718
      ],
      [
        "▁habone",
        -9.50620569680704
      ],
      [
        "aragara",
        -9.507337661448231
      ],
      [
        "genz",
        -9.507930792819929
      ],
      [
        "▁nk'ic",
        -9.510585726042635
      ],
      [
        "▁Ri",
        -9.510602377164087
      ],
      [
        "oko",
        -9.511015642261484
      ],
      [
        "igez",
        -9.511785798220581
      ],
      [
        "ike",
        -9.512585050533781
      ],
      [
        "▁vy'in",
        -9.512617871945988
      ],
      [
        "50",
        -9.513336480664362
      ],
      [
        "maz",
        -9.513827365099745
      ],
      [
        "▁y'Ubu",
        -9.51411279044106
      ],
      [
        "▁iyi",
        -9.514197978170778
      ],
      [
        "ngan",
        -9.514884470240556
      ],
      [
        "▁rubu",
        -9.516301147772955
      ],
      [
        "▁Pal",
        -9.516953137993346
      ],
      [
        "▁Ubudag",
        -9.517192250281232
      ],
      [
        "▁n'imis",
        -9.51719470744749
      ],
      [
        "dri",
        -9.519296276049017
      ],
      [
        "rush",
        -9.519465201811729
      ],
      [
        "ungane",
        -9.520579260168065
      ],
      [
        "sinema",
        -9.520994156476796
      ],
      [
        "▁Gran",
        -9.522275384819856
      ],
      [
        "▁Fl",
        -9.524964311374209
      ],
      [
        "gusa",
        -9.525141999086006
      ],
      [
        "majwi",
        -9.525281980302054
      ],
      [
        "▁Mart",
        -9.525543569017643
      ],
      [
        "▁z'aba",
        -9.525963160073541
      ],
      [
        "rorero",
        -9.526816057131576
      ],
      [
        "ü",
        -9.526837939490408
      ],
      [
        "▁Or",
        -9.527087235774712
      ],
      [
        "irenga",
        -9.527895467070108
      ],
      [
        "ruka",
        -9.527970856149366
      ],
      [
        "▁conservative",
        -9.52878115754258
      ],
      [
        "▁Devonport",
        -9.52878115754279
      ],
      [
        "▁Association",
        -9.528781157546101
      ],
      [
        "▁Istanbul",
        -9.528781157561095
      ],
      [
        "▁Kirchner",
        -9.528781157561315
      ],
      [
        "!",
        -9.528781157582412
      ],
      [
        "%",
        -9.528781157582412
      ],
      [
        "▁Parenthood",
        -9.528781157661347
      ],
      [
        "H5N1",
        -9.52878115766635
      ],
      [
        "▁Atrantike",
        -9.52878115881793
      ],
      [
        "▁(X",
        -9.528781162071422
      ],
      [
        "▁Républicains",
        -9.528781162246844
      ],
      [
        "▁Barcelon",
        -9.528781167876744
      ],
      [
        "▁Romney",
        -9.528781175050486
      ],
      [
        "▁kwiyamamaza",
        -9.52878117761384
      ],
      [
        "▁Caspian",
        -9.528781186788962
      ],
      [
        "▁Nintendo",
        -9.528781188455595
      ],
      [
        "▁Colbert",
        -9.528781190397027
      ],
      [
        "▁Danemar",
        -9.528781194550644
      ],
      [
        "▁Fernand",
        -9.528781196041532
      ],
      [
        "(F",
        -9.528781198281472
      ],
      [
        "▁Fallujah",
        -9.52878120017055
      ],
      [
        "▁Serengeti",
        -9.528781200634667
      ],
      [
        "▁Armeniya",
        -9.528781218788772
      ],
      [
        "▁Petersburg",
        -9.528781224375887
      ],
      [
        "▁Antaragiti",
        -9.528781226355203
      ],
      [
        "▁Ntwarante",
        -9.52878124947157
      ],
      [
        "▁z'Imana",
        -9.528781267073217
      ],
      [
        "▁Bufaransa",
        -9.52878129692398
      ],
      [
        "▁Atlant",
        -9.528781310142179
      ],
      [
        "▁Pasifike",
        -9.528781344069511
      ],
      [
        "/i",
        -9.52878136219881
      ],
      [
        "▁Slalom",
        -9.528781382903059
      ],
      [
        "▁Mediterane",
        -9.528781427249239
      ],
      [
        "▁É",
        -9.5287814660067
      ],
      [
        "▁Argentin",
        -9.528781474759084
      ],
      [
        "▁Nijeriya",
        -9.528781519332934
      ],
      [
        "▁Stewart",
        -9.52878154232951
      ],
      [
        "▁k'inkoko",
        -9.528781576658108
      ],
      [
        "Simpson",
        -9.52878166904995
      ],
      [
        "▁kavukire",
        -9.528781682312783
      ],
      [
        "▁muremure",
        -9.528781943471182
      ],
      [
        "▁c'Umu",
        -9.52878195860383
      ],
      [
        "▁Gordon",
        -9.528782028798418
      ],
      [
        "▁k'Abarabu",
        -9.528782249589284
      ],
      [
        "▁Schengen",
        -9.52878341523663
      ],
      [
        "▁kwururuka",
        -9.528783744471315
      ],
      [
        "▁Arizona",
        -9.528784089967033
      ],
      [
        "▁Bobek",
        -9.528784111965772
      ],
      [
        "▁amareresi",
        -9.528784117998118
      ],
      [
        "hindagurika",
        -9.528784292729892
      ],
      [
        "▁gatanu",
        -9.528785523355147
      ],
      [
        "ubahiriz",
        -9.528785830877231
      ],
      [
        "▁asirans",
        -9.528787799302886
      ],
      [
        "▁rusengero",
        -9.528790140083402
      ],
      [
        "▁yahejej",
        -9.528790476631794
      ],
      [
        "▁n'igiter",
        -9.528791336860435
      ],
      [
        "vuduko",
        -9.528791905156252
      ],
      [
        "▁6.3",
        -9.528792176755466
      ],
      [
        "▁ngurukana",
        -9.52879436380333
      ],
      [
        "▁Conservat",
        -9.528796456140643
      ],
      [
        "ville",
        -9.52879806656951
      ],
      [
        "▁Palestin",
        -9.528798832701458
      ],
      [
        "wiyandikisha",
        -9.528801072818316
      ],
      [
        "▁2005",
        -9.528802299130946
      ],
      [
        "▁Harbour",
        -9.528809061484697
      ],
      [
        "▁virus",
        -9.528809083067248
      ],
      [
        "▁Utah",
        -9.528810301679425
      ],
      [
        "NBA",
        -9.528814771176243
      ],
      [
        "tagisi",
        -9.528815798391298
      ],
      [
        "▁shingiro",
        -9.52881685908724
      ],
      [
        "akwirikiye",
        -9.528821505236554
      ],
      [
        "▁7.000",
        -9.5288313043419
      ],
      [
        "gucumbika",
        -9.528835668940461
      ],
      [
        "SW",
        -9.52883911423276
      ],
      [
        "’uburayi",
        -9.528848277114134
      ],
      [
        "▁Davey",
        -9.528855400625503
      ],
      [
        "▁1979",
        -9.528860624398517
      ],
      [
        "▁Isirayeli",
        -9.528863093818511
      ],
      [
        "▁c'aka",
        -9.528873179602833
      ],
      [
        "▁Copenhague",
        -9.528873589449288
      ],
      [
        "sesagu",
        -9.528903338735118
      ],
      [
        "▁n'akarere",
        -9.528914282893664
      ],
      [
        "▁Manche",
        -9.528915301540652
      ],
      [
        "▁guhingur",
        -9.528918511091527
      ],
      [
        "▁igihumbi",
        -9.528931859378812
      ],
      [
        "▁rigibi",
        -9.528933987349603
      ],
      [
        "▁Rumaniya",
        -9.528957539011447
      ],
      [
        "bahagarikiye",
        -9.528971541611618
      ],
      [
        "▁uburuhuko",
        -9.528972979969163
      ],
      [
        "▁yitabw",
        -9.52899930985437
      ],
      [
        "▁Gala",
        -9.529006857134743
      ],
      [
        "oroherwa",
        -9.52902022260353
      ],
      [
        "▁bwonko",
        -9.529026720925215
      ],
      [
        "▁1.000",
        -9.529028657361302
      ],
      [
        "hanitse",
        -9.529044851511577
      ],
      [
        "▁Finland",
        -9.529063716554122
      ],
      [
        "igariya",
        -9.529069356340985
      ],
      [
        "▁Yeru",
        -9.529084199372546
      ],
      [
        "▁Harac",
        -9.529092102259785
      ],
      [
        "▁urubibe",
        -9.529094154983476
      ],
      [
        "kwakira",
        -9.529105410026753
      ],
      [
        "▁Alex",
        -9.52911523363999
      ],
      [
        "▁bompi",
        -9.529148379934627
      ],
      [
        "wuzuz",
        -9.529220176333533
      ],
      [
        "▁Nk'",
        -9.529224615850469
      ],
      [
        "▁Massa",
        -9.529247027120741
      ],
      [
        "▁tutaz",
        -9.529247707029828
      ],
      [
        "▁w'akama",
        -9.529253280251742
      ],
      [
        "▁uburyamo",
        -9.529257219674356
      ],
      [
        "▁bw'ukw",
        -9.529259586811092
      ],
      [
        "▁Reid",
        -9.529262572862688
      ],
      [
        "▁13",
        -9.529279598690884
      ],
      [
        "Net",
        -9.529287346522956
      ],
      [
        "▁53",
        -9.529288178457294
      ],
      [
        "▁y'umwan",
        -9.529291821646769
      ],
      [
        "serv",
        -9.529295342901342
      ],
      [
        "▁inkota",
        -9.529297189345218
      ],
      [
        "kurangiza",
        -9.529331579591961
      ],
      [
        "▁y’abashoferi",
        -9.529367685533266
      ],
      [
        "chell",
        -9.529374753169913
      ],
      [
        "▁11:",
        -9.529417818012032
      ],
      [
        "▁Medi",
        -9.529421786664146
      ],
      [
        "▁ukugenda",
        -9.529425015855033
      ],
      [
        "▁Hsie",
        -9.529471915073637
      ],
      [
        "▁c'Aba",
        -9.529474195572885
      ],
      [
        "▁vyungur",
        -9.529474209873893
      ],
      [
        "▁Onega",
        -9.529490541408355
      ],
      [
        "▁Aires",
        -9.529505439770054
      ],
      [
        "▁2006",
        -9.52957707711338
      ],
      [
        "▁n’ubuc",
        -9.52958788173027
      ],
      [
        "▁2020",
        -9.52960868411313
      ],
      [
        "lags",
        -9.52962020879699
      ],
      [
        "▁baratanga",
        -9.529635157288196
      ],
      [
        "▁bushasha.",
        -9.529647308210025
      ],
      [
        "▁Feli",
        -9.529673434439196
      ],
      [
        "▁n'umunani",
        -9.529703047975586
      ],
      [
        "ATA",
        -9.529708408367174
      ],
      [
        "▁n'incu",
        -9.529826654982905
      ],
      [
        "▁ry’umu",
        -9.52987342965735
      ],
      [
        "▁ry'ama",
        -9.529917284512823
      ],
      [
        "▁ijoro",
        -9.529939417514813
      ],
      [
        "▁Fran",
        -9.52995569736587
      ],
      [
        "▁amashurwe",
        -9.529960889916923
      ],
      [
        "468",
        -9.529965303074771
      ],
      [
        "▁mur'i",
        -9.52998567604285
      ],
      [
        "▁vyigenga",
        -9.530080196110385
      ],
      [
        "▁Brezile",
        -9.530083814070569
      ],
      [
        "▁n'utugenegene",
        -9.530084725025407
      ],
      [
        "▁zishushe",
        -9.530107691801014
      ],
      [
        "icenda",
        -9.530113674154979
      ],
      [
        "▁n’akaranga",
        -9.530161304257241
      ],
      [
        "▁32",
        -9.530171283968329
      ],
      [
        "scop",
        -9.530184097014653
      ],
      [
        "port",
        -9.530308888692538
      ],
      [
        "▁\"U",
        -9.53031963390031
      ],
      [
        "▁bubah",
        -9.530423554789198
      ],
      [
        "agezwe",
        -9.530494522831079
      ],
      [
        "▁New",
        -9.530541396857894
      ],
      [
        "76",
        -9.530608699740679
      ],
      [
        "▁Australi",
        -9.530616522148536
      ],
      [
        "ckla",
        -9.530689830502297
      ],
      [
        "üm",
        -9.530728051307982
      ],
      [
        "▁bw'Aba",
        -9.530777976629846
      ],
      [
        "▁nk'ivyo",
        -9.530811294344385
      ],
      [
        "▁kunkombe",
        -9.530884745079737
      ],
      [
        "▁\"N",
        -9.53102626447484
      ],
      [
        "jugu",
        -9.531163053139435
      ],
      [
        "uzuye",
        -9.531238445023078
      ],
      [
        "sumvya",
        -9.531316542529376
      ],
      [
        "maniya",
        -9.531342715719308
      ],
      [
        "▁ntiru",
        -9.531357612137576
      ],
      [
        "▁zigizw",
        -9.531452393548026
      ],
      [
        "ement",
        -9.531464924686595
      ],
      [
        "▁yitiri",
        -9.531506730076602
      ],
      [
        "▁ishush",
        -9.531633413152512
      ],
      [
        "▁gukurikira",
        -9.531701193189118
      ],
      [
        "▁azosubiri",
        -9.531811709085018
      ],
      [
        "▁yakomeretse",
        -9.531953339468226
      ],
      [
        "mmy",
        -9.532047365918242
      ],
      [
        "kerebuts",
        -9.532214101886579
      ],
      [
        "▁ibirori",
        -9.532250551234455
      ],
      [
        "▁Cambere",
        -9.532308220074777
      ],
      [
        "▁mw'ibarabara",
        -9.532354817539915
      ],
      [
        "piki",
        -9.532443659684102
      ],
      [
        "▁amajwi",
        -9.532471815196976
      ],
      [
        "Baltic",
        -9.532687571133284
      ],
      [
        "▁rutandukanye",
        -9.532698051994954
      ],
      [
        "▁Repub",
        -9.532876883399217
      ],
      [
        "▁Umunya",
        -9.532898641535885
      ],
      [
        "▁yarungits",
        -9.532905821857153
      ],
      [
        "▁y'amazi",
        -9.532948873221349
      ],
      [
        "ngira",
        -9.533069033268983
      ],
      [
        "▁hisu",
        -9.533159143625657
      ],
      [
        "▁Arc",
        -9.533340191693592
      ],
      [
        "▁Mit",
        -9.533407052319404
      ],
      [
        "▁AC",
        -9.533415071384745
      ],
      [
        "▁bahigan",
        -9.533440655170825
      ],
      [
        "▁kuronder",
        -9.53366441829058
      ],
      [
        "terambere",
        -9.533681874077649
      ],
      [
        "▁vy'ukuri",
        -9.53370430347231
      ],
      [
        "▁ihema",
        -9.533710201051058
      ],
      [
        "▁Jon",
        -9.533787681758724
      ],
      [
        "▁mwo",
        -9.533817808760721
      ],
      [
        "▁Uguh",
        -9.533951108222926
      ],
      [
        "▁Sul",
        -9.533953556787731
      ],
      [
        "burg",
        -9.534082375568108
      ],
      [
        "ctor",
        -9.534153573609046
      ],
      [
        "▁Star",
        -9.534211054528352
      ],
      [
        "ball",
        -9.534381411168194
      ],
      [
        "▁y’ama",
        -9.534390158156214
      ],
      [
        "▁zikomeye",
        -9.534475414362834
      ],
      [
        "▁Abari",
        -9.53452031476307
      ],
      [
        "▁z'ingenzi",
        -9.53461478501294
      ],
      [
        "▁kwica",
        -9.53471233509018
      ],
      [
        "▁vyategerezwa",
        -9.534745167470383
      ],
      [
        "char",
        -9.53484194386149
      ],
      [
        "▁ruhome",
        -9.534934821372426
      ],
      [
        "▁ukomeye",
        -9.534948570674038
      ],
      [
        "▁2010",
        -9.535052068796539
      ],
      [
        "▁umuhinga",
        -9.535111565839852
      ],
      [
        "▁Vyi",
        -9.535285537946502
      ],
      [
        "▁barush",
        -9.535321786178457
      ],
      [
        "tandatu",
        -9.535460855968244
      ],
      [
        "reke",
        -9.535463999125076
      ],
      [
        "ulka",
        -9.535516207408198
      ],
      [
        "▁All",
        -9.535960360932517
      ],
      [
        "▁busanzwe",
        -9.536212614876558
      ],
      [
        "▁Buf",
        -9.536352950393258
      ],
      [
        "buhoro",
        -9.536377167707
      ],
      [
        "▁Kat",
        -9.536543152252356
      ],
      [
        "▁ahar",
        -9.536639217528398
      ],
      [
        "▁isinema",
        -9.536666488029283
      ],
      [
        "▁ntitug",
        -9.536893023483499
      ],
      [
        "▁iramu",
        -9.537127210710981
      ],
      [
        "▁bitari",
        -9.537147064749028
      ],
      [
        "▁y’umurw",
        -9.537182849085948
      ],
      [
        "hande",
        -9.537255543559885
      ],
      [
        "▁araf",
        -9.537256522176257
      ],
      [
        "ffer",
        -9.53729308352499
      ],
      [
        "tunogo",
        -9.537509548336647
      ],
      [
        "▁itwa",
        -9.537924353766218
      ],
      [
        "arongowe",
        -9.537936598544578
      ],
      [
        "mer",
        -9.538439477560921
      ],
      [
        "▁y'umuduga",
        -9.538532862359055
      ],
      [
        "igh",
        -9.538585977643613
      ],
      [
        "▁minini",
        -9.538702439053182
      ],
      [
        "▁itatu",
        -9.53911798922488
      ],
      [
        "ij",
        -9.539161354164083
      ],
      [
        "▁Dani",
        -9.53926595179327
      ],
      [
        "▁b’",
        -9.53935483233332
      ],
      [
        "bikora",
        -9.539408491041799
      ],
      [
        "▁n'ukwi",
        -9.539512483933187
      ],
      [
        "▁Inc",
        -9.539859600151019
      ],
      [
        "tic",
        -9.539906992183447
      ],
      [
        "axi",
        -9.539941580698324
      ],
      [
        "uje",
        -9.540034712261576
      ],
      [
        "s»",
        -9.540472711196358
      ],
      [
        "▁kwandu",
        -9.540935525960819
      ],
      [
        "ça",
        -9.541035301737075
      ],
      [
        "’amazi",
        -9.541328011199802
      ],
      [
        "▁kiraro",
        -9.54156191665969
      ],
      [
        "bans",
        -9.54168823095186
      ],
      [
        "▁mahoteli",
        -9.541808965888096
      ],
      [
        "MS",
        -9.541914312512928
      ],
      [
        "mvu",
        -9.542571663524903
      ],
      [
        "▁Orl",
        -9.543029219129354
      ],
      [
        "▁n'ingen",
        -9.543218317073686
      ],
      [
        "▁mugongo",
        -9.543252756446797
      ],
      [
        "ibumba",
        -9.543255535372435
      ],
      [
        "▁y'Ubuhind",
        -9.543652972410728
      ],
      [
        "▁mugaragaro",
        -9.543743968606867
      ],
      [
        "▁n'umugwi",
        -9.543914387246147
      ],
      [
        "muga",
        -9.544227539528885
      ],
      [
        "▁bakene",
        -9.544292159189768
      ],
      [
        "▁Gre",
        -9.544306430902669
      ],
      [
        "▁uduko",
        -9.544356415075391
      ],
      [
        "▁rutege",
        -9.544505966630796
      ],
      [
        "▁icayi",
        -9.544542707569635
      ],
      [
        "ganya",
        -9.544665067652208
      ],
      [
        "raro",
        -9.54475011290698
      ],
      [
        "▁Saf",
        -9.544793727913282
      ],
      [
        "▁kujamwo",
        -9.545211215848934
      ],
      [
        "▁n'abanya",
        -9.545285112288095
      ],
      [
        "▁uburaro",
        -9.54529446380469
      ],
      [
        "▁iciz",
        -9.545926099515183
      ],
      [
        "▁umunani",
        -9.545986100756059
      ],
      [
        "ubumanuko",
        -9.546090494344547
      ],
      [
        "▁Grand",
        -9.546798680774097
      ],
      [
        "▁gitanga",
        -9.54738893247946
      ],
      [
        "▁Utu",
        -9.548114056960241
      ],
      [
        "▁guhera",
        -9.548398021926628
      ],
      [
        "▁ntibiri",
        -9.54843090878921
      ],
      [
        "ya.",
        -9.548542527708777
      ],
      [
        "▁c'ubu",
        -9.548989019006374
      ],
      [
        "▁abakunzi",
        -9.549323625585501
      ],
      [
        "'amakinga",
        -9.549385004258774
      ],
      [
        "urikiwe",
        -9.549678661655674
      ],
      [
        "▁uwuyi",
        -9.550336784537024
      ],
      [
        "▁kazo",
        -9.550716700376517
      ],
      [
        "▁kwubaka",
        -9.550870108972276
      ],
      [
        "▁Ubur",
        -9.55088601977769
      ],
      [
        "rove",
        -9.550993230846357
      ],
      [
        "▁Domin",
        -9.551018371541868
      ],
      [
        "bizibir",
        -9.551369491909048
      ],
      [
        "▁vy'igi",
        -9.551516444095565
      ],
      [
        "▁n'ubwa",
        -9.551679479426776
      ],
      [
        "gé",
        -9.551972459874726
      ],
      [
        "▁bat",
        -9.552018631018282
      ],
      [
        "▁Abatember",
        -9.552206752702045
      ],
      [
        "▁Kera",
        -9.552902278834887
      ],
      [
        "bow",
        -9.553532189526033
      ],
      [
        "bitsindo",
        -9.553883855591984
      ],
      [
        "▁radiyo",
        -9.55410264708193
      ],
      [
        "▁biraba",
        -9.554106577872085
      ],
      [
        "w'amaboko",
        -9.554418237201109
      ],
      [
        "▁vyiyumvir",
        -9.554475553093653
      ],
      [
        "abakorera",
        -9.55451795567219
      ],
      [
        "▁imid",
        -9.554915548064159
      ],
      [
        "lympi",
        -9.555192581456922
      ],
      [
        "▁Mukuru",
        -9.555623160636276
      ],
      [
        "ega",
        -9.556009133990903
      ],
      [
        "▁bitera",
        -9.556406506330577
      ],
      [
        "▁“",
        -9.557359196488228
      ],
      [
        "▁n'imwe",
        -9.557908017144818
      ],
      [
        "masezerano",
        -9.557924570621106
      ],
      [
        "est",
        -9.55794049146452
      ],
      [
        "▁bisabwa",
        -9.55796082655192
      ],
      [
        "igabu",
        -9.558083965837275
      ],
      [
        "▁akaga",
        -9.558186127170286
      ],
      [
        "▁ukumeny",
        -9.558214378694915
      ],
      [
        "gererany",
        -9.558236229240496
      ],
      [
        "▁hat",
        -9.559300228329633
      ],
      [
        "ishimik",
        -9.559960249407133
      ],
      [
        "hne",
        -9.560170556830194
      ],
      [
        "▁badash",
        -9.560343070615657
      ],
      [
        "▁igenda",
        -9.560639571646242
      ],
      [
        "▁y'Aba",
        -9.560970611136835
      ],
      [
        "roke",
        -9.561159403115665
      ],
      [
        "liy",
        -9.561311907803924
      ],
      [
        "▁Tre",
        -9.561313338878637
      ],
      [
        "▁gisaba",
        -9.561613168341232
      ],
      [
        "ssar",
        -9.562162571375936
      ],
      [
        "▁bif",
        -9.562565379497249
      ],
      [
        "umwuga",
        -9.562940255985806
      ],
      [
        "▁tumwe",
        -9.563038549476829
      ],
      [
        "jamwo",
        -9.56333612957488
      ],
      [
        "▁kane",
        -9.563449256163977
      ],
      [
        "anonots",
        -9.56360262651361
      ],
      [
        "▁Gl",
        -9.563979898007728
      ],
      [
        "▁uwaho",
        -9.564083839930033
      ],
      [
        "▁akurikiran",
        -9.564149101069427
      ],
      [
        "Luna",
        -9.56424226520015
      ],
      [
        "ix",
        -9.564717434122281
      ],
      [
        "▁yand",
        -9.56472498601983
      ],
      [
        "▁navyo",
        -9.565406987283787
      ],
      [
        "▁udut",
        -9.565627439662894
      ],
      [
        "▁ukaba",
        -9.565802651385377
      ],
      [
        "ft",
        -9.566057070943597
      ],
      [
        "ata",
        -9.566655157410437
      ],
      [
        "▁none",
        -9.56669604062763
      ],
      [
        "▁basiga",
        -9.566819927834443
      ],
      [
        "▁Ug",
        -9.566881560322166
      ],
      [
        "cco",
        -9.56746478464225
      ],
      [
        "▁bakor",
        -9.56779150927763
      ],
      [
        "▁pol",
        -9.568556333810653
      ],
      [
        "▁ikibug",
        -9.568783499428791
      ],
      [
        "▁birori",
        -9.569733318374224
      ],
      [
        "infr",
        -9.570004801918154
      ],
      [
        "gikanye",
        -9.570932652183663
      ],
      [
        "▁196",
        -9.571075234219874
      ],
      [
        "ntara",
        -9.571082391845158
      ],
      [
        "▁ntib",
        -9.572249644535534
      ],
      [
        "doger",
        -9.572282155926267
      ],
      [
        "hu",
        -9.572282583013553
      ],
      [
        "asigaye",
        -9.572746522082802
      ],
      [
        "hog",
        -9.572814268467578
      ],
      [
        "▁gifash",
        -9.572959769065239
      ],
      [
        "cep",
        -9.573131277623848
      ],
      [
        "▁kwemer",
        -9.57316825915216
      ],
      [
        "nyaburay",
        -9.57327713033796
      ],
      [
        "▁aje",
        -9.573477892026656
      ],
      [
        "yononeka",
        -9.573682436063809
      ],
      [
        "▁mad",
        -9.57377782600995
      ],
      [
        "▁rig",
        -9.573823536329986
      ],
      [
        "▁batanga",
        -9.574255628755827
      ],
      [
        "▁guheze",
        -9.574694554921217
      ],
      [
        "▁barasu",
        -9.574905811474911
      ],
      [
        "▁kambi",
        -9.57506167036398
      ],
      [
        "▁y'Ama",
        -9.575122997393581
      ],
      [
        "▁kubikora",
        -9.575298030175903
      ],
      [
        "'amaguru",
        -9.575463566074749
      ],
      [
        "urupfu",
        -9.57557272438299
      ],
      [
        "▁giti",
        -9.575680893105213
      ],
      [
        "▁isanzwe",
        -9.576066771089415
      ],
      [
        "▁habaye",
        -9.576184417784987
      ],
      [
        "fo",
        -9.57645044872041
      ],
      [
        "gatatu",
        -9.576888623438172
      ],
      [
        "▁ibiyaga",
        -9.576990870855997
      ],
      [
        "▁impa",
        -9.577573188181693
      ],
      [
        "▁gitunz",
        -9.577973234322412
      ],
      [
        "opi",
        -9.579512189003125
      ],
      [
        "shigikiwe",
        -9.5796360806753
      ],
      [
        "6.",
        -9.579905131623288
      ],
      [
        "▁modoka",
        -9.580322825574221
      ],
      [
        "▁nubu",
        -9.580676840372927
      ],
      [
        "menyekana",
        -9.58117576938369
      ],
      [
        "genewe",
        -9.58117738715373
      ],
      [
        "rubura",
        -9.582237203256533
      ],
      [
        "▁mugera",
        -9.583069805468456
      ],
      [
        "▁Uk",
        -9.583488452889279
      ],
      [
        "▁bashi",
        -9.583981491205295
      ],
      [
        "▁isiga",
        -9.58498029420658
      ],
      [
        "▁azogu",
        -9.585334034943664
      ],
      [
        "kwegera",
        -9.58612912666926
      ],
      [
        "▁kubiri",
        -9.587230003189486
      ],
      [
        "os",
        -9.58793945232589
      ],
      [
        "▁Du",
        -9.58838652588499
      ],
      [
        "'urudandaza",
        -9.588543221907173
      ],
      [
        "▁yazo",
        -9.589075870259768
      ],
      [
        "▁zimwe",
        -9.589149890165677
      ],
      [
        "lad",
        -9.589618196282471
      ],
      [
        "wisama",
        -9.590066425778513
      ],
      [
        "kanij",
        -9.59010454545141
      ],
      [
        "▁kib",
        -9.590105801805663
      ],
      [
        "umenyere",
        -9.590356429170836
      ],
      [
        "atoye",
        -9.590393625082008
      ],
      [
        "▁umutekano",
        -9.59257998993681
      ],
      [
        "▁ahari",
        -9.592763716265985
      ],
      [
        "▁zizo",
        -9.593037632364565
      ],
      [
        "rwamwo",
        -9.593167943383376
      ],
      [
        "tell",
        -9.59360787395882
      ],
      [
        "▁imit",
        -9.593713994295056
      ],
      [
        "▁guhab",
        -9.594669690653896
      ],
      [
        "cunger",
        -9.59637963343063
      ],
      [
        "vyimb",
        -9.59662746844958
      ],
      [
        "ngiye",
        -9.597178930256403
      ],
      [
        "▁n’imit",
        -9.597945772824456
      ],
      [
        "rengeje",
        -9.59795102023969
      ],
      [
        "bimuki",
        -9.597966600891615
      ],
      [
        "uk",
        -9.598578482216741
      ],
      [
        "bigereranij",
        -9.599375983636783
      ],
      [
        "▁nk'inzo",
        -9.599381062690878
      ],
      [
        "▁bitsindo",
        -9.600385809952058
      ],
      [
        "urg",
        -9.600501157293454
      ],
      [
        "imibu",
        -9.600542511183127
      ],
      [
        "▁uno",
        -9.60114110995781
      ],
      [
        "▁igitig",
        -9.601211376787504
      ],
      [
        "▁igit",
        -9.601344393633447
      ],
      [
        "suku",
        -9.602036655628313
      ],
      [
        "▁Parik",
        -9.60317043212791
      ],
      [
        "▁n'uguteg",
        -9.603196126203336
      ],
      [
        "abashingamateka",
        -9.603312795542786
      ],
      [
        "Gol",
        -9.603511933189358
      ],
      [
        "▁bakwi",
        -9.604299664463113
      ],
      [
        "▁kukiyaga",
        -9.604343866214503
      ],
      [
        "▁\"z",
        -9.604345557660272
      ],
      [
        "▁gutu",
        -9.605260571881846
      ],
      [
        "subirwamwo",
        -9.605742662822387
      ],
      [
        "bashaka",
        -9.606290723527382
      ],
      [
        "▁abaho",
        -9.606449659231416
      ],
      [
        "▁bishik",
        -9.60726230837524
      ],
      [
        "▁Cir",
        -9.607625700933074
      ],
      [
        "kwidagadura",
        -9.60830090454916
      ],
      [
        "▁kida",
        -9.608736664854607
      ],
      [
        "rwe",
        -9.609148394885837
      ],
      [
        "▁kure",
        -9.609318725415477
      ],
      [
        "▁mikey",
        -9.609466410724563
      ],
      [
        "▁ida",
        -9.609809950460061
      ],
      [
        "▁gufasha",
        -9.609812317907888
      ],
      [
        "▁Gom",
        -9.61046526832916
      ],
      [
        "▁yacu",
        -9.61079796880109
      ],
      [
        "▁abat",
        -9.611357424249617
      ],
      [
        "▁Gi",
        -9.611417958174279
      ],
      [
        "▁ntang",
        -9.6115935213933
      ],
      [
        "y'igis",
        -9.611651067834124
      ],
      [
        "ahur",
        -9.611826543805902
      ],
      [
        "▁Tura",
        -9.612826539252604
      ],
      [
        "▁yit",
        -9.612863121247715
      ],
      [
        "▁nd",
        -9.613560723782925
      ],
      [
        "onze",
        -9.61356294546119
      ],
      [
        "▁Abur",
        -9.613727150538468
      ],
      [
        "▁abarw",
        -9.61460790483788
      ],
      [
        "sl",
        -9.615193370045542
      ],
      [
        "▁Mau",
        -9.615498392570458
      ],
      [
        "ashoboka",
        -9.615804352544075
      ],
      [
        "shikiramwo",
        -9.616912147115105
      ],
      [
        "▁Ubwa",
        -9.617474713181332
      ],
      [
        "▁imvug",
        -9.618529688533496
      ],
      [
        "▁19.",
        -9.618630948051049
      ],
      [
        "gikora",
        -9.619310523638532
      ],
      [
        "85",
        -9.619698131876678
      ],
      [
        "bazo",
        -9.620138330815683
      ],
      [
        "zofat",
        -9.620738387187311
      ],
      [
        "aga",
        -9.620759913277084
      ],
      [
        "bola",
        -9.62175071550857
      ],
      [
        "▁ubushu",
        -9.62281203968892
      ],
      [
        "kwi",
        -9.622923059041822
      ],
      [
        "▁mikur",
        -9.623273688120713
      ],
      [
        "itegekany",
        -9.623516635261542
      ],
      [
        "▁rwandiko",
        -9.62422218276144
      ],
      [
        "▁kwita",
        -9.624678699223999
      ],
      [
        "▁mumaz",
        -9.625462973626792
      ],
      [
        "arine",
        -9.625751849872588
      ],
      [
        "di",
        -9.625871247109826
      ],
      [
        "▁Str",
        -9.62715974742044
      ],
      [
        "▁Twin",
        -9.627711051913185
      ],
      [
        "▁mw'",
        -9.628120081267683
      ],
      [
        "rich",
        -9.628590740859664
      ],
      [
        "▁n’ibibu",
        -9.629025524144186
      ],
      [
        "▁bafash",
        -9.629101112552913
      ],
      [
        "▁ibitsina",
        -9.629426064874801
      ],
      [
        "zida",
        -9.629470006874005
      ],
      [
        "▁Yavu",
        -9.629551284442535
      ],
      [
        "▁n'amat",
        -9.629623006855782
      ],
      [
        "▁bifat",
        -9.630691207745752
      ],
      [
        "▁rup",
        -9.63101435929835
      ],
      [
        "isaba",
        -9.631301266794303
      ],
      [
        "▁bwit",
        -9.631984099175586
      ],
      [
        "▁iv",
        -9.632200362299164
      ],
      [
        "▁2000",
        -9.633267876939875
      ],
      [
        "akanogo",
        -9.63352827913925
      ],
      [
        "▁mpanu",
        -9.6341059269121
      ],
      [
        "kirindir",
        -9.635319003382856
      ],
      [
        "▁Muny",
        -9.635896573311097
      ],
      [
        "der",
        -9.636792971228482
      ],
      [
        "▁Ott",
        -9.638047982292598
      ],
      [
        "▁uja",
        -9.638144752666893
      ],
      [
        "bahinga",
        -9.640684854223387
      ],
      [
        "▁Ve",
        -9.640738170620564
      ],
      [
        "▁gup",
        -9.641200422361448
      ],
      [
        "0)",
        -9.641804523181559
      ],
      [
        "▁Mis",
        -9.642717127695114
      ],
      [
        "▁bake",
        -9.642839970903996
      ],
      [
        "meza",
        -9.643121992162959
      ],
      [
        "▁Mar",
        -9.643807943481455
      ],
      [
        "ubuyobozi",
        -9.64420865188879
      ],
      [
        "▁igitab",
        -9.644329479415665
      ],
      [
        "▁amaso",
        -9.645141337806127
      ],
      [
        "rani",
        -9.645378467934878
      ],
      [
        "'ibirunga",
        -9.646773890811028
      ],
      [
        "bafash",
        -9.649213571234553
      ],
      [
        "▁An",
        -9.64979934115772
      ],
      [
        "▁Ubug",
        -9.65028911847329
      ],
      [
        "▁zikund",
        -9.651140641962087
      ],
      [
        "vol",
        -9.65201711276094
      ],
      [
        "▁Ko",
        -9.652324124530383
      ],
      [
        "ex",
        -9.653442829113446
      ],
      [
        "araba",
        -9.65362172526502
      ],
      [
        "ndar",
        -9.65370001836546
      ],
      [
        "banyeshur",
        -9.654443439601504
      ],
      [
        "▁Ge",
        -9.655010946635075
      ],
      [
        "komere",
        -9.655615990560916
      ],
      [
        "▁bilom",
        -9.656233204140424
      ],
      [
        "ubura",
        -9.657948966988885
      ],
      [
        "ilande",
        -9.658487458436747
      ],
      [
        "▁Che",
        -9.658790762133789
      ],
      [
        "▁uka",
        -9.658950188134028
      ],
      [
        "▁kug",
        -9.659926634617117
      ],
      [
        "▁biz",
        -9.660155228772984
      ],
      [
        "bendera",
        -9.660218554008821
      ],
      [
        "tanga",
        -9.660375747584476
      ],
      [
        "▁2.",
        -9.661608964091073
      ],
      [
        "▁nuku",
        -9.661719096690957
      ],
      [
        "▁w'u",
        -9.661954652038533
      ],
      [
        "ectu",
        -9.662027476706125
      ],
      [
        "▁kugaban",
        -9.66247984094938
      ],
      [
        "▁Th",
        -9.66374546126281
      ],
      [
        "ubu",
        -9.664765444696947
      ],
      [
        "idatomo",
        -9.666271278380533
      ],
      [
        "▁bw'ama",
        -9.66642060499176
      ],
      [
        "▁kuha",
        -9.666612640853852
      ],
      [
        "igenz",
        -9.667119337180626
      ],
      [
        "geza",
        -9.667585087527923
      ],
      [
        "kambi",
        -9.668381746723801
      ],
      [
        "▁z'im",
        -9.668609618549556
      ],
      [
        "0,",
        -9.668959241893281
      ],
      [
        "▁Sta",
        -9.670948981217414
      ],
      [
        "▁rib",
        -9.672034903644901
      ],
      [
        "▁guha",
        -9.672268013402775
      ],
      [
        "▁n'imyo",
        -9.672343949976725
      ],
      [
        "▁bir",
        -9.67241379827033
      ],
      [
        "▁kar",
        -9.674630321647987
      ],
      [
        "'Ubutaliyano",
        -9.674697710561706
      ],
      [
        "▁ubutu",
        -9.675710294833475
      ],
      [
        "▁haku",
        -9.676090318403073
      ],
      [
        "lack",
        -9.676135207137564
      ],
      [
        "...",
        -9.67779237455032
      ],
      [
        "▁Bib",
        -9.677818101902773
      ],
      [
        "afasha",
        -9.678425531949125
      ],
      [
        "ianc",
        -9.678588889055687
      ],
      [
        "yiku",
        -9.67917273830184
      ],
      [
        "rije",
        -9.680160361570861
      ],
      [
        "'Ubushinwa",
        -9.680405555806997
      ],
      [
        "▁barabara",
        -9.681550273088476
      ],
      [
        "▁guke",
        -9.682002571150042
      ],
      [
        "▁Inyan",
        -9.682457333666575
      ],
      [
        "gerami",
        -9.683289234095394
      ],
      [
        "w'isi",
        -9.68355839749305
      ],
      [
        "ova",
        -9.687413585023739
      ],
      [
        "▁akomereke",
        -9.68829011243625
      ],
      [
        "kumir",
        -9.688730428750437
      ],
      [
        "▁rw’",
        -9.689689591286175
      ],
      [
        "Isi",
        -9.690101688812547
      ],
      [
        "▁gariyamoshi",
        -9.690710057787044
      ],
      [
        "▁atsindir",
        -9.690836091299639
      ],
      [
        "ijan",
        -9.690863711901676
      ],
      [
        "▁Be",
        -9.690898264113512
      ],
      [
        "▁mp",
        -9.69101205763667
      ],
      [
        "muhira",
        -9.69149392787282
      ],
      [
        "bishobo",
        -9.692692546391353
      ],
      [
        "▁muzo",
        -9.693511864027537
      ],
      [
        "por",
        -9.693721770523736
      ],
      [
        "rihish",
        -9.693785815956613
      ],
      [
        "▁kig",
        -9.693907112748402
      ],
      [
        "modoka",
        -9.694504218360398
      ],
      [
        "amahoteli",
        -9.695038048863042
      ],
      [
        "shushe",
        -9.69552008171154
      ],
      [
        "...nd",
        -9.695990226137907
      ],
      [
        "w'intara",
        -9.69616759143163
      ],
      [
        "▁kira",
        -9.696180474099888
      ],
      [
        "gukira",
        -9.696911120343378
      ],
      [
        "▁mubi",
        -9.697699633938303
      ],
      [
        "imi",
        -9.698499194544642
      ],
      [
        "yipfuz",
        -9.70074150193368
      ],
      [
        "▁2,2",
        -9.70114569022692
      ],
      [
        "▁barek",
        -9.701265776471063
      ],
      [
        "▁Ibih",
        -9.701471910773765
      ],
      [
        "mb",
        -9.701520291380042
      ],
      [
        "▁rim",
        -9.703217345170309
      ],
      [
        "▁ikab",
        -9.70351386347689
      ],
      [
        "▁Han",
        -9.703592827573042
      ],
      [
        "▁7",
        -9.704243728123863
      ],
      [
        "izw",
        -9.70432100323694
      ],
      [
        "ganir",
        -9.704470669730139
      ],
      [
        "omo",
        -9.705841310851703
      ],
      [
        "fe",
        -9.706037917921886
      ],
      [
        "▁wama",
        -9.70633627705326
      ],
      [
        "'abashinga",
        -9.708450842188757
      ],
      [
        "terwa",
        -9.708513382425338
      ],
      [
        "▁ivy'ama",
        -9.709851627387986
      ],
      [
        "▁kugwan",
        -9.709915720645062
      ],
      [
        "mushoferi",
        -9.710529434732695
      ],
      [
        "▁hata",
        -9.710652576940005
      ],
      [
        "00",
        -9.711445725092721
      ],
      [
        "▁Uf",
        -9.71243383368951
      ],
      [
        "▁Pe",
        -9.716118110093527
      ],
      [
        "iv",
        -9.716513548571054
      ],
      [
        "poli",
        -9.720159160598998
      ],
      [
        "atungan",
        -9.723287421188838
      ],
      [
        "▁caho",
        -9.72436110620684
      ],
      [
        "har",
        -9.724875366018166
      ],
      [
        "▁198",
        -9.725564062611863
      ],
      [
        "▁haka",
        -9.725823228836676
      ],
      [
        "agerage",
        -9.72585286071289
      ],
      [
        "toniya",
        -9.725925120461344
      ],
      [
        "▁́ubu",
        -9.72671325066234
      ],
      [
        "yarafash",
        -9.729429645904363
      ],
      [
        "▁kuvya",
        -9.731469533150689
      ],
      [
        "hahana",
        -9.73192061636663
      ],
      [
        "genga",
        -9.732852510482536
      ],
      [
        "▁tuba",
        -9.733030462271275
      ],
      [
        "ihuta",
        -9.733983296150138
      ],
      [
        "amb",
        -9.734302097152003
      ],
      [
        "ikiye",
        -9.737060919883751
      ],
      [
        "kanje",
        -9.737203930537067
      ],
      [
        "itege",
        -9.737623690412404
      ],
      [
        "idafi",
        -9.73826052766381
      ],
      [
        "timba",
        -9.738981025169245
      ],
      [
        "▁hasi",
        -9.740075270563832
      ],
      [
        "▁gutembere",
        -9.740083804824529
      ],
      [
        "bok",
        -9.741948274429927
      ],
      [
        "ish",
        -9.742971208641173
      ],
      [
        "ngola,",
        -9.743701634625346
      ],
      [
        "iyaga",
        -9.743917828640322
      ],
      [
        "▁wob",
        -9.743970160855675
      ],
      [
        "uc",
        -9.745064622420191
      ],
      [
        "bugiz",
        -9.746156651416728
      ],
      [
        "▁kurek",
        -9.7471166973393
      ],
      [
        "▁yakoresh",
        -9.7475024305242
      ],
      [
        "kikij",
        -9.748286657036486
      ],
      [
        "▁Ar",
        -9.7506618299647
      ],
      [
        "rundi",
        -9.750802213264679
      ],
      [
        "▁bwat",
        -9.751855385933881
      ],
      [
        "▁Me",
        -9.751917640554241
      ],
      [
        "ngika",
        -9.752591774761042
      ],
      [
        "▁ifa",
        -9.752780228819347
      ],
      [
        "oto",
        -9.755385200658196
      ],
      [
        "▁ubusumba",
        -9.755751555025071
      ],
      [
        "▁bisab",
        -9.755761040242593
      ],
      [
        "▁rwe",
        -9.756205266738158
      ],
      [
        "▁barabik",
        -9.757382087551596
      ],
      [
        "ambaye",
        -9.757487193240166
      ],
      [
        "▁big",
        -9.75748797113448
      ],
      [
        "abansi",
        -9.758957617683183
      ],
      [
        "▁Afu",
        -9.759970036069324
      ],
      [
        "sigaye",
        -9.761913170829738
      ],
      [
        "ipim",
        -9.765163798810299
      ],
      [
        "urunani",
        -9.765189483514023
      ],
      [
        "hasha",
        -9.765554321716792
      ],
      [
        "▁nk'ib",
        -9.766512833558911
      ],
      [
        "▁ihur",
        -9.767405480959358
      ],
      [
        "avuze",
        -9.767643010172584
      ],
      [
        "rutse",
        -9.767659466332066
      ],
      [
        "▁Maro",
        -9.767875087001661
      ],
      [
        "ababa",
        -9.770979205810598
      ],
      [
        "anir",
        -9.771274552866121
      ],
      [
        "▁kigo",
        -9.772425581856595
      ],
      [
        "yungu",
        -9.77271016669145
      ],
      [
        "▁His",
        -9.773214909503947
      ],
      [
        "amara",
        -9.774342552263144
      ],
      [
        "▁atera",
        -9.775029734740041
      ],
      [
        "ul",
        -9.7761447392462
      ],
      [
        "iterwa",
        -9.777664123697166
      ],
      [
        "baba",
        -9.779859476142851
      ],
      [
        "ugira",
        -9.781604069820775
      ],
      [
        "▁Ic",
        -9.782263133211607
      ],
      [
        "▁Stra",
        -9.782347987487624
      ],
      [
        "ishikan",
        -9.782688611624938
      ],
      [
        "▁bumwe",
        -9.783121235086028
      ],
      [
        "tondo",
        -9.783754564908538
      ],
      [
        "ahise",
        -9.784307330096055
      ],
      [
        "▁ikag",
        -9.784617531423219
      ],
      [
        "▁bataz",
        -9.785632663087469
      ],
      [
        "▁c'u",
        -9.786254979572387
      ],
      [
        "▁git",
        -9.786440484443618
      ],
      [
        "bantu",
        -9.786516264933752
      ],
      [
        "af",
        -9.786546339565998
      ],
      [
        "▁bwab",
        -9.787039092616524
      ],
      [
        "ush",
        -9.788047613025856
      ],
      [
        "buriz",
        -9.788779411199503
      ],
      [
        "▁n'urw",
        -9.788784539930973
      ],
      [
        "▁ibikur",
        -9.789301779611442
      ],
      [
        "shobo",
        -9.79424258912208
      ],
      [
        "eshwa",
        -9.794249153533354
      ],
      [
        "ambere",
        -9.794886160606305
      ],
      [
        "inezerez",
        -9.799796312183572
      ],
      [
        "▁baragira",
        -9.80080056554092
      ],
      [
        "▁zihu",
        -9.801386630401684
      ],
      [
        "▁ind",
        -9.801751565553554
      ],
      [
        "gum",
        -9.804497940120521
      ],
      [
        "mugamb",
        -9.804971360730956
      ],
      [
        "irindi",
        -9.805813498084825
      ],
      [
        "▁azotang",
        -9.805856594264512
      ],
      [
        "▁y'a",
        -9.80644182574167
      ],
      [
        "▁Ne",
        -9.808539981792377
      ],
      [
        "tita",
        -9.809931867370123
      ],
      [
        "gene",
        -9.811237986850646
      ],
      [
        "▁bagwa",
        -9.811469889806718
      ],
      [
        "ashaka",
        -9.812114737040465
      ],
      [
        "maziko",
        -9.814061522275612
      ],
      [
        "ugurukiramwo",
        -9.81426605719013
      ],
      [
        "ff",
        -9.814619186530084
      ],
      [
        "undi",
        -9.815168249026101
      ],
      [
        "isanzu",
        -9.81536772232356
      ],
      [
        "▁ukura",
        -9.815710539920685
      ],
      [
        "ster",
        -9.816472438468754
      ],
      [
        "▁Ibiro",
        -9.817263917721258
      ],
      [
        "ryosh",
        -9.817612209401647
      ],
      [
        "▁n'ing",
        -9.818719428596577
      ],
      [
        "▁agasha",
        -9.820451747834452
      ],
      [
        "▁Nk",
        -9.821117085558146
      ],
      [
        "hi",
        -9.822105283507643
      ],
      [
        "ywe",
        -9.823503789116083
      ],
      [
        "yanditse",
        -9.824580939741828
      ],
      [
        "w'amazinga",
        -9.825006796359276
      ],
      [
        "bunini",
        -9.826319078072315
      ],
      [
        "ation",
        -9.826389997705297
      ],
      [
        "urira",
        -9.826766101528221
      ],
      [
        "meye",
        -9.827114230654171
      ],
      [
        "▁n'ub",
        -9.827642478813203
      ],
      [
        "▁kuvy",
        -9.828927062751788
      ],
      [
        "▁kurwar",
        -9.831109530234688
      ],
      [
        "ugu",
        -9.832102921479807
      ],
      [
        "nes",
        -9.834949410158865
      ],
      [
        "▁biban",
        -9.837392426246051
      ],
      [
        "uzi",
        -9.838696719980446
      ],
      [
        "▁Bri",
        -9.838939018411843
      ],
      [
        "’",
        -9.840171905800634
      ],
      [
        "akomeretse",
        -9.84018389178472
      ],
      [
        "arangije",
        -9.84027238111977
      ],
      [
        "▁waho",
        -9.842686177409794
      ],
      [
        "arato",
        -9.843383785389438
      ],
      [
        "war",
        -9.843979428594945
      ],
      [
        "▁imih",
        -9.84531530756703
      ],
      [
        "▁n'u",
        -9.847288212626992
      ],
      [
        "ag",
        -9.848610091757678
      ],
      [
        "ibibarafu",
        -9.849297083649839
      ],
      [
        "▁mur",
        -9.849821411944493
      ],
      [
        "tungan",
        -9.85188687866359
      ],
      [
        "kwit",
        -9.852216802430195
      ],
      [
        "koreshej",
        -9.852535144455395
      ],
      [
        "▁iny",
        -9.852763976112145
      ],
      [
        "gomb",
        -9.853132062301142
      ],
      [
        "utwa",
        -9.854399693402435
      ],
      [
        "ibi",
        -9.85607932358893
      ],
      [
        "▁Ukwi",
        -9.857301360383637
      ],
      [
        "ifata",
        -9.857952198498484
      ],
      [
        "subiye",
        -9.858914446384624
      ],
      [
        "▁ubum",
        -9.860352776288314
      ],
      [
        "meri",
        -9.861146670474193
      ],
      [
        "yumvir",
        -9.861979193685652
      ],
      [
        "eka",
        -9.863130729154244
      ],
      [
        "▁kuguma",
        -9.863876356956116
      ],
      [
        "▁n'imit",
        -9.86431175290387
      ],
      [
        "▁murwa",
        -9.865328940650295
      ],
      [
        "▁utw",
        -9.865481367251473
      ],
      [
        "▁kurwan",
        -9.865522463359943
      ],
      [
        "▁yatan",
        -9.865604530882296
      ],
      [
        "asa",
        -9.866077725101793
      ],
      [
        "▁arat",
        -9.867981383222585
      ],
      [
        "aja",
        -9.86895345458437
      ],
      [
        "▁n'it",
        -9.870039145079055
      ],
      [
        "▁nki",
        -9.870618587715303
      ],
      [
        "▁kw’",
        -9.87208147849867
      ],
      [
        "adugan",
        -9.872151348440774
      ],
      [
        "▁masa",
        -9.872183664096013
      ],
      [
        "▁Iwa",
        -9.872842445647729
      ],
      [
        "mfungurwa",
        -9.873226870770543
      ],
      [
        "duga",
        -9.874223777549089
      ],
      [
        "isho",
        -9.874481815623685
      ],
      [
        "andi",
        -9.87457388018831
      ],
      [
        "bé",
        -9.875294019321236
      ],
      [
        "▁Is",
        -9.878056171348055
      ],
      [
        "im",
        -9.878324139204112
      ],
      [
        "amapine",
        -9.878572006197622
      ],
      [
        "▁yige",
        -9.878867683424298
      ],
      [
        "▁bim",
        -9.87898143473256
      ],
      [
        "urusengero",
        -9.879594004833578
      ],
      [
        "azogaruka",
        -9.880320803212392
      ],
      [
        "ngana",
        -9.881159057569615
      ],
      [
        "▁imiger",
        -9.882535552839855
      ],
      [
        "▁agap",
        -9.883552978202855
      ],
      [
        "goro",
        -9.884784161445625
      ],
      [
        "runani",
        -9.885797250892638
      ],
      [
        "pan",
        -9.887329325712775
      ],
      [
        "▁Va",
        -9.888566327777609
      ],
      [
        "nka",
        -9.888953788212339
      ],
      [
        "▁yatangu",
        -9.889561261982578
      ],
      [
        "itiye",
        -9.889645987535731
      ],
      [
        "nyu",
        -9.89273896030281
      ],
      [
        "▁kw'izin",
        -9.893490418270844
      ],
      [
        "▁buba",
        -9.893942708694388
      ],
      [
        "wanyu",
        -9.894072138831639
      ],
      [
        "▁kwog",
        -9.894125228337463
      ],
      [
        "▁Ir",
        -9.89421139705265
      ],
      [
        "ning",
        -9.895660330399256
      ],
      [
        "▁aj",
        -9.896263347090908
      ],
      [
        "▁kur",
        -9.899605831481447
      ],
      [
        "pita",
        -9.900012157972622
      ],
      [
        "iyamiri",
        -9.900148808608071
      ],
      [
        "lif",
        -9.90027653329861
      ],
      [
        "▁bibi",
        -9.901376306145156
      ],
      [
        "rist",
        -9.9040006838181
      ],
      [
        "cu",
        -9.904470468339657
      ],
      [
        "isco",
        -9.905635282909506
      ],
      [
        "taka",
        -9.905749757025209
      ],
      [
        "akozwe",
        -9.907377239660768
      ],
      [
        "unga",
        -9.90743865670274
      ],
      [
        "iteme",
        -9.90831227848806
      ],
      [
        "ubwonko",
        -9.908479328042972
      ],
      [
        "▁guk",
        -9.910503670306712
      ],
      [
        "azin",
        -9.911071744500921
      ],
      [
        "▁inz",
        -9.911893257980395
      ],
      [
        "▁ija",
        -9.913645106408167
      ],
      [
        "anij",
        -9.913669747940812
      ],
      [
        "ikikuj",
        -9.917973272291299
      ],
      [
        "▁w’u",
        -9.918874047970286
      ],
      [
        "iryo",
        -9.919511334316514
      ],
      [
        "▁itari",
        -9.92071925186856
      ],
      [
        "utandukanye",
        -9.92119907053353
      ],
      [
        "pe",
        -9.92258807186713
      ],
      [
        "'ubwonko",
        -9.923867373662388
      ],
      [
        "unzi",
        -9.924336458783072
      ],
      [
        "uzura",
        -9.92504767161371
      ],
      [
        "eg",
        -9.926191341978733
      ],
      [
        "onal",
        -9.926662823714203
      ],
      [
        "ikora",
        -9.92804994962926
      ],
      [
        "duka",
        -9.928532044865616
      ],
      [
        "▁agac",
        -9.92869313851542
      ],
      [
        "▁y'abab",
        -9.93034943524245
      ],
      [
        "horo",
        -9.930487463463763
      ],
      [
        "▁ikiz",
        -9.930528276427584
      ],
      [
        "ahu",
        -9.930968553102947
      ],
      [
        "▁k'umu",
        -9.93175416204004
      ],
      [
        "ivyatsi",
        -9.931901468468897
      ],
      [
        "bwe",
        -9.934108609986234
      ],
      [
        "akwiragi",
        -9.935329938237464
      ],
      [
        "4-1",
        -9.935710610169394
      ],
      [
        "▁ihiganw",
        -9.936221861493076
      ],
      [
        "▁kubura",
        -9.936775252184347
      ],
      [
        "aro",
        -9.938033058260544
      ],
      [
        "▁amabi",
        -9.941874906524133
      ],
      [
        "▁n'ivy'",
        -9.941946940367293
      ],
      [
        "kikuj",
        -9.94240674117419
      ],
      [
        "igoro",
        -9.94263293034537
      ],
      [
        "▁Nam",
        -9.943364671263236
      ],
      [
        "▁nk'in",
        -9.946370979529814
      ],
      [
        "▁ivyam",
        -9.947213782999505
      ],
      [
        "▁vy'ak",
        -9.947392307618928
      ],
      [
        "▁Zim",
        -9.948313115416656
      ],
      [
        "▁n'uwa",
        -9.948671540904996
      ],
      [
        "▁bashika",
        -9.948800783167481
      ],
      [
        "▁batan",
        -9.948859284853883
      ],
      [
        "ato",
        -9.949283443834176
      ],
      [
        "apit",
        -9.949317615343428
      ],
      [
        "nzura",
        -9.954512661176535
      ],
      [
        "'ibahari",
        -9.955293332635215
      ],
      [
        "▁n'iy",
        -9.956800169643314
      ],
      [
        "afu",
        -9.957425554792026
      ],
      [
        "▁Jo",
        -9.958429622347735
      ],
      [
        "yigan",
        -9.960225121246241
      ],
      [
        "buto",
        -9.960322194321128
      ],
      [
        "erereye",
        -9.960476800635929
      ],
      [
        "bah",
        -9.963235218861866
      ],
      [
        "▁Sk",
        -9.963322482279237
      ],
      [
        "▁n'abag",
        -9.96463988138589
      ],
      [
        "91",
        -9.964700676357548
      ],
      [
        "anada",
        -9.965612668693225
      ],
      [
        "du",
        -9.966814836624101
      ],
      [
        "éra",
        -9.968357748227495
      ],
      [
        "atanguriye",
        -9.968935309795802
      ],
      [
        "▁agera",
        -9.970056059819372
      ],
      [
        "▁muf",
        -9.97021441745293
      ],
      [
        "▁rur",
        -9.972028496217986
      ],
      [
        "amwe",
        -9.973025145780579
      ],
      [
        "▁ahez",
        -9.974321912215544
      ],
      [
        "▁n'uw",
        -9.975585772683251
      ],
      [
        "▁wik",
        -9.976054326488537
      ],
      [
        "980",
        -9.97779860918172
      ],
      [
        "tare",
        -9.977921620988997
      ],
      [
        "za.",
        -9.978522446053034
      ],
      [
        "▁Tr",
        -9.979247960521706
      ],
      [
        "turang",
        -9.981032298284783
      ],
      [
        "▁buv",
        -9.981043968409812
      ],
      [
        "qua",
        -9.981600682694058
      ],
      [
        "pp",
        -9.981898692005478
      ],
      [
        "▁Urubu",
        -9.982378656200543
      ],
      [
        "▁vyab",
        -9.983072038182314
      ],
      [
        "▁Aha",
        -9.983442298084775
      ],
      [
        "▁zica",
        -9.983528289115323
      ],
      [
        "ayi",
        -9.984933306167541
      ],
      [
        "avuyemwo",
        -9.988099803174617
      ],
      [
        "ranir",
        -9.988140902149853
      ],
      [
        "▁barareng",
        -9.988559994154308
      ],
      [
        "▁yasubi",
        -9.990358080814946
      ],
      [
        "ver",
        -9.99045247416995
      ],
      [
        "stin",
        -9.991464589596841
      ],
      [
        "▁Uw",
        -9.991780596338575
      ],
      [
        "▁ikaz",
        -9.993487847851744
      ],
      [
        "agoy",
        -9.99730030774339
      ],
      [
        "asoho",
        -9.99793708234545
      ],
      [
        "▁abata",
        -9.999414954132396
      ],
      [
        "▁amad",
        -10.000589926741805
      ],
      [
        "owen",
        -10.004672904279753
      ],
      [
        "▁kuburi",
        -10.004730101283965
      ],
      [
        "itan",
        -10.005160028098848
      ],
      [
        "hamba",
        -10.005668565281862
      ],
      [
        "'Ubwongereza",
        -10.00675865027408
      ],
      [
        "▁ibit",
        -10.00858740442749
      ],
      [
        "vad",
        -10.008796814948715
      ],
      [
        "▁ryit",
        -10.008994356925099
      ],
      [
        "akuru",
        -10.009075293927411
      ],
      [
        "wanisha",
        -10.009291799383549
      ],
      [
        "upa",
        -10.009851835056303
      ],
      [
        "▁Ost",
        -10.0098908658759
      ],
      [
        "arate",
        -10.009960611778915
      ],
      [
        "▁yarah",
        -10.010469924910883
      ],
      [
        "bisaka",
        -10.012052746353218
      ],
      [
        "▁gutember",
        -10.012305841346457
      ],
      [
        "bidanda",
        -10.012953582917573
      ],
      [
        "▁Ik",
        -10.013906589619621
      ],
      [
        "▁uguk",
        -10.014294245956426
      ],
      [
        "agahe",
        -10.014883280547268
      ],
      [
        "ngwa",
        -10.016584411288376
      ],
      [
        "yamir",
        -10.01664738655132
      ],
      [
        "▁y'ab",
        -10.016900236804645
      ],
      [
        "▁ubush",
        -10.017601618592046
      ],
      [
        "haboneka",
        -10.01878207686397
      ],
      [
        "▁n'ivy'i",
        -10.022282887518713
      ],
      [
        "fati",
        -10.022448747872582
      ],
      [
        "mes",
        -10.022479530442997
      ],
      [
        "zw",
        -10.022875938183214
      ],
      [
        "itiri",
        -10.026696595548563
      ],
      [
        "ryoherw",
        -10.027824031977683
      ],
      [
        "r-",
        -10.029097807627046
      ],
      [
        "abi",
        -10.029566429918663
      ],
      [
        "▁mushobo",
        -10.029632987968611
      ],
      [
        "hing",
        -10.03008169669496
      ],
      [
        "▁Bir",
        -10.03180207879948
      ],
      [
        "▁z'aban",
        -10.032381809343981
      ],
      [
        "▁mv",
        -10.036162388576214
      ],
      [
        "▁duk",
        -10.03780659209314
      ],
      [
        "▁bidasa",
        -10.038867686730983
      ],
      [
        "▁bagan",
        -10.039104433075856
      ],
      [
        "88",
        -10.040679728336883
      ],
      [
        "▁muki",
        -10.041215059347564
      ],
      [
        "▁b'i",
        -10.041764036087084
      ],
      [
        "wegera",
        -10.04207163082567
      ],
      [
        "kwiragi",
        -10.045831484267593
      ],
      [
        "ters",
        -10.04727027165209
      ],
      [
        "ys",
        -10.049153357128269
      ],
      [
        "▁muca",
        -10.05038287866956
      ],
      [
        "▁Ah",
        -10.051544711550786
      ],
      [
        "agati",
        -10.05318565478824
      ],
      [
        "ingenzi",
        -10.05499703856343
      ],
      [
        "yakore",
        -10.055014931742091
      ],
      [
        "mang",
        -10.055514919587791
      ],
      [
        "▁bwis",
        -10.059302555534321
      ],
      [
        "hera",
        -10.061467351647003
      ],
      [
        "yemwo",
        -10.06217588827705
      ],
      [
        "▁gihu",
        -10.06337205819278
      ],
      [
        "▁kugum",
        -10.063772781766062
      ],
      [
        "▁kwit",
        -10.064325610350684
      ],
      [
        "iciro",
        -10.064928820632016
      ],
      [
        "▁Fe",
        -10.065115162553608
      ],
      [
        "usi",
        -10.06669606327842
      ],
      [
        "▁vyerek",
        -10.066984468104923
      ],
      [
        "kiya",
        -10.067086800076204
      ],
      [
        "oron",
        -10.06778431286264
      ],
      [
        "▁kuryoh",
        -10.068094757180301
      ],
      [
        "▁vy'ibi",
        -10.068383287079037
      ],
      [
        "▁isu",
        -10.068591526843193
      ],
      [
        "hiti",
        -10.069900983199021
      ],
      [
        "isunz",
        -10.069920191869873
      ],
      [
        "▁iry",
        -10.070005488101817
      ],
      [
        "muri",
        -10.070748268856748
      ],
      [
        "▁ihar",
        -10.071702680578099
      ],
      [
        "▁zik",
        -10.076826099596923
      ],
      [
        "▁cara",
        -10.07764799933446
      ],
      [
        "bir",
        -10.07881515280539
      ],
      [
        "▁bike",
        -10.081264723451854
      ],
      [
        "itamenyerewe",
        -10.081333425601718
      ],
      [
        "▁Abag",
        -10.081456578723172
      ],
      [
        "itike",
        -10.08242901780541
      ],
      [
        "kigan",
        -10.08332376726685
      ],
      [
        "▁baragir",
        -10.08338169374714
      ],
      [
        "▁rufat",
        -10.090352398119208
      ],
      [
        "▁Gor",
        -10.090732905160042
      ],
      [
        "▁buf",
        -10.091094319230614
      ],
      [
        "reb",
        -10.09278447328818
      ],
      [
        "▁isab",
        -10.095897008576515
      ],
      [
        "▁mas",
        -10.09617793378784
      ],
      [
        "erwa",
        -10.096771760846496
      ],
      [
        "hunga",
        -10.099545264608237
      ],
      [
        "▁yate",
        -10.099558615246314
      ],
      [
        "irashobo",
        -10.100008627548469
      ],
      [
        "▁zitwa",
        -10.10116331297896
      ],
      [
        "huye",
        -10.101791510321577
      ],
      [
        "▁n’ing",
        -10.102087659058856
      ],
      [
        "▁ikin",
        -10.102610216806756
      ],
      [
        "hema",
        -10.102951378693968
      ],
      [
        "ito",
        -10.102988854867595
      ],
      [
        "▁Mw",
        -10.103129290739798
      ],
      [
        "wan",
        -10.104282710123222
      ],
      [
        "▁guta",
        -10.104989948356511
      ],
      [
        "▁n'amazin",
        -10.105193581411653
      ],
      [
        "umuntu",
        -10.105654690041076
      ],
      [
        "ubuseruk",
        -10.107493064937907
      ],
      [
        "ronder",
        -10.10776929423757
      ],
      [
        "▁ukund",
        -10.109199285545504
      ],
      [
        "▁uguka",
        -10.110323878465943
      ],
      [
        "ture",
        -10.110502820770806
      ],
      [
        "and",
        -10.11147208104968
      ],
      [
        "▁vyama",
        -10.112067043106808
      ],
      [
        "kw",
        -10.113298076501511
      ],
      [
        "ik",
        -10.113784088923225
      ],
      [
        "yig",
        -10.114036102642284
      ],
      [
        "gende",
        -10.115515822878116
      ],
      [
        "y'Abanyamerika",
        -10.116332718953116
      ],
      [
        "kengera",
        -10.11692708288001
      ],
      [
        "ambuka",
        -10.117322019128435
      ],
      [
        "▁indo",
        -10.118450768371833
      ],
      [
        "▁Os",
        -10.118539223147843
      ],
      [
        "kwand",
        -10.119333069014614
      ],
      [
        "▁́in",
        -10.120396027991454
      ],
      [
        "▁kw'is",
        -10.120467178220293
      ],
      [
        "▁ahan",
        -10.120536179700073
      ],
      [
        "▁azob",
        -10.121648378429754
      ],
      [
        "anji",
        -10.12184393317094
      ],
      [
        "ks",
        -10.124395874405465
      ],
      [
        "imigwi",
        -10.126134185511905
      ],
      [
        "Angola",
        -10.12684232675324
      ],
      [
        "angwa",
        -10.13036591374278
      ],
      [
        "▁wab",
        -10.131154971158717
      ],
      [
        "amba",
        -10.131331791844197
      ],
      [
        "▁haber",
        -10.132281104132122
      ],
      [
        "hoho",
        -10.132363221468859
      ],
      [
        "irish",
        -10.132923577310248
      ],
      [
        "zoba",
        -10.133368053885626
      ],
      [
        "▁ahab",
        -10.134264449006224
      ],
      [
        "fit",
        -10.134291328347508
      ],
      [
        "▁ukwiy",
        -10.13503950169112
      ],
      [
        "ruh",
        -10.137795009496669
      ],
      [
        "'ubuseruk",
        -10.138170314596403
      ],
      [
        "hara",
        -10.138373191840309
      ],
      [
        "iyumv",
        -10.138984121764878
      ],
      [
        "▁n’ama",
        -10.139000049512523
      ],
      [
        "end",
        -10.140852534267287
      ],
      [
        "▁yamenye",
        -10.1419491889908
      ],
      [
        "▁Fo",
        -10.141953864886709
      ],
      [
        "amin",
        -10.14244286790294
      ],
      [
        "tahur",
        -10.143888446461448
      ],
      [
        "▁Mas",
        -10.14661286631998
      ],
      [
        "rini",
        -10.146774654423403
      ],
      [
        "▁baj",
        -10.14777254678849
      ],
      [
        "▁atu",
        -10.147850040475362
      ],
      [
        "ino",
        -10.148539907144281
      ],
      [
        "ragira",
        -10.150079601510436
      ],
      [
        "▁agiz",
        -10.150727431590758
      ],
      [
        "abu",
        -10.150996880947512
      ],
      [
        "uhinga",
        -10.152779723957883
      ],
      [
        "uba",
        -10.152965742230064
      ],
      [
        "rwo",
        -10.153035969310425
      ],
      [
        "ok",
        -10.15378384266819
      ],
      [
        "kugendera",
        -10.154745384083693
      ],
      [
        "kish",
        -10.15491866823395
      ],
      [
        "▁guku",
        -10.155183225729257
      ],
      [
        "ker",
        -10.158565272814975
      ],
      [
        "▁Kwi",
        -10.158932658945105
      ],
      [
        "ap",
        -10.161365200972618
      ],
      [
        "▁Imi",
        -10.16384801141566
      ],
      [
        "▁z'igi",
        -10.165569759355595
      ],
      [
        "amu",
        -10.165622191616286
      ],
      [
        "esha",
        -10.165775028790385
      ],
      [
        "hambaye",
        -10.166308129450089
      ],
      [
        "▁mwis",
        -10.166356744814378
      ],
      [
        "▁n'amazi",
        -10.169528955407038
      ],
      [
        "ashima",
        -10.17076084648362
      ],
      [
        "ndiri",
        -10.17094690496053
      ],
      [
        "▁hashobo",
        -10.173764317426706
      ],
      [
        "▁24.",
        -10.175205030736443
      ],
      [
        "▁ngir",
        -10.175239548910598
      ],
      [
        "▁50",
        -10.17544298730637
      ],
      [
        "▁bug",
        -10.17724082598729
      ],
      [
        "ws",
        -10.180369780556195
      ],
      [
        "'amaso",
        -10.18077339274963
      ],
      [
        "shima",
        -10.18322879751096
      ],
      [
        "kor",
        -10.184274111602003
      ],
      [
        "▁atang",
        -10.185181154959624
      ],
      [
        "▁\"i",
        -10.18541215782547
      ],
      [
        "▁guhu",
        -10.185895829706322
      ],
      [
        "ubici",
        -10.187874337080293
      ],
      [
        "hote",
        -10.188576361894045
      ],
      [
        "▁but",
        -10.190789961044034
      ],
      [
        "▁ibiny",
        -10.191152620125441
      ],
      [
        "▁uruha",
        -10.19295426970198
      ],
      [
        "▁ziz",
        -10.193891286768384
      ],
      [
        "▁bikor",
        -10.196488540947303
      ],
      [
        "kwiyereka",
        -10.197479418146019
      ],
      [
        "gorana",
        -10.199616118677467
      ],
      [
        "inga",
        -10.200448784755011
      ],
      [
        "250",
        -10.200537511037833
      ],
      [
        "▁y’ik",
        -10.201157195177718
      ],
      [
        "birori",
        -10.201284399391119
      ],
      [
        "▁yaru",
        -10.201638830193389
      ],
      [
        "egere",
        -10.203302455131201
      ],
      [
        "zogaruka",
        -10.205604284607462
      ],
      [
        "▁(r",
        -10.207452113099041
      ],
      [
        "ant",
        -10.207830923943883
      ],
      [
        "▁n’umu",
        -10.207897725507367
      ],
      [
        "▁Ham",
        -10.20807076053659
      ],
      [
        "▁igen",
        -10.208086816006052
      ],
      [
        "▁Imis",
        -10.208266327389785
      ],
      [
        "gwi",
        -10.209471105302626
      ],
      [
        "gwaye",
        -10.211911092260875
      ],
      [
        "itswe",
        -10.214293837433926
      ],
      [
        "▁Umw",
        -10.216112443828758
      ],
      [
        "'urunani",
        -10.21713505502142
      ],
      [
        "get",
        -10.220115129172111
      ],
      [
        "ubuga",
        -10.220770389824205
      ],
      [
        "▁Sai",
        -10.224086845048467
      ],
      [
        "bere",
        -10.226645898552722
      ],
      [
        "ame",
        -10.229098865547254
      ],
      [
        "hare",
        -10.23052448406243
      ],
      [
        "▁n'is",
        -10.231380409022087
      ],
      [
        "▁bw'ibi",
        -10.23203183308169
      ],
      [
        "vya",
        -10.23215937175837
      ],
      [
        "▁zibi",
        -10.232699116600907
      ],
      [
        "78",
        -10.233867820283143
      ],
      [
        "ruhu",
        -10.235565975746738
      ],
      [
        "uge",
        -10.236135358186475
      ],
      [
        "▁yashinz",
        -10.236708831679806
      ],
      [
        "ah",
        -10.237310810355403
      ],
      [
        "tegekan",
        -10.237692612728065
      ],
      [
        "▁babon",
        -10.238631751539312
      ],
      [
        "bwoba",
        -10.238998510801311
      ],
      [
        "▁gukore",
        -10.239246094625038
      ],
      [
        "ini",
        -10.24105312990078
      ],
      [
        "ihe",
        -10.241115870817508
      ],
      [
        "▁amaz",
        -10.242146072065838
      ],
      [
        "▁mit",
        -10.242582496614336
      ],
      [
        "▁Ho",
        -10.242585197471943
      ],
      [
        "kirem",
        -10.24267272717412
      ],
      [
        "▁man",
        -10.243077553397944
      ],
      [
        "olon",
        -10.243305418857942
      ],
      [
        "▁can",
        -10.244272361006473
      ],
      [
        "▁ibiz",
        -10.244897470007203
      ],
      [
        "bush",
        -10.246962299342957
      ],
      [
        "▁bandi",
        -10.248021899963145
      ],
      [
        "▁ryac",
        -10.248396005180917
      ],
      [
        "uwe",
        -10.251108307215635
      ],
      [
        "imb",
        -10.251118166649926
      ],
      [
        "▁́ub",
        -10.25119995611967
      ],
      [
        "umuga",
        -10.253202880454564
      ],
      [
        "▁ije",
        -10.254386718344541
      ],
      [
        "rusi",
        -10.25468174788381
      ],
      [
        "▁Sen",
        -10.25469196004878
      ],
      [
        "ung",
        -10.258870183233318
      ],
      [
        "id",
        -10.260683036641895
      ],
      [
        "▁bikoz",
        -10.261460998241958
      ],
      [
        "ash",
        -10.261935080400336
      ],
      [
        "nyeshur",
        -10.26229448109298
      ],
      [
        "muken",
        -10.264137687520638
      ],
      [
        "▁Oli",
        -10.264803685241361
      ],
      [
        "suzu",
        -10.265286776535351
      ],
      [
        "▁bwar",
        -10.265508495388143
      ],
      [
        "▁n'imig",
        -10.267353216881245
      ],
      [
        "duc",
        -10.268283151175531
      ],
      [
        "ashoboye",
        -10.27061639297765
      ],
      [
        "ahanye",
        -10.271603996757015
      ],
      [
        "nos",
        -10.271974820288216
      ],
      [
        "sho",
        -10.272092274355954
      ],
      [
        "▁wagu",
        -10.272345414444601
      ],
      [
        "oter",
        -10.27290531043888
      ],
      [
        "▁ryeme",
        -10.275090282928709
      ],
      [
        "▁irak",
        -10.27536304222599
      ],
      [
        "▁nk'ub",
        -10.275740029869954
      ],
      [
        "aza",
        -10.276058295876497
      ],
      [
        "atsindi",
        -10.276349252237894
      ],
      [
        "▁n'ivy'a",
        -10.280894718192126
      ],
      [
        "▁umugw",
        -10.28195252422055
      ],
      [
        "zito",
        -10.282213773377293
      ],
      [
        "▁ubuzi",
        -10.282276899025629
      ],
      [
        "car",
        -10.283040514980899
      ],
      [
        "▁kugwa",
        -10.283585678971795
      ],
      [
        "nir",
        -10.286960954384378
      ],
      [
        "ect",
        -10.287876771344326
      ],
      [
        "▁igitu",
        -10.288664640924253
      ],
      [
        "▁gishi",
        -10.29030482858759
      ],
      [
        "muntu",
        -10.290469533060131
      ],
      [
        "▁w'is",
        -10.291041334133551
      ],
      [
        "sand",
        -10.291064570489748
      ],
      [
        "hira",
        -10.29151370374468
      ],
      [
        "tone",
        -10.291970665046222
      ],
      [
        "ure",
        -10.292881267216693
      ],
      [
        "▁gitu",
        -10.293322954283033
      ],
      [
        "shing",
        -10.294937356790193
      ],
      [
        "woko",
        -10.295391495424905
      ],
      [
        "igenga",
        -10.2968363818434
      ],
      [
        "▁rw'inde",
        -10.297036175693318
      ],
      [
        "▁ryab",
        -10.297086694215036
      ],
      [
        "avugi",
        -10.297148725356976
      ],
      [
        "▁iha",
        -10.2977760327348
      ],
      [
        "aku",
        -10.299880751712323
      ],
      [
        "shirij",
        -10.302179220348402
      ],
      [
        "mw",
        -10.302927514079872
      ],
      [
        "▁ir",
        -10.30312438023874
      ],
      [
        "tegu",
        -10.305401004874684
      ],
      [
        "w'I",
        -10.3070519211799
      ],
      [
        "▁yagende",
        -10.307242367429028
      ],
      [
        "aravuze",
        -10.308079652737469
      ],
      [
        "▁higanwa",
        -10.308108169140112
      ],
      [
        "asab",
        -10.30825595045958
      ],
      [
        "'igihugu",
        -10.311091649415342
      ],
      [
        "▁Ot",
        -10.312030832254486
      ],
      [
        "shikir",
        -10.312660133105798
      ],
      [
        "▁Lu",
        -10.315703422369001
      ],
      [
        "hengam",
        -10.31687058311475
      ],
      [
        "▁babw",
        -10.316966029259296
      ],
      [
        "▁barik",
        -10.318229741274767
      ],
      [
        "▁ture",
        -10.319212332895905
      ],
      [
        "tunga",
        -10.32138993797055
      ],
      [
        "▁Nku",
        -10.321709292755349
      ],
      [
        "▁inyo",
        -10.32515663005416
      ],
      [
        "▁n'im",
        -10.325659778901178
      ],
      [
        "uvuga",
        -10.326039058869567
      ],
      [
        "▁(ah",
        -10.32756981871507
      ],
      [
        "▁c'im",
        -10.327831993446512
      ],
      [
        "▁maja",
        -10.328958988157513
      ],
      [
        "arere",
        -10.329688688774798
      ],
      [
        "▁yarar",
        -10.330809660648962
      ],
      [
        "ando",
        -10.33131730651043
      ],
      [
        "▁ito",
        -10.331388219308682
      ],
      [
        "▁bihindu",
        -10.332810672676619
      ],
      [
        "▁bire",
        -10.33438956815133
      ],
      [
        "ashe",
        -10.335641471044582
      ],
      [
        "ashize",
        -10.335885453881268
      ],
      [
        "uhu",
        -10.336121420436495
      ],
      [
        "menyera",
        -10.336696306067141
      ],
      [
        "inyabu",
        -10.3374676577771
      ],
      [
        "akomereka",
        -10.33765069400103
      ],
      [
        "zako",
        -10.338122659419856
      ],
      [
        "himi",
        -10.338448306141666
      ],
      [
        "un",
        -10.338648423559892
      ],
      [
        "ad",
        -10.338857034261915
      ],
      [
        "▁ag",
        -10.339590187506793
      ],
      [
        "induka",
        -10.340291704163805
      ],
      [
        "▁cum",
        -10.341143610433711
      ],
      [
        "rse",
        -10.341342199808182
      ],
      [
        "▁n'ah",
        -10.342902027952096
      ],
      [
        "▁bazob",
        -10.343020790644474
      ],
      [
        "guha",
        -10.344760596613368
      ],
      [
        "'intamba",
        -10.345769661514193
      ],
      [
        "▁Pi",
        -10.345914694953237
      ],
      [
        "▁Rw",
        -10.346432397010657
      ],
      [
        "tos",
        -10.347309291000592
      ],
      [
        "▁Shi",
        -10.348822871270055
      ],
      [
        "kwidagadur",
        -10.349556300382334
      ],
      [
        "cagu",
        -10.350489037689693
      ],
      [
        "▁tub",
        -10.350556831278027
      ],
      [
        "sozi",
        -10.350689599018146
      ],
      [
        "ug",
        -10.350782911139374
      ],
      [
        "w’aba",
        -10.35176401881981
      ],
      [
        "▁yerek",
        -10.352175099369775
      ],
      [
        "Op",
        -10.353533234464575
      ],
      [
        "shwa",
        -10.354953665839819
      ],
      [
        "pa",
        -10.356137433064585
      ],
      [
        "▁bakin",
        -10.357578138644143
      ],
      [
        "ongeye",
        -10.36021991632441
      ],
      [
        "▁so",
        -10.360317524904193
      ],
      [
        "▁yiga",
        -10.361883379270806
      ],
      [
        "ger",
        -10.362533966599315
      ],
      [
        "umber",
        -10.363481459185872
      ],
      [
        "renga",
        -10.363726523631929
      ],
      [
        "▁igatu",
        -10.365365254043269
      ],
      [
        "akurikiran",
        -10.366126141136172
      ],
      [
        "▁rw'u",
        -10.366344979257777
      ],
      [
        "▁y'abak",
        -10.366423461866361
      ],
      [
        "▁Ikig",
        -10.36779063150856
      ],
      [
        "gitigu",
        -10.36851536816442
      ],
      [
        "egon",
        -10.36859534706155
      ],
      [
        "mvye",
        -10.368721252159963
      ],
      [
        "iko",
        -10.368857174311952
      ],
      [
        "kandi",
        -10.36994786538028
      ],
      [
        "▁y'In",
        -10.37039676780498
      ],
      [
        "atatu",
        -10.370433738839221
      ],
      [
        "▁my",
        -10.370614589225
      ],
      [
        "▁yish",
        -10.371162303990598
      ],
      [
        "▁bakiri",
        -10.37145176341127
      ],
      [
        "▁y'amat",
        -10.371874641818941
      ],
      [
        "▁y'ikir",
        -10.372048489357914
      ],
      [
        "agana",
        -10.372418884110429
      ],
      [
        "oba",
        -10.37358190016199
      ],
      [
        "oza",
        -10.373696249287871
      ],
      [
        "ber",
        -10.377718690439746
      ],
      [
        "azobura",
        -10.377846547762411
      ],
      [
        "oga",
        -10.38177196117318
      ],
      [
        "▁ntu",
        -10.382961835154457
      ],
      [
        "shasha.",
        -10.384183593577436
      ],
      [
        "▁yaratang",
        -10.386668399385572
      ],
      [
        "gutegeka",
        -10.387331700627364
      ],
      [
        "tubu",
        -10.388314473523641
      ],
      [
        "gurwa",
        -10.388586532558792
      ],
      [
        "witabir",
        -10.391827650237902
      ],
      [
        "▁Twi",
        -10.39222922808202
      ],
      [
        "ashitse",
        -10.392782772078395
      ],
      [
        "▁umug",
        -10.393228373921895
      ],
      [
        "ey",
        -10.39672738697647
      ],
      [
        "▁guto",
        -10.39938578297997
      ],
      [
        "▁199",
        -10.400626417058097
      ],
      [
        "obo",
        -10.40108515692288
      ],
      [
        "▁n’in",
        -10.40138939975068
      ],
      [
        "uga",
        -10.401459455830215
      ],
      [
        "▁Wa",
        -10.401766336058408
      ],
      [
        "tanzwe",
        -10.40198598891009
      ],
      [
        "▁utur",
        -10.402879945772957
      ],
      [
        "▁z'umus",
        -10.402905197240191
      ],
      [
        "▁akomerek",
        -10.402932813319664
      ],
      [
        "▁bavuye",
        -10.403193296602046
      ],
      [
        "kigeragez",
        -10.403306038067607
      ],
      [
        "buraruko",
        -10.404166103320353
      ],
      [
        "▁vyata",
        -10.40445605151793
      ],
      [
        "▁agash",
        -10.405011323537757
      ],
      [
        "akora",
        -10.405779652270525
      ],
      [
        "iva",
        -10.406325035743816
      ],
      [
        "ikorwa",
        -10.407368216047319
      ],
      [
        "ango",
        -10.407508739047895
      ],
      [
        "▁yemez",
        -10.40775559248488
      ],
      [
        "itagira",
        -10.409594427650182
      ],
      [
        "fungurwa",
        -10.410749883778152
      ],
      [
        "mato",
        -10.411505124413669
      ],
      [
        "gendesh",
        -10.412066714333593
      ],
      [
        "bumanuko",
        -10.412708683717977
      ],
      [
        "▁babe",
        -10.413633405112897
      ],
      [
        "▁ika",
        -10.414329822418951
      ],
      [
        "▁intum",
        -10.417266742630723
      ],
      [
        "zima",
        -10.418413194535573
      ],
      [
        "▁ishikira",
        -10.418483987139336
      ],
      [
        "U",
        -10.418612705767838
      ],
      [
        "é",
        -10.41956516213395
      ],
      [
        "bushak",
        -10.419686583736155
      ],
      [
        "mategeko",
        -10.420881935577347
      ],
      [
        "nshi",
        -10.420944820638136
      ],
      [
        "anda",
        -10.421577115179929
      ],
      [
        "ategeka",
        -10.421830845549097
      ],
      [
        "fashany",
        -10.423164443863191
      ],
      [
        "rushi",
        -10.423513152036335
      ],
      [
        "akoreshwa",
        -10.424002695675739
      ],
      [
        "garaga",
        -10.424627870940707
      ],
      [
        "low",
        -10.425275531405894
      ],
      [
        "▁Kuki",
        -10.426723447605232
      ],
      [
        "▁n'ibis",
        -10.427942645440767
      ],
      [
        "ukene",
        -10.429918183113324
      ],
      [
        "anzwe",
        -10.43040833159366
      ],
      [
        "sli",
        -10.430722630661979
      ],
      [
        "ivyo",
        -10.433567052125927
      ],
      [
        "▁atw",
        -10.434239151331745
      ],
      [
        "▁birik",
        -10.434492155607964
      ],
      [
        "zimvye",
        -10.434892138794417
      ],
      [
        "uhagarar",
        -10.43489373540251
      ],
      [
        "▁amat",
        -10.434932648505402
      ],
      [
        "batazi",
        -10.438606717765936
      ],
      [
        "intamb",
        -10.439153416666553
      ],
      [
        "▁gis",
        -10.44018661385379
      ],
      [
        "ome",
        -10.441448121170493
      ],
      [
        "ikwira",
        -10.441496055486775
      ],
      [
        "rengero",
        -10.443450043956162
      ],
      [
        "▁rw'ama",
        -10.443672586187681
[...]
