{
  "version": "1.0",
  "truncation": null,
  "padding": null,
  "added_tokens": [
    {
      "id": 0,
      "content": "<pad>",
      "single_word": false,
      "lstrip": false,
      "rstrip": false,
      "normalized": false,
      "special": true
    },
    {
      "id": 1,
      "content": "<unk>",
      "single_word": false,
      "lstrip": false,
      "rstrip": false,
      "normalized": false,
      "special": true
    },
    {
      "id": 2,
      "content": "<cls>",
      "single_word": false,
      "lstrip": false,
      "rstrip": false,
      "normalized": false,
      "special": true
    }
  ],
  "normalizer": {
    "type": "Sequence",
    "normalizers": [
      {
        "type": "Nmt"
      },
      {
        "type": "NFKC"
      },
      {
        "type": "Replace",
        "pattern": {
          "Regex": " {2,}"
        },
        "content": " "
      }
    ]
  },
  "pre_tokenizer": {
    "type": "Metaspace",
    "replacement": "▁",
    "prepend_scheme": "always",
    "split": true
  },
  "post_processor": {
    "type": "TemplateProcessing",
    "single": [
      {
        "SpecialToken": {
          "id": "<cls>",
          "type_id": 0
        }
      },
      {
        "Sequence": {
          "id": "A",
          "type_id": 0
        }
      }
    ],
    "pair": [
      {
        "Sequence": {
          "id": "A",
          "type_id": 0
        }
      },
      {
        "Sequence": {
          "id": "B",
          "type_id": 1
        }
      }
    ],
    "special_tokens": {
      "<cls>": {
        "id": "<cls>",
        "ids": [
          2
        ],
        "tokens": [
          "<cls>"
        ]
      }
    }
  },
  "decoder": {
    "type": "Metaspace",
    "replacement": "▁",
    "prepend_scheme": "always",
    "split": true
  },
  "model": {
    "type": "Unigram",
    "unk_id": 1,
    "vocab": [
      [
        "<pad>",
        0.0
      ],
      [
        "<unk>",
        0.0
      ],
      [
        "<cls>",
        0.0
      ],
      [
        "▁",
        -3.0643781269247246
      ],
      [
        "a",
        -3.355540368787188
      ],
      [
        ",",
        -3.5543775160235604
      ],
      [
        ".",
        -3.6153640135570617
      ],
      [
        "▁ku",
        -4.282903401070531
      ],
      [
        "o",
        -4.496800669443607
      ],
      [
        "wa",
        -4.5493857696322175
      ],
      [
        "e",
        -4.626265434009227
      ],
      [
        "▁kuti",
        -4.629719601221355
      ],
      [
        "▁uye",
        -4.71723189918017
      ],
      [
        "i",
        -4.779612547427473
      ],
      [
        "▁ne",
        -4.806401821151138
      ],
      [
        "▁mu",
        -4.912762071721605
      ],
      [
        "▁pa",
        -5.123662733485953
      ],
      [
        "kana",
        -5.358149625274755
      ],
      [
        "▁ye",
        -5.532993845157817
      ],
      [
        "▁va",
        -5.627699319831906
      ],
      [
        "ra",
        -5.714390250204541
      ],
      [
        "ita",
        -5.785536968002398
      ],
      [
        "ti",
        -5.799197375621466
      ],
      [
        "s",
        -5.815234851661069
      ],
      [
        "▁ano",
        -5.850819974422506
      ],
      [
        "enge",
        -5.864899778575405
      ],
      [
        "▁we",
        -5.901025570233597
      ],
      [
        "ri",
        -5.904147149235547
      ],
      [
        "va",
        -5.942696178975149
      ],
      [
        "▁vanhu",
        -5.9494759205394505
      ],
      [
        "▁kwe",
        -5.959337726393368
      ],
      [
        "nge",
        -6.003298770357664
      ],
      [
        "ira",
        -6.006553148317573
      ],
      [
        "▁ma",
        -6.035235570013178
      ],
      [
        "▁aka",
        -6.048930502179344
      ],
      [
        "na",
        -6.056056254691849
      ],
      [
        "▁nzvimbo",
        -6.08796117451087
      ],
      [
        "ro",
        -6.0973342338734575
      ],
      [
        "▁asi",
        -6.119979588541449
      ],
      [
        "▁chi",
        -6.148857562073382
      ],
      [
        "y",
        -6.169285555838278
      ],
      [
        "▁zvi",
        -6.209002913540603
      ],
      [
        "▁ino",
        -6.2168564011383385
      ],
      [
        "▁Ku",
        -6.217561275137739
      ],
      [
        "▁zv",
        -6.2178936380426535
      ],
      [
        "nguva",
        -6.2212761038553985
      ],
      [
        "▁r",
        -6.23147768798418
      ],
      [
        "▁che",
        -6.232099155752399
      ],
      [
        "u",
        -6.256413355604673
      ],
      [
        "wo",
        -6.262136366592914
      ],
      [
        "▁vano",
        -6.2730910663199095
      ],
      [
        "mwe",
        -6.2869012627981675
      ],
      [
        "▁m",
        -6.296057790266045
      ],
      [
        "isa",
        -6.296933371862453
      ],
      [
        "▁iri",
        -6.301761110101927
      ],
      [
        "▁dz",
        -6.309203043648205
      ],
      [
        "▁zvino",
        -6.3367338403815126
      ],
      [
        "re",
        -6.337061043079834
      ],
      [
        "ka",
        -6.352340096626536
      ],
      [
        "▁re",
        -6.3596902694643305
      ],
      [
        "ona",
        -6.379863343225324
      ],
      [
        "▁yeku",
        -6.383852087300694
      ],
      [
        "▁yaka",
        -6.421211789545572
      ],
      [
        "▁k",
        -6.424024496619069
      ],
      [
        "n",
        -6.4264730728121915
      ],
      [
        "▁Mu",
        -6.438496690613292
      ],
      [
        "▁ch",
        -6.448354289803913
      ],
      [
        "▁zvaka",
        -6.452553164734358
      ],
      [
        "▁se",
        -6.4677164725123255
      ],
      [
        ")",
        -6.483089284435588
      ],
      [
        "ana",
        -6.498547331151588
      ],
      [
        "svika",
        -6.503109604494011
      ],
      [
        "ne",
        -6.5034980941752725
      ],
      [
        "▁ari",
        -6.5280907847820036
      ],
      [
        "pfuura",
        -6.549368895602541
      ],
      [
        "▁chete",
        -6.55073150866544
      ],
      [
        "\"",
        -6.555158222963564
      ],
      [
        "▁y",
        -6.555164169398834
      ],
      [
        "nzvimbo",
        -6.581786379926234
      ],
      [
        "▁a",
        -6.583775370394356
      ],
      [
        "▁Va",
        -6.588034055281547
      ],
      [
        "▁ya",
        -6.58842962349833
      ],
      [
        "▁Pa",
        -6.589301526595111
      ],
      [
        "▁munhu",
        -6.601670976841545
      ],
      [
        "▁vachi",
        -6.605654797507473
      ],
      [
        "we",
        -6.616958488297543
      ],
      [
        "bva",
        -6.625632313780664
      ],
      [
        "▁zvinhu",
        -6.630345412087928
      ],
      [
        "ine",
        -6.646008676745478
      ],
      [
        "r",
        -6.661266917408519
      ],
      [
        "▁pasi",
        -6.679163517527269
      ],
      [
        "▁N",
        -6.681006862427479
      ],
      [
        "▁pe",
        -6.71596725057146
      ],
      [
        "▁nyika",
        -6.717707410919127
      ],
      [
        "▁dze",
        -6.725070372382429
      ],
      [
        "nogona",
        -6.725906607415256
      ],
      [
        "t",
        -6.728314289353987
      ],
      [
        "k",
        -6.731492864815554
      ],
      [
        "▁wa",
        -6.7377692828614135
      ],
      [
        "▁kuno",
        -6.740470782235476
      ],
      [
        "▁pamusoro",
        -6.745296694371728
      ],
      [
        "▁p",
        -6.759268675843942
      ],
      [
        "nga",
        -6.770131996256327
      ],
      [
        "▁(",
        -6.77405339188669
      ],
      [
        "ta",
        -6.775134457049296
      ],
      [
        "ya",
        -6.79244281570705
      ],
      [
        "nyika",
        -6.79274286413556
      ],
      [
        "▁S",
        -6.796484135819879
      ],
      [
        "▁dzino",
        -6.798160233997752
      ],
      [
        "iri",
        -6.805279998305171
      ],
      [
        "gara",
        -6.816108318811459
      ],
      [
        "▁M",
        -6.823499023226135
      ],
      [
        "▁ichi",
        -6.823864804991275
      ],
      [
        "ve",
        -6.828350360838651
      ],
      [
        "▁neku",
        -6.83085221250353
      ],
      [
        "▁i",
        -6.836791387661508
      ],
      [
        "gore",
        -6.847506774242735
      ],
      [
        "yo",
        -6.860288874854772
      ],
      [
        "▁u",
        -6.861241164175722
      ],
      [
        "▁kubv",
        -6.8639075757305505
      ],
      [
        "ratidz",
        -6.866890007008036
      ],
      [
        "dzwa",
        -6.873039488376075
      ],
      [
        "uri",
        -6.876383985599395
      ],
      [
        "▁kwa",
        -6.877636114002499
      ],
      [
        "▁achi",
        -6.881126861012735
      ],
      [
        "rwere",
        -6.886398358629991
      ],
      [
        "guta",
        -6.886675158096699
      ],
      [
        "dza",
        -6.887977009539894
      ],
      [
        "dzi",
        -6.8922803342308265
      ],
      [
        "▁\"",
        -6.896311954547057
      ],
      [
        "edza",
        -6.89973468459408
      ],
      [
        "▁vaka",
        -6.90696570874491
      ],
      [
        "▁zva",
        -6.915836517559736
      ],
      [
        "ko",
        -6.916153426286881
      ],
      [
        "▁Ma",
        -6.9169904260956825
      ],
      [
        "▁muna",
        -6.9183071244498375
      ],
      [
        "▁mari",
        -6.9190274096100115
      ],
      [
        "nzi",
        -6.925191021253029
      ],
      [
        "l",
        -6.9366954981295414
      ],
      [
        "pinda",
        -6.9369136875750055
      ],
      [
        "▁ndiy",
        -6.943784086670497
      ],
      [
        "▁kuva",
        -6.94927407150155
      ],
      [
        "da",
        -6.952079847652895
      ],
      [
        "irwa",
        -6.952338581676393
      ],
      [
        "shure",
        -6.954048344568752
      ],
      [
        "▁imwe",
        -6.964866562168812
      ],
      [
        "mba",
        -6.97094199027236
      ],
      [
        "tambo",
        -6.975655555581561
      ],
      [
        "▁nevanhu",
        -6.9805281449829195
      ],
      [
        "▁dzimwe",
        -6.985516624870463
      ],
      [
        "ngo",
        -6.999017476212696
      ],
      [
        "zi",
        -7.002949253750263
      ],
      [
        "enda",
        -7.008744402952784
      ],
      [
        "▁zve",
        -7.010196564048776
      ],
      [
        "h",
        -7.018672148224821
      ],
      [
        "▁pane",
        -7.025250543272163
      ],
      [
        "d",
        -7.028670568722847
      ],
      [
        "ma",
        -7.033802204940526
      ],
      [
        "uru",
        -7.03793730342897
      ],
      [
        "▁K",
        -7.0421649138609395
      ],
      [
        "▁ndi",
        -7.050926084428356
      ],
      [
        "▁w",
        -7.051935365473783
      ],
      [
        "▁uchi",
        -7.052536742664932
      ],
      [
        "▁mi",
        -7.073532892890475
      ],
      [
        "zivikanw",
        -7.077318005927355
      ],
      [
        "▁Zvi",
        -7.079532875833589
      ],
      [
        "▁nguva",
        -7.083809813816837
      ],
      [
        "a,",
        -7.086377205232994
      ],
      [
        "▁I",
        -7.086428930440849
      ],
      [
        "itwa",
        -7.086603905817425
      ],
      [
        "▁rino",
        -7.092749760450262
      ],
      [
        "▁ane",
        -7.0975301826954915
      ],
      [
        "an",
        -7.101877619131921
      ],
      [
        "▁n",
        -7.10440348607846
      ],
      [
        "▁v",
        -7.111672853450695
      ],
      [
        "tanga",
        -7.1258127221009575
      ],
      [
        "taura",
        -7.141238329983354
      ],
      [
        "makore",
        -7.1423829962740095
      ],
      [
        "rwa",
        -7.1564298771207016
      ],
      [
        "▁ine",
        -7.157019089039373
      ],
      [
        "▁nema",
        -7.1587681113845445
      ],
      [
        "▁yacho",
        -7.159952593468987
      ],
      [
        "ing",
        -7.171141798391551
      ],
      [
        "akawanda",
        -7.175881717404337
      ],
      [
        "▁A",
        -7.176959825918326
      ],
      [
        "▁chino",
        -7.184266859939985
      ],
      [
        "mbo",
        -7.192539374090803
      ],
      [
        "ndege",
        -7.194628005211072
      ],
      [
        "▁G",
        -7.19886006572265
      ],
      [
        "▁zveku",
        -7.203831307873559
      ],
      [
        "al",
        -7.211848240175522
      ],
      [
        "▁vane",
        -7.21457139571828
      ],
      [
        "▁ve",
        -7.226239177058876
      ],
      [
        "p",
        -7.23114789683607
      ],
      [
        "▁sezv",
        -7.234002829002735
      ],
      [
        "C",
        -7.235231870478442
      ],
      [
        "pa",
        -7.2415449263279354
      ],
      [
        "▁kw",
        -7.2416261820859305
      ],
      [
        "▁kunyang",
        -7.243347935906998
      ],
      [
        "▁waka",
        -7.244928838804203
      ],
      [
        "▁kuenda",
        -7.247883983799518
      ],
      [
        "▁iyo",
        -7.251773528771976
      ],
      [
        "m",
        -7.255145385449685
      ],
      [
        "▁Kan",
        -7.263576653635243
      ],
      [
        "aka",
        -7.264305725340887
      ],
      [
        "amba",
        -7.2697092342939005
      ],
      [
        "▁reku",
        -7.283609210428549
      ],
      [
        "▁maviri",
        -7.297303549481821
      ],
      [
        "▁zvikuru",
        -7.297695008966173
      ],
      [
        "▁van",
        -7.302242806766325
      ],
      [
        "kamu",
        -7.307096061819602
      ],
      [
        "zvi",
        -7.308521354688787
      ],
      [
        "▁wenyika",
        -7.313136964902988
      ],
      [
        "rume",
        -7.313907267482828
      ],
      [
        "▁Chi",
        -7.317686113773851
      ],
      [
        "▁zviri",
        -7.326959453302047
      ],
      [
        "sarudzo",
        -7.332196134174598
      ],
      [
        "simba",
        -7.3426654482597815
      ],
      [
        "ika",
        -7.343253979928407
      ],
      [
        "nonzi",
        -7.352106851049096
      ],
      [
        "▁C",
        -7.3525342548773605
      ],
      [
        "▁raka",
        -7.358633502510214
      ],
      [
        "vanhu",
        -7.370173755641282
      ],
      [
        "▁paku",
        -7.37794483348617
      ],
      [
        "sanganisir",
        -7.378256182365972
      ],
      [
        "no",
        -7.379060115615943
      ],
      [
        "S",
        -7.385330251871828
      ],
      [
        "▁na",
        -7.387255746853125
      ],
      [
        "nharaunda",
        -7.396064672302508
      ],
      [
        "famba",
        -7.407141652672545
      ],
      [
        "▁zvakanaka",
        -7.4097652940573
      ],
      [
        "on",
        -7.41710634028127
      ],
      [
        "▁mutambo",
        -7.41831926078372
      ],
      [
        "▁ha",
        -7.424599608102907
      ],
      [
        "itika",
        -7.4261843784273776
      ],
      [
        "▁iyi",
        -7.432493969292809
      ],
      [
        "ch",
        -7.440262081930696
      ],
      [
        "zo",
        -7.440780684587972
      ],
      [
        "▁T",
        -7.445637383728293
      ],
      [
        "uko",
        -7.451529588217162
      ],
      [
        "▁musi",
        -7.451837110925313
      ],
      [
        "batanidz",
        -7.454438978796696
      ],
      [
        "▁U",
        -7.454771914256922
      ],
      [
        ":",
        -7.45656758128846
      ],
      [
        "▁chaizvo",
        -7.456821522103445
      ],
      [
        "ekuti",
        -7.458730510555549
      ],
      [
        "▁in",
        -7.459596380478939
      ],
      [
        "ted",
        -7.461557918214575
      ],
      [
        "mazuva",
        -7.471824874587569
      ],
      [
        "batsira",
        -7.472487434433624
      ],
      [
        "▁dzeku",
        -7.472569743339221
      ],
      [
        "vo",
        -7.485604011366299
      ],
      [
        "c",
        -7.487321533014574
      ],
      [
        "rongwa",
        -7.494114647851452
      ],
      [
        "anga",
        -7.503392321438579
      ],
      [
        "▁nemu",
        -7.503850751578183
      ],
      [
        "tora",
        -7.504995437550731
      ],
      [
        "nze",
        -7.508498586662336
      ],
      [
        "shanyira",
        -7.5149513101779295
      ],
      [
        "chikwata",
        -7.517280196055613
      ],
      [
        "zuva",
        -7.518535862902945
      ],
      [
        "▁hwe",
        -7.5228029763923505
      ],
      [
        "ngwa",
        -7.523513551597517
      ],
      [
        "▁nezv",
        -7.526065221003578
      ],
      [
        "imwe",
        -7.526477814199076
      ],
      [
        "▁W",
        -7.529171572703984
      ],
      [
        "▁kune",
        -7.531329953709125
      ],
      [
        "zana",
        -7.535249070690922
      ],
      [
        "mo",
        -7.53841030329947
      ],
      [
        "ekutanga",
        -7.539985746219118
      ],
      [
        ";",
        -7.547476694491937
      ],
      [
        "D",
        -7.548014568655076
      ],
      [
        "▁racho",
        -7.549071109895311
      ],
      [
        "▁dzese",
        -7.549528546503384
      ],
      [
        "▁pedyo",
        -7.550288304833842
      ],
      [
        "nhu",
        -7.5524392112308325
      ],
      [
        "▁pamwe",
        -7.558273886723804
      ],
      [
        "apo",
        -7.558470432322509
      ],
      [
        "▁e",
        -7.561382680986262
      ],
      [
        "▁dzaka",
        -7.561671678915657
      ],
      [
        "ni",
        -7.56193347465066
      ],
      [
        "▁weku",
        -7.566539901098584
      ],
      [
        "▁basa",
        -7.566758541934707
      ],
      [
        "▁mvura",
        -7.568041508759213
      ],
      [
        "▁ai",
        -7.568317512404478
      ],
      [
        "di",
        -7.570354649253936
      ],
      [
        "se",
        -7.572007056600496
      ],
      [
        "▁zvakawanda",
        -7.575225322394211
      ],
      [
        "▁ese",
        -7.577301857588558
      ],
      [
        "▁uy",
        -7.5797502412376865
      ],
      [
        "w",
        -7.5857800877605115
      ],
      [
        "▁yai",
        -7.588645614670045
      ],
      [
        "si",
        -7.591228894034677
      ],
      [
        "kwanis",
        -7.598267675479451
      ],
      [
        "▁kusvik",
        -7.600049649399004
      ],
      [
        "ari",
        -7.603395471952369
      ],
      [
        "g",
        -7.620361491986845
      ],
      [
        "er",
        -7.625572367248216
      ],
      [
        "ani",
        -7.626345664496855
      ],
      [
        "4",
        -7.626450410604815
      ],
      [
        "akati",
        -7.632327976004133
      ],
      [
        "saka",
        -7.634555655880513
      ],
      [
        "▁vai",
        -7.635784978034446
      ],
      [
        "ga",
        -7.636680488692518
      ],
      [
        "kuti",
        -7.638089058750195
      ],
      [
        "▁V",
        -7.640013738053126
      ],
      [
        "▁vari",
        -7.640053384946778
      ],
      [
        "uto",
        -7.641369058479077
      ],
      [
        "▁kwaka",
        -7.645014780345782
      ],
      [
        "▁P",
        -7.646598618028927
      ],
      [
        "nyanya",
        -7.648185100122895
      ],
      [
        "outh",
        -7.649794732933642
      ],
      [
        "▁rese",
        -7.650733485839165
      ],
      [
        "▁peku",
        -7.6512712565489736
      ],
      [
        "▁rimwe",
        -7.654227645548436
      ],
      [
        "▁hurumende",
        -7.655002161885358
      ],
      [
        "gadzirwa",
        -7.661723071802564
      ],
      [
        "ambo",
        -7.663254195400807
      ],
      [
        "riri",
        -7.663365207716351
      ],
      [
        "▁anogona",
        -7.665152975686789
      ],
      [
        "to",
        -7.665824952174814
      ],
      [
        "▁nekuti",
        -7.669078567184902
      ],
      [
        "or",
        -7.669837994552644
      ],
      [
        "guru",
        -7.673937309650335
      ],
      [
        "mutambo",
        -7.67845568267639
      ],
      [
        "▁cheku",
        -7.679068406728126
      ],
      [
        "▁D",
        -7.679683732802925
      ],
      [
        "en",
        -7.680049898567669
      ],
      [
        "f",
        -7.681750826895653
      ],
      [
        "of",
        -7.682682458566182
      ],
      [
        "kati",
        -7.690366126350554
      ],
      [
        "iswa",
        -7.690903768208904
      ],
      [
        "kura",
        -7.693314270678515
      ],
      [
        "▁aya",
        -7.699372889022047
      ],
      [
        "kuru",
        -7.704539412133897
      ],
      [
        "nyorwa",
        -7.707287292748914
      ],
      [
        "gari",
        -7.7093822922352775
      ],
      [
        "rira",
        -7.715783576542598
      ],
      [
        "▁pakat",
        -7.716316701776581
      ],
      [
        "isati",
        -7.716466281060072
      ],
      [
        "O",
        -7.719504447710973
      ],
      [
        "z",
        -7.725507503917141
      ],
      [
        "Uni",
        -7.729998239349321
      ],
      [
        "-",
        -7.730275347680074
      ],
      [
        "▁akati",
        -7.733412568212232
      ],
      [
        "8",
        -7.752969326301268
      ],
      [
        "yika",
        -7.754822460248949
      ],
      [
        "▁rw",
        -7.75667365194943
      ],
      [
        "a.",
        -7.758546555765637
      ],
      [
        "▁States",
        -7.758798031954421
      ],
      [
        "▁zvakanyanya",
        -7.76003596907662
      ],
      [
        "ina",
        -7.761787052928936
      ],
      [
        "dzo",
        -7.762213577693087
      ],
      [
        "▁izvi",
        -7.764850826497087
      ],
      [
        "▁mun",
        -7.7651395054587615
      ],
      [
        "po",
        -7.767217278273015
      ],
      [
        "▁wacho",
        -7.767622466061326
      ],
      [
        "▁d",
        -7.772068955881307
      ],
      [
        "gona",
        -7.777551555195263
      ],
      [
        "▁dzine",
        -7.778241578259191
      ],
      [
        "▁hw",
        -7.7810440846753135
      ],
      [
        "▁tsika",
        -7.782672176546007
      ],
      [
        "shanda",
        -7.783169124489318
      ],
      [
        "▁h",
        -7.784213015225356
      ],
      [
        "▁R",
        -7.786421270944783
      ],
      [
        "▁vashanyi",
        -7.793284617599281
      ],
      [
        "ng",
        -7.796660014478219
      ],
      [
        "▁uno",
        -7.797281461963461
      ],
      [
        "sa",
        -7.797435914244488
      ],
      [
        "2",
        -7.797995969068168
      ],
      [
        "▁an",
        -7.798116056913003
      ],
      [
        "▁akataura",
        -7.798975959717991
      ],
      [
        "▁kufamba",
        -7.799037369409023
      ],
      [
        "hu",
        -7.801425575612018
      ],
      [
        "3",
        -7.802738573812928
      ],
      [
        "shanya",
        -7.80529604037185
      ],
      [
        "fanir",
        -7.8158300169582064
      ],
      [
        "zvo",
        -7.817557262635365
      ],
      [
        "kwira",
        -7.821524100163177
      ],
      [
        "izi",
        -7.822419429092044
      ],
      [
        "tyair",
        -7.824347687333983
      ],
      [
        "kushandisa",
        -7.827448080863837
      ],
      [
        "zve",
        -7.830107119120335
      ],
      [
        "akwikwi",
        -7.830867854392218
      ],
      [
        "muviri",
        -7.836804244382689
      ],
      [
        "▁Zv",
        -7.841844632544442
      ],
      [
        "ura",
        -7.842910141633576
      ],
      [
        "▁nezve",
        -7.847584832172176
      ],
      [
        "ose",
        -7.848463805799687
      ],
      [
        "▁nzir",
        -7.851677659418053
      ],
      [
        "wana",
        -7.852587049489969
      ],
      [
        "▁kwakait",
        -7.852831340233733
      ],
      [
        "▁dzi",
        -7.853761451213687
      ],
      [
        "▁acha",
        -7.857137415658055
      ],
      [
        "E",
        -7.858432334200866
      ],
      [
        "ayo",
        -7.863027555403986
      ],
      [
        "P",
        -7.866209171514933
      ],
      [
        "x",
        -7.866277154160812
      ],
      [
        "makiromi",
        -7.872068938351033
      ],
      [
        "mu",
        -7.872897307742429
      ],
      [
        "ter",
        -7.87648268991735
      ],
      [
        "dziri",
        -7.8837888803976295
      ],
      [
        "▁kazhinji",
        -7.8839246109964325
      ],
      [
        "▁chacho",
        -7.885601808585639
      ],
      [
        "tenga",
        -7.885832639800899
      ],
      [
        "▁zvese",
        -7.886596427316034
      ],
      [
        "▁Kunyang",
        -7.886897308424679
      ],
      [
        "kanganis",
        -7.888099874583238
      ],
      [
        "iwa",
        -7.890018209901144
      ],
      [
        "▁mota",
        -7.891382877557107
      ],
      [
        "▁zvibo",
        -7.893670048806017
      ],
      [
        "oita",
        -7.902329252289268
      ],
      [
        "imba",
        -7.903834092132944
      ],
      [
        "chando",
        -7.905860851806306
      ],
      [
        "ratidzira",
        -7.908232098163891
      ],
      [
        "hondo",
        -7.910981154384805
      ],
      [
        "▁kun",
        -7.914358809277754
      ],
      [
        "kumi",
        -7.916185404188758
      ],
      [
        "shandisa",
        -7.921073426948318
      ],
      [
        "erera",
        -7.922667661313606
      ],
      [
        "▁munyika",
        -7.9238738708265455
      ],
      [
        "i.",
        -7.92609077855674
      ],
      [
        "sarudza",
        -7.926974033371604
      ],
      [
        "▁muma",
        -7.9318410958139145
      ],
      [
        "I",
        -7.933554425767197
      ],
      [
        "▁nem",
        -7.936102378885536
      ],
      [
        "▁neimwe",
        -7.937965844589965
      ],
      [
        "▁ava",
        -7.9493853941113795
      ],
      [
        "▁acho",
        -7.949694810407788
      ],
      [
        "America",
        -7.949836387895666
      ],
      [
        "▁zvichi",
        -7.9501685831821725
      ],
      [
        "pi",
        -7.953247769441467
      ],
      [
        "vi",
        -7.957176265131729
      ],
      [
        "▁kutanga",
        -7.9600019186409785
      ],
      [
        "V",
        -7.960312851201379
      ],
      [
        "ive",
        -7.966354453553471
      ],
      [
        "ano",
        -7.9746620350814785
      ],
      [
        "▁ra",
        -7.978712696002499
      ],
      [
        "▁kan",
        -7.987063293176659
      ],
      [
        "▁kut",
        -7.987227132237351
      ],
      [
        "ungwa",
        -7.993856470042395
      ],
      [
        "▁pam",
        -7.997832144182357
      ],
      [
        "te",
        -8.000299246194045
      ],
      [
        "shanyi",
        -8.001845590676215
      ],
      [
        "▁Ne",
        -8.002517551475636
      ],
      [
        "darika",
        -8.00274948537397
      ],
      [
        "▁mum",
        -8.005306173001104
      ],
      [
        "T",
        -8.005964124357037
      ],
      [
        "ong",
        -8.009249075987658
      ],
      [
        "▁nekuda",
        -8.011224758058086
      ],
      [
        "▁veku",
        -8.013609151683289
      ],
      [
        "sati",
        -8.019663879440932
      ],
      [
        "▁Ha",
        -8.02658254112096
      ],
      [
        "▁makomo",
        -8.027965526166984
      ],
      [
        "in",
        -8.028675717071263
      ],
      [
        "▁Asi",
        -8.028791490108615
      ],
      [
        "▁matatu",
        -8.029241988150346
      ],
      [
        "▁chaka",
        -8.032892066305056
      ],
      [
        "▁isin",
        -8.033392575239207
      ],
      [
        "▁E",
        -8.033637306162923
      ],
      [
        "▁unofanir",
        -8.035552067947311
      ],
      [
        "▁yakanaka",
        -8.041947742549546
      ],
      [
        "▁idzi",
        -8.043997248023413
      ],
      [
        "munhu",
        -8.04522408273845
      ],
      [
        "ziva",
        -8.04658358372267
      ],
      [
        "▁pano",
        -8.047760832751505
      ],
      [
        "▁kukwira",
        -8.048244204585707
      ],
      [
        "▁Africa",
        -8.0498625923408
      ],
      [
        "5",
        -8.05102185463743
      ],
      [
        "▁haku",
        -8.051627501921097
      ],
      [
        "▁neche",
        -8.053009002504782
      ],
      [
        "▁yako",
        -8.055689255152055
      ],
      [
        "ton",
        -8.057881965198856
      ],
      [
        "nyaya",
        -8.059293437571327
      ],
      [
        "▁uku",
        -8.059660297151432
      ],
      [
        "unyanzvi",
        -8.063064370252562
      ],
      [
        "mutemo",
        -8.064608350377219
      ],
      [
        "ripo",
        -8.06724471676845
      ],
      [
        "▁2",
        -8.07018598553566
      ],
      [
        "M",
        -8.071210659744025
      ],
      [
        "▁pachi",
        -8.071346538435664
      ],
      [
        "ey",
        -8.07207976188841
      ],
      [
        "▁mumi",
        -8.073428927756563
      ],
      [
        "▁sei",
        -8.077044950770931
      ],
      [
        "▁pfu",
        -8.079597918014764
      ],
      [
        "para",
        -8.080651806285648
      ],
      [
        "▁yava",
        -8.083200535165108
      ],
      [
        "nyore",
        -8.088212444605942
      ],
      [
        "▁eku",
        -8.090205169191016
      ],
      [
        "uine",
        -8.09233256885927
      ],
      [
        "▁nzi",
        -8.094680114608638
      ],
      [
        "1",
        -8.096153730711125
      ],
      [
        "kushanya",
        -8.096858447758796
      ],
      [
        "▁-",
        -8.098244832167554
      ],
      [
        "▁hu",
        -8.101450182594471
      ],
      [
        "▁zvine",
        -8.102502007114015
      ],
      [
        "bud",
        -8.102856804596163
      ],
      [
        "▁ema",
        -8.103230841361638
      ],
      [
        "▁zvin",
        -8.10368391127602
      ],
      [
        "tungamirir",
        -8.105626526495666
      ],
      [
        "sh",
        -8.106622383978953
      ],
      [
        "iti",
        -8.110394308257126
      ],
      [
        "akaita",
        -8.11455888182939
      ],
      [
        "▁hwaka",
        -8.11788702148579
      ],
      [
        "cha",
        -8.121830144198126
      ],
      [
        "▁chai",
        -8.122441984492959
      ],
      [
        "ora",
        -8.123619022985137
      ],
      [
        "bo",
        -8.125321756109168
      ],
      [
        "zira",
        -8.125469108085312
      ],
      [
        "kutanga",
        -8.12990482152976
      ],
      [
        "akasiyana-siyana",
        -8.130275370088281
      ],
      [
        "▁Aka",
        -8.133231889388966
      ],
      [
        "New",
        -8.135099115131862
      ],
      [
        "endi",
        -8.137449600192012
      ],
      [
        "un",
        -8.139470268440022
      ],
      [
        "R",
        -8.141048279616683
      ],
      [
        "U",
        -8.14513842171469
      ],
      [
        "▁vasin",
        -8.145184477961482
      ],
      [
        "▁Ch",
        -8.146778086541648
      ],
      [
        "sinei",
        -8.152807045079122
      ],
      [
        "iro",
        -8.155412272822073
      ],
      [
        "▁kunyatso",
        -8.156029069717672
      ],
      [
        "ati",
        -8.15642545028745
      ],
      [
        "rara",
        -8.157183521478894
      ],
      [
        "ge",
        -8.15898540314696
      ],
      [
        "akadai",
        -8.160257073891833
      ],
      [
        "vakawanda",
        -8.168352788165663
      ],
      [
        "ha",
        -8.170152993948548
      ],
      [
        "▁ri",
        -8.175770720457033
      ],
      [
        "vakwa",
        -8.176717975214666
      ],
      [
        "ye",
        -8.180679319941776
      ],
      [
        "vashanyi",
        -8.181704356757045
      ],
      [
        "▁kweku",
        -8.1819633930422
      ],
      [
        "maira",
        -8.184768740417326
      ],
      [
        "Turk",
        -8.18894741316387
      ],
      [
        "era",
        -8.190235005996861
      ],
      [
        "'",
        -8.191232371536184
      ],
      [
        "munzvimbo",
        -8.192857383207672
      ],
      [
        "Hurumende",
        -8.193113534374918
      ],
      [
        "miriyoni",
        -8.193184651013908
      ],
      [
        "que",
        -8.193411084811352
      ],
      [
        "▁15",
        -8.1936394112045
      ],
      [
        "▁itsva",
        -8.193983360030588
      ],
      [
        "▁akakuvara",
        -8.194194661882896
      ],
      [
        "▁rechi",
        -8.1959638989278
      ],
      [
        "▁mhuka",
        -8.196275528725696
      ],
      [
        "uma",
        -8.196487772081788
      ],
      [
        "▁chinhu",
        -8.197570057719831
      ],
      [
        "▁zvavo",
        -8.198863921334286
      ],
      [
        "▁zvisin",
        -8.198979491250928
      ],
      [
        "▁kwechi",
        -8.199263058862332
      ],
      [
        "▁kwenyika",
        -8.202292044326379
      ],
      [
        "tarisa",
        -8.202902450958732
      ],
      [
        "▁gwar",
        -8.20409154749765
      ],
      [
        "ronga",
        -8.207262377367678
      ],
      [
        "mhanya",
        -8.208095687468065
      ],
      [
        "tever",
        -8.210387244018197
      ],
      [
        "▁nevamwe",
        -8.211024930577803
      ],
      [
        "▁yakawanda",
        -8.212716546742014
      ],
      [
        "▁3",
        -8.213229606198022
      ],
      [
        "▁izvo",
        -8.215065017959907
      ],
      [
        "mberi",
        -8.217927411754207
      ],
      [
        "kwanise",
        -8.219621715595883
      ],
      [
        "▁H",
        -8.21968234246932
      ],
      [
        "acho",
        -8.220807122974287
      ],
      [
        "▁kunyanya",
        -8.22151429831447
      ],
      [
        "▁kuwana",
        -8.222181991835866
      ],
      [
        "▁nde",
        -8.223641226419689
      ],
      [
        "ines",
        -8.224719226386009
      ],
      [
        "ish",
        -8.226905774259889
      ],
      [
        "▁dza",
        -8.228640540996254
      ],
      [
        "takura",
        -8.229261292537114
      ],
      [
        "▁iye",
        -8.230212049990453
      ],
      [
        "do",
        -8.232079587484256
      ],
      [
        "▁ru",
        -8.233222104902843
      ],
      [
        "ar",
        -8.23405327089511
      ],
      [
        "▁yakakura",
        -8.234341126050273
      ],
      [
        "motokari",
        -8.235776071634662
      ],
      [
        "▁vana",
        -8.23647061125733
      ],
      [
        "is",
        -8.236799997713844
      ],
      [
        "▁Che",
        -8.238715455514072
      ],
      [
        "▁motokari",
        -8.23940237327721
      ],
      [
        "b",
        -8.241433712004909
      ],
      [
        "umbir",
        -8.250326537838054
      ],
      [
        "▁avo",
        -8.252277370641808
      ],
      [
        "▁nepa",
        -8.252667811719807
      ],
      [
        "us",
        -8.25365397716879
      ],
      [
        "zvimbo",
        -8.25730500881967
      ],
      [
        "basa",
        -8.260406426210427
      ],
      [
        "esa",
        -8.26216918834832
      ],
      [
        "zvino",
        -8.262797406964145
      ],
      [
        "B",
        -8.263460014994454
      ],
      [
        "eti",
        -8.273982803798908
      ],
      [
        "ku",
        -8.274834705021458
      ],
      [
        "v",
        -8.280212925958773
      ],
      [
        "▁chit",
        -8.280535074761273
      ],
      [
        "▁San",
        -8.283742809656733
      ],
      [
        "utu",
        -8.284642548814238
      ],
      [
        "as",
        -8.285253600095036
      ],
      [
        "le",
        -8.286071076433192
      ],
      [
        "tsika",
        -8.289339048572335
      ],
      [
        "taurwa",
        -8.289884552298489
      ],
      [
        "gungwa",
        -8.293031898419105
      ],
      [
        "kota",
        -8.29501593654456
      ],
      [
        "tsvag",
        -8.295855085981977
      ],
      [
        "nofanir",
        -8.29703871350192
      ],
      [
        "idzwa",
        -8.298425907776927
      ],
      [
        "nd",
        -8.30015783166952
      ],
      [
        "sha",
        -8.302307657056692
      ],
      [
        "urwa",
        -8.303365283273124
      ],
      [
        "▁F",
        -8.305594826152461
      ],
      [
        "kunda",
        -8.30648782008425
      ],
      [
        "uro",
        -8.306849053833904
      ],
      [
        "bhadhara",
        -8.307140056783723
      ],
      [
        "ki",
        -8.307998859879103
      ],
      [
        "▁sarudzo",
        -8.308528279445351
      ],
      [
        "▁zvakar",
        -8.314507876017036
      ],
      [
        "A",
        -8.317420273831981
      ],
      [
        "tonga",
        -8.31771456745651
      ],
      [
        "reva",
        -8.317992708012536
      ],
      [
        "▁cha",
        -8.319206910161556
      ],
      [
        "cho",
        -8.319881266700472
      ],
      [
        "ainzi",
        -8.320305547684416
      ],
      [
        "▁Ta",
        -8.326433538981188
      ],
      [
        "▁s",
        -8.327202856311025
      ],
      [
        "▁kufa",
        -8.330639086460348
      ],
      [
        "ite",
        -8.332392331220074
      ],
      [
        "▁rak",
        -8.333335215355639
      ],
      [
        "idza",
        -8.337051977784789
      ],
      [
        "▁nezvi",
        -8.339550113864803
      ],
      [
        "▁yema",
        -8.343546152064047
      ],
      [
        "avo",
        -8.343807482180795
      ],
      [
        "W",
        -8.344089761967215
      ],
      [
        "▁nenzi",
        -8.3462217098616
      ],
      [
        "▁Ro",
        -8.346526804178527
      ],
      [
        "kumabvazuva",
        -8.348093169786155
      ],
      [
        "mi",
        -8.348394363417054
      ],
      [
        "chida",
        -8.348802031288402
      ],
      [
        "▁vaiva",
        -8.350943579268332
      ],
      [
        "▁map",
        -8.352625793907588
      ],
      [
        "▁rwe",
        -8.355211460172637
      ],
      [
        "▁Sa",
        -8.355894906866627
      ],
      [
        "▁L",
        -8.356733832968757
      ],
      [
        "kuchamhembe",
        -8.356926296239811
      ],
      [
        "sangan",
        -8.357162033926896
      ],
      [
        "nza",
        -8.35717753648765
      ],
      [
        "▁muchi",
        -8.357605174903178
      ],
      [
        "▁Ja",
        -8.358535657323092
      ],
      [
        "de",
        -8.360807628774925
      ],
      [
        "oro",
        -8.363977066586905
      ],
      [
        "pe",
        -8.36468880316302
      ],
      [
        "G",
        -8.36651243584047
      ],
      [
        "North",
        -8.36805708212591
      ],
      [
        "engo",
        -8.368296482882357
      ],
      [
        "▁kugadzir",
        -8.3715880584547
      ],
      [
        "▁B",
        -8.37411016780769
      ],
      [
        "wa.",
        -8.375596049132435
      ],
      [
        "Europe",
        -8.375692020339713
      ],
      [
        "tsi",
        -8.378276108508746
      ],
      [
        "ese",
        -8.380069013094754
      ],
      [
        "shandiswa",
        -8.380165028471286
      ],
      [
        "ol",
        -8.382323882922133
      ],
      [
        "siyana",
        -8.382487387741351
      ],
      [
        "utachiona",
        -8.39118910235023
      ],
      [
        "▁Zealand",
        -8.393111664289208
      ],
      [
        "Iraq",
        -8.39311530177837
      ],
      [
        "▁60",
        -8.393235286039642
      ],
      [
        "▁mazhinji",
        -8.394039001538799
      ],
      [
        "▁vazhinji",
        -8.394274348104956
      ],
      [
        "▁zvakadaro",
        -8.395059355637752
      ],
      [
        "00",
        -8.39510636219056
      ],
      [
        "shing",
        -8.395390179089228
      ],
      [
        "▁mitemo",
        -8.396261106001804
      ],
      [
        "▁zvisinga",
        -8.396433110686173
      ],
      [
        "▁doro",
        -8.396648718775845
      ],
      [
        "▁parwendo",
        -8.397296128035055
      ],
      [
        "▁manheru",
        -8.39777730949016
      ],
      [
        "▁wechi",
        -8.397807755175286
      ],
      [
        "zvitoro",
        -8.397977521484142
      ],
      [
        "iko",
        -8.398298826287803
      ],
      [
        "▁kuchip",
        -8.398514585786835
      ],
      [
        "▁rose",
        -8.399072460692976
      ],
      [
        "▁yavo",
        -8.399920742369625
      ],
      [
        "mbira",
        -8.400273003742456
      ],
      [
        "▁Se",
        -8.400275659923858
      ],
      [
        "▁000",
        -8.400940776768262
      ],
      [
        "▁uyu",
        -8.404282528578214
      ],
      [
        "▁yese",
        -8.405912664715999
      ],
      [
        "orld",
        -8.406514234594521
      ],
      [
        "bhur",
        -8.407065176983691
      ],
      [
        "▁yake",
        -8.40884743431506
      ],
      [
        "akakura",
        -8.409977914195743
      ],
      [
        "▁mukuru",
        -8.41081583490708
      ],
      [
        "▁La",
        -8.4108764427728
      ],
      [
        "wedzer",
        -8.411883520562991
      ],
      [
        "▁pamutemo",
        -8.412912230535083
      ],
      [
        "▁vemu",
        -8.413191335715856
      ],
      [
        "▁muchando",
        -8.41365971322899
      ],
      [
        "▁kuzo",
        -8.41412448214542
      ],
      [
        "kuvara",
        -8.416092700952925
      ],
      [
        "▁Runn",
        -8.417457646024072
      ],
      [
        "imbi",
        -8.418098652525455
      ],
      [
        "▁kum",
        -8.419805859979652
      ],
      [
        "▁anga",
        -8.42017006761273
      ],
      [
        "▁Germany",
        -8.422829175333076
      ],
      [
        "▁chiri",
        -8.422892103089563
      ],
      [
        "pedzis",
        -8.424583055169036
      ],
      [
        "ikepe",
        -8.42470282735602
      ],
      [
        "pihw",
        -8.425562796748883
      ],
      [
        "▁Lo",
        -8.426752422956096
      ],
      [
        "ganhu",
        -8.428134002575778
      ],
      [
        "France",
        -8.428287870408834
      ],
      [
        "kugara",
        -8.428907712967508
      ],
      [
        "kurudzir",
        -8.432311234076971
      ],
      [
        "▁Or",
        -8.432790787885802
      ],
      [
        "sangana",
        -8.43905415148852
      ],
      [
        "rwendo",
        -8.43932576199718
      ],
      [
        "ino",
        -8.44281291094272
      ],
      [
        "vapo",
        -8.44524142651162
      ],
      [
        "asi",
        -8.445371287359162
      ],
      [
        "eka",
        -8.446633064004441
      ],
      [
        "▁nechi",
        -8.447101179182907
      ],
      [
        "seni",
        -8.447500301334529
      ],
      [
        "tsigira",
        -8.448565793894183
      ],
      [
        "ts",
        -8.449786054225186
      ],
      [
        "▁mberi",
        -8.450325706775907
      ],
      [
        "kumadokero",
        -8.450650640354837
      ],
      [
        "ema",
        -8.452389220599446
      ],
      [
        "kadzi",
        -8.455128018108967
      ],
      [
        "▁hap",
        -8.45733246562753
      ],
      [
        "▁kuda",
        -8.457557100320466
      ],
      [
        "▁zvazv",
        -8.45756286505243
      ],
      [
        "are",
        -8.457821177579502
      ],
      [
        "▁Le",
        -8.459192726869261
      ],
      [
        "diki",
        -8.459306607213879
      ],
      [
        "▁kare",
        -8.460080226592552
      ],
      [
        "awo",
        -8.460348981335034
      ],
      [
        "▁zvava",
        -8.460894688424421
      ],
      [
        "tatu",
        -8.462136008833172
      ],
      [
        "tsva",
        -8.462245445669543
      ],
      [
        "akafanana",
        -8.464118515452233
      ],
      [
        "▁dzemu",
        -8.465409647377795
      ],
      [
        "▁1",
        -8.47143990621036
      ],
      [
        "▁Zvaka",
        -8.475420612622496
      ],
      [
        "▁kwemw",
        -8.476724349761295
      ],
      [
        "ck",
        -8.477187863866062
      ],
      [
        "ff",
        -8.478033237539536
      ],
      [
        "ara",
        -8.483183424134094
      ],
      [
        "▁aiva",
        -8.483738398757128
      ],
      [
        "kwikwi",
        -8.484087982225224
      ],
      [
        "zvinhu",
        -8.48464590857147
      ],
      [
        "chikuru",
        -8.484984896807523
      ],
      [
        "vamwe",
        -8.485303282294277
      ],
      [
        "▁meku",
        -8.485798263298799
      ],
      [
        "▁kuongorora",
        -8.485847646060234
      ],
      [
        "▁ndich",
        -8.487884727773963
      ],
      [
        "▁Re",
        -8.488406202094621
      ],
      [
        "▁rine",
        -8.48962383301541
      ],
      [
        "derera",
        -8.49023932231645
      ],
      [
        "sva",
        -8.494374890403936
      ],
      [
        "▁usa",
        -8.494554700660975
      ],
      [
        "tarisir",
        -8.496145398278443
      ],
      [
        "mvura",
        -8.49740190456885
      ],
      [
        "▁Nation",
        -8.498121633221649
      ],
      [
        "ikwa",
        -8.504764483654208
      ],
      [
        "Pakistan",
        -8.5053049865489
      ],
      [
        "ho",
        -8.507556930525626
      ],
      [
        "▁panyika",
        -8.50774158787595
      ],
      [
        "▁zviit",
        -8.507955054130049
      ],
      [
        "atu",
        -8.510286482855225
      ],
      [
        "6",
        -8.511213746141479
      ],
      [
        "▁chin",
        -8.515368019181096
      ],
      [
        "irwere",
        -8.51630391258086
      ],
      [
        "kufamba",
        -8.516503991779956
      ],
      [
        "▁nez",
        -8.517500476511238
      ],
      [
        "go",
        -8.520344616727234
      ],
      [
        "musoro",
        -8.520929584048107
      ],
      [
        "ndi",
        -8.521126591440446
      ],
      [
        "ic",
        -8.521155926346637
      ],
      [
        "▁Paka",
        -8.524847412409708
      ],
      [
        "j",
        -8.525342452624493
      ],
      [
        "▁kuit",
        -8.527116632450763
      ],
      [
        "▁zvem",
        -8.529553064744752
      ],
      [
        "fambi",
        -8.531379022799804
      ],
      [
        "dzose",
        -8.531637156133785
      ],
      [
        "ombo",
        -8.532042607196143
      ],
      [
        "enyika",
        -8.533066099557244
      ],
      [
        "lo",
        -8.53500516462459
      ],
      [
        "edzi",
        -8.537457997944301
      ],
      [
        "▁4",
        -8.538562747424491
      ],
      [
        "et",
        -8.54017253133614
      ],
      [
        "▁In",
        -8.540521473152076
      ],
      [
        "▁yaiv",
        -8.540998881537883
      ],
      [
        "zwa",
        -8.541108464699743
      ],
      [
        "▁vanogon",
        -8.542682914795318
      ],
      [
        "gwa",
        -8.5434614755673
      ],
      [
        "ndo",
        -8.549931145503283
      ],
      [
        "daro",
        -8.551748440323202
      ],
      [
        "7",
        -8.552076138601642
      ],
      [
        "▁Zvino",
        -8.552623466128958
      ],
      [
        "L",
        -8.552994712583946
      ],
      [
        "son",
        -8.553134460155091
      ],
      [
        "chengetedza",
        -8.556157671847753
      ],
      [
        "mujaho",
        -8.55724544298197
      ],
      [
        "emakore",
        -8.559053283733123
      ],
      [
        "usangan",
        -8.56133876833011
      ],
      [
        "azi",
        -8.562113666646932
      ],
      [
        "undi",
        -8.56356698969537
      ],
      [
        "hotera",
        -8.5636558536726
      ],
      [
        "tambi",
        -8.563972753947436
      ],
      [
        "wavo",
        -8.566721101910325
      ],
      [
        "▁yak",
        -8.567925698652461
      ],
      [
        "isisa",
        -8.569691766194676
      ],
      [
        "uka",
        -8.569769712154791
      ],
      [
        "▁kumba",
        -8.570339828530344
      ],
      [
        "hwin",
        -8.57606933135212
      ],
      [
        "bvumiran",
        -8.580974059749119
      ],
      [
        "▁pema",
        -8.582574228571664
      ],
      [
        "▁kwak",
        -8.584685856928838
      ],
      [
        "ushamwari",
        -8.584922216765817
      ],
      [
        "▁yemu",
        -8.585790273873801
      ],
      [
        "N",
        -8.588579129319436
      ],
      [
        "um",
        -8.589431861361014
      ],
      [
        "ra.",
        -8.58985233641879
      ],
      [
        "dzana",
        -8.590872887026642
      ],
      [
        "▁zvichiit",
        -8.591309229800263
      ],
      [
        "nyanzvi",
        -8.593279397992413
      ],
      [
        "▁Kushany",
        -8.594594198452903
      ],
      [
        "oko",
        -8.596953054584432
      ],
      [
        "atara",
        -8.597502610266162
      ],
      [
        "deredz",
        -8.60216076548286
      ],
      [
        "▁kuch",
        -8.60572620617226
      ],
      [
        "uziv",
        -8.60657976277522
      ],
      [
        "mhepo",
        -8.609900820648985
      ],
      [
        "kupinda",
        -8.610501864822488
      ],
      [
        "n,",
        -8.610870029679159
      ],
      [
        "zvekuti",
        -8.611095687331046
      ],
      [
        "▁nech",
        -8.612789589673191
      ],
      [
        "misa",
        -8.618924766140147
      ],
      [
        "and",
        -8.62048120861187
      ],
      [
        "▁haan",
        -8.622239158283264
      ],
      [
        "chinj",
        -8.626109515084359
      ],
      [
        "ski",
        -8.627136377618987
      ],
      [
        "yambu",
        -8.631650308945012
      ],
      [
        "th",
        -8.633178814926877
      ],
      [
        "sana",
        -8.63491699144694
      ],
      [
        "kare",
        -8.637484664176942
      ],
      [
        "▁ak",
        -8.638016690482878
      ],
      [
        "▁kuT",
        -8.638121826597205
      ],
      [
        "▁kukosh",
        -8.639157777059332
      ],
      [
        "jaho",
        -8.639254851618114
      ],
      [
        "▁wema",
        -8.639519800768547
      ],
      [
        "▁mvu",
        -8.640208046009365
      ],
      [
        "▁neva",
        -8.640744236467517
      ],
      [
        "/",
        -8.643111615139212
      ],
      [
        "univhesit",
        -8.643111615142153
      ],
      [
        "▁Tours",
        -8.643112282016528
      ],
      [
        "▁mashanu",
        -8.643113776458677
      ],
      [
        "▁Mbudzi",
        -8.643114028186552
      ],
      [
        "mimhanzi",
        -8.643118256061314
      ],
      [
        "▁kurwadziwa",
        -8.64311937448593
      ],
      [
        "masoja",
        -8.643138035755044
      ],
      [
        "tevedzer",
        -8.643154686096292
      ],
      [
        "▁John",
        -8.643206957941645
      ],
      [
        "tsanangur",
        -8.643494529641163
      ],
      [
        "▁Island",
        -8.643535816767077
      ],
      [
        "▁mbiri",
        -8.64354632003789
      ],
      [
        "fukidz",
        -8.644056509808912
      ],
      [
        "▁vamiriri",
        -8.644109259182374
      ],
      [
        "▁here",
        -8.644320544717075
      ],
      [
        "▁yakareba",
        -8.644346609297225
      ],
      [
        "kwikwidza",
        -8.644416551497685
      ],
      [
        "▁vanowanzo",
        -8.644579654377802
      ],
      [
        "▁paun",
        -8.64560820350777
      ],
      [
        "▁uchipinda",
        -8.646752870846793
      ],
      [
        "▁pekugara",
        -8.64701803959608
      ],
      [
        "kombe",
        -8.647051629986246
      ],
      [
        "▁ndech",
        -8.64709842085694
      ],
      [
        "▁Rw",
        -8.647583068919939
      ],
      [
        "▁matik",
        -8.647852317048182
      ],
      [
        "▁vese",
        -8.648244557790957
      ],
      [
        "hizh",
        -8.648885233487237
      ],
      [
        "▁mangwanani",
        -8.64979307408234
      ],
      [
        "▁chake",
        -8.650105201284164
      ],
      [
        "▁kufung",
        -8.650477035492568
      ],
      [
        "▁cheM",
        -8.650947129093057
      ],
      [
        "▁njodzi",
        -8.651854596977389
      ],
      [
        "▁vatambi",
        -8.65191016302036
      ],
      [
        "konzera",
        -8.65193562578042
      ],
      [
        "▁yeS",
        -8.65288603238009
      ],
      [
        "port",
        -8.653233578044274
      ],
      [
        "▁chikepe",
        -8.653246925669599
      ],
      [
        "▁usin",
        -8.653295843635151
      ],
      [
        "akabatana",
        -8.653371663865899
      ],
      [
        "▁201",
        -8.653396909705647
      ],
      [
        "▁musasa",
        -8.653927313911094
      ],
      [
        "donh",
        -8.656385644932547
      ],
      [
        "▁nayo",
        -8.656665742562126
      ],
      [
        "enyu",
        -8.656696096019056
      ],
      [
        "▁kuitir",
        -8.656776774614647
      ],
      [
        "▁Mutamb",
        -8.65778113008127
      ],
      [
        "▁hava",
        -8.658410141247606
      ],
      [
        "▁kakawanda",
        -8.658748096382299
      ],
      [
        "it",
        -8.660475940080998
      ],
      [
        "▁kumaodzanyemba",
        -8.660653739246115
      ],
      [
        "jeki",
        -8.660921611679429
      ],
      [
        "pasi",
        -8.661440470636421
      ],
      [
        "▁zhinji",
        -8.662673774050097
      ],
      [
        "▁Japan",
        -8.667410234032449
      ],
      [
        "▁shoma",
        -8.669969035285115
      ],
      [
        "▁firimu",
        -8.670148388234441
      ],
      [
        "▁Britain",
        -8.670351398083554
      ],
      [
        "ji",
        -8.67280048853739
      ],
      [
        "▁kushanda",
        -8.675603306554038
      ],
      [
        "zvishoma",
        -8.676931202672087
      ],
      [
        "gamuchir",
        -8.677770333250482
      ],
      [
        "asipo",
        -8.678436263331248
      ],
      [
        "cu",
        -8.679836309312998
      ],
      [
        "nhasi",
        -8.68117562192537
      ],
      [
        "Al",
        -8.681800991599976
      ],
      [
        "▁zvaid",
        -8.682121696697862
      ],
      [
        "▁Van",
        -8.683559981698199
      ],
      [
        "▁200",
        -8.683690828840563
      ],
      [
        "▁vachir",
        -8.683755242942812
      ],
      [
        "▁inyika",
        -8.688123128140349
      ],
      [
        "▁gumi",
        -8.688320788268717
      ],
      [
        "kudzivirira",
        -8.688697441787042
      ],
      [
        "▁mutungamiri",
        -8.68941832477633
      ],
      [
        "▁mat",
        -8.691368636332141
      ],
      [
        "▁Mit",
        -8.69430982237681
      ],
      [
        "▁rwaka",
        -8.695139558770835
      ],
      [
        "▁Cu",
        -8.697451703008833
      ],
      [
        "▁nenzvimbo",
        -8.698108192789448
      ],
      [
        "vhiza",
        -8.699014038920291
      ],
      [
        "▁diki",
        -8.700597944956804
      ],
      [
        "sere",
        -8.702609959276515
      ],
      [
        "▁rwak",
        -8.702924078295048
      ],
      [
        "▁vakata",
        -8.70324724282303
      ],
      [
        "shamwari",
        -8.704966257570636
      ],
      [
        "▁vak",
        -8.706436114861408
      ],
      [
        "amirir",
        -8.707621114412973
      ],
      [
        "▁19",
        -8.70905961081405
      ],
      [
        "umwe",
        -8.709444264868699
      ],
      [
        "nana",
        -8.70996841949938
      ],
      [
        "temberi",
        -8.710770306485022
      ],
      [
        "budirira",
        -8.71142033250144
      ],
      [
        "Sing",
        -8.711820858296447
      ],
      [
        "▁20",
        -8.71261695233089
      ],
      [
        "▁pak",
        -8.714047648509041
      ],
      [
        "rongeka",
        -8.715680008560314
      ],
      [
        "emutambo",
        -8.718205620302019
      ],
      [
        "bat",
        -8.718519653416292
      ],
      [
        "rwiwa",
        -8.719150162862816
      ],
      [
        "▁ndoku",
        -8.721519870297211
      ],
      [
        "dya",
        -8.721811638450516
      ],
      [
        "▁hazvin",
        -8.722271429962401
      ],
      [
        "▁akap",
        -8.72252879080871
      ],
      [
        "noziva",
        -8.7231224731628
      ],
      [
        "chiitik",
        -8.724562852268692
      ],
      [
        "mahotera",
        -8.724801498090711
      ],
      [
        "dzivirira",
        -8.72601822599956
      ],
      [
        "viri",
        -8.727633181027501
      ],
      [
        "▁paka",
        -8.730359555771791
      ],
      [
        "ofu",
        -8.730467737905462
      ],
      [
        "rudzi",
        -8.732585793973287
      ],
      [
        "kutenga",
        -8.735811451060755
      ],
      [
        "ang",
        -8.736515823664728
      ],
      [
        "vano",
        -8.737487844749742
      ],
      [
        "matombo",
        -8.737525300400089
      ],
      [
        "miviri",
        -8.740093287175313
      ],
      [
        "▁nemot",
        -8.74045679188298
      ],
      [
        "▁pari",
        -8.749792347538486
      ],
      [
        "▁hazv",
        -8.750778544203659
      ],
      [
        "K",
        -8.751942943724506
      ],
      [
        "▁kupedz",
        -8.753058324227506
      ],
      [
        "▁Wa",
        -8.753169434532074
      ],
      [
        "▁Vano",
        -8.753741351154828
      ],
      [
        "▁Je",
        -8.755067243306577
      ],
      [
        "ivi",
        -8.756323263575364
      ],
      [
        "▁aende",
        -8.757295340237977
      ],
      [
        "▁chichi",
        -8.757936014804514
      ],
      [
        "▁wava",
        -8.758950098748766
      ],
      [
        "ako",
        -8.759588702015174
      ],
      [
        "▁mutsa",
        -8.762946110405942
      ],
      [
        "isi",
        -8.7629994971918
      ],
      [
        "▁Uni",
        -8.763349066125874
      ],
      [
        "epasi",
        -8.763801265851345
      ],
      [
        "gumi",
        -8.765089191197774
      ],
      [
        "kuchengetedza",
        -8.765412121390362
      ],
      [
        "▁Y",
        -8.766472772517272
      ],
      [
        "fung",
        -8.766697021215919
      ],
      [
        "dzimai",
        -8.766945931392868
      ],
      [
        "dzokera",
        -8.767120219821418
      ],
      [
        "▁zvakait",
        -8.767486233851685
      ],
      [
        "kumhanya",
        -8.767522284114737
      ],
      [
        "pera",
        -8.768509061320508
      ],
      [
        "chi",
        -8.772341903784422
      ],
      [
        "ato",
        -8.773110965591126
      ],
      [
        "vid",
        -8.7739109668472
      ],
      [
        "vanhukadzi",
        -8.775117290374649
      ],
      [
        "▁kwema",
        -8.777234520451922
      ],
      [
        "svedz",
        -8.78554031356658
      ],
      [
        "budis",
        -8.786820290082307
      ],
      [
        "ig",
        -8.787004230981395
      ],
      [
        "akakwirira",
        -8.789395097964336
      ],
      [
        "ambudziko",
        -8.790367012783808
      ],
      [
        "unga",
        -8.790516794259144
      ],
      [
        "▁kupa",
        -8.791112468400486
      ],
      [
        "▁une",
        -8.79175431219867
      ],
      [
        "ed",
        -8.791956570418911
      ],
      [
        "▁zvinowanzo",
        -8.792388655582037
      ],
      [
        "▁kure",
        -8.797898312854475
      ],
      [
        "ondo",
        -8.798317418983808
      ],
      [
        "▁Go",
        -8.801384617042695
      ],
      [
        "▁vakat",
        -8.80350494542976
      ],
      [
        "pfu",
        -8.803717966065049
      ],
      [
        "▁masho",
        -8.8038833099721
      ],
      [
        "il",
        -8.804689234845126
      ],
      [
        "▁ka",
        -8.805447265509992
      ],
      [
        "nhau",
        -8.806104618544316
      ],
      [
        "▁ach",
        -8.806336245151957
      ],
      [
        "▁pami",
        -8.806721795216802
      ],
      [
        "9",
        -8.806912924530105
      ],
      [
        "makuru",
        -8.811749163639362
      ],
      [
        "mavh",
        -8.813104393214195
      ],
      [
        "cel",
        -8.814102395849403
      ],
      [
        "▁Kun",
        -8.814453823064971
      ],
      [
        "ll",
        -8.820352916609892
      ],
      [
        "ziviswa",
        -8.82038484556985
      ],
      [
        "▁Mi",
        -8.82149405598836
      ],
      [
        "ket",
        -8.821735289740756
      ],
      [
        "ima",
        -8.823464847825539
      ],
      [
        "ce",
        -8.824396922096177
      ],
      [
        "iki",
        -8.82467396713317
      ],
      [
        "▁zvai",
        -8.826345015523948
      ],
      [
        "▁vanod",
        -8.826705755692858
      ],
      [
        "▁Ndi",
        -8.828930864585443
      ],
      [
        "zvipira",
        -8.830398038373225
      ],
      [
        "mari",
        -8.83224970138263
      ],
      [
        "ers",
        -8.832842297589808
      ],
      [
        "op",
        -8.837086339717843
      ],
      [
        "ere",
        -8.837796147442463
      ],
      [
        "▁hazvi",
        -8.845697088815704
      ],
      [
        "kudaro",
        -8.845866147579748
      ],
      [
        "▁emu",
        -8.846107222772366
      ],
      [
        "dor",
        -8.846441213327376
      ],
      [
        "ru",
        -8.847695986560076
      ],
      [
        "angwa",
        -8.849020523196396
      ],
      [
        "azana",
        -8.84904093677576
      ],
      [
        "▁muku",
        -8.851344544322494
      ],
      [
        "fungidzir",
        -8.852464346555662
      ],
      [
        "kidza",
        -8.854150208666724
      ],
      [
        "honga",
        -8.85481900169145
      ],
      [
        "shong",
        -8.85650257419718
      ],
      [
        "ukuru",
        -8.860791159853632
      ],
      [
        "ifananidz",
        -8.861420967348087
      ],
      [
        "wanik",
        -8.863727909350047
      ],
      [
        "▁nhe",
        -8.863805229445594
      ],
      [
        "▁kuongoror",
        -8.864175765548792
      ],
      [
        "▁muk",
        -8.870520895564418
      ],
      [
        "zita",
        -8.87115134471519
      ],
      [
        "anofanir",
        -8.873611034567332
      ],
      [
        "kwezva",
        -8.878064255750607
      ],
      [
        "▁J",
        -8.878860975168424
      ],
      [
        "▁10",
        -8.881414467177562
      ],
      [
        "▁nd",
        -8.883622994864787
      ],
      [
        "▁iro",
        -8.884503716160005
      ],
      [
        "ke",
        -8.884778318587804
      ],
      [
        "endes",
        -8.885873177864607
      ],
      [
        "so",
        -8.886300788239328
      ],
      [
        "utano",
        -8.89276061557014
      ],
      [
        "iyo",
        -8.89381196528853
      ],
      [
        "fu",
        -8.896075699989147
      ],
      [
        "dare",
        -8.900992998793338
      ],
      [
        "▁Ari",
        -8.901535463332893
      ],
      [
        "▁kumha",
        -8.901568448472048
      ],
      [
        "30",
        -8.905214526988583
      ],
      [
        "▁uchid",
        -8.905439578034256
      ],
      [
        "tsoka",
        -8.906787120772563
      ],
      [
        "gwagwa",
        -8.908260029679441
      ],
      [
        "ekare",
        -8.908336549122675
      ],
      [
        "at",
        -8.913044309384954
      ],
      [
        "ekumhanya",
        -8.913543974916639
      ],
      [
        "USA",
        -8.914034883680742
      ],
      [
        "▁mutau",
        -8.914192321942245
      ],
      [
        "Canada",
        -8.915109415268269
      ],
      [
        "ss",
        -8.915311610532102
      ],
      [
        "Africa",
        -8.915848884542307
      ],
      [
        "▁Al",
        -8.917094997994262
      ],
      [
        "1.",
        -8.91815268096424
      ],
      [
        "nomwe",
        -8.920832794985403
      ],
      [
        "▁wemu",
        -8.922422830739327
      ],
      [
        "▁muHo",
        -8.928445524193807
      ],
      [
        "▁kus",
        -8.928779459461978
      ],
      [
        "ons",
        -8.933176710042135
      ],
      [
        "ami",
        -8.933267822147155
      ],
      [
        "▁kutend",
        -8.934173760878716
      ],
      [
        "ren",
        -8.93690758961284
      ],
      [
        "▁kuzvi",
        -8.937118534050152
      ],
      [
        "amb",
        -8.938941876286304
      ],
      [
        "pind",
        -8.939611858182692
      ],
      [
        "handa",
        -8.940693958024871
      ],
      [
        "▁6",
        -8.941195883625895
      ],
      [
        "▁kwava",
        -8.941634694465936
      ],
      [
        "ongoror",
        -8.942704838115851
      ],
      [
        "▁Ye",
        -8.944335468960123
      ],
      [
        "Germany",
        -8.945250217354147
      ],
      [
        "▁vezv",
        -8.946176556748012
      ],
      [
        "tsa",
        -8.9468547921527
      ],
      [
        "ding",
        -8.948155260439147
      ],
      [
        "masho",
        -8.948902636020794
      ],
      [
        "uti",
        -8.94935285882636
      ],
      [
        "za",
        -8.950616697721602
      ],
      [
        "osha",
        -8.951330294734841
      ],
      [
        "bani",
        -8.951934465320496
      ],
      [
        "ehurumende",
        -8.952963792565876
      ],
      [
        "▁rai",
        -8.956835384705014
      ],
      [
        "tungamir",
        -8.960040363019719
      ],
      [
        "iwan",
        -8.962651443107871
      ],
      [
        "dunhu",
        -8.964511761182191
      ],
      [
        "▁vasa",
        -8.965061654953427
      ],
      [
        "▁mumu",
        -8.965238465081935
      ],
      [
        "stin",
        -8.965865328333466
      ],
      [
        "ned",
        -8.967307144864092
      ],
      [
        "eshi",
        -8.967792983801408
      ],
      [
        "50",
        -8.972162333025958
      ],
      [
        "▁vanga",
        -8.974943299283826
      ],
      [
        "uruk",
        -8.974975508524217
      ],
      [
        "▁De",
        -8.975277834687368
      ],
      [
        "$",
        -8.976444948512501
      ],
      [
        "?",
        -8.976444948512503
      ],
      [
        "Super-G",
        -8.976444948626614
      ],
      [
        "ntarctic",
        -8.97644495483183
      ],
      [
        "Disney",
        -8.976445156385312
      ],
      [
        "▁rutsigiro",
        -8.976446864060797
      ],
      [
        "nhoroondo",
        -8.976447277297366
      ],
      [
        "Finland",
        -8.976451773770942
      ],
      [
        "▁zvinwiwa",
        -8.976451818204186
      ],
      [
        "Italy",
        -8.976470905834184
      ],
      [
        "dzokoror",
        -8.976476260664727
      ],
      [
        "▁reMed",
        -8.97647794420161
      ],
      [
        "▁rwaAmazon",
        -8.976498048748041
      ],
      [
        "ovha",
        -8.97659381430136
      ],
      [
        "pemberer",
        -8.97659487809765
      ],
      [
        "kusagadzikana",
        -8.976597623567493
      ],
      [
        "konzerw",
        -8.976795966669464
      ],
      [
        "Atlantic",
        -8.976806868417325
      ],
      [
        "vhidhiyo",
        -8.97687446745278
      ],
      [
        "kwidza",
        -8.976888375281879
      ],
      [
        "▁yekupisa",
        -8.976932306397837
      ],
      [
        "▁musang",
        -8.977003091809411
      ],
      [
        "▁Blacks",
        -8.977214473994719
      ],
      [
        "omerwa",
        -8.977270870963391
      ],
      [
        "▁Del",
        -8.977642171446385
      ],
      [
        "▁inowanzo",
        -8.977692029537028
      ],
      [
        "▁yeH",
        -8.977904237827952
      ],
      [
        "▁Mutaur",
        -8.978046270685748
      ],
      [
        "▁yakasiyana",
        -8.978108072007617
      ],
      [
        "▁kuP",
        -8.97829900661795
      ],
      [
        "▁dzisin",
        -8.978354156744553
      ],
      [
        "▁inosiyana",
        -8.978405394096798
      ],
      [
        "Bush",
        -8.978622687657246
      ],
      [
        "nyoresa",
        -8.979014417953737
      ],
      [
        "ruzhinji",
        -8.979064616687724
      ],
      [
        "▁dzemutungamiri",
        -8.979237706130535
      ],
      [
        "▁akadaro",
        -8.979471015369562
      ],
      [
        "▁Doro",
        -8.979709349433119
      ],
      [
        "▁naM",
        -8.979762881792858
      ],
      [
        "▁Air",
        -8.979873298014299
      ],
      [
        "cco",
        -8.979879597858414
      ],
      [
        "dumbu",
        -8.980118627072981
      ],
      [
        "nast",
        -8.980146860370676
      ],
      [
        "▁reA",
        -8.980347898113022
      ],
      [
        "▁mafambi",
        -8.980367075721016
      ],
      [
        "▁(M",
        -8.980893308694132
      ],
      [
        "▁nazvo",
        -8.981229657548452
      ],
      [
        "▁18",
        -8.981580356058286
      ],
      [
        "▁zvichikonzer",
        -8.981613364236985
      ],
      [
        "▁mashoma",
        -8.982192542322572
      ],
      [
        "▁Gunyana",
        -8.982487933928594
      ],
      [
        "▁kubata",
        -8.98261466247997
      ],
      [
        "izvozvo",
        -8.982676429932175
      ],
      [
        "ok",
        -8.98340607072058
      ],
      [
        "39",
        -8.983425314055625
      ],
      [
        "▁mumahotera",
        -8.983599289204694
      ],
      [
        "▁Ol",
        -8.98365093515962
      ],
      [
        "▁Sch",
        -8.983840228789617
      ],
      [
        "▁varwi",
        -8.983895319032307
      ],
      [
        "▁nezvimwe",
        -8.98445545409144
      ],
      [
        "Chitatu",
        -8.98486153210387
      ],
      [
        "▁yekare",
        -8.984964360933763
      ],
      [
        "▁kwauri",
        -8.985060866230176
      ],
      [
        "▁21",
        -8.985085092369928
      ],
      [
        "▁Dzi",
        -8.985438787661433
      ],
      [
        "▁kumbobv",
        -8.98564603157108
      ],
      [
        "▁kuchinj",
        -8.986269399411523
      ],
      [
        "▁zvehup",
        -8.986703868402472
      ],
      [
        "enzanis",
        -8.986861935916842
      ],
      [
        "Massa",
        -8.987271671468642
      ],
      [
        "vakuru",
        -8.988335613681805
      ],
      [
        "gar",
        -8.988438446037017
      ],
      [
        "irasi",
        -8.988595357942877
      ],
      [
        "Gree",
        -8.988606302749531
      ],
      [
        "mumatare",
        -8.988715977598712
      ],
      [
        "▁July",
        -8.988870285645003
      ],
      [
        "kumahombekombe",
        -8.989277481780722
      ],
      [
        "umb",
        -8.989504629505163
      ],
      [
        "▁kwekutanga",
        -8.989687497759983
      ],
      [
        "▁akambo",
        -8.990472612375928
      ],
      [
        "▁Dham",
        -8.990582032907403
      ],
      [
        "▁kwese",
        -8.991041445522503
      ],
      [
        "▁mamiri",
        -8.991386226496179
      ],
      [
        "echando",
        -8.991513541314372
      ],
      [
        "▁24",
        -8.992041139378797
      ],
      [
        "▁dzemusango",
        -8.992142022760566
      ],
      [
        "vhota",
        -8.992556870104538
      ],
      [
        "▁payaka",
        -8.993322026609118
      ],
      [
        "▁kuyambu",
        -8.993543437226675
      ],
      [
        "▁Grand",
        -8.993811725437375
      ],
      [
        "▁reMa",
        -8.994388427939555
      ],
      [
        "Car",
        -8.995264942176634
      ],
      [
        "▁akazo",
        -8.995448456779211
      ],
      [
        "▁muzana",
        -8.995847613460182
      ],
      [
        "India",
        -8.997086172647665
      ],
      [
        "▁husiku",
        -8.99719472074932
      ],
      [
        "II",
        -8.99768823441323
      ],
      [
        "▁yendege",
        -8.997949958160358
      ],
      [
        "▁Paaiv",
        -8.999057089278061
      ],
      [
        "▁vachiona",
        -9.00009895236678
      ],
      [
        "4,",
        -9.000185123863682
      ],
      [
        "▁vachiita",
        -9.000248759520321
      ],
      [
        "ler",
        -9.002122177814378
      ],
      [
        "elly",
        -9.002131046372478
      ],
      [
        "ip",
        -9.002286416320121
      ],
      [
        "▁mumvura",
        -9.002432342584935
      ],
      [
        "ym",
        -9.00304232279517
      ],
      [
        "▁yakait",
        -9.003983506512085
      ],
      [
        "▁kushandiswa",
        -9.004099645103269
      ],
      [
        "▁nechikwata",
        -9.004564611421047
      ],
      [
        "▁Hu",
        -9.00749183107973
      ],
      [
        "▁muS",
        -9.007987998271153
      ],
      [
        "▁kukwikwidza",
        -9.009032781451396
      ],
      [
        "poter",
        -9.009362423633391
      ],
      [
        "▁asinga",
        -9.009717969195801
      ],
      [
        "▁Yaka",
        -9.010410458761909
      ],
      [
        "▁zvacho",
        -9.010633257479686
      ],
      [
        "yeka",
        -9.01069104535943
      ],
      [
        "▁vafambi",
        -9.010868522533869
      ],
      [
        "▁ichait",
        -9.012885441704608
      ],
      [
        "▁Mutungamiri",
        -9.013122433984517
      ],
      [
        "▁(N",
        -9.01331126334192
      ],
      [
        "▁zvikwata",
        -9.01439012758153
      ],
      [
        "▁rega",
        -9.01627022257759
      ],
      [
        "ama",
        -9.01635261504688
      ],
      [
        "jeka",
        -9.017865242066836
      ],
      [
        "▁mit",
        -9.018694493047104
      ],
      [
        "Senet",
        -9.018972181018295
      ],
      [
        "ur",
        -9.0198633418672
      ],
      [
        "▁Fe",
        -9.020505007460645
      ],
      [
        "dzoka",
        -9.020695320085114
      ],
      [
        "▁nani",
        -9.023001223928452
      ],
      [
        "epu",
        -9.023023809312338
      ],
      [
        "tongo",
        -9.024086594429885
      ],
      [
        "mutungamiri",
        -9.024689269321623
      ],
      [
        "Nor",
        -9.025336004541865
      ],
      [
        "▁paawa",
        -9.026394955578143
      ],
      [
        "16",
        -9.026985827703184
      ],
      [
        "echipiri",
        -9.027777307065875
      ],
      [
        "erana",
        -9.027922448630587
      ],
      [
        "▁b",
        -9.029198125149582
      ],
      [
        "matunhu",
        -9.030745881195053
      ],
      [
        "▁asin",
        -9.031835918151815
      ],
      [
        "▁zvinod",
        -9.033082482213834
      ],
      [
        "vimbo",
        -9.034046324794796
      ],
      [
        "ashoma",
        -9.034811717394385
      ],
      [
        "▁chitsuw",
        -9.035290889070948
      ],
      [
        "▁Dz",
        -9.040219069982095
      ],
      [
        "nakidza",
        -9.043364945056187
      ],
      [
        "swa",
        -9.044770613873457
      ],
      [
        "▁zvekudya",
        -9.045349064931614
      ],
      [
        "ropa",
        -9.046072825606453
      ],
      [
        "▁yakadai",
        -9.04905109267239
      ],
      [
        "▁wekut",
        -9.049890624279044
      ],
      [
        "▁kugadzirwa",
        -9.051504176492859
      ],
      [
        "Copenhagen",
        -9.053148959620568
      ],
      [
        "▁Pla",
        -9.054186772826972
      ],
      [
        "burits",
        -9.054906566695312
      ],
      [
        "ul",
        -9.055132358393303
      ],
      [
        "▁yemaOlympic",
        -9.055641884034625
      ],
      [
        "je",
        -9.05589823544069
      ],
      [
        "mapepa",
        -9.056749417966273
      ],
      [
        "▁Si",
        -9.058142872076596
      ],
      [
        "zera",
        -9.059314883022576
      ],
      [
        "▁utachiona",
        -9.064092611179001
      ],
      [
        "▁vato",
        -9.064237332931931
      ],
      [
        "▁dzach",
        -9.065822507555831
      ],
      [
        "Bar",
        -9.06763061173459
      ],
      [
        "US",
        -9.068160164785441
      ],
      [
        "Afghanistan",
        -9.068450866153729
      ],
      [
        "Pale",
        -9.068480386943698
      ],
      [
        "ofi",
        -9.070000825403513
      ],
      [
        "▁uchiend",
        -9.071857783878087
      ],
      [
        "eutano",
        -9.074577531175533
      ],
      [
        "▁9",
        -9.074603372666344
      ],
      [
        "▁mapa",
        -9.07460477649428
      ],
      [
        "64",
        -9.075044398949515
      ],
      [
        "bha",
        -9.075385036861888
      ],
      [
        "edzisir",
        -9.076619235772176
      ],
      [
        "tsuwa",
        -9.076997990099684
      ],
      [
        "▁kugadzirira",
        -9.078031014620212
      ],
      [
        "▁zvak",
        -9.082862201398656
      ],
      [
        "engen",
        -9.083012595262339
      ],
      [
        "chipiri",
        -9.083022849563703
      ],
      [
        "▁Co",
        -9.08363542852915
      ],
      [
        "noenderana",
        -9.08511138940543
      ],
      [
        "upenyu",
        -9.086419322866506
      ],
      [
        "hando",
        -9.086493158155518
      ],
      [
        "okwa",
        -9.086973196888298
      ],
      [
        "ekutandarira",
        -9.091243237319498
      ],
      [
        "▁nz",
        -9.093157000831962
      ],
      [
        "▁kunets",
        -9.095844869182562
      ],
      [
        "imbo",
        -9.09603995223428
      ],
      [
        "▁Tr",
        -9.096624228924329
      ],
      [
        "▁Sea",
        -9.096809765029702
      ],
      [
        "▁zvich",
        -9.099124755038833
      ],
      [
        "akataura",
        -9.099209071808188
      ],
      [
        "sipo",
        -9.099564843247718
      ],
      [
        "akadzika",
        -9.103697820734697
      ],
      [
        "▁kuramb",
        -9.103843955911332
      ],
      [
        "fambira",
        -9.10432412835983
      ],
      [
        "▁mabho",
        -9.104328614894522
      ],
      [
        "fananidz",
        -9.106241877669031
      ],
      [
        "venza",
        -9.10637884817243
      ],
      [
        "nekwa",
        -9.108719265014944
      ],
      [
        "reba",
        -9.11090511446873
      ],
      [
        "egungwa",
        -9.11421693476886
      ],
      [
        "tenderedz",
        -9.116562452397531
      ],
      [
        "kamb",
        -9.117623735284594
      ],
      [
        "vakaita",
        -9.117937590010916
      ],
      [
        "▁kup",
        -9.118124068489434
      ],
      [
        "pan",
        -9.119138055908397
      ],
      [
        "eral",
        -9.119803209469847
      ],
      [
        "zvimirira",
        -9.122052974915281
      ],
      [
        "rane",
        -9.125044507926406
      ],
      [
        "ning",
        -9.125734021156614
      ],
      [
        "ny",
        -9.125791348753069
      ],
      [
        "▁tichi",
        -9.125885051801054
      ],
      [
        "aifanir",
        -9.12662116726279
      ],
      [
        "▁ndir",
        -9.126781428396896
      ],
      [
        "▁Ve",
        -9.127022098852049
      ],
      [
        "akakundikana",
        -9.12859634364457
      ],
      [
        "▁t",
        -9.131318616469107
      ],
      [
        "▁yaing",
        -9.131626546435623
      ],
      [
        "▁Pri",
        -9.13201408870907
      ],
      [
        "kanzur",
        -9.132646332888081
      ],
      [
        "▁kub",
        -9.134079739387149
      ],
      [
        "▁mh",
        -9.135210074291468
      ],
      [
        "atsan",
        -9.136270746982222
      ],
      [
        "nce",
        -9.137292501357688
      ],
      [
        "▁St",
        -9.137676064689748
      ],
      [
        "wanda",
        -9.14154171601276
      ],
      [
        "J",
        -9.14244887792157
      ],
      [
        "▁naPr",
        -9.146421815192257
      ],
      [
        "olle",
        -9.14761299961707
      ],
      [
        "od",
        -9.151155083016347
      ],
      [
        "pend",
        -9.151179714649935
      ],
      [
        "kufambisa",
        -9.153686387218603
      ],
      [
        "▁kumbo",
        -9.153718637065563
      ],
      [
        "▁nek",
        -9.154233880536706
      ],
      [
        "akatenderedz",
        -9.155855733362
      ],
      [
        "alo",
        -9.156070004674634
      ],
      [
        "zvibo",
        -9.15819919580991
      ],
      [
        "svik",
        -9.158827197546938
      ],
      [
        "ep",
        -9.159852224163163
      ],
      [
        "▁kudzika",
        -9.161176055815833
      ],
      [
        "▁Republic",
        -9.16208810267741
      ],
      [
        "ekuJapan",
        -9.162466748539504
      ],
      [
        "siyan",
        -9.16272768332008
      ],
      [
        "ida",
        -9.163757235878611
      ],
      [
        "ito",
        -9.165272510263827
      ],
      [
        "upind",
        -9.166812212870461
      ],
      [
        "shu",
        -9.167323630808218
      ],
      [
        "aita",
        -9.169585119813616
      ],
      [
        "ci",
        -9.17043606832822
      ],
      [
        "▁reS",
        -9.17220572691051
      ],
      [
        "apera",
        -9.173595624586724
      ],
      [
        "▁mwe",
        -9.17418965384875
      ],
      [
        "zvikwata",
        -9.17427281372678
      ],
      [
        "▁dzakakur",
        -9.175639919463292
      ],
      [
        "Chi",
        -9.176146598325113
      ],
      [
        "way",
        -9.178708462271711
      ],
      [
        "nokwanis",
        -9.18304902050292
      ],
      [
        "aki",
        -9.183167242045904
      ],
      [
        "ze",
        -9.18378262633776
      ],
      [
        "▁Na",
        -9.186184872774946
      ],
      [
        "yam",
        -9.18730490884923
      ],
      [
        "▁Z",
        -9.188643831470682
      ],
      [
        "udza",
        -9.192744665085087
      ],
      [
        "omo",
        -9.193510708682213
      ],
      [
        "mahombekombe",
        -9.193719045591891
      ],
      [
        "▁mako",
        -9.194746195396867
      ],
      [
        "▁kujaira",
        -9.194890024735441
      ],
      [
        "▁un",
        -9.196052240713001
      ],
      [
        "▁Bo",
        -9.19749359789674
      ],
      [
        "batsira.",
        -9.19816438158799
      ],
      [
        "maguta",
        -9.199024350450257
      ],
      [
        "▁Pol",
        -9.199059453708989
      ],
      [
        "kumbira",
        -9.1991962810414
      ],
      [
        "rent",
        -9.199784910109447
      ],
      [
        "45",
        -9.200649302225724
      ],
      [
        "▁pach",
        -9.201528173957078
      ],
      [
        "akanakisisa",
        -9.202812316286728
      ],
      [
        "st",
        -9.205254071489417
      ],
      [
        "▁Har",
        -9.20553239055899
      ],
      [
        "oti",
        -9.206106383574816
      ],
      [
        "▁mas",
        -9.20932822027219
      ],
      [
        "▁zvezvitsuwa",
        -9.210444327322978
      ],
      [
        "▁zvivak",
        -9.211848357989156
      ],
      [
        "ration",
        -9.212564849727537
      ],
      [
        "Baltic",
        -9.214511444940955
      ],
      [
        "▁vema",
        -9.217848564711252
      ],
      [
        "suw",
        -9.217861829338505
      ],
      [
        "amu",
        -9.2210776911861
      ],
      [
        "tumir",
        -9.222104319561296
      ],
      [
        "▁kupi",
        -9.22331798611334
      ],
      [
        "▁kurong",
        -9.2235626444503
      ],
      [
        "▁vakato",
        -9.22414876785311
      ],
      [
        "rege",
        -9.226009657434009
      ],
      [
        "ngara",
        -9.226484635219506
      ],
      [
        "▁anokwan",
        -9.228433617034185
      ],
      [
        "oni",
        -9.228467655771466
      ],
      [
        "▁Ba",
        -9.2284893319929
      ],
      [
        "ota",
        -9.22875972358047
      ],
      [
        "nguru",
        -9.230673222746882
      ],
      [
        "mbi",
        -9.23225232627482
      ],
      [
        "▁dzinop",
        -9.233252063047782
      ],
      [
        "▁enyika",
        -9.236596469294692
      ],
      [
        "▁ezvi",
        -9.237582752519009
      ],
      [
        "achibva",
        -9.238068443427746
      ],
      [
        "dze",
        -9.241164081704886
      ],
      [
        "alt",
        -9.243706453617209
      ],
      [
        "ris",
        -9.244326522248631
      ],
      [
        "ir",
        -9.245129304752263
      ],
      [
        "▁yechi",
        -9.24650471408642
      ],
      [
        "haraunda",
        -9.247949009067192
      ],
      [
        "endege",
        -9.249671319317311
      ],
      [
        "guva",
        -9.252360868658975
      ],
      [
        "kubudirira",
        -9.25271335277967
      ],
      [
        "Chik",
        -9.25743338609148
      ],
      [
        "-19",
        -9.257533621437034
      ],
      [
        "ashure",
        -9.26100010601779
      ],
      [
        "ational",
        -9.261329233034388
      ],
      [
        "▁nh",
        -9.261405550673775
      ],
      [
        "▁To",
        -9.263799188964304
      ],
      [
        "dzika",
        -9.264004639662035
      ],
      [
        "unonzi",
        -9.26553539430832
      ],
      [
        "▁vach",
        -9.2657571576904
      ],
      [
        "▁Pasi",
        -9.267363567375007
      ],
      [
        "F",
        -9.267740397088954
      ],
      [
        "mirira",
        -9.268048331683058
      ],
      [
        "▁Ge",
        -9.270340107513793
      ],
      [
        "ngango",
        -9.27238682630006
      ],
      [
        "▁Ri",
        -9.275502178600693
      ],
      [
        "zviita",
        -9.277055309131129
      ],
      [
        "▁kungo",
        -9.277347226864075
      ],
      [
        "uku",
        -9.278019265977036
      ],
      [
        "kundikana",
        -9.278505648603646
      ],
      [
        "▁dzinod",
        -9.279381238291451
      ],
      [
        "oneka",
        -9.27982553133459
      ],
      [
        "▁kuri",
        -9.27988015594012
      ],
      [
        "utemo",
        -9.284632397318264
      ],
      [
        "vaiva",
        -9.285990370768523
      ],
      [
        "ell",
        -9.286948099620467
      ],
      [
        "▁17",
        -9.2889988901908
      ],
      [
        "aunofamba",
        -9.290233128286218
      ],
      [
        "▁weS",
        -9.291755342248084
      ],
      [
        "ent",
        -9.292849325279585
      ],
      [
        "dzidzi",
        -9.295351531441067
      ],
      [
        "▁Par",
        -9.295635069138793
      ],
      [
        "▁yegor",
        -9.297679099032344
      ],
      [
        "hama",
        -9.297920014001157
      ],
      [
        "onga",
        -9.30210020862519
      ],
      [
        "▁kuvh",
        -9.30413649617762
      ],
      [
        "▁necheku",
        -9.304144226598392
      ],
      [
        "la",
        -9.304930715900436
      ],
      [
        "ezvitsuwa",
        -9.307278425776271
      ],
      [
        "akatang",
        -9.30848103099836
      ],
      [
        "▁Ca",
        -9.308492669457541
      ],
      [
        "land",
        -9.31015391180369
      ],
      [
        "▁zvakada",
        -9.310938022477188
      ],
      [
        "kutandarira",
        -9.313010990600773
      ],
      [
        "ishu",
        -9.313701701347206
      ],
      [
        "ist",
        -9.315591867283157
      ],
      [
        "id",
        -9.317718432282607
      ],
      [
        "akwanis",
        -9.320251023572043
      ],
      [
        "unz",
        -9.320317309179732
      ],
      [
        "ak",
        -9.324812428806046
      ],
      [
        "one",
        -9.325201008378299
      ],
      [
        "▁kutya",
        -9.325466572418629
      ],
      [
        "puran",
        -9.328387403666696
      ],
      [
        "▁mus",
        -9.32947745004081
      ],
      [
        "kwana",
        -9.331841799839772
      ],
      [
        "akanga",
        -9.332762487830479
      ],
      [
        "ndu",
        -9.333690648266325
      ],
      [
        "pako",
        -9.334318751589723
      ],
      [
        "huka",
        -9.334680585170142
      ],
      [
        "▁achid",
        -9.335309454716512
      ],
      [
        "nyatso",
        -9.335748552351042
      ],
      [
        "Olympics",
        -9.33726429259236
      ],
      [
        "▁kunz",
        -9.338160170194758
      ],
      [
        "▁Pe",
        -9.339094911141174
      ],
      [
        "▁chakait",
        -9.339118381649639
      ],
      [
        "itik",
        -9.342556674698232
      ],
      [
        "af",
        -9.343720427712334
      ],
      [
        "enzi",
        -9.34480222034696
      ],
      [
        "▁Po",
        -9.346165710044339
      ],
      [
        "ekutenges",
        -9.347194081295596
      ],
      [
        "ogona",
        -9.348700180240332
      ],
      [
        "▁kuye",
        -9.34886570697675
      ],
      [
        "▁kwem",
        -9.350168109168173
      ],
      [
        "evanhu",
        -9.35229375756399
      ],
      [
        "isira",
        -9.353139639374904
      ],
      [
        "putika",
        -9.354978495976326
      ],
      [
        "eku",
        -9.357083290331046
      ],
      [
        "rist",
        -9.357091080902997
      ],
      [
        "▁pakun",
        -9.357220213197541
      ],
      [
        "▁rema",
        -9.357327775680332
      ],
      [
        "zviri",
        -9.357353186184756
      ],
      [
        "▁akabv",
        -9.361229118080029
      ],
      [
        "roorwa",
        -9.361386063052567
      ],
      [
        "▁pakupe",
        -9.36217839153468
      ],
      [
        "▁hun",
        -9.363225360846785
      ],
      [
        "mhanyi",
        -9.36387760581119
      ],
      [
        "▁wain",
        -9.364263900100228
      ],
      [
        "▁nekudzok",
        -9.364381208394153
      ],
      [
        "vhakacha",
        -9.3647239687476
      ],
      [
        "hura",
        -9.365633388584518
      ],
      [
        "tombo",
        -9.366420078401095
      ],
      [
        "0",
        -9.367766138959066
      ],
      [
        "▁vakang",
        -9.36977969150522
      ],
      [
        "tsigir",
        -9.37049149623659
      ],
      [
        "bu",
        -9.371757954828269
      ],
      [
        "▁nemi",
        -9.372914733419897
      ],
      [
        "▁kuon",
        -9.372921500583967
      ],
      [
        "▁weva",
        -9.37319505508034
      ],
      [
        "man",
        -9.373484486222983
      ],
      [
        "mani",
        -9.376805099909213
      ],
      [
        "edu",
        -9.381510060900526
      ],
      [
        "▁nekuf",
        -9.381669591195415
      ],
      [
        "rika",
        -9.382006920202063
      ],
      [
        "eni",
        -9.385403519391765
      ],
      [
        "▁kwezv",
        -9.386279652957285
      ],
      [
        "zivis",
        -9.388524146355367
      ],
      [
        "akatevedzana",
        -9.3890914250177
      ],
      [
        "kamba",
        -9.39138883778077
      ],
      [
        "Britain",
        -9.39413198373728
      ],
      [
        "500",
        -9.394696492616658
      ],
      [
        "La",
        -9.395365830236278
      ],
      [
        "iva",
        -9.395834583050227
      ],
      [
        "▁mita",
        -9.397401817767356
      ],
      [
        "ux",
        -9.397777234494662
      ],
      [
        "ec",
        -9.398415358505828
      ],
      [
        "▁maz",
        -9.398803495107199
      ],
      [
        "ty",
        -9.3989453532454
      ],
      [
        "▁rakawand",
        -9.400505091898934
      ],
      [
        "ebhu",
        -9.400525459057883
      ],
      [
        "mar",
        -9.403320504359874
      ],
      [
        "izo",
        -9.40339369226535
      ],
      [
        "▁One",
        -9.403461468715085
      ],
      [
        "▁akat",
        -9.40830002332176
      ],
      [
        "rema",
        -9.409382253036894
      ],
      [
        "asikirw",
        -9.409538900500687
      ],
      [
        "▁Rese",
        -9.410762422148201
      ],
      [
        "firimu",
        -9.41770756024982
      ],
      [
        "uta",
        -9.41803655846702
      ],
      [
        "All",
        -9.419087627940007
      ],
      [
        "▁paai",
        -9.421259958895757
      ],
      [
        "▁yepa",
        -9.422346718942595
      ],
      [
        "tori",
        -9.422684069241939
      ],
      [
        "▁kuto",
        -9.424521183499538
      ],
      [
        "▁chire",
        -9.425885393048052
      ],
      [
        "▁kuM",
        -9.426477130419219
      ],
      [
        "20",
        -9.427935264222029
      ],
      [
        "▁kupfu",
        -9.430310585784333
      ],
      [
        "emhuka",
        -9.431542980359449
      ],
      [
        "zvitsuwa",
        -9.432121820289147
      ],
      [
        "kunyanya",
        -9.432599396974306
      ],
      [
        "dege",
        -9.432849116420108
      ],
      [
        "▁ndo",
        -9.433647101153237
      ],
      [
        "pende",
        -9.43366885184693
      ],
      [
        "▁Con",
        -9.436919252588483
      ],
      [
        "ni.",
        -9.438191202131902
      ],
      [
        "ira.",
        -9.440722512712991
      ],
      [
        "▁Inde",
        -9.441603869076015
      ],
      [
        "▁kud",
        -9.44193668437222
      ],
      [
        "vhiki",
        -9.44193857489682
      ],
      [
        "kabat",
        -9.442284243820751
      ],
      [
        "inotarisir",
        -9.444390749038476
      ],
      [
        "rava",
        -9.445330617011432
      ],
      [
        "▁neA",
        -9.44694311408101
      ],
      [
        "nde",
        -9.447100148546554
      ],
      [
        "Q",
        -9.447527900334013
      ],
      [
        "cle",
        -9.449473374815607
      ],
      [
        "erer",
        -9.449517104629098
      ],
      [
        "▁pav",
        -9.450124783878318
      ],
      [
        "notsigira",
        -9.452252071029676
      ],
      [
        "hara",
        -9.45376012305154
      ],
      [
        "kurwisa",
        -9.453993378225142
      ],
      [
        "bour",
        -9.454417309908484
      ],
      [
        "osvika",
        -9.454873122713447
      ],
      [
        "▁kuG",
        -9.456489197680089
      ],
      [
        "akaoma",
        -9.456996318586944
      ],
      [
        "tember",
        -9.457696273245285
      ],
      [
        "hoo",
        -9.45781559996438
      ],
      [
        "tions",
        -9.457968325684364
      ],
      [
        "zvekudya",
        -9.45814969001734
      ],
      [
        "▁nemar",
        -9.458966012288498
      ],
      [
        "▁akata",
        -9.461480430714937
      ],
      [
        "▁pamu",
        -9.461554430842426
      ],
      [
        "wenza",
        -9.461820430499444
      ],
      [
        "maOlympic",
        -9.462942271619479
      ],
      [
        "apira",
        -9.463504992277002
      ],
      [
        "▁\"N",
        -9.464800509262691
      ],
      [
        "kar",
        -9.465061866166431
      ],
      [
        "kawanda",
        -9.465240978934952
      ],
      [
        "ame",
        -9.465304547995373
      ],
      [
        "▁haa",
        -9.465349834424604
      ],
      [
        "oka",
        -9.465355784124174
      ],
      [
        "kubatana",
        -9.465369994973996
      ],
      [
        "▁pan",
        -9.465699224352818
      ],
      [
        "uray",
        -9.46659906898728
      ],
      [
        "The",
        -9.467069117151004
      ],
      [
        "gi",
        -9.467425961535197
      ],
      [
        "angosar",
        -9.468138178448998
      ],
      [
        "atombo",
        -9.468819500372494
      ],
      [
        "utong",
        -9.46941038066155
      ],
      [
        "uvhu",
        -9.46987639949915
      ],
      [
        "ekuBr",
        -9.47129330438941
      ],
      [
        "Ro",
        -9.47260419168855
      ],
      [
        "inhamb",
        -9.473084531634377
      ],
      [
        "chigar",
        -9.473197597232721
      ],
      [
        "Mutungamiri",
        -9.473331376535382
      ],
      [
        "hombe",
        -9.473459407855986
      ],
      [
        "agu",
        -9.473748215627104
      ],
      [
        "ball",
        -9.47459090692345
      ],
      [
        "ü",
        -9.475047825020404
      ],
      [
        "Championship",
        -9.47644494847256
      ],
      [
        "Whitehall",
        -9.476444948472619
      ],
      [
        "▁Association",
        -9.476444948472688
      ],
      [
        "H5N1",
        -9.476444948474079
      ],
      [
        "▁reCaspian",
        -9.47644494847551
      ],
      [
        "▁Khandelwal",
        -9.476444948476502
      ],
      [
        "▁putugadzike",
        -9.476444948484943
      ],
      [
        "Istanbul",
        -9.476444948491451
      ],
      [
        "Ovechkin",
        -9.476444948500328
      ],
      [
        "▁Kirchner",
        -9.476444948505074
      ],
      [
        "ç",
        -9.476444948512505
      ],
      [
        "Fallujah",
        -9.476444948607403
      ],
      [
        "▁International",
        -9.476444948685085
      ],
      [
        "▁pekuMabvazuva",
        -9.476444948692627
      ],
      [
        "▁ZMapp",
        -9.476444948699097
      ],
      [
        "▁fencing",
        -9.476444948721353
      ],
      [
        "▁Rainbow",
        -9.476444948774377
      ],
      [
        "maresitorendi",
        -9.47644494892344
      ],
      [
        "▁naJohn",
        -9.47644494898313
      ],
      [
        "▁Slalom",
        -9.476444952254452
      ],
      [
        "▁hockey",
        -9.476444954955253
      ],
      [
        "▁Stearns",
        -9.476444955456888
      ],
      [
        "akagwinya",
        -9.47644495787528
      ],
      [
        "Argentin",
        -9.476444962107449
      ],
      [
        "▁neAmenia",
        -9.476444968290869
      ],
      [
        "▁kusimukira",
        -9.476444969282582
      ],
      [
        "▁Romney",
        -9.476444972054185
      ],
      [
        "bhakitiriya",
        -9.476444974592633
      ],
      [
        "▁Stewart",
        -9.476444980985109
      ],
      [
        "ragibhi",
        -9.476445002658966
      ],
      [
        "▁Petersburg",
        -9.476445028638281
      ],
      [
        "bhiriji",
        -9.476445084789674
      ],
      [
        "Indaneti",
        -9.47644509238364
      ],
      [
        "a11:",
        -9.476445113926253
      ],
      [
        "zvesayenzi",
        -9.476445117277748
      ],
      [
        "▁Fernand",
        -9.47644511887798
      ],
      [
        "oshayikira",
        -9.476445144553583
      ],
      [
        "gadheni",
        -9.476445177625079
      ],
      [
        "▁kusvetuk",
        -9.476445185957164
      ],
      [
        "▁Ocean",
        -9.476445209012077
      ],
      [
        "▁Bobek",
        -9.476445224672045
      ],
      [
        "▁mbichana",
        -9.476445228654683
      ],
      [
        "▁zvakaipisisa",
        -9.476445239109653
      ],
      [
        "udzvinyirir",
        -9.476445258384576
      ],
      [
        "▁paindaneti",
        -9.476445263118848
      ],
      [
        "▁Squa",
        -9.476445313095525
      ],
      [
        "aGumiguru",
        -9.476445506380777
      ],
      [
        "mhirizhonga",
        -9.476445506650547
      ],
      [
        "Nintendo",
        -9.476445522873037
      ],
      [
        "kuvhunduka",
        -9.476445714194274
      ],
      [
        "▁Brother",
        -9.476445793095223
      ],
      [
        "▁yaunoshandisa",
        -9.476445958801243
      ],
      [
        "▁wandeyi",
        -9.476446207199984
      ],
      [
        "nyunyut",
        -9.4764462097648
      ],
      [
        "cherechedz",
        -9.476446235523733
      ],
      [
        "▁uhwu",
        -9.476446236640452
      ],
      [
        "▁kwehuropi",
        -9.47644632769385
      ],
      [
        "Croatia",
        -9.476446403218857
      ],
      [
        "▁kwamuchaita",
        -9.476446464697023
      ],
      [
        "▁Dominican",
        -9.47644664459693
      ],
      [
        "Simpson",
        -9.476446810314746
      ],
      [
        "▁kudhakwa",
        -9.476446811553547
      ],
      [
        "▁Center",
        -9.476447060739071
      ],
      [
        "Flags",
        -9.476447349185563
      ],
      [
        "▁Gordon",
        -9.47644758220833
      ],
      [
        "pfumbamwe",
        -9.476447966217847
      ],
      [
        "▁Arizona",
        -9.47644904179293
      ],
      [
        "Ebola",
        -9.47644935136657
      ],
      [
        "wirirana",
        -9.476450266043912
      ],
      [
        "▁yakafara",
        -9.476452084272005
      ],
      [
        "▁nemagariro",
        -9.476453049191521
      ],
      [
        "▁Colbert",
        -9.476453122364452
      ],
      [
        "hemberero",
        -9.4764539513843
      ],
      [
        "▁mubepa",
        -9.47646255803514
      ],
      [
        "inotonhora",
        -9.476462959552
      ],
      [
        "▁neChina",
        -9.476468218928053
      ],
      [
        "▁basketball",
        -9.476469754102174
      ],
      [
        "Spring",
        -9.47647190548599
      ],
      [
        "▁nekukurukur",
        -9.476488284604867
      ],
      [
        "varayidz",
        -9.476491444478615
      ],
      [
        "kushamis",
        -9.476500731571583
      ],
      [
        "NBA",
        -9.47650299390154
      ],
      [
        "▁chinotapu",
        -9.476506810619869
      ],
      [
        "980",
        -9.47651069629768
      ],
      [
        "2010",
        -9.476513100577845
      ],
      [
        "▁vemuIran",
        -9.476515758695463
      ],
      [
        "scar",
        -9.476517079571272
      ],
      [
        "▁pakudzidza",
        -9.476522298434059
      ],
      [
        "Luna",
        -9.476522861326925
      ],
      [
        "▁peHo",
        -9.476524927330226
      ],
      [
        "▁1979",
        -9.47653159593162
      ],
      [
        "echi19",
        -9.476532842239466
      ],
      [
        "▁maminit",
        -9.47655675850509
      ],
      [
        "▁wandei",
        -9.476557634415482
      ],
      [
        "vandudz",
        -9.476559097676791
      ],
      [
        "▁kuBu",
        -9.476575927122198
      ],
      [
        "▁1,000",
        -9.476594775216286
      ],
      [
        "▁kutsemu",
        -9.47660978800297
      ],
      [
        "▁matanh",
        -9.476622760397982
      ],
      [
        "dimbu",
        -9.476627173680734
      ],
      [
        "▁Mutariri",
        -9.476637607206433
      ],
      [
        "Asia",
        -9.476645355979159
      ],
      [
        "singawanzo",
        -9.47665014245265
      ],
      [
        "nhabvu",
        -9.476717499162422
      ],
      [
        "akakomberedz",
        -9.476734392392112
      ],
      [
        "mmy",
        -9.476750279984767
      ],
      [
        "▁Aires",
        -9.476773139392456
      ],
      [
        "tefe",
        -9.476775652881393
      ],
      [
        "▁reIsrael",
        -9.476816057613643
      ],
      [
        "echishanu",
        -9.476816708858212
      ],
      [
        "▁Exposit",
        -9.476824637696918
      ],
      [
        "▁Hsie",
        -9.4768349507246
      ],
      [
        "rechi18",
        -9.47685145436018
      ],
      [
        "eTrans",
        -9.476868643117621
      ],
      [
        "menduru",
        -9.476873018054695
      ],
      [
        "Slov",
        -9.476876985711304
      ],
      [
        "▁anovereng",
        -9.476881945341741
      ],
      [
        "Angola",
        -9.476894418710222
      ],
      [
        "▁ndezvekuti",
        -9.476903961301426
      ],
      [
        "▁zvakazara",
        -9.476911963073814
      ],
      [
        "▁neVancouver",
        -9.476914985651701
      ],
      [
        "Conservative",
        -9.476916989037662
      ],
      [
        "▁imwecheteyo",
        -9.476925315452274
      ],
      [
        "▁goko",
        -9.476975286286466
      ],
      [
        "▁tuno",
        -9.476980875242965
      ],
      [
        "▁mizhinji",
        -9.476989440954648
      ],
      [
        "scop",
        -9.477031646628772
      ],
      [
        "verengerw",
        -9.477041277879936
      ],
      [
        "▁yakachipa",
        -9.477060969657785
      ],
      [
        "sinou",
        -9.477079621161401
      ],
      [
        "▁akazara",
        -9.477099061776165
      ],
      [
        "West",
        -9.47712960371572
      ],
      [
        "▁nekukurumidza",
        -9.477132966183238
      ],
      [
        "▁Alex",
        -9.477206521378061
      ],
      [
        "▁weUN",
        -9.477217207061855
      ],
      [
        "▁yakachenget",
        -9.477224815064666
      ],
      [
        "▁anotenges",
        -9.477297224378663
      ],
      [
        "▁Party",
        -9.47734145620417
      ],
      [
        "▁maziso",
        -9.477369323905695
      ],
      [
        "▁ra2006",
        -9.477382571827487
      ],
      [
        "▁pegomo",
        -9.477396630702746
      ],
      [
        "▁kwakasiyana",
        -9.477425115710085
      ],
      [
        "▁mabhasikoro",
        -9.477481470902804
      ],
      [
        "▁ndokuzo",
        -9.47748990034613
      ],
      [
        "ology",
        -9.47753627189348
      ],
      [
        "▁zveYen",
        -9.477539832751201
      ],
      [
        "▁naVa",
        -9.477550472339296
      ],
      [
        "▁dzakazvimirira",
        -9.47758828318367
      ],
      [
        "chell",
        -9.477597986220651
      ],
      [
        "▁wekurapa",
        -9.477602278599749
      ],
      [
        "Davey",
        -9.477647039731728
      ],
      [
        "ltur",
        -9.477647228035936
      ],
      [
        "▁Show",
        -9.477682151235502
      ],
      [
        "SW",
        -9.477717901711696
      ],
      [
        "▁Star",
        -9.477783806623275
      ],
      [
        "▁nemakomo",
        -9.477795067991526
      ],
      [
        "▁iwayo",
        -9.477812447403302
      ],
      [
        "▁kuH",
        -9.477829391983208
      ],
      [
        "üm",
        -9.477843970997919
      ],
      [
        "▁Sezvino",
        -9.47788741758107
      ],
      [
        "akavimbiswa",
        -9.477901449469499
      ],
      [
        "Kom",
        -9.477908398947323
      ],
      [
        "hwinha",
        -9.477958989561493
      ],
      [
        "▁Fron",
        -9.477981229610819
      ],
      [
        "▁inokwana",
        -9.478022463715307
      ],
      [
        "▁weAustralia",
        -9.47804287834813
      ],
      [
        "▁nedzimwewo",
        -9.47806341909532
      ],
      [
        "▁kanomwe",
        -9.478120239906774
      ],
      [
        "gavhu",
        -9.478156766847125
      ],
      [
        "zopedzis",
        -9.478170231225558
      ],
      [
        "▁Maitiro",
        -9.478196075672706
      ],
      [
        "saiti",
        -9.478289600393616
      ],
      [
        "▁bhajan",
        -9.478383564165146
      ],
      [
        "▁Necheku",
        -9.478402215573327
      ],
      [
        "▁neBo",
        -9.478443956038882
      ],
      [
        "▁kuchi",
        -9.478584648808642
      ],
      [
        "▁naG",
        -9.478684479949848
      ],
      [
        "ffer",
        -9.478872932614193
      ],
      [
        "▁Tsva",
        -9.478904243635288
      ],
      [
        "▁vakananga",
        -9.478934688114974
      ],
      [
        "▁kugadzikana",
        -9.478987680574845
      ],
      [
        "▁Korea",
        -9.479029911347292
      ],
      [
        "▁akund",
        -9.479043644977976
      ],
      [
        "▁munhukadzi",
        -9.479068007110598
      ],
      [
        "▁kumashure",
        -9.479111749623105
      ],
      [
        "▁hauna",
        -9.479137650194236
      ],
      [
        "▁Inc",
        -9.479142282245423
      ],
      [
        "▁dzapera",
        -9.47914528676169
      ],
      [
        "76",
        -9.479157714457884
      ],
      [
        "▁pakuimba",
        -9.479217666042004
      ],
      [
        "▁zvinoendera",
        -9.479244513988867
      ],
      [
        "zororo",
        -9.479245059855572
      ],
      [
        "468",
        -9.479275528929362
      ],
      [
        "▁\"Ma",
        -9.479397889985917
      ],
      [
        "▁nedzimwe",
        -9.47940135227351
      ],
      [
        "▁kugumira",
        -9.47966707709197
      ],
      [
        "▁kwakafanana",
        -9.47969148470445
      ],
      [
        "▁zvakasiyana",
        -9.479718334859175
      ],
      [
        "▁kwemahombekombe",
        -9.479787410870996
      ],
      [
        "madhamu",
        -9.47979525847093
      ],
      [
        "▁nezvimwewo",
        -9.479820137344946
      ],
      [
        "▁yavan",
        -9.47988697989929
      ],
      [
        "▁kurwara",
        -9.47996305276594
      ],
      [
        "tepfe",
        -9.480064408376656
      ],
      [
        "farira",
        -9.480083895402258
      ],
      [
        "▁Fl",
        -9.480203135902064
      ],
      [
        "▁yeHaiti",
        -9.480259270185686
      ],
      [
        "versi",
        -9.480333769890414
      ],
      [
        "▁Medi",
        -9.480375006401454
      ],
      [
        "▁zvitsva",
        -9.480412513056486
      ],
      [
        "amucha",
        -9.480435438951558
      ],
      [
        "▁anowanzo",
        -9.48045253289512
      ],
      [
        "▁refu",
        -9.480504535769427
      ],
      [
        "▁nezvechi",
        -9.480742338999628
      ],
      [
        "▁kweski",
        -9.480760585044138
      ],
      [
        "pazasi",
        -9.480862210967148
      ],
      [
        "▁cheG",
        -9.480980147219684
      ],
      [
        "▁vakazo",
        -9.48099294982451
      ],
      [
        "▁kweAfrica",
        -9.481213814663821
      ],
      [
        "▁chaiko",
        -9.481280907035893
      ],
      [
        "▁yeQ",
        -9.481340237944462
      ],
      [
        "▁nengozi",
        -9.481520764132037
      ],
      [
        "▁wajaira",
        -9.481599585902558
      ],
      [
        "▁hwega",
        -9.481720240636903
      ],
      [
        "▁nenhan",
        -9.481834533940631
      ],
      [
        "▁vakakuru",
        -9.4818769196617
      ],
      [
        "aiva",
        -9.481976679870915
      ],
      [
        "igh",
        -9.482024320323045
      ],
      [
        "▁warara",
        -9.48202886083831
      ],
      [
        "▁El",
        -9.482124572054293
      ],
      [
        "▁Feli",
        -9.482405756764651
      ],
      [
        "▁reB",
        -9.482431169683176
      ],
      [
        "▁mashandi",
        -9.482511207434026
      ],
      [
        "Arti",
        -9.48256113209507
      ],
      [
        "kuongorora",
        -9.482709323603721
      ],
      [
        "▁kutumir",
        -9.482717144251172
      ],
      [
        "▁angango",
        -9.482786018496935
      ],
      [
        "▁ekuma",
        -9.48282555385683
      ],
      [
        "▁zvakapara",
        -9.482835564170083
      ],
      [
        "vhairasi",
        -9.482916238973287
      ],
      [
        "mende",
        -9.483176371767666
      ],
      [
        "nowanzo",
        -9.483238864334648
      ],
      [
        "▁chinovhu",
        -9.483284285250964
      ],
      [
        "▁Win",
        -9.483292775123088
      ],
      [
        "▁dzekufamba",
        -9.483684834538712
      ],
      [
        "▁muJapan",
        -9.483715956958312
      ],
      [
        "vhiri",
        -9.483722062403986
      ],
      [
        "▁dzepasi",
        -9.483776595599357
      ],
      [
        "▁weN",
        -9.483870459560322
      ],
      [
        "angotanga",
        -9.48398244009056
      ],
      [
        "▁\"O",
        -9.484075333636794
      ],
      [
        "rect",
        -9.48414137201401
      ],
      [
        "▁husi",
        -9.484169738797311
      ],
      [
        "▁kechipiri",
        -9.48417921202994
      ],
      [
        "▁yadzo",
        -9.48420895229332
      ],
      [
        "bane",
        -9.484429871580133
      ],
      [
        "▁zvichipedz",
        -9.484478369484236
      ],
      [
        "▁Er",
        -9.484856387927078
      ],
      [
        "kopo",
        -9.484974905208766
      ],
      [
        "inodhonz",
        -9.485147985606849
      ],
      [
        "sununguk",
        -9.485149660208673
      ],
      [
        "tsikis",
        -9.485199559095733
      ],
      [
        "▁naye",
        -9.485209019904941
      ],
      [
        "ekukund",
        -9.485266280425
      ],
      [
        "Reid",
        -9.485361823687859
      ],
      [
        "echok",
        -9.485448823701182
      ],
      [
        "itiro",
        -9.48552057871208
      ],
      [
        "199",
        -9.485686372134033
      ],
      [
        "umh",
        -9.485769152551802
      ],
      [
        "▁kutsva",
        -9.485799316593866
      ],
      [
        "▁yekufambisa",
        -9.48584566468282
      ],
      [
        "kisi",
        -9.486031569803131
      ],
      [
        "▁zviviri",
        -9.486141534481664
      ],
      [
        "▁2017",
        -9.486339715545896
      ],
      [
        "▁remutemo",
        -9.486352441609654
      ],
      [
        "5-",
        -9.486359101667054
      ],
      [
        "▁yeN",
        -9.4865424651184
      ],
      [
        "▁zveC",
        -9.486944872577064
      ],
      [
        "▁nemiti",
        -9.487066794865479
      ],
      [
        "▁nekuzo",
        -9.487234913370935
      ],
      [
        "maofis",
        -9.48724369664494
      ],
      [
        "▁zvis",
        -9.487259612053185
      ],
      [
        "a200",
        -9.487372296326434
      ],
      [
        "ics",
        -9.487450829235012
      ],
      [
        "vara",
        -9.487475788163238
      ],
      [
        "▁kwehondo",
        -9.487803530123822
      ],
      [
        "▁Zamb",
        -9.487986462901265
      ],
      [
        "chem",
        -9.488176141346246
      ],
      [
        "▁nehurumende",
        -9.488227349917285
      ],
      [
        "uba",
        -9.488404480710233
      ],
      [
        "▁Rev",
        -9.488560205054666
      ],
      [
        "dri",
        -9.48898095371257
      ],
      [
        "▁Berlin,",
        -9.48903489575857
      ],
      [
        "▁yeB",
        -9.489044933732242
      ],
      [
        "kwikwidz",
        -9.489377704829664
      ],
      [
        "▁pemutambo",
        -9.489650287567226
      ],
      [
        "Han",
        -9.489686565320222
      ],
      [
        "▁kukoshes",
        -9.490099523250523
      ],
      [
        "▁pangosa",
        -9.490111629974539
      ],
      [
        "▁fo",
        -9.490726063260698
      ],
      [
        "dambudziko",
        -9.490785526833601
      ],
      [
        "▁usinga",
        -9.491245170324152
      ],
      [
        "kuchengete",
        -9.491249922245117
      ],
      [
        "▁unogara",
        -9.491271051104144
      ],
      [
        "sungir",
        -9.49127350306658
      ],
      [
        "▁yakazo",
        -9.491362888852326
      ],
      [
        "opu",
        -9.491448132167758
      ],
      [
        "▁yeTurk",
        -9.491469368530591
      ],
      [
        "▁zvauno",
        -9.491521018570207
      ],
      [
        "vill",
        -9.491705648865251
      ],
      [
        "▁kudzikis",
        -9.492798375012194
      ],
      [
        "▁dzinowanzos",
        -9.493019236037098
      ],
      [
        "▁dzevanhu",
        -9.493204945770284
      ],
      [
        "nyoka",
        -9.493254727264583
      ],
      [
        "▁wem",
        -9.493485277716477
      ],
      [
        "▁kunongoit",
        -9.493907067135765
      ],
      [
        "shoro",
        -9.494148462866905
      ],
      [
        "hen",
        -9.494301401405039
      ],
      [
        "–",
        -9.494372218168753
      ],
      [
        "▁wechipiri",
        -9.494872060511662
      ],
      [
        "▁Sol",
        -9.495068200951174
      ],
      [
        "rapwa",
        -9.495376258358814
      ],
      [
        "chikonzer",
        -9.495456570559384
      ],
      [
        "Haiti",
        -9.495773798803468
      ],
      [
        "6.",
        -9.496095722511626
      ],
      [
        "▁kuAustralia",
        -9.49629298185972
      ],
      [
        "▁Ot",
        -9.49648220277374
      ],
      [
        "▁nemapo",
        -9.496607046309938
      ],
      [
        "yekuburits",
        -9.497029402791563
      ],
      [
        "▁yakananga",
        -9.497032046436644
      ],
      [
        "▁mitero",
        -9.497042472080581
      ],
      [
        "kuvhotera",
        -9.497351970639166
      ],
      [
        "▁kuRo",
        -9.497900232512734
      ],
      [
        "▁nyonga",
        -9.498117014082716
      ],
      [
        "▁vaiita",
        -9.498155047336196
      ],
      [
        "▁vanofanir",
        -9.498311265187532
      ],
      [
        "▁pehu",
        -9.498335655472683
      ],
      [
        "▁vachibva",
        -9.499158313798786
      ],
      [
        "mabhodha",
        -9.499664856760653
      ],
      [
        "tell",
        -9.499815441280017
      ],
      [
        "kurira",
        -9.499935528684162
      ],
      [
        "▁kuwanik",
        -9.500107096953434
      ],
      [
        "▁vaito",
        -9.500273400427346
      ],
      [
        "▁neR",
        -9.50030356494941
      ],
      [
        "▁kwakakonzer",
        -9.500571662608008
      ],
      [
        "▁vabatsir",
        -9.500610684984961
      ],
      [
        "▁yaai",
        -9.50069905417627
      ],
      [
        "▁runyararo",
        -9.50109119971768
      ],
      [
        "han",
        -9.50138388265554
      ],
      [
        "▁Howard",
        -9.501730799083832
      ],
      [
        "▁Masang",
        -9.501915053849462
      ],
      [
        "▁richiit",
        -9.501930833408297
      ],
      [
        "▁kwevanhu",
        -9.502228877356837
      ],
      [
        "▁kweM",
        -9.502361308891368
      ],
      [
        "▁Dai",
        -9.502401686682541
      ],
      [
        "▁runo",
        -9.502540424470888
      ],
      [
        "▁August",
        -9.502546835800242
      ],
      [
        "▁Hurricane",
        -9.502644581067111
      ],
      [
        "zere",
        -9.50280772212889
      ],
      [
        "▁huru",
        -9.502814751028682
      ],
      [
        "▁Florida",
        -9.502831580987774
      ],
      [
        "eBritain",
        -9.502957472296156
      ],
      [
        "▁vakataura",
        -9.503625567837496
      ],
      [
        "▁rusununguko",
        -9.503650479816278
      ],
      [
        "embe",
        -9.50365517192052
      ],
      [
        "▁kwayo",
        -9.503754320740113
      ],
      [
        "iking",
        -9.503847276263006
      ],
      [
        "▁pamat",
        -9.503932861363976
      ],
      [
        "▁yekupinda",
        -9.504327496099483
      ],
      [
        "▁muEurope",
        -9.504553945460966
      ],
      [
        "▁hwakanaka",
        -9.50463274246641
      ],
      [
        "urg",
        -9.50504710982469
      ],
      [
        "▁aongoror",
        -9.505656990005933
      ],
      [
        "adio",
        -9.506097264471165
      ],
      [
        "▁muE",
        -9.506116980332953
      ],
      [
        "▁mazvi",
        -9.507045343871054
      ],
      [
        "▁kutamb",
        -9.507431405837089
      ],
      [
        "▁akawanik",
        -9.5074402219202
      ],
      [
        "▁muM",
        -9.507678753974018
      ],
      [
        "anosimu",
        -9.508176535369635
      ],
      [
        "▁Pam",
        -9.508494802974328
      ],
      [
        "▁MP",
        -9.508525017503953
      ],
      [
        "▁Mis",
        -9.508703913324332
      ],
      [
        "▁Tinga",
        -9.50883724474365
      ],
      [
        "▁kuty",
        -9.509376875979413
      ],
      [
        "▁kuratidz",
        -9.50952622556078
      ],
      [
        "▁Kud",
        -9.509688939903306
      ],
      [
        "▁show",
        -9.510483253567726
      ],
      [
        "akava",
        -9.510518519027347
      ],
      [
        "hafu",
        -9.510537932747031
      ],
      [
        "▁gare",
        -9.510597050408728
      ],
      [
        "▁rava",
        -9.510773327653038
      ],
      [
        "▁neI",
        -9.510865572476847
      ],
      [
        "▁yeW",
        -9.51091862593602
      ],
      [
        "▁yeCo",
        -9.51119115517397
      ],
      [
        "▁murw",
        -9.51181959439085
      ],
      [
        "▁kwakava",
        -9.512382053236651
      ],
      [
        "▁icho",
        -9.512396798934613
      ],
      [
        "▁kwadz",
        -9.512947955607952
      ],
      [
        "▁kuN",
        -9.512964237962295
      ],
      [
        "nyatsooneka",
        -9.513600670437086
      ],
      [
        "▁hau",
        -9.514027425187342
      ],
      [
        "erekedz",
        -9.514569602298941
      ],
      [
        "ahwin",
        -9.514678319453381
      ],
      [
        "▁Sho",
        -9.514868808695908
      ],
      [
        "der",
        -9.514896128978789
      ],
      [
        "▁naro",
        -9.515191242362738
      ],
      [
        "▁zvekutamb",
        -9.515880731425613
      ],
      [
        "▁mudh",
        -9.516584911646083
      ],
      [
        "▁kusha",
        -9.516994006032121
      ],
      [
        "cords",
        -9.517059790544108
      ],
      [
        "▁zvinop",
        -9.517326973340797
      ],
      [
        "▁vachengetedz",
        -9.517416839657026
      ],
      [
        "▁nezvine",
        -9.518006332327769
      ],
      [
        "▁kwavo",
        -9.518186724957111
      ],
      [
        "vakazivis",
        -9.51846167498687
      ],
      [
        "kubvumir",
        -9.518724297789404
      ],
      [
        "▁muD",
        -9.51917929095578
      ],
      [
        "▁mumako",
        -9.520276650600648
      ],
      [
        "▁sema",
        -9.52060611263219
      ],
      [
        "▁usiku",
        -9.521090596329216
      ],
      [
        "▁mavan",
        -9.521517390703547
      ],
      [
        "▁neb",
        -9.52236982752782
      ],
      [
        "▁uchino",
        -9.522375451011435
      ],
      [
        "▁yekuko",
        -9.522398980031705
      ],
      [
        "▁achip",
        -9.523301948660933
      ],
      [
        "hne",
        -9.523576203018843
      ],
      [
        "▁pachin",
        -9.523626104605302
      ],
      [
        "▁chechi",
        -9.523743509552993
      ],
      [
        "▁nemapa",
        -9.523744822180335
      ],
      [
        "erry",
        -9.524834185095598
      ],
      [
        "▁naSt",
        -9.525478939235061
      ],
      [
        "▁kukuvadz",
        -9.52578136054878
      ],
      [
        "▁kukanganis",
        -9.525851675277002
      ],
      [
        "▁aramb",
        -9.525863657978013
      ],
      [
        "emotokari",
        -9.526668827287395
      ],
      [
        "▁yez",
        -9.52707230869542
      ],
      [
        "▁Mart",
        -9.527149302867493
      ],
      [
        "▁vhiki",
        -9.527167173427186
      ],
      [
        "akajairika",
        -9.52746619913531
      ],
      [
        "▁5",
        -9.528127656213503
      ],
      [
        "zvenhau",
        -9.528692570577341
      ],
      [
        "▁(kana",
        -9.52889408061987
      ],
      [
        "▁akakund",
        -9.529198939220727
      ],
      [
        "kuJapan",
        -9.530353411668015
      ],
      [
        "▁sekung",
        -9.530387934033659
      ],
      [
        "ry",
        -9.530633347829575
      ],
      [
        "chengetedzeka",
        -9.531032151790985
      ],
      [
        "arema",
        -9.532402403304435
      ],
      [
        "ou",
        -9.532901158306256
      ],
      [
        "▁Chipa",
        -9.533287636811245
      ],
      [
        "▁icha",
        -9.534144033290799
      ],
      [
        "doga",
        -9.534674797683925
      ],
      [
        "wakachena",
        -9.534716442767888
      ],
      [
        "chengeta",
        -9.534767799816281
      ],
      [
        "▁zvirwere",
        -9.534860859247917
      ],
      [
        "▁zvinodh",
        -9.53578597645675
      ],
      [
        "▁vachipe",
        -9.537134517019418
      ],
      [
        "gomo",
        -9.537344596345756
      ],
      [
        "▁dzai",
        -9.53749841165142
      ],
      [
        "▁zvinope",
        -9.537723929943741
      ],
      [
        "▁tum",
        -9.53773784881898
      ],
      [
        "▁mundege",
        -9.537807965664165
      ],
      [
        "maruva",
        -9.53782798120479
      ],
      [
        "ATA",
        -9.537945099817176
      ],
      [
        "▁zvisat",
        -9.538174629938156
      ],
      [
        "▁vairatidzir",
        -9.538500770484202
      ],
      [
        "▁zvakakonzer",
        -9.538931077217656
      ],
      [
        "reza",
        -9.5397509027044
      ],
      [
        "sl",
        -9.539996866102076
      ],
      [
        "▁US",
        -9.540430037782674
      ],
      [
        "▁avan",
        -9.540732291510919
      ],
      [
        "▁kwenz",
        -9.541734943890145
      ],
      [
        "▁rin",
        -9.541761552327282
      ],
      [
        "9,",
        -9.541801511059434
      ],
      [
        "▁nekam",
        -9.542494505727705
      ],
      [
        "▁The",
        -9.542497006554811
      ],
      [
        "7,",
        -9.54289385810062
      ],
      [
        "kurapa",
        -9.543918038173942
      ],
      [
        "paterevhizheni",
        -9.543966748512803
      ],
      [
        "muRus",
        -9.545651762530772
      ],
      [
        "kudzora",
        -9.546556374246016
      ],
      [
        "bvum",
        -9.546727955263673
      ],
      [
        "▁yezvi",
        -9.546825297583315
      ],
      [
        "▁paano",
        -9.547157198537327
      ],
      [
        "ishong",
        -9.547888891625107
      ],
      [
        "inoongoror",
        -9.548336391274646
      ],
      [
        "▁yevaka",
        -9.548550221133517
      ],
      [
        "▁mac",
        -9.549187182322417
      ],
      [
        "olo",
        -9.549739174454329
      ],
      [
        "aiitwa",
        -9.550921874403471
      ],
      [
        "▁kurwisa",
        -9.551157496369276
      ],
      [
        "rich",
        -9.551370499209925
      ],
      [
        "▁ndiri",
        -9.551575290041939
      ],
      [
        "mafungiro",
        -9.551810818064427
      ],
      [
        "berek",
        -9.553514870465499
      ],
      [
        "▁matsv",
        -9.554399640273019
      ],
      [
        "piri",
        -9.554818579537125
      ],
      [
        "▁chiit",
        -9.55517113069079
      ],
      [
        "me",
        -9.555234370487053
      ],
      [
        "ex",
        -9.556156145024431
      ],
      [
        "nakidz",
        -9.556895994842174
      ],
      [
        "Jon",
        -9.557005537740645
      ],
      [
        "▁akapa",
        -9.557277354600139
      ],
      [
        "▁kond",
        -9.557404680604694
      ],
      [
        "▁neru",
        -9.558917451313564
      ],
      [
        "▁India",
        -9.558981754804998
      ],
      [
        "veng",
        -9.559701873242203
      ],
      [
        "▁em",
        -9.560479971069043
      ],
      [
        "pata",
        -9.561943710686883
      ],
      [
        "hepf",
        -9.562850348594694
      ],
      [
        "vashandi",
        -9.5636974801085
      ],
      [
        "bhuku",
        -9.564564578926806
      ],
      [
        "▁kudzidz",
        -9.56472202047457
      ],
      [
        "▁edza",
        -9.564763238264767
      ],
      [
        "▁Res",
        -9.565330188256093
      ],
      [
        "arudzo",
        -9.56544938917693
      ],
      [
        "vhiy",
        -9.565523095964945
      ],
      [
        "unobva",
        -9.565867735100763
      ],
      [
        "irana",
        -9.566322994105622
      ],
      [
        "▁All",
        -9.566900398115484
      ],
      [
        "▁dzekun",
        -9.567471921700713
      ],
      [
        "ssar",
        -9.5679272146617
      ],
      [
        "ja",
        -9.567977302142285
      ],
      [
        "vafambi",
        -9.568990163075021
      ],
      [
        "tumbu",
        -9.569350615692839
      ],
      [
        "hure",
        -9.570487473285114
      ],
      [
        "ipata",
        -9.570578226328498
      ],
      [
        "erenge",
        -9.570787655083706
      ],
      [
        "▁Mun",
        -9.571327020398662
      ],
      [
        "▁dzepar",
        -9.572810104717114
      ],
      [
        "Rea",
        -9.573106485386152
      ],
      [
        "▁Masa",
        -9.573409945007302
      ],
      [
        "masango",
        -9.574932019763729
      ],
      [
        "▁payo",
        -9.57516932978331
      ],
      [
        "nburg",
        -9.575228174790087
      ],
      [
        "▁emo",
        -9.576675991225558
      ],
      [
        "vhiring",
        -9.5768165626738
      ],
      [
        "▁yekurar",
        -9.577646095067054
      ],
      [
        "nderana",
        -9.577698745355988
      ],
      [
        "▁echi",
        -9.578383896449349
      ],
      [
        "epanyanza",
        -9.578874126714158
      ],
      [
        "▁mumak",
        -9.578897425739385
      ],
      [
        "akanaka",
        -9.580064645603763
      ],
      [
        "kwa",
        -9.5809108390162
      ],
      [
        "▁chekut",
        -9.581169659696453
      ],
      [
        "▁pakushanya",
        -9.58246037984576
      ],
      [
        "▁matombo",
        -9.583710951150557
      ],
      [
        "egraffiti",
        -9.584294730221595
      ],
      [
        "stro",
        -9.584367095953393
      ],
      [
        "inzi",
        -9.584512668255929
      ],
      [
        "▁zvema",
        -9.58517620500311
      ],
      [
        "!",
        -9.585405386713205
      ],
      [
        "▁Canada",
        -9.585582059589107
      ],
      [
        "terevhizheni",
        -9.585776989097225
      ],
      [
        "am",
        -9.586422529345798
      ],
      [
        "▁Bu",
        -9.58680164022449
      ],
      [
        "▁ango",
        -9.586804011091079
      ],
      [
        "AC",
        -9.587185387730223
      ],
      [
        "nhuwi",
        -9.587424963352476
      ],
      [
        "▁neh",
        -9.587427743653482
      ],
      [
        "Onega",
        -9.587721587180196
      ],
      [
        "▁USA",
        -9.5879400013548
      ],
      [
        "hwa",
        -9.588042592756477
      ],
      [
        "Pl",
        -9.588164176666877
      ],
      [
        "eGermany",
        -9.5896494727849
      ],
      [
        "nda",
        -9.590008271956124
      ],
      [
        "▁rwa",
        -9.590167615283962
      ],
      [
        "ore",
        -9.590943038976587
      ],
      [
        "▁kuTa",
        -9.591691745802127
      ],
      [
        "▁yeM",
        -9.5918704937881
      ],
      [
        "dzirwa",
        -9.592620178638597
      ],
      [
        "▁mhepo",
        -9.59296210185632
      ],
      [
        "ure",
        -9.59373036044098
      ],
      [
        "zopind",
        -9.596082053459513
      ],
      [
        "▁cheva",
        -9.596195575479657
      ],
      [
        "rc",
        -9.596934400784997
      ],
      [
        "▁nenyika",
        -9.597733662482728
      ],
      [
        "kagohw",
        -9.598832693393142
      ],
      [
        "zva",
        -9.598995742827347
      ],
      [
        "umba",
        -9.599886147456079
      ],
      [
        "▁penyika",
        -9.601983844016377
      ],
      [
        "▁Lu",
        -9.60346082297778
      ],
      [
        "▁mumaOlympic",
        -9.603910255627271
      ],
      [
        "mugwagwa",
        -9.60400065176887
      ],
      [
        "eng",
        -9.604449873574499
      ],
      [
        "▁muL",
        -9.605354774995215
      ],
      [
        "oneke",
        -9.605590248246278
      ],
      [
        "▁kunaki",
        -9.605894922588691
      ],
      [
        "pei",
        -9.60608733087911
      ],
      [
        "▁kwezvi",
        -9.60674588242967
      ],
      [
        "base",
        -9.608742247822374
      ],
      [
        "hiza",
        -9.609767528291322
      ],
      [
        "▁egungwa",
        -9.610052129282948
      ],
      [
        "800",
        -9.610229626702138
      ],
      [
        "▁6.",
        -9.610885589301128
      ],
      [
        "ego",
        -9.61097331493161
      ],
      [
        "nal",
        -9.611536307688846
      ],
      [
        "Chipiri",
        -9.612263040725566
      ],
      [
        "ion",
        -9.613486914253563
      ],
      [
        "▁muBr",
        -9.614764036490012
      ],
      [
        "▁7",
        -9.615115270045674
      ],
      [
        "▁huno",
        -9.615495651387059
      ],
      [
        "ay",
        -9.618143804408371
      ],
      [
        "▁apfuura",
        -9.619123996093075
      ],
      [
        "nje",
        -9.619137242982738
      ],
      [
        "vafi",
        -9.619168812704952
      ],
      [
        "▁uchit",
        -9.62004224514454
      ],
      [
        "eruts",
        -9.621393078524887
      ],
      [
        "▁Mati",
        -9.621528456184418
      ],
      [
        "pamutemo",
        -9.621786531910734
      ],
      [
        "ekugumis",
        -9.622100032289804
      ],
      [
        "old",
        -9.623640431716339
      ],
      [
        "▁3,",
        -9.624231932730689
      ],
      [
        "▁sezvino",
        -9.624317802970337
      ],
      [
        "▁Ed",
        -9.624378171671715
      ],
      [
        "▁mabh",
        -9.625268122615887
      ],
      [
        "mboz",
        -9.625358599951074
      ],
      [
        "▁wero",
        -9.626131414539673
      ],
      [
        "▁zvinokwan",
        -9.626292503030887
      ],
      [
        "rve",
        -9.627558730968659
      ],
      [
        "▁rehu",
        -9.628263411600471
      ],
      [
        "kusimbis",
        -9.62855585929787
      ],
      [
        "aitwa",
        -9.629840006348312
      ],
      [
        "angan",
        -9.629851749406528
      ],
      [
        "furwa",
        -9.63161337565375
      ],
      [
        "▁kwai",
        -9.631909927507245
      ],
      [
        "▁dzinofambi",
        -9.631931757274794
      ],
      [
        "nos",
        -9.632249501475032
      ],
      [
        "▁Th",
        -9.633359634412953
      ],
      [
        "sashand",
        -9.633416614953795
      ],
      [
        "▁Bha",
        -9.633475148438142
      ],
      [
        "▁siyana",
        -9.634202013063781
      ],
      [
        "▁ipa",
        -9.635625859507291
      ],
      [
        "ence",
        -9.63668112660601
      ],
      [
        "▁dzicha",
        -9.637433787385193
      ],
      [
        "ekufambisa",
        -9.637832868723862
      ],
      [
        "gh",
        -9.638758454394106
      ],
      [
        "chibva",
        -9.639278367041808
      ],
      [
        "▁He",
        -9.639382997894504
      ],
      [
        "akareba",
        -9.641249122638083
      ],
      [
        "▁yait",
        -9.642275774921707
      ],
      [
        "▁dzakatang",
        -9.6431800392958
      ],
      [
        "remekedzw",
        -9.6433588213939
      ],
      [
        "husiku",
        -9.644722754508669
      ],
      [
        "adarika",
        -9.645341795128624
      ],
      [
        "▁vep",
        -9.647240935143056
      ],
      [
        "▁dzakait",
        -9.647342046995766
      ],
      [
        "kunzw",
        -9.648602833389456
      ],
      [
        "toonek",
        -9.649446457371992
      ],
      [
        "Kat",
        -9.649524067037481
      ],
      [
        "▁akadai",
        -9.649764203212445
      ],
      [
        "▁kumi",
        -9.65009606738223
      ],
      [
        "Hungar",
        -9.650768781706805
      ],
      [
        "Sul",
        -9.65086584341121
      ],
      [
        "yezvino",
        -9.650944482612934
      ],
      [
        "shandur",
        -9.65129815654169
      ],
      [
        "azvo",
        -9.652296181184775
      ],
      [
        "▁mute",
        -9.652752813501161
      ],
      [
        "zv",
        -9.653500842113665
      ],
      [
        "▁mama",
        -9.653753336263891
      ],
      [
        "▁kwekup",
        -9.65396576008835
      ],
      [
        "vedza",
        -9.655183297300287
      ],
      [
        "▁par",
        -9.655285490717656
      ],
      [
        "isinga",
        -9.656021033196994
      ],
      [
        "bhadharwa",
        -9.656391687292153
      ],
      [
        "Cong",
        -9.657483846147551
      ],
      [
        "idhi",
        -9.658049497339594
      ],
      [
        "▁zvakad",
        -9.659660074110924
      ],
      [
        "\"G",
        -9.65971397654789
      ],
      [
        "ega",
        -9.660407530036805
      ],
      [
        "▁km",
        -9.66146060133049
      ],
      [
        "▁kur",
        -9.661644011900208
      ],
      [
        "▁mutamb",
        -9.661775952146339
      ],
      [
        "soro",
        -9.662140834396126
      ],
      [
        "vapupu",
        -9.663640705818446
      ],
      [
        "▁im",
        -9.664384529283952
      ],
      [
        "tunhu",
        -9.665545410389923
      ],
      [
        "dova",
        -9.667995160563185
      ],
      [
        "vana",
        -9.668048037866107
      ],
      [
        "itirw",
        -9.670168528785178
      ],
      [
        "▁Pi",
        -9.671453852871133
      ],
      [
        "▁kaka",
        -9.671463434225931
      ],
      [
        "gira",
        -9.67183274913615
      ],
      [
        "gadzir",
        -9.672895918163114
      ],
      [
        "▁Ho",
        -9.673179744867078
      ],
      [
        "chiri",
        -9.677860893543128
      ],
      [
        "▁kumwe",
        -9.678120818451818
      ],
      [
        "▁Ham",
        -9.678218278013999
      ],
      [
        "kondi",
        -9.678640995160656
      ],
      [
        "▁yakapind",
        -9.67953979104457
      ],
      [
        "▁nes",
        -9.679986861300533
      ],
      [
        "▁bho",
        -9.682074602784418
      ],
      [
        "▁kuonek",
        -9.683651028101046
      ],
      [
        "▁Kut",
        -9.683779513925138
      ],
      [
        "▁zvamu",
        -9.68544077982695
      ],
      [
        "▁iyi.",
        -9.686638187026045
      ],
      [
        "▁198",
        -9.688274356676738
      ],
      [
        "▁1.",
        -9.68854181675402
      ],
      [
        "▁paunoshany",
        -9.689739698116538
      ],
      [
        "zvigadzirwa",
        -9.69003299712581
      ],
      [
        "ekumusha",
        -9.690137265079718
      ],
      [
        "akavhiringidz",
        -9.690378244069134
      ],
      [
        "▁Dr",
        -9.692516853017663
      ],
      [
        "kurumidza",
        -9.692865310447027
      ],
      [
        "▁ndozv",
        -9.694736748280354
      ],
      [
        "gare",
        -9.695002416664455
      ],
      [
        "usiku",
        -9.695491095813374
      ],
      [
        "▁wak",
        -9.695796916674574
      ],
      [
        "reve",
        -9.696299264467738
      ],
      [
        "nzwisis",
        -9.697954980551955
      ],
      [
        "▁rinotaur",
        -9.700439240443773
      ],
      [
        "▁Zva",
        -9.703513855773929
      ],
      [
        "afe",
        -9.704789032030291
      ],
      [
        "▁yakatang",
        -9.706856174016925
      ],
      [
        "▁muchiit",
        -9.707186796642512
      ],
      [
        "▁vasinga",
        -9.707482200521683
      ],
      [
        "ezvematongerw",
        -9.707838113612022
      ],
      [
        "rwo",
        -9.707845590796055
      ],
      [
        "kumaodzanyemba",
        -9.707983826043298
      ],
      [
        "▁tsva",
        -9.708473952252207
      ],
      [
        "tumwe",
        -9.708497237210047
      ],
      [
        "▁zvekut",
        -9.709441645343349
      ],
      [
        "van",
        -9.709884852345644
      ],
      [
        "kuenda",
        -9.710989312654432
      ],
      [
        "▁chiratidz",
        -9.712724602314744
      ],
      [
        "ipa",
        -9.712914470117715
      ],
      [
        "▁kubatana",
        -9.712947757873557
      ],
      [
        "▁edzi",
        -9.713875025948385
      ],
      [
        "▁yakator",
        -9.713981057300668
      ],
      [
        "▁nemis",
        -9.716669834647064
      ],
      [
        "fadz",
        -9.716787755687665
      ],
      [
        "uropi",
        -9.716970361222366
      ],
      [
        "tic",
        -9.717511566311945
      ],
      [
        "▁kwakato",
        -9.717697175630342
      ],
      [
        "dhur",
        -9.718742959775373
      ],
      [
        "▁kunak",
        -9.719257721359863
      ],
      [
        "rade",
        -9.719569526709655
      ],
      [
        "rove",
        -9.719595627077041
      ],
      [
        "ngozi",
        -9.719923182868216
      ],
      [
        "▁New",
        -9.721214459601544
      ],
      [
        "▁yek",
        -9.721522916321012
      ],
      [
        "▁mumhe",
        -9.721764748035973
      ],
      [
        "▁kusa",
        -9.72266411105307
      ],
      [
        "apa",
        -9.723125630380004
      ],
      [
        "▁hweku",
        -9.723132242701226
      ],
      [
        "nches",
        -9.724263314901586
      ],
      [
        "china",
        -9.725542624633349
      ],
      [
        "cl",
        -9.726270774678145
      ],
      [
        "mita",
        -9.726396499619756
      ],
      [
        "▁me",
        -9.727105359831915
      ],
      [
        "▁mata",
        -9.72747962555283
      ],
      [
        "idh",
        -9.727751653181109
      ],
      [
        "chifamba",
        -9.727925788967589
      ],
      [
        "siyana-siyana",
        -9.72821900629582
      ],
      [
        "...",
        -9.72877249998174
      ],
      [
        "musasa",
        -9.7291184679179
      ],
      [
        "▁zvim",
        -9.730819088569868
      ],
      [
        "ubayir",
        -9.73093602413074
      ],
      [
        "kufungidzir",
        -9.732716605280592
      ],
      [
        "▁achino",
        -9.732938492396201
      ],
      [
        "▁kuve",
        -9.733765108061807
      ],
      [
        "17,",
        -9.734674989093794
      ],
      [
        "▁yaity",
        -9.734957376151417
      ],
      [
        "▁sa",
        -9.735263200982779
      ],
      [
        "etsika",
        -9.736631184437446
      ],
      [
        "nonyanyo",
        -9.738629144209083
      ],
      [
        "ezvakambo",
        -9.73863632109024
      ],
      [
        "▁kwakaz",
        -9.741484064398684
      ],
      [
        "int",
        -9.742775413519334
      ],
      [
        "gumira",
        -9.743729697530163
      ],
      [
        "▁richi",
        -9.743927393638298
      ],
      [
        "end",
        -9.744039861990133
      ],
      [
        "ez",
        -9.74476080000725
      ],
      [
        "▁kufar",
        -9.745817955245556
      ],
      [
        "aoni",
        -9.7462189817586
      ],
      [
        "▁nemapu",
        -9.746852133007868
      ],
      [
        "enga",
        -9.747947789063108
      ],
      [
        "▁King",
        -9.748542862567355
      ],
      [
        "ichato",
        -9.748653253856599
      ],
      [
        "rana",
        -9.75041432621271
      ],
      [
        "▁wakanga",
        -9.750966592887751
      ],
      [
        "risa",
        -9.75104278142711
      ],
      [
        "nt",
        -9.751720169679277
      ],
      [
        "▁kwavai",
        -9.751769043431604
      ],
      [
        "▁yekutsv",
        -9.752131905352906
      ],
      [
        "▁vashandis",
        -9.752575049921653
      ],
      [
        "▁yekushany",
        -9.753051699502116
      ],
      [
        "▁akawan",
        -9.75342785598627
      ],
      [
        "akatsin",
        -9.75380808269948
      ],
      [
        "rse",
        -9.753939770262118
      ],
      [
        "▁mush",
        -9.755653597808479
      ],
      [
        "bvis",
        -9.755668182374311
      ],
      [
        "4-1",
        -9.756756281341499
      ],
      [
        "eSchengen",
        -9.7578816074228
      ],
      [
        "Pal",
        -9.758230229860924
      ],
      [
        "uwan",
        -9.75826554998675
      ],
      [
        "vada",
        -9.75864062706078
      ],
      [
        "▁Mar",
        -9.758725341333701
      ],
      [
        "singa",
        -9.759449083592795
      ],
      [
        "ebhizinesi",
        -9.759970120370742
      ],
      [
        "2000",
        -9.763931350813216
      ],
      [
        "▁Sezv",
        -9.764376170418654
      ],
      [
        "lgar",
        -9.76471639997718
      ],
      [
        "▁yem",
        -9.764801611722321
      ],
      [
        "▁Sk",
        -9.765382112911984
      ],
      [
        "Japan",
        -9.767332067902814
      ],
      [
        "ston",
        -9.767595428365233
      ],
      [
        "▁Gor",
        -9.767714904877348
      ],
      [
        "▁remun",
        -9.768786022483551
      ],
      [
        "▁unoit",
        -9.768884285574929
      ],
      [
        "▁chezvem",
        -9.769033465706292
      ],
      [
        "▁chim",
        -9.770378285704007
      ],
      [
        "dha",
        -9.771160935606058
      ],
      [
        "▁Gom",
        -9.77138711708083
      ],
      [
        "kuda",
        -9.771484293336774
      ],
      [
        "ckla",
        -9.771947390047186
      ],
      [
        "▁zvichiri",
        -9.772056993280474
      ],
      [
        "mabha",
        -9.772948168320761
      ],
      [
        "▁ichiz",
        -9.775129481495577
      ],
      [
        "▁kweChi",
        -9.775421793658833
      ],
      [
        "▁vave",
        -9.776480749504847
      ],
      [
        "▁vechi",
        -9.777200965755451
      ],
      [
        "▁mafu",
        -9.779087407229712
      ],
      [
        "ivawo",
        -9.78026379308891
      ],
      [
        "sli",
        -9.780835493921517
      ],
      [
        "▁Pr",
        -9.781557536520205
      ],
      [
        "mboit",
        -9.782152278175001
      ],
      [
        "▁vanot",
        -9.782363428498417
      ],
      [
        "▁vachita",
        -9.782582984417996
      ],
      [
        "▁mabha",
        -9.787418478851796
      ],
      [
        "zvinofamba",
        -9.787577491320274
      ],
      [
        "▁Kubv",
        -9.787734769168422
      ],
      [
        "cher",
        -9.787771157509242
      ],
      [
        "pedze",
        -9.788771197174276
      ],
      [
        "mania",
        -9.792233769978122
      ],
      [
        "mes",
        -9.792684874070433
      ],
      [
        "ap",
        -9.793170357307428
      ],
      [
        "mumaguta",
        -9.79599907104389
      ],
      [
        "muganhu",
        -9.796729144074366
      ],
      [
        "oks",
        -9.797025225863143
      ],
      [
        "▁inova",
        -9.798740300921457
      ],
      [
        "ation",
        -9.800356557613142
      ],
      [
        "teve",
        -9.800809097082285
      ],
      [
        "s\"",
        -9.801085570643913
      ],
      [
        "ero",
        -9.801165212539399
      ],
      [
        "▁zvakako",
        -9.801498458661992
      ],
      [
        "Commi",
        -9.804125488028106
      ],
      [
        "Ty",
        -9.804421905328708
      ],
      [
        "iger",
        -9.805114752341408
      ],
      [
        "nei",
        -9.805612356302422
      ],
      [
        "▁Iwa",
        -9.80599966968765
      ],
      [
        "▁hai",
        -9.807000383989907
      ],
      [
        "▁yakatar",
        -9.807130455915706
      ],
      [
        "adza",
        -9.80762197177732
      ],
      [
        "hum",
        -9.807687273270652
      ],
      [
        "amisa",
        -9.807703233768029
      ],
      [
        "▁Neku",
        -9.80821463988713
      ],
      [
        "▁rweku",
        -9.809188614967999
      ],
      [
        "enhau",
        -9.809676230502221
      ],
      [
        "tag",
        -9.810367246281931
      ],
      [
        "akakumbira",
        -9.810622946187383
      ],
      [
        "▁kwaiit",
        -9.810754385930593
      ],
      [
        "Ku",
        -9.811566429127183
      ],
      [
        "vari",
        -9.812996853830736
      ],
      [
        "ngova",
        -9.81850075667939
      ],
      [
        "▁pekuto",
        -9.819010755065783
      ],
      [
        "▁chakata",
        -9.820343516111379
      ],
      [
        "▁Usa",
        -9.820903733305244
      ],
      [
        "▁kuma",
        -9.821583731034515
      ],
      [
        "▁kunzw",
        -9.823413879791586
      ],
      [
        "dzikam",
        -9.823552572366024
      ],
      [
        "urw",
        -9.824367088903882
      ],
      [
        "▁muta",
        -9.824699923372622
      ],
      [
        "▁50",
        -9.825521705729932
      ],
      [
        "topfuura",
        -9.825749275169624
      ],
      [
        "bhadhar",
        -9.825793128767337
      ],
      [
        "▁zvati",
        -9.826753621299611
      ],
      [
        "▁inosvik",
        -9.827165852074646
      ],
      [
        "▁zvakato",
        -9.827884686927419
      ],
      [
        "loba",
        -9.828026641484081
      ],
      [
        "li",
        -9.828120853465823
      ],
      [
        "▁pama",
        -9.829287968871178
      ],
      [
        "▁anod",
        -9.829586068527588
      ],
      [
        "kazvipira",
        -9.830977290270319
      ],
      [
        "bi",
        -9.831677021853094
      ],
      [
        "▁zvitsuw",
        -9.83538631361254
      ],
      [
        "▁ich",
        -9.835853111292483
      ],
      [
        "eg",
        -9.83604357621453
      ],
      [
        "▁yau",
        -9.836051565941801
      ],
      [
        "▁nenz",
        -9.836970590081169
      ],
      [
        "91",
        -9.837060403134636
      ],
      [
        "chiratidz",
        -9.838487538855388
      ],
      [
        "aSundarban",
        -9.842611791632336
      ],
      [
        "▁dzema",
        -9.84611234340253
      ],
      [
        "▁vachit",
        -9.847178670895094
      ],
      [
        "une",
        -9.847320136781791
      ],
      [
        "▁Nd",
        -9.848011468978022
      ],
      [
        "▁Pauno",
        -9.849666353061165
      ],
      [
        "▁chezv",
        -9.850699761173637
      ],
      [
        "▁No",
        -9.851002373472067
      ],
      [
        "▁nevano",
        -9.852657110684428
      ],
      [
        "waka",
        -9.853196062651996
      ],
      [
        "rum",
        -9.85397508500734
      ],
      [
        "▁vakamir",
        -9.85406205097737
      ],
      [
        "paradz",
        -9.854474628445098
      ],
      [
        "ipp",
        -9.856488917266166
      ],
      [
        "arwo",
        -9.856693002018112
      ],
      [
        "akaderera",
        -9.856770159001586
      ],
      [
        "chamhembe",
        -9.858899690894368
      ],
      [
        "ganis",
        -9.862366136284324
      ],
      [
        "yi",
        -9.862918007020214
      ],
      [
        "musi",
        -9.863613476536239
      ],
      [
        "▁wai",
        -9.864448270890467
      ],
      [
        "ld",
        -9.864513432682692
      ],
      [
        "▁ner",
        -9.866118477888111
      ],
      [
        "▁Za",
        -9.868365157960831
      ],
      [
        "▁weF",
        -9.868734052512739
      ],
      [
        "ozo",
        -9.86992166712457
      ],
      [
        "shoma",
        -9.87004579038892
      ],
      [
        "Um",
        -9.87007109180463
      ],
      [
        "▁Sh",
        -9.870451194547346
      ],
      [
        "▁194",
        -9.870455338849368
      ],
      [
        "Ta",
        -9.871541361360586
      ],
      [
        "opfuura",
        -9.872294919082004
      ],
      [
        "vhiringidz",
        -9.872647721427807
      ],
      [
        "nongedz",
        -9.875349676278123
      ],
      [
        "unobhadhar",
        -9.876275830281793
      ],
      [
        "penh",
        -9.876370377538246
      ],
      [
        "diw",
        -9.877913746485344
      ],
      [
        "▁nei",
        -9.877989169472034
      ],
      [
        "if",
        -9.87850470368862
      ],
      [
        "vhi",
        -9.879209592296583
      ],
      [
        "ance",
        -9.880133797420596
      ],
      [
        "nyor",
        -9.881647708706152
      ],
      [
        "akat",
        -9.882021302385006
      ],
      [
        "▁kupind",
        -9.882606586887094
      ],
      [
        "▁zvech",
        -9.885497254057391
      ],
      [
        "svits",
        -9.8865947162545
      ],
      [
        "tang",
        -9.886882576877753
      ],
      [
        "ire",
        -9.888115689824224
      ],
      [
        "emhu",
        -9.889682047656533
      ],
      [
        "▁Paun",
        -9.890009281229867
      ],
      [
        "pur",
        -9.890588575755892
      ],
      [
        "hi",
        -9.89106182470045
      ],
      [
        "▁kujair",
        -9.891626013124768
      ],
      [
        "▁yakagadzir",
        -9.894117760212847
      ],
      [
        "▁akagadziri",
        -9.89503658864557
      ],
      [
        "uva",
        -9.895430965581369
      ],
      [
        "0)",
        -9.89552017749414
      ],
      [
        "eMuvhur",
        -9.897042802724393
      ],
      [
        "ekugara",
        -9.897073169207903
      ],
      [
        "▁achin",
        -9.898339890371963
      ],
      [
        "▁wemun",
        -9.899194477262597
      ],
      [
        "mabvazuva",
        -9.901796029609756
      ],
      [
        "amwe",
        -9.903296627025448
      ],
      [
        "anca",
        -9.90329978096999
      ],
      [
        "ade",
        -9.904094143697515
      ],
      [
        "kurudz",
        -9.904895565239233
      ],
      [
        "emakuhwa",
        -9.908908315890496
      ],
      [
        "eA1GP",
        -9.90934940176104
      ],
      [
        "▁vaz",
        -9.91033749064108
      ],
      [
        "▁bhe",
        -9.911753318972202
      ],
      [
        "▁mut",
        -9.912583137109246
      ],
      [
        "▁Kwem",
        -9.915360157403915
      ],
      [
        "raig",
        -9.918891727312444
      ],
      [
        "▁nemavh",
        -9.920560559718957
      ],
      [
        "▁nevan",
        -9.920671718085588
      ],
      [
        "chena",
        -9.9208587273048
      ],
      [
        "▁dzinga",
        -9.921625182113095
      ],
      [
        "ngi",
        -9.921677665000496
      ],
      [
        "ucha",
        -9.923627154801709
      ],
      [
        "▁mape",
        -9.924260707734089
      ],
      [
        "▁cho",
        -9.92429142490651
      ],
      [
        "fina",
        -9.9249185429752
      ],
      [
        "▁remu",
        -9.924919469178297
      ],
      [
        "▁yakada",
        -9.92508600795436
      ],
      [
        "▁yakat",
        -9.925102572215566
      ],
      [
        "▁remad",
        -9.927172213913252
      ],
      [
        "▁Republica",
        -9.930783658314743
      ],
      [
        "amvur",
        -9.931499709110177
      ],
      [
        "▁munzi",
        -9.93180554264099
      ],
      [
        "▁nezveva",
        -9.932003035458376
      ],
      [
        "urege",
        -9.933048749729481
      ],
      [
        "mumwe",
        -9.933395281252768
      ],
      [
        "endo",
        -9.93349417151303
      ],
      [
        "▁Da",
        -9.93427806298067
      ],
      [
        "rong",
        -9.93569523269973
      ],
      [
        "achinakidz",
        -9.936950969415122
      ],
      [
        "▁zvep",
        -9.937055724470884
      ],
      [
        "aya",
        -9.939197400868936
      ],
      [
        "▁muno",
        -9.941562306592996
      ],
      [
        "▁nemat",
        -9.942083503395855
      ],
      [
        "shandi",
        -9.942290273467233
      ],
      [
        "▁kumb",
        -9.942746773105421
      ],
      [
        "bho",
        -9.942927043753382
      ],
      [
        "ova",
        -9.94667400505441
      ],
      [
        "kuEurope",
        -9.949576642015092
      ],
      [
        "miri",
        -9.949888541092028
      ],
      [
        "kepe",
        -9.950731348954193
      ],
      [
        "ba",
        -9.954068909026706
      ],
      [
        "kanga",
        -9.955250119752776
      ],
      [
        "aga",
        -9.956990298126952
      ],
      [
        "▁akanyor",
        -9.960186365992058
      ],
      [
        "gin",
        -9.960597329304793
      ],
      [
        "Gian",
        -9.96095589892336
      ],
      [
        "▁Ak",
        -9.961218715763994
      ],
      [
        "▁dzegor",
        -9.96358959361871
      ],
      [
        "ity",
        -9.964194072248988
      ],
      [
        "ekudzivirira",
        -9.965599489617826
      ],
      [
        "▁kweCh",
        -9.965697183964748
      ],
      [
        "anisa",
        -9.968446989278704
      ],
      [
        "angl",
        -9.968482469088233
      ],
      [
        "ekwa",
        -9.968958587548443
      ],
      [
        "▁Vi",
        -9.969656330438324
      ],
      [
        "▁Pan",
        -9.973082240497384
      ],
      [
        "a197",
        -9.973947912525293
      ],
      [
        "su",
        -9.974989914340837
      ],
      [
        "ector",
        -9.975698109065743
      ],
      [
        "wezvekufamb",
        -9.97573391839919
      ],
      [
        "▁Sant",
        -9.97587289863046
      ],
      [
        "maodzanyemba",
        -9.978289908258521
      ],
      [
        "nobva",
        -9.978680403915197
      ],
      [
        "▁30",
        -9.980085118735248
      ],
      [
        "zara",
        -9.981070603765827
      ],
      [
        "▁zvichir",
        -9.982447733754482
      ],
      [
        "midh",
        -9.986591590363409
      ],
      [
        "mumvura",
        -9.986902774605698
      ],
      [
        "▁inod",
        -9.987540597714869
      ],
      [
        "kaita",
        -9.98780770646372
      ],
      [
        "▁maf",
        -9.989048439423224
      ],
      [
        "apu",
        -9.989087218929741
      ],
      [
        "kuvhota",
        -9.990463247090409
      ],
      [
        "itemo",
        -9.9911997328512
      ],
      [
        "epamusorosoro",
        -9.992860127734133
      ],
      [
        "izvo",
        -9.995481164757305
      ],
      [
        "▁kunodz",
        -9.996436175254454
      ],
      [
        "▁Mas",
        -9.998084837680667
      ],
      [
        "emb",
        -9.999143094845294
      ],
      [
        "▁mak",
        -9.999434554886989
      ],
      [
        "tho",
        -10.003067518599403
      ],
      [
        "gorong",
        -10.003438528494673
      ],
      [
        "ek",
        -10.003452103553133
      ],
      [
        "▁z",
        -10.003765183103136
      ],
      [
        "aj",
        -10.004329268106313
      ],
      [
        "ier",
        -10.005041907648613
      ],
      [
        "dzera",
        -10.005116537747703
      ],
      [
        "fa",
        -10.005157420825721
      ],
      [
        "▁inodi",
        -10.005758379084021
      ],
      [
        "dz",
        -10.0059718822274
      ],
      [
        "aridzi",
        -10.009843716849394
      ],
      [
        "inonyanyo",
        -10.011535061955612
      ],
      [
        "▁wes",
        -10.011886810654499
      ],
      [
        "▁rwakak",
        -10.015809630911594
      ],
      [
        "eration",
        -10.01600149972373
      ],
      [
        "aneti",
        -10.017819436728084
      ],
      [
        "udyi",
        -10.019385613078411
      ],
      [
        "Kings",
        -10.022055586506179
      ],
      [
        "▁dzin",
        -10.022257789139752
      ],
      [
        "nh",
        -10.024783585375928
      ],
      [
        "▁kusimb",
        -10.024837226720868
      ],
      [
        "▁chemus",
        -10.028123587821455
      ],
      [
        "inobvum",
        -10.030861663302682
      ],
      [
        "akanyanya",
        -10.031177243538757
      ],
      [
        "▁rwu",
        -10.034146954472751
      ],
      [
        "▁tanga",
        -10.035188833426691
      ],
      [
        "teni",
        -10.038540496599634
      ],
      [
        "im",
        -10.038921357145199
      ],
      [
        "onek",
        -10.041398637852078
      ],
      [
        "anhu",
        -10.044133651441268
      ],
      [
        "ndin",
        -10.048455943745196
      ],
      [
        "▁nezvaka",
        -10.050992553439304
      ],
      [
        "▁zvekuf",
        -10.052442096767606
      ],
      [
        "ekumabvazuva",
        -10.05279788777549
      ],
      [
        "puro",
        -10.053313827670522
      ],
      [
        "tu",
        -10.05455952614186
      ],
      [
        "▁ichit",
        -10.055341608914233
      ],
      [
        "▁kuiti",
        -10.056171788598897
      ],
      [
        "▁nemhu",
        -10.056532753976986
      ],
      [
        "Australia",
        -10.05679535719983
      ],
      [
        "▁zvagadziri",
        -10.05715444855895
      ],
      [
        "▁Kw",
        -10.062442866194859
      ],
      [
        "nero",
        -10.063447687755406
      ],
      [
        "zhinji",
        -10.06383689327618
      ],
      [
        "mhu",
        -10.066634175338203
      ],
      [
        "tro",
        -10.069487932787414
      ],
      [
        "kukwira",
        -10.071045191532091
      ],
      [
        "▁vepa",
        -10.071280257110907
      ],
      [
        "wese",
        -10.071451212494384
      ],
      [
        "▁202",
        -10.071737034875145
      ],
      [
        "▁zvakape",
        -10.072127498992348
      ],
      [
        "tara",
        -10.073034181272952
      ],
      [
        "▁mana",
        -10.07639496879827
      ],
      [
        "usi",
        -10.078177581438242
      ],
      [
        "kumusha",
        -10.07910070218856
      ],
      [
        "nzv",
        -10.079824899674334
      ],
      [
        "88",
        -10.081585022500278
      ],
      [
        "wa,",
        -10.08538600977074
      ],
      [
        "▁anodzi",
        -10.08573685666576
      ],
      [
        "uye",
        -10.086264811871931
      ],
      [
        "▁vasvik",
        -10.086922171653319
      ],
      [
        "▁zvicha",
        -10.087018939673648
      ],
      [
        "izop",
        -10.087670620029165
      ],
      [
        "ns",
        -10.08820031912427
      ],
      [
        "▁de",
        -10.088409058679842
      ],
      [
        "raigo",
        -10.088571150184471
      ],
      [
        "▁kuro",
        -10.092159194206195
      ],
      [
        "weIndia",
        -10.093021151541636
      ],
      [
        "hamba",
        -10.09462080154007
      ],
      [
        "▁rakat",
        -10.097094405128816
      ],
      [
        "▁anot",
        -10.098228884474356
      ],
      [
        "iratidzo",
        -10.098333880715817
      ],
      [
        "wacho",
        -10.100998182861087
      ],
      [
        "▁to",
        -10.102092194838452
      ],
      [
        "ubhe",
        -10.102306100989274
      ],
      [
        "amwechete",
        -10.103656467620214
      ],
      [
        "kira",
        -10.105078853415879
      ],
      [
        "ook",
        -10.10640170777825
      ],
      [
        "net",
        -10.108504988410314
      ],
      [
        "uwand",
        -10.111613146490726
      ],
      [
        "rwi",
        -10.112238552787964
      ],
      [
        "▁dzichi",
        -10.112697568033504
      ],
      [
        "lad",
        -10.113609053524824
      ],
      [
        "abvum",
        -10.113877322566008
      ],
      [
        "▁nezva",
        -10.116932945382652
      ],
      [
        "akarongwa",
        -10.117326761985389
      ],
      [
        "bv",
        -10.118950589664225
      ],
      [
        "▁Can",
        -10.120088005374761
      ],
      [
        "▁zvakap",
        -10.120904916508978
      ],
      [
        "▁rinon",
        -10.121307528743143
      ],
      [
        "yanga",
        -10.121692755753806
      ],
      [
        "Prov",
        -10.126818664709958
      ],
      [
        "▁yakapa",
        -10.128095374394212
      ],
      [
        "▁zvinoko",
        -10.129533818063765
      ],
      [
        "echi",
        -10.131404676798605
      ],
      [
        "ridza",
        -10.131541176411703
      ],
      [
        "erus",
        -10.132303728342686
      ],
      [
        "▁pachine",
        -10.133601152883953
      ],
      [
        "▁remi",
        -10.135851066376043
      ],
      [
        "mir",
        -10.136839981833365
      ],
      [
        "muchando",
        -10.136850209990243
      ],
      [
        "akamb",
        -10.139221663091003
      ],
      [
        "remekedz",
        -10.140108818973673
      ],
      [
        "aitika",
        -10.140837555418408
      ],
      [
        "kurongeka",
        -10.141013039535896
      ],
      [
        "▁ambo",
        -10.143584115653542
      ],
      [
        "uda",
        -10.144642126620692
      ],
      [
        "▁dzemun",
        -10.144665301728057
      ],
      [
        "agem",
        -10.149757848380478
      ],
      [
        "ush",
        -10.15075987257228
      ],
      [
        "ichengetedze",
        -10.151652357835975
      ],
      [
        "▁Comm",
        -10.152693744833929
      ],
      [
        "paradza",
        -10.15661173979871
      ],
      [
        "oyo",
        -10.157940880971724
      ],
      [
        "be",
        -10.159003842980148
      ],
      [
        "Stra",
        -10.16020579077982
      ],
      [
        "▁dzak",
        -10.16103883799376
      ],
      [
        "Devonport",
        -10.161128242913506
      ],
      [
        "onzi",
        -10.161758165106678
      ],
      [
        "Utah",
        -10.163921352670261
      ],
      [
        "▁zvakawand",
        -10.164409588174383
      ],
      [
        "▁(C",
        -10.164714803222703
      ],
      [
        "ezvayo",
        -10.166192631767366
      ],
      [
        "▁chika",
        -10.167987259471161
      ],
      [
        "itsuwa",
        -10.169108512651402
      ],
      [
        "emutemo",
        -10.169966136933933
      ],
      [
        "▁reGerman",
        -10.17046937235259
      ],
      [
        "▁ekup",
        -10.17082439642371
      ],
      [
        "▁\"ku",
        -10.170857872172261
      ],
      [
        "kupera",
        -10.171519350501125
      ],
      [
        "▁Iz",
        -10.17294940047075
      ],
      [
        "3.",
        -10.176927797777335
      ],
      [
        "▁Str",
        -10.17712382431067
      ],
      [
        "▁ts",
        -10.177369112695203
      ],
      [
        "amp",
        -10.178788173788218
      ],
      [
        "hare",
        -10.178973829735565
      ],
      [
        "▁kubatsira",
        -10.179559934611909
      ],
      [
        "nz",
        -10.180197096010165
      ],
      [
        "▁rinona",
        -10.18056756655155
      ],
      [
        "gadzirira",
        -10.180693828041777
      ],
      [
        "werudzi",
        -10.18134382235813
      ],
      [
        "mwewo",
        -10.184318396566919
      ],
      [
        "▁kuGr",
        -10.185261462595372
      ],
      [
        "iya",
        -10.187510144543225
      ],
      [
        "▁akadzi",
        -10.188614908850237
      ],
      [
        "iridzwa",
        -10.188723226000896
      ],
      [
        "kangan",
        -10.189527715811714
      ],
      [
        "▁kupin",
        -10.191001719995564
      ],
      [
        "ys",
        -10.191553489644983
      ],
      [
        "kugadzir",
        -10.192214390607553
      ],
      [
        "ric",
        -10.193964602341001
      ],
      [
        "▁yekufamb",
        -10.19463907887569
      ],
      [
        "vaviri",
        -10.197138544989441
      ],
      [
        "ekupinda",
        -10.198295842893957
      ],
      [
        "for",
        -10.198740822893662
      ],
      [
        "budirir",
        -10.198790116087272
      ],
      [
        "bhuro",
        -10.198829709869353
      ],
      [
        "▁tino",
        -10.198990427815115
      ],
      [
        "eChipiri",
        -10.199204421771526
      ],
      [
        "mwa",
        -10.199358055358418
      ],
      [
        "uno",
        -10.201304183835205
      ],
      [
        "ifambis",
        -10.201710723117259
      ],
      [
        "amberi",
        -10.203856476113534
      ],
      [
        "use",
        -10.204455034236961
      ],
      [
        "ekuverenga",
        -10.204532618124496
      ],
      [
        "zodzok",
        -10.204902059733419
      ],
      [
        "kure",
        -10.206039799104023
      ],
      [
        "oter",
        -10.206347809859901
      ],
      [
        "inda",
        -10.208248331638131
      ],
      [
        "▁vaiv",
        -10.209105821216577
      ],
      [
        "bor",
        -10.209410135672801
      ],
      [
        "ekuzoror",
        -10.209896663018569
      ],
      [
        "London",
        -10.210084508590775
      ],
      [
        "▁nepak",
        -10.210365360684714
      ],
      [
        "batanidzir",
        -10.211109492137627
      ],
      [
        "bhuk",
        -10.211688158407739
      ],
      [
        "▁nezveku",
        -10.212863182274543
      ],
      [
        "kupedz",
        -10.21447146464764
      ],
      [
        "▁kwemap",
        -10.215359118543933
      ],
      [
        "chipa",
        -10.215396612799339
      ],
      [
        "▁vas",
        -10.215763102978721
      ],
      [
        "akagohw",
        -10.21594867095379
      ],
      [
        "tenges",
        -10.218212709887545
      ],
      [
        "▁yakakur",
        -10.219190231496198
      ],
      [
        "ary",
        -10.219312183233969
      ],
      [
        "zviit",
        -10.219738014605877
      ],
      [
        "▁waN",
        -10.220018728898822
      ],
      [
        "▁tsa",
        -10.220056112191275
      ],
      [
        "noshanda",
        -10.222112369589157
      ],
      [
        "sain",
        -10.22222278951513
      ],
      [
        "▁cheR",
        -10.222991359511688
      ],
      [
        "otsigira",
        -10.224941756007553
      ],
      [
        "▁kwengu",
        -10.225566829701751
      ],
      [
        "wakato",
        -10.226677994955608
      ],
      [
        "iver",
        -10.227554459412373
      ],
      [
        "umbe",
        -10.227955666294765
      ],
      [
        "▁inoit",
        -10.230561448157808
      ],
      [
        "dzisir",
        -10.231237956946785
      ],
      [
        "chabatsira",
        -10.232093107896794
      ],
      [
        "▁muB",
        -10.232634040003536
      ],
      [
        "▁emak",
        -10.235243249297527
      ],
      [
        "▁sh",
        -10.237907718658324
      ],
      [
        "▁seku",
        -10.237999823041811
      ],
      [
        "ika!",
        -10.239746732767564
      ],
      [
        "For",
        -10.240115964412105
      ],
      [
        "tendere",
        -10.24019066790149
      ],
      [
        "▁nemaku",
        -10.240573036726786
      ],
      [
        "swe",
        -10.241854637512187
      ],
      [
        "emo",
        -10.24470779466752
      ],
      [
        "gones",
        -10.244822038816418
      ],
      [
        "simbis",
        -10.244954753498835
      ],
      [
        "bonde",
        -10.2451766066289
      ],
      [
        "ks",
        -10.248241958247982
      ],
      [
        "emu",
        -10.250343087082568
      ],
      [
        "saitika",
        -10.250841103428117
      ],
      [
        "85",
        -10.25410690658427
      ],
      [
        "idz",
        -10.255181244960244
      ],
      [
        "enderan",
        -10.255444885448494
      ],
      [
        "kwata",
        -10.255504821249867
      ],
      [
        "▁neSa",
        -10.255623178352455
      ],
      [
        "zvinova",
        -10.256746148263758
      ],
      [
        "ka.",
        -10.257668405110724
      ],
      [
        "zimwe",
        -10.25773989391482
      ],
      [
        "▁akam",
        -10.258233709514677
      ],
      [
        "unofanir",
        -10.258280243994452
      ],
      [
        "fambisa",
        -10.260331506057586
      ],
      [
        "▁Zve",
        -10.260970137593471
      ],
      [
        "burg",
        -10.262547362836033
      ],
      [
        "roor",
        -10.266333506821086
      ],
      [
        "akazo",
        -10.266397803770298
      ],
      [
        "▁11",
        -10.267326867956413
      ],
      [
        "▁vepam",
        -10.267445000437913
      ],
      [
        "▁Ka",
        -10.26972041840997
      ],
      [
        "▁akao",
        -10.270889396582083
      ],
      [
        "adzi",
        -10.271017605427465
      ],
      [
        "jek",
        -10.27314546282763
      ],
      [
        "mapur",
        -10.273517447034381
      ],
      [
        "▁naP",
        -10.27373497906185
      ],
      [
        "ezvitsuwa\"",
        -10.274436405101081
      ],
      [
        "nj",
        -10.276079990284497
      ],
      [
        "▁paS",
        -10.276936294546854
      ],
      [
        "viswa",
        -10.277029835206624
      ],
      [
        "▁Bh",
        -10.280480629342993
      ],
      [
        "▁hwa",
        -10.283777512582349
      ],
      [
        "madho",
        -10.284444554300945
      ],
      [
        "ziso",
        -10.28663689508953
      ],
      [
        "▁as",
        -10.286826529130451
      ],
      [
        "gu",
        -10.289624616038099
      ],
      [
        "wekutanga",
        -10.289863796132796
      ],
      [
        "zvaito",
        -10.290354726622262
      ],
      [
        "sviki",
        -10.290582343909861
      ],
      [
        "▁40",
        -10.291211252284443
      ],
      [
        "▁pavaka",
        -10.293325088086082
      ],
      [
        "emiti",
        -10.294138172345622
      ],
      [
        "vakanga",
        -10.294598343776025
      ],
      [
        "kugamuchir",
        -10.29463678069523
      ],
      [
        "rera",
        -10.295264353417798
      ],
      [
        "nyika\"",
        -10.29814654032916
      ],
      [
        "dzivirir",
        -10.298192729780954
      ],
      [
        "konzere",
        -10.299439693730786
      ],
      [
        "anheru",
        -10.299453454299183
      ],
      [
        "om",
        -10.30081268828205
      ],
      [
        "...nd",
        -10.301107367102388
      ],
      [
        "heng",
        -10.301241236944808
      ],
      [
        "De",
        -10.302761502990412
      ],
      [
        "ango",
        -10.30312718976626
      ],
      [
        "▁Mag",
        -10.304611342214574
      ],
      [
        "umbu",
        -10.305631457861578
      ],
      [
        "pepa",
        -10.305741432237172
      ],
      [
        "ratidzi",
        -10.306684598386063
      ],
      [
        "▁bh",
        -10.307923736709808
      ],
      [
        "uchi",
        -10.308245458407473
      ],
      [
        "▁zviripam",
        -10.308858007294463
      ],
      [
        "▁kuSi",
        -10.310402275404416
      ],
      [
        "▁inoton",
        -10.310554380268432
      ],
      [
        "achiratidz",
        -10.310832218479755
      ],
      [
        "zviwan",
        -10.311683934461792
      ],
      [
        "▁chak",
        -10.313151948287892
      ],
      [
        "iwo",
        -10.313618696988268
      ],
      [
        "kutaris",
        -10.314086087017444
      ],
      [
        "▁aripa",
        -10.314475298124728
      ],
      [
        "▁Gi",
        -10.314678388017656
      ],
      [
        "▁dzepa",
        -10.317047534580585
      ],
      [
        "▁Hon",
        -10.318428831571083
      ],
      [
        "chitungamir",
        -10.318598350369388
      ],
      [
        "Sant",
        -10.318829322179843
      ],
      [
        "▁pemak",
        -10.321836774378726
      ],
      [
        "kudzika",
        -10.32202729441712
      ],
      [
        "epamusoro",
        -10.322308117152696
      ],
      [
        "wik",
        -10.322341311797027
      ],
      [
        "kunetsa",
        -10.326187761870468
      ],
      [
        "vura",
        -10.327390009728697
      ],
      [
        "acks",
        -10.328519573767487
      ],
      [
        "chest",
        -10.32870447697882
      ],
      [
        "▁zvekudy",
        -10.3287884888321
      ],
      [
        "▁yekubu",
        -10.329326244086902
      ],
      [
        "▁kung",
        -10.330814813258733
      ],
      [
        "urume",
        -10.333642089464993
      ],
      [
        "temo",
        -10.334963903234232
      ],
      [
        "▁zvichite",
        -10.335887623335395
      ],
      [
        "TA",
        -10.336160497330312
      ],
      [
        "▁mw",
        -10.338503528970275
      ],
      [
        "LA",
        -10.339697021781191
      ],
      [
        "sia",
        -10.33971610952584
      ],
      [
        "bhe",
        -10.34050832337522
      ],
      [
        "esainzi",
        -10.344174924811902
      ],
      [
        "shi",
        -10.344376296577375
      ],
      [
        "▁zvika",
        -10.34479141725563
      ],
      [
        "bvumira",
        -10.346226226345497
      ],
      [
        "rwe",
        -10.34948963062657
      ],
      [
        "emitemo",
        -10.349738000895732
      ],
      [
        "wira",
        -10.354250514258876
      ],
      [
        "yamu",
        -10.354290037856913
      ],
      [
        "mp",
        -10.355319532825074
      ],
      [
        "▁akajairi",
        -10.356238914379327
      ],
      [
        "▁kwavan",
        -10.35681952933168
      ],
      [
        "▁pakutam",
        -10.358228278808737
      ],
      [
        "kunets",
        -10.360206764109243
      ],
      [
        "▁hure",
        -10.360682020909744
      ],
      [
        "▁kubatsir",
        -10.363592417185359
      ],
      [
        "▁mase",
        -10.364311647917399
      ],
      [
        "ei",
        -10.36730206136416
      ],
      [
        "▁nekut",
        -10.367481933596169
      ],
      [
        "▁yekuchengete",
        -10.368391382907962
      ],
      [
        "rry",
        -10.36844638237238
      ],
      [
        "disa",
        -10.370290096759794
      ],
      [
        "▁Bac",
        -10.371367418413492
      ],
      [
        "▁emaOlympic",
        -10.37242936474514
      ],
      [
        "pfuu",
        -10.372794561247927
      ],
      [
        "▁Ra",
        -10.373963237553191
      ],
      [
        "▁yakawand",
        -10.374461665111252
      ],
      [
        "eMutungamiri",
        -10.374671407094885
      ],
      [
        "▁Cho",
        -10.375393138641638
      ],
      [
        "zvido",
        -10.377458483634252
      ],
      [
        "unak",
        -10.377779605987637
      ],
      [
        "war",
        -10.3792400264055
      ],
      [
        "ords",
        -10.37936729207596
      ],
      [
        "yak",
        -10.380639976104296
      ],
      [
        "dzisi",
        -10.381281215916847
      ],
      [
        "emaOlympics",
        -10.381313129938933
      ],
      [
        "yakava",
        -10.38157217961882
      ],
      [
        "\"K",
        -10.381956871392982
      ],
      [
        "▁pakup",
        -10.38324731830674
      ],
      [
        "ommitt",
        -10.383794597632265
      ],
      [
        "uhwin",
        -10.384337727225642
      ],
      [
        "reb",
        -10.384865795535086
      ],
      [
        "▁kunod",
        -10.385027935992227
      ],
      [
        "jairan",
        -10.38542752569993
      ],
      [
        "German",
        -10.386109423490733
      ],
      [
        "▁Bel",
        -10.386676502736362
      ],
      [
        "etro",
        -10.38671754980275
      ],
      [
        "▁naS",
        -10.387878305378656
      ],
      [
        "dzora",
        -10.388079527272957
      ],
      [
        "Nu",
        -10.388208561599495
      ],
      [
        "895",
        -10.388972468190163
      ],
      [
        "wi",
        -10.389109227669366
      ],
      [
        "zvimwe",
        -10.391300470658717
      ],
      [
        "gadz",
        -10.39155236114608
      ],
      [
        "▁gor",
        -10.392463696946995
      ],
      [
        "iwedzere",
        -10.392730826951597
      ],
      [
        "▁dzakawan",
        -10.393301841176061
      ],
      [
        "vhur",
        -10.393561614128599
      ],
      [
        "aratidz",
        -10.394581797740845
      ],
      [
        "▁ain",
        -10.395174162129077
      ],
      [
        "Ma",
        -10.396340256831465
      ],
      [
        "chinyakare",
        -10.397450988685572
      ],
      [
        "ef",
        -10.399549688579159
      ],
      [
        "dan",
        -10.399554457768815
      ],
      [
        "Hu",
        -10.399599056688473
      ],
      [
        "vika",
        -10.39991869271617
      ],
      [
        "▁zvaan",
        -10.400214805742069
      ],
      [
        "rash",
        -10.400544849215615
      ],
      [
        "og",
        -10.401577507449511
      ],
      [
        "aizo",
        -10.402043273061665
      ],
      [
        "eRomania",
        -10.40227818976437
      ],
      [
        "▁II",
        -10.40231226197934
      ],
      [
        "▁dzek",
        -10.402492046563031
      ],
      [
        "▁yakag",
        -10.402885904392713
      ],
      [
        "orora",
        -10.402997714670835
      ],
      [
        "verenga",
        -10.403764622027351
      ],
      [
        "▁(u",
        -10.404017197278687
      ],
      [
        "Ha",
        -10.40436744359657
      ],
      [
        "iras",
        -10.404586489123808
      ],
      [
        "eya",
        -10.404674710838838
      ],
      [
        "emutungamiri",
        -10.405057417579998
      ],
      [
        "riro",
        -10.405095456493086
      ],
      [
        "yeve",
        -10.405584424472645
      ],
      [
        "asai",
        -10.406318600944147
      ],
      [
        "▁mazi",
        -10.406434371443899
      ],
      [
        "tong",
        -10.409112996279575
      ],
      [
        "siya",
        -10.40912736384549
      ],
      [
        "mazan",
        -10.409459408070388
      ],
      [
        "▁vanobat",
        -10.410511473548723
      ],
      [
        "kurwa",
        -10.411098010998085
      ],
      [
        "chechi",
        -10.411148978151239
      ],
      [
        "Mart",
        -10.411186008853287
      ],
      [
        "Florida",
        -10.411892744909938
      ],
      [
        "196",
        -10.41198984925725
      ],
      [
        "Hurricane",
        -10.4123312817933
      ],
      [
        "August",
        -10.41256087221811
      ],
      [
        "Bha",
        -10.413126423699646
      ],
      [
        "upedz",
        -10.41318310067997
      ],
      [
        "▁rwend",
        -10.41367399434986
      ],
      [
        "ekugum",
        -10.413848444214313
      ],
      [
        "Howard",
        -10.414481503519973
      ],
      [
        "din",
        -10.414495628479457
      ],
      [
        "10",
        -10.414756461228803
      ],
      [
        "▁ti",
        -10.415054591675371
      ],
      [
        "res",
        -10.415379161616261
      ],
      [
        "▁panowan",
        -10.415547820847912
      ],
      [
        "▁wa20",
        -10.41576532177078
      ],
      [
        "runyararo",
        -10.41598773741913
      ],
      [
        "zvinoti",
        -10.416053954535199
      ],
      [
        "rusununguko",
        -10.416092671210702
      ],
      [
        "Grand",
        -10.416622473888882
      ],
      [
        "dzemusango",
        -10.416656895543829
      ],
      [
        "u,",
        -10.41681859695545
      ],
      [
        "17",
        -10.417452535318027
      ],
      [
        "hanyi",
        -10.417507540461763
      ],
      [
        "ly",
        -10.417509571168402
      ],
      [
        "yakapa",
        -10.41769434551673
      ],
      [
        "ga,",
        -10.417703756683286
      ],
      [
        "iripo",
        -10.417921829800683
      ],
      [
        "MP",
        -10.418444792674794
      ],
      [
        "Har",
        -10.41903808852898
      ],
      [
        "▁Franc",
        -10.419561154147013
      ],
      [
        "mutsa",
        -10.420187631873496
      ],
      [
        "nyanyi",
        -10.420359083813773
      ],
      [
        "asimuk",
        -10.420630178383984
      ],
      [
        "bhodha",
        -10.42074329490164
      ],
      [
        "Y",
        -10.421770587638038
      ],
      [
        "vhiz",
        -10.422316323926411
      ],
      [
        "▁waJu",
        -10.422568423862268
      ],
      [
        "apepa",
        -10.422983560042741
      ],
      [
        "▁chis",
        -10.423447234552969
      ],
      [
        "line",
        -10.424771775421647
      ],
      [
        "uteng",
        -10.424960992925431
      ],
      [
        "nodi",
        -10.425113666164837
      ],
      [
        "wakanyany",
        -10.425217906380736
      ],
      [
        "nyonga",
        -10.425418242274027
      ],
      [
        "nite",
        -10.426424187254051
      ],
      [
        "▁cheS",
        -10.426490228084662
      ],
      [
        "njodzi",
        -10.427189327082436
      ],
      [
        "kukwikwidza",
        -10.427226145766117
      ],
      [
        "▁kubatan",
        -10.428965269026012
      ],
      [
        "Inde",
        -10.429432066051685
      ],
      [
        "hurumende",
        -10.429603570983563
      ],
      [
        "pedyo",
        -10.429662566948236
      ],
      [
        "ndanga",
        -10.42972950328093
      ],
      [
        "▁akakumb",
        -10.429933723471274
      ],
      [
        "beri",
        -10.430525738865146
      ],
      [
        "Ed",
        -10.430646915579995
      ],
      [
        "H",
        -10.431079108979867
      ],
      [
        "mitero",
        -10.431090967465622
      ],
      [
        "kuitir",
        -10.431871605670697
      ],
      [
        "Z",
        -10.433249857988907
      ],
      [
        "kwezvo",
        -10.433283746886278
      ],
      [
        "emamiri",
        -10.433823215053504
      ],
      [
        "isinei",
        -10.434177675309327
      ],
      [
        "bhadharw",
        -10.434685830656168
      ],
      [
        "▁ra1",
        -10.434992408952217
      ],
      [
        "pani",
        -10.435124227475956
      ],
      [
        "24",
        -10.435720191079056
      ],
      [
        "▁chich",
        -10.435890786770265
      ],
      [
        "ichar",
        -10.43649646375114
      ],
      [
        "achitsigir",
        -10.436791293531552
      ],
      [
        "Gl",
        -10.437499900221647
      ],
      [
        "kwe",
        -10.438878471940164
      ],
      [
        "Pasi",
        -10.439006518241872
      ],
      [
        "▁pekud",
        -10.43939881482422
      ],
      [
        "mangwanani",
        -10.439552924506021
      ],
      [
        "sango",
        -10.439885764495882
      ],
      [
        "hap",
        -10.440169466806244
      ],
      [
        "▁us",
        -10.440556046937257
      ],
      [
        "akazvimirir",
        -10.440880431266427
      ],
      [
        "achibatsir",
        -10.442801491216004
      ],
      [
        "huno",
        -10.442892643902427
      ],
      [
        "akatan",
        -10.443005479535891
      ],
      [
        "idzi",
        -10.443155012954744
      ],
      [
        "nofamb",
        -10.443248384134938
      ],
      [
        "dzinosangan",
        -10.443702685544793
      ],
      [
        "▁yekune",
        -10.443853813644576
      ],
      [
        "▁peva",
        -10.444521452400792
      ],
      [
        "▁yakanak",
        -10.44485501164885
      ],
      [
        "▁Berlin",
        -10.444974115609696
      ],
      [
        "▁zvav",
        -10.445726138608634
      ],
      [
        "▁chip",
        -10.445791189542174
      ],
      [
        "mul",
        -10.446422023104367
      ],
      [
        "Runn",
        -10.44684422617809
      ],
      [
        "kuts",
        -10.447034380003476
      ],
      [
        "▁vairatidz",
        -10.44822373844365
      ],
      [
        "rambidz",
        -10.448664761617474
      ],
      [
        "mb",
        -10.449471140647777
      ],
      [
        "oda",
        -10.45075150794123
      ],
      [
        "yanzvi",
        -10.451431688572123
      ],
      [
        "Gunyana",
        -10.451627084167228
      ],
      [
        "▁pezvi",
        -10.451692688611104
      ],
      [
        "eK",
        -10.452161275426104
      ],
      [
        "▁\"s",
        -10.452505885173496
      ],
      [
        "eswa",
        -10.453010244259202
      ],
      [
        "sunungu",
        -10.454423610057372
      ],
      [
        "ls",
        -10.45463266691621
      ],
      [
        "maburi",
        -10.454771200136015
      ],
      [
        "▁pechi",
        -10.454966723658083
      ],
      [
        "vawo",
        -10.455910801278963
      ],
      [
        "▁muzvi",
        -10.45660654275542
      ],
      [
        "hand",
        -10.456609616662337
      ],
      [
        "▁mumagu",
        -10.457493107339713
      ],
      [
        "ndicha",
        -10.457648945296862
      ],
      [
        "kwekup",
        -10.458222469963214
      ],
      [
        "nani",
        -10.458964131187688
      ],
      [
        "▁dzakata",
        -10.45922291288697
      ],
      [
        "oenda",
        -10.459481262776189
      ],
      [
        "stra",
        -10.460303636167225
      ],
      [
        "pamwe",
        -10.4603275172838
      ],
      [
        "▁On",
        -10.460999976267308
      ],
      [
        "▁yemaz",
        -10.462254728170024
      ],
      [
        "arira",
        -10.462412890680767
      ],
      [
        "evamwe",
        -10.462779220111255
      ],
      [
        "nezve",
        -10.46466494468984
      ],
      [
        "achit",
        -10.464834607150205
      ],
      [
        "▁Sez",
        -10.465396433173318
      ],
      [
        "mumaku",
        -10.465747038033829
      ],
      [
        "dw",
        -10.466328686206081
      ],
      [
        "ther",
        -10.466905960045848
      ],
      [
        "Nyanz",
        -10.467667135102836
      ],
      [
        "raffiti",
        -10.467756799706118
      ],
      [
        "komb",
        -10.468124624531898
      ],
      [
        "kir",
        -10.469848328312072
      ],
      [
        "▁kubudi",
        -10.469891888043728
      ],
      [
        "▁Fran",
        -10.469954042630528
      ],
      [
        "usununguko",
        -10.470153541328418
      ],
      [
        "An",
        -10.47022761586412
      ],
      [
        "vhoter",
        -10.470891359037411
      ],
      [
        "▁akasha",
        -10.470961633947498
      ],
      [
        "ikwata",
        -10.471827575675034
      ],
      [
        "▁ruch",
        -10.472163013600694
      ],
      [
        "mhende",
        -10.472191222087496
      ],
      [
        "FA",
        -10.472196065685653
      ],
      [
        "chev",
        -10.472349454150555
      ],
      [
        "ution",
        -10.472686073229191
      ],
      [
        "▁rem",
        -10.472707964511251
      ],
      [
        "chenget",
        -10.472831867860013
      ],
      [
        "▁dzisa",
        -10.473079887041735
      ],
      [
        "▁yakaga",
        -10.47310735156601
      ],
      [
        "▁bhaj",
        -10.473118368083028
      ],
      [
        "▁Black",
[...]
