{
  "version": "1.0",
  "truncation": null,
  "padding": null,
  "added_tokens": [
    {
      "id": 0,
      "content": "<pad>",
      "single_word": false,
      "lstrip": false,
      "rstrip": false,
      "normalized": false,
      "special": true
    },
    {
      "id": 1,
      "content": "<unk>",
      "single_word": false,
      "lstrip": false,
      "rstrip": false,
      "normalized": false,
      "special": true
    },
    {
      "id": 2,
      "content": "<cls>",
      "single_word": false,
      "lstrip": false,
      "rstrip": false,
      "normalized": false,
      "special": true
    }
  ],
  "normalizer": {
    "type": "Sequence",
    "normalizers": [
      {
        "type": "Nmt"
      },
      {
        "type": "NFKC"
      },
      {
        "type": "Replace",
        "pattern": {
          "Regex": " {2,}"
        },
        "content": " "
      }
    ]
  },
  "pre_tokenizer": {
    "type": "Metaspace",
    "replacement": "▁",
    "prepend_scheme": "always",
    "split": true
  },
  "post_processor": {
    "type": "TemplateProcessing",
    "single": [
      {
        "SpecialToken": {
          "id": "<cls>",
          "type_id": 0
        }
      },
      {
        "Sequence": {
          "id": "A",
          "type_id": 0
        }
      }
    ],
    "pair": [
      {
        "Sequence": {
          "id": "A",
          "type_id": 0
        }
      },
      {
        "Sequence": {
          "id": "B",
          "type_id": 1
        }
      }
    ],
    "special_tokens": {
      "<cls>": {
        "id": "<cls>",
        "ids": [
          2
        ],
        "tokens": [
          "<cls>"
        ]
      }
    }
  },
  "decoder": {
    "type": "Metaspace",
    "replacement": "▁",
    "prepend_scheme": "always",
    "split": true
  },
  "model": {
    "type": "Unigram",
    "unk_id": 1,
    "vocab": [
      [
        "<pad>",
        0.0
      ],
      [
        "<unk>",
        0.0
      ],
      [
        "<cls>",
        0.0
      ],
      [
        "a",
        -3.134237133457132
      ],
      [
        "▁",
        -3.3209251723583835
      ],
      [
        "▁ya",
        -3.4219143889057673
      ],
      [
        ".",
        -3.6112467136879314
      ],
      [
        "▁wa",
        -3.6155647491687803
      ],
      [
        "▁na",
        -3.627402662954986
      ],
      [
        ",",
        -3.6743708261415593
      ],
      [
        "o",
        -4.143991186760172
      ],
      [
        "▁kwa",
        -4.345072942373939
      ],
      [
        "wa",
        -4.513742376773077
      ],
      [
        "i",
        -4.665760914382598
      ],
      [
        "▁k",
        -4.687087476786261
      ],
      [
        "u",
        -4.707695658428137
      ],
      [
        "▁katika",
        -4.763941082648325
      ],
      [
        "▁m",
        -4.807904309872841
      ],
      [
        "▁za",
        -4.817189611715006
      ],
      [
        "▁ku",
        -4.9237032264024565
      ],
      [
        "▁la",
        -5.173548255933684
      ],
      [
        "▁ma",
        -5.221339534185899
      ],
      [
        "e",
        -5.269170770782015
      ],
      [
        "na",
        -5.325779366489945
      ],
      [
        "wenye",
        -5.407870120108003
      ],
      [
        "▁cha",
        -5.410429873402035
      ],
      [
        "▁ni",
        -5.428051359232862
      ],
      [
        "▁u",
        -5.522773587766664
      ],
      [
        "kuwa",
        -5.563079942046838
      ],
      [
        "ni",
        -5.597628067896012
      ],
      [
        "▁ili",
        -5.635856886633963
      ],
      [
        "ji",
        -5.686737998873573
      ],
      [
        "▁vya",
        -5.6886753878971685
      ],
      [
        "▁kama",
        -5.784238465009162
      ],
      [
        "▁kuwa",
        -5.8154837857520265
      ],
      [
        "▁amba",
        -5.826805387519864
      ],
      [
        "▁ki",
        -5.888586070866242
      ],
      [
        "▁hu",
        -5.915188772350419
      ],
      [
        "▁M",
        -5.977541614030196
      ],
      [
        "s",
        -5.98935725805623
      ],
      [
        "n",
        -6.03322892867968
      ],
      [
        "ka",
        -6.03536110492249
      ],
      [
        "zi",
        -6.086511364365135
      ],
      [
        "▁U",
        -6.097491202287087
      ],
      [
        "▁nyingi",
        -6.101313613541058
      ],
      [
        "▁zaidi",
        -6.125516996077873
      ],
      [
        "▁mara",
        -6.145657132687879
      ],
      [
        "ko",
        -6.168945603634883
      ],
      [
        "▁wakati",
        -6.272842498583423
      ],
      [
        "la",
        -6.278047986236167
      ],
      [
        "▁kutoka",
        -6.285531834543535
      ],
      [
        "▁ina",
        -6.299179778924538
      ],
      [
        "li",
        -6.3001888963821475
      ],
      [
        "▁S",
        -6.352103532646467
      ],
      [
        "ti",
        -6.3557130313670775
      ],
      [
        "▁mi",
        -6.358754774189103
      ],
      [
        "▁K",
        -6.37004753376789
      ],
      [
        "▁n",
        -6.381809890796318
      ],
      [
        "▁ali",
        -6.384676404416169
      ],
      [
        "au",
        -6.412735528275311
      ],
      [
        ")",
        -6.420732161551047
      ],
      [
        "▁moja",
        -6.424524723474015
      ],
      [
        "▁hivyo",
        -6.438327793083905
      ],
      [
        "▁Wa",
        -6.444531232872208
      ],
      [
        "ri",
        -6.456602620097716
      ],
      [
        "po",
        -6.464752287102412
      ],
      [
        "▁Ma",
        -6.465211073485394
      ],
      [
        "y",
        -6.4655250553879835
      ],
      [
        "▁pa",
        -6.475135194408689
      ],
      [
        "lakini",
        -6.50337047308272
      ],
      [
        "ta",
        -6.5040197197727725
      ],
      [
        "▁watu",
        -6.514924193869575
      ],
      [
        "za",
        -6.541035762434101
      ],
      [
        "m",
        -6.580401262238069
      ],
      [
        "si",
        -6.609345384288956
      ],
      [
        "k",
        -6.61144078385818
      ],
      [
        "▁ambay",
        -6.643244913882892
      ],
      [
        "▁(",
        -6.668858225326636
      ],
      [
        "▁sana",
        -6.6790289692677325
      ],
      [
        "▁nchi",
        -6.6802049371355725
      ],
      [
        "ki",
        -6.686727496637399
      ],
      [
        "aji",
        -6.697128574138785
      ],
      [
        "fu",
        -6.713720884491625
      ],
      [
        "moja",
        -6.729918664353823
      ],
      [
        "▁tu",
        -6.739835301307924
      ],
      [
        "▁ndege",
        -6.762454205974844
      ],
      [
        "▁kwanza",
        -6.763089127921942
      ],
      [
        "▁vi",
        -6.775966164329678
      ],
      [
        "▁una",
        -6.777648493045866
      ],
      [
        "sha",
        -6.7785673512834625
      ],
      [
        "we",
        -6.7966740166836335
      ],
      [
        "ma",
        -6.799206683623971
      ],
      [
        "▁kawaida",
        -6.809723368073425
      ],
      [
        "▁wana",
        -6.816611656074528
      ],
      [
        "ia",
        -6.826949404503767
      ],
      [
        "▁B",
        -6.8392726612788
      ],
      [
        "zo",
        -6.839408733547237
      ],
      [
        "▁se",
        -6.841233911416152
      ],
      [
        "t",
        -6.8437270357376985
      ],
      [
        "▁wali",
        -6.847416274262165
      ],
      [
        "ya",
        -6.847971977211381
      ],
      [
        "▁chini",
        -6.852735179130613
      ],
      [
        "mba",
        -6.897293207067896
      ],
      [
        "ra",
        -6.89731509486108
      ],
      [
        "▁muda",
        -6.898703273034128
      ],
      [
        "▁hiyo",
        -6.898942427573385
      ],
      [
        "▁Kwa",
        -6.899597231185709
      ],
      [
        "▁juu",
        -6.900286948695847
      ],
      [
        "mu",
        -6.900852314670587
      ],
      [
        "▁wake",
        -6.915088514773265
      ],
      [
        "eleke",
        -6.9200056900264055
      ],
      [
        "l",
        -6.933659934942398
      ],
      [
        "r",
        -6.944322225002975
      ],
      [
        "▁I",
        -6.975258936384948
      ],
      [
        "w",
        -6.977321012035273
      ],
      [
        "▁kati",
        -6.990182538319752
      ],
      [
        "safiri",
        -6.996957602837947
      ],
      [
        "▁mwaka",
        -7.0034486505137865
      ],
      [
        "wamba",
        -7.005200403837192
      ],
      [
        "▁kupit",
        -7.014935262831141
      ],
      [
        "▁pia",
        -7.015733999742565
      ],
      [
        "bu",
        -7.031393091744158
      ],
      [
        "▁ha",
        -7.036218760541788
      ],
      [
        "le",
        -7.03673826735521
      ],
      [
        "▁iliyo",
        -7.037801743651468
      ],
      [
        "hem",
        -7.042115250714531
      ],
      [
        "▁karibu",
        -7.055272462468075
      ],
      [
        "▁Marekani",
        -7.056810727777047
      ],
      [
        "▁huo",
        -7.05745132952684
      ],
      [
        "▁tofauti",
        -7.0591156107250175
      ],
      [
        "▁gari",
        -7.061883090716213
      ],
      [
        "\"",
        -7.066706742222721
      ],
      [
        "hitaji",
        -7.067307412767465
      ],
      [
        "ita",
        -7.072984082854898
      ],
      [
        "▁T",
        -7.0749235349409
      ],
      [
        "▁baada",
        -7.082118653025178
      ],
      [
        "jia",
        -7.082623520509154
      ],
      [
        "di",
        -7.0963442855943235
      ],
      [
        "isha",
        -7.096559742879318
      ],
      [
        "-",
        -7.109510985754184
      ],
      [
        "▁kuu",
        -7.109917415292536
      ],
      [
        "▁safari",
        -7.115041823809255
      ],
      [
        "▁vile",
        -7.11858074697909
      ],
      [
        "mo",
        -7.141379470518512
      ],
      [
        "hali",
        -7.142362342986255
      ],
      [
        "▁kil",
        -7.1503020998156845
      ],
      [
        "▁mwa",
        -7.154556094598011
      ],
      [
        "▁hali",
        -7.160812585802618
      ],
      [
        "▁eneo",
        -7.163738684140849
      ],
      [
        "gonjwa",
        -7.173015140083441
      ],
      [
        "▁maji",
        -7.175807015611941
      ],
      [
        "”",
        -7.177511412161344
      ],
      [
        "ndi",
        -7.178882085194884
      ],
      [
        "▁siku",
        -7.180002539437099
      ],
      [
        "nawez",
        -7.191509882605972
      ],
      [
        "h",
        -7.193157160549139
      ],
      [
        "▁Vi",
        -7.193552870805576
      ],
      [
        "▁huwa",
        -7.193932237080698
      ],
      [
        "▁Ki",
        -7.200182558794548
      ],
      [
        "kiwa",
        -7.205247365548858
      ],
      [
        "▁s",
        -7.21306926674634
      ],
      [
        "▁had",
        -7.2185050791866345
      ],
      [
        "▁W",
        -7.2199895570721
      ],
      [
        "abla",
        -7.229244146624539
      ],
      [
        "▁zi",
        -7.231509452684846
      ],
      [
        "▁mbili",
        -7.24442518896708
      ],
      [
        "tu",
        -7.246053945210826
      ],
      [
        "▁alisema",
        -7.248269578560454
      ],
      [
        "▁Ku",
        -7.25234500865684
      ],
      [
        "▁ndani",
        -7.252869872491528
      ],
      [
        "▁serikali",
        -7.253243638087885
      ],
      [
        "onyesho",
        -7.257716715934971
      ],
      [
        "enye",
        -7.261105464440993
      ],
      [
        "▁usafiri",
        -7.26194266952463
      ],
      [
        "ing",
        -7.262804427075679
      ],
      [
        "▁h",
        -7.265575631510353
      ],
      [
        "to",
        -7.269604968380538
      ],
      [
        "hi",
        -7.2730034468352915
      ],
      [
        "aka",
        -7.29706577508487
      ],
      [
        "▁kubwa",
        -7.297621671738237
      ],
      [
        "ku",
        -7.3009632482120805
      ],
      [
        "▁kusafiri",
        -7.301226465037711
      ],
      [
        "fanya",
        -7.301556930678229
      ],
      [
        "mbo",
        -7.304023042128195
      ],
      [
        "▁A",
        -7.306567344600786
      ],
      [
        "▁Hi",
        -7.306592012774061
      ],
      [
        "cho",
        -7.306606759136076
      ],
      [
        "▁aliye",
        -7.307647057563085
      ],
      [
        "▁ulio",
        -7.3091393508138776
      ],
      [
        "▁theluji",
        -7.315696994059525
      ],
      [
        "ana",
        -7.3204340973940525
      ],
      [
        "yo",
        -7.334728720753238
      ],
      [
        "eneo",
        -7.336435673419361
      ],
      [
        "▁yake",
        -7.337269705250698
      ],
      [
        "▁C",
        -7.3553559068709085
      ],
      [
        "▁kuhus",
        -7.3615942241155015
      ],
      [
        "d",
        -7.372333018522257
      ],
      [
        "▁Ba",
        -7.385561567146947
      ],
      [
        "▁hii",
        -7.386138576356641
      ],
      [
        "oni",
        -7.391982154064954
      ],
      [
        ":",
        -7.3925297271797294
      ],
      [
        "▁Ujerumani",
        -7.392529727279459
      ],
      [
        "▁takriban",
        -7.3925432248608995
      ],
      [
        "▁bora",
        -7.3929892019856815
      ],
      [
        "julikan",
        -7.393242981585628
      ],
      [
        "▁msimu",
        -7.3940154732026695
      ],
      [
        "▁mbio",
        -7.394414329066905
      ],
      [
        "▁Kati",
        -7.394540659339085
      ],
      [
        "▁kiasi",
        -7.395417455619709
      ],
      [
        "▁pili",
        -7.398651734985856
      ],
      [
        "kala",
        -7.4026121720772
      ],
      [
        "iki",
        -7.403751120411654
      ],
      [
        "▁hata",
        -7.406100974936749
      ],
      [
        "▁ba",
        -7.40668727456303
      ],
      [
        "▁P",
        -7.4083481765976105
      ],
      [
        "▁huku",
        -7.410377237730154
      ],
      [
        "▁bi",
        -7.410502788536306
      ],
      [
        "▁N",
        -7.410863298172229
      ],
      [
        "▁Ni",
        -7.411021281967957
      ],
      [
        "▁b",
        -7.414712406748459
      ],
      [
        "a,",
        -7.418237538620067
      ],
      [
        "onyesh",
        -7.4203299802298766
      ],
      [
        "▁mji",
        -7.423701805949758
      ],
      [
        "do",
        -7.431726625923304
      ],
      [
        "▁kazi",
        -7.447115529469146
      ],
      [
        "idi",
        -7.448477051011475
      ],
      [
        "amo",
        -7.454562724003267
      ],
      [
        "hari",
        -7.456139740432061
      ],
      [
        "mi",
        -7.464912627751888
      ],
      [
        "▁kuna",
        -7.46494741207733
      ],
      [
        "▁saba",
        -7.47015447391836
      ],
      [
        "▁\"",
        -7.473051280820275
      ],
      [
        "kuu",
        -7.473753460809449
      ],
      [
        "▁wengi",
        -7.474841470173271
      ],
      [
        "▁hilo",
        -7.478708702529509
      ],
      [
        "ika",
        -7.483174392515897
      ],
      [
        "▁a",
        -7.483903963165498
      ],
      [
        "g",
        -7.494906674691572
      ],
      [
        "▁upand",
        -7.498904618730217
      ],
      [
        "▁G",
        -7.500531405916842
      ],
      [
        "wez",
        -7.503451548977962
      ],
      [
        "▁Kama",
        -7.506599549335997
      ],
      [
        "ano",
        -7.518276926952089
      ],
      [
        "▁j",
        -7.524505804672927
      ],
      [
        "▁kuto",
        -7.52473575922895
      ],
      [
        "eli",
        -7.530048542171629
      ],
      [
        "▁H",
        -7.539775979616612
      ],
      [
        "▁mku",
        -7.540188436753471
      ],
      [
        "tayari",
        -7.54106515103149
      ],
      [
        "ishi",
        -7.5435114535662064
      ],
      [
        "go",
        -7.545094383752215
      ],
      [
        "adhi",
        -7.545180218208843
      ],
      [
        "singi",
        -7.545492322286619
      ],
      [
        "▁wao",
        -7.5583896269065045
      ],
      [
        "iri",
        -7.559392708466827
      ],
      [
        "wezi",
        -7.563154926642959
      ],
      [
        "kubwa",
        -7.566527295286125
      ],
      [
        ";",
        -7.566772151422526
      ],
      [
        "▁maalum",
        -7.5667814418389865
      ],
      [
        "▁Afrika",
        -7.566811663742473
      ],
      [
        "▁mwisho",
        -7.566841586216308
      ],
      [
        "▁mwingine",
        -7.56689505379047
      ],
      [
        "▁uchaguzi",
        -7.567365240575303
      ],
      [
        "▁mpya",
        -7.568876629260144
      ],
      [
        "▁hizi",
        -7.57012918329559
      ],
      [
        "▁nyingine",
        -7.5704367723273345
      ],
      [
        "▁wengine",
        -7.572082378373905
      ],
      [
        "▁fulani",
        -7.57219473766605
      ],
      [
        "▁maarufu",
        -7.573885130429156
      ],
      [
        "eni",
        -7.57796127744607
      ],
      [
        "▁huend",
        -7.579295274655676
      ],
      [
        "endelea",
        -7.586996084030837
      ],
      [
        "ara",
        -7.587900446844024
      ],
      [
        "da",
        -7.601763683084924
      ],
      [
        "er",
        -7.603602051264275
      ],
      [
        "f",
        -7.610286548596189
      ],
      [
        "▁sa",
        -7.610564733788317
      ],
      [
        "lazim",
        -7.615252899821372
      ],
      [
        "ni,",
        -7.622219262197197
      ],
      [
        "a.",
        -7.623393394395523
      ],
      [
        "ne",
        -7.623567613852688
      ],
      [
        "oto",
        -7.627913928111564
      ],
      [
        "▁Ta",
        -7.63344454933704
      ],
      [
        "▁kambi",
        -7.64037604671942
      ],
      [
        "▁Ut",
        -7.64459846134888
      ],
      [
        "▁zina",
        -7.650208234771728
      ],
      [
        "▁dh",
        -7.652666299465055
      ],
      [
        "fasi",
        -7.658340862070194
      ],
      [
        "vyo",
        -7.660140154204192
      ],
      [
        "▁huto",
        -7.66531995897113
      ],
      [
        "▁utamaduni",
        -7.666772193821749
      ],
      [
        "▁Kusini",
        -7.666782364641321
      ],
      [
        "▁mapema",
        -7.666784015162218
      ],
      [
        "▁Olimpiki",
        -7.666794750980772
      ],
      [
        "▁pwani",
        -7.666886585415783
      ],
      [
        "▁tena",
        -7.667693522442017
      ],
      [
        "vu",
        -7.667894130427233
      ],
      [
        "▁sasa",
        -7.667953170556237
      ],
      [
        "talii",
        -7.668570768730232
      ],
      [
        "▁kuliko",
        -7.668679177265783
      ],
      [
        "▁kamp",
        -7.669663522406374
      ],
      [
        "▁kilom",
        -7.670966723131668
      ],
      [
        "▁mrefu",
        -7.671314052712548
      ],
      [
        "▁hoteli",
        -7.6736288230445915
      ],
      [
        "p",
        -7.6738041888526425
      ],
      [
        "▁kwenda",
        -7.6743339221059355
      ],
      [
        "zunguk",
        -7.675969828820122
      ],
      [
        "poti",
        -7.676897043200581
      ],
      [
        "▁vitu",
        -7.678824880971245
      ],
      [
        "uka",
        -7.680406805848166
      ],
      [
        "▁watalii",
        -7.684087754977883
      ],
      [
        "▁yote",
        -7.685744171935388
      ],
      [
        "▁Se",
        -7.689146526085736
      ],
      [
        "ha",
        -7.6944550203682684
      ],
      [
        "ali",
        -7.70249600057541
      ],
      [
        "▁kili",
        -7.708587745891366
      ],
      [
        "▁ndiy",
        -7.70906038477516
      ],
      [
        "▁da",
        -7.713848249285254
      ],
      [
        "mbele",
        -7.7179285672208096
      ],
      [
        "▁F",
        -7.718600287948639
      ],
      [
        "▁vita",
        -7.725681193309773
      ],
      [
        "▁ame",
        -7.730270545421201
      ],
      [
        "b",
        -7.732585928299715
      ],
      [
        "te",
        -7.732628345546074
      ],
      [
        "▁Hat",
        -7.736111106012977
      ],
      [
        "uni",
        -7.748388093683223
      ],
      [
        "▁kupat",
        -7.752458318290881
      ],
      [
        "ini",
        -7.75258589144331
      ],
      [
        "▁z",
        -7.7528042104439505
      ],
      [
        "▁E",
        -7.762918133715601
      ],
      [
        "ke",
        -7.763527210574444
      ],
      [
        "▁lili",
        -7.765476562632971
      ],
      [
        "shughuli",
        -7.766698273854972
      ],
      [
        "is",
        -7.7756408914324595
      ],
      [
        "muhimu",
        -7.77694718264769
      ],
      [
        "▁mipaka",
        -7.777911353435993
      ],
      [
        "▁mechi",
        -7.778000674847197
      ],
      [
        "▁magari",
        -7.7784852208405955
      ],
      [
        "▁kimataifa",
        -7.778582460398565
      ],
      [
        "▁zamani",
        -7.779984002079024
      ],
      [
        "▁Mchez",
        -7.780138569188713
      ],
      [
        "▁asili",
        -7.7806698912206125
      ],
      [
        "▁hizo",
        -7.7810557112597305
      ],
      [
        "▁jinsi",
        -7.7843464342901
      ],
      [
        "zuri",
        -7.785850335017544
      ],
      [
        "pata",
        -7.7865057200684
      ],
      [
        "chukua",
        -7.787446276960663
      ],
      [
        "▁kadhaa",
        -7.788163310609173
      ],
      [
        "▁aina",
        -7.790267804524747
      ],
      [
        "▁D",
        -7.795463931765434
      ],
      [
        "tano",
        -7.797713602123469
      ],
      [
        "▁lenye",
        -7.799372573029829
      ],
      [
        "▁kufiki",
        -7.7999236917442065
      ],
      [
        "lo",
        -7.8031740682500015
      ],
      [
        "▁w",
        -7.807219654279139
      ],
      [
        "▁O",
        -7.807980117975084
      ],
      [
        "▁zili",
        -7.808332543737203
      ],
      [
        "ge",
        -7.809207372819026
      ],
      [
        "▁iki",
        -7.813098599653885
      ],
      [
        "▁wame",
        -7.83397430295347
      ],
      [
        "▁kutumi",
        -7.83726739642082
      ],
      [
        "iti",
        -7.837553508536122
      ],
      [
        "ili",
        -7.843794243761563
      ],
      [
        "▁l",
        -7.845554087290347
      ],
      [
        "▁Pi",
        -7.849694599867879
      ],
      [
        "sa",
        -7.8511420128068785
      ],
      [
        "▁zinazo",
        -7.851467157970207
      ],
      [
        "pango",
        -7.852371249946623
      ],
      [
        "▁kura",
        -7.854015761426838
      ],
      [
        "▁yali",
        -7.854678383724304
      ],
      [
        "wezekan",
        -7.854894434628357
      ],
      [
        "z",
        -7.856338013289625
      ],
      [
        "ote",
        -7.856683484528727
      ],
      [
        "▁“",
        -7.858033971025973
      ],
      [
        "▁uli",
        -7.859319118289356
      ],
      [
        "▁walio",
        -7.864614673946242
      ],
      [
        "▁um",
        -7.865249193854867
      ],
      [
        "gawa",
        -7.866048900400261
      ],
      [
        "ga",
        -7.866682417824924
      ],
      [
        "▁Cha",
        -7.867926980674007
      ],
      [
        "re",
        -7.868171923316279
      ],
      [
        "▁kuka",
        -7.869412410871041
      ],
      [
        "eshi",
        -7.877713870620854
      ],
      [
        "▁kidogo",
        -7.8789295277775295
      ],
      [
        "▁Al",
        -7.879173025440332
      ],
      [
        "ehe",
        -7.881439761835601
      ],
      [
        "▁In",
        -7.881973718227568
      ],
      [
        "▁unao",
        -7.898115854616901
      ],
      [
        "▁huk",
        -7.89839380977871
      ],
      [
        "▁zilizo",
        -7.898490733130794
      ],
      [
        "nzi",
        -7.898985626138943
      ],
      [
        "zima",
        -7.902110895154381
      ],
      [
        "▁kaskazini",
        -7.902884357300094
      ],
      [
        "▁Kaskazini",
        -7.902890611903116
      ],
      [
        "▁Kitaifa",
        -7.903273939665742
      ],
      [
        "ume",
        -7.903308679263394
      ],
      [
        "▁hatari",
        -7.9049900024444995
      ],
      [
        "▁mchez",
        -7.905473011080465
      ],
      [
        "▁kurudi",
        -7.9069340020790335
      ],
      [
        "uungan",
        -7.908744051335701
      ],
      [
        "▁Waz",
        -7.910050918322552
      ],
      [
        "ng",
        -7.914133481212404
      ],
      [
        "▁zote",
        -7.914715586929865
      ],
      [
        "▁hudum",
        -7.9147866722034985
      ],
      [
        "▁Ro",
        -7.915524544301023
      ],
      [
        "ch",
        -7.916516061569688
      ],
      [
        "▁wanao",
        -7.91672608341597
      ],
      [
        "▁visa",
        -7.917936594838148
      ],
      [
        "▁timu",
        -7.917970168670294
      ],
      [
        "▁nyumbani",
        -7.918913950578904
      ],
      [
        "baki",
        -7.919193568235394
      ],
      [
        "▁kitu",
        -7.921810769722226
      ],
      [
        "visiwa",
        -7.923089919361759
      ],
      [
        "▁ime",
        -7.925992446061822
      ],
      [
        "loji",
        -7.926817799030967
      ],
      [
        "geme",
        -7.927245195876596
      ],
      [
        "▁mmoja",
        -7.927463393956316
      ],
      [
        "▁d",
        -7.928974649515552
      ],
      [
        "▁kuji",
        -7.931384681031804
      ],
      [
        "▁t",
        -7.932709437547304
      ],
      [
        "▁Zi",
        -7.932959509958928
      ],
      [
        "▁3",
        -7.933094649210664
      ],
      [
        "▁mili",
        -7.933780748505962
      ],
      [
        "▁bad",
        -7.9361531749282825
      ],
      [
        "onekan",
        -7.936588024068406
      ],
      [
        "▁haku",
        -7.940751042020411
      ],
      [
        "▁Bu",
        -7.9410728456735615
      ],
      [
        "beba",
        -7.942884242293481
      ],
      [
        "uendesha",
        -7.948116217736024
      ],
      [
        "▁aki",
        -7.949563312371982
      ],
      [
        "▁huu",
        -7.949573200265714
      ],
      [
        "▁yaliyo",
        -7.959392945169507
      ],
      [
        "che",
        -7.963049639799484
      ],
      [
        "asi",
        -7.964873506970427
      ],
      [
        "shi",
        -7.965359612720006
      ],
      [
        "dha",
        -7.970025290568524
      ],
      [
        "▁L",
        -7.971585967587314
      ],
      [
        "▁kuingi",
        -7.971825944877253
      ],
      [
        "ba",
        -7.97405937867936
      ],
      [
        "af",
        -7.974133373816575
      ],
      [
        "ezo",
        -7.9800747591456185
      ],
      [
        "vuti",
        -7.980366236232492
      ],
      [
        "M",
        -7.987357851137773
      ],
      [
        "▁unapo",
        -7.987456824292748
      ],
      [
        "▁kum",
        -7.992069718944804
      ],
      [
        "uruk",
        -7.992097940770272
      ],
      [
        "▁haya",
        -7.996623862002526
      ],
      [
        "ama",
        -8.000359568075822
      ],
      [
        "sabab",
        -8.002551992196375
      ],
      [
        "ahari",
        -8.004670367664025
      ],
      [
        "anza",
        -8.01695149137546
      ],
      [
        "kati",
        -8.020530740081922
      ],
      [
        "in",
        -8.021695060178445
      ],
      [
        "▁ta",
        -8.025830891209708
      ],
      [
        "▁nyumba",
        -8.037842233233754
      ],
      [
        "nam",
        -8.038946161837199
      ],
      [
        "fanyika",
        -8.041550190331012
      ],
      [
        "o,",
        -8.042839462738325
      ],
      [
        "i,",
        -8.04312156304536
      ],
      [
        "▁Sa",
        -8.0443230118382
      ],
      [
        "uteleza",
        -8.045372617900949
      ],
      [
        "▁Australia",
        -8.04575569873109
      ],
      [
        "▁Julai",
        -8.045759838005756
      ],
      [
        "▁shida",
        -8.045810254130423
      ],
      [
        "▁uwezo",
        -8.045874111838861
      ],
      [
        "ongoz",
        -8.045875273372003
      ],
      [
        "▁Rais",
        -8.046005373333644
      ],
      [
        "▁Uingereza",
        -8.046479573993816
      ],
      [
        "▁usiku",
        -8.046625820176613
      ],
      [
        "▁inayo",
        -8.04754886646239
      ],
      [
        "▁wako",
        -8.04853161842268
      ],
      [
        "▁halisi",
        -8.048583647494938
      ],
      [
        "▁mashariki",
        -8.048739906567624
      ],
      [
        "▁ndogo",
        -8.050173960843576
      ],
      [
        "▁bei",
        -8.051306388399206
      ],
      [
        "ngu",
        -8.054604683663687
      ],
      [
        "▁Japani",
        -8.054684920036458
      ],
      [
        "▁zake",
        -8.056436923397037
      ],
      [
        "▁hawa",
        -8.056562450582705
      ],
      [
        "▁baad",
        -8.056631803383103
      ],
      [
        "▁mkubwa",
        -8.057190862971986
      ],
      [
        "▁y",
        -8.058863528481766
      ],
      [
        "▁nje",
        -8.059489073483444
      ],
      [
        "▁Duniani",
        -8.060061089966382
      ],
      [
        "refu",
        -8.060571504574437
      ],
      [
        "▁Pa",
        -8.06845222114752
      ],
      [
        "no",
        -8.068495942153262
      ],
      [
        "▁si",
        -8.070455430383179
      ],
      [
        "patikana",
        -8.072890202437737
      ],
      [
        "nde",
        -8.074367237587804
      ],
      [
        "▁R",
        -8.075084118390967
      ],
      [
        "▁mw",
        -8.079062234044265
      ],
      [
        "badili",
        -8.08008599234999
      ],
      [
        "mbi",
        -8.083758440637425
      ],
      [
        "unawez",
        -8.085381616496484
      ],
      [
        "▁19",
        -8.08644024117457
      ],
      [
        "▁Tang",
        -8.08688581039277
      ],
      [
        "▁hufany",
        -8.087305836000695
      ],
      [
        "lia",
        -8.093042172366367
      ],
      [
        "▁4",
        -8.093370265133704
      ],
      [
        "▁mich",
        -8.093559251092307
      ],
      [
        "jarib",
        -8.097116774838288
      ],
      [
        "▁lina",
        -8.097620008316428
      ],
      [
        "▁maili",
        -8.100206444960222
      ],
      [
        "toto",
        -8.101502971783129
      ],
      [
        "zingi",
        -8.103493649964005
      ],
      [
        "▁La",
        -8.105384334832932
      ],
      [
        "unga",
        -8.107048175670343
      ],
      [
        "▁tuki",
        -8.10712923269341
      ],
      [
        "kio",
        -8.107263950042014
      ],
      [
        "▁saa",
        -8.11533104920768
      ],
      [
        "uko",
        -8.11582771795206
      ],
      [
        "on",
        -8.120323434902817
      ],
      [
        "ina",
        -8.125421002057848
      ],
      [
        "liwa",
        -8.12825984756754
      ],
      [
        "der",
        -8.131758897701628
      ],
      [
        "iwango",
        -8.135479573014734
      ],
      [
        "O",
        -8.135719354728003
      ],
      [
        "iko",
        -8.136579976844887
      ],
      [
        "3",
        -8.138883097373371
      ],
      [
        "▁ms",
        -8.140467950823092
      ],
      [
        "hifadhi",
        -8.141430325947631
      ],
      [
        "uhusian",
        -8.14393137820646
      ],
      [
        "C",
        -8.145352031150333
      ],
      [
        "sema",
        -8.148318024524643
      ],
      [
        "▁Dunia",
        -8.169889443047072
      ],
      [
        "▁vili",
        -8.172542145540001
      ],
      [
        "▁jina",
        -8.173117961882433
      ],
      [
        "iketi",
        -8.174042823595205
      ],
      [
        "▁ch",
        -8.178592575158431
      ],
      [
        "kubali",
        -8.185238750155643
      ],
      [
        "▁aliku",
        -8.186379838045013
      ],
      [
        "▁vime",
        -8.189238094060341
      ],
      [
        "iwa",
        -8.19780182107172
      ],
      [
        "▁zao",
        -8.200180179539675
      ],
      [
        "athiri",
        -8.200739870505615
      ],
      [
        "ndo",
        -8.201154769832524
      ],
      [
        "udhibiti",
        -8.203159331801606
      ],
      [
        "futa",
        -8.204675478510808
      ],
      [
        "ia,",
        -8.2064597864218
      ],
      [
        "as",
        -8.207759625679866
      ],
      [
        "halali",
        -8.211295641055639
      ],
      [
        "▁wanyama",
        -8.211680501589782
      ],
      [
        "ikiwa",
        -8.212132467358952
      ],
      [
        "▁wowote",
        -8.212407138469597
      ],
      [
        "sayansi",
        -8.212411744071282
      ],
      [
        "▁habari",
        -8.21241195916511
      ],
      [
        "▁ushindi",
        -8.212432634387742
      ],
      [
        "▁ardhi",
        -8.212443303635846
      ],
      [
        "▁virusi",
        -8.212483717061431
      ],
      [
        "▁Runn",
        -8.212506711434777
      ],
      [
        "▁John",
        -8.2125239191044
      ],
      [
        "▁isiyo",
        -8.212526286001067
      ],
      [
        "▁Ufaransa",
        -8.212568622417654
      ],
      [
        "▁pesa",
        -8.21259361496217
      ],
      [
        "▁baridi",
        -8.212623692308235
      ],
      [
        "▁vizuri",
        -8.213816725243532
      ],
      [
        "▁awali",
        -8.213920729030054
      ],
      [
        "▁wote",
        -8.214607939227047
      ],
      [
        "▁mpira",
        -8.215765922569698
      ],
      [
        "fupi",
        -8.216162427963717
      ],
      [
        "▁V",
        -8.216205857969818
      ],
      [
        "▁kipindi",
        -8.216276011094415
      ],
      [
        "▁haraka",
        -8.216487321344971
      ],
      [
        "▁peke",
        -8.216607721324154
      ],
      [
        "▁Mar",
        -8.217305360544259
      ],
      [
        "▁inawez",
        -8.21750984269314
      ],
      [
        "▁maha",
        -8.218669150556423
      ],
      [
        "unganish",
        -8.21994015053492
      ],
      [
        "▁thabiti",
        -8.221381139846795
      ],
      [
        "▁yanayo",
        -8.221628309705682
      ],
      [
        "P",
        -8.22293498431359
      ],
      [
        "▁hayo",
        -8.223108355413848
      ],
      [
        "▁pasi",
        -8.223274353416484
      ],
      [
        "▁sheria",
        -8.223592173497023
      ],
      [
        "tembele",
        -8.22554554086863
      ],
      [
        "▁Ye",
        -8.226177924858113
      ],
      [
        "▁leo",
        -8.226464926681432
      ],
      [
        "i.",
        -8.231312106772377
      ],
      [
        "▁macho",
        -8.231903237229306
      ],
      [
        "▁nchini",
        -8.232039372030197
      ],
      [
        "▁hatu",
        -8.232220099870302
      ],
      [
        "azo",
        -8.232797190202502
      ],
      [
        "▁bahari",
        -8.233672445648256
      ],
      [
        "poin",
        -8.236350710739714
      ],
      [
        "endesha",
        -8.23749699653772
      ],
      [
        "▁mwenye",
        -8.237718564468087
      ],
      [
        "kosa",
        -8.240612894246278
      ],
      [
        "sababish",
        -8.240620143633663
      ],
      [
        "eva",
        -8.245075579055536
      ],
      [
        "ada",
        -8.246332901402289
      ],
      [
        "cha",
        -8.249167211333582
      ],
      [
        "▁Baada",
        -8.250264391163622
      ],
      [
        "ton",
        -8.253906971024243
      ],
      [
        "wakilish",
        -8.254288164575208
      ],
      [
        "▁kushinda",
        -8.254754305595466
      ],
      [
        "chi",
        -8.257889694660884
      ],
      [
        "▁vy",
        -8.267947008979782
      ],
      [
        "▁J",
        -8.268605876960404
      ],
      [
        "saidia",
        -8.268960136640636
      ],
      [
        "angaza",
        -8.273059358070466
      ],
      [
        "nga",
        -8.277556582287922
      ],
      [
        "▁angal",
        -8.277571184297306
      ],
      [
        "▁lak",
        -8.281208891608241
      ],
      [
        "pa",
        -8.291867883616144
      ],
      [
        "▁kar",
        -8.295594382958999
      ],
      [
        "jumuish",
        -8.29616049394315
      ],
      [
        "▁5",
        -8.300166182698556
      ],
      [
        "▁Mn",
        -8.303498397070232
      ],
      [
        "taraji",
        -8.309573414357839
      ],
      [
        "j",
        -8.316386134621721
      ],
      [
        "toke",
        -8.31793066278163
      ],
      [
        "alme",
        -8.318867154498436
      ],
      [
        "mia",
        -8.3210948008789
      ],
      [
        "▁San",
        -8.329593043919024
      ],
      [
        "G",
        -8.33038345290633
      ],
      [
        "gu",
        -8.330978173289768
      ],
      [
        "▁Lo",
        -8.332901232782426
      ],
      [
        "dhaa",
        -8.334234855630028
      ],
      [
        "▁wanawe",
        -8.334996933622092
      ],
      [
        "oko",
        -8.337986446551868
      ],
      [
        "me",
        -8.33809565794316
      ],
      [
        "shindan",
        -8.33940693544988
      ],
      [
        "D",
        -8.343974030687438
      ],
      [
        "shiriki",
        -8.348185219458651
      ],
      [
        "▁kufany",
        -8.35199361109689
      ],
      [
        "uru",
        -8.352458579153975
      ],
      [
        "toka",
        -8.35312096581129
      ],
      [
        "▁up",
        -8.35352640992821
      ],
      [
        "ala",
        -8.354223781131083
      ],
      [
        "ong",
        -8.36587086181667
      ],
      [
        "umu",
        -8.367759754123426
      ],
      [
        "2",
        -8.368432093254857
      ],
      [
        "▁of",
        -8.369134588319918
      ],
      [
        "maili",
        -8.369241422228333
      ],
      [
        "▁Kat",
        -8.369766923869234
      ],
      [
        "▁ume",
        -8.37604109472609
      ],
      [
        "ifa",
        -8.377271728527788
      ],
      [
        "S",
        -8.378481995693056
      ],
      [
        "swa",
        -8.380442081052133
      ],
      [
        "▁ndoa",
        -8.381626050041556
      ],
      [
        "7",
        -8.38687588994349
      ],
      [
        "▁20",
        -8.38701056150176
      ],
      [
        "▁mia",
        -8.387106062364234
      ],
      [
        "▁Go",
        -8.390633226000368
      ],
      [
        "▁wazi",
        -8.391416986986194
      ],
      [
        "mbe",
        -8.392010390203373
      ],
      [
        "upunguz",
        -8.392941086407095
      ],
      [
        "zili",
        -8.39301337419555
      ],
      [
        "▁kup",
        -8.393967922751466
      ],
      [
        "nne",
        -8.395271975702693
      ],
      [
        "▁Si",
        -8.396997443748218
      ],
      [
        "taka",
        -8.397329162156352
      ],
      [
        "en",
        -8.398194356639122
      ],
      [
        "▁ulimwengu",
        -8.398481216279153
      ],
      [
        "▁Na",
        -8.400512613138503
      ],
      [
        "▁Ili",
        -8.401539129580257
      ],
      [
        "izi",
        -8.40741496248865
      ],
      [
        "historia",
        -8.40938515452763
      ],
      [
        "ajili",
        -8.410273283938219
      ],
      [
        "▁mengi",
        -8.412051262315941
      ],
      [
        "▁Septemba",
        -8.41240707270609
      ],
      [
        "▁asubuhi",
        -8.412407074282015
      ],
      [
        "▁kitamaduni",
        -8.412407074313252
      ],
      [
        "jeruhiwa",
        -8.412407087723249
      ],
      [
        "▁mchakato",
        -8.412407107149912
      ],
      [
        "▁hekalu",
        -8.412407123777344
      ],
      [
        "▁Pakistani",
        -8.412407126224965
      ],
      [
        "▁Agosti",
        -8.412407180826694
      ],
      [
        "▁tamasha",
        -8.412410987647684
      ],
      [
        "▁ubongo",
        -8.412411036744261
      ],
      [
        "▁ushuru",
        -8.412426290339344
      ],
      [
        "▁Uropa",
        -8.412427215327535
      ],
      [
        "▁nguvu",
        -8.412435719894628
      ],
      [
        "▁uhuru",
        -8.412438022114936
      ],
      [
        "▁usalama",
        -8.41247887912409
      ],
      [
        "▁yoyote",
        -8.4124957819714
      ],
      [
        "▁dhahiri",
        -8.412519645684721
      ],
      [
        "▁mkono",
        -8.412603748135908
      ],
      [
        "▁hivi",
        -8.412647179636489
      ],
      [
        "▁huitwa",
        -8.41268726766383
      ],
      [
        "▁matembezi",
        -8.412776677785684
      ],
      [
        "zingati",
        -8.412791406336309
      ],
      [
        "▁New",
        -8.412834524701406
      ],
      [
        "▁kulala",
        -8.412917291649395
      ],
      [
        "▁Mataifa",
        -8.41339565535852
      ],
      [
        "▁Lakini",
        -8.41358313867863
      ],
      [
        "gharam",
        -8.414065161435849
      ],
      [
        "pote",
        -8.415462333098242
      ],
      [
        "▁urahisi",
        -8.415860737591931
      ],
      [
        "▁zime",
        -8.416287815456155
      ],
      [
        "▁Kong",
        -8.417033269012952
      ],
      [
        "▁kusini",
        -8.417847524176887
      ],
      [
        "adi",
        -8.418100194312041
      ],
      [
        "0",
        -8.41844551548731
      ],
      [
        "jitolea",
        -8.418637458504843
      ],
      [
        "shambuli",
        -8.418685688592817
      ],
      [
        "▁duniani",
        -8.419490334628875
      ],
      [
        "▁Mkuu",
        -8.419827389858973
      ],
      [
        "▁Sing",
        -8.419833160458136
      ],
      [
        "▁kuwek",
        -8.420399350530982
      ],
      [
        "▁maziwa",
        -8.421167422272761
      ],
      [
        "taba",
        -8.42253052940878
      ],
      [
        "▁barafu",
        -8.422645469091714
      ],
      [
        "▁has",
        -8.422690029371196
      ],
      [
        "▁daraja",
        -8.423737401793197
      ],
      [
        "▁muziki",
        -8.42466102810398
      ],
      [
        "▁zita",
        -8.42544181088417
      ],
      [
        "4",
        -8.425565620647369
      ],
      [
        "▁kuteleza",
        -8.426572169803025
      ],
      [
        "▁inge",
        -8.42660269743044
      ],
      [
        "▁kikubwa",
        -8.42730366129725
      ],
      [
        "▁2",
        -8.429681355139087
      ],
      [
        "▁mbali",
        -8.43153980732161
      ],
      [
        "ima",
        -8.43171763172435
      ],
      [
        "bunge",
        -8.432844291431952
      ],
      [
        "8",
        -8.434413958477704
      ],
      [
        "kwa",
        -8.435736277369687
      ],
      [
        "▁Mich",
        -8.436763050559609
      ],
      [
        "rudi",
        -8.438118690529489
      ],
      [
        "shughuliki",
        -8.439694761015756
      ],
      [
        "bo",
        -8.44055408857104
      ],
      [
        "I",
        -8.442497672398623
      ],
      [
        "husish",
        -8.444046831400613
      ],
      [
        "gen",
        -8.444060773830046
      ],
      [
        "nd",
        -8.444669821886176
      ],
      [
        "▁sera",
        -8.447446627664814
      ],
      [
        "▁kuzui",
        -8.449300060320521
      ],
      [
        "man",
        -8.449669386879414
      ],
      [
        "▁amb",
        -8.451378154126253
      ],
      [
        "▁India",
        -8.451682320644515
      ],
      [
        "▁kuchuku",
        -8.45228966135711
      ],
      [
        "▁zako",
        -8.456540378017909
      ],
      [
        "ter",
        -8.458236064602264
      ],
      [
        "anda",
        -8.462876434684162
      ],
      [
        "▁hazi",
        -8.465781177286493
      ],
      [
        "▁juk",
        -8.468488285875747
      ],
      [
        "▁bara",
        -8.469691989713937
      ],
      [
        "▁hati",
        -8.47085393996649
      ],
      [
        "▁hai",
        -8.47968555138346
      ],
      [
        "hisi",
        -8.480339908971994
      ],
      [
        "uzoe",
        -8.480856964257198
      ],
      [
        "ingia",
        -8.486920614461946
      ],
      [
        "▁maba",
        -8.489381757829532
      ],
      [
        ",000",
        -8.489681837951075
      ],
      [
        "▁8",
        -8.490239596595663
      ],
      [
        "▁kuju",
        -8.49107752534043
      ],
      [
        "▁wenye",
        -8.492825094464889
      ],
      [
        "v",
        -8.492896617741309
      ],
      [
        "▁mwe",
        -8.494923918667393
      ],
      [
        "io",
        -8.496864763194312
      ],
      [
        "ja",
        -8.49890438128563
      ],
      [
        "ru",
        -8.50002059382002
      ],
      [
        "ifu",
        -8.50328746781123
      ],
      [
        "nisha",
        -8.50402845382124
      ],
      [
        "▁kulingan",
        -8.50506765580108
      ],
      [
        "nda",
        -8.50846916040814
      ],
      [
        "▁11",
        -8.508726264987303
      ],
      [
        "atika",
        -8.509155080367165
      ],
      [
        "s.",
        -8.511353072428918
      ],
      [
        "▁p",
        -8.515240931217583
      ],
      [
        "▁waliku",
        -8.523563005045716
      ],
      [
        "▁ndi",
        -8.524909933265821
      ],
      [
        "▁uchungu",
        -8.529483366098972
      ],
      [
        "lipata",
        -8.534062392528341
      ],
      [
        "▁uchunguz",
        -8.535955673431113
      ],
      [
        "tend",
        -8.536000615328092
      ],
      [
        "songa",
        -8.539003191921193
      ],
      [
        "▁Wana",
        -8.540611883688957
      ],
      [
        "he",
        -8.541835184893028
      ],
      [
        "tazama",
        -8.546024892169239
      ],
      [
        "aandaman",
        -8.56606697695721
      ],
      [
        "▁Ch",
        -8.566353849256405
      ],
      [
        "su",
        -8.578782732854174
      ],
      [
        "ani",
        -8.57884875507043
      ],
      [
        "de",
        -8.579022481213745
      ],
      [
        "rasi",
        -8.579135152523449
      ],
      [
        "60",
        -8.579822970389857
      ],
      [
        "toa",
        -8.580652116077879
      ],
      [
        "▁kiten",
        -8.58141908755774
      ],
      [
        "1",
        -8.58271752422472
      ],
      [
        "▁Bo",
        -8.583692946737962
      ],
      [
        "▁10",
        -8.584714126040403
      ],
      [
        "▁mto",
        -8.588437938337883
      ],
      [
        "▁vina",
        -8.590596853244048
      ],
      [
        "aribu",
        -8.59141493736793
      ],
      [
        "tia",
        -8.592021116870526
      ],
      [
        "shwa",
        -8.59533551370376
      ],
      [
        "N",
        -8.596381615842455
      ],
      [
        "pindi",
        -8.597048432245904
      ],
      [
        "V",
        -8.600851705648555
      ],
      [
        "panda",
        -8.600892747675571
      ],
      [
        "simam",
        -8.60619068778005
      ],
      [
        "▁Ali",
        -8.607178425051448
      ],
      [
        "funz",
        -8.608232546098876
      ],
      [
        "fa",
        -8.609129591568593
      ],
      [
        "pang",
        -8.60941627178698
      ],
      [
        "▁Ha",
        -8.61337616428089
      ],
      [
        "ar",
        -8.613730767017021
      ],
      [
        "▁kut",
        -8.620115806280252
      ],
      [
        "rafiki",
        -8.62110325465385
      ],
      [
        "nge",
        -8.622949679593761
      ],
      [
        "wahi",
        -8.625093314927936
      ],
      [
        "▁Saf",
        -8.627826231344674
      ],
      [
        "▁milima",
        -8.634463545472817
      ],
      [
        "▁uk",
        -8.635535906987222
      ],
      [
        "▁To",
        -8.639262149802073
      ],
      [
        "▁usi",
        -8.63992836210504
      ],
      [
        "or",
        -8.640720480584683
      ],
      [
        "▁Huku",
        -8.64193058632194
      ],
      [
        "and",
        -8.643124700876479
      ],
      [
        "▁nj",
        -8.650492647315797
      ],
      [
        "baya",
        -8.652095377652907
      ],
      [
        "ari",
        -8.654061311001586
      ],
      [
        "dogo",
        -8.654533480338385
      ],
      [
        "tengenez",
        -8.655197102040173
      ],
      [
        "isi",
        -8.655268882875442
      ],
      [
        "ol",
        -8.65705260737054
      ],
      [
        "fikia",
        -8.658576043623261
      ],
      [
        "wanja",
        -8.659062173064237
      ],
      [
        "shimo",
        -8.659694173015001
      ],
      [
        "rahisi",
        -8.659860613629629
      ],
      [
        "ua",
        -8.660549900982485
      ],
      [
        "▁Co",
        -8.660845808957458
      ],
      [
        "▁He",
        -8.661883031477961
      ],
      [
        "’",
        -8.66240707210976
      ],
      [
        "–",
        -8.66240707210976
      ],
      [
        "▁Novemba",
        -8.662407153308493
      ],
      [
        "▁Q",
        -8.662407210250768
      ],
      [
        "▁bhajan",
        -8.662407391175885
      ],
      [
        "▁Atlant",
        -8.66240749096817
      ],
      [
        "▁uchukuzi",
        -8.66240769960632
      ],
      [
        "▁Tours",
        -8.662407717439123
      ],
      [
        "▁fursa",
        -8.662407781829605
      ],
      [
        "▁Amazon",
        -8.66240793603585
      ],
      [
        "▁Amerika",
        -8.662408774866613
      ],
      [
        "▁mashambani",
        -8.662419264282532
      ],
      [
        "▁barabara",
        -8.66242646899569
      ],
      [
        "▁wasiwasi",
        -8.66242647362939
      ],
      [
        "grafi",
        -8.66242710010197
      ],
      [
        "▁faida",
        -8.66244816268195
      ],
      [
        "▁vilevile",
        -8.662487932451306
      ],
      [
        "▁Uhuru",
        -8.662538897336622
      ],
      [
        "fafanu",
        -8.66255137910366
      ],
      [
        "▁pengine",
        -8.662553793207469
      ],
      [
        "▁15",
        -8.662607202663274
      ],
      [
        "▁ajali",
        -8.66262053050074
      ],
      [
        "▁vikosi",
        -8.66266392851809
      ],
      [
        "▁Zaidi",
        -8.662674795773459
      ],
      [
        "▁uliopita",
        -8.662747350061675
      ],
      [
        "▁salama",
        -8.662891413870195
      ],
      [
        "▁starehe",
        -8.662947561761513
      ],
      [
        "▁kimwili",
        -8.663021068433908
      ],
      [
        "▁mwanzo",
        -8.663081240799901
      ],
      [
        "▁lililo",
        -8.663106887671582
      ],
      [
        "▁Haiti",
        -8.663158714867746
      ],
      [
        "▁imara",
        -8.663172611223292
      ],
      [
        "▁malazi",
        -8.66341300712356
      ],
      [
        "▁chakula",
        -8.663506600768489
      ],
      [
        "lugha",
        -8.663701456287782
      ],
      [
        "▁baadaye",
        -8.663706118728163
      ],
      [
        "▁hicho",
        -8.663872148340342
      ],
      [
        "▁kusoma",
        -8.663883378560179
      ],
      [
        "▁mfumo",
        -8.66391051735443
      ],
      [
        "▁kilicho",
        -8.663918677693765
      ],
      [
        "▁jioni",
        -8.663940458599336
      ],
      [
        "▁Air",
        -8.664229356152852
      ],
      [
        "▁jadi",
        -8.66441212648447
      ],
      [
        "▁bendi",
        -8.66472719139251
      ],
      [
        "▁majeraha",
        -8.66472905768597
      ],
      [
        "▁magharibi",
        -8.664850097803885
      ],
      [
        "▁vingi",
        -8.66488511944988
      ],
      [
        "▁ny",
        -8.664978765561678
      ],
      [
        "nawake",
        -8.665145546504373
      ],
      [
        "▁kununu",
        -8.66515371737338
      ],
      [
        "shing",
        -8.66562129029183
      ],
      [
        "▁usawa",
        -8.665784579477346
      ],
      [
        "▁kutosha",
        -8.66623076152003
      ],
      [
        "tro",
        -8.66662008591561
      ],
      [
        "▁umma",
        -8.666931053473029
      ],
      [
        "▁kufurahi",
        -8.667339257393342
      ],
      [
        "▁neva",
        -8.667447311651106
      ],
      [
        "▁ilivyo",
        -8.668047949963121
      ],
      [
        "▁Grand",
        -8.668281846772912
      ],
      [
        "▁huru",
        -8.669351796197748
      ],
      [
        "tic",
        -8.669499623665759
      ],
      [
        "son",
        -8.669780662775898
      ],
      [
        "▁kifo",
        -8.670120602785827
      ],
      [
        "uwepo",
        -8.672190097461865
      ],
      [
        "▁kutu",
        -8.672804540554724
      ],
      [
        "c",
        -8.672846395838734
      ],
      [
        "▁umuhimu",
        -8.67287734836468
      ],
      [
        "tete",
        -8.672891908422987
      ],
      [
        "▁Pr",
        -8.673482333322085
      ],
      [
        "nusu",
        -8.676018606290096
      ],
      [
        "▁i",
        -8.676216075332059
      ],
      [
        "▁jang",
        -8.676318078678825
      ],
      [
        "▁kikuu",
        -8.678042683783197
      ],
      [
        "▁kweli",
        -8.678996252372114
      ],
      [
        "▁wacheza",
        -8.679104845031453
      ],
      [
        "mbung",
        -8.679630754043739
      ],
      [
        "▁1",
        -8.680159137924335
      ],
      [
        "▁simu",
        -8.680543619155157
      ],
      [
        "fungu",
        -8.681657433582217
      ],
      [
        "▁Hu",
        -8.682027305027697
      ],
      [
        "dhi",
        -8.682106360686108
      ],
      [
        "▁ziki",
        -8.682118686500505
      ],
      [
        "▁ulimwenguni",
        -8.68215569103174
      ],
      [
        "▁vifaa",
        -8.682853637163758
      ],
      [
        "▁haiku",
        -8.683104924501272
      ],
      [
        "▁24",
        -8.68327502675015
      ],
      [
        "▁mashua",
        -8.684288151441496
      ],
      [
        "zuru",
        -8.68488574453455
      ],
      [
        "▁magonjwa",
        -8.684938213235926
      ],
      [
        "matibabu",
        -8.685438043260795
      ],
      [
        "▁Ste",
        -8.685518973687142
      ],
      [
        "▁mabo",
        -8.685575575960511
      ],
      [
        "▁kote",
        -8.686353699161483
      ],
      [
        "shindwa",
        -8.6872966256583
      ],
      [
        "▁kushiriki",
        -8.687495246851261
      ],
      [
        "pe",
        -8.688922174483391
      ],
      [
        "▁kwake",
        -8.691419168050013
      ],
      [
        "it",
        -8.693174358975472
      ],
      [
        "choch",
        -8.69460606699981
      ],
      [
        "▁amani",
        -8.695565892903907
      ],
      [
        "ondok",
        -8.698396676565292
      ],
      [
        "mtu",
        -8.701833378195019
      ],
      [
        "wingi",
        -8.702730528779329
      ],
      [
        "▁kuvu",
        -8.704546854230836
      ],
      [
        "efu",
        -8.706053449915101
      ],
      [
        "▁unapa",
        -8.708383074434105
      ],
      [
        "▁unge",
        -8.70929378862358
      ],
      [
        "▁hewa",
        -8.709582689246634
      ],
      [
        "▁hili",
        -8.709583167068898
      ],
      [
        "hidi",
        -8.710811838369128
      ],
      [
        "am",
        -8.711281003575579
      ],
      [
        "▁jana",
        -8.71175160041695
      ],
      [
        "ila",
        -8.712678235964674
      ],
      [
        "athirika",
        -8.71335547442425
      ],
      [
        "▁kasi",
        -8.715270878553175
      ],
      [
        "▁tatu",
        -8.715605928253956
      ],
      [
        "rupu",
        -8.717755875155786
      ],
      [
        "ro",
        -8.722482632470065
      ],
      [
        "▁Ufi",
        -8.723088293166317
      ],
      [
        "ingi",
        -8.723910871693644
      ],
      [
        "ria",
        -8.725260462081296
      ],
      [
        "pira",
        -8.727757881395595
      ],
      [
        "inawez",
        -8.728859460959839
      ],
      [
        "▁kuona",
        -8.730303753820774
      ],
      [
        "let",
        -8.731112473604224
      ],
      [
        "ongez",
        -8.731316839252402
      ],
      [
        "enda",
        -8.73157994218128
      ],
      [
        "▁v",
        -8.73176576394527
      ],
      [
        "▁taifa",
        -8.73305690741394
      ],
      [
        "um",
        -8.733393768312194
      ],
      [
        "▁Kir",
        -8.73708173149296
      ],
      [
        "▁fa",
        -8.741843904782773
      ],
      [
        "▁kutembea",
        -8.742780974521958
      ],
      [
        "aadhi",
        -8.743862798053602
      ],
      [
        "▁Jam",
        -8.74652831073104
      ],
      [
        "▁ura",
        -8.747446836456138
      ],
      [
        "uba",
        -8.749038004605373
      ],
      [
        "▁huch",
        -8.750956559317984
      ],
      [
        "▁US",
        -8.751780888178791
      ],
      [
        "...",
        -8.753088943216909
      ],
      [
        "ezwa",
        -8.755139938304879
      ],
      [
        "▁jij",
        -8.755397961707516
      ],
      [
        "▁mbu",
        -8.75573551411215
      ],
      [
        "pu",
        -8.764762789890689
      ],
      [
        "▁Sant",
        -8.767920337977525
      ],
      [
        "babu",
        -8.769462618678334
      ],
      [
        "▁Z",
        -8.772226422046586
      ],
      [
        "akika",
        -8.772618549808094
      ],
      [
        "th",
        -8.773357726133852
      ],
      [
        "an",
        -8.774752513325488
      ],
      [
        "fi",
        -8.779001774201511
      ],
      [
        "tuma",
        -8.779270427614774
      ],
      [
        "kutan",
        -8.779849862293537
      ],
      [
        "▁uso",
        -8.78256344069166
      ],
      [
        "uri",
        -8.783252244400604
      ],
      [
        "akati",
        -8.783319696167425
      ],
      [
        "tazam",
        -8.784191413423837
      ],
      [
        "simami",
        -8.784301528269111
      ],
      [
        "uhifadhi",
        -8.787713601875925
      ],
      [
        "ff",
        -8.788087259807103
      ],
      [
        "▁mt",
        -8.788921527889546
      ],
      [
        "▁Kitu",
        -8.789343185664542
      ],
      [
        "▁f",
        -8.796124653273212
      ],
      [
        "dhari",
        -8.798948264833538
      ],
      [
        "rus",
        -8.799854708899478
      ],
      [
        "▁ama",
        -8.804291570748308
      ],
      [
        "uzi",
        -8.804425978972727
      ],
      [
        "▁18",
        -8.806854279266112
      ],
      [
        "▁ika",
        -8.80756026909455
      ],
      [
        "▁kuli",
        -8.823659202351575
      ],
      [
        "▁viba",
        -8.827514295130033
      ],
      [
        "ambukizwa",
        -8.828028273955752
      ],
      [
        "▁Ji",
        -8.828193887747203
      ],
      [
        "▁hap",
        -8.830207406613802
      ],
      [
        "pya",
        -8.830654354377577
      ],
      [
        "shinda",
        -8.831273235617706
      ],
      [
        "▁kumaliz",
        -8.833381944725515
      ],
      [
        "▁kij",
        -8.83553335926425
      ],
      [
        "lip",
        -8.837426765227823
      ],
      [
        "▁kufik",
        -8.837920012719454
      ],
      [
        "ombe",
        -8.84013461220149
      ],
      [
        "unda",
        -8.840435750335685
      ],
      [
        "▁uta",
        -8.840974406926964
      ],
      [
        "▁pana",
        -8.841206189875098
      ],
      [
        "▁kis",
        -8.84385177920441
      ],
      [
        "chne",
        -8.844945378341267
      ],
      [
        "▁waki",
        -8.84637489497191
      ],
      [
        "▁jarib",
        -8.848351004290857
      ],
      [
        "ye",
        -8.84870532221326
      ],
      [
        "▁16",
        -8.853378355266956
      ],
      [
        "▁upa",
        -8.853804735747126
      ],
      [
        "njo",
        -8.853815955537012
      ],
      [
        "ripoti",
        -8.8544711297478
      ],
      [
        "husu",
        -8.85522211936924
      ],
      [
        "ngo",
        -8.85647182501845
      ],
      [
        "sho",
        -8.857814901881468
      ],
      [
        "▁gha",
        -8.858319404874145
      ],
      [
        "▁ana",
        -8.861645733051589
      ],
      [
        "ripotiwa",
        -8.862237036902272
      ],
      [
        "500",
        -8.863835385497513
      ],
      [
        "arufu",
        -8.875984283661436
      ],
      [
        "linganish",
        -8.876381287368126
      ],
      [
        "va",
        -8.876591899241454
      ],
      [
        "andaman",
        -8.877698588334754
      ],
      [
        "uli",
        -8.87807409175699
      ],
      [
        "▁kuang",
        -8.879030948928435
      ],
      [
        "6",
        -8.879271053602542
      ],
      [
        "▁Li",
        -8.879637837290085
      ],
      [
        "▁Sh",
        -8.881939389818005
      ],
      [
        "mini",
        -8.884717930784518
      ],
      [
        "▁ra",
        -8.885795221409396
      ],
      [
        "SA",
        -8.885901066169478
      ],
      [
        "▁Haku",
        -8.886518311384638
      ],
      [
        "T",
        -8.894373876373502
      ],
      [
        "▁mapa",
        -8.8976376199512
      ],
      [
        "es",
        -8.898177263646836
      ],
      [
        "/",
        -8.901249621222687
      ],
      [
        "▁Ra",
        -8.902882634481141
      ],
      [
        "▁kush",
        -8.903897939886924
      ],
      [
        "vuk",
        -8.904590575710342
      ],
      [
        "andamana",
        -8.906266294340671
      ],
      [
        "taifa",
        -8.910196967523367
      ],
      [
        "fiki",
        -8.911182993069225
      ],
      [
        "▁ji",
        -8.91478722864265
      ],
      [
        "▁Par",
        -8.916564528725333
      ],
      [
        "▁Ho",
        -8.92350383436743
      ],
      [
        "R",
        -8.925519553537828
      ],
      [
        "lango",
        -8.932261506279465
      ],
      [
        "▁kw",
        -8.932783331928798
      ],
      [
        "▁kunawez",
        -8.933010097665385
      ],
      [
        "▁Cu",
        -8.933934902588167
      ],
      [
        "biashara",
        -8.934445556822691
      ],
      [
        "husian",
        -8.94347668649065
      ],
      [
        "ishwa",
        -8.947214593357257
      ],
      [
        "imu",
        -8.94814563722234
      ],
      [
        "▁nd",
        -8.948605733453979
      ],
      [
        "tatu",
        -8.951344064687147
      ],
      [
        "gi",
        -8.95330717734475
      ],
      [
        "buni",
        -8.959870541090718
      ],
      [
        "▁do",
        -8.961997334161103
      ],
      [
        "▁hospitali",
        -8.965105139083692
      ],
      [
        "▁kuendele",
        -8.965656531348102
      ],
      [
        "ines",
        -8.96754059538389
      ],
      [
        "laya",
        -8.969313145160667
      ],
      [
        "▁dunia",
        -8.984971796946564
      ],
      [
        "piga",
        -8.985774728695034
      ],
      [
        "lab",
        -8.986097181327969
      ],
      [
        "▁6",
        -8.986577797868762
      ],
      [
        "▁Ang",
        -8.987190631817983
      ],
      [
        "▁kurekebish",
        -8.987813074106436
      ],
      [
        "taalam",
        -8.988721224380647
      ],
      [
        "rekebish",
        -8.988998766850532
      ],
      [
        "ashariki",
        -8.990712670496475
      ],
      [
        "undo",
        -8.991814873321363
      ],
      [
        "adiri",
        -8.993020890033575
      ],
      [
        "▁anga",
        -8.993409056158486
      ],
      [
        "ingereza",
        -8.993845570251981
      ],
      [
        "▁Vancouver",
        -8.995740405403145
      ],
      [
        "▁kidiplomasia",
        -8.995740405403195
      ],
      [
        "▁Super-G",
        -8.995740405425703
      ],
      [
        "ü",
        -8.995740405443092
      ],
      [
        "?",
        -8.995740405443092
      ],
      [
        "▁televisheni",
        -8.995740405507899
      ],
      [
        "▁Ajentina",
        -8.995740408647132
      ],
      [
        "▁baiskeli",
        -8.995740410920897
      ],
      [
        "▁Florida",
        -8.995740453447809
      ],
      [
        "Nyuzilandi",
        -8.995740468215505
      ],
      [
        "▁Disney",
        -8.995740523948935
      ],
      [
        "▁Berlin",
        -8.995740582814088
      ],
      [
        "▁Israeli",
        -8.995740618908359
      ],
      [
        "▁alifariki",
        -8.995740730610041
      ],
      [
        "▁iwezekanavyo",
        -8.995741156242772
      ],
      [
        "▁Baltic",
        -8.995742130051543
      ],
      [
        "▁mamlaka",
        -8.995743422362358
      ],
      [
        "▁kuwezesha",
        -8.995743967368858
      ],
      [
        "orld",
        -8.99574479444301
      ],
      [
        "▁Italia",
        -8.995749274334687
      ],
      [
        "▁bustani",
        -8.995757052358245
      ],
      [
        "▁redio",
        -8.995760651170084
      ],
      [
        "▁2009",
        -8.995776208865035
      ],
      [
        "▁mraba",
        -8.995776675327777
      ],
      [
        "▁Dave",
        -8.995780161759688
      ],
      [
        "zungumz",
        -8.99578723973732
      ],
      [
        "▁medali",
        -8.995789303448793
      ],
      [
        "▁zisizo",
        -8.995804779567981
      ],
      [
        "▁Jumatatu",
        -8.995819936437755
      ],
      [
        "▁Kanada",
        -8.995855527980735
      ],
      [
        "▁Kijapani",
        -8.995867364661676
      ],
      [
        "gundu",
        -8.995871498136003
      ],
      [
        "rasmi",
        -8.995967660203712
      ],
      [
        "▁majengo",
        -8.995991023714078
      ],
      [
        "▁kisasa",
        -8.99600661569492
      ],
      [
        "▁kinacho",
        -8.996017088018075
      ],
      [
        "▁nadra",
        -8.996088643157522
      ],
      [
        "hood",
        -8.996106385395471
      ],
      [
        "▁mlima",
        -8.996117647075344
      ],
      [
        "▁Massa",
        -8.996138006894242
      ],
      [
        "▁vinywaji",
        -8.996138938407647
      ],
      [
        "▁1,000",
        -8.996165040093633
      ],
      [
        "▁Senet",
        -8.996185375090386
      ],
      [
        "▁Ubingwa",
        -8.996213920845546
      ],
      [
        "▁gaze",
        -8.99622128957462
      ],
      [
        "▁Nyumba",
        -8.996346284369501
      ],
      [
        "gharim",
        -8.996368239615082
      ],
      [
        "▁iliyopita",
        -8.996477521213427
      ],
      [
        "▁Visiwa",
        -8.996513605154218
      ],
      [
        "▁raga",
        -8.996620498159427
      ],
      [
        "▁trafiki",
        -8.996705824621472
      ],
      [
        "▁mimea",
        -8.996767245070014
      ],
      [
        "▁linalo",
        -8.99686770502031
      ],
      [
        "▁Nyeu",
        -8.99711459149899
      ],
      [
        "elly",
        -8.997342142091005
      ],
      [
        "▁viwango",
        -8.997411246744754
      ],
      [
        "▁kijio",
        -8.997488320224702
      ],
      [
        "igiza",
        -8.997523570971005
      ],
      [
        "▁(N",
        -8.997590124630294
      ],
      [
        "▁kiangazi",
        -8.997633027112546
      ],
      [
        "▁Bora",
        -8.997688342067367
      ],
      [
        "▁Ulaya",
        -8.99779074636429
      ],
      [
        "▁Del",
        -8.997908222019069
      ],
      [
        "▁Mwimbaji",
        -8.997909710810152
      ],
      [
        "▁Nor",
        -8.997983835657097
      ],
      [
        "▁us",
        -8.998015758956152
      ],
      [
        "39",
        -8.998242576993526
      ],
      [
        "chukuliwa",
        -8.998366049198466
      ],
      [
        "▁anaye",
        -8.998514987816653
      ],
      [
        "haribi",
        -8.998841900991428
      ],
      [
        "embamba",
        -8.998981176976313
      ],
      [
        "tiririk",
        -8.999424313344258
      ],
      [
        "▁2017",
        -8.99944971372337
      ],
      [
        "▁21",
        -9.000349806972052
      ],
      [
        "▁mengine",
        -9.000616800684917
      ],
      [
        "huri",
        -9.001198177733418
      ],
      [
        "▁kihistoria",
        -9.001219624517034
      ],
      [
        "meko",
        -9.001331055946816
      ],
      [
        "▁uwanja",
        -9.00169669825808
      ],
      [
        "▁madogo",
        -9.002688677256824
      ],
      [
        "eza",
        -9.003212667149048
      ],
      [
        "lgar",
        -9.00440944282779
      ],
      [
        "adha",
        -9.005063510469261
      ],
      [
        "apori",
        -9.005393380873038
      ],
      [
        "▁Car",
        -9.005555035741981
      ],
      [
        "▁baharini",
        -9.005780704707448
      ],
      [
        "▁kike",
        -9.006022275272073
      ],
      [
        "▁inapendekez",
        -9.00613374816498
      ],
      [
        "▁ughai",
        -9.006992264246131
      ],
      [
        "▁matu",
        -9.007376918473003
      ],
      [
        "some",
        -9.007573906157186
      ],
      [
        "apo",
        -9.008465197271551
      ],
      [
        "▁mzima",
        -9.008845764543404
      ],
      [
        "▁Nev",
        -9.009312254080847
      ],
      [
        "▁po",
        -9.009466702066103
      ],
      [
        "ratib",
        -9.009697114925807
      ],
      [
        "▁Le",
        -9.009890081281208
      ],
      [
        "▁Med",
        -9.010475708004039
      ],
      [
        "mefung",
        -9.011422810210902
      ],
      [
        "isiwa",
        -9.011482406385397
      ],
      [
        "engo",
        -9.012155062727524
      ],
      [
        "A",
        -9.012443259229295
      ],
      [
        "▁kusaidia",
        -9.012729731293822
      ],
      [
        "▁usta",
        -9.012774346852622
      ],
      [
        "▁ziada.",
        -9.012896436283688
      ],
      [
        "wasilisha",
        -9.013773773708639
      ],
      [
        "▁Ju",
        -9.01444408266608
      ],
      [
        "▁Bush",
        -9.014943789597952
      ],
      [
        "▁shirik",
        -9.015548960184914
      ],
      [
        "▁Kes",
        -9.01562311562247
      ],
      [
        "▁kuanzi",
        -9.01612877504387
      ],
      [
        "▁Mf",
        -9.017306984378715
      ],
      [
        "!",
        -9.017986197637661
      ],
      [
        "▁Kuna",
        -9.02057150537219
      ],
      [
        "ruba",
        -9.020841730100072
      ],
      [
        "B",
        -9.020981008784204
      ],
      [
        "▁uza",
        -9.021556880312446
      ],
      [
        "ju",
        -9.021568236154181
      ],
      [
        "▁Irani",
        -9.022271844243233
      ],
      [
        "elfu",
        -9.022928258994666
      ],
      [
        "▁40",
        -9.02306459013653
      ],
      [
        "▁mwili",
        -9.023614890544227
      ],
      [
        "▁ndo",
        -9.023765491570092
      ],
      [
        "hakikish",
        -9.0251280013445
      ],
      [
        "▁Pla",
        -9.026492601499868
      ],
      [
        "▁lime",
        -9.026731614815441
      ],
      [
        "▁maafi",
        -9.026880749964828
      ],
      [
        "▁karibuni",
        -9.027449218091487
      ],
      [
        "▁Mart",
        -9.027467685205025
      ],
      [
        "▁mwit",
        -9.028557473518033
      ],
      [
        "▁ule",
        -9.029499627626965
      ],
      [
        "▁mka",
        -9.029792446590703
      ],
      [
        "nyesho",
        -9.030296632449316
      ],
      [
        "vi",
        -9.031539929479042
      ],
      [
        "▁aliji",
        -9.031577677683416
      ],
      [
        "▁kupiga",
        -9.031714179264684
      ],
      [
        "▁hom",
        -9.035909224319779
      ],
      [
        "▁9",
        -9.039994668140455
      ],
      [
        "▁alishinda",
        -9.042458488095683
      ],
      [
        "orodh",
        -9.0434323650077
      ],
      [
        "45",
        -9.04731072984954
      ],
      [
        "▁viku",
        -9.04952054276302
      ],
      [
        "▁2,",
        -9.049916060265755
      ],
      [
        "▁Sk",
        -9.051451259950236
      ],
      [
        "▁kus",
        -9.05268155139073
      ],
      [
        "▁Hali",
        -9.053569293196807
      ],
      [
        "lingan",
        -9.053724844296546
      ],
      [
        "dal",
        -9.053911628061238
      ],
      [
        "▁kunywa",
        -9.055386563029831
      ],
      [
        "▁Dunia,",
        -9.056325977545688
      ],
      [
        "dri",
        -9.056424826708728
      ],
      [
        "▁Bara",
        -9.057673761255016
      ],
      [
        "wimbaji",
        -9.058110337873027
      ],
      [
        "▁utaka",
        -9.05840003404593
      ],
      [
        "▁kiku",
        -9.058840512590361
      ],
      [
        "▁ju",
        -9.06002829113744
      ],
      [
        "▁yak",
        -9.061091179293442
      ],
      [
        "▁Mbu",
        -9.061347963992759
      ],
      [
        "▁mwamba",
        -9.064863854558762
      ],
      [
        "undwa",
        -9.066591792868907
      ],
      [
        "taj",
        -9.067402269974085
      ],
      [
        "▁All",
        -9.068780415179813
      ],
      [
        "▁biashara",
        -9.06913236005819
      ],
      [
        "chagu",
        -9.07068600024271
      ],
      [
        "kumb",
        -9.0708171707063
      ],
      [
        "usi",
        -9.071680399795733
      ],
      [
        "angazi",
        -9.071714702459735
      ],
      [
        "▁kuund",
        -9.073840943962232
      ],
      [
        "▁Kam",
        -9.074864087606427
      ],
      [
        "▁nane",
        -9.076076859217654
      ],
      [
        "pan",
        -9.076295569052908
      ],
      [
        "▁uki",
        -9.076742646707446
      ],
      [
        "rini",
        -9.077258553420524
      ],
      [
        "▁kutangaz",
        -9.079260758984645
      ],
      [
        "▁ilipo",
        -9.081503751922375
      ],
      [
        "est",
        -9.08540067382978
      ],
      [
        "eka",
        -9.085439616258377
      ],
      [
        "herehe",
        -9.088130337157114
      ],
      [
        "olewa",
        -9.088500490672343
      ],
      [
        "▁in",
        -9.089758034663447
      ],
      [
        "lamu",
        -9.089911363319228
      ],
      [
        "▁Ed",
        -9.09126172025985
      ],
      [
        "omo",
        -9.091762110969904
      ],
      [
        "▁yalianz",
        -9.092150997133313
      ],
      [
        "▁wi",
        -9.096482621910871
      ],
      [
        "▁kuta",
        -9.09677063849874
      ],
      [
        "gumu",
        -9.097523403001619
      ],
      [
        "▁zinazoto",
        -9.099483499860652
      ],
      [
        "▁sok",
        -9.100052787932377
      ],
      [
        "mataifa",
        -9.104826604918811
      ],
      [
        "▁Us",
        -9.106790637847197
      ],
      [
        "▁walipok",
        -9.106821372705419
      ],
      [
        "▁Ja",
        -9.107066738491376
      ],
      [
        "▁majini",
        -9.10846962487844
      ],
      [
        "▁Je",
        -9.109360255050422
      ],
      [
        "▁kuanza",
        -9.112383252975121
      ],
      [
        "▁aka",
        -9.11511305978473
      ],
      [
        "andali",
        -9.115460150433737
      ],
      [
        "▁100",
        -9.116115691580864
      ],
      [
        "shtak",
        -9.116181868325732
      ],
      [
        "▁197",
        -9.118856225129203
      ],
      [
        "▁man",
        -9.121007886986208
      ],
      [
        "umi",
        -9.121335695714171
      ],
      [
        "tum",
        -9.122834300667098
      ],
      [
        "▁1.",
        -9.123255033416205
      ],
      [
        "6.",
        -9.123836213977734
      ],
      [
        "▁Ca",
        -9.123879702465132
      ],
      [
        "▁Mw",
        -9.126796477096992
      ],
      [
        "▁yana",
        -9.127187457200435
      ],
      [
        "taf",
        -9.127610042311154
      ],
      [
        "▁Iwa",
        -9.129394443866449
      ],
      [
        "▁201",
        -9.132075693202296
      ],
      [
        "▁mazi",
        -9.132972062969541
      ],
      [
        "awala",
        -9.136023047379972
      ],
      [
        "tumika",
        -9.136254372920192
      ],
      [
        "cheza",
        -9.140376765812217
      ],
      [
        "ashiri",
        -9.140546990818846
      ],
      [
        "▁Ny",
        -9.142152456377364
      ],
      [
        "▁zin",
        -9.142344389449592
      ],
      [
        "▁tr",
        -9.144247031776642
      ],
      [
        "▁yey",
        -9.144256932591501
      ],
      [
        "zozo",
        -9.14488003875957
      ],
      [
        "aguzi",
        -9.14559943880158
      ],
      [
        "bil",
        -9.14581842360658
      ],
      [
        "chwa",
        -9.153644404985902
      ],
      [
        "▁Mi",
        -9.158415638070002
      ],
      [
        "ea",
        -9.163106343042564
      ],
      [
        "maliz",
        -9.170368381319301
      ],
      [
        "saidi",
        -9.170503944501897
      ],
      [
        "mbwa",
        -9.186308265369854
      ],
      [
        "ashindan",
        -9.187035567998969
      ],
      [
        "anta",
        -9.18752151612497
      ],
      [
        "▁Jan",
        -9.18847441615352
      ],
      [
        "▁mach",
        -9.189755143141866
      ],
      [
        "hafidhina",
        -9.194092563269045
      ],
      [
        "washinda",
        -9.194147828493996
      ],
      [
        "▁kuend",
        -9.194178104193432
      ],
      [
        "usimam",
        -9.194369092458754
      ],
      [
        "ukari",
        -9.194481344733619
      ],
      [
        "▁kima",
        -9.198786866919423
      ],
      [
        "zoe",
        -9.201917077222832
      ],
      [
        "▁kuambukiz",
        -9.202662456954165
      ],
      [
        "ons",
        -9.204804645848672
      ],
      [
        "▁Wil",
        -9.206032114736672
      ],
      [
        "ikosi",
        -9.206837857277709
      ],
      [
        "umia",
        -9.207051161916635
      ],
      [
        "nye",
        -9.208534869488219
      ],
      [
        "▁nyu",
        -9.208742845387484
      ],
      [
        "▁mas",
        -9.210406420223443
      ],
      [
        "al",
        -9.210823376348149
      ],
      [
        "ataraji",
        -9.21163694836233
      ],
      [
        "▁tano",
        -9.214723568324871
      ],
      [
        "ry",
        -9.21475492124785
      ],
      [
        "esha",
        -9.216862140909752
      ],
      [
        "at",
        -9.217701026575892
      ],
      [
        "▁Matuk",
        -9.217995382589113
      ],
      [
        "▁kita",
        -9.218710521252698
      ],
      [
        "ofika",
        -9.219166673001922
      ],
      [
        "eleza",
        -9.223213385194509
      ],
      [
        "kula",
        -9.224542161332524
      ],
      [
        "liko",
        -9.225816891464323
      ],
      [
        "▁hutumi",
        -9.226607727917632
      ],
      [
        "ere",
        -9.22894020550075
      ],
      [
        "▁viti",
        -9.231273572829997
      ],
      [
        "mejaa",
        -9.231588908237432
      ],
      [
        "▁uko",
        -9.23434361230076
      ],
      [
        "▁alianz",
        -9.235700104661676
      ],
      [
        "lipi",
        -9.237184521282202
      ],
      [
        "ati",
        -9.243309030737668
      ],
      [
        "lizi",
        -9.243740781209263
      ],
      [
        "▁kuny",
        -9.245467967061602
      ],
      [
        "embo",
        -9.247113512567756
      ],
      [
        "ikio",
        -9.250715872675885
      ],
      [
        "ofi",
        -9.255633612674192
      ],
      [
        "▁Fi",
        -9.258103058055566
      ],
      [
        "▁Th",
        -9.262257954422893
      ],
      [
        "ache",
        -9.265871617310399
      ],
      [
        "kiongoz",
        -9.266572456642248
      ],
      [
        "▁rai",
        -9.266763682673883
      ],
      [
        "▁mko",
        -9.26798861144572
      ],
      [
        "tion",
        -9.269445360653128
      ],
      [
        "uki",
        -9.270160032205885
      ],
      [
        "eleze",
        -9.270887664917094
      ],
      [
        "mbali",
        -9.271330907731445
      ],
      [
        "emba",
        -9.273142638869858
      ],
      [
        "▁Mau",
        -9.273389096027623
      ],
      [
        "fan",
        -9.279374984832863
      ],
      [
        "▁(ki",
        -9.280371012738257
      ],
      [
        "uondoa",
        -9.283965214736876
      ],
      [
        "enea",
        -9.284864649698832
      ],
      [
        "jibu",
        -9.28889262114526
      ],
      [
        "tambuli",
        -9.290327145438425
      ],
      [
        "jua",
        -9.290402646074774
      ],
      [
        "▁Con",
        -9.29150145307749
      ],
      [
        "▁itaku",
        -9.294042748332505
      ],
      [
        "fe",
        -9.294596548890112
      ],
      [
        "inada",
        -9.294690818204858
      ],
      [
        "nahitajika",
        -9.294772883636286
      ],
      [
        "▁mit",
        -9.296371700212838
      ],
      [
        "nya",
        -9.296548419348468
      ],
      [
        "vunj",
        -9.301448160363197
      ],
      [
        "us",
        -9.301882414079106
      ],
      [
        "chapish",
        -9.303338006302704
      ],
      [
        "umbi",
        -9.304881046273817
      ],
      [
        "anga",
        -9.30561811096634
      ],
      [
        "nia,",
        -9.306160326942262
      ],
      [
        "▁kupi",
        -9.307239796253196
      ],
      [
        "sh",
        -9.308283270346086
      ],
      [
        "mili",
        -9.3100533511799
      ],
      [
        "-19",
        -9.311470150296554
      ],
      [
        "▁50",
        -9.311543455512687
      ],
      [
        "uari",
        -9.313041613317813
      ],
      [
        "ms",
        -9.313653042283057
      ],
      [
        "epo",
        -9.31446849846926
      ],
      [
        "▁maum",
        -9.31535372589697
      ],
      [
        "omb",
        -9.315762620158996
      ],
      [
        "ym",
        -9.316620279163933
      ],
      [
        "▁wenz",
        -9.319696702310331
      ],
      [
        "ok",
        -9.32139560756129
      ],
      [
        "eta",
        -9.322172874829525
      ],
      [
        "saba",
        -9.32483928268534
      ],
      [
        "▁sc",
        -9.32802832352335
      ],
      [
        "aman",
        -9.328276096217097
      ],
      [
        "▁uj",
        -9.332535664257785
      ],
      [
        "rani",
        -9.33310884011854
      ],
      [
        "iku",
        -9.333541668762223
      ],
      [
        "el",
        -9.335525052188178
      ],
      [
        "▁kufi",
        -9.336342582917041
      ],
      [
        "midi",
        -9.337188746668298
      ],
      [
        "e,",
        -9.342661926736778
      ],
      [
        "ingine",
        -9.34405282982237
      ],
      [
        "▁Jo",
        -9.344432147490553
      ],
      [
        "▁Tr",
        -9.3478765965118
      ],
      [
        "▁mash",
        -9.349329395726903
      ],
      [
        "▁pi",
        -9.350086021984053
      ],
      [
        "fuat",
        -9.351193760837601
      ],
      [
        "navyo",
        -9.351200089116503
      ],
      [
        "▁kit",
        -9.352705382649587
      ],
      [
        "nahitaji",
        -9.353060727622228
      ],
      [
        "K",
        -9.35560967760471
      ],
      [
        "▁li",
        -9.35668310224295
      ],
      [
        "▁ut",
        -9.358056369073479
      ],
      [
        "▁wan",
        -9.363807668015154
      ],
      [
        "hap",
        -9.363960634669436
      ],
      [
        "▁kivu",
        -9.365526847396763
      ],
      [
        "▁Karib",
        -9.366688104053377
      ],
      [
        "▁kif",
        -9.36907287251962
      ],
      [
        "▁kuanz",
        -9.369232484040875
      ],
      [
        "pita",
        -9.369329206880272
      ],
      [
        "▁kufu",
        -9.370500479667278
      ],
      [
        "changanywa",
        -9.372909606177542
      ],
      [
        "▁Kis",
        -9.37320218073609
      ],
      [
        "ipoti",
        -9.377910779477983
      ],
      [
        "▁Rom",
        -9.382068022708037
      ],
      [
        "▁kuv",
        -9.38248615198426
      ],
      [
        "▁cho",
        -9.385439673069483
      ],
      [
        "thi",
        -9.386523669872899
      ],
      [
        "lea",
        -9.387962604418465
      ],
      [
        "▁mah",
        -9.388018632356887
      ],
      [
        "sita",
        -9.389572026951752
      ],
      [
        "▁liki",
        -9.39270793283897
      ],
      [
        "malizika",
        -9.393133290057637
      ],
      [
        "hudumi",
        -9.394334174617399
      ],
      [
        "gha",
        -9.395138518978621
      ],
      [
        "▁200",
        -9.398280358648508
      ],
      [
        "om",
        -9.400236443899301
      ],
      [
        "tovu",
        -9.401358299887091
      ],
      [
        "ve",
        -9.401444028231225
      ],
      [
        "▁vye",
        -9.40236256903056
      ],
      [
        "upiga",
        -9.404293751136409
      ],
      [
        "imbaji",
        -9.40433999630014
      ],
      [
        "▁Ina",
        -9.406004414235145
      ],
      [
        "▁Bi",
        -9.407382584506845
      ],
      [
        "uaji",
        -9.408002479329177
      ],
      [
        "ig",
        -9.411012556666964
      ],
      [
        "▁Pen",
        -9.411817934383766
      ],
      [
        "▁Mb",
        -9.412041344101876
      ],
      [
        "▁mchan",
        -9.412574125044534
      ],
      [
        "abu",
        -9.414369669004635
      ],
      [
        "husika",
        -9.414643112487402
      ],
      [
        "W",
        -9.416048853080417
      ],
      [
        "▁kile",
        -9.416944599505374
      ],
      [
        "▁kuzi",
        -9.418483112455874
      ],
      [
        "bio",
        -9.41900059014277
      ],
      [
        "▁Gl",
        -9.419932629845606
      ],
      [
        "▁Kib",
        -9.420243043667844
      ],
      [
        "E",
        -9.421388548432342
      ],
      [
        "id",
        -9.421443315710846
      ],
      [
        "bahari",
        -9.422792047577564
      ],
      [
        "lili",
        -9.42317711459839
      ],
      [
        "wezekana",
        -9.423793692438464
      ],
      [
        "wan",
        -9.424436152000393
      ],
      [
        "1.",
        -9.426590448937048
      ],
      [
        "▁ata",
        -9.426737239884027
      ],
      [
        "hirika",
        -9.430483485647628
      ],
      [
        "pofu",
        -9.432069243318717
      ],
      [
        "ado",
        -9.432092214878772
      ],
      [
        "ithi",
        -9.43296317196654
      ],
      [
        "erikali",
        -9.445863489491012
      ],
      [
        "rent",
        -9.448501093764134
      ],
      [
        "▁(k",
        -9.450095396725361
      ],
      [
        "kin",
        -9.450437514548122
      ],
      [
        "nywa",
        -9.45233934091062
      ],
      [
        "▁kuele",
        -9.45672528414259
      ],
      [
        "▁Fe",
        -9.459368529592574
      ],
      [
        "x",
        -9.460739848260259
      ],
      [
        "eti",
        -9.461867156201407
      ],
      [
        "ci",
        -9.462037021134835
      ],
      [
        "▁Po",
        -9.462562399557381
      ],
      [
        "ck",
        -9.462916971850618
      ],
      [
        "biri",
        -9.466483411139988
      ],
      [
        "serikali",
        -9.470427466841759
      ],
      [
        "thibitish",
        -9.47284455726385
      ],
      [
        "▁ziada",
        -9.47303347326922
      ],
      [
        "▁du",
        -9.474092345605577
      ],
      [
        "inga",
        -9.475363882012648
      ],
      [
        "▁Ri",
        -9.475911552293727
      ],
      [
        "ene",
        -9.476051815190717
      ],
      [
        "hughuli",
        -9.479159467413316
      ],
      [
        "▁ita",
        -9.480438792286064
      ],
      [
        "kazi",
        -9.481123538600654
      ],
      [
        "▁kuj",
        -9.483107289142659
      ],
      [
        "▁6,",
        -9.483475072983152
      ],
      [
        "changany",
        -9.484074119765884
      ],
      [
        "▁Gran",
        -9.484332708678695
      ],
      [
        "tiza",
        -9.484560712263603
      ],
      [
        "araja",
        -9.48498609282547
      ],
      [
        "lisema",
        -9.48581905270337
      ],
      [
        "▁Wanyama",
        -9.48609377477986
      ],
      [
        "uwa",
        -9.486595619952123
      ],
      [
        "jen",
        -9.48666648652879
      ],
      [
        "port",
        -9.4875876438827
      ],
      [
        "▁uch",
        -9.49009336963874
      ],
      [
        "▁kuk",
        -9.490433207195782
      ],
      [
        "jeraha",
        -9.490564414343599
      ],
      [
        "▁mvu",
        -9.492094750563474
      ],
      [
        "limwengu",
        -9.492259702678247
      ],
      [
        "eb",
        -9.493492728438337
      ],
      [
        "▁Up",
        -9.494058107550645
      ],
      [
        "tarehe",
        -9.494629887917371
      ],
      [
        "pig",
        -9.49573717238201
      ],
      [
        "▁Association",
        -9.49574040540314
      ],
      [
        "▁Whitehall",
        -9.495740405403206
      ],
      [
        "▁Frontiere",
        -9.495740405407336
      ],
      [
        "▁Skandinavia",
        -9.49574040541618
      ],
      [
        "X",
        -9.495740405443083
      ],
      [
        "—",
        -9.495740405443094
      ],
      [
        "'",
        -9.495740405443094
      ],
      [
        "▁Afganistani",
        -9.495740405613686
      ],
      [
        "H5N1",
        -9.495740405642414
      ],
      [
        "▁Iraq",
        -9.495740405831866
      ],
      [
        "▁Rainbow",
        -9.495740406019241
      ],
      [
        "▁Mapinduzi",
        -9.495740406255084
      ],
      [
        "▁Fallujah",
        -9.495740406651915
      ],
      [
        "▁tambarare",
        -9.49574040828576
      ],
      [
        "▁Serengeti",
        -9.495740417504312
      ],
      [
        "▁Antaktik",
        -9.495740419485376
      ],
      [
        "▁Petersburg",
        -9.49574045488513
      ],
      [
        "▁Stewart",
        -9.495740482769945
      ],
      [
        "▁Oktoba",
        -9.49574049253232
      ],
      [
        "▁Zealand",
        -9.49574050542506
      ],
      [
        "▁Simpson",
        -9.495740530707362
      ],
      [
        "▁Schengen",
        -9.495740564799357
      ],
      [
        "▁Flags",
        -9.495740567345614
      ],
      [
        "▁‘",
        -9.49574076082219
      ],
      [
        "▁burudani",
        -9.495740819726098
      ],
      [
        "▁mshtuko",
        -9.495740841828077
      ],
      [
        "▁Stearns",
        -9.495740870228708
      ],
      [
        "▁Expo",
        -9.495740915609138
      ],
      [
        "▁Fernand",
        -9.495741010203748
      ],
      [
        "▁Bobek",
        -9.495741116993145
      ],
      [
        "▁Armenia",
        -9.495741206384631
      ],
      [
        "▁Blacks",
        -9.495741228177573
      ],
      [
        "lerosisi",
        -9.495741341095032
      ],
      [
        "jiuzulu",
        -9.495741730197686
      ],
      [
        "▁Kroatia",
        -9.495741734508433
      ],
      [
        "▁runinga",
        -9.495741857781343
      ],
      [
        "▁Gordon",
        -9.495741974542291
      ],
      [
        "hudhuri",
        -9.495742011404062
      ],
      [
        "▁Hungaria",
        -9.49574209195342
      ],
      [
        "takapofika",
        -9.495743047096582
      ],
      [
        "▁sarakasi",
        -9.495743470245362
      ],
      [
        "▁vidonda",
        -9.495745186570694
      ],
      [
        "▁Afghan",
        -9.495746273099968
      ],
      [
        "▁Moroko",
        -9.495747528916075
      ],
      [
        "▁Khande",
        -9.495747979916816
      ],
      [
        "chelewesh",
        -9.495748185309358
      ],
      [
        "▁London",
        -9.495748329593823
      ],
      [
        "▁Ebola",
        -9.495748461065569
      ],
      [
        "▁bendera",
        -9.495748527835874
      ],
      [
        "▁Arizona",
        -9.495748623210785
      ],
      [
        "▁nyaraka",
        -9.495748986510995
      ],
      [
        "lisalimi",
        -9.49574937210957
      ],
      [
        "▁Colbert",
        -9.495750245496998
      ],
      [
        "▁Brother",
        -9.49575162727687
      ],
      [
        "▁Bandari",
        -9.495753408654034
      ],
      [
        "▁migahawa",
        -9.495769590037378
      ],
      [
        "NBA",
        -9.49577016646932
      ],
      [
        "▁Canada",
        -9.495770500992084
      ],
      [
        "▁kukokot",
        -9.495771292484688
      ],
      [
        "▁viwili",
        -9.49577283896338
      ],
      [
        "▁Fran",
        -9.495780469295104
      ],
      [
        "▁kureje",
        -9.495781173274228
      ],
      [
        "▁kukamilish",
        -9.49578630516871
      ],
      [
        "burudish",
        -9.495792459152927
      ],
      [
        "▁Trans",
        -9.495792665876795
      ],
      [
        "▁ushirikiano",
        -9.495793432692194
      ],
      [
        "▁bandari",
        -9.495803739498552
      ],
      [
        "▁kayaki",
        -9.4958128016831
      ],
      [
        "▁2005",
        -9.495824635003824
      ],
      [
        "msukum",
        -9.49582897443614
      ],
      [
        "▁Jumanne",
        -9.495830563169921
      ],
      [
        "▁Korea",
        -9.495833226638158
      ],
      [
        "▁mshindi",
        -9.495834104252756
      ],
      [
        "sahihi",
        -9.495834343116018
      ],
      [
        "▁1979",
        -9.49584171912499
      ],
      [
        "▁David",
        -9.49584954685595
      ],
      [
        "▁Jumatano",
        -9.495879566024785
      ],
      [
        "▁Reid",
        -9.495889859773802
      ],
      [
        "▁Prix",
        -9.49591270895583
      ],
      [
        "aimarika",
        -9.495926823630997
      ],
      [
        "▁ilip",
        -9.495933248894369
      ],
      [
        "mmy",
        -9.495969329621687
      ],
      [
        "▁Kings",
        -9.49597835298161
      ],
      [
        "▁7,000",
        -9.495987392398828
      ],
      [
        "▁199",
        -9.496005698553857
      ],
      [
        "▁Shirikisho",
        -9.496018512108241
      ],
      [
        "▁Copenhagen",
        -9.496021337576657
      ],
      [
        "▁rungu",
        -9.496022883063064
      ],
      [
        "Net",
        -9.496031062020343
      ],
      [
        "ispani",
        -9.496031529485533
      ],
      [
        "kamilifu",
        -9.496079658480694
      ],
      [
        "SW",
        -9.496097204895122
      ],
      [
        "▁kuongeze",
        -9.496103158112092
      ],
      [
        "▁kidhibiti",
        -9.496113185247793
      ],
      [
        "gawanyika",
        -9.496123550079995
      ],
      [
        "▁polisi",
        -9.496138150668243
      ],
      [
        "dege",
        -9.496142663772456
      ],
      [
        "30,000",
        -9.496152008871142
      ],
      [
        "▁2020",
        -9.496157101219513
      ],
      [
        "▁Alex",
        -9.496162861132323
      ],
      [
        "▁bahasha",
        -9.496164756421562
      ],
      [
        "▁Tabia",
        -9.496184778065718
      ],
      [
        "faulu",
        -9.49619594659771
      ],
      [
        "▁iliyojaa",
        -9.496216570366958
      ],
      [
        "▁nguru",
        -9.496230206149322
      ],
      [
        "▁manane",
        -9.496237279700312
      ],
      [
        "▁Onega",
        -9.49626424970058
      ],
      [
        "▁kusisimua",
        -9.496271946734982
      ],
      [
        "▁wanadamu",
        -9.496302032592109
      ],
      [
        "▁maduka",
        -9.496309481670913
      ],
      [
        "▁\"Ni",
        -9.496313193672894
      ],
      [
        "250",
        -9.496313575654357
      ],
      [
        "▁unatofautiana",
        -9.496335233157415
      ],
      [
        "▁ganda",
        -9.496402411516852
      ],
      [
        "funguvisiwa",
        -9.49641419229
      ],
      [
        "▁Hsie",
        -9.496415346969163
      ],
      [
        "chell",
        -9.496416538925676
      ],
      [
        "▁likizo",
        -9.496565349377061
      ],
      [
        "468",
        -9.49656873415148
      ],
      [
        "▁Star",
        -9.496575270658624
      ],
      [
        "▁Slov",
        -9.496623287545189
      ],
      [
        "▁Rec",
        -9.4966773638846
      ],
      [
        "amuzi",
        -9.496763189587222
      ],
      [
        "▁Sauti",
        -9.49683106918913
      ],
      [
        "▁vilivyo",
        -9.49683955524479
      ],
      [
        "▁jingine",
        -9.496874624814119
      ],
      [
        "ATA",
        -9.496874707812546
      ],
      [
        "wal",
        -9.496913063219683
      ],
      [
        "▁wakaja",
        -9.496946498125402
      ],
      [
        "▁Kimataifa",
        -9.49695123860742
      ],
      [
        "▁kibinafsi",
        -9.497004227509324
      ],
      [
        "ankar",
        -9.497004895546233
      ],
      [
        "▁“N",
        -9.49706404328807
      ],
      [
        "▁48",
        -9.497067325623048
      ],
      [
        "▁Moja",
        -9.497078003253502
      ],
      [
        "▁53",
        -9.497097376612189
      ],
      [
        "▁boti",
        -9.497144386460777
      ],
      [
        "tofautiana",
        -9.4972097377311
      ],
      [
        "▁2010",
        -9.497243331947
      ],
      [
        "▁ulisababish",
        -9.49724809465159
      ],
      [
        "▁hulipa",
        -9.497269015260477
      ],
      [
        "76",
        -9.497319613092849
      ],
      [
        "▁zinazouz",
        -9.497466230494801
      ],
      [
        "▁\"T",
        -9.497488104289328
      ],
      [
        "▁Inc",
        -9.497498343167003
      ],
      [
        "uhudi",
        -9.49752494360563
      ],
      [
        "▁kukera",
        -9.497598527124078
      ],
      [
        "▁ununuzi",
        -9.49760980742404
      ],
      [
        "▁uhamiaji",
        -9.497610288996027
      ],
      [
        "▁“G",
        -9.497632411452154
      ],
      [
        "▁kisheria",
        -9.497676141103396
      ],
      [
        "▁(U",
        -9.497848873813377
      ],
      [
        "▁kikapu",
        -9.49785533559317
      ],
      [
        "▁Asili",
        -9.497883804193213
      ],
      [
        "▁Ott",
        -9.49796762026304
      ],
      [
        "ffer",
        -9.498112090756628
      ],
      [
        "▁32",
        -9.498120012095892
      ],
      [
        "▁PA",
        -9.498134335304552
      ],
      [
        "▁tajiri",
        -9.49813911721637
      ],
      [
        "▁kukusany",
        -9.498161206893418
      ],
      [
        "▁yalivyo",
        -9.498184321521515
      ],
      [
        "▁jamaa",
        -9.498232924604833
      ],
      [
        "▁Republican",
        -9.498313047474719
      ],
      [
        "▁kivyake",
        -9.498439282296594
      ],
      [
        "▁mianya",
        -9.499071894173372
      ],
      [
        "▁mvurug",
        -9.49911768721668
      ],
      [
        "▁chuo",
        -9.49917122950317
      ],
      [
        "▁2006",
        -9.499191882604752
      ],
      [
        "▁Ol",
        -9.499314207974008
      ],
      [
        "▁AC",
        -9.49941121727896
      ],
      [
        "▁nyasi",
        -9.499425652931548
      ],
      [
        "▁Pwani",
        -9.499497696279624
      ],
      [
        "▁vyote",
        -9.499526810179496
      ],
      [
        "▁Utah",
        -9.499549933395915
      ],
      [
        "dakta",
        -9.499677589015771
      ],
      [
        "▁midogo",
        -9.499887792613624
      ],
      [
        "sitishwa",
        -9.50023459551795
      ],
      [
        "icheze",
        -9.5002911637152
      ],
      [
        "▁abiria",
        -9.50046125123245
      ],
      [
        "jitokez",
        -9.50060146309422
      ],
      [
        "elele",
        -9.500692043599171
      ],
      [
        "pumzik",
        -9.500705447111697
      ],
      [
        "▁Sul",
        -9.500895570517343
      ],
      [
        "S)",
        -9.501001348597992
      ],
      [
        "nyongo",
        -9.5011267694116
      ],
      [
        "▁2011",
        -9.501131996380497
      ],
      [
        "▁maamuzi",
        -9.50117568635004
      ],
      [
        "sugu",
        -9.50158728926939
      ],
      [
        "▁Gre",
        -9.501689239386568
      ],
      [
        "▁tek",
        -9.501738163576539
      ],
      [
        "▁mgongo",
        -9.502027598913749
      ],
      [
        "▁kimatibabu",
        -9.50259004761292
      ],
      [
        "▁pazuri",
        -9.502793822010746
      ],
      [
        "bor",
        -9.502803438636258
      ],
      [
        "alem",
        -9.50310291321583
      ],
      [
        "▁mwenza",
        -9.50330636877139
      ],
      [
        "▁utam",
        -9.503317431581742
      ],
      [
        "ubadilisha",
        -9.50341550029792
      ],
      [
        "▁mgombea",
        -9.503559078638926
      ],
      [
        "▁Barc",
        -9.503716440330342
      ],
      [
        "ogelea",
        -9.5038346630849
      ],
      [
        "▁Kide",
        -9.503905788821612
      ],
      [
        "nport",
        -9.504478519493398
      ],
      [
        "ngine",
        -9.504767586068231
      ],
      [
        "▁watulivu",
        -9.504855752439795
      ],
      [
        "▁One",
        -9.504957303920001
      ],
      [
        "0)",
        -9.505144015492753
      ],
      [
        "▁kifupi",
        -9.505883041912695
      ],
      [
        "uhalalisha",
        -9.505902600113481
      ],
      [
        "urud",
        -9.505984221781306
      ],
      [
        "▁17,",
        -9.506490685324625
      ],
      [
        "▁kukom",
        -9.506621560494363
      ],
      [
        "▁Er",
        -9.50678867812584
      ],
      [
        "▁maambukiz",
        -9.506809132767547
      ],
      [
        "ters",
        -9.50703741521647
      ],
      [
        "▁mazoe",
        -9.507320223191837
      ],
      [
        "hne",
        -9.507523109664481
      ],
      [
        "▁mashimo",
        -9.507580378662036
      ],
      [
        "uti",
        -9.507838346410802
      ],
      [
        "▁wima",
        -9.507877455831597
      ],
      [
        "utabiri",
        -9.507891859526753
      ],
      [
        "ukta",
        -9.508440305071543
      ],
      [
        "▁mitandao",
        -9.508490659913356
      ],
      [
        "winda",
        -9.50865793628765
      ],
      [
        "▁Vic",
        -9.508721150588874
      ],
      [
        "rangi",
        -9.508897912455
      ],
      [
        "shauri",
        -9.50908288122514
      ],
      [
        "▁Lak",
        -9.509673776150734
      ],
      [
        "epush",
        -9.50984855842168
      ],
      [
        "▁uvumi",
        -9.510030782142868
      ],
      [
        "iriki",
        -9.510058788487521
      ],
      [
        "▁Alifiki",
        -9.510217647293809
      ],
      [
        "izo",
        -9.510293322082552
      ],
      [
        "que",
        -9.51050852701681
      ],
      [
        "▁kuchukuliwa",
        -9.510614530167299
      ],
      [
        "▁Tamas",
        -9.510808040888016
      ],
      [
        "outh",
        -9.51089395338599
      ],
      [
        "nyoka",
        -9.511602672699697
      ],
      [
        "▁Yak",
        -9.511621139280214
      ],
      [
        "▁bar",
        -9.512123813452991
      ],
      [
        "il",
        -9.512141477713506
      ],
      [
        "▁kutengenez",
        -9.512329910757758
      ],
      [
        "▁alipot",
        -9.512377565496921
      ],
      [
        "▁Pasi",
        -9.51281277618339
      ],
      [
        "▁ange",
        -9.513979881205875
      ],
      [
        "▁mtandao",
        -9.513995506501018
      ],
      [
        "▁Mit",
        -9.514187715411133
      ],
      [
        "aha",
        -9.514565014496736
      ],
      [
        "ec",
        -9.514638839872575
      ],
      [
        "vill",
        -9.515139960617674
      ],
      [
        "sambaz",
        -9.515157710802178
      ],
      [
        "timu",
        -9.51553071849646
      ],
      [
        "30",
        -9.515698264276898
      ],
      [
        "kafikiri",
        -9.51598899873906
      ],
      [
        "rc",
        -9.516059508056449
      ],
      [
        "bul",
        -9.5161041885176
      ],
      [
        "lami",
        -9.51633464937395
      ],
      [
        "ivu",
        -9.516343607643314
      ],
      [
        "onge",
        -9.51714564859721
      ],
      [
        "ney",
        -9.518205244432824
      ],
      [
        "orongo",
        -9.51825301730751
      ],
      [
        "▁manu",
        -9.51840681331241
      ],
      [
        "ver",
        -9.518663636448906
      ],
      [
        "vipen",
        -9.519357812517493
      ],
      [
        "▁kupigana",
        -9.51958579451457
      ],
      [
        "▁Sim",
        -9.519811385219155
      ],
      [
        "mbizi",
        -9.520039793436643
      ],
      [
        "▁kurekebishwa",
        -9.520067983319034
      ],
      [
        "utum",
        -9.520263154112778
      ],
      [
        "▁kichwa",
        -9.520819388360621
      ],
      [
        "gombea",
        -9.520824029330305
      ],
      [
        "5-",
        -9.521158223909916
      ],
      [
        "▁kunge",
        -9.52147882525733
      ],
      [
        "nburg",
        -9.521624361697489
      ],
      [
        "▁Ug",
        -9.521956895502285
      ],
      [
        "silah",
        -9.522156678714493
      ],
      [
        "▁wasio",
        -9.522211284718347
      ],
      [
        "▁Me",
        -9.52282328857164
      ],
      [
        "chaguzi",
        -9.52287401667025
      ],
      [
        "▁havi",
        -9.523002328398288
      ],
      [
        "▁Usafiri",
        -9.523175377287137
      ],
      [
        "▁Asi",
        -9.523398232980309
      ],
      [
        "mna",
        -9.523662913795455
      ],
      [
        "▁kujumuish",
        -9.524208697331943
      ],
      [
        "ssar",
        -9.525158285853655
      ],
      [
        "tibiwa",
        -9.525261555104034
      ],
      [
        "▁karat",
        -9.52593342996688
      ],
      [
        "bro",
        -9.526274927328746
      ],
      [
        "ruhus",
        -9.527750314712367
      ],
      [
        "akifuati",
        -9.528607041212958
      ],
      [
        "▁Che",
        -9.528672469506883
      ],
      [
        "▁tas",
        -9.528862301825365
      ],
      [
        "amba",
        -9.529049468471788
      ],
      [
        "▁bakteria",
        -9.529183814106734
      ],
      [
        "▁waliohi",
        -9.530394980335398
      ],
      [
        "▁Nam",
        -9.5304416529229
      ],
      [
        "▁lisi",
        -9.531005140233283
      ],
      [
        "▁makini",
        -9.531812123403402
      ],
      [
        "▁Ng",
        -9.532041148176933
      ],
      [
        "▁Kisha",
        -9.5321443095909
      ],
      [
        "▁imeshind",
        -9.53216773921098
      ],
      [
        "▁Waka",
        -9.532640669385184
      ],
      [
        "▁Ken",
        -9.5332364378997
      ],
      [
        "▁wanach",
        -9.533719870995357
      ],
      [
        "▁kujit",
        -9.533759348659638
      ],
      [
        "▁iwe",
        -9.534099390749926
      ],
      [
        "▁mikali",
        -9.534174346292406
      ],
      [
        "▁mjini",
        -9.534376790208542
      ],
      [
        "acks",
        -9.535195041645444
      ],
      [
        "ler",
        -9.535256301311223
      ],
      [
        "▁sara",
        -9.536226030470417
      ],
      [
        "▁kinga",
        -9.537951443534423
      ],
      [
        "▁kudhibiti",
        -9.538286604702815
      ],
      [
        "▁matat",
        -9.538477074418399
      ],
      [
        "akili",
        -9.539155464088134
      ],
      [
        "▁Shirik",
        -9.539449731524664
      ],
      [
        "▁zikiwa",
        -9.540164809308164
      ],
      [
        "▁le",
        -9.54060201152506
      ],
      [
        "▁pole",
        -9.541123382843995
      ],
      [
        "▁Leo",
        -9.541166239348081
      ],
      [
        "▁vif",
        -9.541549506849998
      ],
      [
        "▁Jio",
        -9.541605140656772
      ],
      [
        "imeratibiwa",
        -9.542178328611401
      ],
      [
        "▁nyum",
        -9.542741720617654
      ],
      [
        "▁mapana",
        -9.543400339797188
      ],
      [
        "▁vol",
        -9.544619643703784
      ],
      [
        "▁wameshind",
        -9.546277309780967
      ],
      [
        "s,",
        -9.547006753422792
      ],
      [
        "▁Ari",
        -9.547767356441353
      ],
      [
        "▁hawaj",
        -9.548082164065507
      ],
      [
        "ele",
        -9.548263736608043
      ],
      [
        "▁hospitalini",
        -9.54830170254985
      ],
      [
        "ntaneti",
        -9.549619247536528
      ],
      [
        "pi",
        -9.550360624855896
      ],
      [
        "▁yame",
        -9.55036526744812
      ],
      [
        "▁utumi",
        -9.550940082673504
      ],
      [
        "▁maua",
        -9.551137287368835
      ],
      [
        "7,",
        -9.551295443241973
      ],
      [
        "inema",
        -9.551318948001843
      ],
      [
        "▁wapya",
        -9.551442752731159
      ],
      [
        "▁kufadhai",
        -9.552040258079645
      ],
      [
        "▁Uso",
        -9.55318524990773
      ],
      [
        "tafut",
        -9.553208968833948
      ],
      [
        "hirish",
        -9.553654877342938
      ],
      [
        "thibitishwa",
        -9.553849928110642
      ],
      [
        "inali",
        -9.553918751305671
      ],
      [
        "alo",
        -9.55400805810254
      ],
      [
        "nzani",
        -9.554033724091415
      ],
      [
        "tatizw",
        -9.554217633160938
      ],
      [
        "hu",
        -9.555263489997094
      ],
      [
        "miz",
        -9.555414448899475
      ],
      [
        "▁dha",
        -9.55638857633702
      ],
      [
        "utazama",
        -9.557601383634369
      ],
      [
        "shirik",
        -9.557618198038277
      ],
      [
        "umbu",
        -9.55811319986794
      ],
      [
        "▁Sol",
        -9.558540569835229
      ],
      [
        "▁Gom",
        -9.559712776296394
      ],
      [
        "▁Mt",
        -9.560198254457935
      ],
      [
        "ckla",
        -9.562403957205483
      ],
      [
        "▁Jaz",
        -9.563149560851993
      ],
      [
        "oven",
        -9.563239357235663
      ],
      [
        "▁huangaz",
        -9.564066203751556
      ],
      [
        "▁Fir",
        -9.564349577232832
      ],
      [
        "▁Te",
        -9.56492290006656
      ],
      [
        "stra",
        -9.56642043448082
      ],
      [
        "▁kufung",
        -9.566801812478415
      ],
      [
        "oro",
        -9.567119358568691
      ],
      [
        "▁maad",
        -9.567541412119967
      ],
      [
        "tumi",
        -9.568156488078813
      ],
      [
        "▁de",
        -9.569347227123298
      ],
      [
        "▁64",
        -9.570170778017056
      ],
      [
        "ununu",
        -9.57050374977927
      ],
      [
        "4,",
        -9.570542294390878
      ],
      [
        "▁milimani",
        -9.572787784508327
      ],
      [
        "alama",
        -9.57413607372467
      ],
      [
        "▁maanda",
        -9.5743262861298
      ],
      [
        "▁Yo",
        -9.577193044347583
      ],
      [
        "biria",
        -9.577398408945578
      ],
      [
        "▁Wal",
        -9.578000781210681
      ],
      [
        "▁kin",
        -9.57820263367023
      ],
      [
        "▁ukur",
        -9.57825050167235
      ],
      [
        "lifuati",
        -9.578565861084126
      ],
      [
        "▁hutu",
        -9.578824043805628
      ],
      [
        "▁Howa",
        -9.582063823346008
      ],
      [
        "▁maar",
        -9.584627275930748
      ],
      [
        "▁Feli",
        -9.586840366379361
      ],
      [
        "▁kufuati",
        -9.58751190061815
      ],
      [
        "▁alito",
        -9.588122538848065
      ],
      [
        "▁uga",
        -9.588495258834095
      ],
      [
        "▁cham",
        -9.58882256035666
      ],
      [
        "uku",
        -9.589031220346365
      ],
      [
        "neo",
        -9.591147304239485
      ],
      [
        "▁huja",
        -9.591608577158441
      ],
      [
        "kodi",
        -9.59262506909636
      ],
      [
        "▁kib",
        -9.593315091310208
      ],
      [
        "▁Ira",
        -9.593916588164387
      ],
      [
        "pungu",
        -9.594246618934056
      ],
      [
        "▁elfu",
        -9.596152649563837
      ],
      [
        "▁mwingi",
        -9.596529718905801
      ],
      [
        "▁kifa",
        -9.596898738304098
      ],
      [
        "ston",
        -9.596922852253275
      ],
      [
        "▁3,",
        -9.597040024796815
      ],
      [
        "Luna",
        -9.597756853984857
      ],
      [
        "ikwa",
        -9.59838756930316
      ],
      [
        "os",
        -9.598946683793843
      ],
      [
        "▁zinazohusi",
        -9.600105886586377
      ],
      [
        "set",
        -9.602306384895687
      ],
      [
        "arine",
        -9.602767300801862
      ],
      [
        "hog",
        -9.604453531217404
      ],
      [
        "wewe",
        -9.604783792267163
      ],
      [
        "▁mfan",
        -9.605624324580923
      ],
      [
        "tandaa",
        -9.606780871885892
      ],
      [
        "tawi",
        -9.608443212321923
      ],
      [
        "tuliz",
        -9.61015086869415
      ],
      [
        "kimaliz",
        -9.61056330786715
      ],
      [
        "sisi",
        -9.611595288554646
      ],
      [
        "▁Ti",
        -9.611600528144733
      ],
      [
        "lad",
        -9.613670618936862
      ],
      [
        "isiasa\"",
        -9.613819664253896
      ],
      [
        "▁mfu",
        -9.61453122954461
      ],
      [
        "zen",
        -9.615851295144877
      ],
      [
        "▁kufaa",
        -9.616560341236735
      ],
      [
        "liyopendekezwa",
        -9.618191025496744
      ],
      [
        "ux",
        -9.618594954800862
      ],
      [
        "▁Usi",
        -9.61891055425655
      ],
      [
        "▁Mwan",
        -9.619176190305419
      ],
      [
        "ex",
        -9.619747693155194
      ],
      [
        "ahitaji",
        -9.62402713670104
      ],
      [
        "▁zil",
        -9.625084574596357
      ],
      [
        "sanaa",
        -9.627440143407584
      ],
      [
        "▁uba",
        -9.62752889577964
      ],
      [
        "▁kidogo,",
        -9.627537951224452
      ],
      [
        "fuata",
        -9.628014722311507
      ],
      [
        "vid",
        -9.629246723689386
      ],
      [
        "hudumia",
        -9.629834331342273
      ],
      [
        "▁How",
        -9.63067366387865
      ],
      [
        "▁kumalizia",
        -9.630726410075187
      ],
      [
        "ikiri",
        -9.633200483608329
      ],
      [
        "epu",
        -9.634326365959318
      ],
      [
        "▁Au",
        -9.638696731969315
      ],
      [
        "▁vimo",
        -9.639035872037006
      ],
      [
        "▁huji",
        -9.639466765803174
      ],
      [
        "▁Uli",
        -9.640149004175374
      ],
      [
        "▁hi",
        -9.640481103526863
      ],
      [
        "▁vik",
        -9.642149041688873
      ],
      [
        "▁Hek",
        -9.642577519856362
      ],
      [
        "mb",
        -9.644291933002936
      ],
      [
        "▁St",
        -9.645508803049843
      ],
      [
        "faa",
        -9.647771107087292
      ],
      [
        "▁Muun",
        -9.648362080546141
      ],
      [
        "▁alielez",
        -9.64879286168376
      ],
      [
        "▁huchangany",
        -9.648858195580654
      ],
      [
        "ren",
        -9.650913980332206
      ],
      [
        "▁Tu",
        -9.652681761732515
      ],
      [
        "▁Ser",
        -9.652992937558931
      ],
      [
        "ofa",
        -9.655573512530264
      ],
      [
        "safa",
        -9.658296507914107
      ],
      [
        "▁kufanyi",
        -9.658315318784483
      ],
      [
        "▁pol",
        -9.659095498491052
      ],
      [
        "▁me",
        -9.659726531964528
      ],
      [
        "▁Alb",
        -9.660007722752406
      ],
      [
        "▁kipen",
        -9.66005146734432
      ],
      [
        "ilango",
        -9.660709139907317
      ],
      [
        "ze",
        -9.662245429303065
      ],
      [
        "faham",
        -9.664468550167859
      ],
      [
        "marekani",
        -9.666730879174406
      ],
      [
        "▁mab",
        -9.667031779900402
      ],
      [
        "gele",
        -9.667332992049548
      ],
      [
        "▁Pal",
        -9.667546109217138
      ],
      [
        "ibu",
        -9.668481341068656
      ],
      [
        "cher",
        -9.670011775109158
      ],
      [
        "▁ilianz",
        -9.674626491392345
      ],
      [
        "ekana",
        -9.675094988555728
      ],
      [
        "ikubwa",
        -9.678196100617633
      ],
      [
        "▁Wali",
        -9.678819498209062
      ],
      [
        "▁wakip",
        -9.678938400437389
      ],
      [
        "▁198",
        -9.679175053994378
      ],
      [
        "▁alit",
        -9.679450272326688
      ],
      [
        "ingilia",
        -9.680680395665316
      ],
      [
        "▁katikati",
        -9.680779394902807
      ],
      [
        "hen",
        -9.68126503582639
      ],
      [
        "▁kambini",
        -9.682103155464798
      ],
      [
        "nas",
        -9.682252985350475
      ],
      [
        "▁7",
        -9.682520585129774
      ],
      [
        "ito",
        -9.68349163336488
      ],
      [
        "▁hii.",
        -9.683822978255845
      ],
      [
        "▁kuku",
        -9.68697119540078
      ],
      [
        "64",
        -9.68769734621764
      ],
      [
        "omania",
        -9.689944945691348
      ],
      [
        "▁At",
        -9.689985916400602
      ],
      [
        "umbe",
        -9.693344357247012
      ],
      [
        "isiki",
        -9.694003526243574
      ],
      [
        "/ku",
        -9.694677139715239
      ],
      [
        "ujiteng",
        -9.69532492744505
      ],
      [
        "chunguz",
        -9.695696278586336
      ],
      [
        "chin",
        -9.69603586804246
      ],
      [
        "ukos",
        -9.697611993010701
      ],
      [
        "▁kutembe",
        -9.697911682292009
      ],
      [
        "▁Ru",
        -9.698422238462028
      ],
      [
        "iza",
        -9.698767344748582
      ],
      [
        "mani",
        -9.699665305892333
      ],
      [
        "nji",
        -9.70254969036362
      ],
      [
        "sco",
        -9.703505330466298
      ],
      [
        "▁kuchap",
        -9.704595055624619
      ],
      [
        "85",
        -9.70513142721582
      ],
      [
        "▁Dh",
        -9.707241731935401
      ],
      [
        "▁Orl",
        -9.709830996289915
      ],
      [
        "▁Kuwa",
        -9.712567528929032
      ],
      [
        "maan",
        -9.7130815637772
      ],
      [
        "▁Kisi",
        -9.713214985210643
      ],
      [
        "wavuti",
        -9.714399245637878
      ],
      [
        "bi",
        -9.715260223897793
      ],
      [
        "▁jinai",
        -9.715477612006914
      ],
      [
        "▁Domin",
        -9.717908032711302
      ],
      [
        "▁Sp",
        -9.718122757228054
      ],
      [
        "amili",
        -9.719567469905723
      ],
      [
        "ip",
        -9.719735425954312
      ],
      [
        "eg",
        -9.722191261212144
      ],
      [
        "nzo",
        -9.722286815195055
      ],
      [
        "4-1",
        -9.72235358996997
      ],
      [
        "twa",
        -9.722357900539482
      ],
      [
        "▁De",
        -9.722685843198208
      ],
      [
        "▁Har",
        -9.72605475211765
      ],
      [
        "▁kushind",
        -9.727607696892491
      ],
      [
        "doga",
        -9.7277726877248
      ],
      [
        "▁“u",
        -9.734255091625535
      ],
      [
        "▁msa",
        -9.735280622977903
      ],
      [
        "▁Lu",
        -9.73574466594141
      ],
      [
        "dho",
        -9.738141644071746
      ],
      [
        "tayarisha",
        -9.740277956238948
      ],
      [
        "▁kusafirish",
        -9.741811148568125
      ],
      [
        "▁Mis",
        -9.74751062928692
      ],
      [
        "eng",
        -9.749575120553603
      ],
      [
        "uliz",
        -9.751628485222657
      ],
      [
        "ukwe",
        -9.757603821938035
      ],
      [
        "stan",
        -9.759209506695498
      ],
      [
        "▁mil",
        -9.759727321933134
      ],
      [
        "rse",
        -9.76053864091964
      ],
      [
        "▁Baad",
        -9.763562581384978
      ],
      [
        "itungw",
        -9.763925955441067
      ],
      [
        "91",
        -9.763986363411117
      ],
      [
        "▁Stra",
        -9.764855554484324
      ],
      [
        "liandik",
        -9.768072573548082
      ],
      [
        "▁chan",
        -9.769035358997538
      ],
      [
        "aska",
        -9.770513693074134
      ],
      [
        "ianc",
        -9.77152392374976
      ],
      [
        "ven",
        -9.772231286616897
      ],
      [
        "wish",
        -9.77466434200759
      ],
      [
        "▁kwako",
        -9.774939766298454
      ],
      [
        "metokea",
        -9.775262930065642
      ],
      [
        "▁miti",
        -9.776999562089062
      ],
      [
        "asa",
        -9.777964509628752
      ],
      [
        "alia",
        -9.77818143394554
      ],
      [
        "aspi",
        -9.779982393476384
      ],
      [
        "▁jo",
        -9.781936382641211
      ],
      [
        "▁kuja",
        -9.788162397465882
      ],
      [
        "ds.",
        -9.789400171811721
      ],
      [
        "▁Ham",
        -9.79430790801243
      ],
      [
        "amani",
        -9.799712109926613
      ],
      [
        "mka",
        -9.80056946731321
      ],
      [
        "▁Za",
        -9.801041208853192
      ],
      [
        "▁kisi",
        -9.802084896893046
      ],
      [
        "vani",
        -9.802110260107932
      ],
      [
        "▁ziliwa",
        -9.80492395429192
      ],
      [
        "nyamapori",
        -9.806266791173817
      ],
      [
        "ngozi",
        -9.806999926675331
      ],
      [
        "▁akio",
        -9.807027080074912
      ],
      [
        "ur",
        -9.807763770545767
      ],
      [
        "ifadhi",
        -9.811429861303948
      ],
      [
        "ger",
        -9.811456395383694
      ],
      [
        "▁wenza",
        -9.81465323682647
      ],
      [
        "engine",
        -9.815124168830927
      ],
      [
        "bra",
        -9.817089360588893
      ],
      [
        "▁uji",
        -9.817303797527213
      ],
      [
        "nywaji",
        -9.819805074211164
      ],
      [
        "hewa",
        -9.81995006562362
      ],
      [
        "rade",
        -9.824601611349683
      ],
      [
        "▁ka",
        -9.825561418102605
      ],
      [
        "utembele",
        -9.825944120503417
      ],
      [
        "aki",
        -9.827471671818827
      ],
      [
        "agharibi",
        -9.827567441722476
      ],
      [
        "mir",
        -9.829818499891743
      ],
      [
        "▁alifu",
        -9.830747779192027
      ],
      [
        "▁Uta",
        -9.830968403885795
      ],
      [
        "elo",
        -9.832261204799531
      ],
      [
        "▁kur",
        -9.8371195442719
      ],
      [
        "vyake",
        -9.837475978763468
      ],
      [
        "stin",
        -9.839009224952644
      ],
      [
        "ahawa",
        -9.840186189175585
      ],
      [
        "ahakama",
        -9.841728602826297
      ],
      [
        "▁ge",
        -9.842740968782346
      ],
      [
        "for",
        -9.84412736087091
      ],
      [
        "angu",
        -9.846340400679171
      ],
      [
        "ban",
        -9.847875865437786
      ],
      [
        "▁sanaa",
        -9.848134655170423
      ],
      [
        "mpu",
        -9.851445124200774
      ],
      [
        "ghai",
        -9.855618508554272
      ],
      [
        "▁Rea",
        -9.856016796319928
      ],
      [
        "amu",
        -9.856149908106428
      ],
      [
        "▁pango",
        -9.856997922611736
      ],
      [
        "atizo",
        -9.857841085871666
      ],
      [
        "▁kudh",
        -9.860113258280126
      ],
      [
        "▁II",
        -9.860183953610395
      ],
      [
        "▁Uru",
        -9.860274581326296
      ],
      [
        "ativ",
        -9.863311793072413
      ],
      [
        "▁r",
        -9.866177425609424
      ],
      [
        "▁Ve",
        -9.86648243994345
      ],
      [
        "▁kutat",
        -9.86798024903765
      ],
      [
        "sawa",
        -9.870844514568672
      ],
      [
        "den",
        -9.871673070874778
      ],
      [
        "teu",
        -9.873258442021577
      ],
      [
        "nchi",
        -9.874707625738214
      ],
      [
        "fut",
        -9.874744413167079
      ],
      [
        "▁yalip",
        -9.875233899969556
      ],
      [
        "▁Pe",
        -9.875853018803246
      ],
      [
        "▁uliok",
        -9.878481969641877
      ],
      [
        "▁Sher",
        -9.879236625140488
      ],
      [
        "ami",
        -9.879671851019914
      ],
      [
        "mizi",
        -9.883009692942501
      ],
      [
        "rd",
        -9.883787269280374
      ],
      [
        "potea",
        -9.884468919309976
      ],
      [
        "▁vika",
        -9.884571279120637
      ],
      [
        "▁upana",
        -9.887551850079907
      ],
      [
        "shaji",
        -9.888342438472764
      ],
      [
        "▁bia",
        -9.889320880929798
      ],
      [
        "Angola",
        -9.89214784606174
      ],
      [
        "loba",
        -9.896108672749403
      ],
      [
        "▁ho",
        -9.899073015831148
      ],
      [
        "ny",
        -9.899082766258429
      ],
      [
        "yote",
        -9.899319679848569
      ],
      [
        "88",
        -9.900858756731791
      ],
      [
        "ez",
        -9.90121496321971
      ],
      [
        "▁utambu",
        -9.902498367203208
      ],
      [
        "iwezi",
        -9.902735632468424
      ],
      [
        "nia",
        -9.902826959622669
      ],
      [
        "kea",
        -9.903968608394434
      ],
      [
        "amini",
        -9.907787873832637
      ],
      [
        "▁Man",
        -9.908362491207
      ],
      [
        "▁Han",
        -9.909528996360477
      ],
      [
        "▁Sch",
        -9.911091750248215
      ],
      [
        "ik",
        -9.912022325820988
      ],
      [
        "▁kab",
        -9.912227985346128
      ],
      [
        "ngola,",
        -9.912448448466737
      ],
      [
        "soge",
        -9.913021161427878
      ],
      [
        "800",
        -9.915274391272856
      ],
      [
        "old",
        -9.918684525969065
      ],
      [
        "fika",
        -9.921335644548005
      ],
      [
        "ezi",
        -9.921725379689999
      ],
      [
        "bond",
        -9.926835996631178
      ],
      [
        "▁miko",
        -9.930768733102974
      ],
      [
        "hasa",
        -9.932302593374503
      ],
      [
        "ambia",
        -9.932829223581448
      ],
      [
        "bebe",
        -9.933104094928282
      ],
      [
        "du",
        -9.937299627119028
      ],
      [
        "▁vyet",
        -9.93805242254516
      ],
      [
        "chafu",
        -9.938868213936434
      ],
      [
        "kano",
        -9.941632733834592
      ],
      [
        "ini,",
        -9.941922618722963
      ],
      [
        "▁hut",
        -9.942536925575823
      ],
      [
        "land",
        -9.943060043643342
      ],
      [
        "▁mat",
        -9.945901879576692
      ],
      [
        "▁kip",
        -9.94840776452704
      ],
      [
        "▁Ms",
        -9.949264655018457
      ],
      [
        "se",
        -9.951407098944012
      ],
      [
        "▁msim",
        -9.953556195752347
      ],
      [
        "tani",
        -9.95838106951103
      ],
      [
        "Ope",
        -9.959103370878829
      ],
      [
        "inyo",
        -9.959458017726966
      ],
      [
        "olo",
        -9.959943186423073
      ],
      [
        "▁kuam",
        -9.961424109335526
      ],
      [
        "▁wasi",
        -9.966207565252866
      ],
      [
        "tis",
        -9.967015941739138
      ],
      [
        "shu",
        -9.969097971456321
      ],
      [
        "nayo",
        -9.970531924823298
      ],
      [
        "iwan",
        -9.970562577897292
      ],
      [
        "avu",
        -9.970822486402433
      ],
      [
        "▁Tai",
        -9.971352946449453
      ],
      [
        "baj",
        -9.975179435699635
      ],
      [
        "▁Matu",
        -9.976440660654497
      ],
      [
        "akubalian",
        -9.979973778774422
      ],
      [
        "▁Or",
        -9.980256262946025
      ],
      [
        "zote",
        -9.9804060772796
      ],
      [
        "▁kiz",
        -9.981372361800258
      ],
      [
        "tabi",
        -9.986374419313508
      ],
      [
        "ungu",
        -9.986392529189112
      ],
      [
        "▁kuz",
        -9.987359188780667
      ],
      [
        "kazini",
        -9.991560861896852
      ],
      [
        "wenyewe",
        -9.994029947074296
      ],
      [
        "ndu",
        -9.994832654212892
      ],
      [
        "▁Re",
        -9.995177658479854
      ],
      [
        "▁kuung",
        -9.99641093207997
      ],
      [
        "og",
        -9.997140268391108
      ],
      [
        "iliwa",
        -10.001329391924468
      ],
      [
        "bao",
        -10.005846748934658
      ],
      [
        "▁196",
        -10.00942935726286
      ],
      [
        "gan",
        -10.011314643835654
      ],
      [
        "kika",
        -10.012507315898803
      ],
      [
        "▁kuti",
        -10.012927382749275
      ],
      [
        "jo",
        -10.01362535317323
      ],
      [
        "bwe",
        -10.015422370130114
      ],
      [
        "ns",
        -10.015836408048084
      ],
      [
        "be",
        -10.01836716965095
      ],
      [
        "ilah",
        -10.019997842121638
      ],
      [
        "▁Mawa",
        -10.023239151632776
      ],
      [
        "▁Ka",
        -10.02339130576169
      ],
      [
        "atoroka",
        -10.026669373502942
      ],
      [
        "ida",
        -10.028222907597405
      ],
      [
        "katika",
        -10.029478830408742
      ],
      [
        "andikish",
        -10.029743924866944
      ],
      [
        "▁hawaku",
        -10.030037301373453
      ],
      [
        "dili",
        -10.030560309994705
      ],
      [
        "tatiz",
        -10.030754810788858
      ],
      [
        "▁ufu",
        -10.030916464335991
      ],
      [
        "van",
        -10.0332427356357
      ],
      [
        "nce",
        -10.033680897231566
      ],
      [
        "▁amew",
        -10.035842466011028
      ],
      [
        "vyeti",
        -10.03653724772428
      ],
      [
        "of",
        -10.038024544828692
      ],
      [
        "elekez",
        -10.041668631580187
      ],
      [
        "▁mafun",
        -10.043465849391755
      ],
      [
        "hawa",
        -10.043655407437605
      ],
      [
        "▁walit",
        -10.044412323762586
      ],
      [
        "ll",
        -10.045025651901911
      ],
      [
        "kab",
        -10.04562161690492
      ],
      [
        "oks",
        -10.049145325160142
      ],
      [
        "▁uja",
        -10.049713010636228
      ],
      [
        "pat",
        -10.050054772870505
      ],
      [
        "▁kuripoti",
        -10.050090299280205
      ],
      [
        "piki",
        -10.05101753252453
      ],
      [
        "980",
        -10.052239283527863
      ],
      [
        "▁hawakuw",
        -10.052291976229794
      ],
      [
        "ui",
        -10.055967035538321
      ],
      [
        "endesh",
        -10.060486095078462
      ],
      [
        "Ba",
        -10.063456479758827
      ],
      [
        "kagu",
        -10.06499796768001
      ],
      [
        "▁mao",
        -10.06517467612073
      ],
      [
        "▁uju",
        -10.066736765411372
      ],
      [
        "anya",
        -10.071169628577321
      ],
      [
        "keti",
        -10.072385168379247
      ],
      [
        "▁mtaa",
        -10.073108507997828
      ],
      [
        "▁Is",
        -10.074421071451953
      ],
      [
        "lazwa",
        -10.074903522130327
      ],
      [
        "yaja",
        -10.075031519913594
      ],
      [
        "▁Domini",
        -10.076739922567665
      ],
      [
        "ipata",
        -10.077015647372646
      ],
      [
        "▁mv",
        -10.077187757688105
      ],
      [
        "ingili",
        -10.080030053726649
      ],
      [
        "ix",
        -10.080399974531305
      ],
      [
        "shirikish",
        -10.080448423804144
      ],
      [
        "yingi",
        -10.081189327387118
      ],
      [
        "huo",
        -10.081557187966387
      ],
      [
        "awez",
        -10.081928745375961
      ],
      [
        "▁inahitaji",
        -10.083767605370866
      ],
      [
        "▁Bar",
        -10.09111643571251
      ],
      [
        "lif",
        -10.092917484634697
      ],
      [
        "F",
        -10.095400592078871
      ],
      [
        "▁maj",
        -10.095590150366206
      ],
      [
        "upu",
        -10.096612755174625
      ],
      [
        "▁waliwasili",
        -10.099476016183695
      ],
      [
        "▁nya",
        -10.102301199976035
      ],
      [
        "umb",
        -10.103770003525092
      ],
      [
        "moto",
        -10.103945608320931
      ],
      [
        "78",
        -10.104718916451919
      ],
      [
        "▁Pala",
        -10.105769580517316
      ],
      [
        "ks",
        -10.1063731789475
      ],
      [
        "▁mp",
        -10.107630334061191
      ],
      [
        "▁kand",
        -10.111847390658525
      ],
      [
        "matatu",
        -10.114904534650528
      ],
      [
        "▁wike",
        -10.117255851055166
      ],
      [
        "tos",
        -10.118818470659265
      ],
      [
        "▁je",
        -10.11994058787211
      ],
      [
        "ned",
        -10.122955972736827
      ],
      [
        "prin",
        -10.12306531514837
      ],
      [
        "maji",
        -10.123457582314154
      ],
      [
        "▁huj",
        -10.127817808329073
      ],
      [
        "dh",
        -10.132336685974048
      ],
      [
        "ers",
        -10.133459293470972
      ],
      [
        "aada",
        -10.134125218968023
      ],
      [
        "▁Mta",
        -10.139192642279166
      ],
      [
        "nmaki",
        -10.140924818331928
      ],
      [
        "sma",
        -10.140944109148066
      ],
      [
        "uzo",
        -10.144458791632108
      ],
      [
        "liwasilish",
        -10.14672825580391
      ],
      [
        "ir",
        -10.148061470570136
      ],
      [
        "▁Waki",
        -10.151532394204692
      ],
      [
        "same",
        -10.1515452926635
      ],
      [
        "imarekani",
        -10.152792896169007
      ],
      [
        "▁yalifany",
        -10.15345813701234
      ],
      [
        "aini",
        -10.155159790198406
      ],
      [
        "ard",
        -10.15525832031545
      ],
      [
        "▁alifik",
        -10.15717647829376
      ],
      [
        "▁huf",
        -10.157236221358893
      ],
      [
        "pun",
        -10.158679268541057
      ],
      [
        "ce",
        -10.160928817739453
      ],
      [
        "▁nye",
        -10.164162889458133
      ],
      [
        "icha",
        -10.166206391519223
      ],
      [
        "rush",
        -10.167757561982992
      ],
      [
        "liyoripotiwa",
        -10.16852426581105
      ],
      [
        "ridh",
        -10.168879524828203
      ],
      [
        "▁atat",
        -10.171774061142393
      ],
      [
        "5",
        -10.174243844185552
      ],
      [
        "▁masha",
        -10.175275892241034
      ],
      [
        "uo",
        -10.176820258610771
      ],
      [
        "lianzish",
        -10.177776706923128
      ],
      [
        "pamb",
        -10.178051216866063
      ],
      [
        "▁imetok",
        -10.178451463337092
      ],
      [
        "▁yao",
        -10.179995947755344
      ],
      [
        "hitajika",
        -10.180179295673788
      ],
      [
        "00",
        -10.181000421254812
      ],
      [
        "▁Fal",
        -10.183623458370866
      ],
      [
        "0,000",
        -10.183925919568875
      ],
      [
        "ksi",
        -10.184965847709499
      ],
      [
        "▁Br",
        -10.1855046464659
      ],
      [
        "andikisha",
        -10.18819592154533
      ],
      [
        "cy",
        -10.19140958042266
      ],
      [
        "yumba",
        -10.19302494274409
      ],
      [
        "yuk",
        -10.196184772356004
      ],
      [
        "▁muun",
        -10.198568999526627
      ],
      [
        "chukuli",
        -10.199340600727526
      ],
      [
        "eno",
        -10.200364144330024
      ],
      [
        "▁Ko",
        -10.202265983983978
      ],
      [
        "endi",
        -10.20367412158158
      ],
      [
        "gine",
        -10.205647338529285
      ],
      [
        "▁Hon",
        -10.205775115893305
      ],
      [
        "ilimp",
        -10.208003560489551
      ],
      [
        "atatu",
        -10.208200843203901
      ],
      [
        "▁Str",
        -10.21400751258532
      ],
      [
        "awa",
        -10.221836392604942
      ],
      [
        "14",
        -10.221937624880756
      ],
      [
        "char",
        -10.222624496614312
      ],
      [
        "fun",
        -10.223228545546391
      ],
      [
        "▁amet",
        -10.224766634477952
      ],
      [
        "▁kim",
        -10.225386616434047
      ],
      [
        "▁Pic",
        -10.225392266801665
      ],
      [
        "banda",
        -10.226044067964212
      ],
      [
        "tokea",
        -10.229971369076631
      ],
      [
        "kund",
        -10.231796691654425
      ],
      [
        "▁Mku",
        -10.238118158561447
      ],
      [
        "isho",
        -10.239671769121587
      ],
      [
        "ang",
        -10.24185354117717
      ],
      [
        "meonyesh",
        -10.244304849993664
      ],
      [
        "▁maan",
        -10.245700478426302
      ],
      [
        "▁wag",
        -10.247876954348731
      ],
      [
        "ovuti",
        -10.24801594234878
      ],
      [
        "aadhimish",
        -10.249399982608539
      ],
      [
        "▁Mad",
        -10.250002056932793
      ],
      [
        "upe",
        -10.251235391115726
      ],
      [
        "chu",
        -10.252353009907054
      ],
      [
        "umba",
        -10.254359613445585
      ],
      [
        "▁Uk",
        -10.25595957199984
      ],
      [
        "gogo",
        -10.256457368449063
      ],
      [
        "▁Kiko",
        -10.25690938469928
      ],
      [
        "▁hana",
        -10.258260828905403
      ],
      [
        "▁Indi",
        -10.259455062383164
      ],
      [
        "▁Ir",
        -10.259724930766561
      ],
      [
        "haf",
        -10.26133230511685
      ],
      [
        "kut",
        -10.263490105679223
      ],
      [
        "tangazwa",
        -10.26535369071735
      ],
      [
        "ose",
        -10.265458533072646
      ],
      [
        "ep",
        -10.268869984259867
      ],
      [
        "▁wat",
        -10.271336498563514
      ],
      [
        "chor",
        -10.271785132412576
      ],
      [
        "▁maon",
        -10.272532785577036
      ],
      [
        "usoge",
        -10.2730304931694
      ],
      [
        "chanj",
        -10.274359662433142
      ],
      [
        "▁vifu",
        -10.27687165008717
      ],
      [
        "hoo",
        -10.27869501868153
      ],
      [
        "▁kikom",
        -10.279791685135873
      ],
      [
        "▁kusai",
        -10.28061227459487
      ],
      [
        "tio",
        -10.28379454211326
      ],
      [
        "tenga",
        -10.284755346799075
      ],
      [
        "himi",
        -10.287207789261796
      ],
      [
        "U",
        -10.291443386235729
      ],
      [
        "arejele",
        -10.292830752697915
      ],
      [
        "gon",
        -10.293551833837917
      ],
      [
        "▁kupan",
        -10.293653818415148
      ],
      [
        "▁maje",
        -10.295252829356928
      ],
      [
        "▁ilitum",
        -10.295961306457642
      ],
      [
        "▁Traf",
        -10.296533637093528
      ],
      [
        "wig",
        -10.298726845199148
      ],
      [
        "fikiri",
        -10.301317461104306
      ],
      [
        "aju",
        -10.301337270856575
      ],
      [
        "endele",
        -10.30165247071585
      ],
      [
        "▁Kas",
        -10.301795762223822
      ],
      [
        "▁washirik",
        -10.30364041406263
      ],
      [
        "uta",
        -10.306340391703468
      ],
      [
        "atia",
        -10.306978622235661
      ],
      [
        "hana",
        -10.307799160685024
      ],
      [
        "nt",
        -10.308238818133466
      ],
      [
        "omba",
        -10.30948647156554
      ],
      [
        "▁Jum",
        -10.311422108404697
      ],
      [
        "▁Chi",
        -10.31364502518046
      ],
      [
        "▁baa",
        -10.31415954066694
      ],
      [
        "har",
        -10.314940417125763
      ],
      [
        "irusi",
        -10.31545781751462
      ],
      [
        "urupu",
        -10.319764344427048
      ],
      [
        "ege",
        -10.323976377280037
      ],
      [
        "▁Mil",
        -10.326584291039705
      ],
      [
        "▁macha",
        -10.32772438245316
      ],
      [
        "je",
        -10.327930028219463
      ],
      [
        "▁194",
        -10.329094766417011
      ],
      [
        "▁Va",
        -10.330971594895153
      ],
      [
        "nahusish",
        -10.331390898960034
      ],
      [
        "agu",
        -10.332196311734322
      ],
      [
        "ayari",
        -10.332275182379018
      ],
      [
        "kua",
        -10.335642806301378
      ],
      [
        "waliko",
        -10.336838972294284
      ],
      [
        "ot",
        -10.336902897262476
      ],
      [
        "kawaida",
        -10.339680976585392
      ],
      [
        "tan",
        -10.339771753390282
      ],
      [
        "shuk",
        -10.345354899448372
      ],
      [
        "etu",
        -10.345364994605315
      ],
      [
        "ale",
        -10.346438240278204
      ],
      [
        "▁Hak",
        -10.346462860825765
      ],
      [
        "ling",
        -10.348741215915407
      ],
      [
        "zina",
        -10.349566728582545
      ],
      [
        "▁Uh",
        -10.34964735927145
      ],
      [
        "▁naf",
        -10.351061728350098
      ],
      [
        "ee",
        -10.354056617408387
      ],
      [
        "sisimk",
        -10.35411897662297
      ],
      [
        "umaliz",
        -10.356086452818598
      ],
      [
        "igonga",
        -10.361885112697621
      ],
      [
        "st",
        -10.368602670953262
      ],
      [
        "tapata",
        -10.371561019486697
      ],
      [
        "ilibadili",
        -10.375173104538462
      ],
      [
        "itambuli",
        -10.37537717762498
      ],
      [
        "baada",
        -10.37826507375165
      ],
      [
        "(",
        -10.379713278259985
      ],
      [
        "▁walip",
        -10.382831399461587
      ],
      [
        "kwenda",
        -10.391002272696669
      ],
      [
        "ratibiwa",
        -10.391537305054444
      ],
      [
        "400",
        -10.392932025243073
      ],
      [
        "ira",
        -10.393213873194087
      ],
      [
        "ndani",
        -10.395027136411302
      ],
      [
        "ulka",
        -10.395359273920082
      ],
      [
        "hoteli",
        -10.395360267344863
      ],
      [
        "mwili",
        -10.396847891312259
      ],
      [
        "ust",
        -10.397754523136612
      ],
      [
        "ufungi",
        -10.399045806412136
      ],
      [
        "nyumbani",
        -10.399723126351157
      ],
      [
        "hiri",
        -10.400477916287397
      ],
      [
        "fadhaik",
        -10.401460848152592
      ],
      [
        "Japani",
        -10.404231146438109
      ],
      [
        "ump",
        -10.406634618942402
      ],
      [
        "▁kadha",
        -10.406937718960533
      ],
      [
        "fulani",
        -10.408316035287188
      ],
      [
        "uma",
        -10.408375959145632
      ],
      [
        "Tang",
        -10.409736982818293
      ],
      [
        "zwa",
        -10.409825728122808
      ],
      [
        "ula",
        -10.41061686481394
      ],
      [
        "muziki",
        -10.41105801036716
      ],
      [
        "andik",
        -10.411418844025691
      ],
      [
        "bakteria",
        -10.41480423505034
      ],
      [
        "mikali",
        -10.414824444112904
      ],
      [
        "jinsi",
        -10.415028724941665
      ],
      [
        "ichwa",
        -10.415600421399992
      ],
      [
        "tiba",
        -10.417235799812673
      ],
      [
        "thabiti",
        -10.417487525183807
      ],
      [
        "vol",
        -10.420830780827135
      ],
      [
        "tandaoni",
        -10.420892009186108
      ],
      [
        "ando",
        -10.421733903478788
      ],
      [
        "▁Ur",
        -10.422038686879587
      ],
      [
        "utambu",
        -10.422517526983967
      ],
      [
        "kumbu",
        -10.422753866381365
      ],
      [
        "▁unap",
        -10.422794456990644
      ],
      [
        "L",
        -10.424278172992784
      ],
      [
        "pili",
        -10.424313641787908
      ],
      [
        "app",
        -10.425306510769142
      ],
      [
        "▁kisiasa",
        -10.425743454657969
      ],
      [
        "jwa",
        -10.426426567035001
      ],
      [
        "kupiga",
        -10.428959943942338
      ],
      [
        "oria",
        -10.430245652663585
      ],
      [
        "pendekez",
        -10.431400386801583
      ],
      [
        "▁hakiki",
        -10.431868594052714
      ],
      [
        "▁Hif",
        -10.43287528671435
      ],
      [
        "barafu",
        -10.433156064649804
      ],
      [
        "▁alip",
        -10.433324682508061
      ],
      [
        "pati",
        -10.433909394326564
      ],
      [
        "▁mbe",
        -10.434177759342122
      ],
      [
        "▁Kan",
        -10.435300449992976
      ],
      [
        "itaifa",
        -10.435450225058812
      ],
      [
        "jad",
        -10.435911544831454
      ],
      [
        "gar",
        -10.436570734474367
      ],
      [
        "▁An",
        -10.438047635803784
      ],
      [
        "viku",
        -10.438079627198999
      ],
      [
        "burg",
        -10.43951810350572
      ],
      [
        "▁kadi",
        -10.440665443753003
      ],
      [
        "▁mashu",
        -10.440954440918006
      ],
      [
        "azi",
        -10.442272623513583
      ],
      [
        "Je",
        -10.44357187196369
      ],
      [
        "▁fu",
        -10.444307930753878
      ],
      [
        "sheria",
        -10.445985152604372
      ],
      [
        "ell",
        -10.446810998186837
      ],
      [
        "▁hil",
        -10.447332077904715
      ],
      [
        "hupa",
        -10.44954691901615
      ],
      [
        "▁mid",
        -10.450599571341098
      ],
      [
        "daraja",
        -10.450601637568496
      ],
      [
        "▁mael",
        -10.451460128493308
      ],
      [
        "pole",
        -10.451870433061154
      ],
      [
        "maarufu",
        -10.45257970197514
      ],
      [
        "▁hudu",
        -10.454126418274205
      ],
      [
        "wen",
        -10.454476425804629
      ],
      [
        "wasili",
        -10.455086089039193
      ],
      [
        "Mawa",
        -10.455298108630918
      ],
      [
        "▁maka",
        -10.456208303410058
      ],
      [
        "▁for",
        -10.458777695487441
      ],
      [
        "iliteg",
        -10.458792323164435
      ],
      [
        "qu",
        -10.458951604200053
      ],
      [
        "aribi",
        -10.460287534678265
      ],
      [
        "fano",
        -10.46096995079887
      ],
      [
        "▁koron",
        -10.462088741211984
      ],
      [
        "mbukiz",
        -10.462381442222936
      ],
      [
        "fic",
        -10.463256434906826
      ],
      [
        "agr",
        -10.464349523632794
      ],
      [
        "livu",
        -10.465280870526426
      ],
      [
        "akifan",
        -10.465778905303246
      ],
      [
        "iashara",
        -10.466206411373616
      ],
      [
        "pep",
        -10.466416947088149
      ],
      [
        "▁kizu",
        -10.466624193805304
      ],
      [
        "furahia",
        -10.467591371059399
      ],
      [
        "gongan",
        -10.468465765680723
      ],
      [
        "pende",
        -10.47039852343436
      ],
      [
        "▁Maand",
        -10.47164544968149
      ],
      [
        "ilima",
        -10.472073716287564
      ],
      [
        "▁thel",
        -10.472403377180834
      ],
      [
        "▁maambuk",
        -10.474072090141886
      ],
      [
        "adh",
        -10.475809687747685
      ],
      [
        "adu",
        -10.476299584054564
      ],
      [
        "hul",
        -10.476426205339923
      ],
      [
        "Rea",
        -10.478091715341554
      ],
      [
        "apisha",
        -10.479204485217569
      ],
      [
        "Kri",
        -10.479290274358949
      ],
      [
        "makini",
        -10.47934741865809
      ],
      [
        "thibiti",
        -10.479693633810275
      ],
      [
        "hitim",
        -10.480598920685804
      ],
      [
        "▁mipi",
        -10.480617212887005
      ],
      [
        "▁kupig",
        -10.480960135586562
      ],
      [
        "nafa",
        -10.481458109301625
      ],
      [
        "tolea",
        -10.481523105666293
      ],
      [
        "Gor",
        -10.482356379478432
      ],
      [
        "kweli",
        -10.484055922738374
      ],
      [
        "Ki",
        -10.48434922896232
      ],
      [
        "shariki",
        -10.486150704477133
      ],
      [
        "▁ur",
        -10.486237781803688
      ],
      [
        "et",
        -10.486489907372128
      ],
      [
        "navyoju",
        -10.487823256583395
      ],
      [
        "▁Sin",
        -10.488418718761045
      ],
      [
        "▁Republica",
        -10.489205967842349
      ],
      [
        "haramia",
        -10.489585979550768
      ],
      [
        "▁kufadh",
        -10.490623979154902
      ],
      [
        "vurug",
        -10.49076012259656
      ],
      [
        "▁Gi",
        -10.491922328104117
      ],
      [
        "nunuzi",
        -10.492028667380868
      ],
      [
        "stawi",
        -10.492478352469531
      ],
      [
        "binafsi",
        -10.492534734171059
      ],
      [
        "awaida",
        -10.492573763494853
      ],
      [
        "hamiaji",
        -10.492838913128436
      ],
      [
        "atembezi",
        -10.493045910609021
      ],
      [
        "FA",
        -10.493688736730949
      ],
      [
        "895",
        -10.493824794847457
      ],
      [
        "sitish",
        -10.493938768095559
      ],
      [
        "stria",
        -10.494024773349341
      ],
      [
        "faransa",
        -10.494320180794602
      ],
      [
        "bayo",
        -10.494434415269133
      ],
      [
        "ospitali",
        -10.494617651095494
      ],
      [
        "TA",
        -10.494646904571919
      ],
      [
        "openhagen",
        -10.495024215564946
      ],
      [
        "▁usafi",
        -10.495179749750497
      ],
      [
        "▁80",
        -10.49528991887716
      ],
      [
        "imba",
        -10.495335374703055
      ],
      [
        "limpiki",
        -10.49539653990473
      ],
      [
        "urg",
        -10.495481774993598
      ],
      [
        "▁ulimwe",
        -10.495558325672192
      ],
      [
        "naugh",
        -10.495706929517391
      ],
      [
        "+",
        -10.495740405443092
      ],
      [
        "ç",
        -10.495740405443092
      ],
      [
        "[",
        -10.495740405443092
      ],
      [
        "%",
        -10.495740405443092
      ],
      [
        "]",
        -10.495740405443092
      ],
      [
        "96",
        -10.49597853286971
      ],
      [
        "▁Ar",
        -10.496217748055509
      ],
      [
        "egaw",
        -10.496226474765127
      ],
      [
        "▁46",
        -10.496247461940841
      ],
      [
        "itambu",
        -10.496537050104973
      ],
      [
        "▁Peter",
        -10.49657308109093
      ],
      [
        "▁Dun",
        -10.497001642554093
      ],
      [
        "bert",
        -10.497094590661275
      ],
      [
        "kufa",
        -10.497191061804216
      ],
      [
        "himon",
        -10.497235206494933
      ],
      [
        "▁(1",
        -10.497333671787768
      ],
      [
        "kivu",
        -10.497569512682169
      ],
      [
        "▁202",
        -10.497636095678716
      ],
      [
        "1895",
        -10.497793208567598
      ],
      [
        "akriban",
        -10.497816349865767
      ],
      [
        "ther",
        -10.497887831122183
      ],
      [
        "mwanga",
        -10.497962561741339
      ],
      [
        "udhu",
        -10.498254897362179
      ],
      [
        "lichelew",
        -10.498407076595676
      ],
      [
        "tone",
        -10.499122435170955
      ],
      [
        "▁Austr",
        -10.49912528487448
      ],
      [
        "▁Kif",
        -10.499584098283766
      ],
      [
        "frika",
        -10.499909503375902
      ],
      [
        "▁haij",
        -10.500699882389679
      ],
      [
        "▁Sup",
        -10.50155525080758
      ],
      [
        "tamko",
        -10.501832966780382
      ],
      [
        "kup",
        -10.501983665898521
      ],
      [
        "▁wamesh",
        -10.502058215420826
      ],
      [
        "▁Fall",
        -10.502613258437494
      ],
      [
        "83",
        -10.502657817081344
      ],
      [
        "tulivu",
        -10.503286672166666
      ],
      [
        "▁yaki",
        -10.503732822155591
      ],
      [
        "▁mashar",
        -10.504000136358247
      ],
      [
        "▁Waand",
        -10.504095196356097
      ],
      [
        "▁Nyum",
        -10.504756292849754
      ],
      [
        "pital",
        -10.504898919184871
      ],
      [
        "Te",
        -10.505000646255237
      ],
      [
        "alion",
        -10.50525723327476
      ],
      [
        "ilevile",
        -10.505642428747572
      ],
      [
        "hist",
        -10.505882100680804
      ],
      [
        "▁wik",
        -10.506131695056549
      ],
      [
        "ndro",
        -10.506235780047882
      ],
      [
        "▁uandi",
        -10.50680253958831
      ],
      [
        "▁Bel",
        -10.50688211386354
      ],
      [
        "toria",
        -10.50824773116488
      ],
      [
        "189",
        -10.5104261865725
      ],
      [
        "bingwa",
        -10.510485990269022
      ],
      [
        "▁kufuat",
        -10.510659337971507
      ],
      [
        "▁inash",
        -10.510863470064255
      ],
      [
        "umiwa",
        -10.510910009258948
      ],
      [
        "▁jam",
        -10.511031876240816
      ],
      [
        "▁“ha",
        -10.511123870515998
      ],
      [
        "Pl",
        -10.511743345899925
      ],
      [
        "sheni",
        -10.511911884808896
      ],
      [
        "ib",
        -10.512631029428105
      ],
      [
        "igh",
        -10.512849784458329
      ],
      [
        "per",
        -10.512910498928159
      ],
      [
        "▁zilip",
        -10.513848952925265
      ],
      [
        "▁hupa",
        -10.51473275127935
      ],
      [
        "kilom",
        -10.515387467355568
      ],
      [
        "thiri",
        -10.515677900307818
      ],
      [
        "tajika",
        -10.516670460643656
      ],
      [
        "japani",
        -10.516706873065933
      ],
      [
        "ibia",
        -10.516825956395719
      ],
      [
        "iras",
        -10.516948084986463
      ],
      [
        "dish",
        -10.517513397823844
      ],
      [
        "▁thelu",
        -10.517794385285773
      ],
      [
        "▁kuf",
        -10.518563041059355
      ],
      [
        "▁yoyo",
        -10.519397563201453
      ],
      [
        "▁Kuli",
        -10.519629512718241
      ],
      [
        "ving",
        -10.51972465962467
      ],
      [
        "▁iliyope",
        -10.520220650885204
      ],
      [
        "▁Msim",
        -10.522102907827483
      ],
      [
        "bani",
        -10.522209580748655
      ],
      [
        "mapa",
        -10.52433994808719
      ],
      [
        "iliwe",
        -10.524401208539413
      ],
      [
        "▁Af",
        -10.524401626542375
      ],
      [
        "▁g",
        -10.525859201722447
      ],
      [
        "▁utaf",
        -10.526166515364924
      ],
      [
        "arp",
        -10.526528021603465
      ],
      [
        "▁Kuba",
        -10.526608994692031
      ],
      [
        "ate",
        -10.528049161725741
      ],
      [
        "▁mgu",
        -10.528225755464845
      ],
      [
        "▁kunyw",
        -10.52845240138647
      ],
      [
        "▁taya",
        -10.529212519516074
      ],
      [
        "▁\"s",
        -10.529937426391903
      ],
      [
        "▁dhah",
        -10.530780618301307
      ],
      [
        "fir",
        -10.530990861248494
      ],
      [
        "ikapu",
        -10.53179852616356
      ],
      [
        "soma",
        -10.531837601413061
      ],
      [
        "▁Ame",
        -10.532404353015515
      ],
      [
        "▁Sto",
        -10.532995100211572
      ],
      [
        "ning",
        -10.533743863193841
      ],
      [
        "riba",
        -10.533903400222819
      ],
      [
        "▁inap",
        -10.533963481175508
      ],
      [
        "▁baha",
        -10.534685647950841
      ],
      [
        "mwend",
        -10.535001470156512
      ],
      [
        "ambukiz",
        -10.535095853348304
      ],
      [
        "tell",
        -10.535157295430675
      ],
      [
        "ts",
        -10.535622932135999
      ],
      [
        "▁amejiu",
        -10.536661295373527
      ],
      [
        "▁hot",
        -10.536940498456087
      ],
      [
        "▁unaj",
        -10.537993653792526
      ],
      [
        "obo",
        -10.538394463780278
      ],
      [
        "hambuli",
        -10.538640869139595
      ],
      [
        "pigana",
        -10.538956430356224
      ],
      [
        "dro",
        -10.539571864685696
      ],
      [
        "▁inab",
        -10.539841166576954
      ],
      [
        "9,",
        -10.540249250808461
      ],
      [
        "illa",
        -10.541636875286923
      ],
      [
        "▁Fl",
        -10.54179977307123
      ],
      [
        "hule",
        -10.542071148464938
      ],
      [
        "get",
        -10.542142723174756
      ],
      [
        "▁kuma",
        -10.543626949932127
      ],
      [
        "▁gar",
        -10.545281319603767
      ],
      [
        "▁kuteng",
        -10.545821052060813
      ],
      [
        "nyesh",
        -10.5459857993785
      ],
      [
        "ijumuishw",
        -10.546243127865758
      ],
      [
        "▁hute",
        -10.546367369462194
      ],
      [
        "stani",
        -10.546581057112935
      ],
      [
        "win",
        -10.547725170846945
      ],
      [
        "vumb",
        -10.548418346160295
      ],
      [
        "▁Bro",
        -10.54858782480917
      ],
      [
        "rek",
        -10.550345272583327
      ],
      [
        "▁17",
        -10.550408527659252
      ],
      [
        "mann",
        -10.551898863128974
      ],
      [
        "▁wakij",
        -10.551900719050376
      ],
      [
        "▁utak",
        -10.552667186479086
      ],
      [
        "jaz",
        -10.555083796422519
      ],
      [
        "▁Mk",
        -10.555100963694565
      ],
      [
        "amati",
        -10.555891216896455
      ],
      [
        "▁hufan",
        -10.556468873490319
      ],
      [
        "ches",
        -10.556832983660806
      ],
      [
        "apendekez",
        -10.55861346510823
      ],
      [
        "▁inayoz",
        -10.55898747726448
      ],
      [
        "akuku",
        -10.559027505631132
      ],
      [
        "kusu",
        -10.55931035339661
      ],
      [
        "wele",
        -10.560609884988061
      ],
      [
        "lom",
        -10.560912070182397
      ],
      [
        "▁mk",
        -10.561593936912633
      ],
      [
        "mua",
        -10.562069562589594
      ],
      [
        "oendelea",
        -10.562510459798373
      ],
      [
        "▁kuog",
        -10.562916298183053
      ],
      [
        "▁mwaf",
        -10.563524125589534
      ],
      [
        "▁haki",
        -10.56434664793477
      ],
      [
        "▁imeku",
        -10.564534739188801
      ],
      [
        "▁zilizos",
        -10.56466902374781
      ],
      [
        "▁Vil",
        -10.56504420248839
      ],
      [
        "fumo",
        -10.565381126457938
      ],
      [
        "▁kushu",
        -10.567115006335474
      ],
      [
        "sher",
        -10.567487727396552
      ],
      [
        "unak",
        -10.567574564574745
      ],
      [
        "▁kuzu",
        -10.567712078532319
      ],
      [
        "upa",
        -10.568069768171462
      ],
      [
        "▁Kim",
        -10.568091762622092
      ],
      [
        "ola,",
        -10.571847229328988
      ],
      [
        "▁Fa",
        -10.571983977685951
      ],
      [
        "fadh",
        -10.572149517226094
      ],
      [
        "jer",
        -10.573292175512382
      ],
      [
        "itishwa",
        -10.574327473983338
      ],
      [
        "wala",
        -10.574541202183784
      ],
      [
        "▁Col",
        -10.574947663278191
      ],
      [
        "▁vil",
        -10.575773130697566
      ],
      [
        "▁walif",
        -10.576202771886848
      ],
      [
        "evi",
        -10.582103832953344
      ],
      [
        "ul",
        -10.582314731427134
      ],
      [
        "utio",
        -10.58269174108835
      ],
      [
        "uchapish",
        -10.583493685361997
      ],
      [
        "yoto",
        -10.584459115379598
      ],
      [
        "ibad",
        -10.584519867879736
      ],
      [
        "▁be",
        -10.586033265674208
      ],
      [
        "gawany",
        -10.586453658622883
      ],
      [
        "alishaji",
        -10.587002371628504
      ],
      [
        "▁ute",
        -10.58761376979139
      ],
      [
        "ser",
        -10.5881691782082
      ],
      [
        "mer",
        -10.588234289618583
      ],
      [
        "ansa",
        -10.593617413185253
      ],
      [
        "jana",
        -10.593695670420134
      ],
      [
        "ikisha",
        -10.594235607409653
      ],
      [
        "juli",
        -10.595056814441229
      ],
      [
        "gos",
        -10.5961129492581
      ],
      [
        "ipu",
        -10.596203857133911
      ],
      [
        "▁Mch",
        -10.598069143775437
      ],
      [
        "chukuliw",
        -10.598295047625982
      ],
      [
        "▁unaju",
        -10.600413860922146
      ],
      [
        "dam",
        -10.60072089278933
      ],
      [
        "itumi",
        -10.601204117743041
      ],
      [
        "lori",
        -10.602548631810887
      ],
      [
        "usafiri",
        -10.603229211949632
      ],
      [
        "▁akit",
        -10.606755251255414
      ],
      [
        "▁Oli",
        -10.60951043786153
      ],
      [
        "▁Mwe",
        -10.610076327729468
      ],
      [
        "ipo",
        -10.610438649211053
      ],
      [
        "int",
        -10.610883251905094
      ],
      [
        "onui",
        -10.611093180888567
      ],
      [
        "eko",
        -10.612465560310682
      ],
      [
        "kir",
        -10.613354584823124
      ],
      [
        "▁huwe",
        -10.61366062476683
      ],
      [
        "▁ugo",
        -10.61432002980232
      ],
      [
        "▁uny",
        -10.621495505082766
      ],
      [
        "▁wameo",
        -10.623151292974068
      ],
      [
        "uhakik",
        -10.62465289869142
      ],
      [
        "▁Hiv",
        -10.62568728095343
      ],
      [
        "▁mika",
        -10.625747198652377
      ],
      [
        "ufur",
        -10.625894444531152
      ],
      [
        "▁Tik",
        -10.627830190737868
      ],
      [
        "▁alipo",
        -10.630628822106743
      ],
      [
        "▁Um",
        -10.630744956361202
      ],
      [
        "▁nyi",
        -10.632300100388083
      ],
      [
        "adhari",
        -10.633161927869516
      ],
      [
        "▁vifa",
        -10.635662159333146
      ],
      [
        "ese",
        -10.635807664730178
      ],
      [
        "ukusany",
        -10.63601454615241
      ],
      [
        "▁Juma",
        -10.636023453744858
      ],
      [
        "kor",
        -10.638636920413123
      ],
      [
        "landi",
        -10.63997909820121
      ],
      [
        "anja",
        -10.6401023641025
      ],
      [
        "ndul",
        -10.645491197756593
      ],
      [
        "▁kitak",
        -10.646246481343475
      ],
      [
        "oshiriki",
        -10.646294127322145
      ],
      [
        "▁We",
        -10.649650499729061
      ],
      [
        "uny",
        -10.64987788298298
      ],
      [
        "iva",
        -10.650126509724325
      ],
      [
        "mla",
        -10.652203622337643
      ],
      [
        "gr",
        -10.659473848887139
      ],
      [
        "kar",
        -10.660740356786384
      ],
      [
        "amb",
        -10.661834685527499
      ],
      [
        "mok",
        -10.664318100684264
      ],
      [
        "guni",
        -10.666191639820939
      ],
      [
        "▁Ne",
        -10.668476334415672
      ],
      [
        "▁mgong",
        -10.668820272559493
      ],
      [
        "uvi",
        -10.66948574132886
      ],
      [
        "▁kusisim",
        -10.671310243791746
      ],
      [
        "ajiri",
        -10.672543801453639
      ],
      [
        "▁kutok",
        -10.673459975282006
      ],
      [
        "kimb",
        -10.673726966659206
      ],
      [
        "uone",
        -10.673846437843165
      ],
      [
        "▁Gr",
        -10.682949271671129
      ],
      [
        "naye",
        -10.683726066437757
      ],
      [
        "kiano",
        -10.685070617476986
      ],
      [
        "▁mig",
        -10.686018115666759
      ],
      [
        "msaidi",
        -10.686606556503213
      ],
      [
        "bal",
        -10.68688881849857
      ],
      [
        "▁Hal",
        -10.687004393697883
      ],
      [
        "▁tat",
        -10.687032939803395
      ],
      [
        "▁mago",
        -10.688344947085401
      ],
      [
        "ung",
        -10.689207462473437
      ],
      [
        "atibabu",
        -10.689399902482515
      ],
      [
        "nyika",
        -10.68998872152945
      ],
      [
        "haram",
        -10.69145340116728
      ],
      [
        "bwa",
        -10.692941458102059
      ],
      [
        "uke",
        -10.693952156076064
      ],
      [
        "▁mag",
        -10.69455988690558
      ],
      [
        "evo",
        -10.69527161262327
      ],
      [
        "▁On",
        -10.695707645330938
      ],
      [
        "ona",
        -10.697360114297922
      ],
      [
        "▁mita",
        -10.697378121017843
      ],
      [
        "zu",
        -10.697916236493828
      ],
      [
        "off",
        -10.699718991992667
      ],
      [
        "peke",
        -10.7001234385448
      ],
      [
        "▁Mja",
        -10.701872504905179
      ],
      [
        "▁aliyes",
        -10.702828837194597
      ],
      [
        "▁ul",
        -10.705570550919822
      ],
      [
        "ikap",
        -10.70888085166817
      ],
      [
        "aliripoti",
        -10.708951411045067
      ],
      [
        "punguz",
        -10.711428035288536
      ],
      [
        "iaji",
        -10.7114954641494
      ],
      [
        "▁Wago",
        -10.712270306225959
      ],
      [
        "▁wanaend",
        -10.714298032499187
      ],
      [
        "embea",
        -10.71491536505249
      ],
      [
        "dw",
        -10.718316373481484
      ],
      [
        "▁mpan",
        -10.72043877309827
      ],
      [
        "ed",
        -10.722359601295723
      ],
      [
        "▁at",
        -10.723860370513693
      ],
      [
        "lizo",
        -10.725000115152573
      ],
      [
        "kuchukuli",
        -10.725116771907004
      ],
      [
        "olisi",
        -10.725592226016264
      ],
      [
        "enz",
        -10.726032951148099
      ],
      [
        "vic",
        -10.729648206372323
      ],
      [
        "▁Pri",
        -10.731445287837143
      ],
      [
        "▁ak",
        -10.73266665821317
      ],
      [
        "▁mf",
        -10.735783571211595
      ],
      [
        "osa",
        -10.736959623540672
      ],
      [
        "▁Tra",
        -10.737888788429476
      ],
      [
        "▁kich",
        -10.740351132412947
      ],
      [
        "▁Wak",
        -10.740785032349116
      ],
      [
        "siyo",
        -10.742156452248997
      ],
      [
        "pot",
        -10.742902683440533
      ],
      [
        "rejele",
        -10.743367304574402
      ],
      [
        "▁nawe",
        -10.744105043297516
      ],
      [
        "ins",
        -10.74568823019733
      ],
      [
        "▁mad",
        -10.745794220185058
      ],
      [
        "▁mik",
        -10.74965159963938
      ],
      [
        "riri",
        -10.750873706187134
      ],
      [
        "▁kibi",
        -10.751958298631
      ],
      [
        "rom",
        -10.75196985846504
      ],
      [
        "weleke",
        -10.7520633645147
      ],
      [
        "kuwek",
        -10.752311560007232
      ],
      [
        "▁ikil",
        -10.754275303040826
      ],
      [
        "ssa",
        -10.75475445336756
      ],
      [
        "potiwa",
        -10.75493109338364
      ],
      [
        "waomba",
        -10.755080235832462
      ],
      [
        "▁uka",
        -10.756245447416939
      ],
      [
        "▁kira",
        -10.757248411276343
      ],
      [
        "im",
        -10.759020112188198
      ],
      [
        "zoni",
        -10.761029566190377
      ],
      [
        "▁bo",
        -10.761217643258455
      ],
      [
        "lic",
        -10.762408822509203
      ],
      [
        "hamia",
        -10.766017784477611
      ],
      [
        "yal",
        -10.766726273620037
      ],
      [
        "giz",
        -10.767401320163692
      ],
      [
        "tib",
        -10.76934309463413
      ],
      [
        "▁Wi",
        -10.771582603566587
      ],
      [
        "▁liliw",
        -10.774386598085846
      ],
      [
        "fich",
        -10.777438123248137
      ],
      [
        "asai",
        -10.778053337635185
      ],
      [
        "ris",
        -10.778243135929419
      ],
      [
        "afu",
        -10.77973316805909
      ],
      [
        "gani",
        -10.784736851148281
      ],
      [
        "din",
        -10.78705187777841
      ],
      [
        "▁hakik",
        -10.787331994041113
      ],
      [
        "▁fo",
        -10.789335069030004
      ],
      [
        "wengine",
        -10.789465001670377
      ],
      [
        "dan",
        -10.792884989305803
      ],
      [
        "iba",
        -10.792991684851714
      ],
      [
        "oka",
        -10.793225344570235
      ],
      [
        "▁taj",
        -10.796389225672351
      ],
      [
        "▁il",
        -10.796650163901914
      ],
      [
        "▁kutum",
        -10.796657270441017
      ],
      [
        "▁kilim",
        -10.799978018965769
      ],
      [
        "▁unaos",
        -10.800696499497757
      ],
      [
        "sl",
        -10.802237123758704
      ],
      [
        "itanda",
        -10.802994196963272
      ],
      [
        "tosha",
        -10.804602665230618
      ],
      [
        "▁Sou",
        -10.806781829351822
      ],
      [
        "▁kiv",
        -10.80713303469676
      ],
      [
        "udu",
        -10.807691473806969
      ],
      [
        "▁1,",
        -10.808133805972943
      ],
      [
        "bali",
        -10.81142659538197
      ],
      [
        "changa",
        -10.81215131743174
      ],
      [
        "adhimish",
        -10.81357618072501
      ],
      [
        "ithibitish",
        -10.814170919632536
      ],
      [
        "kw",
        -10.816077994954046
      ],
      [
        "embe",
        -10.817556646070718
      ],
      [
        "jum",
        -10.818375667766283
      ],
      [
        "goro",
        -10.820104900045582
      ],
      [
        "uk",
        -10.821764971308005
      ],
      [
        "▁kupum",
        -10.822070171355362
      ],
      [
        "irisha",
        -10.826179221427465
      ],
      [
        "▁tik",
        -10.827780539956366
      ],
      [
        "ste",
        -10.82920787009773
      ],
      [
        "shirikian",
        -10.832007632810706
      ],
      [
        "ngri",
        -10.832609373806065
      ],
      [
        "afiki",
        -10.832762720825858
      ],
      [
        "uchu",
        -10.833181709621183
      ],
      [
        "gazi",
        -10.834253633906584
      ],
      [
        "▁mwend",
        -10.83547552142623
      ],
      [
        "ova",
        -10.836797216254284
      ],
      [
        "itwa",
        -10.837474687719624
      ],
      [
        "jaa",
        -10.837675048507453
      ],
      [
        "rist",
        -10.839959777561537
      ],
      [
        "ola",
        -10.843305152773071
      ],
      [
        "ziki",
        -10.845288485129466
      ],
      [
        "eo",
        -10.84686197034912
      ],
      [
        "▁chagu",
        -10.84969205645151
      ],
      [
        "▁kutib",
        -10.851485044255782
      ],
      [
        "asaba",
        -10.854774594381656
      ],
      [
        "egu",
        -10.854966299054798
      ],
      [
        "maha",
        -10.85611800923741
      ],
      [
        "ap",
        -10.856578741065086
      ],
      [
        "ufadh",
        -10.858414927577043
      ],
      [
        "uis",
        -10.858550361231497
      ],
      [
        "mko",
        -10.861043276859895
      ],
      [
        "Fe",
        -10.862518030399759
      ],
      [
        "wani",
        -10.863866699256523
      ],
      [
        "▁Bia",
        -10.866196617122887
      ],
      [
        "▁Kiru",
        -10.871100094816711
      ],
      [
        "▁Ale",
        -10.871120021866616
      ],
      [
        "lewa",
        -10.87243200675217
      ],
      [
        "lani",
        -10.873023738342448
      ],
      [
        "levi",
        -10.874957398538847
      ],
      [
        "▁Do",
        -10.875087655561416
      ],
      [
        "ns.",
        -10.876534709532892
      ],
      [
        "men",
        -10.880414464291796
      ],
      [
        "awe",
        -10.881368892664565
      ],
      [
        "ile",
        -10.885949898149287
      ],
      [
        "nek",
        -10.88833550030726
      ],
      [
        "yam",
        -10.892618919848355
      ],
      [
        "ahara",
        -10.893700045865705
      ],
      [
        "▁zama",
        -10.894302701875418
      ],
      [
        "▁alishind",
        -10.896132201673323
      ],
      [
        "▁zik",
        -10.89851734201428
      ],
      [
        "▁Mada",
        -10.90376321211929
      ],
      [
        "▁msaf",
        -10.905319411657004
      ],
      [
        "litangaz",
        -10.908074446782528
      ],
      [
        "▁Ab",
        -10.911241857057867
      ],
      [
        "▁usha",
        -10.912579738923593
      ],
      [
        "zungu",
        -10.91771190309688
      ],
      [
        "lieleze",
        -10.918628595798832
      ],
      [
        "iliripoti",
        -10.923279696551393
      ],
      [
        "aya",
        -10.923627742158596
      ],
      [
        "▁wavu",
        -10.933397975612106
      ],
      [
        "lika",
        -10.93398501375989
      ],
      [
        "▁an",
        -10.93707565403713
      ],
      [
        "▁Cr",
        -10.939965072712011
      ],
      [
        "ord",
        -10.941589601924811
      ],
      [
        "ipindi",
        -10.954632375699276
      ],
      [
        "9",
        -10.959711430262825
      ],
      [
        "inavyo",
        -10.960586284431498
      ],
      [
        "o-",
        -10.967667225634752
      ],
      [
        "igo",
        -10.971877619302926
      ],
      [
        "▁kon",
        -10.972150460896277
      ],
      [
        "itu",
        -10.972215059719444
      ],
      [
        "▁was",
        -10.973000180724682
      ],
      [
        "▁ilit",
        -10.980210305529356
      ],
      [
        "▁Lam",
        -10.980276214945329
      ],
      [
        "▁Y",
        -10.980400432244275
      ],
      [
        "▁Pu",
        -10.980793934264549
      ],
      [
        "ata",
        -10.984747882650337
      ],
      [
        "usaidi",
        -10.988506097879132
      ],
      [
        "damu",
        -10.992707750867464
      ],
      [
        "iririk",
        -10.996411818330701
      ],
      [
        "aridi",
        -10.99797366299289
      ],
      [
        "saji",
        -11.002359263389822
      ],
      [
        "▁hum",
        -11.004418413298591
      ],
      [
        "ija",
        -11.010855551068596
      ],
      [
        "ad",
        -11.013236773520067
      ],
      [
        "enmaki",
        -11.01632245054981
      ],
      [
        "lifa",
        -11.020464580660855
      ],
      [
        "▁Maba",
        -11.022388890018801
      ],
      [
        "acho",
        -11.025268878373149
      ],
      [
        "sk",
        -11.026446789049164
      ],
      [
        "▁nyo",
        -11.035603868306877
      ],
      [
        "fia",
        -11.035641136092948
      ],
      [
        "heria",
        -11.035761307071676
      ],
      [
        "nu",
        -11.038951875237375
      ],
      [
        "▁uvum",
        -11.039735075424746
      ],
      [
        "lipa",
        -11.042767939437116
      ],
      [
        "sem",
        -11.044548480784618
      ],
      [
        "viny",
        -11.045638614466988
      ],
      [
        "fany",
        -11.046292833049574
      ],
      [
        "oishi",
        -11.04688523626207
      ],
      [
        "▁No",
        -11.05310615353446
      ],
      [
        "uu",
        -11.055273192206656
      ],
      [
        "▁nzi",
        -11.055571609180348
      ],
      [
        "patan",
        -11.056491403769092
      ],
      [
        "▁kuanga",
        -11.058873295442698
      ],
      [
        "yat",
        -11.063785951200334
      ],
      [
        "▁vit",
        -11.064192207909988
      ],
      [
        "▁Maw",
        -11.068538963345217
      ],
      [
        "▁Kon",
        -11.070136622595983
      ],
      [
        "▁aja",
        -11.07073344300049
      ],
      [
        "wacha",
        -11.07079861672604
      ],
      [
        "gin",
        -11.071932540139073
      ],
      [
        "amia",
        -11.074171550509336
      ],
      [
        "anywa",
        -11.078802064215523
      ],
      [
        "▁visi",
        -11.080002451412392
      ],
      [
        "▁ik",
        -11.082737834784588
      ],
      [
        "kt",
        -11.088869424574975
      ],
      [
        "gana",
        -11.09012937322611
      ],
      [
        "avyo",
        -11.092306363564308
      ],
      [
        "lin",
        -11.095153277609947
      ],
      [
        "tato",
        -11.096459016436361
      ],
      [
        "aliandik",
        -11.09748346279328
      ],
      [
        "▁Mu",
        -11.098694663839481
      ],
      [
        "/k",
        -11.099664615364203
      ],
      [
        "ndar",
        -11.102635444043312
      ],
      [
        "▁ulif",
        -11.103682970914
      ],
      [
        "okea",
        -11.10428601868446
      ],
      [
        "▁mre",
        -11.105329324722724
      ],
      [
        "cel",
        -11.107581586377272
      ],
      [
        "onga",
        -11.107713033080788
      ],
      [
        "icho",
        -11.113208801594883
      ],
      [
        "ifany",
        -11.11346395522709
      ],
      [
        "chez",
        -11.11598819025974
      ],
      [
        "▁masa",
        -11.118503951707108
      ],
      [
        "▁liliwa",
        -11.119382898271164
      ],
      [
        "▁500",
        -11.119913337650857
      ],
      [
        "lii",
        -11.130095608756738
      ],
      [
        "▁kulaz",
        -11.13612275033981
      ],
      [
        "▁Kr",
        -11.136416358814142
      ],
      [
        "auti",
        -11.141719072678173
      ],
      [
        "▁majen",
        -11.142744319766981
      ],
      [
        "▁mar",
        -11.143675332048296
      ],
      [
        "isto",
        -11.146100791961402
      ],
      [
        "usia",
        -11.148589648305602
      ],
      [
        "ion",
        -11.153100491451083
      ],
      [
        "▁waliti",
        -11.15793912188067
      ],
      [
        "▁ng",
        -11.164002587615492
      ],
      [
        "▁kusam",
        -11.164925053702756
      ],
      [
        "elew",
        -11.169397762486973
      ],
      [
        "orm",
        -11.17180871841978
      ],
      [
        "ema",
        -11.17268439065754
      ],
      [
        "eral",
        -11.174463146080916
      ],
      [
        "em",
        -11.174492453464223
      ],
      [
        "▁unav",
        -11.175907224794862
      ],
      [
        "▁kam",
        -11.175931258417373
      ],
      [
        "kuku",
        -11.177549507416257
      ],
      [
        "▁walin",
        -11.183235355840695
      ],
      [
        "▁sai",
        -11.202301614797406
      ],
      [
        "▁bur",
        -11.202669265588046
      ],
      [
        "▁uku",
        -11.20619019749824
      ],
      [
        "kupa",
        -11.213475312285125
      ],
      [
        "▁inaon",
        -11.21532025454798
      ],
      [
        "adal",
        -11.216176637063104
      ],
      [
        "▁vig",
        -11.216954119100446
      ],
      [
        "haja",
        -11.217399768808137
      ],
      [
        "tanda",
        -11.21797913834904
      ],
      [
        "mati",
        -11.223900670207065
      ],
      [
        "▁saya",
        -11.226180101938544
      ],
      [
        "▁kute",
        -11.226305393290168
      ],
      [
        "mapor",
        -11.232604563996865
      ],
      [
        "▁Be",
        -11.239551881434226
      ],
      [
        "biwa",
        -11.240286313442807
      ],
      [
        "ngi",
        -11.24270348522964
      ],
      [
        "Map",
        -11.243970379917641
      ],
      [
        "▁kulia",
        -11.244266525124866
      ],
      [
        "ich",
        -11.247766625408577
      ],
      [
        "▁re",
        -11.251536713326573
      ],
      [
        "▁maku",
        -11.25275747807333
      ],
      [
        "▁su",
        -11.259590885684151
      ],
      [
        "bia",
        -11.260506004124274
      ],
      [
        "mekuwa",
        -11.262130505779686
      ],
      [
        "och",
        -11.262620814115179
      ],
      [
        "▁msh",
        -11.264962476415077
      ],
      [
        "rodh",
        -11.275561374490596
      ],
      [
        "▁mate",
        -11.278172290704633
      ],
      [
        "dhar",
        -11.283718930153077
      ],
      [
        "iji",
        -11.29084536598313
      ],
      [
        "▁inaf",
        -11.290952838676837
      ],
      [
        "manne",
        -11.291925484307793
      ],
      [
        "▁imek",
        -11.29357873949772
      ],
      [
        "ahamu",
        -11.298716822918118
      ],
      [
        "mbuk",
        -11.300192136709237
      ],
      [
        "▁Da",
        -11.302217814243894
      ],
      [
        "▁it",
        -11.307946057390087
      ],
      [
        "lishi",
        -11.312466277931442
      ],
      [
        "toroka",
        -11.313769576621908
      ],
      [
        "▁mta",
        -11.317773759686135
      ],
      [
        "nato",
        -11.319142840889867
      ],
      [
        "▁alim",
        -11.31974219259769
      ],
      [
        "rop",
        -11.32658841296535
      ],
      [
        "▁wap",
        -11.33196110678857
      ],
      [
        "uga",
        -11.337706900396093
      ],
      [
        "ndoa",
        -11.350825277019895
      ],
      [
        "vita",
        -11.352143450484972
      ],
      [
        "nta",
        -11.360171594057302
      ],
      [
        "lipo",
        -11.361278959194514
      ],
      [
        "▁mb",
        -11.37835674388339
      ],
      [
        "▁vio",
        -11.381932283097722
      ],
      [
        "▁go",
        -11.394914795178305
      ],
      [
        "aliwa",
        -11.403889652198476
      ],
      [
        "▁inau",
        -11.405067426314538
      ],
      [
        "kamili",
        -11.405398713289076
      ],
      [
        "wake",
        -11.409620410759482
      ],
      [
        "upo",
        -11.41148942149841
      ],
      [
        "20",
        -11.411729973898883
      ],
      [
        "▁inahi",
        -11.418139996512021
      ],
      [
        "anzi",
        -11.420964348804103
      ],
      [
        "ake",
        -11.425493479107843
      ],
      [
        "▁aliri",
        -11.4281705235086
      ],
      [
        "ner",
        -11.429179198120494
      ],
      [
        "▁Gor",
        -11.43058033778171
      ],
      [
        "fara",
        -11.435747990483456
      ],
      [
        "enga",
        -11.440793137769248
      ],
      [
        "ekund",
        -11.446630975093377
      ],
      [
        "heshi",
        -11.448454294684433
      ],
      [
        "hamu",
        -11.455007282434357
      ],
      [
        "saa",
        -11.455502604452782
      ],
      [
        "lay",
        -11.463285255504648
      ],
      [
        "so",
        -11.46521278511636
      ],
      [
        "▁hau",
        -11.477903460451106
      ],
      [
        "iongoz",
        -11.487913540794576
      ],
      [
        "▁ing",
        -11.501669457937865
      ],
      [
        "▁mafu",
        -11.502668828570698
      ],
      [
        "▁tand",
        -11.506569487092335
      ],
      [
        "pen",
        -11.507258727435064
      ],
      [
        "▁sta",
        -11.508519787795196
      ],
      [
        "▁waka",
        -11.511306905892518
      ],
      [
        "▁ure",
        -11.512596358125426
      ],
      [
        "▁uz",
        -11.513551460976949
      ],
      [
        "akio",
        -11.516015804639096
      ],
      [
        "▁wanaw",
        -11.525850277509871
      ],
      [
        "mil",
        -11.526604089545044
      ],
      [
        "▁mbi",
        -11.54486513313953
      ],
      [
        "▁bu",
        -11.546952432737113
      ],
      [
        "ukera",
        -11.564184608597873
      ],
      [
        "▁mwem",
        -11.565967884410837
      ],
      [
        "ben",
        -11.567145255601158
      ],
      [
        "umbuk",
        -11.572322422040639
      ],
      [
        "andaa",
        -11.579184470863899
      ],
      [
        "ondo",
        -11.579434627626114
      ],
      [
        "rot",
        -11.58550864500939
      ],
      [
        "▁Ul",
        -11.585922584027028
      ],
      [
        "simu",
        -11.592008218136902
      ],
      [
        "nj",
        -11.599968400345816
      ],
      [
        "unavyo",
        -11.600667795673852
      ],
      [
        "▁yasi",
        -11.604299527528532
      ],
      [
        "▁Mas",
        -11.60836325867917
      ],
      [
        "afanyika",
        -11.62059095996266
      ],
      [
        "ishiri",
        -11.621337005339615
      ],
      [
        "ab",
        -11.625112648814907
      ],
      [
        "▁Mash",
        -11.628666959744987
      ],
      [
        "lich",
        -11.629788387141673
      ],
      [
        "▁sha",
        -11.660352478089896
      ],
      [
        "siwa",
        -11.681941899489622
      ],
      [
        "uwania",
        -11.691698049140141
      ],
      [
        "ag",
        -11.695333997787408
      ],
      [
        "ahu",
        -11.70379606571263
      ],
      [
        "▁msi",
        -11.713290126975693
      ],
      [
        "▁ilim",
        -11.71368943520719
      ],
      [
        "wali",
        -11.729912785396836
      ],
      [
        "tat",
        -11.73285718856253
      ],
      [
        "ivyo",
        -11.749655003812695
      ],
      [
        "00,",
        -11.750784101702928
      ],
      [
        "▁mti",
        -11.751564065631765
      ],
      [
        "dov",
        -11.757266048124452
      ],
      [
        "athi",
        -11.761153882189154
      ],
      [
        "eme",
        -11.76448690298405
      ],
      [
        "▁maa",
        -11.766910436435662
      ],
      [
        "anawake",
        -11.771570920375822
      ],
      [
        "haraka",
        -11.785298159183796
      ],
      [
        "▁waj",
        -11.78980300838956
      ],
      [
        "▁kul",
        -11.802734992631766
      ],
      [
        "▁ukar",
        -11.803215422948115
      ],
      [
        "nes",
        -11.807513476471314
      ],
      [
        "umui",
        -11.809898760441419
      ],
      [
        "wango",
        -11.810973169283342
      ],
      [
        "oga",
        -11.820998467511885
      ],
      [
        "akubwa",
        -11.824257271048587
      ],
      [
        "shiri",
        -11.833365625307858
      ],
      [
        "▁nde",
        -11.835870322945144
      ],
      [
        "otafut",
        -11.840664527959799
      ],
      [
        "wi",
        -11.855846740736979
      ],
      [
        "enez",
        -11.857084812026956
      ],
      [
        "oke",
        -11.859508043911166
      ],
      [
        "esho",
        -11.859701959826474
      ],
      [
        "▁uzi",
        -11.860440694583273
      ],
      [
        "rufu",
        -11.861908344773656
      ],
      [
        "njwa",
        -11.862431745732417
      ],
      [
        "▁kuza",
        -11.873106154607939
      ],
      [
        "isimu",
        -11.87696510469561
      ],
      [
        "afari",
        -11.879193541915981
      ],
      [
        "Y",
        -11.880697026456017
      ],
      [
        "‘",
        -11.880797026456017
      ],
      [
        "q",
        -11.880897026456017
      ],
      [
        "J",
        -11.880997026456017
      ],
      [
        "Z",
        -11.881097026456018
      ],
      [
        "Q",
        -11.881197026456018
      ],
      [
        "H",
        -11.881297026456018
      ],
      [
        "“",
        -11.881397026456018
      ],
      [
        "000",
        -11.881397026456018
      ]
    ],
    "byte_fallback": false
  }
}