{
  "version": "1.0",
  "truncation": null,
  "padding": null,
  "added_tokens": [
    {
      "id": 0,
      "content": "<pad>",
      "single_word": false,
      "lstrip": false,
      "rstrip": false,
      "normalized": false,
      "special": true
    },
    {
      "id": 1,
      "content": "<unk>",
      "single_word": false,
      "lstrip": false,
      "rstrip": false,
      "normalized": false,
      "special": true
    },
    {
      "id": 2,
      "content": "<cls>",
      "single_word": false,
      "lstrip": false,
      "rstrip": false,
      "normalized": false,
      "special": true
    }
  ],
  "normalizer": {
    "type": "Sequence",
    "normalizers": [
      {
        "type": "Nmt"
      },
      {
        "type": "NFKC"
      },
      {
        "type": "Replace",
        "pattern": {
          "Regex": " {2,}"
        },
        "content": " "
      }
    ]
  },
  "pre_tokenizer": {
    "type": "Metaspace",
    "replacement": "▁",
    "prepend_scheme": "always",
    "split": true
  },
  "post_processor": {
    "type": "TemplateProcessing",
    "single": [
      {
        "SpecialToken": {
          "id": "<cls>",
          "type_id": 0
        }
      },
      {
        "Sequence": {
          "id": "A",
          "type_id": 0
        }
      }
    ],
    "pair": [
      {
        "Sequence": {
          "id": "A",
          "type_id": 0
        }
      },
      {
        "Sequence": {
          "id": "B",
          "type_id": 1
        }
      }
    ],
    "special_tokens": {
      "<cls>": {
        "id": "<cls>",
        "ids": [
          2
        ],
        "tokens": [
          "<cls>"
        ]
      }
    }
  },
  "decoder": {
    "type": "Metaspace",
    "replacement": "▁",
    "prepend_scheme": "always",
    "split": true
  },
  "model": {
    "type": "Unigram",
    "unk_id": 1,
    "vocab": [
      [
        "<pad>",
        0.0
      ],
      [
        "<unk>",
        0.0
      ],
      [
        "<cls>",
        0.0
      ],
      [
        "▁",
        -2.8755912525484995
      ],
      [
        ".",
        -3.729922975451121
      ],
      [
        ",",
        -3.805509146731781
      ],
      [
        "▁ní",
        -3.984346907791096
      ],
      [
        "▁àwọn",
        -4.3428435270119845
      ],
      [
        "n",
        -4.343826114438833
      ],
      [
        "▁tó",
        -4.4355070774060055
      ],
      [
        "▁ti",
        -4.5370413552526365
      ],
      [
        "▁tí",
        -4.576346218110055
      ],
      [
        "▁o",
        -4.653753849730204
      ],
      [
        "a",
        -4.69369321835891
      ],
      [
        "▁ni",
        -4.768836533980718
      ],
      [
        "i",
        -4.823917376382013
      ],
      [
        "ó",
        -4.907213950136617
      ],
      [
        "▁àti",
        -4.9459913431372255
      ],
      [
        "í",
        -5.07718206601053
      ],
      [
        "▁láti",
        -5.0777315152482005
      ],
      [
        "▁sí",
        -5.0967837030499545
      ],
      [
        "o",
        -5.138642522653215
      ],
      [
        "▁fún",
        -5.206167836729014
      ],
      [
        "▁a",
        -5.227125592342223
      ],
      [
        "▁wọ́n",
        -5.362102267280476
      ],
      [
        "▁ń",
        -5.366440550456455
      ],
      [
        "wọn",
        -5.373968218058403
      ],
      [
        "ò",
        -5.379866872161082
      ],
      [
        "e",
        -5.468759849668031
      ],
      [
        "ú",
        -5.505269781894078
      ],
      [
        "á",
        -5.510869549872679
      ],
      [
        "▁náà",
        -5.514537674080207
      ],
      [
        "▁À",
        -5.536476028690312
      ],
      [
        "▁se",
        -5.569327561132617
      ],
      [
        "▁fi",
        -5.599982327419558
      ],
      [
        "▁ma",
        -5.627933018131323
      ],
      [
        "▁wà",
        -5.69809794354765
      ],
      [
        "s",
        -5.708953321295864
      ],
      [
        "▁i",
        -5.7640757069890025
      ],
      [
        "▁ì",
        -5.811602451678112
      ],
      [
        "▁pẹ̀lú",
        -5.818119082412375
      ],
      [
        "u",
        -5.832706846044829
      ],
      [
        "▁n",
        -5.836685864200111
      ],
      [
        "▁jẹ́",
        -5.839290380429049
      ],
      [
        "▁kí",
        -5.866725047415455
      ],
      [
        "▁pé",
        -5.894217750049568
      ],
      [
        "▁ilẹ̀",
        -5.90027362405275
      ],
      [
        "▁bí",
        -5.916757645564686
      ],
      [
        "▁ó",
        -5.926187796634962
      ],
      [
        "▁kan",
        -5.926771874489684
      ],
      [
        "▁à",
        -5.942037764539695
      ],
      [
        "nú",
        -5.944536566023639
      ],
      [
        "▁si",
        -5.9490068799886
      ],
      [
        "à",
        -5.978182597077395
      ],
      [
        "lẹ̀",
        -5.983783207723554
      ],
      [
        "▁to",
        -6.024259386327916
      ],
      [
        "▁kò",
        -6.045596116609737
      ],
      [
        "▁ilé",
        -6.059371690844083
      ],
      [
        "▁bá",
        -6.078984140232704
      ],
      [
        "lè",
        -6.10434544116659
      ],
      [
        "▁ṣe",
        -6.10477364187196
      ],
      [
        "▁má",
        -6.111157394982458
      ],
      [
        "ti",
        -6.123215754013158
      ],
      [
        "ì",
        -6.124252378768437
      ],
      [
        "rin",
        -6.128431616646857
      ],
      [
        "ọ̀",
        -6.144397272816956
      ],
      [
        "▁wọn",
        -6.180949590729133
      ],
      [
        "▁le",
        -6.205614909910896
      ],
      [
        "▁lọ",
        -6.240623106173558
      ],
      [
        "▁ọkọ̀",
        -6.263994386276909
      ],
      [
        "▁sì",
        -6.264196394804193
      ],
      [
        "▁omi",
        -6.272360065367195
      ],
      [
        "tí",
        -6.298228314329181
      ],
      [
        "ṣẹ́",
        -6.3098620275883945
      ],
      [
        "▁A",
        -6.310864188081851
      ],
      [
        "k",
        -6.315442812305234
      ],
      [
        "▁lórí",
        -6.316814701017672
      ],
      [
        "▁ojú",
        -6.329371644935607
      ],
      [
        "t",
        -6.331314667912091
      ],
      [
        "ati",
        -6.3456723708920135
      ],
      [
        "▁ibi",
        -6.345849745967292
      ],
      [
        "è",
        -6.357120676542921
      ],
      [
        "l",
        -6.364164622892577
      ],
      [
        "▁èyí",
        -6.368691005593053
      ],
      [
        "-",
        -6.3757777243227824
      ],
      [
        "▁ló",
        -6.382962271030861
      ],
      [
        "é",
        -6.394920162342937
      ],
      [
        "y",
        -6.403847895572975
      ],
      [
        "ni",
        -6.4327696543297375
      ],
      [
        "▁I",
        -6.433283721048849
      ],
      [
        "ẹ́",
        -6.437170856675406
      ],
      [
        "▁tàb",
        -6.454054232834698
      ],
      [
        "▁l",
        -6.455997253837076
      ],
      [
        "gun",
        -6.469103415390311
      ],
      [
        ")",
        -6.495931753436152
      ],
      [
        "̀",
        -6.497699476712338
      ],
      [
        "▁ìlú",
        -6.499247119382
      ],
      [
        "▁ìrìn",
        -6.5178151697230655
      ],
      [
        "w",
        -6.520767459572495
      ],
      [
        "▁gba",
        -6.520984065093279
      ],
      [
        "r",
        -6.527843096666704
      ],
      [
        "▁wípé",
        -6.5290126155801715
      ],
      [
        "▁won",
        -6.541015901403014
      ],
      [
        "▁s",
        -6.548543235526332
      ],
      [
        "yìn",
        -6.552377048496208
      ],
      [
        "▁awo",
        -6.575889506616864
      ],
      [
        "▁O",
        -6.596341835793115
      ],
      [
        "wò",
        -6.6039803985342225
      ],
      [
        "▁rẹ",
        -6.6047177327183375
      ],
      [
        "▁lo",
        -6.609262117486491
      ],
      [
        "▁gbogbo",
        -6.609852622777293
      ],
      [
        "▁wa",
        -6.634879262984285
      ],
      [
        "▁(",
        -6.639493076998386
      ],
      [
        "▁t",
        -6.642218336280038
      ],
      [
        "nà",
        -6.649902941522715
      ],
      [
        "▁ò",
        -6.653586666758423
      ],
      [
        "▁pe",
        -6.653778302892039
      ],
      [
        "▁Ní",
        -6.665603598907094
      ],
      [
        "de",
        -6.6690766752030015
      ],
      [
        "▁di",
        -6.6695100351030305
      ],
      [
        "▁naa",
        -6.70176150368264
      ],
      [
        "le",
        -6.701772538139043
      ],
      [
        "▁ohun",
        -6.70237716655929
      ],
      [
        "▁eré",
        -6.708478844720398
      ],
      [
        "rò",
        -6.7288666189199535
      ],
      [
        "▁yìí",
        -6.731985230702303
      ],
      [
        "▁orílẹ̀",
        -6.734411117015479
      ],
      [
        "ù",
        -6.745596639122782
      ],
      [
        "́",
        -6.749550452406088
      ],
      [
        "èdè",
        -6.755366238777995
      ],
      [
        "hàn",
        -6.758408053142116
      ],
      [
        "▁rẹ̀",
        -6.759991798337496
      ],
      [
        "▁Ì",
        -6.76423925175604
      ],
      [
        "”",
        -6.774516770620801
      ],
      [
        "ra",
        -6.774821376791119
      ],
      [
        "▁ọdún",
        -6.784237748056334
      ],
      [
        "m",
        -6.786320520404265
      ],
      [
        "ẹ",
        -6.788503997785343
      ],
      [
        "▁jẹ",
        -6.793313509710298
      ],
      [
        "▁k",
        -6.794211366161262
      ],
      [
        "▁sọ",
        -6.810488320386946
      ],
      [
        "ọ̀nà",
        -6.811263976629798
      ],
      [
        "▁ọjọ́",
        -6.816164279403985
      ],
      [
        "▁mọ́",
        -6.830553439754707
      ],
      [
        "kùn",
        -6.841378873588663
      ],
      [
        "▁jù",
        -6.852397564578208
      ],
      [
        "ẹ̀",
        -6.880550476269771
      ],
      [
        "ba",
        -6.88070719375458
      ],
      [
        "jú",
        -6.8861437950689215
      ],
      [
        "▁ìgbà",
        -6.889766415916768
      ],
      [
        "▁àjò",
        -6.893197028437056
      ],
      [
        "▁ìwé",
        -6.896975695389541
      ],
      [
        "kan",
        -6.912830079979553
      ],
      [
        "lé",
        -6.916538630046205
      ],
      [
        "▁je",
        -6.916785531714975
      ],
      [
        "kọ̀",
        -6.917142307731149
      ],
      [
        "▁B",
        -6.920295655706829
      ],
      [
        "▁dá",
        -6.922172535982309
      ],
      [
        "▁ara",
        -6.924779263220812
      ],
      [
        "▁re",
        -6.930190525153277
      ],
      [
        "re",
        -6.93360705971747
      ],
      [
        "▁T",
        -6.936887886953045
      ],
      [
        "ẹ́gẹ́",
        -6.939079271517748
      ],
      [
        "ye",
        -6.9412411271026375
      ],
      [
        "d",
        -6.944083319320741
      ],
      [
        "▁S",
        -6.945717036235651
      ],
      [
        "ri",
        -6.947045413567192
      ],
      [
        "se",
        -6.9481129189134
      ],
      [
        "▁kó",
        -6.953419858246477
      ],
      [
        "g",
        -6.958162288924099
      ],
      [
        "▁fun",
        -6.9681846633769
      ],
      [
        "▁f",
        -6.980806099711266
      ],
      [
        "ọ́",
        -6.982105141743416
      ],
      [
        "in",
        -6.987003817889736
      ],
      [
        "▁gbé",
        -6.9884126147014936
      ],
      [
        "▁ẹgbẹ́",
        -6.995407647425836
      ],
      [
        "▁ilu",
        -7.000740797087685
      ],
      [
        "sí",
        -7.012287369911288
      ],
      [
        "▁“",
        -7.013506781634372
      ],
      [
        "▁ow",
        -7.023682732042367
      ],
      [
        "▁m",
        -7.038524048472278
      ],
      [
        "▁è",
        -7.039291942670089
      ],
      [
        "ìyàn",
        -7.043096166075104
      ],
      [
        "▁p",
        -7.053749361638458
      ],
      [
        "▁G",
        -7.055287509345792
      ],
      [
        "▁rí",
        -7.065225904231623
      ],
      [
        "nu",
        -7.073346896477326
      ],
      [
        "ta",
        -7.079803377900764
      ],
      [
        "bi",
        -7.082060171893556
      ],
      [
        "▁sílẹ̀",
        -7.0834474607247975
      ],
      [
        "▁yí",
        -7.085070565517684
      ],
      [
        "▁agbègbè",
        -7.092406260109253
      ],
      [
        "▁ba",
        -7.092590876063503
      ],
      [
        "▁ogun",
        -7.093965404597851
      ],
      [
        "▁ìjọb",
        -7.102728073742624
      ],
      [
        "bí",
        -7.109286443903407
      ],
      [
        "▁L",
        -7.1111078399260155
      ],
      [
        "un",
        -7.111640370526327
      ],
      [
        "▁ju",
        -7.114343375433196
      ],
      [
        "▁orí",
        -7.115326042566528
      ],
      [
        "▁g",
        -7.118767554154747
      ],
      [
        "▁wá",
        -7.120444565656072
      ],
      [
        "ọ",
        -7.123813742211585
      ],
      [
        "si",
        -7.146467959102964
      ],
      [
        "▁nín",
        -7.1508176508830665
      ],
      [
        "▁lá",
        -7.1549672586116415
      ],
      [
        "▁mú",
        -7.156205061871557
      ],
      [
        "ún",
        -7.159997685344729
      ],
      [
        "▁nígbà",
        -7.169433730549479
      ],
      [
        "▁ile",
        -7.1705595406719205
      ],
      [
        "▁bi",
        -7.172309679057822
      ],
      [
        "sì",
        -7.1805520053340555
      ],
      [
        "ara",
        -7.1816874873566245
      ],
      [
        "▁ètò",
        -7.185257729595307
      ],
      [
        "▁P",
        -7.185543764105516
      ],
      [
        "abi",
        -7.185910314922534
      ],
      [
        "an",
        -7.187844443741971
      ],
      [
        "lu",
        -7.195912647520647
      ],
      [
        "wo",
        -7.199661108963491
      ],
      [
        "▁jùlọ",
        -7.206653600412839
      ],
      [
        "▁àkọ́kọ́",
        -7.206704891602454
      ],
      [
        "▁ki",
        -7.2084569071573235
      ],
      [
        "ṣe",
        -7.209429910326901
      ],
      [
        "▁ko",
        -7.243351296460209
      ],
      [
        "rùn",
        -7.2436406720248225
      ],
      [
        "▁ọ",
        -7.244480279798843
      ],
      [
        "▁irin",
        -7.2463736674231995
      ],
      [
        "▁F",
        -7.2466032115186545
      ],
      [
        "▁K",
        -7.246779708311882
      ],
      [
        "▁oló",
        -7.256632936759013
      ],
      [
        "▁ẹ",
        -7.263292534112383
      ],
      [
        "▁ìlà",
        -7.268087826774717
      ],
      [
        "▁wáyé",
        -7.268292046835306
      ],
      [
        "▁púpọ̀",
        -7.268731016089343
      ],
      [
        "▁ọmọ",
        -7.269432278873591
      ],
      [
        "kiri",
        -7.269734340379776
      ],
      [
        "▁lat",
        -7.273533751891934
      ],
      [
        "▁lé",
        -7.282304904042471
      ],
      [
        "▁parí",
        -7.285562978570733
      ],
      [
        "▁bẹ̀rẹ̀",
        -7.287236242496645
      ],
      [
        "▁lẹ́",
        -7.297519340760704
      ],
      [
        "kò",
        -7.301533358473932
      ],
      [
        "▁dé",
        -7.311076964452529
      ],
      [
        "ran",
        -7.327194356656239
      ],
      [
        "Ó",
        -7.332375873275488
      ],
      [
        "pọ̀",
        -7.3336458353209135
      ],
      [
        "▁w",
        -7.348032569192611
      ],
      [
        "▁nípa",
        -7.350845543141206
      ],
      [
        "ń",
        -7.35124613597553
      ],
      [
        "bá",
        -7.358779304840941
      ],
      [
        "▁lọ́",
        -7.359828902869552
      ],
      [
        "▁Wọ́",
        -7.366744159915336
      ],
      [
        "ka",
        -7.368632846617956
      ],
      [
        "b",
        -7.378130778214647
      ],
      [
        "▁tún",
        -7.37838271012575
      ],
      [
        "▁E",
        -7.3839968466615895
      ],
      [
        "▁dára",
        -7.401255457282613
      ],
      [
        "▁ìdíje",
        -7.4080493558300144
      ],
      [
        "ní",
        -7.415861663091745
      ],
      [
        "▁àkókò",
        -7.415957019098837
      ],
      [
        "gbé",
        -7.416983126770681
      ],
      [
        "tò",
        -7.418398136575316
      ],
      [
        "▁sàfi",
        -7.4187093663367785
      ],
      [
        "pa",
        -7.421526851125096
      ],
      [
        "yí",
        -7.427834624877448
      ],
      [
        "▁dúró",
        -7.431468052928535
      ],
      [
        "rí",
        -7.4368950292427165
      ],
      [
        "▁lára",
        -7.438746766253839
      ],
      [
        "ùn",
        -7.443580310743837
      ],
      [
        "▁la",
        -7.443816633988576
      ],
      [
        "ṣù",
        -7.454581694650723
      ],
      [
        "èrè",
        -7.457149285004627
      ],
      [
        "▁ise",
        -7.462324971180973
      ],
      [
        "ro",
        -7.4645527003178
      ],
      [
        "pò",
        -7.46531485643097
      ],
      [
        "▁òkè",
        -7.465337267218816
      ],
      [
        "▁N",
        -7.467284411836442
      ],
      [
        "lo",
        -7.471534837585274
      ],
      [
        "▁fa",
        -7.476080494125135
      ],
      [
        "▁ṣ",
        -7.483379086644617
      ],
      [
        "mọ̀",
        -7.491306442791503
      ],
      [
        "▁oní",
        -7.49781961594687
      ],
      [
        "po",
        -7.504401418575037
      ],
      [
        "sílẹ̀",
        -7.505990532308063
      ],
      [
        "▁lọ́wọ́",
        -7.507205774648683
      ],
      [
        "lò",
        -7.508677538245324
      ],
      [
        "▁W",
        -7.5130642912494725
      ],
      [
        "ju",
        -7.5167628179613155
      ],
      [
        "▁pa",
        -7.51788759642986
      ],
      [
        "lori",
        -7.517963094692448
      ],
      [
        "▁kọjá",
        -7.5199399172954795
      ],
      [
        "ko",
        -7.520074817341085
      ],
      [
        "ch",
        -7.531802239392771
      ],
      [
        "oju",
        -7.535007220839814
      ],
      [
        "yàn",
        -7.53518790750562
      ],
      [
        "▁àrùn",
        -7.535896890735082
      ],
      [
        "àjò",
        -7.539662542484882
      ],
      [
        "gbà",
        -7.54151362507295
      ],
      [
        "p",
        -7.550935978168751
      ],
      [
        "▁È",
        -7.557304442731796
      ],
      [
        "▁òfin",
        -7.563138365488216
      ],
      [
        "▁ọ̀pọ̀lọpọ",
        -7.566405995419256
      ],
      [
        "▁ìtura",
        -7.566472040394796
      ],
      [
        "▁ṣùgbọ́",
        -7.567524805254603
      ],
      [
        "▁ìrìnnà",
        -7.568650807825299
      ],
      [
        "la",
        -7.569794068584139
      ],
      [
        "▁ìjà",
        -7.570167988586579
      ],
      [
        "ing",
        -7.573499353869517
      ],
      [
        "pàá",
        -7.573614626227389
      ],
      [
        "yẹ",
        -7.574922752237857
      ],
      [
        "▁Ò",
        -7.575165275658197
      ],
      [
        "da",
        -7.577360840755607
      ],
      [
        "ya",
        -7.578259273069176
      ],
      [
        "▁fẹ́",
        -7.5837648496292625
      ],
      [
        "▁tóbi",
        -7.5844175358718005
      ],
      [
        "fi",
        -7.587716447663974
      ],
      [
        "kòkò",
        -7.590091779537259
      ],
      [
        "▁pọ̀",
        -7.592228477329706
      ],
      [
        "▁mún",
        -7.599909596190068
      ],
      [
        "▁gb",
        -7.600280314050451
      ],
      [
        "pá",
        -7.601903145589851
      ],
      [
        "jọ́",
        -7.617840544559684
      ],
      [
        "je",
        -7.621942874348303
      ],
      [
        "bẹ̀",
        -7.626897916201186
      ],
      [
        "pe",
        -7.627636736903517
      ],
      [
        "gbẹ́",
        -7.629134909902509
      ],
      [
        "▁agb",
        -7.630640870865955
      ],
      [
        "▁méjì",
        -7.633469747860348
      ],
      [
        "▁àgbáyé",
        -7.636427365821696
      ],
      [
        "▁kì",
        -7.649031898115138
      ],
      [
        "▁àṣà",
        -7.655185748722162
      ],
      [
        "▁Ọ",
        -7.65599431942157
      ],
      [
        "▁àríwá",
        -7.657059743121387
      ],
      [
        "▁òkun",
        -7.657629509548325
      ],
      [
        "▁ip",
        -7.661561228902214
      ],
      [
        "gba",
        -7.667089715846341
      ],
      [
        "▁gbà",
        -7.669001801293848
      ],
      [
        "▁mọ̀",
        -7.6690125839816945
      ],
      [
        "▁ayé",
        -7.671465622691576
      ],
      [
        "▁pè",
        -7.6756892272132715
      ],
      [
        "▁ka",
        -7.676251366964879
      ],
      [
        "▁de",
        -7.676311441265891
      ],
      [
        "dìbò",
        -7.677371442120997
      ],
      [
        "ala",
        -7.686376901598733
      ],
      [
        "ìí",
        -7.694005853314193
      ],
      [
        "ìn",
        -7.6983065771707455
      ],
      [
        "▁ọ̀pọ̀",
        -7.6985426294443675
      ],
      [
        "gùn",
        -7.698892849077655
      ],
      [
        "er",
        -7.699054549623387
      ],
      [
        "▁ìdá",
        -7.699423190311766
      ],
      [
        "mọ́",
        -7.703707476413589
      ],
      [
        "yẹ̀",
        -7.709050365189347
      ],
      [
        "▁ẹ̀",
        -7.710963125431643
      ],
      [
        "▁as",
        -7.71176857355181
      ],
      [
        "▁ọ̀r",
        -7.716454406510323
      ],
      [
        "àyè",
        -7.7181965352078805
      ],
      [
        "jì",
        -7.721600851573886
      ],
      [
        "▁C",
        -7.726748620373177
      ],
      [
        "▁da",
        -7.729819431636361
      ],
      [
        "wà",
        -7.7358043736057125
      ],
      [
        "▁yi",
        -7.743064368468744
      ],
      [
        "eré",
        -7.743782029372063
      ],
      [
        "▁mo",
        -7.7465563552176935
      ],
      [
        "▁b",
        -7.750994807147856
      ],
      [
        "▁ìgbìm",
        -7.755543657555311
      ],
      [
        "▁òfúruf",
        -7.756601053883721
      ],
      [
        "▁La",
        -7.7603625650613886
      ],
      [
        "▁Japan",
        -7.760409791199173
      ],
      [
        "▁tuntun",
        -7.760698066798905
      ],
      [
        "▁kéré",
        -7.767218485353075
      ],
      [
        "▁fe",
        -7.7685777338253175
      ],
      [
        "▁j",
        -7.775308733276464
      ],
      [
        "h",
        -7.778548919955286
      ],
      [
        "▁ẹni",
        -7.781772563881619
      ],
      [
        "4",
        -7.784965595722793
      ],
      [
        "▁igba",
        -7.786286064270973
      ],
      [
        "▁yàtọ̀",
        -7.790862999538827
      ],
      [
        "▁d",
        -7.790889849991206
      ],
      [
        "▁y",
        -7.7912042309670495
      ],
      [
        "ùsù",
        -7.794114390362351
      ],
      [
        "ínú",
        -7.794442167379731
      ],
      [
        "dọ̀",
        -7.795509451704943
      ],
      [
        "won",
        -7.800896920748169
      ],
      [
        "▁M",
        -7.804792224222933
      ],
      [
        "oko",
        -7.817474092906067
      ],
      [
        "wé",
        -7.819845946124721
      ],
      [
        "tó",
        -7.820580460501678
      ],
      [
        "▁Ro",
        -7.823726091083438
      ],
      [
        "▁Ẹ",
        -7.826761822110088
      ],
      [
        "rọ̀",
        -7.828161107943641
      ],
      [
        "to",
        -7.828170429871365
      ],
      [
        "fà",
        -7.829530456401518
      ],
      [
        "ese",
        -7.830329978547761
      ],
      [
        "ipe",
        -7.835632145499156
      ],
      [
        "▁Ni",
        -7.837994248748307
      ],
      [
        "▁àt",
        -7.8381671354081295
      ],
      [
        "▁eyi",
        -7.8399084202352896
      ],
      [
        "so",
        -7.849310839514688
      ],
      [
        "▁pẹ",
        -7.8514573494262985
      ],
      [
        "▁ere",
        -7.858290787053837
      ],
      [
        "gbá",
        -7.8591833068034145
      ],
      [
        "▁rọ",
        -7.86024202905391
      ],
      [
        "▁ìdárayá",
        -7.866403266066556
      ],
      [
        "▁ìṣẹ̀",
        -7.86806318299972
      ],
      [
        "díje",
        -7.8689979886676635
      ],
      [
        "▁ọtí",
        -7.872626699590328
      ],
      [
        "▁ab",
        -7.8752350289915425
      ],
      [
        "C",
        -7.880231731309518
      ],
      [
        "▁ké",
        -7.880310870787602
      ],
      [
        "▁odun",
        -7.880729557841352
      ],
      [
        "▁tun",
        -7.887325146707653
      ],
      [
        "ǹkan",
        -7.890384468142933
      ],
      [
        "kalẹ̀",
        -7.890890885739353
      ],
      [
        "▁ẹgbẹ̀rún",
        -7.893048297753678
      ],
      [
        "▁nla",
        -7.893124699017284
      ],
      [
        "darí",
        -7.89544639712289
      ],
      [
        "▁sà",
        -7.896722741341771
      ],
      [
        "▁ìbò",
        -7.902172133616343
      ],
      [
        "▁afẹ́",
        -7.902947655045615
      ],
      [
        "wa",
        -7.904373165231743
      ],
      [
        "lẹ́",
        -7.904630929060609
      ],
      [
        "dé",
        -7.918943116121605
      ],
      [
        ";",
        -7.944178885478632
      ],
      [
        "na",
        -7.946318503760207
      ],
      [
        "▁orin",
        -7.94660965209261
      ],
      [
        "j",
        -7.950147059271959
      ],
      [
        "we",
        -7.9573353726792355
      ],
      [
        "▁pel",
        -7.958332364193324
      ],
      [
        "▁od",
        -7.960453516017584
      ],
      [
        "▁is",
        -7.970192254624866
      ],
      [
        "ọ́n",
        -7.97158547992329
      ],
      [
        "dún",
        -7.983750395827885
      ],
      [
        ":",
        -7.991081056993458
      ],
      [
        "▁pataki",
        -7.991112695534749
      ],
      [
        "▁àìsàn",
        -7.991160905959218
      ],
      [
        "▁bẹ́ẹ̀",
        -7.9912813183116835
      ],
      [
        "▁ibùdó",
        -7.991377405946544
      ],
      [
        "▁àmì",
        -7.9918736301229165
      ],
      [
        "ani",
        -7.991980562353032
      ],
      [
        "▁mímọ̀",
        -7.993177025403157
      ],
      [
        "▁díẹ̀",
        -7.9932254902112225
      ],
      [
        "▁orile",
        -7.993519821871336
      ],
      [
        "▁káà",
        -7.996854902670439
      ],
      [
        "▁ọ̀",
        -7.999687181409849
      ],
      [
        "▁wọ",
        -7.999852640986193
      ],
      [
        "▁ori",
        -8.001060389606607
      ],
      [
        "▁ìwád",
        -8.003649261712564
      ],
      [
        "mù",
        -8.004642720282513
      ],
      [
        "òfin",
        -8.005748184918419
      ],
      [
        "▁wíw",
        -8.006434919567653
      ],
      [
        "oro",
        -8.010426344863475
      ],
      [
        "ọ́lẹ̀",
        -8.011283664888893
      ],
      [
        "rìn",
        -8.011946391320166
      ],
      [
        "▁idi",
        -8.01700686321792
      ],
      [
        "lákòó",
        -8.024322030659246
      ],
      [
        "▁Lá",
        -8.035552485349413
      ],
      [
        "▁èdè",
        -8.036085376297276
      ],
      [
        "▁kejì",
        -8.040187873685378
      ],
      [
        "jò",
        -8.050069617282308
      ],
      [
        "àwọn",
        -8.052267897692467
      ],
      [
        "f",
        -8.053296262125064
      ],
      [
        "▁ìs",
        -8.055680255255872
      ],
      [
        "▁mọ",
        -8.056199888596963
      ],
      [
        "▁R",
        -8.05687106365651
      ],
      [
        "gún",
        -8.058802075399454
      ],
      [
        "jọ",
        -8.061871164669984
      ],
      [
        "dà",
        -8.063920760945669
      ],
      [
        "▁ìtà",
        -8.066846237336033
      ],
      [
        "▁jáde",
        -8.069006763626131
      ],
      [
        "▁r",
        -8.071444723451236
      ],
      [
        "▁San",
        -8.077602834802079
      ],
      [
        "fa",
        -8.078254697733042
      ],
      [
        "gọ́",
        -8.079772926493824
      ],
      [
        "ọn",
        -8.079994991192574
      ],
      [
        "là",
        -8.080075408110792
      ],
      [
        "bọ̀",
        -8.082302630657708
      ],
      [
        "ere",
        -8.08642754585053
      ],
      [
        "P",
        -8.088906428735253
      ],
      [
        "▁ààrẹ",
        -8.093543449761983
      ],
      [
        "yà",
        -8.101068964439404
      ],
      [
        "lù",
        -8.102320318968577
      ],
      [
        "pé",
        -8.105183219194807
      ],
      [
        "kun",
        -8.107914354695513
      ],
      [
        "▁alá",
        -8.113576887682107
      ],
      [
        "e,",
        -8.11478779728018
      ],
      [
        "▁Is",
        -8.118914469959552
      ],
      [
        "a,",
        -8.129369766056184
      ],
      [
        "▁lát",
        -8.129566197527245
      ],
      [
        "àrùn",
        -8.130349880074313
      ],
      [
        "▁pàtàkì",
        -8.133938211491818
      ],
      [
        "▁ọpọlọ",
        -8.133938354969196
      ],
      [
        "▁wọ̀nyí",
        -8.133962362953877
      ],
      [
        "▁ìwòsàn",
        -8.134034978388243
      ],
      [
        "▁mìíràn",
        -8.134102939884967
      ],
      [
        "jo",
        -8.134312117205162
      ],
      [
        "▁South",
        -8.134459399187767
      ],
      [
        "▁àyíká",
        -8.134676233052925
      ],
      [
        "▁Ja",
        -8.136410573088176
      ],
      [
        "▁àkọ",
        -8.136453267907424
      ],
      [
        "▁gbígb",
        -8.136669710782972
      ],
      [
        "▁èèyà",
        -8.136693643140317
      ],
      [
        "▁agbára",
        -8.1368772853605
      ],
      [
        "han",
        -8.13803261099332
      ],
      [
        "▁irú",
        -8.138095771490423
      ],
      [
        "▁Ilé",
        -8.139639735149974
      ],
      [
        "▁Se",
        -8.141359466053581
      ],
      [
        "gbọ́",
        -8.141580958607207
      ],
      [
        "▁líl",
        -8.143589724185714
      ],
      [
        "▁míràn",
        -8.143832562367612
      ],
      [
        "▁e",
        -8.144297671519928
      ],
      [
        "▁nigba",
        -8.147549295896797
      ],
      [
        "▁iye",
        -8.148289415716643
      ],
      [
        "▁pada",
        -8.148719019266984
      ],
      [
        "▁yọ",
        -8.151128868540637
      ],
      [
        "▁sá",
        -8.154104585735318
      ],
      [
        "▁ìrír",
        -8.156901483731149
      ],
      [
        "ítà",
        -8.157698991567127
      ],
      [
        "▁èrò",
        -8.159551081047594
      ],
      [
        "dẹ̀",
        -8.161181915738656
      ],
      [
        "ró",
        -8.165512111887058
      ],
      [
        "▁ta",
        -8.166367919065983
      ],
      [
        "il",
        -8.169080271116755
      ],
      [
        "▁omo",
        -8.170112700846818
      ],
      [
        "ǹ",
        -8.174288150639818
      ],
      [
        "ṣ",
        -8.174481434225047
      ],
      [
        "ki",
        -8.175804123708925
      ],
      [
        "▁bo",
        -8.176680278967433
      ],
      [
        "ín",
        -8.182820984992151
      ],
      [
        "óò",
        -8.183102597379397
      ],
      [
        "▁bọ̀",
        -8.187113068890373
      ],
      [
        "olu",
        -8.187770181628302
      ],
      [
        "▁padà",
        -8.188297450367454
      ],
      [
        "àti",
        -8.196475173619344
      ],
      [
        "dò",
        -8.202235571086138
      ],
      [
        "rẹ́",
        -8.20655719375507
      ],
      [
        "ede",
        -8.210136608878527
      ],
      [
        "▁ipa",
        -8.212571970525406
      ],
      [
        "▁Sa",
        -8.21458981953934
      ],
      [
        "▁mẹ́t",
        -8.215544339630446
      ],
      [
        "oke",
        -8.21579991572641
      ],
      [
        "àbò",
        -8.21600028064212
      ],
      [
        "3",
        -8.219406456338053
      ],
      [
        "kè",
        -8.220400346039925
      ],
      [
        "ma",
        -8.220571019007217
      ],
      [
        "▁Ira",
        -8.222385634143691
      ],
      [
        "dá",
        -8.223904609177914
      ],
      [
        "ájú",
        -8.229890752350165
      ],
      [
        "▁yẹ",
        -8.23297222545418
      ],
      [
        "▁ìbá",
        -8.23810802861228
      ],
      [
        "2",
        -8.239560983466982
      ],
      [
        "eyin",
        -8.246913457421075
      ],
      [
        "▁mẹ́",
        -8.248477624839747
      ],
      [
        "▁ọk",
        -8.248779031265768
      ],
      [
        "▁ká",
        -8.24924661039174
      ],
      [
        "▁àjọ",
        -8.251192524248012
      ],
      [
        "▁Ma",
        -8.254595979465574
      ],
      [
        "▁ìr",
        -8.256480508612078
      ],
      [
        "kù",
        -8.257365635974411
      ],
      [
        "▁ìpà",
        -8.257975348430648
      ],
      [
        "th",
        -8.261108138501701
      ],
      [
        "n,",
        -8.264519067690182
      ],
      [
        "▁ǹkan",
        -8.265618404086688
      ],
      [
        "▁na",
        -8.267515342390313
      ],
      [
        "▁kẹ",
        -8.272746324788251
      ],
      [
        "yan",
        -8.27362431272308
      ],
      [
        "as",
        -8.275855006230064
      ],
      [
        "▁darí",
        -8.276092054510647
      ],
      [
        "▁ayẹ",
        -8.28452300653441
      ],
      [
        "▁Y",
        -8.28491956535544
      ],
      [
        "▁láà",
        -8.285312181882466
      ],
      [
        "▁ede",
        -8.285495984825817
      ],
      [
        "▁wo",
        -8.291572414265493
      ],
      [
        "pẹ́",
        -8.2925132096484
      ],
      [
        "fe",
        -8.296446639206582
      ],
      [
        "hun",
        -8.29697523937537
      ],
      [
        "dì",
        -8.298536468246313
      ],
      [
        "▁ìṣe",
        -8.298597508877574
      ],
      [
        "▁nítorí",
        -8.299469351676695
      ],
      [
        "▁Turkey",
        -8.300604867800775
      ],
      [
        "▁òtútù",
        -8.300604871890675
      ],
      [
        "▁Australia",
        -8.300604962894589
      ],
      [
        "▁Africa",
        -8.300620597262636
      ],
      [
        "▁meji",
        -8.300643053978558
      ],
      [
        "▁ìgbafẹ́",
        -8.300711622580737
      ],
      [
        "▁Ọ̀pọ̀",
        -8.300726878570085
      ],
      [
        "▁mẹ́fà",
        -8.300956154609292
      ],
      [
        "▁òfuruf",
        -8.301115971080014
      ],
      [
        "▁Germany",
        -8.301186814703431
      ],
      [
        "▁ihò",
        -8.301233813674799
      ],
      [
        "▁àyípadà",
        -8.301963700948612
      ],
      [
        "▁Ta",
        -8.303099077214515
      ],
      [
        "▁obìnrin",
        -8.303145589823343
      ],
      [
        "ẹ̀lú",
        -8.303234862077884
      ],
      [
        "ard",
        -8.305936781235948
      ],
      [
        "▁wọ́",
        -8.306264849493699
      ],
      [
        "O",
        -8.307061372768132
      ],
      [
        "rì",
        -8.31080158661598
      ],
      [
        "▁bọ́ọ̀lù",
        -8.31385191267566
      ],
      [
        "lú",
        -8.31454396666472
      ],
      [
        "▁borí",
        -8.315109784711712
      ],
      [
        "pù",
        -8.315643948656906
      ],
      [
        "▁U",
        -8.316094020028174
      ],
      [
        "▁To",
        -8.317787010674863
      ],
      [
        "▁àlà",
        -8.320889177980352
      ],
      [
        "▁gbe",
        -8.321500018176831
      ],
      [
        "▁àyè",
        -8.322299729433157
      ],
      [
        "▁ìwò",
        -8.32231857038198
      ],
      [
        "lóm",
        -8.322463339102587
      ],
      [
        "▁tẹ̀",
        -8.323220860519875
      ],
      [
        "▁àgbé",
        -8.323626958311838
      ],
      [
        "es",
        -8.325292131897763
      ],
      [
        "▁àbá",
        -8.32658161136457
      ],
      [
        "▁ìf",
        -8.330778648251478
      ],
      [
        "▁torí",
        -8.336835395007164
      ],
      [
        "▁sa",
        -8.342313890833191
      ],
      [
        "▁Ha",
        -8.343011356257033
      ],
      [
        "▁ìgbésẹ̀",
        -8.34377028187436
      ],
      [
        "tori",
        -8.34467496605828
      ],
      [
        "▁tẹ́lẹ̀",
        -8.344699797878466
      ],
      [
        "gbara",
        -8.345179064652127
      ],
      [
        "di",
        -8.345265608923187
      ],
      [
        "kú",
        -8.348005552919687
      ],
      [
        "▁ìṣ",
        -8.348883572564912
      ],
      [
        "mí",
        -8.350751707284253
      ],
      [
        "▁pèl",
        -8.355965989472605
      ],
      [
        "▁hàn",
        -8.359632852788964
      ],
      [
        "▁ajo",
        -8.360964753714162
      ],
      [
        "ca",
        -8.365720332715153
      ],
      [
        "mu",
        -8.365911358888555
      ],
      [
        "▁àsìk",
        -8.36908856270436
      ],
      [
        "▁fọwọ́",
        -8.370936730472296
      ],
      [
        "▁níbi",
        -8.372119050267877
      ],
      [
        "▁ìṣẹ́",
        -8.373298929192437
      ],
      [
        "▁bè",
        -8.373729674608061
      ],
      [
        "M",
        -8.374520122400437
      ],
      [
        "G",
        -8.375927332286468
      ],
      [
        "▁ay",
        -8.376081904435871
      ],
      [
        "▁sẹ",
        -8.37831674970009
      ],
      [
        "rù",
        -8.378771145518572
      ],
      [
        "sa",
        -8.381419717582732
      ],
      [
        "1",
        -8.382750959347051
      ],
      [
        "jáde",
        -8.384453608346787
      ],
      [
        "▁Ìl",
        -8.387080839401838
      ],
      [
        "ẹsẹ̀",
        -8.38725126557653
      ],
      [
        "èlú",
        -8.389602640510676
      ],
      [
        "ha",
        -8.389840509537624
      ],
      [
        "orun",
        -8.390750112282463
      ],
      [
        "ge",
        -8.391514130794208
      ],
      [
        "▁jí",
        -8.391674905635256
      ],
      [
        "áti",
        -8.393162282836812
      ],
      [
        "▁Ere",
        -8.394379682591408
      ],
      [
        "▁pès",
        -8.397601020668233
      ],
      [
        "àá",
        -8.398702892095365
      ],
      [
        "D",
        -8.400363891066517
      ],
      [
        "or",
        -8.401284093624303
      ],
      [
        "on",
        -8.404258560874625
      ],
      [
        "▁lọ.",
        -8.405432363404735
      ],
      [
        "yin",
        -8.410062342876103
      ],
      [
        "bo",
        -8.411550261317723
      ],
      [
        "úrò",
        -8.412767184970724
      ],
      [
        "papọ̀",
        -8.41821676728291
      ],
      [
        "▁láì",
        -8.419489156942946
      ],
      [
        "ára",
        -8.423488638294174
      ],
      [
        "jù",
        -8.423678960172785
      ],
      [
        "S",
        -8.423679685172626
      ],
      [
        "tọ̀",
        -8.424905727283994
      ],
      [
        "▁Lo",
        -8.42598114289603
      ],
      [
        "ká",
        -8.42701122805701
      ],
      [
        "▁arìnrìn",
        -8.431093352869551
      ],
      [
        "gé",
        -8.432674886117855
      ],
      [
        "sẹ́",
        -8.433775702631436
      ],
      [
        "ètò",
        -8.43956068316669
      ],
      [
        "fun",
        -8.440569256314602
      ],
      [
        "▁já",
        -8.44091010278087
      ],
      [
        "ton",
        -8.443443412375903
      ],
      [
        "land",
        -8.446162956410205
      ],
      [
        "▁olo",
        -8.44734558707444
      ],
      [
        "▁láàr",
        -8.45084346259307
      ],
      [
        "▁ẹlẹ́",
        -8.451412298188822
      ],
      [
        "▁ona",
        -8.453218350619123
      ],
      [
        "▁ako",
        -8.457165870673485
      ],
      [
        "jàk",
        -8.457602162022905
      ],
      [
        "ọ̀kan",
        -8.460292773915057
      ],
      [
        "▁ìgbé",
        -8.46049050083709
      ],
      [
        "usu",
        -8.460576571401507
      ],
      [
        "▁sọ̀",
        -8.467015262785706
      ],
      [
        "▁Co",
        -8.470494204257502
      ],
      [
        "▁rá",
        -8.47076486558089
      ],
      [
        "▁tẹ́",
        -8.471154956814663
      ],
      [
        "san",
        -8.471315268658312
      ],
      [
        "àrí",
        -8.473775385343178
      ],
      [
        "esi",
        -8.474356905645323
      ],
      [
        "▁Bu",
        -8.477383218479432
      ],
      [
        "ojú",
        -8.47899330263088
      ],
      [
        "▁ìp",
        -8.480692004167732
      ],
      [
        "▁sè",
        -8.48170291801432
      ],
      [
        "▁rẹ̀.",
        -8.483601952193274
      ],
      [
        "fẹ́",
        -8.484492221801682
      ],
      [
        "ic",
        -8.485746215527055
      ],
      [
        "▁Pr",
        -8.486538066854038
      ],
      [
        "run",
        -8.493005396372931
      ],
      [
        "▁J",
        -8.493294131315352
      ],
      [
        "wọ́n",
        -8.4956881414932
      ],
      [
        "▁ibo",
        -8.49600052745911
      ],
      [
        "▁òfuruufú",
        -8.500604867726096
      ],
      [
        "▁Q",
        -8.500605028997251
      ],
      [
        "▁Pakistan",
        -8.50060504407637
      ],
      [
        "▁Canada",
        -8.500607909940427
      ],
      [
        "▁buwọ́l",
        -8.500614006132441
      ],
      [
        "▁gúús",
        -8.500680183977213
      ],
      [
        "▁gidi",
        -8.50082029211052
      ],
      [
        "àǹfàn",
        -8.501159543193992
      ],
      [
        "▁pípẹ́",
        -8.501300371870292
      ],
      [
        "▁201",
        -8.501390512622619
      ],
      [
        "sáré",
        -8.5016356913043
      ],
      [
        "▁Runn",
        -8.502006552732539
      ],
      [
        "▁olómìnira",
        -8.50206597460917
      ],
      [
        "▁èlò",
        -8.502180204634808
      ],
      [
        "▁mẹ́rin",
        -8.502881763057504
      ],
      [
        "▁idije",
        -8.503003485417151
      ],
      [
        "▁ńlá",
        -8.504440027679022
      ],
      [
        "▁kanáà",
        -8.504890917284749
      ],
      [
        "gbádùn",
        -8.504927173773265
      ],
      [
        "lẹ",
        -8.5058448382243
      ],
      [
        "▁Du",
        -8.506355726789966
      ],
      [
        "▁kék",
        -8.5065886784876
      ],
      [
        "▁osu",
        -8.50706255504877
      ],
      [
        "▁àlá",
        -8.508135484218387
      ],
      [
        "lẹ́nu",
        -8.50853766556993
      ],
      [
        "▁opolo",
        -8.509769437189993
      ],
      [
        "▁US",
        -8.509935533292037
      ],
      [
        "/",
        -8.510704537841306
      ],
      [
        "polo",
        -8.511851331861928
      ],
      [
        "▁New",
        -8.512215273688847
      ],
      [
        "▁Cu",
        -8.512402147934216
      ],
      [
        "aṣojú",
        -8.512720695055183
      ],
      [
        "nira",
        -8.513126914099502
      ],
      [
        "ogun",
        -8.51886096794524
      ],
      [
        "▁Má",
        -8.519485382069776
      ],
      [
        "iti",
        -8.521754918194985
      ],
      [
        "▁kẹjọ",
        -8.522160232785744
      ],
      [
        "▁mu",
        -8.52223401262444
      ],
      [
        "▁bóy",
        -8.522550113260957
      ],
      [
        "▁mi",
        -8.522579278828232
      ],
      [
        "sù",
        -8.524033054868696
      ],
      [
        "▁ìta",
        -8.52563491376327
      ],
      [
        "▁lílọ",
        -8.526592136405412
      ],
      [
        "▁ìwọ̀n",
        -8.526973922867924
      ],
      [
        "ugbon",
        -8.52705394356205
      ],
      [
        "▁ijo",
        -8.52996872055576
      ],
      [
        "▁ìy",
        -8.530315876167613
      ],
      [
        "8",
        -8.537856710446418
      ],
      [
        "▁oorun",
        -8.538068100812211
      ],
      [
        "▁Ol",
        -8.538683546626903
      ],
      [
        "c",
        -8.538821032495294
      ],
      [
        "▁miin",
        -8.539760133127427
      ],
      [
        "▁Wa",
        -8.54007214819401
      ],
      [
        "▁níl",
        -8.540804078293545
      ],
      [
        "yìí",
        -8.54113752348299
      ],
      [
        "▁tan",
        -8.541620553120389
      ],
      [
        "▁ski",
        -8.541837606753539
      ],
      [
        "▁Awo",
        -8.545098329273678
      ],
      [
        "▁Ìj",
        -8.547162190550896
      ],
      [
        "▁or",
        -8.551677010497688
      ],
      [
        "▁ibí",
        -8.554412690524604
      ],
      [
        "▁wọlé",
        -8.557068805427203
      ],
      [
        "▁oni",
        -8.557596142504016
      ],
      [
        "▁sun",
        -8.559654489547423
      ],
      [
        "jẹ́",
        -8.559801441253255
      ],
      [
        "▁méj",
        -8.565101274376602
      ],
      [
        "ku",
        -8.566313762146208
      ],
      [
        "▁máà",
        -8.567809721685585
      ],
      [
        "▁ìgb",
        -8.568032799974253
      ],
      [
        "▁dara",
        -8.568119479022162
      ],
      [
        "ké",
        -8.573909856250785
      ],
      [
        "▁Àbá",
        -8.574281567319229
      ],
      [
        "▁arìnrìnàj",
        -8.574376974600005
      ],
      [
        "▁kópa",
        -8.577448844425659
      ],
      [
        "▁Ari",
        -8.581278353495822
      ],
      [
        "▁iwo",
        -8.5826539667842
      ],
      [
        "àmọ́",
        -8.587636038432592
      ],
      [
        "▁oj",
        -8.588872926419734
      ],
      [
        "ona",
        -8.591148438941104
      ],
      [
        "▁Or",
        -8.594719478108178
      ],
      [
        "▁ik",
        -8.597942501317387
      ],
      [
        "inu",
        -8.598942131452642
      ],
      [
        "▁iw",
        -8.599339396447267
      ],
      [
        "opo",
        -8.601205431495025
      ],
      [
        "▁lẹ́y",
        -8.603036790280436
      ],
      [
        "x",
        -8.604840321957377
      ],
      [
        "▁Ba",
        -8.607448850817196
      ],
      [
        "▁ìbám",
        -8.610481555819838
      ],
      [
        "▁Kan",
        -8.613268638395358
      ],
      [
        "▁ìtàn",
        -8.613911710016312
      ],
      [
        "▁Re",
        -8.615029340772086
      ],
      [
        "ile",
        -8.615318256513865
      ],
      [
        "mọ",
        -8.618662604876489
      ],
      [
        "gan",
        -8.621101845962233
      ],
      [
        "▁àfi",
        -8.622906773860546
      ],
      [
        "i.",
        -8.623835629085203
      ],
      [
        "ìsì",
        -8.624839601409413
      ],
      [
        "▁ib",
        -8.624847137757456
      ],
      [
        "ràn",
        -8.631044061608877
      ],
      [
        "kọjá",
        -8.634122717320384
      ],
      [
        "▁D",
        -8.636506595425011
      ],
      [
        "▁ṣà",
        -8.637983437705019
      ],
      [
        "▁ìj",
        -8.638532248514272
      ],
      [
        "▁rán",
        -8.640312198228948
      ],
      [
        "à.",
        -8.641769703633388
      ],
      [
        "yé",
        -8.641889038722791
      ],
      [
        "mi",
        -8.643998274051786
      ],
      [
        "fí",
        -8.651075044220935
      ],
      [
        "▁ìjì",
        -8.653086824370178
      ],
      [
        "àn",
        -8.65484703124125
      ],
      [
        "ábọ̀",
        -8.662432232774
      ],
      [
        "ja",
        -8.66257266026259
      ],
      [
        "ọwọ́",
        -8.662600974188267
      ],
      [
        "▁òò",
        -8.662977608670337
      ],
      [
        "ìnì",
        -8.665143573259687
      ],
      [
        "1.",
        -8.666011014798556
      ],
      [
        "sise",
        -8.666507940562258
      ],
      [
        "E",
        -8.66867924359209
      ],
      [
        "nkan",
        -8.671627547173918
      ],
      [
        "▁ìpínlẹ",
        -8.67461166842636
      ],
      [
        "rán",
        -8.677654729185939
      ],
      [
        "wan",
        -8.68130930954775
      ],
      [
        "a.",
        -8.683315824569647
      ],
      [
        "bò",
        -8.690723229745583
      ],
      [
        "▁nílẹ̀",
        -8.691520510713193
      ],
      [
        "▁kọ́",
        -8.693706203483902
      ],
      [
        "▁India",
        -8.694808384183178
      ],
      [
        "▁gan",
        -8.697654126536923
      ],
      [
        "▁láb",
        -8.697875601136499
      ],
      [
        "ríṣi",
        -8.69952243275021
      ],
      [
        "▁eni",
        -8.702408788194457
      ],
      [
        "▁darap",
        -8.70732025175887
      ],
      [
        "àwòrán",
        -8.708272524532488
      ],
      [
        "sọ",
        -8.709173774444132
      ],
      [
        "▁4",
        -8.710085596420397
      ],
      [
        "li",
        -8.711161029229453
      ],
      [
        "▁ààr",
        -8.711528206080306
      ],
      [
        "▁arin",
        -8.713646889559904
      ],
      [
        "ę",
        -8.715496123850343
      ],
      [
        "lera",
        -8.716434430635127
      ],
      [
        "▁Ṣ",
        -8.720604112930207
      ],
      [
        "▁ẹ̀d",
        -8.721693604318176
      ],
      [
        "▁ṣá",
        -8.72707705325141
      ],
      [
        "ago",
        -8.730915193931576
      ],
      [
        "ga",
        -8.733543546405025
      ],
      [
        "kún",
        -8.735238789418045
      ],
      [
        "▁rìn",
        -8.735501782258563
      ],
      [
        "uruf",
        -8.737784488846165
      ],
      [
        "▁Ra",
        -8.74082970757896
      ],
      [
        "rek",
        -8.74175380415117
      ],
      [
        "▁Olympic",
        -8.746049125719669
      ],
      [
        "kọ́kọ́",
        -8.749091782517404
      ],
      [
        "do",
        -8.750333254444957
      ],
      [
        "q",
        -8.750380427678921
      ],
      [
        "ë",
        -8.750604866557229
      ],
      [
        "▁adúláwọ̀",
        -8.750604868222421
      ],
      [
        "▁Olimpiki",
        -8.750604870226653
      ],
      [
        "▁Zealand",
        -8.750604870273484
      ],
      [
        "▁gbòógì",
        -8.750604882773416
      ],
      [
        "▁senturi",
        -8.75060496527533
      ],
      [
        "▁Afghan",
        -8.750605014316776
      ],
      [
        "▁àjọsepọ̀",
        -8.750606660679772
      ],
      [
        "pópó",
        -8.75060767354297
      ],
      [
        "▁Britain",
        -8.750617232430672
      ],
      [
        "▁John",
        -8.750643511116841
      ],
      [
        "▁olúbor",
        -8.750645665085095
      ],
      [
        "▁Gẹ̀ẹ́s",
        -8.75066693781337
      ],
      [
        "▁ẹ̀fọn",
        -8.7507112389617
      ],
      [
        "jádẹ",
        -8.750800646189246
      ],
      [
        "▁UN",
        -8.750811858860388
      ],
      [
        "que",
        -8.750829355457
      ],
      [
        "▁máìlì",
        -8.750967195542032
      ],
      [
        "▁ìgbàlódé",
        -8.750987252596238
      ],
      [
        "▁ounje",
        -8.751073544194018
      ],
      [
        "▁ìbílẹ̀",
        -8.751093412957477
      ],
      [
        "▁afẹ́fẹ́",
        -8.751264439382549
      ],
      [
        "▁òfu",
        -8.75130160328735
      ],
      [
        "ará",
        -8.751319592110727
      ],
      [
        "▁agbabo",
        -8.751460274144199
      ],
      [
        "▁Ṣùgb",
        -8.751527342896242
      ],
      [
        "rànwọ́",
        -8.75155575854832
      ],
      [
        "▁abẹ́lé",
        -8.751570992953647
      ],
      [
        "▁Ọjọ́",
        -8.751683338280225
      ],
      [
        "▁ọjà",
        -8.75190426982601
      ],
      [
        "▁ẹgbẹ̀",
        -8.752053888882093
      ],
      [
        "▁titun",
        -8.752255943027361
      ],
      [
        "▁gbá",
        -8.75274927276691
      ],
      [
        "lógún",
        -8.752822355877683
      ],
      [
        "▁ànfàn",
        -8.752876004804227
      ],
      [
        "▁fífò",
        -8.75341334921429
      ],
      [
        "▁nìkan",
        -8.753613414958
      ],
      [
        "▁Omi",
        -8.754016743886536
      ],
      [
        "lẹ́gbẹ̀",
        -8.75424516534505
      ],
      [
        "▁akẹ́",
        -8.754538552332962
      ],
      [
        "▁Ìrìn",
        -8.755378871504762
      ],
      [
        "▁jọ",
        -8.756552939609989
      ],
      [
        "dun",
        -8.756579107186095
      ],
      [
        "▁fà",
        -8.757080360361297
      ],
      [
        "ọkàn",
        -8.757195015257226
      ],
      [
        "▁ija",
        -8.757780444972228
      ],
      [
        "▁Al",
        -8.759073318493384
      ],
      [
        "ṣòwò",
        -8.759542603096797
      ],
      [
        "ini",
        -8.76045090715054
      ],
      [
        "▁How",
        -8.762127768664486
      ],
      [
        "▁Ste",
        -8.762510916906804
      ],
      [
        "I",
        -8.76312269828298
      ],
      [
        "▁sísá",
        -8.763297054659771
      ],
      [
        "▁ikú",
        -8.764621116891462
      ],
      [
        "ci",
        -8.764917212874177
      ],
      [
        "▁alẹ́",
        -8.766559005520794
      ],
      [
        "sile",
        -8.767490559431426
      ],
      [
        "▁He",
        -8.767724694177112
      ],
      [
        "▁Eré",
        -8.768334393190022
      ],
      [
        "ààlà",
        -8.769095670494846
      ],
      [
        "▁ìpar",
        -8.769112821778847
      ],
      [
        "iri",
        -8.770119368860327
      ],
      [
        "▁adá",
        -8.770608278543044
      ],
      [
        "ines",
        -8.770695080622291
      ],
      [
        "ar",
        -8.77139606802401
      ],
      [
        "▁kúr",
        -8.772437872442115
      ],
      [
        "▁ewu",
        -8.773112893565388
      ],
      [
        "▁Medi",
        -8.774110166473719
      ],
      [
        "▁okun",
        -8.774357282002994
      ],
      [
        "▁eléré",
        -8.774551702370907
      ],
      [
        "ipelago",
        -8.77499638218742
      ],
      [
        "▁òpin",
        -8.77515186762621
      ],
      [
        "▁dà",
        -8.775416281177755
      ],
      [
        "▁pápá",
        -8.7757124733025
      ],
      [
        "fin",
        -8.777359523469354
      ],
      [
        "▁kùnà",
        -8.778255413173014
      ],
      [
        "▁tọ",
        -8.778287488986075
      ],
      [
        "▁dí",
        -8.778949240343247
      ],
      [
        "ló",
        -8.779719506142849
      ],
      [
        "ọgbà",
        -8.780077447947154
      ],
      [
        "orúkọ",
        -8.78127646950697
      ],
      [
        "ili",
        -8.78386965842743
      ],
      [
        "kà",
        -8.784271587919106
      ],
      [
        "▁dín",
        -8.785135976108572
      ],
      [
        "▁Il",
        -8.785506169492749
      ],
      [
        "egbe",
        -8.785860313017931
      ],
      [
        "▁tíkẹ",
        -8.786530493569952
      ],
      [
        "▁pup",
        -8.786578223210613
      ],
      [
        "▁eto",
        -8.787434613112007
      ],
      [
        "náà",
        -8.787575333845446
      ],
      [
        "go",
        -8.787759250430739
      ],
      [
        "▁Sea",
        -8.788037676029425
      ],
      [
        "▁ìdádúr",
        -8.788079471726835
      ],
      [
        "páta",
        -8.788850227918305
      ],
      [
        "ador",
        -8.789666144992731
      ],
      [
        "lá",
        -8.791478002515879
      ],
      [
        "▁ri",
        -8.792522443132025
      ],
      [
        "▁Ameri",
        -8.793136321557634
      ],
      [
        "▁fò",
        -8.794168700397103
      ],
      [
        "▁Ho",
        -8.796847175130585
      ],
      [
        "oòrùn",
        -8.798869197585104
      ],
      [
        "èn",
        -8.799472623368958
      ],
      [
        "wọ̀n",
        -8.800229804374345
      ],
      [
        "kí",
        -8.800611195284139
      ],
      [
        "▁sùgb",
        -8.800863936156247
      ],
      [
        "mo",
        -8.80087180878151
      ],
      [
        "pè",
        -8.802926296459264
      ],
      [
        "nù",
        -8.803237588917805
      ],
      [
        "èyà",
        -8.803437168090412
      ],
      [
        "yàwòrán",
        -8.803690975908761
      ],
      [
        "ege",
        -8.804679062351344
      ],
      [
        "▁ìlera",
        -8.805921124829354
      ],
      [
        "eje",
        -8.806384472910992
      ],
      [
        "▁kìí",
        -8.80661990217356
      ],
      [
        "kér",
        -8.810492999957491
      ],
      [
        "▁lò",
        -8.81071259939867
      ],
      [
        "▁wọ́pọ̀",
        -8.813165297472835
      ],
      [
        "o.",
        -8.815623431303358
      ],
      [
        "ay",
        -8.817976822209483
      ],
      [
        "▁Bó",
        -8.819894059033698
      ],
      [
        "▁oúnjẹ",
        -8.821705845774321
      ],
      [
        "▁àgbà",
        -8.82279710428332
      ],
      [
        "▁sẹ́",
        -8.823012475453204
      ],
      [
        "▁olu",
        -8.824042808317957
      ],
      [
        "jẹ",
        -8.825103687495595
      ],
      [
        "iyan",
        -8.82767843204941
      ],
      [
        "▁lai",
        -8.832863873109241
      ],
      [
        "lára",
        -8.833586278426406
      ],
      [
        "jé",
        -8.835237503677893
      ],
      [
        "▁ẹ̀kọ́",
        -8.836137196296853
      ],
      [
        "▁ìpín",
        -8.837036945675983
      ],
      [
        "ofin",
        -8.837468425252847
      ],
      [
        "▁ọ̀tọ̀",
        -8.839545245094294
      ],
      [
        "rà",
        -8.84042718497768
      ],
      [
        "▁il",
        -8.843751680975235
      ],
      [
        "▁nin",
        -8.849468488394212
      ],
      [
        "▁míì",
        -8.850383907229336
      ],
      [
        "ter",
        -8.850956675800973
      ],
      [
        "dínw",
        -8.85099514350004
      ],
      [
        "sh",
        -8.85117470179562
      ],
      [
        "▁egbe",
        -8.851667533998423
      ],
      [
        "jà",
        -8.854061020624911
      ],
      [
        "▁Od",
        -8.854357719299625
      ],
      [
        "íwọ",
        -8.855335686396588
      ],
      [
        "▁mim",
        -8.856884558653404
      ],
      [
        "▁Si",
        -8.86018687442544
      ],
      [
        "aju",
        -8.860995959395037
      ],
      [
        "gbogbo",
        -8.86117437575695
      ],
      [
        "ọ́ka",
        -8.861494477684495
      ],
      [
        "▁Bi",
        -8.861819370545216
      ],
      [
        "ẹsàn",
        -8.863580943616475
      ],
      [
        "áà",
        -8.863985314224777
      ],
      [
        "▁àtún",
        -8.8660457943889
      ],
      [
        "▁Ca",
        -8.867334318500712
      ],
      [
        "▁dùn",
        -8.870770304768277
      ],
      [
        "T",
        -8.870928490703328
      ],
      [
        "▁ìtọ́",
        -8.871591092271325
      ],
      [
        "gbun",
        -8.871788424197769
      ],
      [
        "▁198",
        -8.87226203817659
      ],
      [
        "lé-",
        -8.873491829092833
      ],
      [
        "▁orílè",
        -8.876156484318575
      ],
      [
        "serv",
        -8.877099428743763
      ],
      [
        "kede",
        -8.878158584371587
      ],
      [
        "▁òṣ",
        -8.883381770171603
      ],
      [
        "onal",
        -8.886122893556392
      ],
      [
        "▁sile",
        -8.887799160509113
      ],
      [
        "kọ́",
        -8.888242116101011
      ],
      [
        "▁Ẹ̀",
        -8.88825185421718
      ],
      [
        "▁gé",
        -8.888763562416615
      ],
      [
        "▁yíya",
        -8.890530997980516
      ],
      [
        "ẹ́yì",
        -8.891166812376921
      ],
      [
        "yo",
        -8.891733030924573
      ],
      [
        "▁jú",
        -8.89332867269253
      ],
      [
        "óró",
        -8.893870996697984
      ],
      [
        "▁tá",
        -8.895148232548499
      ],
      [
        "rá",
        -8.896444248906025
      ],
      [
        "▁Olór",
        -8.897177045347654
      ],
      [
        "àdé",
        -8.89732266032918
      ],
      [
        "▁àkójọ",
        -8.898005584649912
      ],
      [
        "aki",
        -8.899806004597172
      ],
      [
        "▁ye",
        -8.900042408366645
      ],
      [
        "ṣẹ̀",
        -8.902924654140888
      ],
      [
        "ẹwà",
        -8.90359334599134
      ],
      [
        "▁mil",
        -8.904284423874966
      ],
      [
        "sẹ̀",
        -8.904590195698269
      ],
      [
        "síwájú",
        -8.906082647139918
      ],
      [
        "▁abẹ́",
        -8.909788293931316
      ],
      [
        "ce",
        -8.910443835224102
      ],
      [
        "▁Go",
        -8.911724193128098
      ],
      [
        "èké",
        -8.917500024298871
      ],
      [
        "▁Ar",
        -8.918487842344579
      ],
      [
        "▁Won",
        -8.922178591603702
      ],
      [
        "▁Ag",
        -8.922922666763084
      ],
      [
        "rè",
        -8.922929865606665
      ],
      [
        "▁tọ́",
        -8.92309468689171
      ],
      [
        "▁pin",
        -8.923731904029744
      ],
      [
        "▁ìrìnà",
        -8.924772321942026
      ],
      [
        "dínlógún",
        -8.93204169225843
      ],
      [
        "▁oro",
        -8.93205801939179
      ],
      [
        "▁ga",
        -8.932470845333786
      ],
      [
        "▁ré",
        -8.93264926732808
      ],
      [
        "▁opo",
        -8.933149621745702
      ],
      [
        "el",
        -8.9333956969894
      ],
      [
        "▁(N",
        -8.93827573322682
      ],
      [
        "▁òg",
        -8.939958515487541
      ],
      [
        "▁kọ",
        -8.94100815429269
      ],
      [
        "▁pà",
        -8.945495607724693
      ],
      [
        "▁Ey",
        -8.946305094854194
      ],
      [
        "5",
        -8.946942930598553
      ],
      [
        "▁ida",
        -8.949339943026484
      ],
      [
        "▁ayo",
        -8.955268232448477
      ],
      [
        "kejì",
        -8.95725535564928
      ],
      [
        "▁mím",
        -8.959616505902815
      ],
      [
        "W",
        -8.959636857322586
      ],
      [
        "fọwọ́",
        -8.96083992479711
      ],
      [
        "lóri",
        -8.963738554939479
      ],
      [
        "kópa",
        -8.964488009164537
      ],
      [
        "▁àb",
        -8.966417881721313
      ],
      [
        "V",
        -8.966485508186821
      ],
      [
        "árí",
        -8.970388260044256
      ],
      [
        "ẹ̀kọ́",
        -8.979370197949589
      ],
      [
        "0",
        -8.98003201364475
      ],
      [
        "▁in",
        -8.981754018872339
      ],
      [
        "▁Ọ̀",
        -8.984639067764517
      ],
      [
        "R",
        -8.98702396073333
      ],
      [
        "▁òòg",
        -8.988391700456432
      ],
      [
        "yàtọ̀",
        -8.988815901253707
      ],
      [
        "ré",
        -8.989320085060838
      ],
      [
        "▁dán",
        -8.994205472599136
      ],
      [
        "▁san",
        -8.998587899141771
      ],
      [
        "gbaye",
        -9.000659826149768
      ],
      [
        "rún",
        -9.00239977558488
      ],
      [
        "▁rínr",
        -9.00337725913257
      ],
      [
        "▁Sta",
        -9.00531991911416
      ],
      [
        "▁pẹ́",
        -9.008146660429365
      ],
      [
        "cu",
        -9.010453438708813
      ],
      [
        "▁gó",
        -9.011351617050323
      ],
      [
        "▁márùn",
        -9.01202571891478
      ],
      [
        "men",
        -9.013429077522078
      ],
      [
        "▁Kẹ",
        -9.01881751274236
      ],
      [
        "ilé",
        -9.018944544961576
      ],
      [
        "▁19",
        -9.019236282284462
      ],
      [
        "náw",
        -9.021898652672268
      ],
      [
        "umo",
        -9.024715215145712
      ],
      [
        "▁mà",
        -9.025056282943957
      ],
      [
        "▁Br",
        -9.026251760809913
      ],
      [
        "ina",
        -9.026482257984068
      ],
      [
        "kéd",
        -9.028147559316697
      ],
      [
        "▁Ara",
        -9.031149414574669
      ],
      [
        "ele",
        -9.033415692827676
      ],
      [
        "ílí",
        -9.034321102385915
      ],
      [
        "▁ọ̀d",
        -9.037390759627604
      ],
      [
        "bẹ̀rẹ̀",
        -9.038148906222615
      ],
      [
        "▁so",
        -9.039117426232512
      ],
      [
        "tì",
        -9.039309380772586
      ],
      [
        "▁ooru",
        -9.039558025889233
      ],
      [
        "▁nípasẹ",
        -9.042038243254348
      ],
      [
        "nì",
        -9.042537934886392
      ],
      [
        "▁ìbẹ̀",
        -9.044238482774784
      ],
      [
        "gbe",
        -9.045036448075063
      ],
      [
        "án",
        -9.049190363133302
      ],
      [
        "rẹ̀",
        -9.049330515977639
      ],
      [
        "́tì",
        -9.052194246070291
      ],
      [
        "tà",
        -9.053358176241627
      ],
      [
        "ẹ̀,",
        -9.055082202133027
      ],
      [
        "mba",
        -9.055266275020907
      ],
      [
        "pín",
        -9.057779536751209
      ],
      [
        "▁igb",
        -9.060870991249402
      ],
      [
        "ẹ̀dẹ",
        -9.061047190902443
      ],
      [
        "▁ọkọ",
        -9.06291366202179
      ],
      [
        "▁ìtọ",
        -9.063323502937209
      ],
      [
        "▁Ìf",
        -9.06526594225993
      ],
      [
        "oni",
        -9.068463553916583
      ],
      [
        "wá",
        -9.06933576698767
      ],
      [
        "▁Mo",
        -9.070484860965031
      ],
      [
        "▁Mi",
        -9.07156086290413
      ],
      [
        "rú",
        -9.072397107983345
      ],
      [
        "▁H",
        -9.072789305550298
      ],
      [
        "ríṣìí",
        -9.073822255472107
      ],
      [
        "▁ọ̀s",
        -9.078125687300803
      ],
      [
        "ójú",
        -9.079617842372171
      ],
      [
        "▁olù",
        -9.079872197525464
      ],
      [
        "▁197",
        -9.080589470169564
      ],
      [
        "sẹ",
        -9.080896648432033
      ],
      [
        "▁200",
        -9.08170765972524
      ],
      [
        "gb",
        -9.082504024329038
      ],
      [
        "ban",
        -9.083459022724377
      ],
      [
        "▁kíkọ",
        -9.083693631660152
      ],
      [
        "—",
        -9.08379780414669
      ],
      [
        "▁Copenhagen",
        -9.083938199850762
      ],
      [
        "▁Association",
        -9.083938199860365
      ],
      [
        "’",
        -9.083938199890559
      ],
      [
        "▁Vancouver",
        -9.08393819989056
      ],
      [
        "▁ìdàgbàsók",
        -9.083938215476243
      ],
      [
        "▁intaneeti",
        -9.083938216191727
      ],
      [
        "▁Berlin",
        -9.083938335975908
      ],
      [
        "▁mọ́kànlá",
        -9.083938351876556
      ],
      [
        "▁Atlant",
        -9.083938430552447
      ],
      [
        "▁¥",
        -9.083938505544788
      ],
      [
        "▁Disney",
        -9.083938570690888
      ],
      [
        "▁Black",
        -9.083938581129685
      ],
      [
        "▁Tours",
        -9.083938928900317
      ],
      [
        "▁dáadáa",
        -9.083941566548653
      ],
      [
        "▁Amazon",
        -9.083948935345244
      ],
      [
        "▁Igbimo",
        -9.083950733593863
      ],
      [
        "▁U.S",
        -9.083950760918007
      ],
      [
        "▁Faranse",
        -9.083952801998999
      ],
      [
        "ṣoṣo",
        -9.08395294805819
      ],
      [
        "▁Finland",
        -9.083969751543247
      ],
      [
        "▁Singapo",
        -9.083977327752715
      ],
      [
        "al",
        -9.083997713140052
      ],
      [
        "▁Amé",
        -9.08400171473719
      ],
      [
        "▁Faransé",
        -9.084048591038673
      ],
      [
        "▁àṣẹ",
        -9.084108299515938
      ],
      [
        "▁kekere",
        -9.084154341833363
      ],
      [
        "▁ìsàkós",
        -9.084158270929382
      ],
      [
        "64",
        -9.084213380605991
      ],
      [
        "▁Amẹ́ríkà",
        -9.084269948199008
      ],
      [
        "▁olùdìbò",
        -9.084324660669834
      ],
      [
        "▁USA",
        -9.08432530782718
      ],
      [
        "▁dojuk",
        -9.084336520226522
      ],
      [
        "istan",
        -9.084394249080866
      ],
      [
        "▁gígùn",
        -9.084548831400852
      ],
      [
        "burg",
        -9.084558800732403
      ],
      [
        "nrin",
        -9.084628608129647
      ],
      [
        "▁ẹranko",
        -9.084661872231708
      ],
      [
        "▁kuro",
        -9.084722705022457
      ],
      [
        "▁kọkànlá",
        -9.084725215873748
      ],
      [
        "▁ìhùwà",
        -9.084788796859081
      ],
      [
        "sinmi",
        -9.08483369354856
      ],
      [
        "▁Gbogb",
        -9.084993267025254
      ],
      [
        "▁burú",
        -9.085148353481419
      ],
      [
        "▁Aare",
        -9.085205274895397
      ],
      [
        "▁ṣàfi",
        -9.085386481456085
      ],
      [
        "ow",
        -9.085445541285349
      ],
      [
        "▁Europe",
        -9.085504261203274
      ],
      [
        "▁ọgọ́",
        -9.085534711361095
      ],
      [
        "▁ṣẹlẹ̀",
        -9.08554526545771
      ],
      [
        "▁Asia",
        -9.085563493762576
      ],
      [
        "▁gege",
        -9.085737178664806
      ],
      [
        "▁pàtó",
        -9.085838450054743
      ],
      [
        "▁mẹjọ",
        -9.085849141355617
      ],
      [
        "▁òsùp",
        -9.085863401127881
      ],
      [
        "▁òkèrè",
        -9.086289898552746
      ],
      [
        "▁ìyàw",
        -9.086299143406011
      ],
      [
        "ast",
        -9.086407762216929
      ],
      [
        "▁dada",
        -9.086413355434441
      ],
      [
        "▁Sche",
        -9.086669653259404
      ],
      [
        "▁ẹrẹ́",
        -9.087110456596578
      ],
      [
        "▁ìròyìn",
        -9.0871455182667
      ],
      [
        "9.",
        -9.087170404229765
      ],
      [
        "▁Dani",
        -9.08717683016045
      ],
      [
        "mìnira",
        -9.087654823243737
      ],
      [
        "▁mi)",
        -9.087690205509958
      ],
      [
        "▁ẹ̀yẹ",
        -9.08803349405644
      ],
      [
        "afe",
        -9.088583165204524
      ],
      [
        "▁mímu",
        -9.089003621623476
      ],
      [
        "ìrìn-àjò",
        -9.089052317899933
      ],
      [
        "▁Toki",
        -9.089181869578944
      ],
      [
        "▁Air",
        -9.0894712723029
      ],
      [
        "▁Gree",
        -9.0895358952473
      ],
      [
        "sàn",
        -9.089648271205201
      ],
      [
        "▁Okun",
        -9.089798489307078
      ],
      [
        "▁Nígbà",
        -9.090046738346095
      ],
      [
        "koko",
        -9.090055989241296
      ],
      [
        "vil",
        -9.091093175487929
      ],
      [
        "▁ajé",
        -9.091133680355165
      ],
      [
        "yípadà",
        -9.091545726212892
      ],
      [
        "▁ìgbár",
        -9.091791185158524
      ],
      [
        "▁ìsẹ̀l",
        -9.092249488636071
      ],
      [
        "éè",
        -9.092698397955454
      ],
      [
        "▁rugb",
        -9.092756055138658
      ],
      [
        "▁2017",
        -9.093016223550437
      ],
      [
        "▁sisa",
        -9.093976568094803
      ],
      [
        "▁awakọ",
        -9.09442221544962
      ],
      [
        "▁oti",
        -9.094958495523427
      ],
      [
        "▁ọgọ́rùn",
        -9.095669377260757
      ],
      [
        "▁fojú",
        -9.095998999237661
      ],
      [
        "▁kíkọ́",
        -9.096203615906214
      ],
      [
        "ọ̀wọ́",
        -9.096318807480005
      ],
      [
        "▁Del",
        -9.096326600389569
      ],
      [
        "▁tako",
        -9.096491175769245
      ],
      [
        "▁sábà",
        -9.097246060761423
      ],
      [
        "▁Ojú",
        -9.097445318495286
      ],
      [
        "▁igbó",
        -9.097765712056798
      ],
      [
        "goro",
        -9.098696375624003
      ],
      [
        "▁ìṣòr",
        -9.098749647065246
      ],
      [
        "▁ọlọ́",
        -9.098943280627129
      ],
      [
        "kọ",
        -9.099815466464474
      ],
      [
        "▁Kong",
        -9.099940474638585
      ],
      [
        "▁yíyà",
        -9.10068964012587
      ],
      [
        "ọ̀ǹ",
        -9.102762710006058
      ],
      [
        "dùn",
        -9.103202434840474
      ],
      [
        "▁Ìlà",
        -9.10380227663207
      ],
      [
        "ze",
        -9.104389066613921
      ],
      [
        "▁er",
        -9.104441491383938
      ],
      [
        "▁dọ́",
        -9.105083729245628
      ],
      [
        "▁Car",
        -9.105235034980787
      ],
      [
        "▁3",
        -9.105989625464538
      ],
      [
        "▁199",
        -9.107690288596759
      ],
      [
        "▁àlej",
        -9.108190384524558
      ],
      [
        "ew",
        -9.108274768329885
      ],
      [
        "yori",
        -9.10891419489789
      ],
      [
        "yípo",
        -9.110866447450425
      ],
      [
        "▁nípas",
        -9.110994921118904
      ],
      [
        "risi",
        -9.11144251854132
      ],
      [
        "▁keji",
        -9.112018890759657
      ],
      [
        "▁ògbó",
        -9.112643325959407
      ],
      [
        "òlù",
        -9.113076210263007
      ],
      [
        "tè",
        -9.11489328027327
      ],
      [
        "▁irinajo",
        -9.115404674828088
      ],
      [
        "láì",
        -9.115985015200431
      ],
      [
        "dri",
        -9.116308210188004
      ],
      [
        "òkó",
        -9.116356573776292
      ],
      [
        "▁1",
        -9.116803229813833
      ],
      [
        "ná",
        -9.117186688790373
      ],
      [
        "lókè",
        -9.118049525024745
      ],
      [
        "gbò",
        -9.11826570922204
      ],
      [
        "▁lágbára",
        -9.11840749462235
      ],
      [
        "▁Yúr",
        -9.11896999523027
      ],
      [
        "▁Hon",
        -9.120577737940609
      ],
      [
        "sàtún",
        -9.120942737907521
      ],
      [
        "bẹ́",
        -9.121532722562057
      ],
      [
        "▁gbangba",
        -9.122418718308369
      ],
      [
        "ìlẹ",
        -9.125289812070623
      ],
      [
        "▁àpẹrẹ",
        -9.126312788495348
      ],
      [
        "òro",
        -9.126892023922323
      ],
      [
        "▁Àgbáyé",
        -9.127139437765479
      ],
      [
        "▁Za",
        -9.127280176548268
      ],
      [
        "▁fìd",
        -9.127618787380491
      ],
      [
        "úmọ̀",
        -9.129941117667366
      ],
      [
        "▁ná",
        -9.130825850393554
      ],
      [
        "▁kà",
        -9.131879702474633
      ],
      [
        "son",
        -9.13269028133905
      ],
      [
        "rẹ",
        -9.134215403605985
      ],
      [
        "▁dídá",
        -9.13468687934131
      ],
      [
        "▁Ko",
        -9.136289433467823
      ],
      [
        "my",
        -9.137280895426738
      ],
      [
        "ròyìn",
        -9.137400513562971
      ],
      [
        "▁lójú",
        -9.137459563957076
      ],
      [
        "▁Par",
        -9.139976953312475
      ],
      [
        "▁dọ́l",
        -9.14068504763616
      ],
      [
        "▁wù",
        -9.141711210010069
      ],
      [
        "▁là",
        -9.144608504636157
      ],
      [
        "▁Ch",
        -9.144794231091845
      ],
      [
        "bii",
        -9.145023228375546
      ],
      [
        "▁iba",
        -9.145363058409087
      ],
      [
        "▁ìdí",
        -9.146946913532101
      ],
      [
        "▁mẹ́rìnl",
        -9.148487298660411
      ],
      [
        "▁fagi",
        -9.150240678772866
      ],
      [
        "▁imo",
        -9.151708447095237
      ],
      [
        "▁há",
        -9.153267699968413
      ],
      [
        "▁rín",
        -9.154048354292746
      ],
      [
        "...",
        -9.155330543442922
      ],
      [
        "▁níbẹ̀",
        -9.156053102836548
      ],
      [
        "▁Con",
        -9.156267209682639
      ],
      [
        "yal",
        -9.157944525615916
      ],
      [
        "▁Mid",
        -9.159570579619508
      ],
      [
        "▁òmíràn",
        -9.160179634009278
      ],
      [
        "ojuto",
        -9.161660752369068
      ],
      [
        "tion",
        -9.16210317144232
      ],
      [
        "àkós",
        -9.163347733938906
      ],
      [
        "▁ìpès",
        -9.163433104796146
      ],
      [
        "ẹ̀w",
        -9.16471992884081
      ],
      [
        "us",
        -9.165348553074919
      ],
      [
        "okanl",
        -9.166578798589931
      ],
      [
        "▁Po",
        -9.167250911729406
      ],
      [
        "▁Egb",
        -9.168966267814215
      ],
      [
        "▁ìdásí",
        -9.173543744052596
      ],
      [
        "▁àgbáyé,",
        -9.174877499382891
      ],
      [
        "▁elét",
        -9.177873778985921
      ],
      [
        "ck",
        -9.17896450673428
      ],
      [
        "▁ji",
        -9.185028359943217
      ],
      [
        "B",
        -9.18662943261742
      ],
      [
        "▁kíl",
        -9.1878110484328
      ],
      [
        "▁iṣẹ",
        -9.188220765982377
      ],
      [
        "sia",
        -9.18967760606327
      ],
      [
        "té",
        -9.191287140954476
      ],
      [
        "▁Jam",
        -9.191782716685207
      ],
      [
        "▁oun",
        -9.192586878643773
      ],
      [
        "▁ìdà",
        -9.196046374137339
      ],
      [
        "r.",
        -9.1970807094884
      ],
      [
        "▁Har",
        -9.197409703082212
      ],
      [
        "▁18",
        -9.197837536723954
      ],
      [
        "ori",
        -9.199663401919459
      ],
      [
        "▁apa",
        -9.202430237249446
      ],
      [
        "ten",
        -9.203282967471782
      ],
      [
        "fín",
        -9.203339160008388
      ],
      [
        "ame",
        -9.204145100777334
      ],
      [
        "wájú",
        -9.204515893490726
      ],
      [
        "▁aile",
        -9.20510086890257
      ],
      [
        "▁elér",
        -9.205505166066775
      ],
      [
        "osa",
        -9.207035558528718
      ],
      [
        "7,",
        -9.208488348023756
      ],
      [
        "ntar",
        -9.208635122834892
      ],
      [
        "▁aja",
        -9.210974982121522
      ],
      [
        "ns",
        -9.212307172080905
      ],
      [
        "7",
        -9.214754330807903
      ],
      [
        "avid",
        -9.215019486961836
      ],
      [
        "▁kede",
        -9.215403027484625
      ],
      [
        "▁Fi",
        -9.216116227752826
      ],
      [
        "asi",
        -9.216255318149688
      ],
      [
        "▁Àmọ́ṣ",
        -9.216891198256594
      ],
      [
        "ifagi",
        -9.217000520406298
      ],
      [
        "fo",
        -9.217068266234506
      ],
      [
        "ruku",
        -9.218463604883173
      ],
      [
        "▁tóbí",
        -9.219604229593159
      ],
      [
        "▁kọri",
        -9.219863495001013
      ],
      [
        "▁tak",
        -9.222146704316966
      ],
      [
        "▁oním",
        -9.223262795367727
      ],
      [
        "▁lẹ",
        -9.225727582923575
      ],
      [
        "ilẹ́",
        -9.226193675498276
      ],
      [
        "ph",
        -9.22677182945167
      ],
      [
        "▁okùn",
        -9.231203758222613
      ],
      [
        "vi",
        -9.231347676773664
      ],
      [
        "ójì",
        -9.232821295746968
      ],
      [
        "mín",
        -9.233688408538626
      ],
      [
        "hoo",
        -9.235114096858146
      ],
      [
        "▁Je",
        -9.235462624788614
      ],
      [
        "́n",
        -9.236711294452757
      ],
      [
        "▁àf",
        -9.237402662152146
      ],
      [
        "▁Wọ",
        -9.238181001060935
      ],
      [
        "sé",
        -9.238861485409968
      ],
      [
        "▁wi",
        -9.239429019226563
      ],
      [
        "▁fẹ̀",
        -9.24025038842644
      ],
      [
        "▁sùn",
        -9.241196705928022
      ],
      [
        "gbè",
        -9.243833537658269
      ],
      [
        "aja",
        -9.244316640005406
      ],
      [
        "emo",
        -9.244815822696594
      ],
      [
        "kẹ́",
        -9.245071259464767
      ],
      [
        "▁of",
        -9.247313397444858
      ],
      [
        "yọ",
        -9.248841433353899
      ],
      [
        "ìkan",
        -9.250665117274737
      ],
      [
        "▁gbó",
        -9.251361959487449
      ],
      [
        "▁èr",
        -9.25247035249137
      ],
      [
        "▁De",
        -9.254020860336583
      ],
      [
        "ọ́ọ̀",
        -9.256109157469757
      ],
      [
        "ooki",
        -9.25909559185902
      ],
      [
        "A",
        -9.262893837922054
      ],
      [
        "▁ẹ̀r",
        -9.26433504879937
      ],
      [
        "▁Gor",
        -9.26511289731027
      ],
      [
        "▁àpap",
        -9.26691807003984
      ],
      [
        "sílè",
        -9.267272880458467
      ],
      [
        "sán",
        -9.267483933421104
      ],
      [
        "▁du",
        -9.268753538113497
      ],
      [
        "ng",
        -9.270306638611775
      ],
      [
        "o,",
        -9.27130123492362
      ],
      [
        "▁2",
        -9.27236008165082
      ],
      [
        "orí",
        -9.274858308407872
      ],
      [
        "ning",
        -9.277509437196306
      ],
      [
        "kin",
        -9.278071879361406
      ],
      [
        "jàkadì",
        -9.278702362300036
      ],
      [
        "▁wiw",
        -9.283465311665188
      ],
      [
        "ìjìnlẹ",
        -9.28357217082381
      ],
      [
        "▁sọ́",
        -9.283634381777114
      ],
      [
        "dè",
        -9.287052186310673
      ],
      [
        "dal",
        -9.288194235730092
      ],
      [
        "ve",
        -9.289237360011894
      ],
      [
        "▁aye",
        -9.290057746019263
      ],
      [
        "▁mó",
        -9.290557080661305
      ],
      [
        "ejo",
        -9.292760216817632
      ],
      [
        "irin",
        -9.29376254400953
      ],
      [
        "▁Tra",
        -9.294951389402646
      ],
      [
        "▁elé",
        -9.2983294017473
      ],
      [
        "ks",
        -9.299753070543357
      ],
      [
        "ure",
        -9.300593233299695
      ],
      [
        "eni",
        -9.303156334295815
      ],
      [
        "ánmọ́",
        -9.305683896152905
      ],
      [
        "gbon",
        -9.308265061514069
      ],
      [
        "▁Mar",
        -9.309737267150279
      ],
      [
        "ẹrẹ",
        -9.311457227403594
      ],
      [
        "▁ọ̀rọ",
        -9.320640261286698
      ],
      [
        "▁Pi",
        -9.322232509194269
      ],
      [
        "oti",
        -9.323560102399746
      ],
      [
        "▁àw",
        -9.323825811098773
      ],
      [
        "bodè",
        -9.325275798965414
      ],
      [
        "▁ẹ̀y",
        -9.325775315088064
      ],
      [
        "▁Nor",
        -9.32591343137275
      ],
      [
        "▁Pu",
        -9.326858528169142
      ],
      [
        "▁ẹsẹ̀",
        -9.327905642496601
      ],
      [
        "00",
        -9.330660050134629
      ],
      [
        "rinajo",
        -9.335016817202439
      ],
      [
        "▁Ààr",
        -9.33528963212828
      ],
      [
        "▁án",
        -9.336162602994797
      ],
      [
        "ọ̀dún",
        -9.336651342772416
      ],
      [
        "▁lera",
        -9.34434695221795
      ],
      [
        "yẹ́",
        -9.346817019260396
      ],
      [
        "iwa",
        -9.34856831029786
      ],
      [
        "old",
        -9.3498444407641
      ],
      [
        "aarun",
        -9.3513115058864
      ],
      [
        "▁me",
        -9.354562030064205
      ],
      [
        "▁onír",
        -9.35509672611668
      ],
      [
        "ọdún",
        -9.356260955646436
      ],
      [
        "▁Na",
        -9.3563738003505
      ],
      [
        "▁daa",
        -9.357319607285199
      ],
      [
        "sale",
        -9.357409859170101
      ],
      [
        "su",
        -9.357985337451437
      ],
      [
        "▁pí",
        -9.362479278041349
      ],
      [
        "▁Bri",
        -9.363711638500039
      ],
      [
        "▁Han",
        -9.367239660620632
      ],
      [
        "▁be",
        -9.36854231842517
      ],
      [
        "▁tẹ̀l",
        -9.369211102353995
      ],
      [
        "òrùn",
        -9.371243986617722
      ],
      [
        "▁pip",
        -9.372468105880786
      ],
      [
        "▁Ẹgb",
        -9.377792921287766
      ],
      [
        "pago",
        -9.378760734614522
      ],
      [
        "▁pap",
        -9.38029720305456
      ],
      [
        "▁inu",
        -9.383265523524605
      ],
      [
        "▁Aṣ",
        -9.384324696409742
      ],
      [
        "be",
        -9.386096227174288
      ],
      [
        "▁fẹ́r",
        -9.38633470937585
      ],
      [
        "shin",
        -9.386734407820407
      ],
      [
        "ọ̀lù",
        -9.387298631456655
      ],
      [
        "írò",
        -9.38945903699815
      ],
      [
        "▁Are",
        -9.391339798900272
      ],
      [
        "▁ṣí",
        -9.392484061281827
      ],
      [
        "▁kú",
        -9.393367092026349
      ],
      [
        "lọ́wọ́",
        -9.393807511324857
      ],
      [
        "▁àtí",
        -9.396591767208111
      ],
      [
        "▁ṣi",
        -9.399440586003818
      ],
      [
        "dar",
        -9.399877253734164
      ],
      [
        "▁al",
        -9.404789584666771
      ],
      [
        "wúr",
        -9.404872285984332
      ],
      [
        "bì",
        -9.405295834192849
      ],
      [
        "▁Sh",
        -9.405333020764939
      ],
      [
        "léní",
        -9.406294451263662
      ],
      [
        "àdán",
        -9.407890559628868
      ],
      [
        "ón",
        -9.408488267268584
      ],
      [
        "yara",
        -9.412221368814338
      ],
      [
        "▁lọ,",
        -9.413998683998415
      ],
      [
        "figagb",
        -9.416298671047048
      ],
      [
        "ọ̀tọ̀",
        -9.417352789979635
      ],
      [
        "ove",
        -9.41792598154128
      ],
      [
        "▁fọ́",
        -9.41983531252678
      ],
      [
        "nzan",
        -9.42035479231475
      ],
      [
        "▁Ki",
        -9.421330948256925
      ],
      [
        "▁ago",
        -9.422568889200262
      ],
      [
        "▁àtì",
        -9.42628958976996
      ],
      [
        "▁et",
        -9.426576206653692
      ],
      [
        "nká",
        -9.426818529922686
      ],
      [
        "ípadà",
        -9.430715645151695
      ],
      [
        "▁lọ́pọ̀",
        -9.43193287043684
      ],
      [
        "▁ikọ",
        -9.433028056984828
      ],
      [
        "èyí",
        -9.433651249254677
      ],
      [
        "▁abẹ",
        -9.434561984901077
      ],
      [
        "N",
        -9.436460359187809
      ],
      [
        "▁Tr",
        -9.437649403842048
      ],
      [
        "tẹ́lẹ̀",
        -9.441487211306422
      ],
      [
        "méjì",
        -9.441879903372165
      ],
      [
        "▁ìk",
        -9.443941742355825
      ],
      [
        "ìgbésẹ̀",
        -9.444389799854719
      ],
      [
        "▁Le",
        -9.445606808698805
      ],
      [
        "▁aláṣẹ",
        -9.44614925548602
      ],
      [
        "ẹgbẹ̀rún",
        -9.447616353456551
      ],
      [
        "▁nitor",
        -9.448150942443567
      ],
      [
        "▁ogbon",
        -9.44957073275102
      ],
      [
        "gi",
        -9.450147312885127
      ],
      [
        "v",
        -9.450455420651755
      ],
      [
        "afẹ́",
        -9.450714292853167
      ],
      [
        "mun",
        -9.450857598538454
      ],
      [
        "nígbà",
        -9.451103619434424
      ],
      [
        "▁dar",
        -9.451328212643304
      ],
      [
        "▁Su",
        -9.452426634398535
      ],
      [
        "▁iri",
        -9.45284053276576
      ],
      [
        "nce",
        -9.452988898565945
      ],
      [
        "ket",
        -9.45385578680653
      ],
      [
        "wọlé",
        -9.455416563750957
      ],
      [
        "te",
        -9.458216692032792
      ],
      [
        "ìdì",
        -9.458392977859665
      ],
      [
        "▁mẹ",
        -9.459409169510646
      ],
      [
        "bó",
        -9.460825857891061
      ],
      [
        "wọ́pọ̀",
        -9.462528998216742
      ],
      [
        "tro",
        -9.468891608520412
      ],
      [
        "▁ya",
        -9.46944882377211
      ],
      [
        "agba",
        -9.470529771675263
      ],
      [
        "eli",
        -9.472926120498963
      ],
      [
        "sojú",
        -9.473280543589993
      ],
      [
        "mani",
        -9.474580316344813
      ],
      [
        "ẹẹ",
        -9.479945747541693
      ],
      [
        "▁yíy",
        -9.4813709330014
      ],
      [
        "▁Ke",
        -9.48147792518605
      ],
      [
        "e”",
        -9.482000206821649
      ],
      [
        "▁Sant",
        -9.482167813709491
      ],
      [
        "àdí",
        -9.482277312819532
      ],
      [
        "pọ",
        -9.489575517121212
      ],
      [
        "▁kalẹ̀",
        -9.490339138492649
      ],
      [
        "▁ìwá",
        -9.491274001917072
      ],
      [
        "at",
        -9.496018299023016
      ],
      [
        "ranko",
        -9.497219115153857
      ],
      [
        "du",
        -9.49722704259074
      ],
      [
        "▁rọ̀",
        -9.49799794095276
      ],
      [
        "▁ṣè",
        -9.498952656357604
      ],
      [
        "▁ap",
        -9.501985979200386
      ],
      [
        "pin",
        -9.50224468553182
      ],
      [
        "▁Gran",
        -9.503106501165055
      ],
      [
        "▁àsì",
        -9.505843111834354
      ],
      [
        "nda",
        -9.506784733914435
      ],
      [
        "nyí",
        -9.508122118217477
      ],
      [
        "▁dandan",
        -9.513352934352348
      ],
      [
        "500",
        -9.513883511239749
      ],
      [
        "▁agbá",
        -9.515862642700446
      ],
      [
        "▁Da",
        -9.516026871284739
      ],
      [
        "ìrì",
        -9.51609565376974
      ],
      [
        "shi",
        -9.516216297070013
      ],
      [
        "ìlera",
        -9.524676469828432
      ],
      [
        "rúkọ",
        -9.52489743546543
      ],
      [
        "fún",
        -9.525167346255854
      ],
      [
        "una",
        -9.525760601042531
      ],
      [
        "▁ìpè",
        -9.525992550397913
      ],
      [
        "▁bé",
        -9.527282689573982
      ],
      [
        "rch",
        -9.528434894997355
      ],
      [
        "padà",
        -9.528652732914448
      ],
      [
        "▁yì",
        -9.533324563919575
      ],
      [
        "ngo",
        -9.534988443762114
      ],
      [
        "ica",
        -9.53769681363736
      ],
      [
        "▁tik",
        -9.538422506153212
      ],
      [
        "▁Bo",
        -9.541083169422995
      ],
      [
        "elu",
        -9.544102650100156
      ],
      [
        "há",
        -9.544171989792611
      ],
      [
        "bà",
        -9.544788927924495
      ],
      [
        "ẹ̀rẹ̀",
        -9.546373167727932
      ],
      [
        "am",
        -9.549438283051051
      ],
      [
        "▁Akọ",
        -9.550120313024658
      ],
      [
        "farap",
        -9.550204568989708
      ],
      [
        "▁lil",
        -9.555805570731604
      ],
      [
        "ag",
        -9.555852107148752
      ],
      [
        "▁fara",
        -9.556101419459734
      ],
      [
        "▁ìpa",
        -9.55949320270978
      ],
      [
        "gh",
        -9.560524007154354
      ],
      [
        "àtọ̀",
        -9.562143493448701
      ],
      [
        "▁ilẹ",
        -9.564796204979205
      ],
      [
        "az",
        -9.565051721596097
      ],
      [
        "▁olór",
        -9.565194522480086
      ],
      [
        "ir",
        -9.565500815550973
      ],
      [
        "adì",
        -9.569045320400367
      ],
      [
        "▁Bra",
        -9.569377028407576
      ],
      [
        "láti",
        -9.570334452563
      ],
      [
        "▁All",
        -9.571100815295264
      ],
      [
        "ters",
        -9.571312069117008
      ],
      [
        "yá",
        -9.572415555018651
      ],
      [
        "òmíràn",
        -9.572433234019336
      ],
      [
        "▁ele",
        -9.572915058797534
      ],
      [
        "▁ìfà",
        -9.57299178952992
      ],
      [
        "▁ṣùgbọ",
        -9.573326925241583
      ],
      [
        "bìnrin",
        -9.575204377403022
      ],
      [
        "àwọ",
        -9.576108996227253
      ],
      [
        "▁Agb",
        -9.576366135187929
      ],
      [
        "bewo",
        -9.578039506480057
      ],
      [
        "▁àmọ",
        -9.580054363931755
      ],
      [
        "▁ẹgbẹ",
        -9.5801830999394
      ],
      [
        "▁èk",
        -9.58052338710845
      ],
      [
        "rìnrìnàj",
        -9.580725997561954
      ],
      [
        "▁àjùmọ",
        -9.581304442607246
      ],
      [
        "ü",
        -9.582130137469585
      ],
      [
        "▁German",
        -9.582242558941106
      ],
      [
        "bẹ",
        -9.582305819596144
      ],
      [
        "Net",
        -9.58383838510342
      ],
      [
        "dije",
        -9.583904978604956
      ],
      [
        "▁Whitehall",
        -9.583938199850628
      ],
      [
        "▁Devonport",
        -9.583938199860436
      ],
      [
        "▁ZMapp",
        -9.583938199871142
      ],
      [
        "X",
        -9.583938199890557
      ],
      [
        "'",
        -9.58393819989056
      ],
      [
        "–",
        -9.58393819989056
      ],
      [
        "!",
        -9.58393819989056
      ],
      [
        "?",
        -9.58393819989056
      ],
      [
        "▁amóhùnmáwòrán",
        -9.58393819989056
      ],
      [
        "H5N1",
        -9.583938199894877
      ],
      [
        "▁Colbert",
        -9.58393819990959
      ],
      [
        "ḿpìlì",
        -9.583938199972367
      ],
      [
        "▁Fallujah",
        -9.583938200004393
      ],
      [
        "▁rògbòdìyàn",
        -9.583938200087506
      ],
      [
        "▁Frontiere",
        -9.583938200111081
      ],
      [
        "▁ayelujara",
        -9.583938201921516
      ],
      [
        "ọ́kàndínlọ́gbọ̀n",
        -9.583938202060665
      ],
      [
        "▁dẹ́ẹ́dẹ́ẹ́",
        -9.583938203799736
      ],
      [
        "▁Nintendo",
        -9.583938204092329
      ],
      [
        "▁Republica",
        -9.583938204997445
      ],
      [
        "▁Armenian",
        -9.58393823804529
      ],
      [
        "stanbul",
        -9.583938259633054
      ],
      [
        "ntarctic",
        -9.58393827410285
      ],
      [
        "pohùnpọ̀",
        -9.58393827978493
      ],
      [
        "▁Stewart",
        -9.583938296456209
      ],
      [
        "▁sàpéjúw",
        -9.583938307843122
      ],
      [
        "▁Tasmania",
        -9.583938309394004
      ],
      [
        "▁èbúté",
        -9.583938310228541
      ],
      [
        "Simpson",
        -9.583938370386747
      ],
      [
        "▁Slalom",
        -9.583938390694062
      ],
      [
        "▁Italy",
        -9.58393853028332
      ],
      [
        "▁Argentin",
        -9.58393853312678
      ],
      [
        "▁sayensi",
        -9.58393857496744
      ],
      [
        "▁Filipi",
        -9.583938654312208
      ],
      [
        "▁olókoòwò",
        -9.583938662122087
      ],
      [
        "▁Iceland",
        -9.583938704193274
      ],
      [
        "▁Bobek",
        -9.58393876432184
      ],
      [
        "▁Fenand",
        -9.58393925404132
      ],
      [
        "▁Croatia",
        -9.583939367769833
      ],
      [
        "▁Utah",
        -9.583940271837903
      ],
      [
        "▁òdòdó",
        -9.58394091952894
      ],
      [
        "▁Johanu",
        -9.583941344473946
      ],
      [
        "▁ìrànlọ́wọ́",
        -9.58394158512497
      ],
      [
        "▁òṣùpá",
        -9.583943966705089
      ],
      [
        "▁ìmúlò",
        -9.583944251720707
      ],
      [
        "▁aṣíkiri",
        -9.583946923567112
      ],
      [
        "▁óúnjẹ́",
        -9.5839488943485
      ],
      [
        "▁bàálù",
        -9.583949742455852
      ],
      [
        "▁petele",
        -9.583951795123678
      ],
      [
        "▁London",
        -9.583952347425361
      ],
      [
        "kọ́ṣẹ́mọṣẹ́",
        -9.583952675490789
      ],
      [
        "akitiyan",
        -9.58395389042279
      ],
      [
        "fùkẹ̀",
        -9.58395677111637
      ],
      [
        "NBA",
        -9.583963287576811
      ],
      [
        "gẹ̀rẹ́",
        -9.583966256736463
      ],
      [
        "acific",
        -9.58396745814493
      ],
      [
        "▁Hsie",
        -9.58397216964215
      ],
      [
        "▁gbámús",
        -9.58397247504713
      ],
      [
        "aspian",
        -9.583977017432542
      ],
      [
        "▁lẹ́sẹ̀",
        -9.583980727373959
      ],
      [
        "▁súnkẹrẹ",
        -9.583984302906066
      ],
      [
        "▁Bẹ́ẹ̀",
        -9.583985735530224
      ],
      [
        "▁gbajúgbaj",
        -9.583986517425718
      ],
      [
        "mohunmaworan",
        -9.583990128444723
      ],
      [
        "▁Slov",
        -9.583994632765002
      ],
      [
        "▁Onega",
        -9.583998779156666
      ],
      [
        "▁méta",
        -9.584007147732697
      ],
      [
        "▁méjèèj",
        -9.584009723757337
      ],
      [
        "▁giga",
        -9.584022088369839
      ],
      [
        "▁ìbániroj",
        -9.5840251121315
      ],
      [
        "▁rádíò",
        -9.58403734827121
      ],
      [
        "cords",
        -9.58403852089652
      ],
      [
        "▁2020",
        -9.584046132067096
      ],
      [
        "▁wákàtí",
        -9.584070797622275
      ],
      [
        "▁Osumo",
        -9.584086237933034
      ],
      [
        "▁ìdíjé",
        -9.584113149632616
      ],
      [
        "▁Kings",
        -9.58413453325018
      ],
      [
        "▁lọ́pọ́",
        -9.58413495017439
      ],
      [
        "▁Jesu",
        -9.584165536619633
      ],
      [
        "▁ìròyìn—",
        -9.58416750993991
      ],
      [
        "▁World",
        -9.58417380799241
      ],
      [
        "▁Massa",
        -9.584174630878001
      ],
      [
        "▁ọ̀gbìn",
        -9.584178022812317
      ],
      [
        "76",
        -9.584186322638072
      ],
      [
        "▁Krist",
        -9.58419563498625
      ],
      [
        "léláàdọ́ta",
        -9.584216457987969
      ],
      [
        "▁tèmi",
        -9.584221881320362
      ],
      [
        "gànrà",
        -9.584276759760462
      ],
      [
        "▁Titun",
        -9.584299377118748
      ],
      [
        "bẹnu",
        -9.584321790826756
      ],
      [
        "▁union",
        -9.584330129363408
      ],
      [
        "▁guusu",
        -9.584357509536016
      ],
      [
        "ssar",
        -9.584377657299632
      ],
      [
        "▁aṣòfin",
        -9.584382489206419
      ],
      [
        "▁km2",
        -9.58438769509001
      ],
      [
        "ginjù",
        -9.584391604219094
      ],
      [
        "▁2010",
        -9.584451885166894
      ],
      [
        "▁tutù",
        -9.584456428285241
      ],
      [
        "▁State",
        -9.584467234817627
      ],
      [
        "▁Alex",
        -9.584477402597678
      ],
      [
        "order",
        -9.584478601205927
      ],
      [
        "ẹ̀gbẹ̀",
        -9.584480957515458
      ],
      [
        "▁ewék",
        -9.58448145418069
      ],
      [
        "▁léwu",
        -9.584494280307363
      ],
      [
        "▁Bákan",
        -9.584519598649022
      ],
      [
        "▁ohùn",
        -9.58455224155977
      ],
      [
        "▁2000",
        -9.584553414719762
      ],
      [
        "II",
        -9.584595128216712
      ],
      [
        "▁àfikún",
        -9.584600114410533
      ],
      [
        "▁Koria",
        -9.584611025864236
      ],
      [
        "SW",
        -9.584617346088562
      ],
      [
        "▁gbẹ̀yìn",
        -9.584638747264352
      ],
      [
        "▁jabo",
        -9.584693762232924
      ],
      [
        "▁Balti",
        -9.584741677811099
      ],
      [
        "▁Angol",
        -9.58474849337068
      ],
      [
        "▁lẹ́ẹ̀k",
        -9.584753545217511
      ],
      [
        "250",
        -9.584777266889212
      ],
      [
        "▁Lóòótọ́",
        -9.58485751976824
      ],
      [
        "▁júlọ",
        -9.58486564267052
      ],
      [
        "“K",
        -9.58488672035068
      ],
      [
        "▁“Ì",
        -9.584919891232751
      ],
      [
        "▁méjìdín",
        -9.58501578904681
      ],
      [
        "boogi",
        -9.585042463291291
      ],
      [
        "▁Romn",
        -9.585054351013493
      ],
      [
        "▁ọlọ",
        -9.585068854781245
      ],
      [
        "▁super-G",
        -9.585095366369123
      ],
      [
        "▁méjìdínlógún",
        -9.585108002953971
      ],
      [
        "▁194",
        -9.585174704593763
      ],
      [
        "▁alájọ",
        -9.585261544704556
      ],
      [
        "▁gíg",
        -9.585308799950043
      ],
      [
        "▁gbogbogbo",
        -9.585311591199194
      ],
      [
        "ríwá",
        -9.58540279552133
      ],
      [
        "▁ẹnubodè",
        -9.585449023304392
      ],
      [
        "(F",
        -9.585554533409816
      ],
      [
        "▁bhajans",
        -9.585628580250976
      ],
      [
        "ATA",
        -9.585640184911368
      ],
      [
        "ẹ̀ẹ́d",
        -9.585669376622679
      ],
      [
        "▁Trans",
        -9.585716333894112
      ],
      [
        "üm",
        -9.585749444003113
      ],
      [
        "ester",
        -9.585821127609835
      ],
      [
        "cco",
        -9.585822041467962
      ],
      [
        "port",
        -9.585871237953958
      ],
      [
        "▁Feli",
        -9.585959075514879
      ],
      [
        "▁aláìsàn",
        -9.586059007452661
      ],
      [
        "▁16",
        -9.58608898304429
      ],
      [
        "áàdọ́ta",
        -9.586095992060992
      ],
      [
        "ríkà",
        -9.586305556772981
      ],
      [
        "▁PA",
        -9.586345944274008
      ],
      [
        "▁Orílẹ̀",
        -9.586347937344952
      ],
      [
        "▁ọdun",
        -9.58637610769387
      ],
      [
        "ọ́jọ́",
        -9.586406817979531
      ],
      [
        "▁àjùmọ̀",
        -9.586598411101074
      ],
      [
        "▁sókè",
        -9.586631211106688
      ],
      [
        "▁irék",
        -9.586635079363505
      ],
      [
        "▁lẹ́sẹ̀k",
        -9.5867027373095
      ],
      [
        "▁ọjọ",
        -9.586716573741601
      ],
      [
        "▁Ove",
        -9.586731318571351
      ],
      [
        "-afẹ́",
        -9.58689624021727
      ],
      [
        "▁gbigbé",
        -9.586912284509989
      ],
      [
        "ger",
        -9.586989908644089
      ],
      [
        "▁dàgbà",
        -9.587013928789723
      ],
      [
        "▁mórí",
        -9.587103050988242
      ],
      [
        "▁yọrí",
        -9.587209471261202
      ],
      [
        "▁Okunrin",
        -9.587218584837412
      ],
      [
        "lódé",
        -9.587220739654256
      ],
      [
        "▁Awak",
        -9.587231485488752
      ],
      [
        "▁àárọ̀",
        -9.587276496800863
      ],
      [
        "▁ìfẹ̀hónú",
        -9.587348091076262
      ],
      [
        "cent",
        -9.587570840501662
      ],
      [
        "léré",
        -9.587628175764086
      ],
      [
        "sẹẹsẹ",
        -9.58765155452247
      ],
      [
        "▁2006",
        -9.58767124330663
      ],
      [
        "▁Reid",
        -9.5878470632991
      ],
      [
        "ball",
        -9.588212791035307
      ],
      [
        "▁“G",
        -9.588234681348842
      ],
      [
        "▁Ve",
        -9.588344763186287
      ],
      [
        "pẹ́kí",
        -9.588498084480467
      ],
      [
        "▁aláwọ̀",
        -9.58871942903378
      ],
      [
        "fokiri",
        -9.58897923900674
      ],
      [
        "▁Ija",
        -9.589043122712475
      ],
      [
        "▁Síbẹ̀",
        -9.589125653289125
      ],
      [
        "▁orísìí",
        -9.589564350662997
      ],
      [
        "múra",
        -9.589612996850459
      ],
      [
        "▁Koko",
        -9.58962190780108
      ],
      [
        "▁yato",
        -9.589715309368055
      ],
      [
        "▁1979",
        -9.589722804695
      ],
      [
        "▁ọgbẹ́",
        -9.589812706716458
      ],
      [
        "▁ọwọ",
        -9.58983747342336
      ],
      [
        "▁Fran",
        -9.58984706356539
      ],
      [
        "àjà",
        -9.590137464159518
      ],
      [
        "▁Rus",
        -9.590205191372965
      ],
      [
        "▁moto",
        -9.590372894980163
      ],
      [
        "5-",
        -9.590760516334177
      ],
      [
        "▁mẹ́tà",
        -9.59083164705209
      ],
      [
        "▁àm",
        -9.591184823061132
      ],
      [
        "▁mule",
        -9.591214600239805
      ],
      [
        "lion",
        -9.591309623191355
      ],
      [
        "ulka",
        -9.591399386827693
      ],
      [
        "erindinlogo",
        -9.591958405007478
      ],
      [
        "kóór",
        -9.59203070510083
      ],
      [
        "rìnrìn-àjò",
        -9.592227114396831
      ],
      [
        "▁Sul",
        -9.592441460573134
      ],
      [
        "▁díè",
        -9.592547575596143
      ],
      [
        "▁ìfọwọ́",
        -9.593044551147695
      ],
      [
        "àtúntò",
        -9.593072739276543
      ],
      [
        "▁Mit",
        -9.593142397978728
      ],
      [
        "▁táb",
        -9.593151986610625
      ],
      [
        "▁àsọtẹ",
        -9.593662014861007
      ],
      [
        "tell",
        -9.594109995710948
      ],
      [
        "▁nítorínà",
        -9.594198411803058
      ],
      [
        "▁Ott",
        -9.594204036881461
      ],
      [
        "olog",
        -9.594295571903732
      ],
      [
        "tura",
        -9.594398581460696
      ],
      [
        "▁AC",
        -9.595087702404587
      ],
      [
        "▁Lu",
        -9.595144043654948
      ],
      [
        "▁ẹlẹ́gb",
        -9.595544941949317
      ],
      [
        "riṣi",
        -9.595760544524708
      ],
      [
        "▁Mej",
        -9.596087873801608
      ],
      [
        "MS",
        -9.596165188701619
      ],
      [
        "▁àkók",
        -9.596517343468452
      ],
      [
        "6",
        -9.59689167620422
      ],
      [
        "▁Fun",
        -9.596967621433462
      ],
      [
        "urú",
        -9.597081591038311
      ],
      [
        "▁ìbáni",
        -9.597251147106899
      ],
      [
        "gbègbè",
        -9.597263972407719
      ],
      [
        "▁ilé-i",
        -9.597720399817447
      ],
      [
        "▁Iwa",
        -9.597893714402694
      ],
      [
        "▁Jẹ",
        -9.597948866648222
      ],
      [
        "▁Alb",
        -9.598135824064888
      ],
      [
        "▁Ham",
        -9.59824481259973
      ],
      [
        "▁ìpin",
        -9.598768537720039
      ],
      [
        "ebu",
        -9.59918031678434
      ],
      [
        "▁ìlà-",
        -9.59923271040529
      ],
      [
        "▁sagbe",
        -9.599574035447707
      ],
      [
        "man",
        -9.600320673834005
      ],
      [
        "▁olùf",
        -9.600469698754488
      ],
      [
        "▁Hun",
        -9.600773867927476
      ],
      [
        "zon",
        -9.600971944599653
      ],
      [
        "▁oríṣìí",
        -9.601193206425197
      ],
      [
        "yàw",
        -9.601450658973462
      ],
      [
        "lọ",
        -9.601597504422937
      ],
      [
        "odo",
        -9.601721230778308
      ],
      [
        "▁Ìpin",
        -9.601981577214572
      ],
      [
        "▁ìsún",
        -9.602048367414985
      ],
      [
        "▁ìtu",
        -9.602357609139418
      ],
      [
        "▁Mau",
        -9.602652621375057
      ],
      [
        "▁ìgbè",
        -9.602886531547389
      ],
      [
        "▁ọ́f",
        -9.602911251706429
      ],
      [
        "▁ìgbá",
        -9.603230942548723
      ],
      [
        "▁erek",
        -9.603285651252577
      ],
      [
        "ound",
        -9.603366953314303
      ],
      [
        "▁ọ̀tà",
        -9.60399877443143
      ],
      [
        "▁àyọ",
        -9.604222701509103
      ],
      [
        "▁kere",
        -9.604598911582332
      ],
      [
        "onírìn",
        -9.604806799354886
      ],
      [
        "▁Ed",
        -9.604943087011854
      ],
      [
        "▁ẹ̀dọ̀",
        -9.605090483655157
      ],
      [
        "egs",
        -9.605920349705418
      ],
      [
        "▁Láì",
        -9.606965808693285
      ],
      [
        "▁Pal",
        -9.6069659610604
      ],
      [
        "▁ìbà",
        -9.607126442570856
      ],
      [
        "̣",
        -9.6071808178988
      ],
      [
        "ríko",
        -9.607214387148298
      ],
      [
        "▁fàá",
        -9.60739818522978
      ],
      [
        "▁lójoj",
        -9.607716928092312
      ],
      [
        "▁Alli",
        -9.608206579784051
      ],
      [
        "6.",
        -9.609421194418102
      ],
      [
        "▁Jon",
        -9.60954194476449
      ],
      [
        "▁As",
        -9.609587522474548
      ],
      [
        "▁ìnira",
        -9.610513594610556
      ],
      [
        "amo",
        -9.61068475701603
      ],
      [
        "doga",
        -9.61120962862377
      ],
      [
        "▁toka",
        -9.611290734436743
      ],
      [
        "ipada",
        -9.611314412658167
      ],
      [
        "▁Obi",
        -9.611369204130682
      ],
      [
        "▁sàt",
        -9.611487789186153
      ],
      [
        "▁akọ",
        -9.611569152066778
      ],
      [
        "▁Ru",
        -9.61179844755377
      ],
      [
        "▁Ìgbà",
        -9.61190865410906
      ],
      [
        "yàrá",
        -9.61232705341752
      ],
      [
        "▁mí",
        -9.612390411940176
      ],
      [
        "furuf",
        -9.613056358128311
      ],
      [
        "yíká",
        -9.61319072658358
      ],
      [
        "▁Dr",
        -9.613270073000656
      ],
      [
        "▁Pale",
        -9.613307306481353
      ],
      [
        "▁àádọ́",
        -9.61355262603719
      ],
      [
        "▁90",
        -9.614026094099511
      ],
      [
        "▁Art",
        -9.614027679462302
      ],
      [
        "▁kanna",
        -9.614082092658098
      ],
      [
        "ẹ́ńt",
        -9.614449637152614
      ],
      [
        "--",
        -9.614571467181026
      ],
      [
        "▁20",
        -9.614863189621788
      ],
      [
        "▁kọja",
        -9.615805574626407
      ],
      [
        "▁par",
        -9.617604527961953
      ],
      [
        "▁ibùs",
        -9.618594194935326
      ],
      [
        "▁ìfún",
        -9.618775783433316
      ],
      [
        "▁lóór",
        -9.61897018158765
      ],
      [
        "▁ìdúrós",
        -9.61918890643511
      ],
      [
        "▁Pẹl",
        -9.619378471189165
      ],
      [
        "ley",
        -9.620207457879836
      ],
      [
        "▁Ty",
        -9.620407303343594
      ],
      [
        "▁arìn",
        -9.6206594515551
      ],
      [
        "/a",
        -9.621458354767062
      ],
      [
        "kìk",
        -9.621498514606156
      ],
      [
        "parí",
        -9.621803951783354
      ],
      [
        "omu",
        -9.622025131544302
      ],
      [
        "▁epo",
        -9.62202725913689
      ],
      [
        "▁agbáb",
        -9.62273256186485
      ],
      [
        "dẹ́",
        -9.622850867002695
      ],
      [
        "nite",
        -9.623200097698307
      ],
      [
        "àsì",
        -9.623828732571889
      ],
      [
        "-ì",
        -9.624254663489134
      ],
      [
        "miin",
        -9.624530666631177
      ],
      [
        "▁Irin",
        -9.625368821291362
      ],
      [
        "pu",
        -9.625697143829388
      ],
      [
        "stin",
        -9.626133704523545
      ],
      [
        "ora",
        -9.626212224816914
      ],
      [
        "▁ìwọ̀",
        -9.62654658656197
      ],
      [
        "jẹmọ́",
        -9.6267202392969
      ],
      [
        "kẹrẹ",
        -9.627789527973833
      ],
      [
        "nisọ́",
        -9.629076850565486
      ],
      [
        "▁àtijọ́",
        -9.629515960260184
      ],
      [
        "▁àko",
        -9.63009430911215
      ],
      [
        "▁kẹje",
        -9.630905721382556
      ],
      [
        "tẹ̀",
        -9.631788457907035
      ],
      [
        "ine",
        -9.632577917657477
      ],
      [
        "gbọ̀n",
        -9.632723183710448
      ],
      [
        "mọṣẹ́",
        -9.633066555103618
      ],
      [
        "▁Pen",
        -9.633639979174307
      ],
      [
        "▁bọ",
        -9.634499578701766
      ],
      [
        "000",
        -9.634988288838276
      ],
      [
        "▁ìd",
        -9.635867888212356
      ],
      [
        "ida",
        -9.635868300106349
      ],
      [
        "▁Mari",
        -9.636290579439175
      ],
      [
        "agu",
        -9.636397141586153
      ],
      [
        "garia",
        -9.637386747479688
      ],
      [
        "▁àgb",
        -9.638253761174775
      ],
      [
        "▁ìwà",
        -9.638415062488091
      ],
      [
        "▁àlé",
        -9.638805475543787
      ],
      [
        "ise",
        -9.63892701859706
      ],
      [
        "scop",
        -9.639142292327886
      ],
      [
        "▁Orí",
        -9.640066130968746
      ],
      [
        "sè",
        -9.640181872422414
      ],
      [
        "▁Af",
        -9.640724168499972
      ],
      [
        "▁meje",
        -9.641332084161409
      ],
      [
        "▁kọ̀ọ̀kan",
        -9.642086865988226
      ],
      [
        "anka",
        -9.64274612897607
      ],
      [
        "▁Bel",
        -9.64289658677288
      ],
      [
        "▁Man",
        -9.64426394337875
      ],
      [
        "▁Sing",
        -9.644554803622677
      ],
      [
        "▁Ken",
        -9.645777237909892
      ],
      [
        "▁aif",
        -9.64651818088526
      ],
      [
        "▁balẹ̀",
        -9.646748570366045
      ],
      [
        "Luna",
        -9.647765585704347
      ],
      [
        "▁Peter",
        -9.647916323389833
      ],
      [
        "▁miran",
        -9.64800911855762
      ],
      [
        "co",
        -9.65026268566353
      ],
      [
        "▁Jo",
        -9.651682854643044
      ],
      [
        "▁Gom",
        -9.652340951775745
      ],
      [
        "asa",
        -9.652789629101994
      ],
      [
        "ìṣẹ́",
        -9.65284483553976
      ],
      [
        "mpi",
        -9.65346931872628
      ],
      [
        "àgù",
        -9.653878881020441
      ],
      [
        "▁gbigb",
        -9.653908373655476
      ],
      [
        "▁tọ̀nà",
        -9.654055689158277
      ],
      [
        "▁tú",
        -9.654242940786641
      ],
      [
        "itan",
        -9.654402903760921
      ],
      [
        "àgbà",
        -9.654514665376173
      ],
      [
        "oku",
        -9.655047995001674
      ],
      [
        "▁òṣèl",
        -9.65736942925978
      ],
      [
        "offe",
        -9.657704079851861
      ],
      [
        "▁Èb",
        -9.657823994334581
      ],
      [
        "▁pẹ̀",
        -9.658284585758857
      ],
      [
        "che",
        -9.658448885495792
      ],
      [
        "▁Olympics",
        -9.658605307614948
      ],
      [
        "andandan",
        -9.659769338869946
      ],
      [
        "▁gbod",
        -9.661182468785455
      ],
      [
        "▁bọ́",
        -9.66129512906264
      ],
      [
        "ski",
        -9.662048941554104
      ],
      [
        "nato",
        -9.662184218111364
      ],
      [
        "ey",
        -9.663273625326076
      ],
      [
        "aáj",
        -9.663748108638154
      ],
      [
        "yi",
        -9.666130728828469
      ],
      [
        "▁ariw",
        -9.666397640971093
      ],
      [
        "yè",
        -9.666449308071591
      ],
      [
        "▁síta",
        -9.666525251557536
      ],
      [
        "▁koj",
        -9.667148060602024
      ],
      [
        "yę",
        -9.66850015349204
      ],
      [
        "▁sún",
        -9.668577667436454
      ],
      [
        "▁alà",
        -9.668684492672023
      ],
      [
        "▁Ne",
        -9.669189928122629
      ],
      [
        "▁nà",
        -9.670587546941853
      ],
      [
        "▁Pa",
        -9.67152806820238
      ],
      [
        "▁ṣọ́",
        -9.672946679598635
      ],
      [
        "wọ̀",
        -9.674157668077939
      ],
      [
        "igi",
        -9.67438262387802
      ],
      [
        "arch",
        -9.674422786811888
      ],
      [
        "awa",
        -9.675566409532957
      ],
      [
        "▁àke",
        -9.675776017703456
      ],
      [
        "gbìm",
        -9.676654554505392
      ],
      [
        "▁Met",
        -9.678758858574714
      ],
      [
        "mph",
        -9.67889961355377
      ],
      [
        "nos",
        -9.67943481512171
      ],
      [
        "yẹn,",
        -9.680439045956673
      ],
      [
        "▁No",
        -9.682112517126612
      ],
      [
        "▁erank",
        -9.683068589002493
      ],
      [
        "vad",
        -9.685172945245007
      ],
      [
        "▁Grand",
        -9.68628830019464
      ],
      [
        "▁at",
        -9.686758202498885
      ],
      [
        "▁méjìdínlọ́g",
        -9.688486314336668
      ],
      [
        "kàn",
        -9.688685125226293
      ],
      [
        "ke",
        -9.68920586691102
      ],
      [
        "▁sẹ́yì",
        -9.69024693184257
      ],
      [
        "ibe",
        -9.690390314087466
      ],
      [
        "lì",
        -9.690672521787548
      ],
      [
        "▁wíwọ",
        -9.691232181777105
      ],
      [
        "bè",
        -9.691437349316864
      ],
      [
        "karun",
        -9.692433856700285
      ],
      [
        "50",
        -9.69308924318451
      ],
      [
        "lórí",
        -9.693743686312278
      ],
      [
        "▁fúnra",
        -9.693921759973067
      ],
      [
        "▁ìja",
        -9.693961540357058
      ],
      [
        "ajo",
        -9.694784512516138
      ],
      [
        "▁sc",
        -9.695804818877727
      ],
      [
        "́,",
        -9.69656693682491
      ],
      [
        "▁àsí",
        -9.696820687435807
      ],
      [
        "aliti",
        -9.697485720047023
      ],
      [
        "▁ìjọs",
        -9.697516072455498
      ],
      [
        "ux",
        -9.697726228740374
      ],
      [
        "▁2,",
        -9.698707963722907
      ],
      [
        "▁bewo",
        -9.700255044700523
      ],
      [
        "▁Ow",
        -9.700682490001263
      ],
      [
        "▁itak",
        -9.701225141021247
      ],
      [
        "▁ày",
        -9.702920958771992
      ],
      [
        "Ṣe",
        -9.703137201152051
      ],
      [
        "bee",
        -9.704287803122273
      ],
      [
        "tẹ́",
        -9.70489690992941
      ],
      [
        "▁ìtọ̀",
        -9.707768286004104
      ],
      [
        "▁igi",
        -9.711228616992981
      ],
      [
        "ọja",
        -9.711361586236347
      ],
      [
        "▁láìf",
        -9.711414069906168
      ],
      [
        "fọn",
        -9.712588808133312
      ],
      [
        "▁ẹnu",
        -9.712678834966587
      ],
      [
        "asai",
        -9.71303824946856
      ],
      [
        "▁àtúnkọ",
        -9.716163233207688
      ],
      [
        "faraká",
        -9.716518786034817
      ],
      [
        "▁gbajú",
        -9.718223722696978
      ],
      [
        "▁co",
        -9.719140749643989
      ],
      [
        "▁Kó",
        -9.719977493212323
      ],
      [
        "▁wér",
        -9.72121343056362
      ],
      [
        "▁fíf",
        -9.721379653655607
      ],
      [
        "wọ́",
        -9.723654277127007
      ],
      [
        "ójút",
        -9.723977815477605
      ],
      [
        "▁sese",
        -9.724143371910957
      ],
      [
        "▁af",
        -9.724737615456002
      ],
      [
        "ám",
        -9.725013126184397
      ],
      [
        "▁oru",
        -9.7258236756342
      ],
      [
        "vol",
        -9.7270758184203
      ],
      [
        "insi",
        -9.727230043750321
      ],
      [
        "̀hún",
        -9.728226422187218
      ],
      [
        "are",
        -9.728662158117885
      ],
      [
        "▁kẹj",
        -9.728832164826944
      ],
      [
        "kàndínlógún",
        -9.729620316020169
      ],
      [
        "má",
        -9.730060540302954
      ],
      [
        "▁ẹr",
        -9.730089263687534
      ],
      [
        "▁èy",
        -9.73209594766872
      ],
      [
        "▁Indian",
        -9.733774191581954
      ],
      [
        "▁seé",
        -9.734055243881318
      ],
      [
        "múnlẹ̀",
        -9.73791171071107
      ],
      [
        "dio",
        -9.738468719599242
      ],
      [
        "▁Àm",
        -9.73864581982347
      ],
      [
        "is",
        -9.738757037650563
      ],
      [
        "▁Kí",
        -9.73883135126141
      ],
      [
        "4-1",
        -9.7412062426261
      ],
      [
        "▁Ab",
        -9.741801076332951
      ],
      [
        "▁bu",
        -9.742634046779301
      ],
      [
        "mún",
        -9.744073405455374
      ],
      [
        "▁fí",
        -9.749283117160145
      ],
      [
        "▁am",
        -9.749392758489703
      ],
      [
        "ham",
        -9.750595860531732
      ],
      [
        "▁Ìwád",
        -9.750779808681019
      ],
      [
        "and",
        -9.750896838372832
      ],
      [
        "▁iya",
        -9.754597134780713
      ],
      [
        "ẹnu",
        -9.757130689484097
      ],
      [
        "▁fidi",
        -9.757948674791853
      ],
      [
        "ọ́jú",
        -9.759045340827612
      ],
      [
        "▁Kor",
        -9.759770650792273
      ],
      [
        "▁márùndínlóg",
        -9.76151728021157
      ],
      [
        "91",
        -9.764483956728359
      ],
      [
        "lọ́lọ́",
        -9.766816813064864
      ],
      [
        "enj",
        -9.767152477439422
      ],
      [
        "ush",
        -9.768450890953073
      ],
      [
        "don",
        -9.769028875104501
      ],
      [
        "▁ìrin",
        -9.770573590018639
      ],
      [
        "▁agbe",
        -9.770941520375441
      ],
      [
        "▁ise,",
        -9.771422848688669
      ],
      [
        "ito",
        -9.773260323647248
      ],
      [
        "▁Ọk",
        -9.775182880730945
      ],
      [
        "▁ilè",
        -9.775630350566932
      ],
      [
        "▁alp",
        -9.777769612379211
      ],
      [
        "▁Th",
        -9.779461289696824
      ],
      [
        "zan",
        -9.780507501678098
      ],
      [
        "tiki",
        -9.781022808650299
      ],
      [
        "omi",
        -9.783098098017804
      ],
      [
        "dú",
        -9.783182177699677
      ],
      [
        "et",
        -9.78405466217777
      ],
      [
        "ami",
        -9.786116067892554
      ],
      [
        "àdín",
        -9.787102237209323
      ],
      [
        "min",
        -9.78735237351989
      ],
      [
        "▁ifigag",
        -9.788486750999645
      ],
      [
        "▁dára.",
        -9.78875619244452
      ],
      [
        "síbẹ̀",
        -9.789934451196933
      ],
      [
        "▁mẹt",
        -9.794230685078919
      ],
      [
        "▁Ge",
        -9.79526152042016
      ],
      [
        "3,",
        -9.795404922716791
      ],
      [
        "ahu",
        -9.796929891612926
      ],
      [
        "▁po",
        -9.800581029570726
      ],
      [
        "eke",
        -9.801819104594498
      ],
      [
        "íyà",
        -9.803809297877889
      ],
      [
        "▁agbè",
        -9.804516820717552
      ],
      [
        "jíj",
        -9.804627481013723
      ],
      [
        "▁òrùn",
        -9.804873234859384
      ],
      [
        "erry",
        -9.806106119728922
      ],
      [
        "tóní",
        -9.807378764937916
      ],
      [
        "▁ad",
        -9.808016316887503
      ],
      [
        "▁Ji",
        -9.808523242714465
      ],
      [
        "▁ràn",
        -9.809995228680261
      ],
      [
        "ex",
        -9.810401247563748
      ],
      [
        "▁Sol",
        -9.812797992587344
      ],
      [
        "kì",
        -9.814996277599779
      ],
      [
        "sìn",
        -9.817843088641073
      ],
      [
        "▁àr",
        -9.822204604599813
      ],
      [
        "▁lóò",
        -9.826271015696571
      ],
      [
        "ete",
        -9.826464294718948
      ],
      [
        "fini",
        -9.8265137524043
      ],
      [
        "wu",
        -9.828729941787458
      ],
      [
        "▁atu",
        -9.829879632361756
      ],
      [
        "arun",
        -9.830692159733342
      ],
      [
        "opin",
        -9.83268227297668
      ],
      [
        "▁Mat",
        -9.836409736038714
      ],
      [
        "-rẹ",
        -9.836846839471768
      ],
      [
        "ìdá",
        -9.836913623412363
      ],
      [
        "rge",
        -9.841482868553545
      ],
      [
        "▁farap",
        -9.846652219735251
      ],
      [
        "▁Domin",
        -9.847716033170727
      ],
      [
        "urg",
        -9.850520099851407
      ],
      [
        "▁gbọ",
        -9.850567735949397
      ],
      [
        "▁àj",
        -9.850962507162812
      ],
      [
        "beni",
        -9.853033276542622
      ],
      [
        "3.",
        -9.853383648979012
      ],
      [
        "kó",
        -9.853550032814837
      ],
      [
        "▁eru",
        -9.854916401622182
      ],
      [
        "▁Mas",
        -9.856548753644315
      ],
      [
        "▁ríra",
        -9.86383424495284
      ],
      [
        "▁oṣ",
        -9.864412551340097
      ],
      [
        "▁mẹj",
        -9.865233527404756
      ],
      [
        "ùkú",
        -9.866054220925735
      ],
      [
        "ak",
        -9.866412342476046
      ],
      [
        "▁yá",
        -9.867030828949016
      ],
      [
        "írẹ́s",
        -9.867296625576943
      ],
      [
        "▁àd",
        -9.867551504640454
      ],
      [
        "jìn",
        -9.86773484981395
      ],
      [
        "▁Gú",
        -9.868803722509561
      ],
      [
        "kíní",
        -9.868847490184589
      ],
      [
        "▁ro",
        -9.869182711772417
      ],
      [
        "úmọ́",
        -9.869310889981538
      ],
      [
        "n.",
        -9.87066787124855
      ],
      [
        "▁St",
        -9.872902501803456
      ],
      [
        "me",
        -9.874612844561014
      ],
      [
        "▁ìsa",
        -9.875531860832645
      ],
      [
        "▁ọ̀rẹ",
        -9.878520739667358
      ],
      [
        "▁do",
        -9.881243995435229
      ],
      [
        "ther",
        -9.882993890974314
      ],
      [
        "▁ar",
        -9.884256312147572
      ],
      [
        "an,",
        -9.887873711697146
      ],
      [
        "▁ogbo",
        -9.888121354504163
      ],
      [
        "▁gbón",
        -9.889843355597678
      ],
      [
        "ejò",
        -9.890631551750179
      ],
      [
        "an.",
        -9.894298207476856
      ],
      [
        "Oju",
        -9.903021220137992
      ],
      [
        "wal",
        -9.906050519115437
      ],
      [
        "ats",
        -9.906252283446829
      ],
      [
        "▁àwọ̀",
        -9.90747113166674
      ],
      [
        "tá",
        -9.908795030076234
      ],
      [
        "▁sise",
        -9.910442071388285
      ],
      [
        "òfò",
        -9.911163268016335
      ],
      [
        "infr",
        -9.91403635213057
      ],
      [
        "pẹ̀lú",
        -9.916035609705714
      ],
      [
        "dúró",
        -9.918986054379754
      ],
      [
        "▁gol",
        -9.920424193314462
      ],
      [
        "lúw",
        -9.9208655062481
      ],
      [
        "aye",
        -9.924897401358976
      ],
      [
        "òótọ́",
        -9.92515393980711
      ],
      [
        "▁aṣ",
        -9.928396422687982
      ],
      [
        "▁pò",
        -9.929679216558288
      ],
      [
        "til",
        -9.93024964693875
      ],
      [
        "marin",
        -9.93100174187274
      ],
      [
        "▁òk",
        -9.932589106958247
      ],
      [
        "sso",
        -9.933330201158899
      ],
      [
        "ed",
        -9.93343396090232
      ],
      [
        "oto",
        -9.936228602588862
      ],
      [
        "nc",
        -9.936815530792236
      ],
      [
        "▁ìwọ̀nt",
        -9.937959431855996
      ],
      [
        "múnl",
        -9.938055972545545
      ],
      [
        "per",
        -9.938072159881818
      ],
      [
        "▁béè",
        -9.93838610184185
      ],
      [
        "▁ka.",
        -9.940448043328121
      ],
      [
        "ojú-",
        -9.940667278464968
      ],
      [
        "okùn",
        -9.941045518059417
      ],
      [
        "▁eti",
        -9.94315081390333
      ],
      [
        "▁kẹs",
        -9.944831331738584
      ],
      [
        "kọlù",
        -9.945371720254986
      ],
      [
        "wọ",
        -9.946517268642621
      ],
      [
        "▁8",
        -9.94695568922213
      ],
      [
        "ia",
        -9.94767388636566
      ],
      [
        "ul",
        -9.94985934967637
      ],
      [
        "▁on",
        -9.953585396390661
      ],
      [
        "▁ibì",
        -9.957137093244887
      ],
      [
        "ika",
        -9.957786600415107
      ],
      [
        "èwò",
        -9.958676299805221
      ],
      [
        "ol",
        -9.96032530211435
      ],
      [
        "▁té",
        -9.961653702522716
      ],
      [
        "▁Fl",
        -9.962556302848006
      ],
      [
        "ógún",
        -9.963342086973638
      ],
      [
        "▁1.",
        -9.965605596625748
      ],
      [
        "ẹ́rìndínl",
        -9.965701418257844
      ],
      [
        "▁Er",
        -9.966120270300461
      ],
      [
        "ṣá",
        -9.96827071370553
      ],
      [
        "ìg",
        -9.968518750559298
      ],
      [
        "sọkú",
        -9.968546633102584
      ],
      [
        "ékè",
        -9.970678926771736
      ],
      [
        "▁Hi",
        -9.971592640487122
      ],
      [
        "ipa",
        -9.971947826899207
      ],
      [
        "tù",
        -9.972411325762
      ],
      [
        "yì",
        -9.972683982636752
      ],
      [
        "▁yìí.",
        -9.973313689303875
      ],
      [
        "mis",
        -9.976865013083788
      ],
      [
        "yẹn",
        -9.977531681848072
      ],
      [
        "sep",
        -9.978742966122269
      ],
      [
        "dín",
        -9.984194964654115
      ],
      [
        "▁Aj",
        -9.986011507299382
      ],
      [
        "▁Gr",
        -9.9860392496518
      ],
      [
        "▁àkójọp",
        -9.9862394054581
      ],
      [
        "0s",
        -9.987413675819614
      ],
      [
        "▁ìlé",
        -9.987974460037652
      ],
      [
        "▁Gi",
        -9.988221587028972
      ],
      [
        "kẹ",
        -9.988632187824873
      ],
      [
        "phe",
        -9.992573425546324
      ],
      [
        "▁Saf",
        -9.993722523641528
      ],
      [
        "gò",
        -9.994010817445156
      ],
      [
        "▁dì",
        -9.995516097527885
      ],
      [
        "▁oy",
        -9.997312266128311
      ],
      [
        "eti",
        -9.998418294389895
      ],
      [
        "ell",
        -9.998886950507957
      ],
      [
        "tan",
        -9.998933941535617
      ],
      [
        "tẹ̀síwáj",
        -10.000410548411601
      ],
      [
        "▁àtúns",
        -10.001819001819106
      ],
      [
        "▁ku",
        -10.004623773096075
      ],
      [
        "▁jà",
        -10.00582904632792
      ],
      [
        "íntín",
        -10.006287318244189
      ],
      [
        "va",
        -10.006331554035917
      ],
      [
        "▁baa",
        -10.007938448061687
      ],
      [
        "via",
        -10.008642497731854
      ],
      [
        "▁Sà",
        -10.011198921114772
      ],
      [
        "gbára",
        -10.012491015740807
      ],
      [
        "▁So",
        -10.01288430708405
      ],
      [
        "▁Lọ́",
        -10.013374541126169
      ],
      [
        "óòótọ́",
        -10.016687867848098
      ],
      [
        "ongi",
        -10.018551050752631
      ],
      [
        "reas",
        -10.019261805395526
      ],
      [
        "ìjàkad",
        -10.02016700716138
      ],
      [
        "njì",
        -10.020359108953437
      ],
      [
        "▁níbà",
        -10.021684671333006
      ],
      [
        "wọ̀nsí",
        -10.030703131744792
      ],
      [
        "▁dáa",
        -10.033079418156731
      ],
      [
        "cke",
        -10.033988299514931
      ],
      [
        "▁In",
        -10.036343868455102
      ],
      [
        "ewa",
        -10.037154200395168
      ],
      [
        "▁inf",
        -10.042149108719899
      ],
      [
        "rèk",
        -10.045030158456154
      ],
      [
        "lè-",
        -10.045091063537889
      ],
      [
        "ys",
        -10.045105754008679
      ],
      [
        "ìfẹ́",
        -10.046574035659471
      ],
      [
        "nia",
        -10.047552068027152
      ],
      [
        "it",
        -10.048098035861903
      ],
      [
        "▁din",
        -10.049372851957221
      ],
      [
        "ntín",
        -10.052103099277467
      ],
      [
        "erin",
        -10.054904120330606
      ],
      [
        "▁ìfa",
        -10.054916620575089
      ],
      [
        "sek",
        -10.055243986410266
      ],
      [
        "òní",
        -10.055795776700702
      ],
      [
        "▁wé",
        -10.059229046015773
      ],
      [
        "▁kàn",
        -10.061438590417303
      ],
      [
        "▁náw",
        -10.066599339015417
      ],
      [
        "▁ana",
        -10.067755573150516
      ],
      [
        "▁Sá",
        -10.068797924881087
      ],
      [
        "▁Ka",
        -10.069681951719868
      ],
      [
        "▁Li",
        -10.069879082698863
      ],
      [
        "▁ẹṣ",
        -10.079548463400892
      ],
      [
        "ómí",
        -10.080374085154158
      ],
      [
        "▁Olù",
        -10.0823426739968
      ],
      [
        "ig",
        -10.082564270873222
      ],
      [
        "▁Sk",
        -10.08785262814351
      ],
      [
        "lùgbé",
        -10.091895619604749
      ],
      [
        "ẹ́tà",
        -10.092848888536796
      ],
      [
        "lif",
        -10.0945553508263
      ],
      [
        "ri.",
        -10.094772655912424
      ],
      [
        "▁kọj",
        -10.095903608806223
      ],
      [
        "▁ẹn",
        -10.097317042007166
      ],
      [
        "▁Bas",
        -10.09763136942059
      ],
      [
        "▁ìt",
        -10.09902028785577
      ],
      [
        "ẹtà",
        -10.104986137000903
      ],
      [
        "ọ́p",
        -10.108290724525583
      ],
      [
        "▁Domini",
        -10.109797505009293
      ],
      [
        "en",
        -10.111437644323482
      ],
      [
        "▁araa",
        -10.11178155293226
      ],
      [
        "álẹ́",
        -10.112056879537164
      ],
      [
        "▁(U",
        -10.113933947511075
      ],
      [
        "▁tì",
        -10.114548895559198
      ],
      [
        "dẹ",
        -10.114673214604036
      ],
      [
        "▁tè",
        -10.115680515262037
      ],
      [
        "ọ́ṣ",
        -10.116945484571412
      ],
      [
        "s;",
        -10.117058330288263
      ],
      [
        "85",
        -10.118917781636167
      ],
      [
        "ali",
        -10.120168063983149
      ],
      [
        "▁sín",
        -10.124896179433582
      ],
      [
        "▁Sp",
        -10.125219036991268
      ],
      [
        "▁Ak",
        -10.125644355766974
      ],
      [
        "▁ìsọ̀",
        -10.12889277730817
      ],
      [
        "▁Rese",
        -10.13173089484164
      ],
      [
        "▁wíp",
        -10.133739095553606
      ],
      [
        "affi",
        -10.136763445229956
      ],
      [
        "▁Os",
        -10.139591860357946
      ],
      [
        "bíni",
        -10.140493325424927
      ],
      [
        "ilé-",
        -10.143802697178156
      ],
      [
        "dára",
        -10.146478461282635
      ],
      [
        "ckla",
        -10.155805564499525
      ],
      [
        "▁Ti",
        -10.156602242453376
      ],
      [
        "▁pat",
        -10.160456023265409
      ],
      [
        "88",
        -10.160854601121429
      ],
      [
        "ǹk",
        -10.163720039818084
      ],
      [
        "ẹ́wà",
        -10.164548568685007
      ],
      [
        "rry",
        -10.165181021193316
      ],
      [
        "▁ṣiṣ",
        -10.16582539644917
      ],
      [
        "▁wú",
        -10.165831333040037
      ],
      [
        "alapa",
        -10.166962597101799
      ],
      [
        "asil",
        -10.169810534014744
      ],
      [
        "vid",
        -10.170329518652785
      ],
      [
        "▁àwọ",
        -10.171230503257675
      ],
      [
        "mọ́ṣá",
        -10.173069985369054
      ],
      [
        "▁Pe",
        -10.175348974455645
      ],
      [
        "▁50",
        -10.176529367227918
      ],
      [
        "ren",
        -10.179383091124478
      ],
      [
        "▁Tre",
        -10.179858750056852
      ],
      [
        "okan",
        -10.18329123389978
      ],
      [
        "96",
        -10.185495747265861
      ],
      [
        "▁100",
        -10.18657457627261
      ],
      [
        "nami",
        -10.187786777595571
      ],
      [
        "ẹ́.",
        -10.188499652101495
      ],
      [
        "▁;",
        -10.191917832365299
      ],
      [
        "órí",
        -10.193370544011803
      ],
      [
        "▁lábẹ",
        -10.195331723581287
      ],
      [
        "▁mímọ",
        -10.19844335909423
      ],
      [
        "▁sàl",
        -10.201684556569939
      ],
      [
        "▁ṣì",
        -10.203948032269608
      ],
      [
        "rook",
        -10.206052730262073
      ],
      [
        "lej",
        -10.206937100243097
      ],
      [
        "afa",
        -10.209132168162716
      ],
      [
        "▁ṣíṣ",
        -10.210927019921282
      ],
      [
        "omo",
        -10.21403572470634
      ],
      [
        "▁bú",
        -10.214904699780364
      ],
      [
        "▁ìba",
        -10.218786492043652
      ],
      [
        "▁á",
        -10.21913695823958
      ],
      [
        "▁ase",
        -10.225564417378166
      ],
      [
        "▁rár",
        -10.227206582968352
      ],
      [
        "83",
        -10.230494358072294
      ],
      [
        "▁rír",
        -10.230865045730498
      ],
      [
        "▁ir",
        -10.23253986532455
      ],
      [
        "af",
        -10.23319125481419
      ],
      [
        "▁Pà",
        -10.233304695362298
      ],
      [
        "ọ́lọ́",
        -10.23543382619072
      ],
      [
        "▁ipe",
        -10.24060367393455
      ],
      [
        "lomi",
        -10.242238893721721
      ],
      [
        "van",
        -10.242349207634017
      ],
      [
        "▁Ib",
        -10.243323301186978
      ],
      [
        "▁àgọ",
        -10.245757739795115
      ],
      [
        "▁fo",
        -10.247866741207188
      ],
      [
        "gá",
        -10.247963315777406
      ],
      [
        "enge",
        -10.24905039906386
      ],
      [
        "elo",
        -10.25814173625648
      ],
      [
        "ẹni",
        -10.258569417925528
      ],
      [
        ",000",
        -10.259921014678387
      ],
      [
        "▁Ros",
        -10.261247647904687
      ],
      [
        "wádì",
        -10.263665584946914
      ],
      [
        "to.",
        -10.265449049708852
      ],
      [
        "tu",
        -10.271922442055315
      ],
      [
        "-19",
        -10.272369706493498
      ],
      [
        "▁Ay",
        -10.273985268098503
      ],
      [
        "ola",
        -10.276323594825023
      ],
      [
        "jọ̀dú",
        -10.277231935038174
      ],
      [
        "selo",
        -10.279255568139089
      ],
      [
        "pẹ̀",
        -10.28005425197981
      ],
      [
        "▁jọj",
        -10.282451544381805
      ],
      [
        "▁ìwẹ",
        -10.283247955302057
      ],
      [
        "wù",
        -10.283552353813597
      ],
      [
        "▁oúnj",
        -10.284473923709797
      ],
      [
        "ọ́s",
        -10.285503165232054
      ],
      [
        "ers",
        -10.28736634301026
      ],
      [
        "akok",
        -10.289218258301414
      ],
      [
        "wàì",
        -10.291115531560404
      ],
      [
        "árá",
        -10.291900149150445
      ],
      [
        "▁Ir",
        -10.291979398077903
      ],
      [
        "ins",
        -10.29576532771167
      ],
      [
        "apo",
        -10.29665363977184
      ],
      [
        "ìtì",
        -10.300302051533354
      ],
      [
        "▁Ilẹ",
        -10.305159303429361
      ],
      [
        "▁sáá",
        -10.306126910313148
      ],
      [
        "▁Àb",
        -10.306513626079363
      ],
      [
        "fẹ̀",
        -10.30733321826276
      ],
      [
        "pani",
        -10.313364369453312
      ],
      [
        "▁kù",
        -10.314589990872763
      ],
      [
        "gbẹ",
        -10.316559085591111
      ],
      [
        "ation",
        -10.32223516754971
      ],
      [
        "▁pàd",
        -10.32240937209031
      ],
      [
        "ásá",
        -10.322566945460862
      ],
      [
        "uis",
        -10.324134711609519
      ],
      [
        "▁Pri",
        -10.325082715444433
      ],
      [
        "▁wí",
        -10.326817081469795
      ],
      [
        "ẹ̀yí",
        -10.327150891098732
      ],
      [
        "ímọ̀",
        -10.328159062552004
      ],
      [
        "L",
        -10.328383699300607
      ],
      [
        "Ì",
        -10.3296298807054
      ],
      [
        "ọ̀lẹ́",
        -10.329845403121272
      ],
      [
        "▁ìdán",
        -10.330412828190573
      ],
      [
        "▁yẹ̀",
        -10.331334882032026
      ],
      [
        "ev",
        -10.332501065131666
      ],
      [
        "àn.",
        -10.337047385135113
      ],
      [
        "ìlér",
        -10.337307268108244
      ],
      [
        "▁fer",
        -10.33865939601693
      ],
      [
        "gen",
        -10.34476852300483
      ],
      [
        "fok",
        -10.344777749469099
      ],
      [
        "(",
        -10.345102338379075
      ],
      [
        "▁ibòmí",
        -10.346550925657068
      ],
      [
        "ru",
        -10.346556777746192
      ],
      [
        "▁tít",
        -10.347819930463844
      ],
      [
        "▁àì",
        -10.349795648215965
      ],
      [
        "mọ́n",
        -10.351352040727697
      ],
      [
        "▁Cr",
        -10.351879167624485
      ],
      [
        "àkókò",
        -10.354133372943616
      ],
      [
        "pọ̀lọpọ",
        -10.35415421916948
      ],
      [
        "dínlọ́gọ́",
        -10.355496097297811
      ],
      [
        "▁ìsì",
        -10.35663077002467
      ],
      [
        "▁lér",
        -10.362969501431143
      ],
      [
        "ìyà",
        -10.363578271392958
      ],
      [
        "▁ìjá",
        -10.364729263784277
      ],
      [
        "ooto",
        -10.366034741493348
      ],
      [
        "eed",
        -10.367346053787216
      ],
      [
        "▁akos",
        -10.368789355153135
      ],
      [
        "ẹdẹ",
        -10.374245325082645
      ],
      [
        "▁Ame",
        -10.375997981369121
      ],
      [
        "▁Of",
        -10.376257836188913
      ],
      [
        "▁17",
        -10.379078764000505
      ],
      [
        "ṣì",
        -10.379895237816337
      ],
      [
        "àkọ",
        -10.38558374003603
      ],
      [
        "mile",
        -10.38806884699745
      ],
      [
        "Ò",
        -10.392338951199767
      ],
      [
        "hi",
        -10.394007072307735
      ],
      [
        "▁gbàgb",
        -10.394434937824279
      ],
      [
        "lad",
        -10.395045986720868
      ],
      [
        "sá",
        -10.395889522406224
      ],
      [
        "▁alu",
        -10.396844827720452
      ],
      [
        "▁awọ",
        -10.400647101649515
      ],
      [
        "▁orís",
        -10.4008282902369
      ],
      [
        "▁ẹ̀b",
        -10.401191792751957
      ],
      [
        "imo",
        -10.402075647407921
      ],
      [
        "ẹ̀ẹ́",
        -10.402174422081345
      ],
      [
        "ab",
        -10.406185519997045
      ],
      [
        "jáw",
        -10.406275080718164
      ],
      [
        "pẹ",
        -10.412620720160138
      ],
      [
        "gon",
        -10.413918162321474
      ],
      [
        "▁Gu",
        -10.4146448165573
      ],
      [
        "tọ́",
        -10.415388762460879
      ],
      [
        "ova",
        -10.415474371474971
      ],
      [
        "abo",
        -10.418816105547362
      ],
      [
        "▁Z",
        -10.419881637711853
      ],
      [
        "fu",
        -10.420257355617654
      ],
      [
        "▁Fo",
        -10.42027922722849
      ],
      [
        "kéré",
        -10.42066409594614
      ],
      [
        "isun",
        -10.421483381945567
      ],
      [
        "9",
        -10.421574368437616
      ],
      [
        "Ṣ",
        -10.42471224505464
      ],
      [
        "▁pát",
        -10.426718847757773
      ],
      [
        "òkè",
        -10.428888164178545
      ],
      [
        "off",
        -10.432239896413966
      ],
      [
        "Es",
        -10.432811901804223
      ],
      [
        "ji",
        -10.433315142961238
      ],
      [
        "ẹ̀ẹ̀t",
        -10.436019893724552
      ],
      [
        "▁agba",
        -10.436743325778757
      ],
      [
        "ilu",
        -10.437588859003018
      ],
      [
        "Olympics",
        -10.438285201160378
      ],
      [
        "obi",
        -10.438709801430669
      ],
      [
        "gbangba",
        -10.439391960723137
      ],
      [
        "▁aláṣ",
        -10.44140572365613
      ],
      [
        "ole",
        -10.442167911447608
      ],
      [
        "▁àà",
        -10.442435575955097
      ],
      [
        "ap",
        -10.443574975961274
      ],
      [
        "..",
        -10.443901709863198
      ],
      [
        "ìwọ̀n",
        -10.444558796751261
      ],
      [
        "ọ̀ka",
        -10.446067436862847
      ],
      [
        "U",
        -10.447245864288885
      ],
      [
        "ek",
        -10.447546347367725
      ],
      [
        "gbáyé,",
        -10.44811004945337
      ],
      [
        "kẹjọ",
        -10.448406102126212
      ],
      [
        "lágbára",
        -10.452422977838134
      ],
      [
        "▁ès",
        -10.454978984991559
      ],
      [
        "lín",
        -10.456277024387658
      ],
      [
        "st",
        -10.457017771357995
      ],
      [
        "miran",
        -10.45802091000162
      ],
      [
        "pápá",
        -10.458190417524012
      ],
      [
        "dó",
        -10.459756448383482
      ],
      [
        "óòrè",
        -10.461779056004982
      ],
      [
        "Je",
        -10.464275274110834
      ],
      [
        "20",
        -10.46782294848684
      ],
      [
        "ari",
        -10.469946274623485
      ],
      [
        "lọ.",
        -10.472024028230319
      ],
      [
        "lgar",
        -10.47333876202636
      ],
      [
        "fidi",
        -10.474386735029672
      ],
      [
        "kọ̀ọ̀kan",
        -10.474583924641378
      ],
      [
        "stal",
        -10.475297303516005
      ],
      [
        "mím",
        -10.47574892672264
      ],
      [
        "bọ́ọ̀lù",
        -10.476232411395205
      ],
      [
        "▁òs",
        -10.478299571160749
      ],
      [
        "ṣọ́",
        -10.478620718682922
      ],
      [
        "▁ìb",
        -10.478913149308328
      ],
      [
        "rade",
        -10.478950587945096
      ],
      [
        "ìgbà",
        -10.481895534148485
      ],
      [
        "▁tà",
        -10.482230797235623
      ],
      [
        "lójú",
        -10.482479311082825
      ],
      [
        "▁“L",
        -10.482639538820727
      ],
      [
        "meje",
        -10.484528680046006
      ],
      [
        "▁odo",
        -10.484550030006272
      ],
      [
        "sun",
        -10.485731057301406
      ],
      [
        "aláì",
        -10.487408157588458
      ],
      [
        "▁aj",
        -10.487940081040069
      ],
      [
        "àpẹrẹ",
        -10.488514062166956
      ],
      [
        "eters",
        -10.489381624622943
      ],
      [
        "mẹ́t",
        -10.489530258776846
      ],
      [
        "pinn",
        -10.489640047062238
      ],
      [
        "Chi",
        -10.490115097422045
      ],
      [
        "▁Agba",
        -10.492359101126858
      ],
      [
        "farak",
        -10.49385212663972
      ],
      [
        "▁Bac",
        -10.493930456749794
      ],
      [
        "àwọ̀",
        -10.494815061058631
      ],
      [
        "Le",
        -10.497125116209581
      ],
      [
        "▁tuntu",
        -10.498839256565098
      ],
      [
        "▁mẹ́j",
        -10.500696447065376
      ],
      [
        "▁Em",
        -10.501012141659412
      ],
      [
        "Fí",
        -10.50297493870707
      ],
      [
        "▁Ri",
        -10.50401684377939
      ],
      [
        "z",
        -10.5041194861022
      ],
      [
        "▁ẹlẹ́g",
        -10.505039722668572
      ],
      [
        "▁Japa",
        -10.506010941980168
      ],
      [
        "ìdúró",
        -10.507042207448285
      ],
      [
        "nímò",
        -10.509076581029614
      ],
      [
        "bóy",
        -10.50931336525165
      ],
      [
        "▁sù",
        -10.511490438893764
      ],
      [
        "fọ́",
        -10.511993944128864
      ],
      [
        "dọ́ta",
        -10.512309332828048
      ],
      [
        "kut",
        -10.515713960685563
      ],
      [
        "ifik",
        -10.516737834750783
      ],
      [
        "Ati",
        -10.517825421025446
      ],
      [
        "Tr",
        -10.519422065659613
      ],
      [
        "end",
        -10.520855878976306
      ],
      [
        "mọ̀ọ́",
        -10.521042186602175
      ],
      [
        "ọjá",
        -10.523331300420715
      ],
      [
        "▁5",
        -10.523757513872292
      ],
      [
        "ọ̣",
        -10.526799992119107
      ],
      [
        "abẹ",
        -10.528564619471302
      ],
      [
        "ik",
        -10.530057447446781
      ],
      [
        "udo",
        -10.532905953667228
      ],
      [
        "lùdíj",
        -10.533250427902953
      ],
      [
        "▁márùndínl",
        -10.533576601711053
      ],
      [
        "ojúmọ́",
        -10.534647925776227
      ],
      [
        "▁su",
        -10.5347024656516
      ],
      [
        "▁Med",
        -10.535521318299667
      ],
      [
        "Ta",
        -10.53663405111796
      ],
      [
        "wòrán",
        -10.537705962099501
      ],
      [
        "ọjọ́",
        -10.538108017395519
      ],
      [
        "▁jìn",
        -10.539354771392333
      ],
      [
        "▁ọgọ́rù",
        -10.539770936789449
      ],
      [
        "àpọ̀",
        -10.540828359009835
      ],
      [
        "nd",
        -10.541006783315328
      ],
      [
        "ṣè",
        -10.541808919157907
      ],
      [
        "alej",
        -10.54479617048368
      ],
      [
        "▁Gl",
        -10.54719375510472
      ],
      [
        "▁Kì",
        -10.547308767617599
      ],
      [
        "Mo",
        -10.548748837968274
      ],
      [
        "àl",
        -10.549678182588607
      ],
      [
        "ọkọ",
        -10.550151990747937
      ],
      [
        "keji",
        -10.550808548572169
      ],
      [
        "▁abe",
        -10.554321938038719
      ],
      [
        "aff",
        -10.55477363796486
      ],
      [
        "Man",
        -10.554993160731922
      ],
      [
        "nla",
        -10.55586641075729
      ],
      [
        "úra",
        -10.555980473247219
      ],
      [
        "▁Ìwá",
        -10.557027829972796
      ],
      [
        "stria",
        -10.557315174293649
      ],
      [
        "▁àpẹ",
        -10.557325777750838
      ],
      [
        "pup",
        -10.557327814509266
      ],
      [
        "pẹrẹ",
        -10.557870773026158
      ],
      [
        "eor",
        -10.559228071381941
      ],
      [
        "ọ̀si",
        -10.560137371338163
      ],
      [
        "fù",
        -10.561865591093115
      ],
      [
        "jíjẹ",
        -10.561876644376857
      ],
      [
        "gbegb",
        -10.562682819998948
      ],
      [
        "▁sagb",
        -10.562693562972758
      ],
      [
        "erindinlog",
        -10.563864679543903
      ],
      [
        "▁Indi",
        -10.563953689374596
      ],
      [
        "▁afara",
        -10.565544080744758
      ],
      [
        "▁ìkọ",
        -10.566098917722767
      ],
      [
        "ect",
        -10.566106225819436
      ],
      [
        "▁Ìfẹ̀h",
        -10.569970885684693
      ],
      [
        "mìnir",
        -10.570346008701808
      ],
      [
        "lka",
        -10.570794423701575
      ],
      [
        "ṣòro",
        -10.57254973589964
      ],
      [
        "tian",
        -10.57271199005776
      ],
      [
        "ìtọ́j",
        -10.57284939520758
      ],
      [
        "tumọ",
        -10.573471179568454
      ],
      [
        "▁púp",
        -10.573535472692773
      ],
      [
        "eng",
        -10.573565029848949
      ],
      [
        "1895",
        -10.574354322403682
      ],
      [
        "▁ala",
        -10.575086494255965
      ],
      [
        "▁ìgbẹ",
        -10.575322268764275
      ],
      [
        "ǹd",
        -10.576020260013955
      ],
      [
        "bélé",
        -10.57612764452646
      ],
      [
        "▁orísìír",
        -10.576734989793675
      ],
      [
        "ẹ̀.",
        -10.577357570169312
      ],
      [
        "lómìnira",
        -10.577520428748793
      ],
      [
        "▁ìfẹ̀hón",
        -10.577679803801951
      ],
      [
        "▁ṣẹlẹ",
        -10.577885022714286
      ],
      [
        "láàdọ́ta",
        -10.578053251493412
      ],
      [
        "▁Europ",
        -10.578330311339728
      ],
      [
        "kìl",
        -10.578423934932808
      ],
      [
        "80",
        -10.579307476331605
      ],
      [
        "ẹ́tẹ",
        -10.579335612776994
      ],
      [
        "▁bhajan",
        -10.579640712789017
      ],
      [
        "▁bẹ̀rẹ",
        -10.579784800617752
      ],
      [
        "▁púpọ",
        -10.579972746523755
      ],
      [
        "▁ìdọ",
        -10.580272628105996
      ],
      [
        "bùdó",
        -10.580560899983118
      ],
      [
        "láìsàn",
        -10.580718910176875
      ],
      [
        "uper-G",
        -10.58099267804861
      ],
      [
        "▁orúk",
        -10.58119542786358
      ],
      [
        "▁ẹnubod",
        -10.581241379746055
      ],
      [
        "TA",
        -10.58132282374323
      ],
      [
        "hùwà",
        -10.58133447452641
      ],
      [
        "FA",
        -10.581608977812245
      ],
      [
        "láṣẹ",
        -10.581942895559491
      ],
      [
        "▁ita",
        -10.58205395489648
      ],
      [
        "ẹ́gbẹ̀",
        -10.58205974710969
      ],
      [
        "▁ìdáray",
        -10.582133964371007
      ],
      [
        "lympics",
        -10.582261137857412
      ],
      [
        "èrò",
        -10.582479658999201
      ],
      [
        "mẹ́ríkà",
        -10.582809785546155
      ],
      [
        "▁ak",
        -10.58292168725788
      ],
      [
        "LA",
        -10.582992368811077
      ],
      [
        "▁bọ́ọ̀l",
        -10.583093375743607
      ],
      [
        "ringb",
        -10.583258435758134
      ],
      [
        "enza",
        -10.58359644221968
      ],
      [
        "189",
        -10.58384583773346
      ],
      [
        "orld",
        -10.583927670634353
      ],
      [
        "+",
        -10.583938199850614
      ],
      [
        "‘",
        -10.583938199890556
      ],
      [
        "ṛ",
        -10.58393819989056
      ],
      [
        "£",
        -10.58393819989056
      ],
      [
        "[",
        -10.58393819989056
      ],
      [
        "]",
        -10.58393819989056
      ],
      [
        "Í",
        -10.58393819989056
      ],
      [
        "ç",
        -10.58393819989056
      ],
      [
        "\\",
        -10.58393819989056
      ],
      [
        "Ü",
        -10.58393819989056
      ],
      [
        "%",
        -10.58393819989056
      ],
      [
        "▁Fall",
        -10.583999947758018
      ],
      [
        "▁Amẹ",
        -10.58401678782281
      ],
      [
        "lọ́gbọ̀n",
        -10.584165844289679
      ],
      [
        "▁Amẹ́r",
        -10.584247833608547
      ],
      [
        "blica",
        -10.584250174287071
      ],
      [
        "bour",
        -10.584252147520788
      ],
      [
        "▁àkọ́ṣ",
        -10.584396965192866
      ],
      [
        "ǹfà",
        -10.584555008958848
      ],
      [
        "▁202",
        -10.5848907015856
      ],
      [
        "erman",
        -10.585025714556062
      ],
      [
        "nista",
        -10.585236155259345
      ],
      [
        "pìlì",
        -10.585778079772329
      ],
      [
        "▁píp",
        -10.5858303995574
      ],
      [
        "aya",
        -10.585930753639582
      ],
      [
        "▁Dis",
        -10.586743868753734
      ],
      [
        "SA",
        -10.58676108616704
      ],
      [
        "lít",
        -10.586771722435717
      ],
      [
        "▁Hu",
        -10.586809906025314
      ],
      [
        "▁mẹ́s",
        -10.586969849207062
      ],
      [
        "hne",
        -10.58708759945208
      ],
      [
        "urop",
        -10.587234577035186
      ],
      [
        "ngari",
        -10.587472478790989
      ],
      [
        "▁Afri",
        -10.588701117886052
      ],
      [
        "ègbè",
        -10.588985223283142
      ],
      [
        "embo",
        -10.589161068566629
      ],
      [
        "nkir",
        -10.589641846667995
      ],
      [
        "nubodè",
        -10.589733658888242
      ],
      [
        "dinlog",
        -10.590514011696456
      ],
      [
        "▁Sup",
        -10.590522572742277
      ],
      [
        "▁keke",
        -10.591098638932849
      ],
      [
        "bate",
        -10.591188323891167
      ],
      [
        "sco",
        -10.5912815388138
      ],
      [
        "hel",
        -10.591340691122738
      ],
      [
        "ìlì",
        -10.592398560245265
      ],
      [
        "▁afẹ",
        -10.592779562097226
      ],
      [
        "ẹ́dẹ́",
        -10.593192589183456
      ],
      [
        "pà",
        -10.59325789871414
      ],
      [
        "895",
        -10.593773881478294
      ],
      [
        "cie",
        -10.59453851499582
      ],
      [
        "aransé",
        -10.594561436929146
      ],
      [
        "ùgbọ́",
        -10.594575730303887
      ],
      [
        "▁àgbáy",
        -10.594863955022973
      ],
      [
        "àrẹ",
        -10.595179510430317
      ],
      [
        "▁mìír",
        -10.595523332105397
      ],
      [
        "julo",
        -10.59575959317529
      ],
      [
        "áwòrán",
        -10.595889533936134
      ],
      [
        "́rí",
        -10.596370431051904
      ],
      [
        "▁níbit",
        -10.596593746692752
      ],
      [
        "▁tọ̀n",
        -10.596776719126973
      ],
      [
        "gu",
        -10.59690966594238
      ],
      [
        "uuru",
        -10.597069051330198
      ],
      [
        "ayip",
        -10.597917038953744
      ],
      [
        "▁(1",
        -10.598506949707112
      ],
      [
        "fojús",
        -10.598818180314447
      ],
      [
        "▁egb",
        -10.600190041094454
      ],
      [
        "ṣí",
        -10.600280799845784
      ],
      [
        "▁Tok",
        -10.600416934866907
      ],
      [
        "▁mohun",
        -10.601171019510065
      ],
      [
        "rìrì",
        -10.60178054119764
      ],
      [
        "▁merin",
        -10.602450738066018
      ],
      [
        "▁Ang",
        -10.60253148755579
      ],
      [
        "ùkù",
        -10.602690338770394
      ],
      [
        "ṣàtún",
        -10.603418102907588
      ],
      [
        "▁Ci",
        -10.603823205617395
      ],
      [
        "Ti",
        -10.604309057733786
      ],
      [
        "▁dàg",
        -10.604744126800096
      ],
      [
        "stra",
        -10.605588573969197
      ],
      [
        "èt",
        -10.60613146765915
      ],
      [
        "fẹ̀hónú",
        -10.60950718827733
      ],
      [
        "díò",
        -10.60956940613117
      ],
      [
        "bọ́",
        -10.610229990768273
      ],
      [
        "▁Mer",
        -10.610350504206998
      ],
      [
        "ej",
        -10.610731393422345
      ],
      [
        "▁Oku",
        -10.611785653236169
      ],
      [
        "outh",
        -10.61216707835137
      ],
      [
        "Te",
        -10.612521212143154
      ],
      [
        "maworan",
        -10.61310394355225
      ],
      [
        "og",
        -10.613335337164711
      ],
      [
        "rce",
        -10.613545014491862
      ],
      [
        "▁Àkọ",
        -10.613765343753895
      ],
      [
        "get",
        -10.613871178291081
      ],
      [
        "▁ẹran",
        -10.614372351077966
      ],
      [
        "rìn-",
        -10.61441539810484
      ],
      [
        "▁òfi",
        -10.614515824017262
      ],
      [
        "rmo",
        -10.61497312675402
      ],
      [
        "fẹ̀h",
        -10.615203872967447
      ],
      [
        "2,",
        -10.615727097938864
      ],
      [
        "▁Austr",
        -10.616297713384027
      ],
      [
        "aarin",
        -10.616502038563716
      ],
      [
        "oran",
        -10.618173433643806
      ],
      [
        "▁méjè",
        -10.619215032887228
      ],
      [
        "fá",
        -10.61923875148305
      ],
      [
        "láṣ",
        -10.619292772526114
      ],
      [
        "▁ọ̀pọ",
        -10.620399596877778
      ],
      [
        "▁Fara",
        -10.62047809772655
      ],
      [
        "saki",
        -10.620708573497572
      ],
      [
        "▁ìtẹ̀",
        -10.621356800036512
      ],
      [
        "ust",
        -10.622160883814297
      ],
      [
        "gar",
        -10.622798069520513
      ],
      [
        "nípò",
        -10.625189190629087
      ],
      [
        "òor",
        -10.625250315694961
      ],
      [
        "-àjò",
        -10.625804574250768
      ],
      [
        "tane",
        -10.626123007950735
      ],
      [
        "gù",
        -10.626437077699675
      ],
      [
        "pane",
        -10.626580357986036
      ],
      [
        "▁Apo",
        -10.626782750994353
      ],
      [
        "▁agbègb",
        -10.626985225454733
      ],
      [
        "▁sók",
        -10.628637584651184
      ],
      [
        "nge",
        -10.629541665293077
      ],
      [
        "ec",
        -10.629567403565105
      ],
      [
        "aci",
        -10.630960665295778
      ],
      [
        "lic",
        -10.631734150703947
      ],
      [
        "lọ́",
        -10.633176045884579
      ],
      [
        "▁mẹ́tàl",
        -10.633683173525888
      ],
      [
        "nt",
        -10.635632851198604
      ],
      [
        "kùnà",
        -10.635652773369177
      ],
      [
        "omini",
        -10.635682551141109
      ],
      [
        "rial",
        -10.635814406432889
      ],
      [
        "▁Gre",
        -10.636581174873413
      ],
      [
        "mir",
        -10.637497894367257
      ],
      [
        "▁ìrọ",
        -10.637946262213058
      ],
      [
        "oyi",
        -10.638300882369053
      ],
      [
        "arp",
        -10.638309302581852
      ],
      [
        "òsù",
        -10.639312322943113
      ],
      [
        "▁Ṣa",
        -10.640496215837025
      ],
      [
        "rísìí",
        -10.640680949253017
      ],
      [
        "́lẹ̀",
        -10.640682776373382
      ],
      [
        "▁oníj",
        -10.640745290770907
      ],
      [
        "lat",
        -10.641222702932058
      ],
      [
        "ọ-",
        -10.643605591899638
      ],
      [
        "hù",
        -10.644436187019295
      ],
      [
        "ogbo",
        -10.644774131073472
      ],
      [
        "bi-",
        -10.648108099240208
      ],
      [
        "ṣà",
        -10.648160225750868
      ],
      [
        "▁níbẹ",
        -10.649705548699487
      ],
      [
        "os",
        -10.649756042828143
      ],
      [
        "árì",
        -10.64976303615459
      ],
      [
        "àlẹ",
        -10.650336243031443
      ],
      [
        "dọ",
        -10.650885831827662
      ],
      [
        "law",
        -10.65212737730858
      ],
      [
        "age",
        -10.653847000066266
      ],
      [
        "▁tut",
        -10.654892685786846
      ],
      [
        "mọ̀,",
        -10.654924281780616
      ],
      [
        "ics",
        -10.655115431945891
      ],
      [
        "iwon",
        -10.655901210945453
      ],
      [
        "ho",
        -10.656552652214353
      ],
      [
        "▁fojús",
        -10.656597561048262
      ],
      [
        "itu",
        -10.656724706035115
      ],
      [
        "▁One",
        -10.656866675462048
      ],
      [
        "dí",
        -10.657043847407046
      ],
      [
        "ntine",
        -10.658198785952887
      ],
      [
        "mer",
        -10.658343112409566
      ],
      [
        "lom",
        -10.659795063899763
      ],
      [
        "▁àgbá",
        -10.662704918812281
      ],
      [
        "mp",
        -10.662848163790123
      ],
      [
        "▁gẹ",
        -10.667317824116536
      ],
      [
        "éke",
        -10.667619403421044
      ],
      [
        "▁ẹl",
        -10.668572127782083
      ],
      [
        "▁El",
        -10.668803794391225
      ],
      [
        "lòmí",
        -10.669843680624219
      ],
      [
        "jád",
        -10.670371192638765
      ],
      [
        "oril",
        -10.67069591771995
      ],
      [
        "ohn",
        -10.6707439872891
      ],
      [
        "tain",
        -10.671526178724758
      ],
      [
        "▁bh",
        -10.672057320811792
      ],
      [
        "ọsẹ",
        -10.672269252050667
      ],
      [
        "▁Ama",
        -10.672602954835053
      ],
      [
        "cel",
        -10.673078917451802
      ],
      [
        "emb",
        -10.674335515833388
      ],
      [
        "▁ìdúró",
        -10.674695342764984
      ],
      [
        "▁gbang",
        -10.675312644324197
      ],
      [
        "aga",
        -10.675592623003496
      ],
      [
        "mar",
        -10.67576357556146
      ],
      [
        "tún",
        -10.6788209620707
      ],
      [
        "álù",
        -10.6810968925722
      ],
      [
        "▁ọ̀wọ",
        -10.681726752687904
      ],
      [
        "▁ìrí",
        -10.682476493532493
      ],
      [
        "▁pad",
        -10.685355665245591
      ],
      [
        "▁àár",
        -10.685571053053163
      ],
      [
        "▁Ati",
        -10.686074843958336
      ],
      [
        "éje",
        -10.689951406808524
      ],
      [
        "esti",
        -10.690713522032322
      ],
      [
        "bale",
        -10.691633874835752
      ],
      [
        "▁ibod",
        -10.691679682010053
      ],
      [
        "kík",
        -10.692027521665322
      ],
      [
        "ofe",
        -10.693285615707243
      ],
      [
        "taki",
        -10.694121214822298
      ],
      [
        "Awo",
        -10.694359969714752
      ],
      [
        "ókè",
        -10.69566469586341
      ],
      [
        "▁páp",
        -10.695666039809966
      ],
      [
        "sese",
        -10.698276122450062
      ],
      [
        "orth",
        -10.698389576349136
      ],
      [
        "▁alág",
        -10.698427123894696
      ],
      [
        "rasí",
        -10.698455691854516
      ],
      [
        "▁ọd",
        -10.700572942700843
      ],
      [
        "lga",
        -10.70124807503676
      ],
      [
        "eeti",
        -10.70134612399947
      ],
      [
        "ven",
        -10.703050740618266
      ],
      [
        "xi",
        -10.704356137707562
      ],
      [
        "din",
        -10.705057224282228
      ],
      [
        "ons",
        -10.705083096738516
      ],
      [
        "lóg",
        -10.705207398296816
      ],
      [
        "▁ìsà",
        -10.706044811436271
      ],
      [
        "los",
        -10.707554923401304
      ],
      [
        "ud",
        -10.710441470243452
      ],
      [
        "ọ̀kọ̀",
        -10.711035712296663
      ],
      [
        "eb",
        -10.712389755237943
      ],
      [
        "hes",
        -10.714046600210812
      ],
      [
        "ànfà",
        -10.714792486547944
      ],
      [
        "▁Sin",
        -10.715377623119956
      ],
      [
        "eko",
        -10.716238042887719
      ],
      [
        "landi",
        -10.729092035686435
      ],
      [
        "pì",
        -10.72968951456283
      ],
      [
        "▁èè",
        -10.731139753486943
      ],
      [
        "yat",
        -10.731647190309431
      ],
      [
        "▁àìs",
        -10.732140489493725
      ],
      [
        "▁alár",
        -10.733482248462966
      ],
      [
        "▁Kr",
        -10.734467633869683
      ],
      [
        "ìnaj",
        -10.736168337979016
      ],
      [
        "dire",
        -10.737040128181818
      ],
      [
        "sey",
        -10.737765106605426
      ],
      [
        "dag",
        -10.739431886590559
      ],
      [
        "ral",
        -10.739775367608443
      ],
      [
        "bor",
        -10.74203789875004
      ],
      [
        "▁og",
        -10.742150642764768
      ],
      [
        "olù",
        -10.74215134963103
      ],
      [
        "nes",
        -10.744015156256197
      ],
      [
        "úlù",
        -10.744457750986818
      ],
      [
        "aj",
        -10.744459410933766
      ],
      [
        "ẹ̀h",
        -10.745058205393077
      ],
      [
        "▁“ì",
        -10.749201979144502
      ],
      [
        "òdò",
        -10.753903088413566
      ],
      [
        "ret",
        -10.762160826839343
      ],
      [
        "rísì",
        -10.765862495247609
      ],
      [
        "ọ̀tọ",
        -10.766052234969496
      ],
      [
        "epu",
        -10.767071204736553
      ],
      [
        "ts",
        -10.768934501154451
      ],
      [
        "ṣo",
        -10.77124395023269
      ],
      [
        "hà",
        -10.773503028569976
      ],
      [
        "̀ẹ̀t",
        -10.776814486915313
      ],
      [
        "ikin",
        -10.777248551912312
      ],
      [
        "▁Àj",
        -10.777249931841592
      ],
      [
        "ífò",
        -10.777713752988832
      ],
      [
        "ade",
        -10.777764666351429
      ],
      [
        "ym",
        -10.778449535103665
      ],
      [
        "lata",
        -10.779347695419546
      ],
      [
        "nsa",
        -10.78148495149335
      ],
      [
        "arine",
        -10.782758046892466
      ],
      [
        "júw",
        -10.784676996701895
      ],
      [
        "▁táw",
        -10.785367842210956
      ],
      [
        "rag",
        -10.787535251708142
      ],
      [
        "ìbí",
        -10.788327539760736
      ],
      [
        "▁sé",
        -10.788607264271459
      ],
      [
        "fò",
        -10.790771344923417
      ],
      [
        "kar",
        -10.792288797873873
      ],
      [
        "▁Ik",
        -10.79291806127346
      ],
      [
        "torínà",
        -10.79517706325769
      ],
      [
        "tàb",
        -10.795344158274613
      ],
      [
        "▁Síb",
        -10.795998368039017
      ],
      [
        "úpọ̀",
        -10.796040806326445
      ],
      [
        "▁òm",
        -10.796093642548044
      ],
      [
        "ony",
        -10.797660447611683
      ],
      [
        "als",
        -10.799799457495945
      ],
      [
        "-i",
        -10.802112623736503
      ],
      [
        "▁ìrì",
        -10.804377268056673
      ],
      [
        "fara",
        -10.810362865543965
      ],
      [
        "wádi",
        -10.813071717326919
      ],
      [
        "bud",
        -10.813119521333341
      ],
      [
        "▁ọ̀g",
        -10.813121509581151
      ],
      [
        "ant",
        -10.81404919849843
      ],
      [
        "▁Ìw",
        -10.81602350646707
      ],
      [
        "ler",
        -10.816223972420218
      ],
      [
        "▁às",
        -10.81780876540152
      ],
      [
        "ibi",
        -10.820414669357623
      ],
      [
        "jí",
        -10.820856832765276
      ],
      [
        "▁èt",
        -10.82228245449729
      ],
      [
        "▁Fe",
        -10.823029333873725
      ],
      [
        "▁rànw",
        -10.824039593292145
      ],
      [
        "▁Tu",
        -10.825943698801982
      ],
      [
        "ofi",
        -10.826167917620129
      ],
      [
        "lákò",
        -10.827041362139042
      ],
      [
        "fic",
        -10.827533293859847
      ],
      [
        "òwò",
        -10.831617558786661
      ],
      [
        "▁ih",
        -10.83195162704823
      ],
      [
        "km",
        -10.833215411279665
      ],
      [
        "▁lók",
        -10.83543875812191
      ],
      [
        "ágbá",
        -10.835528457051113
      ],
      [
        "ac",
        -10.840045669773774
      ],
      [
        "nm",
        -10.840116688722404
      ],
      [
        "ist",
        -10.84067706285009
      ],
      [
        "tos",
        -10.84074807824471
      ],
      [
        "17,",
        -10.840827718494477
      ],
      [
        "▁gbo",
        -10.840997153598394
      ],
      [
        "ich",
        -10.842067219959887
      ],
      [
        "olo",
        -10.843352443653181
      ],
      [
        "▁Cas",
        -10.845816606523837
      ],
      [
        "▁ìda",
        -10.84613498996772
      ],
      [
        "▁oníg",
        -10.849026759302559
      ],
      [
        "▁v",
        -10.85226902987096
      ],
      [
        "▁Ìs",
        -10.855905622455138
      ],
      [
        "▁isa",
        -10.857737687859684
      ],
      [
        "lùf",
        -10.860196114985934
      ],
      [
        "inrin",
        -10.860960672258756
      ],
      [
        "òpin",
        -10.863425496575424
      ],
      [
        "wòr",
        -10.863804588750739
      ],
      [
        "▁ìw",
        -10.86383047272864
      ],
      [
        "▁aa",
        -10.8648629431176
      ],
      [
        "kós",
        -10.864991011479809
      ],
      [
        "▁Nig",
        -10.865734656883376
      ],
      [
        "▁aláì",
        -10.86641918956354
      ],
      [
        "uri",
        -10.86900331868943
      ],
      [
        "ot",
        -10.872957952447724
      ],
      [
        "▁en",
        -10.8731915553455
      ],
      [
        "▁sin",
        -10.875210229881263
      ],
      [
        "▁ẹk",
        -10.881792191114847
      ],
      [
        "▁gbẹ̀",
        -10.882773926096213
      ],
      [
        "luk",
        -10.884997768550543
      ],
      [
        "aworan",
        -10.88567443556121
      ],
      [
        "aro",
        -10.885952529243522
      ],
      [
        "-is",
        -10.886018727219835
      ],
      [
        "unki",
        -10.886632950085932
      ],
      [
        "▁agbár",
        -10.889041983624548
      ],
      [
        "▁àwò",
        -10.88954141617135
      ],
      [
        "jè",
        -10.889684061766564
      ],
      [
        "fíf",
        -10.889952369433141
      ],
      [
        "▁oh",
        -10.89001178977847
      ],
      [
        "▁Sc",
        -10.89085656706524
      ],
      [
        "ojús",
        -10.891767860928846
      ],
      [
        "▁ìyà",
        -10.894179550839073
      ],
      [
        "iv",
        -10.894562294042327
      ],
      [
        "borí",
        -10.89616809872115
      ],
      [
        "aka",
        -10.896402528583254
      ],
      [
        "áwọ",
        -10.898273076570787
      ],
      [
        "r-",
        -10.89885233181491
      ],
      [
        "pan",
        -10.90415982113152
      ],
      [
        "▁yo",
        -10.90609684711534
      ],
      [
        "sum",
        -10.9098636233549
      ],
      [
        "ánà",
        -10.91072261089986
      ],
      [
        "▁gbè",
        -10.913319652828276
      ],
      [
        "▁Can",
        -10.913769190663649
      ],
      [
        "rist",
        -10.919206390860097
      ],
      [
        "▁látọ",
        -10.919340744910038
      ],
      [
        "ion",
        -10.919719056509098
      ],
      [
        "onga",
        -10.921100766755739
      ],
      [
        "dd",
        -10.921989523198635
      ],
      [
        "ses",
        -10.926767197733561
      ],
      [
        "bọ̀w",
        -10.928199997203487
      ],
      [
        "ings",
        -10.93136457916564
      ],
      [
        "tab",
        -10.93536928653128
      ],
      [
        "kàtí",
        -10.94042540331667
      ],
      [
        "ò-",
        -10.942349198099464
      ],
      [
        "▁ọ̀t",
        -10.942491705807702
      ],
      [
        "▁ìpe",
        -10.942636011895623
      ],
      [
        "lin",
        -10.94263617126782
      ],
      [
        "nion",
        -10.944380270263494
      ],
      [
        "bù",
        -10.944721991200879
      ],
      [
        "▁mar",
        -10.94525761702707
      ],
      [
        "red",
        -10.948579022624891
      ],
      [
        "▁Au",
        -10.951711989602812
      ],
      [
        "ọ̀ọ́",
        -10.955912799323194
      ],
      [
        "▁c",
        -10.958172088974178
      ],
      [
        "▁amo",
        -10.961698150079156
      ],
      [
        "Ey",
        -10.962177736913043
      ],
      [
        "▁kọkànl",
        -10.96723389937348
      ],
      [
        "▁km",
        -10.974208222622398
      ],
      [
        "rid",
        -10.974388111759492
      ],
      [
        "▁dọ",
        -10.976187621793892
      ],
      [
        "▁oríṣ",
        -10.981201507951305
      ],
      [
        "abool",
        -10.982732736441296
      ],
      [
        "-ìj",
        -10.98796278144744
      ],
      [
        "▁yẹn",
        -10.988619702672768
      ],
      [
        "fih",
        -10.994224281542149
      ],
      [
        "àr",
        -10.995296472234505
      ],
      [
        "ọ́l",
        -10.999549263755828
      ],
      [
        "a-",
        -11.0010294967304
      ],
      [
        "▁oku",
        -11.003878259753037
      ],
      [
        "nile",
        -11.005006557143872
      ],
      [
        "▁At",
        -11.00629885114587
      ],
      [
        "òyìn",
        -11.008890069759342
      ],
      [
        "À",
        -11.009214184244808
      ],
      [
        "ẹ̀yìn",
        -11.020032427326798
      ],
      [
        "fas",
        -11.023636773784643
      ],
      [
        "68",
        -11.02440953452521
      ],
      [
        "rìnd",
        -11.025493483413843
      ],
      [
        "▁ifi",
        -11.027268682664346
      ],
      [
        "luko",
        -11.029765793520749
      ],
      [
        "▁ìbí",
        -11.030133778325942
      ],
      [
        "ọ́t",
        -11.030290964405825
      ],
      [
        "▁àkọ́",
        -11.03411599409179
      ],
      [
        "och",
        -11.036441316048835
      ],
      [
        "uusu",
        -11.040630333968219
      ],
      [
        "ilẹ̀",
        -11.046382366916388
      ],
      [
        "ílọ",
        -11.046518698545105
      ],
      [
        "ék",
        -11.046818480040104
      ],
      [
        "úús",
        -11.05838202362057
      ],
      [
        "anis",
        -11.061460265833421
      ],
      [
        "íní",
        -11.06204820854561
      ],
      [
        "oy",
        -11.062774062643465
      ],
      [
        "àtà",
        -11.06874673162142
      ],
      [
        "▁era",
        -11.069037062904133
      ],
      [
        "▁Ẹn",
        -11.07235448220688
      ],
      [
        "▁ìdì",
        -11.072656714305673
      ],
      [
        "▁ìlẹ",
        -11.073311848965918
      ],
      [
        "▁Ron",
        -11.079390807220529
      ],
      [
        "jumo",
        -11.081058496332956
      ],
      [
        "eṣ",
        -11.084711915535415
      ],
      [
        "▁Ìp",
        -11.08475190586346
      ],
      [
        "àmún",
        -11.08479669575543
      ],
      [
        "▁Sim",
        -11.08735106145641
      ],
      [
        "▁ìsi",
        -11.095745441965732
      ],
      [
        "Pl",
        -11.097374889087117
      ],
      [
        "▁ìgbés",
        -11.100877505018644
      ],
      [
        "▁lẹ́gbẹ",
        -11.109091873521194
      ],
      [
        "est",
        -11.11015218032522
      ],
      [
        "▁ale",
        -11.110941737010418
      ],
      [
        "▁Oli",
        -11.111765395534103
      ],
      [
        "ree",
        -11.111982364747409
      ],
      [
        "▁ru",
        -11.115479423050049
      ],
      [
        "▁Àw",
        -11.118947958405688
      ],
      [
        "▁pu",
        -11.119733222055245
      ],
      [
        "anf",
        -11.12732301387364
      ],
      [
        "gì",
        -11.127438271572961
      ],
      [
        "dan",
        -11.132996351996491
      ],
      [
        "▁ìbo",
        -11.134143500489316
      ],
      [
        "íra",
        -11.137555335074294
      ],
      [
        "▁gbẹ",
        -11.13932415964809
      ],
      [
        "ẹgbẹ́",
        -11.139921748883319
      ],
      [
        "̀dọ̀",
        -11.15114370102224
      ],
      [
        "▁déb",
        -11.15184615083509
      ],
      [
        "rìs",
        -11.160209823991027
      ],
      [
        "oru",
        -11.16253829170882
      ],
      [
        "▁àtij",
        -11.163137726423294
      ],
      [
        "afu",
        -11.170661613387354
      ],
      [
        "ààr",
        -11.183015682562909
      ],
      [
        "úg",
        -11.183073556926551
      ],
      [
        "▁Ló",
        -11.18337883884569
      ],
      [
        "̀,",
        -11.190934153730336
      ],
      [
        "eri",
        -11.1922859919424
      ],
      [
        "ur",
        -11.196419472761328
      ],
      [
        "enu",
        -11.20420078073945
      ],
      [
        "sk",
        -11.20726491213357
      ],
      [
        "muj",
        -11.20816132059266
      ],
      [
        "hal",
        -11.211165366879843
      ],
      [
        "emi",
        -11.213049954725774
      ],
      [
        "lọ́p",
        -11.215890641429631
      ],
      [
        "▁ẹlẹ́r",
        -11.235737443830647
      ],
      [
        "láy",
        -11.236559061215523
      ],
      [
        "léyì",
        -11.23806347115596
      ],
      [
        "▁kor",
        -11.241812767615963
      ],
      [
        "ásì",
        -11.243591256888678
      ],
      [
        "▁rẹ́",
        -11.244028121649286
      ],
      [
        "▁V",
        -11.251186347673832
      ],
      [
        "ent",
        -11.255631382507707
      ],
      [
        "ọkọ̀",
        -11.261491663144724
      ],
      [
        "▁ìsú",
        -11.262649839365562
      ],
      [
        "ẹ́yin",
        -11.266032011989067
      ],
      [
        "▁ìl",
        -11.27020636640553
      ],
      [
        "US",
        -11.273432499598167
      ],
      [
        "▁pẹ̀l",
        -11.276656957390179
      ],
      [
        "ny",
        -11.27689200522474
      ],
      [
        "nlá",
        -11.279525018103566
      ],
      [
        "ìk",
        -11.281025802703502
      ],
      [
        "alo",
        -11.28729126762174
      ],
      [
        "▁Og",
        -11.292212099321805
      ],
      [
        "àwá",
        -11.292901437806156
      ],
      [
        "kèrè",
        -11.293625776939333
      ],
      [
        "ong",
        -11.294519856596635
      ],
      [
        "▁méjìl",
        -11.301730231336931
      ],
      [
        "der",
        -11.30322540694538
      ],
      [
        "ṣojú",
        -11.30359281771138
      ],
      [
        "àg",
        -11.305860083917409
      ],
      [
        "ìdẹ",
        -11.306191716823472
      ],
      [
        "pí",
        -11.306939850198324
      ],
      [
        "Par",
        -11.314228635699992
      ],
      [
        "Is",
        -11.31425238549586
      ],
      [
        "áyà",
        -11.315738186612998
      ],
      [
        "ip",
        -11.316014848583103
      ],
      [
        "rọ",
        -11.31640504709802
      ],
      [
        "oven",
        -11.320348637623873
      ],
      [
        "saf",
        -11.323223957124066
      ],
      [
        "▁òkèr",
        -11.325521680741932
      ],
      [
        "ngol",
        -11.330139093924629
      ],
      [
        "dia",
        -11.334007911650275
      ],
      [
        "odè",
        -11.33587024560674
      ],
      [
        "épé",
        -11.33701073626496
      ],
      [
        "úlò",
        -11.339012277915128
      ],
      [
        "▁Agbá",
        -11.342766106134484
      ],
      [
        "ókò",
        -11.344713592982544
      ],
      [
        "▁Cl",
        -11.346984414233127
      ],
      [
        "ngi",
        -11.358350323452127
      ],
      [
        "iwo",
        -11.35924447431555
      ],
      [
        "tẹ",
        -11.36078316679259
      ],
      [
        "sùn",
        -11.361944243100472
      ],
      [
        "íbè",
        -11.364663684048804
      ],
      [
        "ség",
        -11.374058934434524
      ],
      [
        "ne",
        -11.385586158451702
      ],
      [
        "New",
        -11.38729084996969
      ],
      [
        "bú",
        -11.38733213846406
      ],
      [
        "enia",
        -11.403351043151323
      ],
      [
        "àná",
        -11.403861364788405
      ],
      [
        "iya",
        -11.40409076322151
      ],
      [
        "▁7",
        -11.42813949693972
      ],
      [
        "ọ́,",
        -11.434061928688164
      ],
      [
        "▁olók",
        -11.442711128538132
      ],
      [
        "▁We",
        -11.462138300205217
      ],
      [
        "lay",
        -11.466124060524507
      ],
      [
        "for",
        -11.466882969913334
      ],
      [
        "ngba",
        -11.46956171749862
      ],
      [
        "ord",
        -11.477349867534056
      ],
      [
        "ick",
        -11.481857722604943
      ],
      [
        "bẹ̀l",
        -11.484344587226673
      ],
      [
        "ewu",
        -11.488733023935234
      ],
      [
        "sl",
        -11.504756391081225
      ],
      [
        "ìpo",
        -11.512024229228354
      ],
      [
        "isti",
        -11.513959008245337
      ],
      [
        "íwọn",
        -11.527527152096862
      ],
      [
        "▁ẹ̀s",
        -11.538072457771747
      ],
      [
        "jìlé",
        -11.53821079014888
      ],
      [
        "▁igbe",
        -11.540673249122868
      ],
      [
        "▁ob",
        -11.54264990893382
      ],
      [
        "tọwọ́",
        -11.54335457683598
      ],
      [
        "▁kok",
        -11.543739058494515
      ],
      [
        "isọ́t",
        -11.559332441638489
      ],
      [
        "nikan",
        -11.559857776179976
      ],
      [
        "Ba",
        -11.560272572566355
      ],
      [
        "ris",
        -11.566719160880794
      ],
      [
        "kúr",
        -11.575249509837274
      ],
      [
        "nilẹ́",
        -11.57561985265387
      ],
      [
        "hu",
        -11.581304340959004
      ],
      [
        "sín",
        -11.58855375115574
      ],
      [
        "▁iler",
        -11.589046963701353
      ],
      [
        "▁Ìr",
        -11.593100360246007
      ],
      [
        "St",
        -11.593107400553667
      ],
      [
        "len",
        -11.608450098971888
      ],
      [
        "àrá",
        -11.614522786835282
      ],
      [
        "ater",
        -11.615968243149034
      ],
      [
        "▁id",
        -11.61608618731284
      ],
      [
        "io",
        -11.620537694016873
      ],
      [
        "óòl",
        -11.627059077062588
      ],
      [
        "̀pọ̀lọpọ",
        -11.630705369940191
      ],
      [
        "uba",
        -11.633897134973703
      ],
      [
        "èé",
        -11.63522759210921
      ],
      [
        "ula",
        -11.64151590589391
      ],
      [
        "▁bà",
        -11.644095227161277
      ],
      [
        "wọ́g",
        -11.646839013075956
      ],
      [
        "óko",
        -11.650898048067257
      ],
      [
        "▁sísà",
        -11.655764559890908
      ],
      [
        "sọ̀r",
        -11.658172913629596
      ],
      [
        "láwọ",
        -11.660248743436842
      ],
      [
        "▁ìpal",
        -11.663338873289893
      ],
      [
        "gbo",
        -11.665383185697394
      ],
      [
        "nif",
        -11.665629697627699
      ],
      [
        "▁ret",
        -11.672068665338752
      ],
      [
        "▁asi",
        -11.679736011851407
      ],
      [
        "▁Igb",
        -11.692189968810013
      ],
      [
        "ngun",
        -11.697458871005157
      ],
      [
        "ok",
        -11.712462406790683
      ],
      [
        "▁ẹy",
        -11.732214732360964
      ],
      [
        "▁un",
        -11.74116403339648
      ],
      [
        "irinajo",
        -11.74851592116434
      ],
      [
        "ínà",
        -11.749578864564857
      ],
      [
        "▁bur",
        -11.75285870740206
      ],
      [
        "-gb",
        -11.759462174486416
      ],
      [
        "aani",
        -11.764516018616948
      ],
      [
        "ẹ́n",
        -11.766359673382114
      ],
      [
        "▁ẹgb",
        -11.767321428849494
      ],
      [
        "▁rà",
        -11.7734941846851
      ],
      [
        "ct",
        -11.781530973955912
      ],
      [
        "▁kẹ́",
        -11.782597687379276
      ],
      [
        "mul",
        -11.78436761632759
      ],
      [
        "èr",
        -11.784926494118528
      ],
      [
        "naa",
        -11.794845746100602
      ],
      [
        "tàn",
        -11.795568423376947
      ],
      [
        "ág",
        -11.796142854673372
      ],
      [
        "▁ha",
        -11.800567100753984
      ],
      [
        "▁go",
        -11.804171541958254
      ],
      [
        "ìpè",
        -11.805992057806714
      ],
      [
        "▁àjọs",
        -11.80983695592925
      ],
      [
        "itiy",
        -11.819678247815204
      ],
      [
        "▁bẹ́",
        -11.82756988150995
      ],
      [
        "▁Ale",
        -11.841900927025932
      ],
      [
        "ẹ́t",
        -11.844529867881791
      ],
      [
        "òò",
        -11.853498042194266
      ],
      [
        "▁lod",
        -11.856116402966538
      ],
      [
        "ikan",
        -11.863936296002906
      ],
      [
        "▁(t",
        -11.88210834892879
      ],
      [
        "▁dú",
        -11.892557502307579
      ],
      [
        "▁níí",
        -11.894721913362744
      ],
      [
        "nse",
        -11.89927578785459
      ],
      [
        "ákòó",
        -11.916745103836245
      ],
      [
        "balẹ̀",
        -11.917702280023704
      ],
      [
        "use",
        -11.91977021292657
      ],
      [
        "apa",
        -11.92902140912014
      ],
      [
        "▁fù",
        -11.931023143485088
      ],
      [
        "▁òṣè",
        -11.933575823414007
      ],
      [
        "▁èb",
        -11.93839043006915
      ],
      [
        "àpé",
        -11.942408131831188
      ],
      [
        "ọ́pọ̀",
        -11.951458961552875
      ],
      [
        "-b",
        -11.958966813477048
      ],
      [
        "“",
        -11.967482750275021
      ],
      [
        "¥",
        -11.967582750275023
      ],
      [
        "ọ̀tà",
        -11.96763815104687
      ],
      [
        "J",
        -11.967682750275022
      ],
      [
        "F",
        -11.967782750275022
      ],
      [
        "Z",
        -11.967882750275022
      ],
      [
        "ḿ",
        -11.967982750275022
      ],
      [
        "H",
        -11.968082750275022
      ],
      [
        "Ẹ",
        -11.968182750275021
      ],
      [
[...]
