{
  "version": "1.0",
  "truncation": null,
  "padding": null,
  "added_tokens": [
    {
      "id": 0,
      "content": "<pad>",
      "single_word": false,
      "lstrip": false,
      "rstrip": false,
      "normalized": false,
      "special": true
    },
    {
      "id": 1,
      "content": "<unk>",
      "single_word": false,
      "lstrip": false,
      "rstrip": false,
      "normalized": false,
      "special": true
    },
    {
      "id": 2,
      "content": "<cls>",
      "single_word": false,
      "lstrip": false,
      "rstrip": false,
      "normalized": false,
      "special": true
    }
  ],
  "normalizer": {
    "type": "Sequence",
    "normalizers": [
      {
        "type": "Nmt"
      },
      {
        "type": "NFKC"
      },
      {
        "type": "Replace",
        "pattern": {
          "Regex": " {2,}"
        },
        "content": " "
      }
    ]
  },
  "pre_tokenizer": {
    "type": "Metaspace",
    "replacement": "▁",
    "prepend_scheme": "always",
    "split": true
  },
  "post_processor": {
    "type": "TemplateProcessing",
    "single": [
      {
        "SpecialToken": {
          "id": "<cls>",
          "type_id": 0
        }
      },
      {
        "Sequence": {
          "id": "A",
          "type_id": 0
        }
      }
    ],
    "pair": [
      {
        "Sequence": {
          "id": "A",
          "type_id": 0
        }
      },
      {
        "Sequence": {
          "id": "B",
          "type_id": 1
        }
      }
    ],
    "special_tokens": {
      "<cls>": {
        "id": "<cls>",
        "ids": [
          2
        ],
        "tokens": [
          "<cls>"
        ]
      }
    }
  },
  "decoder": {
    "type": "Metaspace",
    "replacement": "▁",
    "prepend_scheme": "always",
    "split": true
  },
  "model": {
    "type": "Unigram",
    "unk_id": 1,
    "vocab": [
      [
        "<pad>",
        0.0
      ],
      [
        "<unk>",
        0.0
      ],
      [
        "<cls>",
        0.0
      ],
      [
        "▁",
        -3.3187676794407572
      ],
      [
        "ን",
        -3.548716273548399
      ],
      [
        "ም",
        -4.100645162278823
      ],
      [
        "▁የ",
        -4.158102073849023
      ],
      [
        "ት",
        -4.307878916913587
      ],
      [
        "▁በ",
        -4.343108156708796
      ],
      [
        "...",
        -4.463586281850179
      ],
      [
        "ው",
        -4.539893589346737
      ],
      [
        "ና",
        -4.63147372023707
      ],
      [
        "▁ነው",
        -4.7487596302130815
      ],
      [
        "።",
        -4.788601904241295
      ],
      [
        "▁ከ",
        -4.866500425363432
      ],
      [
        "▁ለ",
        -5.022699030545716
      ],
      [
        "ል",
        -5.1411479905896575
      ],
      [
        "ስ",
        -5.145707317327147
      ],
      [
        "ር",
        -5.194683027813746
      ],
      [
        "▁አ",
        -5.207964724508142
      ],
      [
        "▁እና",
        -5.269848408473184
      ],
      [
        "ህ",
        -5.297574361500452
      ],
      [
        "▁ላይ",
        -5.463997551302356
      ],
      [
        "!",
        -5.471216315143478
      ],
      [
        "፣",
        -5.5367014787297215
      ],
      [
        "ብ",
        -5.546128854100347
      ],
      [
        "▁መ",
        -5.607044543392307
      ],
      [
        "?",
        -5.747998378160151
      ],
      [
        "ድ",
        -5.822114144942045
      ],
      [
        "ሽ",
        -5.828720718800732
      ],
      [
        "ክ",
        -5.881262380961787
      ],
      [
        "▁እ",
        -5.886226319089708
      ],
      [
        "ታ",
        -5.9141121519943765
      ],
      [
        "ለ",
        -5.968184542555049
      ],
      [
        "▁ነው።",
        -5.968410982702417
      ],
      [
        "▁ያ",
        -5.970478455765105
      ],
      [
        "ች",
        -5.978404515161925
      ],
      [
        "▁የሚ",
        -6.006951400779574
      ],
      [
        "▁??",
        -6.010337766471134
      ],
      [
        "▁ይ",
        -6.015793957205093
      ],
      [
        "ይ",
        -6.018142663054385
      ],
      [
        "ኝ",
        -6.024734885619388
      ],
      [
        "▁እንደ",
        -6.035502657063749
      ],
      [
        "▁ተ",
        -6.0566509473252275
      ],
      [
        "▁ምን",
        -6.12040175129937
      ],
      [
        "ቅ",
        -6.124599811121797
      ],
      [
        "መ",
        -6.142396940467578
      ],
      [
        "▁ግን",
        -6.143046833163248
      ],
      [
        "ማ",
        -6.153639019326877
      ],
      [
        "በት",
        -6.172584338709983
      ],
      [
        "▁ሰው",
        -6.178828203443364
      ],
      [
        "በ",
        -6.1854663013872075
      ],
      [
        "ሳ",
        -6.194783187969799
      ],
      [
        "▁ነገር",
        -6.198582139092074
      ],
      [
        "ቱ",
        -6.199179947275284
      ],
      [
        "ያ",
        -6.201528599377594
      ],
      [
        "▁ወደ",
        -6.202546537396676
      ],
      [
        "ቶ",
        -6.208457119681777
      ],
      [
        "ላ",
        -6.208467656717331
      ],
      [
        "▁ሲ",
        -6.221328947864325
      ],
      [
        "ፍ",
        -6.242050869003826
      ],
      [
        "ዎች",
        -6.249584210315969
      ],
      [
        "ነት",
        -6.25809433993382
      ],
      [
        "ራ",
        -6.262310559633198
      ],
      [
        "ተ",
        -6.291687811144225
      ],
      [
        "ሉ",
        -6.306698114335971
      ],
      [
        "ነ",
        -6.322700228419704
      ],
      [
        "▁እኔ",
        -6.325928591077784
      ],
      [
        "::",
        -6.334374104577368
      ],
      [
        "▁ብቻ",
        -6.338745060625347
      ],
      [
        "▁ጋር",
        -6.339768798191643
      ],
      [
        "የ",
        -6.343854884418007
      ],
      [
        "▁አይ",
        -6.3574597755602165
      ],
      [
        ":",
        -6.39758811804454
      ],
      [
        "ሰ",
        -6.408328472444352
      ],
      [
        ")",
        -6.4088362378538015
      ],
      [
        "፤",
        -6.450875546353161
      ],
      [
        "ረ",
        -6.493261190194595
      ],
      [
        "ሩ",
        -6.515094936016268
      ],
      [
        "▁ማ",
        -6.519567214719848
      ],
      [
        "ደ",
        -6.541858798227199
      ],
      [
        "ግ",
        -6.558142950962258
      ],
      [
        "▁ስለ",
        -6.561192439298165
      ],
      [
        "ጥ",
        -6.56766132189459
      ],
      [
        "??",
        -6.575368858710774
      ],
      [
        "▁ውስጥ",
        -6.578621358568129
      ],
      [
        "ቀ",
        -6.594317134732272
      ],
      [
        "ዋ",
        -6.604131929300182
      ],
      [
        "፡፡",
        -6.613614277993725
      ],
      [
        "▁ነበር",
        -6.6192864956753334
      ],
      [
        "ውን",
        -6.643049918427531
      ],
      [
        "ኑ",
        -6.665999772654995
      ],
      [
        "ዳ",
        -6.67557083691406
      ],
      [
        "ኛ",
        -6.688080371252488
      ],
      [
        "▁አንድ",
        -6.691218110460393
      ],
      [
        "▁፣",
        -6.717116962389546
      ],
      [
        "ገ",
        -6.719035990568555
      ],
      [
        "▁ያለው",
        -6.7282267925833645
      ],
      [
        "▁የተ",
        -6.732787367178129
      ],
      [
        "▁አሁን",
        -6.734815395416761
      ],
      [
        "ባ",
        -6.7477742286136815
      ],
      [
        "ጠ",
        -6.751796545430767
      ],
      [
        "ጋ",
        -6.761749254989708
      ],
      [
        "ዊ",
        -6.766758115473779
      ],
      [
        "ከ",
        -6.767850190256288
      ],
      [
        "ሮ",
        -6.772329317318693
      ],
      [
        "▁ሊ",
        -6.778445487338865
      ],
      [
        "▁እንኳን",
        -6.784002860619303
      ],
      [
        "▁አይደለም",
        -6.80063715045915
      ],
      [
        "ዬ",
        -6.801442778936639
      ],
      [
        "ዝ",
        -6.805647255423431
      ],
      [
        "/",
        -6.8174132009816155
      ],
      [
        "▁ህዝብ",
        -6.81960013440365
      ],
      [
        "▁ለማ",
        -6.835477317961137
      ],
      [
        "▁እየ",
        -6.835678958526933
      ],
      [
        "▁እንጂ",
        -6.844789942749899
      ],
      [
        "▁ቢ",
        -6.845355697966973
      ],
      [
        "ቃ",
        -6.846816891508878
      ],
      [
        "አ",
        -6.850367036974049
      ],
      [
        "▁ሁሉ",
        -6.852572801350544
      ],
      [
        "ዉ",
        -6.8744487266626795
      ],
      [
        "▁ጊዜ",
        -6.876181572468066
      ],
      [
        "▁እንዲ",
        -6.892149301458818
      ],
      [
        "ኮ",
        -6.896377269973588
      ],
      [
        "▁እኮ",
        -6.926832039321068
      ],
      [
        "▁በጣም",
        -6.934169395705139
      ],
      [
        "ኔ",
        -6.935178550865765
      ],
      [
        "▁ዛሬ",
        -6.946606664579276
      ],
      [
        "ወ",
        -6.946676206429043
      ],
      [
        "▁(",
        -6.957037704884301
      ],
      [
        "▁ቤት",
        -6.960048835390625
      ],
      [
        "ፈ",
        -6.975387343954783
      ],
      [
        "ጣ",
        -6.982445864495322
      ],
      [
        "▁አንተ",
        -6.98300983221401
      ],
      [
        "▁-",
        -6.989789521997636
      ],
      [
        "▁ፓርቲ",
        -6.996936298997062
      ],
      [
        "▁ባ",
        -6.998898774033468
      ],
      [
        "▁ብሎ",
        -7.001201862642638
      ],
      [
        "▁ያለ",
        -7.019702817839246
      ],
      [
        ".",
        -7.029236999474751
      ],
      [
        "ቴ",
        -7.039099722556347
      ],
      [
        "ቸው",
        -7.0491009993452005
      ],
      [
        "ሁ",
        -7.056672374648122
      ],
      [
        "ሪ",
        -7.061265414425625
      ],
      [
        "▁ይሄ",
        -7.0617732742867005
      ],
      [
        "▁ስ",
        -7.063953961566052
      ],
      [
        "ካ",
        -7.071335757476213
      ],
      [
        "▁አለ",
        -7.071504733525877
      ],
      [
        "ዎ",
        -7.072889678398694
      ],
      [
        "▁መንግስት",
        -7.07387776294341
      ],
      [
        "▁የኢትዮጵያ",
        -7.079635480285644
      ],
      [
        "▁ይህ",
        -7.088713453867476
      ],
      [
        "▁ኣ",
        -7.095640440002785
      ],
      [
        "▁ብዙ",
        -7.1030634706277285
      ],
      [
        "ጅ",
        -7.106266460917955
      ],
      [
        "▁እን",
        -7.107957307778824
      ],
      [
        "▁ማለት",
        -7.109415464069231
      ],
      [
        "፡",
        -7.1098975948142416
      ],
      [
        "▁????",
        -7.111704630579942
      ],
      [
        "▁መልካም",
        -7.112824366546185
      ],
      [
        "ቁ",
        -7.112922499228642
      ],
      [
        "▁ጥሩ",
        -7.114010995460458
      ],
      [
        "▁፡፡",
        -7.11798266597249
      ],
      [
        "!!",
        -7.1195602846648685
      ],
      [
        "-",
        -7.12381238889765
      ],
      [
        "▁ለመ",
        -7.134982596591236
      ],
      [
        "▁ክልል",
        -7.1359924031049795
      ],
      [
        "▁አዲስ",
        -7.140961533065029
      ],
      [
        "ኩ",
        -7.145634709149855
      ],
      [
        "▁ኢትዮጵያ",
        -7.151765230373563
      ],
      [
        "▁እንዴት",
        -7.15587832612747
      ],
      [
        "▁ማን",
        -7.163810623886491
      ],
      [
        "ቹ",
        -7.1647656649533245
      ],
      [
        "▁እውነት",
        -7.167025978073124
      ],
      [
        "▁ሰዎች",
        -7.168118309891597
      ],
      [
        "ሌ",
        -7.177872598164297
      ],
      [
        "ዘ",
        -7.179379080345441
      ],
      [
        "▁ደግሞ",
        -7.1800818707817635
      ],
      [
        "▁ልጅ",
        -7.18027167385966
      ],
      [
        "ቶች",
        -7.182520111450009
      ],
      [
        "ዩ",
        -7.188081577961383
      ],
      [
        "▁አል",
        -7.1898856074424415
      ],
      [
        "▁ቀን",
        -7.19044221041226
      ],
      [
        "▁አስ",
        -7.202250817367424
      ],
      [
        "▁በመ",
        -7.203452304075697
      ],
      [
        "▁አበባ",
        -7.212356260084714
      ],
      [
        "ሱ",
        -7.214783727143093
      ],
      [
        "፥",
        -7.217255264614754
      ],
      [
        "ሙ",
        -7.219485245807726
      ],
      [
        "▁ወይ",
        -7.2217657699816655
      ],
      [
        "▁ሰላም",
        -7.222061696625981
      ],
      [
        "ጭ",
        -7.223490577750907
      ],
      [
        "ሎ",
        -7.225456279898888
      ],
      [
        "▁ስራ",
        -7.2313283837776
      ],
      [
        "ሚ",
        -7.233079178937049
      ],
      [
        "▁የሚያ",
        -7.240686842993433
      ],
      [
        "እ",
        -7.262641630615274
      ],
      [
        "▁ከተማ",
        -7.26515913453315
      ],
      [
        "ፋ",
        -7.266612328766149
      ],
      [
        "▁አማራ",
        -7.267911440447968
      ],
      [
        "▁እያ",
        -7.271862511245901
      ],
      [
        "ዱ",
        -7.28510171336498
      ],
      [
        "ሞ",
        -7.29494748975481
      ],
      [
        "▁ወ",
        -7.306636033666859
      ],
      [
        "ቦ",
        -7.312923685330488
      ],
      [
        "ለው",
        -7.317512056667808
      ],
      [
        "ሊ",
        -7.334052073443879
      ],
      [
        "▁እኛ",
        -7.334758329452065
      ],
      [
        "▁ብ",
        -7.3351789455156
      ],
      [
        "▁ምንም",
        -7.339039354221353
      ],
      [
        "▁ሰ",
        -7.347014236630264
      ],
      [
        "▁ለምን",
        -7.348590287803299
      ],
      [
        "▁በላይ",
        -7.350248536771053
      ],
      [
        "▁ነው?",
        -7.352968252448078
      ],
      [
        "ሻ",
        -7.354492263523143
      ],
      [
        "▁ነዉ",
        -7.359249520320308
      ],
      [
        "▁ባለ",
        -7.364288523384595
      ],
      [
        "▁ሳይ",
        -7.384166615927782
      ],
      [
        "▁??????",
        -7.38806723176471
      ],
      [
        "ገባ",
        -7.396909733112632
      ],
      [
        "▁ነኝ",
        -7.402874492992496
      ],
      [
        "ጉ",
        -7.423888340320355
      ],
      [
        "▁የአ",
        -7.424372519896962
      ],
      [
        "s",
        -7.426882482193213
      ],
      [
        "▁.",
        -7.440502302621156
      ],
      [
        "ሸ",
        -7.444581206449883
      ],
      [
        "▁ደሞ",
        -7.4446786218850445
      ],
      [
        "▁ሆነ",
        -7.455388320632093
      ],
      [
        "ቡ",
        -7.460050178035914
      ],
      [
        "▁አገር",
        -7.4606056138860755
      ],
      [
        "▁እንዲህ",
        -7.461949970482919
      ],
      [
        "▁ሳይሆን",
        -7.464036670014427
      ],
      [
        "ዛ",
        -7.464981186603016
      ],
      [
        "▁የአማራ",
        -7.476609308995784
      ],
      [
        "ዴ",
        -7.482151360064443
      ],
      [
        "▁ካ",
        -7.507557192437218
      ],
      [
        "▁ሀገር",
        -7.514834749654946
      ],
      [
        "ኖ",
        -7.517908003821769
      ],
      [
        "ዕ",
        -7.530636430058285
      ],
      [
        "▁መሪ",
        -7.541307190291354
      ],
      [
        "▁፡",
        -7.549148263115261
      ],
      [
        "▁ጉዳይ",
        -7.552528624230096
      ],
      [
        "▁አሜን",
        -7.552962080815558
      ],
      [
        "ቆ",
        -7.55603609446355
      ],
      [
        "ህን",
        -7.556370103680812
      ],
      [
        "ነው",
        -7.5570989571234986
      ],
      [
        "▁አብይ",
        -7.559332642329162
      ],
      [
        "ሬ",
        -7.565459970953319
      ],
      [
        "ቼ",
        -7.567941198286023
      ],
      [
        "▁ችግር",
        -7.575500112064714
      ],
      [
        "▁ሆኖ",
        -7.587607772153345
      ],
      [
        "▁ጥያቄ",
        -7.587888543615377
      ],
      [
        "ቤ",
        -7.5886643616758995
      ],
      [
        "▁የለም",
        -7.617772297518399
      ],
      [
        "▁አመት",
        -7.619031152780038
      ],
      [
        "አዲስ",
        -7.62266938047536
      ],
      [
        "▁እግዚአብሔር",
        -7.622988217333773
      ],
      [
        "ቲ",
        -7.623262624488307
      ],
      [
        "ጡ",
        -7.6238290648585005
      ],
      [
        "▁ምርጫ",
        -7.624459627191443
      ],
      [
        "▁ነው!",
        -7.627354706218022
      ],
      [
        "ቢ",
        -7.628525314449913
      ],
      [
        "t",
        -7.629021878266518
      ],
      [
        "▁ተስፋ",
        -7.632061957584744
      ],
      [
        "▁ብልፅግና",
        -7.634541542094133
      ],
      [
        "▁ታ",
        -7.638295759282016
      ],
      [
        "▁እሱ",
        -7.638370790158679
      ],
      [
        "▁በአ",
        -7.640003769483087
      ],
      [
        "▁እየተ",
        -7.641548372854203
      ],
      [
        "▁በዚህ",
        -7.650291849453528
      ],
      [
        "▁የምት",
        -7.651519848212739
      ],
      [
        "ጀ",
        -7.657707653168152
      ],
      [
        "!!!",
        -7.658655438153693
      ],
      [
        "▁እያለ",
        -7.660269372847908
      ],
      [
        "ሀ",
        -7.660779827383381
      ],
      [
        "▁የመ",
        -7.662111829634631
      ],
      [
        "ችን",
        -7.663358704240535
      ],
      [
        "▁ል",
        -7.664509650218481
      ],
      [
        "ንም",
        -7.666841438623793
      ],
      [
        "▁የማይ",
        -7.669035282300438
      ],
      [
        "▁ይህን",
        -7.671889273864751
      ],
      [
        "▁ጌታ",
        -7.676507806005086
      ],
      [
        "ቱን",
        -7.686828647384887
      ],
      [
        "▁ናቸው",
        -7.689861332626341
      ],
      [
        "ሜ",
        -7.694995257498268
      ],
      [
        "ተኛ",
        -7.696425222499862
      ],
      [
        "▁ወይም",
        -7.7014724996564965
      ],
      [
        "▁ቃል",
        -7.702697817170645
      ],
      [
        "▁በፊት",
        -7.703366855695826
      ],
      [
        "ተው",
        -7.708502869722994
      ],
      [
        "ጨ",
        -7.7120424304273865
      ],
      [
        "▁ብዬ",
        -7.716945279500785
      ],
      [
        "▁ሚ",
        -7.717933450360314
      ],
      [
        "▁እስከ",
        -7.722400531981027
      ],
      [
        "▁ብር",
        -7.72325967236945
      ],
      [
        "ጫ",
        -7.726345117360542
      ],
      [
        "ዲ",
        -7.728995288122882
      ],
      [
        "▁ስት",
        -7.72960287110734
      ],
      [
        "ሲ",
        -7.730608031217389
      ],
      [
        "▁ኢ",
        -7.733375309862284
      ],
      [
        "ሃ",
        -7.73363251533146
      ],
      [
        "ዶ",
        -7.738944046869493
      ],
      [
        "ላቸው",
        -7.747819272083392
      ],
      [
        "▁ነው::",
        -7.7505992258676155
      ],
      [
        "▁ላ",
        -7.754575504588454
      ],
      [
        "▁አት",
        -7.754748874192772
      ],
      [
        "▁ከፍተኛ",
        -7.75694328601685
      ],
      [
        "▁!",
        -7.763016762919856
      ],
      [
        "▁እንዴ",
        -7.763548505840046
      ],
      [
        "▁አይነት",
        -7.76467416270676
      ],
      [
        "ጎ",
        -7.765242672372719
      ],
      [
        "▁የሚል",
        -7.766750748972649
      ],
      [
        "ወጣ",
        -7.768647057921425
      ],
      [
        "▁ደ",
        -7.778095015007103
      ],
      [
        "ሆኑ",
        -7.782279460868956
      ],
      [
        "ኛል",
        -7.7839266616738545
      ],
      [
        "▁ልክ",
        -7.784040024638694
      ],
      [
        "”",
        -7.785413465470718
      ],
      [
        "▁ሌላ",
        -7.78591289946699
      ],
      [
        "ሴ",
        -7.792904381794769
      ],
      [
        "▁ነህ",
        -7.801129934860307
      ],
      [
        "▁ምክር",
        -7.8017998707201714
      ],
      [
        "ሁን",
        -7.8057593649974635
      ],
      [
        "▁ታሪክ",
        -7.806841853303013
      ],
      [
        "▁የሆነ",
        -7.808549446876119
      ],
      [
        "ኒ",
        -7.809784102753845
      ],
      [
        "ዋል",
        -7.810950896685357
      ],
      [
        "▁መሆን",
        -7.811270141184482
      ],
      [
        "▁ስን",
        -7.813493294628409
      ],
      [
        "▁በኋላ",
        -7.8169906968352665
      ],
      [
        "▁ከዚህ",
        -7.817571670101939
      ],
      [
        "▁ከሆነ",
        -7.817858986208582
      ],
      [
        "ሪያ",
        -7.826481067801343
      ],
      [
        "▁በተ",
        -7.830493969229362
      ],
      [
        "ሥ",
        -7.831916431195137
      ],
      [
        "ታዊ",
        -7.8323758062307
      ],
      [
        "▁ዘ",
        -7.832789044131743
      ],
      [
        "ፊ",
        -7.835402848679541
      ],
      [
        "ላችሁ",
        -7.839247455153123
      ],
      [
        "????",
        -7.843914997772538
      ],
      [
        "ችሁ",
        -7.844267717029711
      ],
      [
        "a",
        -7.846543097127207
      ],
      [
        "▁ሁኔታ",
        -7.847038153166229
      ],
      [
        "ለት",
        -7.851230965672329
      ],
      [
        "▁መንገድ",
        -7.852004020194276
      ],
      [
        "▁የማ",
        -7.85597053566289
      ],
      [
        "▁ነበር።",
        -7.858810955245616
      ],
      [
        "ቸ",
        -7.859348054611733
      ],
      [
        "▁እንደሚ",
        -7.866954294712767
      ],
      [
        "▁የኔ",
        -7.869449824730784
      ],
      [
        "▁1",
        -7.870400531869262
      ],
      [
        "e",
        -7.873613207637181
      ],
      [
        "▁እንዳ",
        -7.8810651160574565
      ],
      [
        "▁እንዴ?",
        -7.885207230469697
      ],
      [
        "▁ዝም",
        -7.890746064494547
      ],
      [
        "▁አሉ",
        -7.8954958374390865
      ],
      [
        "ሰራ",
        -7.9014893023426
      ],
      [
        "ሰላም",
        -7.907798868875943
      ],
      [
        "▁ቦታ",
        -7.9197340307175805
      ],
      [
        "ዮ",
        -7.920159420255179
      ],
      [
        "▁ትምህርት",
        -7.927823726309085
      ],
      [
        "ባቸው",
        -7.930686875144647
      ],
      [
        "▁ነገ",
        -7.944384346648627
      ],
      [
        "▁ብለህ",
        -7.944425434000323
      ],
      [
        "▁ልብ",
        -7.945772530340228
      ],
      [
        "▁ዘመን",
        -7.946980247192839
      ],
      [
        "ቂ",
        -7.947284194486289
      ],
      [
        "ሚያ",
        -7.948208615487168
      ],
      [
        "▁ሁሉም",
        -7.948288409208285
      ],
      [
        "o",
        -7.948821066089319
      ],
      [
        "▁ተማሪዎች",
        -7.952909345553786
      ],
      [
        "▁ኢዜማ",
        -7.954065498752991
      ],
      [
        "▁አላ",
        -7.9547246507727225
      ],
      [
        "▁ደስ",
        -7.956316158782013
      ],
      [
        "i",
        -7.958988722798033
      ],
      [
        "ም።",
        -7.959005021283396
      ],
      [
        "▁እንደሆነ",
        -7.960837675084173
      ],
      [
        "ቷ",
        -7.964346608773723
      ],
      [
        "▁ቀ",
        -7.973355992136812
      ],
      [
        "▁ሳ",
        -7.974811008680503
      ],
      [
        "▁ቢሆን",
        -7.976715932809949
      ],
      [
        "ሰው",
        -7.982048985766879
      ],
      [
        "ፉ",
        -7.983781775238797
      ],
      [
        "ጽ",
        -7.987446457630699
      ],
      [
        "▁“",
        -7.988267323612064
      ],
      [
        "ዎቹ",
        -7.998377109752029
      ],
      [
        "▁ምክንያት",
        -7.9988877174442825
      ],
      [
        "▁3",
        -8.002437583939367
      ],
      [
        "▁በዓል",
        -8.003038099547082
      ],
      [
        "▁|",
        -8.007715869469578
      ],
      [
        "▁በሚ",
        -8.011735266403075
      ],
      [
        "»",
        -8.014041361455618
      ],
      [
        "▁አንዱ",
        -8.015409449238804
      ],
      [
        "▁ስም",
        -8.015785446160955
      ],
      [
        "▁ፍቅር",
        -8.015834979169929
      ],
      [
        "▁ዓመት",
        -8.02197798256888
      ],
      [
        "ቻ",
        -8.023102579131427
      ],
      [
        "▁ገና",
        -8.024255089339642
      ],
      [
        "▁ፍ",
        -8.026246611270993
      ],
      [
        "ሆን",
        -8.029155177922185
      ],
      [
        "ሮች",
        -8.034613302276064
      ],
      [
        "ቀው",
        -8.037206589155268
      ],
      [
        "▁ፖለቲካ",
        -8.041471431695904
      ],
      [
        "ልኝ",
        -8.04224350722368
      ],
      [
        "ፎ",
        -8.045534230174455
      ],
      [
        "▁የሚለው",
        -8.046261990258147
      ],
      [
        "▁ካለ",
        -8.046689432577823
      ],
      [
        "ፀ",
        -8.046782983177263
      ],
      [
        "ለን",
        -8.046870937575502
      ],
      [
        "▁እስኪ",
        -8.047581909191123
      ],
      [
        "??????",
        -8.047806996664793
      ],
      [
        "▁ሆይ",
        -8.05192065742001
      ],
      [
        "▁ኮ",
        -8.053060034494695
      ],
      [
        "▁ቅዱስ",
        -8.05750824413115
      ],
      [
        "▁ደም",
        -8.059461974910212
      ],
      [
        "ጦ",
        -8.060466693669929
      ],
      [
        "▁ሙሉ",
        -8.061178500005298
      ],
      [
        "▁ጎ",
        -8.065895044144561
      ],
      [
        "ስት",
        -8.066794893447899
      ],
      [
        "▁አያ",
        -8.06723240393902
      ],
      [
        "ናል",
        -8.068115900818242
      ],
      [
        "▁ከተ",
        -8.068615060279571
      ],
      [
        "ታችን",
        -8.070491353956378
      ],
      [
        "መጣ",
        -8.07085868038719
      ],
      [
        "ረው",
        -8.071437705417177
      ],
      [
        "▁አንዳን",
        -8.074719412972202
      ],
      [
        "ኛው",
        -8.0852121205179
      ],
      [
        "ታቸው",
        -8.088257023208552
      ],
      [
        "▁ውይይት",
        -8.090301638004957
      ],
      [
        "▁ኦሮሞ",
        -8.091455409122895
      ],
      [
        "▁4",
        -8.091760620717393
      ],
      [
        "ለህ",
        -8.092030689167217
      ],
      [
        "ኳ",
        -8.09253312806852
      ],
      [
        "▁ሃ",
        -8.092960835082273
      ],
      [
        "▁ድረስ",
        -8.110734247901346
      ],
      [
        "ጌ",
        -8.112504100792535
      ],
      [
        "▁ያል",
        -8.117608448342427
      ],
      [
        "▁ካል",
        -8.11908555580666
      ],
      [
        "ሶ",
        -8.124275257203678
      ],
      [
        "▁ሀ",
        -8.125404578722058
      ],
      [
        "▁ልጆች",
        -8.131411734757274
      ],
      [
        "ብር",
        -8.133167750254145
      ],
      [
        "▁በማ",
        -8.133749239594586
      ],
      [
        "▁ብለው",
        -8.133811943284364
      ],
      [
        "▁ይሁን",
        -8.134114514312607
      ],
      [
        "ሰማ",
        -8.136550495479089
      ],
      [
        "▁ጠቅላይ",
        -8.138313039983581
      ],
      [
        "ኖር",
        -8.138716477533876
      ],
      [
        "▁ጥር",
        -8.14160732058949
      ],
      [
        "ሐ",
        -8.142990992012766
      ],
      [
        "ፕ",
        -8.149007949330766
      ],
      [
        "▁ልዩ",
        -8.151121693541828
      ],
      [
        "▁የኦሮሞ",
        -8.152062354579382
      ],
      [
        "▁ትንሽ",
        -8.152537296590708
      ],
      [
        "▁ነፃ",
        -8.15543400377636
      ],
      [
        "ልን",
        -8.15604030630983
      ],
      [
        "ጃ",
        -8.157535159929829
      ],
      [
        "▁በቃ",
        -8.162412121243324
      ],
      [
        "▁ይሆናል",
        -8.164087848026618
      ],
      [
        "▁ገ",
        -8.16652524104194
      ],
      [
        "ላት",
        -8.168374781880168
      ],
      [
        "▁ከመ",
        -8.172756886321759
      ],
      [
        "▁የፖለቲካ",
        -8.173235570784541
      ],
      [
        "▁ነን",
        -8.173675290404589
      ],
      [
        "▁ታህሳስ",
        -8.175617215431648
      ],
      [
        "0",
        -8.184494957089111
      ],
      [
        "ከው",
        -8.185527595485656
      ],
      [
        "▁ዜና",
        -8.187360095786936
      ],
      [
        "▁የምን",
        -8.191224636836047
      ],
      [
        "▁ዘንድ",
        -8.193501608671921
      ],
      [
        "▁አህመድ",
        -8.194549538165042
      ],
      [
        "....",
        -8.199060495889904
      ],
      [
        "ታል",
        -8.199486057646958
      ],
      [
        "▁ማስ",
        -8.201863508488945
      ],
      [
        "ዓ",
        -8.202046358375854
      ],
      [
        "▁ኦ",
        -8.204534806820314
      ],
      [
        "▁ዘር",
        -8.208284261385753
      ],
      [
        "▁ህግ",
        -8.209306214371995
      ],
      [
        "▁ተማሪ",
        -8.215221202919352
      ],
      [
        "▁ቅ",
        -8.22353609737779
      ],
      [
        "▁ክብር",
        -8.223976761606517
      ],
      [
        "▁ግዜ",
        -8.224021930653397
      ],
      [
        "▁ሲያ",
        -8.224381187539803
      ],
      [
        "▁2",
        -8.228701412942172
      ],
      [
        "▁መስ",
        -8.232100202329818
      ],
      [
        "ሕ",
        -8.238682590328327
      ],
      [
        "▁ሆ",
        -8.238987140450256
      ],
      [
        "▁ትልቅ",
        -8.239877553518884
      ],
      [
        "▁ሲሆን",
        -8.241966330319809
      ],
      [
        "▁ፈጣሪ",
        -8.244304851085193
      ],
      [
        "▁ዞን",
        -8.24516647005062
      ],
      [
        "ቄ",
        -8.246073613110774
      ],
      [
        "▁አታ",
        -8.246272994141101
      ],
      [
        "▁ግድ",
        -8.246955308758066
      ],
      [
        "▁?",
        -8.24780644352328
      ],
      [
        "▁አሳ",
        -8.249187674533166
      ],
      [
        "ባል",
        -8.250721509717138
      ],
      [
        "▁ወያኔ",
        -8.251923312023955
      ],
      [
        "ሃል",
        -8.25273245106725
      ],
      [
        "ባት",
        -8.253785172035697
      ],
      [
        "▁ፈ",
        -8.254375903279673
      ],
      [
        "ቋ",
        -8.254969728454679
      ],
      [
        "▁/",
        -8.25519405495468
      ],
      [
        "ጓ",
        -8.257515837440586
      ],
      [
        "▁ብት",
        -8.260382825937501
      ],
      [
        "▁አለበት",
        -8.261243465755078
      ],
      [
        "▁እንዳይ",
        -8.262093716500106
      ],
      [
        "▁ነ",
        -8.262372399444182
      ],
      [
        "▁ስለሆነ",
        -8.26390175261312
      ],
      [
        "▁የለውም",
        -8.264173346894339
      ],
      [
        "▁ቁጥር",
        -8.264625074278632
      ],
      [
        "▁ያስ",
        -8.26494895531457
      ],
      [
        "▁ያህ",
        -8.265818441155428
      ],
      [
        "▁ጠ",
        -8.26583883339495
      ],
      [
        "▁ይላል",
        -8.26675480130962
      ],
      [
        "▁ያሉ",
        -8.267166215606398
      ],
      [
        "ፅ",
        -8.268515250284459
      ],
      [
        "▁ግ",
        -8.27006346743402
      ],
      [
        "d",
        -8.270636195738115
      ],
      [
        "▁2012",
        -8.275629100056296
      ],
      [
        "?!",
        -8.279312324587746
      ],
      [
        "▁ማድረግ",
        -8.279538003525733
      ],
      [
        "r",
        -8.27959238743982
      ],
      [
        "▁ኤ",
        -8.280692440471721
      ],
      [
        "▁ነጋ",
        -8.282671552722528
      ],
      [
        "ኖች",
        -8.282894712179106
      ],
      [
        "ሄድ",
        -8.284451684828154
      ],
      [
        "ፌ",
        -8.285765878332711
      ],
      [
        "▁ወረዳ",
        -8.287716464545753
      ],
      [
        "▁ያለውን",
        -8.288798773332717
      ],
      [
        "▁«",
        -8.292074663721582
      ],
      [
        "▁መብት",
        -8.295094601795778
      ],
      [
        "መድ",
        -8.301200707564124
      ],
      [
        "▁ስልጣን",
        -8.30280983429914
      ],
      [
        "ቷል",
        -8.302847786212967
      ],
      [
        "መራ",
        -8.302951745902217
      ],
      [
        "▁እነ",
        -8.303444503671944
      ],
      [
        "ኦ",
        -8.303719764905502
      ],
      [
        "▁አባ",
        -8.30407511217662
      ],
      [
        "ኪ",
        -8.305102766482277
      ],
      [
        "▁ሁሌ",
        -8.311025415280652
      ],
      [
        "ቻችን",
        -8.311472878382935
      ],
      [
        "▁ወሬ",
        -8.312381584382116
      ],
      [
        "▁ይዞ",
        -8.312440457503236
      ],
      [
        "ረት",
        -8.312690962511219
      ],
      [
        "▁ዕ",
        -8.313153499874872
      ],
      [
        "▁በተለይ",
        -8.313271741017056
      ],
      [
        "▁ደረጃ",
        -8.314211512845578
      ],
      [
        "▁በእ",
        -8.317567045190838
      ],
      [
        "▁:",
        -8.322571033874224
      ],
      [
        "▁የነበረው",
        -8.323251648512151
      ],
      [
        "p",
        -8.323266593301065
      ],
      [
        "▁ሙስሊም",
        -8.32351087467126
      ],
      [
        "▁ማርያም",
        -8.323522529369956
      ],
      [
        "ፃ",
        -8.325212056305189
      ],
      [
        "ቆም",
        -8.32645515263603
      ],
      [
        "ጤ",
        -8.328459949561152
      ],
      [
        "▁6",
        -8.332127062519142
      ],
      [
        "ጠራ",
        -8.333989056759034
      ],
      [
        "ሆ",
        -8.334022764036991
      ],
      [
        "▁በየ",
        -8.334419661112902
      ],
      [
        "▁ይሄን",
        -8.335007117570385
      ],
      [
        "▁ጀግና",
        -8.337363407016046
      ],
      [
        "▁????????",
        -8.337854411193815
      ],
      [
        "▁ኧረ",
        -8.338322190521094
      ],
      [
        "▁በሙሉ",
        -8.33998705811796
      ],
      [
        "▁ወቅት",
        -8.340226575770771
      ],
      [
        "▁ደህና",
        -8.341198943755634
      ],
      [
        "▁ሸ",
        -8.341715728630287
      ],
      [
        "ሺ",
        -8.346381788955867
      ],
      [
        "ኣ",
        -8.346385140529215
      ],
      [
        "(",
        -8.347912236352844
      ],
      [
        "ነሳ",
        -8.351013465703424
      ],
      [
        "▁ወር",
        -8.351221137587174
      ],
      [
        "▁ሙ",
        -8.35484364203023
      ],
      [
        "▁ናት",
        -8.355768171229217
      ],
      [
        "▁እረ",
        -8.358355396745937
      ],
      [
        "ቢያ",
        -8.361369598947299
      ],
      [
        "▁ኢትዮጵያዊ",
        -8.362537732211747
      ],
      [
        "▁ፍትህ",
        -8.363412967192549
      ],
      [
        "▁ተራ",
        -8.365047194106271
      ],
      [
        "▁ጨዋታ",
        -8.36557542512123
      ],
      [
        "ዮች",
        -8.36671406006337
      ],
      [
        "▁ስብሰባ",
        -8.368642930214886
      ],
      [
        "▁እስክንድር",
        -8.368925333167182
      ],
      [
        "▁አሁንም",
        -8.369041210247014
      ],
      [
        "▁መግለጫ",
        -8.369656622000488
      ],
      [
        "ሳይ",
        -8.371234223460242
      ],
      [
        "▁እናንተ",
        -8.371234995409871
      ],
      [
        "▁የም",
        -8.372876730364755
      ],
      [
        "▁ሁለት",
        -8.375097778310309
      ],
      [
        "▁ሊያ",
        -8.380122252932907
      ],
      [
        "▁ጥ",
        -8.381172976263887
      ],
      [
        "ለሁ",
        -8.383135821564931
      ],
      [
        "ደር",
        -8.385640196373982
      ],
      [
        "▁በኢትዮጵያ",
        -8.38869157756856
      ],
      [
        "▁....",
        -8.388958839032464
      ],
      [
        "▁ይልቅ",
        -8.389592873866057
      ],
      [
        "▁መሆኑን",
        -8.390446963308033
      ],
      [
        "▁እሺ",
        -8.390842998217483
      ],
      [
        "ውጭ",
        -8.390965103792464
      ],
      [
        "▁መሆኑ",
        -8.392169179841938
      ],
      [
        "▁አደጋ",
        -8.394175137434955
      ],
      [
        "▁ጦርነት",
        -8.395292192199369
      ],
      [
        "▁መረጃ",
        -8.395383812593588
      ],
      [
        "▁፤",
        -8.396235160813768
      ],
      [
        "u",
        -8.397529664579187
      ],
      [
        "▁አር",
        -8.397992344624912
      ],
      [
        "በላ",
        -8.404627245375808
      ],
      [
        "▁ሞት",
        -8.40631572001601
      ],
      [
        "3",
        -8.406794186601381
      ],
      [
        "▁እንዳለ",
        -8.408498069816984
      ],
      [
        "ችው",
        -8.414377135716112
      ],
      [
        "ዋል።",
        -8.416366475620261
      ],
      [
        "▁ከሚ",
        -8.41792650159858
      ],
      [
        "▁ሲል",
        -8.418096843837873
      ],
      [
        "▁ራሱ",
        -8.419007768760705
      ],
      [
        "▁እንዲሁ",
        -8.41954863807656
      ],
      [
        "▁ስል",
        -8.42145194212987
      ],
      [
        "▁እነሱ",
        -8.423034358243655
      ],
      [
        "m",
        -8.423922448239377
      ],
      [
        "በር",
        -8.425447781404893
      ],
      [
        "y",
        -8.425474315358638
      ],
      [
        "▁ክፉ",
        -8.42930151100818
      ],
      [
        "ሻል",
        -8.430559975825716
      ],
      [
        "▁ድል",
        -8.43150908285883
      ],
      [
        "ዎን",
        -8.433161696435116
      ],
      [
        "▁የት",
        -8.434724611527354
      ],
      [
        "▁ይህንን",
        -8.434864068805767
      ],
      [
        "▁ጋ",
        -8.437119567386304
      ],
      [
        "ዳር",
        -8.43740229672554
      ],
      [
        "ሣ",
        -8.440143047919328
      ],
      [
        "▁ግራ",
        -8.44080668855834
      ],
      [
        "▁ጥቅም",
        -8.442935744735818
      ],
      [
        "▁ከባድ",
        -8.444427582078248
      ],
      [
        "▁መልስ",
        -8.446875175104166
      ],
      [
        "ላይ",
        -8.448220427718187
      ],
      [
        "▁እዚህ",
        -8.448531134684874
      ],
      [
        "▁ብለን",
        -8.44887618882442
      ],
      [
        "ታይ",
        -8.450784199970531
      ],
      [
        "▁አብ",
        -8.451362121726795
      ],
      [
        "ገቡ",
        -8.45318600833076
      ],
      [
        "▁ሺ",
        -8.454059610727962
      ],
      [
        "▁ስር",
        -8.455573762426756
      ],
      [
        "ገድ",
        -8.456342446509442
      ],
      [
        "▁ሃገር",
        -8.456816448670697
      ],
      [
        "▁ሥራ",
        -8.457615490833224
      ],
      [
        "_",
        -8.463515787974721
      ],
      [
        "ጂ",
        -8.467920702654402
      ],
      [
        "▁ድ",
        -8.468362703443027
      ],
      [
        "ፖ",
        -8.469117070754365
      ],
      [
        "▁መካከል",
        -8.471262876069003
      ],
      [
        "ዐቢይ",
        -8.471280118613208
      ],
      [
        "▁ሃሳብ",
        -8.471349591840552
      ],
      [
        "▁አድርጎ",
        -8.471435470390881
      ],
      [
        "▁ተብሎ",
        -8.471960483715609
      ],
      [
        "ኤ",
        -8.47336229119481
      ],
      [
        "▁አምላክ",
        -8.474288849874704
      ],
      [
        "1",
        -8.474814914784304
      ],
      [
        "▁ክፍል",
        -8.475384983119692
      ],
      [
        "2",
        -8.475823167270619
      ],
      [
        "▁ይቅርታ",
        -8.476005561391212
      ],
      [
        "ቀር",
        -8.478624694911344
      ],
      [
        "▁:)",
        -8.479209356070296
      ],
      [
        "▁አረ",
        -8.479550681210018
      ],
      [
        "▁ቡድን",
        -8.479579442031921
      ],
      [
        "▁ሕዝብ",
        -8.480402149090791
      ],
      [
        "በል",
        -8.483180649698454
      ],
      [
        "ጥር",
        -8.488962629949189
      ],
      [
        "ማየት",
        -8.490966444565576
      ],
      [
        "▁ይችላል",
        -8.492061769371393
      ],
      [
        "k",
        -8.492065235647793
      ],
      [
        "▁መንግሥት",
        -8.492411670419774
      ],
      [
        "ባለ",
        -8.49268116967636
      ],
      [
        ";",
        -8.493321324665722
      ],
      [
        "▁ቤተ",
        -8.493455952637486
      ],
      [
        "ረዳ",
        -8.494423556908771
      ],
      [
        "መለስ",
        -8.496948011291526
      ],
      [
        "▁እነዚህ",
        -8.5023635855405
      ],
      [
        "ሞት",
        -8.503243981685124
      ],
      [
        "▁ሰዓት",
        -8.504635106984065
      ],
      [
        "▁ለማለት",
        -8.505095624450878
      ],
      [
        "???",
        -8.508888071983419
      ],
      [
        "▁ዋጋ",
        -8.509790297948712
      ],
      [
        "▁ከነ",
        -8.511222887431991
      ],
      [
        "▁ያው",
        -8.511722776106144
      ],
      [
        "▁ሀሳብ",
        -8.511872885230025
      ],
      [
        "▁ብልጽግና",
        -8.512525145975413
      ],
      [
        "▁የሰው",
        -8.512793492734101
      ],
      [
        "መን",
        -8.513526714977719
      ],
      [
        "ራችን",
        -8.51362993984131
      ],
      [
        "ሠ",
        -8.516236278434619
      ],
      [
        "ጁ",
        -8.51681179912201
      ],
      [
        "ተር",
        -8.520712156250681
      ],
      [
        "ቪ",
        -8.525623268615236
      ],
      [
        "ችሁን",
        -8.526264835408941
      ],
      [
        "▁ሠ",
        -8.526344078107343
      ],
      [
        "ረግ",
        -8.527203281652735
      ],
      [
        "ጻ",
        -8.52746132237977
      ],
      [
        "▁5",
        -8.5292094457457
      ],
      [
        "▁ነው፡፡",
        -8.529595439303879
      ],
      [
        "▁እርምጃ",
        -8.530979756273528
      ],
      [
        "▁ጀምሮ",
        -8.531089706966453
      ],
      [
        "▁ኖሮ",
        -8.531457544836162
      ],
      [
        "ኩት",
        -8.531537359181549
      ],
      [
        "ጠና",
        -8.533698006803155
      ],
      [
        "▁ዶ/ር",
        -8.536214865820254
      ],
      [
        "▁አንቺ",
        -8.536415470295966
      ],
      [
        "▁በአንድ",
        -8.538016251252209
      ],
      [
        "7",
        -8.538092673896374
      ],
      [
        "▁አን",
        -8.53991424039904
      ],
      [
        "▁ሌሎች",
        -8.540041585795283
      ],
      [
        "▁ለአ",
        -8.542843639775432
      ],
      [
        "ገር",
        -8.543386893413446
      ],
      [
        "▁ቆ",
        -8.54589378780355
      ],
      [
        "ምርጥ",
        -8.547716596510426
      ],
      [
        "ፈራ",
        -8.548666671728789
      ],
      [
        "ኢ",
        -8.552291599097236
      ],
      [
        "ጊ",
        -8.554130169786749
      ],
      [
        "▁ራስ",
        -8.55731875561681
      ],
      [
        "ጠበቅ",
        -8.560059906061486
      ],
      [
        "▁ደስታ",
        -8.560618079189245
      ],
      [
        "▁መጀመሪያ",
        -8.562226759837166
      ],
      [
        "▁ጤና",
        -8.562672318851625
      ],
      [
        "▁እስቲ",
        -8.56798512099278
      ],
      [
        "▁መሬት",
        -8.571333340678617
      ],
      [
        "ሄ",
        -8.577997374501072
      ],
      [
        "▁ድሮ",
        -8.578256921137047
      ],
      [
        "ወጡ",
        -8.579423860987749
      ],
      [
        "▁ከፍ",
        -8.580094240282424
      ],
      [
        "▁አደረሳችሁ",
        -8.58575506450363
      ],
      [
        "▁የሚያስ",
        -8.586570596574628
      ],
      [
        "▁ሞ",
        -8.591373308118383
      ],
      [
        "▁እጅ",
        -8.59281430514898
      ],
      [
        "▁ለሚ",
        -8.59286065088877
      ],
      [
        "▁አካባቢ",
        -8.593765578860662
      ],
      [
        "▁እንድ",
        -8.594477420298738
      ],
      [
        "▁ሴቶች",
        -8.5950526714137
      ],
      [
        "▁ጭ",
        -8.596210041088518
      ],
      [
        "▁የሌለው",
        -8.596459130187965
      ],
      [
        "▁ድርጅት",
        -8.600131713262673
      ],
      [
        "▁በጎ",
        -8.600409969818417
      ],
      [
        "▁ደህንነት",
        -8.601159004755536
      ],
      [
        "▁የኛ",
        -8.602811615300467
      ],
      [
        "▁በማድረግ",
        -8.603007225134881
      ],
      [
        "▁የትግራይ",
        -8.603042686142045
      ],
      [
        "▁_",
        -8.603063944861436
      ],
      [
        "▁ኢትዮጵያውያን",
        -8.603226480083698
      ],
      [
        "ዚ",
        -8.604184684322059
      ],
      [
        "ጠፋ",
        -8.605647177508779
      ],
      [
        "▁ቦ",
        -8.607197889867024
      ],
      [
        "ሎች",
        -8.60760571122798
      ],
      [
        "ሞጣ",
        -8.610419667419889
      ],
      [
        "▁ከማ",
        -8.611798032269506
      ],
      [
        "▁መሰረት",
        -8.61570457598551
      ],
      [
        "ዋን",
        -8.619267687458452
      ],
      [
        "ማን",
        -8.622952217019769
      ],
      [
        "D",
        -8.626703605118912
      ],
      [
        "▁ህይወት",
        -8.62781820242282
      ],
      [
        "▁ህመም",
        -8.627866847194124
      ],
      [
        "▁ጉዳዮች",
        -8.627941124449535
      ],
      [
        "▁O",
        -8.628701669920446
      ],
      [
        "ልህ",
        -8.630643374227898
      ],
      [
        "▁ድምፅ",
        -8.631197550241255
      ],
      [
        "መር",
        -8.631287357132349
      ],
      [
        "▁አሰ",
        -8.63145810712039
      ],
      [
        "▁ጋዜጠኛ",
        -8.633619760376632
      ],
      [
        "▁ባይ",
        -8.634173944912305
      ],
      [
        "▁እያሉ",
        -8.63497758883592
      ],
      [
        "▁ክርስቶስ",
        -8.634980018937185
      ],
      [
        "▁አካል",
        -8.63511111513233
      ],
      [
        "ኤል",
        -8.637415261276683
      ],
      [
        "▁የመንግስት",
        -8.639721352523452
      ],
      [
        "ማር",
        -8.639786446498503
      ],
      [
        "ሩን",
        -8.640204846499913
      ],
      [
        "ቦች",
        -8.64053490236859
      ],
      [
        "ዙ",
        -8.641752459588407
      ],
      [
        "ዎት",
        -8.642279775013613
      ],
      [
        "ኃ",
        -8.643671643000147
      ],
      [
        "ል።",
        -8.643685755375445
      ],
      [
        "▁መቼም",
        -8.645858404496142
      ],
      [
        "ሞች",
        -8.647398223480934
      ],
      [
        "ተን",
        -8.64802333867399
      ],
      [
        "▁አለኝ",
        -8.648672224665763
      ],
      [
        "▁ጉ",
        -8.650157561675494
      ],
      [
        "ፈረ",
        -8.650783247986922
      ],
      [
        "▁ልማት",
        -8.652862494914656
      ],
      [
        "▁ኢትዮጵያን",
        -8.653876831380895
      ],
      [
        "ታት",
        -8.654984840812514
      ],
      [
        "▁ከአ",
        -8.655031936014094
      ],
      [
        "አለም",
        -8.656041731890946
      ],
      [
        "ገና",
        -8.656655204310901
      ],
      [
        "በረ",
        -8.658851382102213
      ],
      [
        "▁ዳ",
        -8.659011864850195
      ],
      [
        "ፓ",
        -8.660749903030725
      ],
      [
        "ሹ",
        -8.660783747807432
      ],
      [
        "l",
        -8.660795760458223
      ],
      [
        "የው",
        -8.660950033680287
      ],
      [
        "▁ቀላል",
        -8.662803766570745
      ],
      [
        "4",
        -8.663478615964433
      ],
      [
        "▁መቼ",
        -8.663693156895524
      ],
      [
        "▁የበለጠ",
        -8.66373551083733
      ],
      [
        "▁ቆንጆ",
        -8.6643261227294
      ],
      [
        "ደው",
        -8.665637782340896
      ],
      [
        "▁እናም",
        -8.665749233058625
      ],
      [
        "ሽን",
        -8.666088016669441
      ],
      [
        "▁የእ",
        -8.667620613577451
      ],
      [
        "መስራት",
        -8.668856683783277
      ],
      [
        "▁የሚባል",
        -8.669587897957225
      ],
      [
        "▁በል",
        -8.670632977643297
      ],
      [
        "▁ገንዘብ",
        -8.672292782827189
      ],
      [
        "▁ፖሊስ",
        -8.672318609422957
      ],
      [
        "ራት",
        -8.67519361662105
      ],
      [
        "▁ዜ",
        -8.676876298179506
      ],
      [
        "ላል",
        -8.67749321471073
      ],
      [
        "ድር",
        -8.677663543898808
      ],
      [
        "ዥ",
        -8.677779062490611
      ],
      [
        "▁ዓለም",
        -8.680994837143166
      ],
      [
        "ክር",
        -8.6823444737926
      ],
      [
        "▁ነበረ",
        -8.682443883461904
      ],
      [
        "ዋት",
        -8.684402477272513
      ],
      [
        "ራዊ",
        -8.691145968074363
      ],
      [
        "▁ሴት",
        -8.692467365268964
      ],
      [
        "ለማ",
        -8.69341180805419
      ],
      [
        "ቤት",
        -8.693455412902068
      ],
      [
        "▁ይሆን",
        -8.69540388950507
      ],
      [
        "▁ለኢትዮጵያ",
        -8.695704744511008
      ],
      [
        "ክል",
        -8.69570674155326
      ],
      [
        "▁እንዲያ",
        -8.696599681238423
      ],
      [
        "ing",
        -8.697337991401351
      ],
      [
        "̄",
        -8.698015001947805
      ],
      [
        "▁ንግግር",
        -8.698015274194105
      ],
      [
        "▁ታላቅ",
        -8.69803005052952
      ],
      [
        "▁ምናምን",
        -8.698191477481164
      ],
      [
        "▁እድሜ",
        -8.698241588881048
      ],
      [
        "ትምህርት",
        -8.698395755902592
      ],
      [
        "▁ነገሮች",
        -8.698871093110304
      ],
      [
        "▁እድል",
        -8.7011985652566
      ],
      [
        "ኞች",
        -8.701219185191324
      ],
      [
        "▁ስለዚህ",
        -8.70447318059328
      ],
      [
        "▁በአማራ",
        -8.70495248979705
      ],
      [
        "▁10",
        -8.705170204137303
      ],
      [
        "▁ሙስሊሞች",
        -8.705426031744116
      ],
      [
        "ጠው",
        -8.705556825684354
      ],
      [
        "▁ዩኒቨርሲቲ",
        -8.706144977494429
      ],
      [
        "ጸ",
        -8.706710981651689
      ],
      [
        "ፈው",
        -8.70762678352294
      ],
      [
        "▁እርሱ",
        -8.708541609992059
      ],
      [
        "▁ያልተ",
        -8.708700431170897
      ],
      [
        "ምር",
        -8.711665049605372
      ],
      [
        "▁ምነው",
        -8.71642312591397
      ],
      [
        "▁መር",
        -8.716928377645106
      ],
      [
        "▁ጀ",
        -8.717680970597403
      ],
      [
        "ፒ",
        -8.718705848194109
      ],
      [
        "ዜ",
        -8.718898902579966
      ],
      [
        "መው",
        -8.720237095273957
      ],
      [
        "▁እስካ",
        -8.720602033255714
      ],
      [
        "▁..",
        -8.72111758831371
      ],
      [
        "ኬ",
        -8.723165225349648
      ],
      [
        "ፈን",
        -8.723415671944721
      ],
      [
        "▁ሲሉ",
        -8.724306607768419
      ],
      [
        "ወራ",
        -8.725305139841057
      ],
      [
        "▁ዉ",
        -8.728018277788617
      ],
      [
        "▁ዝ",
        -8.731073713383458
      ],
      [
        "ፉት",
        -8.731451215863895
      ],
      [
        "ቸዋል",
        -8.731744336196343
      ],
      [
        "ቧ",
        -8.735051068177183
      ],
      [
        "▁ክቡር",
        -8.735103882785381
      ],
      [
        "▁ድንቅ",
        -8.735360456475243
      ],
      [
        "▁ሚሊዮ",
        -8.736016012023812
      ],
      [
        "▁ዜጎች",
        -8.736095156658953
      ],
      [
        "ጠብቅ",
        -8.737711069647593
      ],
      [
        "ሩት",
        -8.739339623424216
      ],
      [
        "▁ልደቱ",
        -8.740090996729375
      ],
      [
        "▁ድንግል",
        -8.740104736939978
      ],
      [
        "▁ማለ",
        -8.740961592170413
      ],
      [
        "▁እንደተ",
        -8.741396248355604
      ],
      [
        "ሰሩ",
        -8.741661922888298
      ],
      [
        "▁ዩኒቨርስቲ",
        -8.742749626225685
      ],
      [
        "▁የሆነው",
        -8.743123909697058
      ],
      [
        "▁ውሃ",
        -8.744716526813036
      ],
      [
        "▁እንኳ",
        -8.744906395507911
      ],
      [
        "▁እንግዲህ",
        -8.746396457238426
      ],
      [
        "ገኝ",
        -8.747951281013785
      ],
      [
        "▁አማርኛ",
        -8.748688361530064
      ],
      [
        "..",
        -8.750255089795935
      ],
      [
        "▁ተመ",
        -8.755191499046239
      ],
      [
        "c",
        -8.756761576158661
      ],
      [
        "በቃ",
        -8.756781250981154
      ],
      [
        "ነቱ",
        -8.757555915588313
      ],
      [
        "▁አይደል",
        -8.758812507428228
      ],
      [
        "እግዚአብሔር",
        -8.76070710883182
      ],
      [
        "ነግ",
        -8.761348896097264
      ],
      [
        "ጠቅ",
        -8.761880233254377
      ],
      [
        "ብን",
        -8.762500826322722
      ],
      [
        "n",
        -8.76409943299948
      ],
      [
        "ውቅ",
        -8.765730492654459
      ],
      [
        "ጆ",
        -8.767477042764108
      ],
      [
        "ፀረ",
        -8.767849263924937
      ],
      [
        "ኙ",
        -8.767982222042603
      ],
      [
        "▁የሰ",
        -8.771238255999043
      ],
      [
        "▁አብሮ",
        -8.772160863403155
      ],
      [
        "▁አህመዲን",
        -8.77351360301429
      ],
      [
        "▁ዙሪያ",
        -8.77353000092135
      ],
      [
        "▁ሚኒስትር",
        -8.773618502456083
      ],
      [
        "▁ፎቶ",
        -8.773662536733289
      ],
      [
        "▁ጀበል",
        -8.773782100211145
      ],
      [
        "ሓ",
        -8.77390500407186
      ],
      [
        "▁ለዚህ",
        -8.77479232131888
      ],
      [
        "▁ፍላጎት",
        -8.774882530450821
      ],
      [
        "▁እጅግ",
        -8.775271492663553
      ],
      [
        "g",
        -8.777757760839982
      ],
      [
        "▁ይቅር",
        -8.777987770425003
      ],
      [
        "▁ለማንኛውም",
        -8.77879951993936
      ],
      [
        "▁ሌላው",
        -8.780194639368643
      ],
      [
        "▁ቀይ",
        -8.780684155426858
      ],
      [
        "ጄ",
        -8.781459827973176
      ],
      [
        "ራል",
        -8.781924820667452
      ],
      [
        "▁መልክ",
        -8.782713534689323
      ],
      [
        "▁ጥቃት",
        -8.785831795278423
      ],
      [
        "ገዛ",
        -8.787292164611733
      ],
      [
        "▁ይሆን?",
        -8.790003362576373
      ],
      [
        "ዞ",
        -8.79039677629348
      ],
      [
        "▁በደን",
        -8.790713186549446
      ],
      [
        "▁ፅ",
        -8.791897311916621
      ],
      [
        "▁ውድ",
        -8.793638636922992
      ],
      [
        "መረ",
        -8.794435776622276
      ],
      [
        "ብህ",
        -8.795209860186857
      ],
      [
        "ጠን",
        -8.795916854638737
      ],
      [
        "ኝነት",
        -8.796021617336539
      ],
      [
        "ፁ",
        -8.799133991087286
      ],
      [
        "ስጥ",
        -8.800373899520345
      ],
      [
        "▁የምታ",
        -8.800897775213505
      ],
      [
        "▁እህ",
        -8.80146470781872
      ],
      [
        "▁አመ",
        -8.801935082906716
      ],
      [
        "h",
        -8.801968982763285
      ],
      [
        "ችል",
        -8.805229033539293
      ],
      [
        "▁ይመ",
        -8.805552520778086
      ],
      [
        "▁ይገባል",
        -8.807033329389599
      ],
      [
        "re",
        -8.807825264679446
      ],
      [
        "ደረጉ",
        -8.809825605263883
      ],
      [
        "▁ቡ",
        -8.810043684202101
      ],
      [
        "9",
        -8.810404076055757
      ],
      [
        "▁መርዝ",
        -8.814958743071097
      ],
      [
        "▁ቢያ",
        -8.815895697062926
      ],
      [
        "▁ጨ",
        -8.816048662113221
      ],
      [
        "ወደ",
        -8.816257133405196
      ],
      [
        "▁ክ",
        -8.816632903768898
      ],
      [
        "▁የተሻለ",
        -8.817211405043555
      ],
      [
        ".....",
        -8.817763731054267
      ],
      [
        "▁ድጋፍ",
        -8.817848760017704
      ],
      [
        "ፈት",
        -8.8183289270526
      ],
      [
        "▁ዓይነት",
        -8.818344521562636
      ],
      [
        "ለኝ",
        -8.82049526284604
      ],
      [
        "መጡ",
        -8.820677321833625
      ],
      [
        "▁ችግሩ",
        -8.82205048452574
      ],
      [
        "▁ሚዲያ",
        -8.822968268074865
      ],
      [
        "▁እያል",
        -8.82449351080772
      ],
      [
        "▁ወጣቶች",
        -8.825059459553742
      ],
      [
        "▁እምነት",
        -8.827749388599885
      ],
      [
        "▁ደግ",
        -8.82900278389374
      ],
      [
        "ቻል",
        -8.829174713716608
      ],
      [
        "▁እርግ",
        -8.83981461370924
      ],
      [
        "▁መጣ",
        -8.84184442933215
      ],
      [
        "▁ብላ",
        -8.842885419888374
      ],
      [
        "▁ብሄር",
        -8.843084023369697
      ],
      [
        "▁ሶ",
        -8.843898453116694
      ],
      [
        "ሙት",
        -8.846157811674304
      ],
      [
        "ሏ",
        -8.849287782277585
      ],
      [
        "▁ነዉ።",
        -8.850968935015068
      ],
      [
        "▁ሀገራ",
        -8.851526877568652
      ],
      [
        "▁ያሉት",
        -8.852201836518137
      ],
      [
        "▁መሰ",
        -8.852784119195611
      ],
      [
        "ግራ",
        -8.85365613449086
      ],
      [
        "ፈልግ",
        -8.853887517495062
      ],
      [
        "▁ጽ",
        -8.854380050449144
      ],
      [
        "▁አስተያየት",
        -8.855180280098196
      ],
      [
        "▁ቋንቋ",
        -8.855180731463001
      ],
      [
        "▁መገርሳ",
        -8.855194341097352
      ],
      [
        "▁ወንጀል",
        -8.855208949620721
      ],
      [
        "▁አይችልም",
        -8.85523351504797
      ],
      [
        "▁ውጪ",
        -8.855424381761397
      ],
      [
        "▁ሚኒስቴር",
        -8.85555035004644
      ],
      [
        "▁ሰልፍ",
        -8.856596422549307
      ],
      [
        "▁!!!",
        -8.857337191305943
      ],
      [
        "▁እንዲሆን",
        -8.85754901536601
      ],
      [
        "▁ሊሆን",
        -8.857902635803988
      ],
      [
        "ያደርጉ",
        -8.857932254378568
      ],
      [
        "ሰብ",
        -8.85823221050038
      ],
      [
        "▁ሲባል",
        -8.859001795337202
      ],
      [
        "▁ንብረት",
        -8.859366861135591
      ],
      [
        "▁ወጣት",
        -8.862404925540726
      ],
      [
        "▁የምርጫ",
        -8.862847722233495
      ],
      [
        "▁ዋና",
        -8.863988250465871
      ],
      [
        "ለም",
        -8.864116878627934
      ],
      [
        "▁አቋም",
        -8.864228798108677
      ],
      [
        "▁የህዝብ",
        -8.864847184046194
      ],
      [
        "▁ጉድ",
        -8.866347883342197
      ],
      [
        "ረጅ",
        -8.868189686579935
      ],
      [
        "▁ህወሓት",
        -8.869208616222608
      ],
      [
        "▁የስራ",
        -8.8707398026
      ],
      [
        "እኔ",
        -8.872624279389942
      ],
      [
        "▁እዛ",
        -8.873870249594491
      ],
      [
        "ሾ",
        -8.873950424997513
      ],
      [
        "▁በር",
        -8.877218402465015
      ],
      [
        "▁ዳር",
        -8.877377455811544
      ],
      [
        "▁ቁጭ",
        -8.878341215361212
      ],
      [
        "▁ውሸት",
        -8.880458104055274
      ],
      [
        "▁ተሰ",
        -8.880926141719154
      ],
      [
        "ዘጋ",
        -8.88178543845662
      ],
      [
        "▁ተቀ",
        -8.882932093394466
      ],
      [
        "ዲስ",
        -8.883009628153038
      ],
      [
        "▁የለም።",
        -8.885546342726611
      ],
      [
        "ባብ",
        -8.886601872958272
      ],
      [
        "ከራ",
        -8.888312005218122
      ],
      [
        "6",
        -8.888396372231277
      ],
      [
        "ሟ",
        -8.888976482787257
      ],
      [
        "▁አንድነት",
        -8.889437864571786
      ],
      [
        "▁ነሽ",
        -8.892633128654165
      ],
      [
        "▁እንደው",
        -8.892826798283544
      ],
      [
        "ሉት",
        -8.893144539367817
      ],
      [
        "▁ጠ/ሚ",
        -8.89564814474868
      ],
      [
        "ኘ",
        -8.896035147239374
      ],
      [
        "ሀል",
        -8.898144018023796
      ],
      [
        "▁ተቋማት",
        -8.898748475441602
      ],
      [
        "▁ዘፈን",
        -8.899237578419621
      ],
      [
        "ቀጥ",
        -8.900682593000782
      ],
      [
        "▁ነዋ",
        -8.900796079231375
      ],
      [
        "▁መልዕክት",
        -8.900811160162135
      ],
      [
        "▁በዛ",
        -8.900903150326869
      ],
      [
        "▁ከዚያ",
        -8.901598159406738
      ],
      [
        "▁አስተዳደር",
        -8.902050530559851
      ],
      [
        "▁የከተማ",
        -8.903637966623876
      ],
      [
        "ሁት",
        -8.903996309884217
      ],
      [
        "ወች",
        -8.904451436296489
      ],
      [
        "▁ረቂቅ",
        -8.904587989108727
      ],
      [
        "▁ክፍ",
        -8.905237684051713
      ],
      [
        "ኡ",
        -8.905820364669378
      ],
      [
        "▁አይቀርም",
        -8.906346907561637
      ],
      [
        "▁ካላ",
        -8.907189954490534
      ],
      [
        "▁:-",
        -8.907774812717049
      ],
      [
        "▁አሜሪካ",
        -8.908687182017932
      ],
      [
        "▁የሚሉት",
        -8.908979590304998
      ],
      [
        "▁ወሳ",
        -8.90912116323851
      ],
      [
        "ችንን",
        -8.909205564170675
      ],
      [
        "ኖሩ",
        -8.909664931369875
      ],
      [
        "ደረ",
        -8.909792041324367
      ],
      [
        "▁እውነተኛ",
        -8.910977597392161
      ],
      [
        "▁ትግል",
        -8.910985353093551
      ],
      [
        "▁የኢዜማ",
        -8.911182246173903
      ],
      [
        "▁ወለጋ",
        -8.911610151938355
      ],
      [
        "ራችሁ",
        -8.912157306483406
      ],
      [
        "▁ቆይ",
        -8.912428340735303
      ],
      [
        "▁ነው፤",
        -8.912830819122139
      ],
      [
        "▁በሚል",
        -8.91329151576829
      ],
      [
        "ታችሁ",
        -8.914887806065831
      ],
      [
        "ሰኞ",
        -8.915354638821118
      ],
      [
        "▁አጋ",
        -8.920195350755595
      ],
      [
        "▁የገና",
        -8.920992965678721
      ],
      [
        "መንግስት",
        -8.923967490371275
      ],
      [
        "▁የመጀመሪያው",
        -8.924661717389252
      ],
      [
        "ፍት",
        -8.92582844455485
      ],
      [
        "ቺ",
        -8.931018909028118
      ],
      [
        "▁ኤርትራ",
        -8.942133846846044
      ],
      [
        "▁የሰላም",
        -8.94275208990606
      ],
      [
        "N",
        -8.944097815356944
      ],
      [
        "ቭ",
        -8.944112968396025
      ],
      [
        "▁ልደት",
        -8.944211509383104
      ],
      [
        "▁ድርጅቶች",
        -8.944318909922156
      ],
      [
        "▁ጭምር",
        -8.944523241631153
      ],
      [
        "▁አባላት",
        -8.944745762789914
      ],
      [
        "▁እርስዎ",
        -8.944821263694543
      ],
      [
        "ጣት",
        -8.94482531018877
      ],
      [
        "▁ዘረ",
        -8.946012522638698
      ],
      [
        "▁ጊዮርጊስ",
        -8.94679858524043
      ],
      [
        "▁ዲ",
        -8.94722514114131
      ],
      [
        "▁አለው",
        -8.950313626619609
      ],
      [
        "▁ድንጋይ",
        -8.950326993203923
      ],
      [
        "▁ሐ",
        -8.950498742533453
      ],
      [
        "▁ቤቶች",
        -8.950603648986544
      ],
      [
        "▁አይነቱ",
        -8.95164125877856
      ],
      [
        "ላላ",
        -8.952315728771833
      ],
      [
        "▁ለውጥ",
        -8.953156819337513
      ],
      [
        "▁እንደዚህ",
        -8.953423548668017
      ],
      [
        "▁ስህተት",
        -8.953878554247297
      ],
      [
        "▁ግልፅ",
        -8.960961873494592
      ],
      [
        "ሰር",
        -8.961290174759007
      ],
      [
        "▁የቀ",
        -8.962053486663866
      ],
      [
        "in",
        -8.962513039395668
      ],
      [
        "▁የእግዚአብሔር",
        -8.963344097798892
      ],
      [
        "እናንተ",
        -8.963417664813068
      ],
      [
        "▁7",
        -8.9639662661584
      ],
      [
        "▁የመጀመሪያ",
        -8.964956551253636
      ],
      [
        "????????",
        -8.96590748168631
      ],
      [
        "▁የምና",
        -8.966422354631137
      ],
      [
        "▁ለማስ",
        -8.968229422174849
      ],
      [
        "▁ነው!!",
        -8.970716274631334
      ],
      [
        "▁የውጭ",
        -8.973624581870055
      ],
      [
        "ቸውን",
        -8.974258762003695
      ],
      [
        "▁ሰር",
        -8.974886396984328
      ],
      [
        "ቀፍ",
        -8.975927339718659
      ],
      [
        "▁ሱ",
        -8.976484511263838
      ],
      [
        "ዘር",
        -8.97853112706563
      ],
      [
        "ወድ",
        -8.979407878784087
      ],
      [
        "ፈል",
        -8.980362465500814
      ],
      [
        "ለቅ",
        -8.981287290522777
      ],
      [
        "▁ተገ",
        -8.9820803152924
      ],
      [
        "ጉዳት",
        -8.98249762106974
      ],
      [
        "ርክ",
        -8.983041652398052
      ],
      [
        "ፍራ",
        -8.983326800368681
      ],
      [
        "▁አባት",
        -8.983575680299113
      ],
      [
        "ቀኝ",
        -8.984030952515685
      ],
      [
        "▁ነው??",
        -8.985510560308894
      ],
      [
        "▁እስ",
        -8.98679711271754
      ],
      [
        "▁ተከ",
        -8.988493139688046
      ],
      [
        "▁ከዛ",
        -8.989934133357302
      ],
      [
        "ኅ",
        -8.990920729338598
      ],
      [
        "▁አብረ",
        -8.990993284418254
      ],
      [
        "ኗ",
        -8.991626033743227
      ],
      [
        "▁አላውቅም",
        -8.991677031059595
      ],
      [
        "ፆ",
        -8.991732098056207
      ],
      [
        "▁ትክክል",
        -8.991734098313131
      ],
      [
        "ዘላለም",
        -8.991737509384597
      ],
      [
        "▁ዓ.ም",
        -8.991744081731651
      ],
      [
        "▁እሁድ",
        -8.991790758847811
      ],
      [
        "▁ስምምነት",
        -8.991831463158682
      ],
      [
        "▁ዓመታት",
        -8.991854563598551
      ],
      [
        "▁22",
        -8.991917743455403
      ],
      [
        "▁ጉዞ",
        -8.991975283489413
      ],
      [
        "▁አስታወቀ",
        -8.992035516588906
      ],
      [
        "▁አየ",
        -8.992122196566818
      ],
      [
        "ደቡ",
        -8.992173098096108
      ],
      [
        "▁ነጻ",
        -8.99222661990482
      ],
      [
        "▁ካልሆነ",
        -8.992246872800967
      ],
      [
        "▁መንፈስ",
        -8.99250403435572
      ],
      [
        "▁ቆሻሻ",
        -8.994561444310627
      ],
      [
        "ጠቃላይ",
        -8.995133276719848
      ],
      [
        "▁ያክል",
        -8.99569585019776
      ],
      [
        "▁ውሳኔ",
        -8.996433729427677
      ],
      [
        "ነህ",
        -8.997563750283529
      ],
      [
        "ተካ",
        -8.997824189464072
      ],
      [
        "ስራ",
        -8.998060046117875
      ],
      [
        "▁ወገን",
        -8.99817497436234
      ],
      [
        "ዎችን",
        -8.998255238854707
      ],
      [
        "▁እውቀት",
        -8.99844480664826
      ],
      [
        "▁ውይ",
        -8.999056462269518
      ],
      [
        "▁ምት",
        -9.000223689899094
      ],
      [
        "▁መጥፎ",
        -9.000388257315517
      ],
      [
        "ቃል",
        -9.001190775109022
      ],
      [
        "ደን",
        -9.001791699021808
      ],
      [
        "▁ጎንደር",
        -9.002497616768544
      ],
      [
        "▁ጃዋር",
        -9.003858577599988
      ],
      [
        "▁ዶክተር",
        -9.003878185886471
      ],
      [
        "▁ዐ",
        -9.00558663294531
      ],
      [
        "ወር",
        -9.00658883167581
      ],
      [
        "▁s",
        -9.009452828154911
      ],
      [
        "▁የገባ",
        -9.010062795628404
      ],
      [
        "ንግ",
        -9.01217637529611
      ],
      [
        "እኛ",
        -9.012352618640696
      ],
      [
        "▁መኖር",
        -9.013925773975497
      ],
      [
        "ደብ",
        -9.014858223666096
      ],
      [
        "መንግሥት",
        -9.01845537870882
      ],
      [
        "▁አይደለም።",
        -9.020110942339748
      ],
      [
        "▁ፊት",
        -9.020671783027714
      ],
      [
        "ብሄር",
        -9.020783180699304
      ],
      [
        "▁ፀ",
        -9.021047700853954
      ],
      [
        "▁አና",
        -9.023181223988486
      ],
      [
        "ረን",
        -9.02328475229912
      ],
      [
        "▁እናት",
        -9.025647529662828
      ],
      [
        "▁አፍሪካ",
        -9.026900173661922
      ],
      [
        "▁ያለበት",
        -9.027585994008803
      ],
      [
        "▁የመጨረሻ",
        -9.028385694639194
      ],
      [
        "▁ቁ",
        -9.028827955620825
      ],
      [
        "ልፍ",
        -9.029975299412072
      ],
      [
        "▁ባል",
        -9.031133444733685
      ],
      [
        "5",
        -9.033641467806245
      ],
      [
        "ስብ",
        -9.034470476685012
      ],
      [
        "ማንኛውም",
        -9.035526110289506
      ],
      [
        "00",
        -9.03634699274585
      ],
      [
        "ጠል",
        -9.037107687653211
      ],
      [
        "ሀገር",
        -9.037515522693232
      ],
      [
        "▁12",
        -9.038088016626638
      ],
      [
        "ጀመር",
        -9.039911495567422
      ],
      [
        "le",
        -9.041008404482657
      ],
      [
        "ማል",
        -9.04123311429235
      ],
      [
        "ዪ",
        -9.041575799537794
      ],
      [
        "ኽ",
        -9.041732098056206
      ],
      [
        "▁ፖርቲ",
        -9.041732273376978
      ],
      [
        "▁አስፈላጊ",
        -9.041955910624427
      ],
      [
        "▁ምክንያቱ",
        -9.042113000512213
      ],
      [
        "▁አስተሳሰብ",
        -9.042173516248122
      ],
      [
        "▁ዲሞክራሲ",
        -9.042736731955214
      ],
      [
        "▁ግንኙነት",
        -9.042823824367476
      ],
      [
        "▁ነዋሪዎች",
        -9.04297573822937
      ],
      [
        "ሎጂ",
        -9.043247875167603
      ],
      [
        "on",
        -9.044043002014364
      ],
      [
        "ማድረግ",
        -9.044509752844744
      ],
      [
        "▁ሴ",
        -9.045133845539837
      ],
      [
        "ሃለሁ",
        -9.047110728390463
      ],
      [
        "▁አደረሰን",
        -9.047244255018615
      ],
      [
        "▁በኩል",
        -9.048038785893699
      ],
      [
        "▁ተወካ",
        -9.048544096968254
      ],
      [
        "▁ሕ",
        -9.048729725137965
      ],
      [
        "▁ሰይጣን",
        -9.048972946295555
      ],
      [
        "▁ምንድን",
        -9.049454638739697
      ],
      [
        "▁ቅድ",
        -9.049784022263609
      ],
      [
        "ከት",
        -9.050091653103932
      ],
      [
        "▁አላማ",
        -9.050221636786034
      ],
      [
        "▁ታክስ",
        -9.051111554762429
      ],
      [
        "▁ካሳ",
        -9.052042577010292
      ],
      [
        "▁ስርዓት",
        -9.052274372956019
      ],
      [
        "▁ብርሃ",
        -9.052879082838306
      ],
      [
        "▁ሂ",
        -9.05305061605532
      ],
      [
        "▁ምስኪን",
        -9.053342180555234
      ],
      [
        "▁ያላቸው",
        -9.053605543287036
      ],
      [
        "B",
        -9.053695769986014
      ],
      [
        "▁ስድብ",
        -9.054587587231225
      ],
      [
        "▁በጋራ",
        -9.05528583160685
      ],
      [
        "▁ቡና",
        -9.055934040260258
      ],
      [
        "▁ትውልድ",
        -9.056031049466533
      ],
      [
        "▁ተወ",
        -9.05733581097897
      ],
      [
        "ጋራ",
        -9.057730593232506
      ],
      [
        "▁ቢሮ",
        -9.059285607523847
      ],
      [
        "ሰጥ",
        -9.060178328790547
      ],
      [
        "ፍረ",
        -9.063622401088695
      ],
      [
        "▁ፍርድ",
        -9.065352548273147
      ],
      [
        "▁23",
        -9.065722008138408
      ],
      [
        "ከፍ",
        -9.065780532087611
      ],
      [
        "ረኛ",
        -9.065933040588579
      ],
      [
        "al",
        -9.066046544533371
      ],
      [
        "▁I",
        -9.066345536296197
      ],
      [
        "▁ነገሩ",
        -9.067856517216995
      ],
      [
        "▁እር",
        -9.069239331233476
      ],
      [
        "▁ትግራይ",
        -9.07241462816225
      ],
      [
        "▁አፍ",
        -9.072575351562955
      ],
      [
        "ሰጠው",
        -9.07277011335238
      ],
      [
        "ከብ",
        -9.074871327380311
      ],
      [
        "▁ኮሚቴ",
        -9.07531508317637
      ],
      [
        "▁አንተን",
        -9.077131956258485
      ],
      [
        "መለ",
        -9.077288395475762
      ],
      [
        "ነፍጠኛ",
        -9.078349860085584
      ],
      [
        "ሉ።",
        -9.078482143898112
      ],
      [
        "ፈር",
        -9.078686318886064
      ],
      [
        "፣የ",
        -9.078701639864404
      ],
      [
        "ጮ",
        -9.080258715383552
      ],
      [
        "ደም",
        -9.084190807756007
      ],
      [
        "ለች",
        -9.084647903137784
      ],
      [
        "▁ስነ",
        -9.085551394988343
      ],
      [
        "ቀጥታ",
        -9.0859353916205
      ],
      [
        "ጩ",
        -9.088667233968057
      ],
      [
        "ራራ",
        -9.089334202065233
      ],
      [
        "▁ለካ",
        -9.089541709003527
      ],
      [
        "ስልጣን",
        -9.09432180054374
      ],
      [
        "ቫ",
        -9.094363454624226
      ],
      [
        "▁ጠንካራ",
        -9.094363872861837
      ],
      [
        "▁ሥቃይ",
        -9.094365548209876
      ],
      [
        "▁ጎበዝ",
        -9.094386063303503
      ],
      [
        "▁ሀብት",
        -9.094512389420043
      ],
      [
        "▁እግር",
        -9.09456532877274
      ],
      [
        "▁ስርአት",
        -9.094573355097275
      ],
      [
        "▁መሰለኝ",
        -9.094575605483554
      ],
      [
        "▁ኦነግ",
        -9.094772961517764
      ],
      [
        "▁ይመስላል",
        -9.095579359583061
      ],
      [
        "ክስ",
        -9.095893353174745
      ],
      [
        "▁መስሎኝ",
        -9.095950449635065
      ],
      [
        "▁ደጋፊዎች",
        -9.096012071179317
      ],
      [
        "▁አዳ",
        -9.09645688166415
      ],
      [
        "ሸነፍ",
        -9.0965845289186
      ],
      [
        "ገበ",
        -9.09671626843998
      ],
      [
        "▁አልነበረም",
        -9.099704996621856
      ],
      [
        "▁ከእ",
        -9.100828346130278
      ],
      [
        "an",
        -9.101536786933536
      ],
      [
        "▁አገ",
        -9.103021500446305
      ],
      [
        "▁ስታ",
        -9.103368270235112
      ],
      [
        "ራሽ",
        -9.103586542948012
      ],
      [
        "▁ባንክ",
        -9.104284632612199
      ],
      [
        "▁ሁላችን",
        -9.104634416530743
      ],
      [
        "▁ጫ",
        -9.104973942823058
      ],
      [
        "▁ብሔራዊ",
        -9.105730775541463
      ],
      [
        "▁ሰላማዊ",
        -9.107922535347763
      ],
      [
        "▁ኳስ",
        -9.107949220180869
      ],
      [
        "▁መሪዎች",
        -9.108125266847745
      ],
      [
        "ሚለው",
        -9.108275661159393
      ],
      [
        "▁ሳምንት",
        -9.109947105677701
      ],
      [
        "▁ኢየሱስ",
        -9.109951285030522
      ],
      [
        "ቹን",
        -9.110281517609796
      ],
      [
        "መነ",
        -9.110692960500518
      ],
      [
        "ነሱ",
        -9.110781965828316
      ],
      [
        "S",
        -9.110967004682877
      ],
      [
        "ነታቸው",
        -9.111608337575237
      ],
      [
        "▁ገዳ",
        -9.112275843784339
      ],
      [
        "ተረ",
        -9.112331951317486
      ],
      [
        "|",
        -9.113230084416932
      ],
      [
        "▁በግ",
        -9.11371988812956
      ],
      [
        "▁21",
        -9.115641579734943
      ],
      [
        "ውያን",
        -9.115855101551894
      ],
      [
        "▁ልት",
        -9.116007200265868
      ],
      [
        "▁ወንበ",
        -9.116692851705222
      ],
      [
        "▁ትክክለኛ",
        -9.11955762641143
      ],
      [
        "ልማት",
        -9.119617995410586
      ],
      [
        "▁ብሔር",
        -9.119986491919775
      ],
      [
        "▁????❤",
        -9.121013948236033
      ],
      [
        "ሳል",
        -9.121059537571066
      ],
      [
        "▁መስጠት",
        -9.123147593435208
      ],
      [
        "ፍታ",
        -9.123762984777038
      ],
      [
        "ቁት",
        -9.123883150060287
      ],
      [
        "ረስ",
        -9.125323932012915
      ],
      [
        "▁ውጤት",
        -9.127490694427845
      ],
      [
        "ጋዊ",
        -9.12763012039055
      ],
      [
        "ቶቹ",
        -9.127722772695138
      ],
      [
        "▁ወጥ",
        -9.127940003793816
      ],
      [
        "▁8",
        -9.13028411161958
      ],
      [
        "▁ናቸው።",
        -9.130306876773993
      ],
      [
        "▁በነገ",
        -9.131865527601498
      ],
      [
        "ኖረ",
        -9.13294274347773
      ],
      [
        "▁ምንድነው",
        -9.133914824420621
      ],
      [
        "▁ሁሉን",
        -9.1340944316463
      ],
      [
        "▁የነበሩ",
        -9.135155208214638
      ],
      [
        "▁ፓ",
        -9.136544887582275
      ],
      [
        "ስተ",
        -9.136791942193287
      ],
      [
        "ሰፈር",
        -9.137849659410573
      ],
      [
        "▁ሊቀ",
        -9.139960655653326
      ],
      [
        "ያንስ",
        -9.140848850542397
      ],
      [
        "▁ድም",
        -9.143824509455044
      ],
      [
        "▁ሰበ",
        -9.144583180794072
      ],
      [
        "ያችን",
        -9.146147488431165
      ],
      [
        "በው",
        -9.146497034383442
      ],
      [
        "ቅርቡ",
        -9.14703234931618
      ],
      [
        "ምሮ",
        -9.148011716001406
      ],
      [
        "ሱን",
        -9.14809765440076
      ],
      [
        "▁ሁላ",
        -9.14852510143931
      ],
      [
        "ሀይማኖ",
        -9.149484574517807
      ],
      [
        "ነካ",
        -9.149851852982875
      ],
      [
        "ቿ",
        -9.14991917884219
      ],
      [
        "፦",
        -9.149919232559132
      ],
      [
        "▁አቅጣጫ",
        -9.14991958482426
      ],
      [
        "››",
        -9.149923639562425
      ],
      [
        "ተኞች",
        -9.149933601525401
      ],
      [
        "▁ዝግጅት",
        -9.149963837131754
      ],
      [
        "▁አይሆንም",
        -9.150096642741111
      ],
      [
        "▁ምሽት",
        -9.15014279665758
      ],
      [
        "/ቤት",
        -9.151034686366183
      ],
      [
        "▁is",
        -9.151142775479453
      ],
      [
        "▁ወደፊት",
        -9.151223173112982
      ],
      [
        "ኢዜማ",
        -9.151364592988529
      ],
      [
        "▁የመኪና",
        -9.151455012384504
      ],
      [
        "▁አሪፍ",
        -9.151851113245863
      ],
      [
        "▁ፍሬ",
        -9.151856254303834
      ],
      [
        "▁አስተ",
        -9.152155610777662
      ],
      [
        "▁ባለፈው",
        -9.153794383546618
      ],
      [
        "▁ያንተ",
        -9.154248777042163
      ],
      [
        "▁የዚህ",
        -9.154398513343457
      ],
      [
        "ገደ",
        -9.154584721296889
      ],
      [
        "▁ህፃናት",
        -9.155414405400506
      ],
      [
        "▁ልዩነት",
        -9.155847076128634
      ],
      [
        "▁!!",
        -9.156158429531196
      ],
      [
        "ክት",
        -9.158051391244244
      ],
      [
        "ደግ",
        -9.158150698952605
      ],
      [
        "▁ግንባታ",
        -9.16031972817531
      ],
      [
        "▁ሀይል",
        -9.16038753249566
      ],
      [
        "▁አገልግሎት",
        -9.161021927783887
      ],
      [
        "▁በኦሮሚያ",
        -9.161656324828757
      ],
      [
        "▁ለማን",
        -9.162019087603898
      ],
      [
        "ደርግ",
        -9.162028513401069
      ],
      [
        "▁የአብይ",
        -9.162518167069958
      ],
      [
        "መቀሌ",
        -9.163574585958226
      ],
      [
        "▁2020",
        -9.164193054102396
      ],
      [
        "▁ቤተክርስቲያን",
        -9.16424215482127
      ],
      [
        "▁ፖሊሲ",
        -9.166408824394175
      ],
      [
        "▁ጥላቻ",
        -9.166507398489298
      ],
      [
        "▁ነፃነት",
        -9.166699455096927
      ],
      [
        "▁ጭራ",
        -9.167428274083584
      ],
      [
        "▁ዶ",
        -9.167977004210668
      ],
      [
        "▁ግለሰብ",
        -9.16822501478714
      ],
      [
        "ናቸው",
        -9.169096581594662
      ],
      [
        "▁27",
        -9.169140870759344
      ],
      [
        "ብኝ",
        -9.169304871513859
      ],
      [
        "▁a",
        -9.170044993920786
      ],
      [
        "ህግ",
        -9.171122107650914
      ],
      [
        "▁አለበት።",
        -9.171187097463585
      ],
      [
        "በትን",
        -9.172257535015193
      ],
      [
        "▁ጥፋ",
        -9.173097379891416
      ],
      [
        "ስማማ",
        -9.174992815429928
      ],
      [
        "▁አዲሱ",
        -9.175324828224722
      ],
      [
        "▁የተለያ",
        -9.176312412097632
      ],
      [
        "▁አለች",
        -9.177149629129238
      ],
      [
        "▁ምክ",
        -9.177401580546787
      ],
      [
        "▁የሞጣ",
        -9.178057159469995
      ],
      [
        "▁እራሱ",
        -9.179288696227431
      ],
      [
        "▁በኃላ",
        -9.180149626020551
      ],
      [
        "▁አለም",
        -9.182831661569386
      ],
      [
        "ተት",
        -9.183628778530581
      ],
      [
        "▁አላህ",
        -9.185245932660422
      ],
      [
        "ዮን",
        -9.187148524407355
      ],
      [
        "▁እንደዛ",
        -9.18994880481885
      ],
      [
        "▁ተደ",
        -9.19109807342871
      ],
      [
        "ራቅ",
        -9.195360127733862
      ],
      [
        "▁B",
        -9.195396555333957
      ],
      [
        "ረባ",
        -9.195415578356055
      ],
      [
        "st",
        -9.196136638352868
      ],
      [
        "me",
        -9.196588559856455
      ],
      [
        "ከረ",
        -9.196929241508615
      ],
      [
        "8",
        -9.19751303975848
      ],
      [
        "▁በቂ",
        -9.198904991140367
      ],
      [
        "▁መላ",
        -9.201086908336578
      ],
      [
        "at",
        -9.201768616833423
      ],
      [
        "▁የእኔ",
        -9.202433103739278
      ],
      [
        "ፈልገው",
        -9.20246616234013
      ],
      [
        "ሊያ",
        -9.202811861175803
      ],
      [
        "▁ሄ",
        -9.206118073277553
      ],
      [
        "▁ኃላፊ",
        -9.206387483888808
      ],
      [
        "ዳት",
        -9.206843975366676
      ],
      [
        "አየር",
        -9.207757117690184
      ],
      [
        "ጢ",
        -9.208732028360073
      ],
      [
        "▁ትርጉም",
        -9.208743028521978
      ],
      [
        "▁ፕሮግራም",
        -9.208762890860886
      ],
      [
        "▁ጨምሮ",
        -9.208955140896688
      ],
      [
        "ሄዱ",
        -9.209479087474508
      ],
      [
        "▁አድ",
        -9.2095973479001
      ],
      [
        "/2012",
        -9.209766856894044
      ],
      [
        "የን",
        -9.209934009152208
      ],
      [
        "▁ቀረ",
        -9.212154438044962
      ],
      [
        "▁የሚባለው",
        -9.212321360634444
      ],
      [
        "▁አዎ",
        -9.212392691322652
      ],
      [
        "ጽዮን",
        -9.21284443539907
      ],
      [
        "▁ተቋ",
        -9.214891961410487
      ],
      [
        "▁አመታት",
        -9.214934594177729
      ],
      [
        "▁አንዴ",
        -9.216442117032724
      ],
      [
        "ሰሞኑ",
        -9.216630797538954
      ],
      [
        "ታከለ",
        -9.217218908030977
      ],
      [
        "▁በርካ",
        -9.218704643893867
      ],
      [
        "ጥፍ",
        -9.219097140605253
      ],
      [
        "▁ፈተና",
        -9.219284698998504
      ],
      [
        "▁ይገባል።",
        -9.22183600751827
      ],
      [
        "ፎች",
        -9.221871766112809
      ],
      [
        "▁አቅም",
        -9.22438579951329
      ],
      [
        "በሉ",
        -9.225750786321068
      ],
      [
        "▁ሁለቱ",
        -9.225905441118565
      ],
      [
        "▁ምድር",
        -9.226802294125683
      ],
      [
        "▁ዋ",
        -9.227136825926511
      ],
      [
        "▁የነበረ",
        -9.227241167365396
      ],
      [
        "ለፍ",
        -9.227264081286108
      ],
      [
        "▁ቢል",
        -9.227585778975193
      ],
      [
        "▁ደረ",
        -9.227708972192719
      ],
      [
        "▁ጥበብ",
        -9.22774484605615
      ],
      [
        "ትግራይ",
        -9.228041863713319
      ],
      [
        "▁(የ",
        -9.228041986784302
      ],
      [
        "▁ማሰብ",
        -9.22815232124729
      ],
      [
        "▁ኢህአዴግ",
        -9.228965869614733
      ],
      [
        "ጠረ",
        -9.22937705734591
      ],
      [
        "▁የሚገኙ",
        -9.23180983650625
      ],
      [
        "ረኝ",
        -9.232214407654112
      ],
      [
        "▁ፌ",
        -9.232996099364085
      ],
      [
        "▁ሰውዬ",
        -9.233020276066227
      ],
      [
        "▁E",
        -9.233386746961303
      ],
      [
        "▁ጠላት",
        -9.23379439577553
      ],
      [
        "▁እሳት",
        -9.234020222208644
      ],
      [
        "ህዝቡ",
        -9.234526810695659
      ],
      [
        "ካን",
        -9.234960835992114
      ],
      [
        "መያዝ",
        -9.236267621968835
      ],
      [
        "▁መጥ",
        -9.236528617345277
      ],
      [
        "ሷ",
        -9.236877344897465
      ],
      [
        "▁ይፋ",
        -9.238726536964249
      ],
      [
        "▁መቀ",
        -9.241413459078931
      ],
      [
        "▁11",
        -9.2415883063178
      ],
      [
        "▁ስትል",
        -9.244628795353705
      ],
      [
        "ውሸት",
        -9.24488049643751
      ],
      [
        "▁የአሜሪካ",
        -9.245745753768892
      ],
      [
        "ያዊ",
        -9.246253827589062
      ],
      [
        "▁ቅር",
        -9.247244202947972
      ],
      [
        "▁ህዝባ",
        -9.24806880461552
      ],
      [
        "ከር",
        -9.249287484628187
      ],
      [
        "▁ቀና",
        -9.251432123790874
      ],
      [
        "ሞተ",
        -9.25172732903696
      ],
      [
        "▁በምን",
        -9.252169050987495
      ],
      [
        "▁ለተ",
        -9.252172031592082
      ],
      [
        "▁ይቻላል",
        -9.253642894881985
      ],
      [
        "ሠራ",
        -9.254768566039797
      ],
      [
        "▁በአል",
        -9.254957942825326
      ],
      [
        "ዛሬ",
        -9.255424288310415
      ],
      [
        "▁ብታ",
        -9.256597861721696
      ],
      [
        "▁ግብር",
        -9.258200312227101
      ],
      [
        "ረሳ",
        -9.258438424218877
      ],
      [
        "ቶቻችን",
        -9.259490914405998
      ],
      [
        "ታቸውን",
        -9.262064965510842
      ],
      [
        "▁ነው፣",
        -9.262478810948764
      ],
      [
        "▁እንደማይ",
        -9.266713999491802
      ],
      [
        "ባይ",
        -9.267946460076727
      ],
      [
        "ኋ",
        -9.26905238143465
      ],
      [
        "▁ማሳ",
        -9.269423625407512
      ],
      [
        "ሰጡ",
        -9.26981237175184
      ],
      [
        "▁ወዲ",
        -9.270273261346631
      ],
      [
        "▁ሹ",
        -9.2703531741381
      ],
      [
        "▁የመጣ",
        -9.270594483854516
      ],
      [
        "▁እኩል",
        -9.27092550189805
      ],
      [
        "ሡ",
        -9.271242761970903
      ],
      [
        "▁ይመስለኛል",
        -9.271242827023178
      ],
      [
        "▁ባለሙያ",
        -9.271253113708129
      ],
      [
        "▁አካላት",
        -9.271258308217671
      ],
      [
        "▁ማህበር",
        -9.271262155829739
      ],
      [
        "ሀገሬ",
        -9.271262427288196
      ],
      [
        "▁ቤተሰቦች",
        -9.271316149166683
      ],
      [
        "▁አደርጋለሁ",
        -9.271331310458564
      ],
      [
        "▁አካውን",
        -9.271376986261027
      ],
      [
        "▁ቅዳሜ",
        -9.271391860126663
      ],
      [
        "▁ቦርድ",
        -9.27143892769215
      ],
      [
        "▁ይገኛል",
        -9.271526503615535
      ],
      [
        "▁ጥናት",
        -9.271642801422136
      ],
      [
        "በደ",
        -9.271674521498275
      ],
      [
        "ራቸው",
        -9.272091091979537
      ],
      [
        "▁እንዳንተ",
        -9.272092995826338
      ],
      [
        "▁ማወቅ",
        -9.272328783174673
      ],
      [
        "▁ቀጥ",
        -9.27324654346577
      ],
      [
        "▁ታማኝ",
        -9.273476989414538
      ],
      [
        "ለመ",
        -9.27351888503224
      ],
      [
        "▁መልኩ",
        -9.273674204014084
      ],
      [
        "▁ሸዋ",
        -9.27507805831874
      ],
      [
        "▁ዳን",
        -9.275167453886311
      ],
      [
        "አት",
        -9.275560051705142
      ],
      [
        "▁ስሜት",
        -9.275747202372813
      ],
      [
        "ባችን",
        -9.275957603411765
      ],
      [
        "▁አደራ",
        -9.27639552736316
      ],
      [
        "ለቀ",
        -9.276670138460286
      ],
      [
        "▁አማራጭ",
        -9.276764305386251
      ],
      [
        "▁ካድሬ",
        -9.277481580358424
      ],
      [
        "ዎቻችን",
        -9.277621977934764
      ],
      [
        "ልውና",
        -9.27765571137412
      ],
      [
        "ገኙ",
        -9.277853658659252
      ],
      [
        "▁ይባላል",
        -9.278096641691532
      ],
      [
        "ፌስቡ",
        -9.278887406595032
      ],
      [
        "▁መጠበቅ",
        -9.279105552829174
      ],
      [
        "ነገ",
        -9.279156448480608
      ],
      [
        "▁ነች",
        -9.279879648540092
      ],
      [
        "ቅርብ",
        -9.280169625897987
      ],
      [
        "▁ሰዉ",
        -9.280401966688624
      ],
      [
        "▁ፖለቲከኞች",
        -9.280846550513644
      ],
      [
        "ወት",
        -9.28215861402887
      ],
      [
        "▁ትናንት",
        -9.282426751700893
      ],
      [
        "▁ቤቱ",
        -9.28254540911384
      ],
      [
        "▁ከጎን",
        -9.28337286430822
      ],
      [
        "or",
        -9.284265250315151
      ],
      [
        "▁በቀለ",
        -9.284543369743808
      ],
      [
        "ጠኛ",
        -9.284563975339857
      ],
      [
        "▁ዮ",
        -9.284773028593198
      ],
      [
        "▁አባቴ",
        -9.284781117169278
      ],
      [
        "▁ግልጽ",
        -9.28545983508992
      ],
      [
        "▁አጥ",
        -9.285560331503175
      ],
      [
        "ወለድ",
        -9.286204564762963
      ],
      [
        "ኦሮሚያ",
        -9.286210826828656
      ],
      [
        "ሯ",
        -9.287485004963678
      ],
      [
        "▁ዝግ",
        -9.287593169950535
      ],
      [
        "▁ደን",
        -9.287978470196773
      ],
      [
        "▁ተል",
        -9.289859196619446
      ],
      [
        "▁ይችላል።",
        -9.29025216823664
      ],
      [
        "▁ይሄንን",
        -9.290511397146615
      ],
      [
        "ግፍ",
        -9.290831102955716
      ],
      [
        "ገባኝ",
        -9.291083069023035
      ],
      [
        "▁ኣይ",
        -9.291962266484468
      ],
      [
        "ሴት",
        -9.29253269283315
      ],
      [
        "▁ጥረ",
        -9.293394962491215
      ],
      [
        "ሁለተኛ",
        -9.293676805364749
      ],
      [
        "C",
        -9.294162756972362
      ],
      [
        "ናገር",
        -9.296469771862629
      ],
      [
        "▁ያኔ",
        -9.299080562146008
      ],
      [
        "▁w",
        -9.29910579845142
      ],
      [
        "▁ስንቱ",
        -9.299342997396282
      ],
      [
        "▁A",
        -9.299486503887806
      ],
      [
        "ነፍ",
        -9.299810053890875
      ],
      [
        "2012",
        -9.3001112887095
      ],
      [
        "ወያኔ",
        -9.301557304540232
      ],
      [
        "▁ወዳጅ",
        -9.302579691446528
      ],
      [
        "ወንድ",
        -9.303355955109996
      ],
      [
        "ልሽ",
        -9.304027182316517
      ],
      [
        "▁ስጋ",
        -9.304890636552782
      ],
      [
        "ጠፉ",
        -9.305184457776669
      ],
      [
        "▁ቆይታ",
        -9.305726755961844
      ],
      [
        "ተህ",
        -9.305961748090237
      ],
      [
        "ቀለ",
        -9.308125656871212
      ],
      [
        "▁ጎን",
        -9.31299561849565
      ],
      [
        "ማት",
        -9.313208995460128
      ],
      [
        "ለዉ",
        -9.314022152696415
      ],
      [
        "▁ላለ",
        -9.316325222343433
      ],
      [
        "ጠዋ",
        -9.316449476320816
      ],
      [
        "ጪ",
        -9.317045711142079
      ],
      [
        "ዘን",
        -9.317211166328624
      ],
      [
        "ጠበ",
        -9.318118598098991
      ],
      [
        "▁መሰረ",
        -9.319013754444573
      ],
      [
        "▁ቀድሞ",
        -9.319438056053524
      ],
      [
        "ቸዉ",
        -9.320001099045587
      ],
      [
        "▁ሰአ",
        -9.32033304559756
      ],
      [
        "ዳቸው",
        -9.320962506783262
      ],
      [
        "ቀቅ",
        -9.323204528525846
      ],
      [
        "ም!",
        -9.32358393500775
      ],
      [
        "መሆን",
        -9.324464893223
      ],
      [
        "▁ጥን",
        -9.324524878489298
      ],
      [
        "▁የነ",
        -9.326239743644175
      ],
      [
        "▁እንዳት",
        -9.327174123394535
      ],
      [
        "ደገ",
        -9.328095164036961
      ],
      [
        "▁15",
        -9.329369704339818
      ],
      [
        "ያቸው",
        -9.330262762469054
      ],
      [
        "ፓርቲው",
        -9.330555184719966
      ],
      [
        "ያለሁ",
        -9.33272861679158
      ],
      [
        "▁ኃይ",
        -9.334054624148164
      ],
      [
        "▁ፈር",
        -9.335413422038854
      ],
      [
        "ያስ",
        -9.3358653877909
      ],
      [
        "▁‹‹",
        -9.33591322214523
      ],
      [
        "ታች",
        -9.336229643198063
      ],
      [
        "ፈልጉ",
        -9.336295707428183
      ],
      [
        "ጵ",
        -9.336680270526385
      ],
      [
        "▁ገቢ",
        -9.337465943176165
      ],
      [
        "ጧ",
        -9.337888612382512
      ],
      [
        "ኤክሳይዝ",
        -9.337909450255971
      ],
      [
        "▁ያስፈልጋል",
        -9.337909457882745
      ],
      [
        "▁you",
        -9.337912436014662
      ],
      [
        "▁ስጦታ",
        -9.337919959140232
      ],
      [
        "▁ገበያ",
        -9.338020957438593
      ],
      [
        "/ር",
        -9.338031265363526
      ],
      [
        "▁ሜዳ",
        -9.338145292617696
      ],
      [
        "▁ትልቁ",
        -9.338213346313873
      ],
      [
        "▁ተቀባይነት",
        -9.33826002437107
      ],
      [
        "▁ምላሽ",
        -9.338343560669946
      ],
      [
        "▁እባክህ",
        -9.338429088234998
      ],
      [
        "▁መሆናቸውን",
        -9.338459684456243
      ],
      [
        "▁ቴሌ",
        -9.338548544958618
      ],
      [
        "▁አቡነ",
        -9.338624984551192
      ],
      [
        "ሃት",
        -9.339519263943943
      ],
      [
        "መለሱ",
        -9.340185938564911
      ],
      [
        "▁ግንባር",
        -9.340194668032831
      ],
      [
        "▁ሀይ",
        -9.340517928129216
      ],
      [
        "▁መብ",
        -9.341034021383765
      ],
      [
        "▁ጥሪ",
        -9.341831642156038
      ],
      [
        "▁Ethiopia",
        -9.341954955753103
      ],
      [
        "▁ያሬድ",
        -9.34199577338631
      ],
      [
        "▁ነጥ",
        -9.342930722073037
      ],
      [
        "▁ለሁሉም",
        -9.343222027331404
      ],
      [
        "ቻለሁ",
        -9.343830817769145
      ],
      [
        "▁ከምርጫ",
        -9.343959213524936
      ],
      [
        "▁የማን",
        -9.344485062085631
      ],
      [
        "▁እንጀራ",
        -9.344592688684099
      ],
      [
        "▁ህዝቡ",
        -9.344844422487332
      ],
      [
        "50",
        -9.345649548201946
      ],
      [
        "ማቸው",
        -9.346252472588793
      ],
      [
        "▁ፋ",
        -9.34640956169975
      ],
      [
        "▁በምርጫ",
        -9.348094458860665
      ],
      [
        "ከፋ",
        -9.348786287468274
      ],
      [
        "አሁን",
        -9.348826592793277
      ],
      [
        "ግብ",
        -9.348860212953412
      ],
      [
        "▁ብርቱ",
        -9.348943660511072
      ],
      [
        "▁አቤት",
        -9.34919246733815
      ],
      [
        "▁የተባለው",
        -9.349255278577225
      ],
      [
        "ህዝብ",
        -9.349885410950623
      ],
      [
        "▁ኑሮ",
        -9.350036926037347
      ],
      [
        "!!!!",
        -9.350329263698809
      ],
      [
        "በዛ",
        -9.35038443408241
      ],
      [
        "▁በሁሉ",
        -9.350594360482207
      ],
      [
        "▁ግብ",
        -9.350921515473823
      ],
      [
        "▁እየሰራ",
        -9.350983727746794
      ],
      [
        "ማማ",
        -9.351360516236799
      ],
      [
        "ጠበቀ",
        -9.352030440911648
      ],
      [
        "ዉን",
        -9.3520786770567
      ],
      [
        "▁ወግ",
        -9.35244699106967
      ],
      [
        "▁የሚገባ",
        -9.352730283857117
      ],
      [
        "▁የክልሉ",
        -9.352783294772461
      ],
      [
        "ፍል",
        -9.35278753633664
      ],
      [
        "ጣል",
        -9.352792553015941
      ],
      [
        "ልክ",
        -9.353080355372677
      ],
      [
        "▁ባህር",
        -9.353117989287465
      ],
      [
        "ናል።",
        -9.353222681240736
      ],
      [
        "ፍረስ",
        -9.353401067577344
      ],
      [
        "▁ፕሮፌሰር",
        -9.354717893533724
      ],
      [
        "▁ይበል",
        -9.35493213910915
      ],
      [
        "ብልፅግና",
        -9.355738472345031
      ],
      [
        "▁ጉዳ",
        -9.356502137847645
      ],
      [
        "ወጪ",
        -9.356742454335222
      ],
      [
        "▁ትን",
        -9.356844991605136
      ],
      [
        "ረፋ",
        -9.357329626629724
      ],
      [
        "ዓለም",
        -9.358148739679471
      ],
      [
        "▁በሉ",
        -9.3587464433408
      ],
      [
        "ሪክ",
        -9.359944580006038
      ],
      [
        "ሳት",
        -9.36047659324517
      ],
      [
        "▁ማንነት",
        -9.360978198495927
      ],
      [
        "ሙድ",
        -9.36151683367456
      ],
      [
        "ሳስ",
        -9.361895985424006
      ],
      [
        "ነትን",
        -9.363046451737215
      ],
      [
        "▁ሪ",
        -9.364194704433677
      ],
      [
        "▁፥",
        -9.36616522033667
      ],
      [
        "▁በሞጣ",
        -9.366259592940892
      ],
      [
        "▁ይሆናል።",
        -9.366318717904306
      ],
      [
        "የም",
        -9.366791879256686
      ],
      [
        "▁ዓ",
        -9.366817749531151
      ],
      [
        "▁ምስ",
        -9.367661447149528
      ],
      [
        "▁ሳያ",
        -9.367798670343607
      ],
      [
        "ሬሽ",
        -9.36811410253311
      ],
      [
        "ለን።",
        -9.36904302783657
      ],
      [
        "▁መጠን",
        -9.369593358963588
      ],
      [
        "▁ባዶ",
        -9.370672551805605
      ],
      [
        "F",
        -9.371027984826874
      ],
      [
        "ውጤት",
        -9.372490363005673
      ],
      [
        "ሙስሊም",
        -9.372529469884858
      ],
      [
        "▁አባል",
        -9.372575892969616
      ],
      [
        "I",
        -9.372629765957884
      ],
      [
        "ማርያም",
        -9.372834304006219
      ],
      [
        "ቀበል",
        -9.373141077936854
      ],
      [
        "▁ጥፋት",
        -9.374083963768244
      ],
      [
        "ባር",
        -9.375462831797073
      ],
      [
        "ክፉ",
        -9.375863258216153
      ],
      [
        "ጋር",
        -9.37588365159624
      ],
      [
        "▁ይቀ",
        -9.376039906992734
      ],
      [
        "▁አድር",
        -9.37652745383425
      ],
      [
        "▁ወሎ",
        -9.376844479331867
      ],
      [
        "ያዙ",
        -9.377013139665596
      ],
      [
        "▁አቀ",
        -9.377052843857523
      ],
      [
        "▁ፊ",
        -9.379892814388263
      ],
      [
        "▁እኔን",
        -9.379964926227338
      ],
      [
        "▁ውስ",
        -9.380446218809539
      ],
      [
        "ዋለሁ",
        -9.380495444575397
      ],
      [
        "????❤",
        -9.380911266336572
      ],
      [
        "▁ጉባኤ",
        -9.38216503950596
      ],
      [
        "ነበረው",
        -9.382434038814699
      ],
      [
        "▁አቅ",
        -9.38467298631238
      ],
      [
        "▁እሱን",
        -9.385980358529618
      ],
      [
        "▁ቀርቶ",
        -9.387269937502959
      ],
      [
        "▁እማ",
        -9.387635708205064
      ],
      [
        "▁ማሰ",
        -9.387696914275683
      ],
      [
        "!??",
        -9.388445037886333
      ],
      [
        "▁ያሉትን",
        -9.3888682562585
      ],
      [
        "ደርስ",
        -9.389303292036043
      ],
      [
        "▁ዛሬም",
        -9.38936473797074
      ],
      [
        "ስር",
        -9.389669344898179
      ],
      [
        "ዱን",
        -9.390862246506584
      ],
      [
        "▁የማያ",
        -9.391132446165805
      ],
      [
        "▁አድርገ",
        -9.392307036186919
      ],
      [
        "▁እያስ",
        -9.39351215577286
      ],
      [
        "ውስጥ",
        -9.394632564393849
      ],
      [
        "M",
        -9.394765140951392
      ],
      [
        "▁ይዘ",
        -9.395848897884253
      ],
      [
        "▁የሆኑ",
        -9.399298384981718
      ],
      [
        "ናንተ",
        -9.401708719380434
      ],
      [
        "▁ነፍስ",
        -9.403488449816223
      ],
      [
        "▁ያላ",
        -9.403509362431343
      ],
      [
        "ሔ",
        -9.404650594983178
      ],
      [
        "▁እዳ",
        -9.404691732199463
      ],
      [
        "▁ጃ",
        -9.40523023525761
      ],
      [
        "▁ተው",
        -9.406280340074414
      ],
      [
        "▁ኬ",
        -9.406500543685477
      ],
      [
        "▁ሳል",
        -9.406631776767124
      ],
      [
        "▁ተጠ",
        -9.406842208119635
      ],
      [
        "️",
        -9.408454410690103
      ],
      [
        "▁ጓደኞ",
        -9.409338008558105
      ],
      [
        "▁ሚኒስትሩ",
        -9.409338012922337
      ],
      [
        "▁እውነታ",
        -9.409339804916295
      ],
      [
        "▁ይችላሉ",
        -9.409342839023996
      ],
      [
        "▁ዓላማ",
        -9.409343181765442
      ],
      [
        "▁the",
        -9.40936275544264
      ],
      [
        "ማስረጃ",
        -9.409370138711553
      ],
      [
        "▁ብቸኛ",
        -9.409389951873687
      ],
      [
        "▁ትርፍ",
        -9.40940261848885
      ],
      [
        "ተፈጥሮ",
        -9.409402965066816
      ],
      [
        "▁የተለየ",
        -9.409403938233421
      ],
      [
        "▁ሪፖርት",
        -9.409417206016709
      ],
      [
        "▁በየቀኑ",
        -9.40943479217901
      ],
      [
        "▁ሐሳብ",
        -9.409435690353524
      ],
      [
        "▁ተከታዮች",
        -9.40944454299979
      ],
      [
        "▁አዳራሽ",
        -9.40951695645666
      ],
      [
        "▁ለዲሞክራሲ",
        -9.409644537493492
      ],
      [
        "ደመቀ",
        -9.409687565916311
      ],
      [
        "▁ባህል",
        -9.409764979696714
      ],
      [
        "▁ምግብ",
        -9.410028062972128
      ],
      [
        "▁እነሆ",
        -9.410108442924876
      ],
      [
        "ጠይቅ",
        -9.410474471950183
      ],
      [
        "▁ወንድ",
        -9.410510584129305
      ],
      [
        "▁እንዳይሆን",
        -9.410573439736003
      ],
      [
        "▁ካንተ",
        -9.410580848501212
      ],
      [
        "ከተል",
        -9.41096629303377
      ],
      [
        "▁የሚሆነው",
        -9.411668494961736
      ],
      [
        "ሸት",
        -9.412194596580667
      ],
      [
        "▁በመጨረሻ",
        -9.41375914123062
      ],
      [
        "▁መሳሪያ",
        -9.413932938503738
      ],
      [
        "b",
        -9.414733299984038
      ],
      [
        "ባሉ",
        -9.41508133442632
      ],
      [
        "▁ቁጥ",
        -9.415190993616012
      ],
      [
        "ሃገር",
        -9.415261653387088
      ],
      [
        "ዳማ",
        -9.416444042932822
      ],
      [
        "▁ማግኘት",
        -9.416578272533833
      ],
      [
        "▁አዋጅ",
        -9.416591022570454
      ],
      [
        "▁ሥጋ",
        -9.416923414778948
      ],
      [
        "▁ኣለ",
        -9.417639175730695
      ],
      [
        "▁መፍትሄ",
        -9.419385250740046
      ],
      [
        "▁ቀበሌ",
        -9.419400288546866
      ],
      [
        "▁የሚመጣ",
        -9.420064838429157
      ],
      [
        "▁አደረገ",
        -9.420442329602517
      ],
      [
        "▁«የ",
        -9.420603923174095
      ],
      [
        "ሳቸው",
        -9.420670879727869
      ],
      [
        "▁የማት",
        -9.420698803797672
      ],
      [
        "▁አለቃ",
        -9.420897996577184
      ],
      [
        "▁~",
        -9.421725665440318
      ],
      [
        "▁ክርስቲያን",
        -9.422390805959898
      ],
      [
        "▁የጊዜ",
        -9.422538656501139
      ],
      [
        "ገደል",
        -9.422784844485856
      ],
      [
        "▁ኃይል",
        -9.422939509188334
      ],
      [
        "▁ይዘው",
        -9.423207735447297
      ],
      [
        "▁ሕግ",
        -9.423233695738253
      ],
      [
        "ic",
        -9.42397030415926
      ],
      [
        "▁የግል",
        -9.4244298838124
      ],
      [
        "መሥ",
        -9.4246811170547
      ],
      [
        "▁ስጋት",
        -9.425199676122421
      ],
      [
        "▁ቲቪ",
        -9.425304881453927
      ],
      [
        "ቀት",
        -9.42684228505717
      ],
      [
        "▁አፈ",
        -9.427203268974944
      ],
      [
        "▁;",
        -9.427812112537264
      ],
      [
        "ገብ",
        -9.428057107960079
      ],
      [
        "▁ሎ",
        -9.42960802092464
      ],
      [
        "▁T",
        -9.43048646946675
      ],
      [
        "▁P",
        -9.430730778387534
      ],
      [
        "ዲያ",
        -9.430861887997748
      ],
      [
        "us",
        -9.431382910248196
      ],
      [
        "▁ሙስሊሙ",
        -9.431611299913252
      ],
      [
        "▁F",
        -9.43217582910579
      ],
      [
        "▁ጦር",
        -9.432298490192967
      ],
      [
        "አማራ",
        -9.432849312375778
      ],
      [
        "▁እንባ",
        -9.43321400760916
      ],
      [
        "ክልሉ",
        -9.43545043198796
      ],
      [
        "ካሪ",
        -9.437643092139153
      ],
      [
        "ነሰ",
        -9.437723158026698
      ],
      [
        "▁30",
        -9.438955051921287
      ],
      [
        "ኝ።",
        -9.440939148139472
      ],
      [
        "አብይ",
        -9.441225096879943
      ],
      [
        "f",
        -9.442207054305806
      ],
      [
        "▁ሼ",
        -9.442643832209178
      ],
      [
        "▁ታድ",
        -9.444053887604397
      ],
      [
        "ሁኑ",
        -9.444338428377145
      ],
      [
        "▁አለቀ",
        -9.44531075520063
      ],
      [
        "▁የኢ",
        -9.447008848631535
      ],
      [
        "መስጠት",
        -9.449077113077474
      ],
      [
        "ወዳጅ",
        -9.449390491944134
      ],
      [
        "▁መች",
        -9.451871729057345
      ],
      [
        "▁ኦሮሚያ",
        -9.452108626521655
      ],
      [
        "ደይ",
        -9.452399690213571
      ],
      [
        "ce",
        -9.452956242018006
      ],
      [
        "እንደ",
        -9.453929593160499
      ],
      [
        "▁መረ",
        -9.455453293544585
      ],
      [
        "▁የኣ",
        -9.455555141085227
      ],
      [
        "▁አቦ",
        -9.456009387109766
      ],
      [
        "ጣችሁ",
        -9.45741114469379
      ],
      [
        "ተራ",
        -9.457735653672394
      ],
      [
        "ፊያ",
        -9.457782566060725
      ],
      [
        "ገላ",
        -9.457922456824928
      ],
      [
        "ናገሩ",
        -9.458378337155388
      ],
      [
        "▁ስሙ",
        -9.4594482556437
      ],
      [
        "ረድ",
        -9.461345726975024
      ],
      [
        "ብሽ",
        -9.461375555693351
      ],
      [
        "ረበ",
        -9.462038701817395
      ],
      [
        "▁ማታ",
        -9.46205853924922
      ],
      [
        "ፉን",
        -9.46338455221099
      ],
      [
        "ብሔር",
        -9.463447886140557
      ],
      [
        "▁ብን",
        -9.463904637135785
      ],
      [
        "▁መንግስ",
        -9.464004971357538
      ],
      [
        "ጠሩ",
        -9.46741218256172
      ],
      [
        "ፈለገ",
        -9.46792241392034
      ],
      [
        "▁ያሰ",
        -9.46935719821543
      ],
      [
        "▁ሚና",
        -9.469360328413398
      ],
      [
        "▁መጠ",
        -9.469470564831752
      ],
      [
        "ነቅ",
        -9.470085370990386
      ],
      [
        "ጨር",
        -9.47081629869685
      ],
      [
        "▁ምኞ",
        -9.47192723806971
      ],
      [
        "ገኙበት",
        -9.472460115821953
      ],
      [
        "ባሪ",
        -9.472685492850331
      ],
      [
        "ረዱ",
        -9.473139738236291
      ],
      [
        "ድግ",
        -9.473776661904346
      ],
      [
        "ገኘው",
        -9.474466591066111
      ],
      [
        "ከበረ",
        -9.474746168417433
      ],
      [
        "000",
        -9.476576897000877
      ],
      [
        "▁ጸ",
        -9.47672170924423
      ],
      [
        "ማሩ",
        -9.477367470557402
      ],
      [
        "▁ምር",
        -9.477581113253365
      ],
      [
        "ክሮ",
        -9.478086707135748
      ],
      [
        "ሸጥ",
        -9.478781368730772
      ],
      [
        "ወሎ",
        -9.479366511430932
      ],
      [
        "ረገ",
        -9.47984969621191
      ],
      [
        "ግሬ",
        -9.483160625845588
      ],
      [
        "▁ደጋፊ",
        -9.483843652833011
      ],
      [
        "▁እዚ",
        -9.484458664142432
      ],
      [
        "ኹ",
        -9.48482465929823
      ],
      [
        "ፈርስ",
        -9.485024170818583
      ],
      [
        "▁ወገኖ",
        -9.486152857664031
      ],
      [
        "]",
        -9.486261076989289
      ],
      [
        "ኻ",
        -9.486261076989289
      ],
      [
        "ቐ",
        -9.486261076989289
      ],
      [
        "▁የኤርትራ",
        -9.486261083247124
      ],
      [
        "▁እወዳለሁ",
        -9.486261193920505
      ],
      [
        "▁አይደለሁም",
        -9.486262989208665
      ],
      [
        "▁ትብብር",
        -9.486269037546121
      ],
      [
        "▁ሆቴል",
        -9.48628316815618
      ],
      [
        "▁ገበሬ",
        -9.486293866162178
      ],
      [
        "ፈለጉ",
        -9.48638127722448
      ],
      [
        "▁ያደርጋል",
        -9.486478326503475
      ],
      [
        "▁ሀይሎች",
        -9.486486571800459
      ],
      [
        "▁ዕድል",
        -9.486518965722333
      ],
      [
        "▁መሠረ",
        -9.486664097852513
      ],
      [
        "▁የወደፊ",
        -9.48676419277596
      ],
      [
        "ፈጠር",
        -9.486812330283051
      ],
      [
        "▁24",
        -9.486922541923217
      ],
      [
        "▁መስመር",
        -9.487004632560689
      ],
      [
        "▁መቁረጥ",
        -9.487045473862697
      ],
      [
        "▁ደደብ",
        -9.487083920723709
      ],
      [
        "ፊርማ",
        -9.487120661181716
      ],
      [
        "ቃወም",
        -9.487123919191635
      ],
      [
        "▁ምድረ",
        -9.487298870594882
      ],
      [
        "▁አሕመድ",
        -9.487373114600208
      ],
      [
        "▁መድረክ",
        -9.487386493506653
      ],
      [
        "▁በሽታ",
        -9.487647023747911
      ],
      [
        "ነዚህ",
        -9.487850959508295
      ],
      [
        "▁[",
        -9.487989107582829
      ],
      [
        "ጣን",
        -9.48801554478386
      ],
      [
        "ጀርባ",
        -9.488107248868191
      ],
      [
        "▁አስመሳ",
        -9.488306145143207
      ],
      [
        "ቢሊዮን",
        -9.488395160290416
      ],
      [
        "▁አደባባ",
        -9.488401405560458
      ],
      [
        "▁ችግሮች",
        -9.488464220491645
      ],
      [
        "▁ይመጣል",
        -9.488602156312835
      ],
      [
        "▁የሚያደርግ",
        -9.488776272332357
      ],
      [
        "▁2.",
        -9.489313026176681
      ],
      [
        "ህዳሴ",
        -9.489328093756741
      ],
      [
        "▁ውሻ",
        -9.489581301220117
      ],
      [
        "▁ሴራ",
        -9.489702631277515
      ],
      [
        "1ኛ",
        -9.490021971619791
      ],
      [
        "▁መልእክት",
        -9.490240824973796
      ],
      [
        "ነዉ",
        -9.490335065624453
      ],
      [
        "ጆች",
        -9.490685393247993
      ],
      [
        "ያን",
        -9.490900241829781
      ],
      [
        "▁ኃጢአት",
        -9.491173084916651
      ],
      [
        "▁የበላይ",
        -9.491270911172167
      ],
      [
        "▁መኪና",
        -9.491308351058048
      ],
      [
        "▁እቺ",
        -9.491359438292292
      ],
      [
        "▁ሥር",
        -9.492426304622331
      ],
      [
        "▁በርታ",
        -9.492472131307858
      ],
      [
        "▁ከንቱ",
        -9.492534803666212
      ],
      [
        "▁50",
        -9.492695795755562
      ],
      [
        "▁የሚገር",
        -9.492841321041672
      ],
      [
        "ረፍ",
        -9.492858169418316
      ],
      [
        "▁ቤተሰብ",
        -9.493528096559562
      ],
      [
        "▁ሰብ",
        -9.493613014118353
      ],
      [
        "▁አባቶች",
        -9.493694333747037
      ],
      [
        "▁መከራ",
        -9.493904036379913
      ],
      [
        "▁አውሮፕላ",
        -9.49405857541683
      ],
      [
        "▁ለህዝብ",
        -9.494181987373363
      ],
      [
        "የር",
        -9.495045293539384
      ],
      [
        "▁ተራራ",
        -9.496036238569923
      ],
      [
        "ጠቀም",
        -9.496193423776234
      ],
      [
        "▁የኢትዮጵያን",
        -9.49723663084325
      ],
      [
        "▁ለሀገር",
        -9.497275216907724
      ],
      [
        "▁መስጊድ",
        -9.497344148216321
      ],
      [
        "▁መቅረ",
        -9.49754352171278
      ],
      [
        "▁ናይ",
        -9.497700307734547
      ],
      [
        "▁ለመሆን",
        -9.498466019822272
      ],
      [
        "ማኝ",
        -9.498985105597132
      ],
      [
        "▁በማለት",
        -9.499281662189647
      ],
      [
        "▁ያጣ",
        -9.499961411759607
      ],
      [
        "ገዝ",
        -9.499965894063317
      ],
      [
        "ለጥ",
        -9.500244337491658
      ],
      [
        "▁መግቢያ",
        -9.500709378685718
      ],
      [
        "▁የሀገራችን",
        -9.5016929424296
      ],
      [
        "▁በታች",
        -9.502108065531377
      ],
      [
        "ጋሚ",
        -9.502805756338294
      ],
      [
        "w",
        -9.503083241074705
      ],
      [
        "▁አልበ",
        -9.503132465822265
      ],
      [
        "▁በረከት",
        -9.50342506246803
      ],
      [
        "▁የብልፅግና",
        -9.50498222868219
      ],
      [
        "▁ያለዉ",
        -9.505161762157657
      ],
      [
        "▁14",
        -9.505638683952801
      ],
      [
        "ኖረው",
        -9.506072105421298
      ],
      [
        "ሞላ",
        -9.506419481218781
      ],
      [
        "▁ተግባር",
        -9.506822464077759
      ],
      [
        "▁=",
        -9.5076653444398
      ],
      [
        "▁መደመር",
        -9.509467485004244
      ],
      [
        "▁ዞር",
        -9.509952022610412
      ],
      [
        "▁ስልክ",
        -9.510091399714266
      ],
      [
        "አገር",
        -9.51108580019303
      ],
      [
        "▁መናገር",
        -9.511118696725498
      ],
      [
        "▁በሰ",
        -9.511248784423294
      ],
      [
        "ላዊ",
        -9.51126637523351
      ],
      [
        "▁ሆና",
        -9.513251719776292
      ],
      [
        "▁የሚፈ",
        -9.513385014838931
      ],
      [
        "ሂ",
        -9.514096529555934
      ],
      [
        "ለማወቅ",
        -9.514220998876189
      ],
      [
        "ዝን",
        -9.515892743136225
      ],
      [
        "▁ይል",
        -9.515904961938093
      ],
      [
        "ልቅ",
        -9.516891677895284
      ],
      [
        "▁የኢኮኖሚ",
        -9.521684547066263
      ],
      [
        "▁የወ",
        -9.521709114802238
      ],
      [
        "▁ይጠ",
        -9.52176402694683
      ],
      [
        "▁አልባ",
        -9.522696182235752
      ],
      [
        "▁b",
        -9.522908258068838
      ],
      [
        "ha",
        -9.52303039940945
      ],
      [
        "ሀገራችን",
        -9.523166615646268
      ],
      [
        "ቋል",
        -9.523511655955796
      ],
      [
        "ስለ",
        -9.524334375885072
      ],
      [
        "ታማ",
        -9.524594419431862
      ],
      [
        "ጥቅ",
        -9.525051955423594
      ],
      [
        "▁ላሉ",
        -9.525165190910403
      ],
      [
        "?????♂️",
        -9.525218719500952
      ],
      [
        "▁ኡ",
        -9.525925897794249
      ],
      [
        "▁ህዝቡን",
        -9.526075988192432
      ],
      [
        "ሞቱ",
        -9.526648180314574
      ],
      [
        "▁አጥን",
        -9.52723203453419
      ],
      [
        "▁ስላ",
        -9.52791122172771
      ],
      [
        "▁ፈረ",
        -9.528931349810644
      ],
      [
        "ዑ",
        -9.53010600749646
      ],
      [
        "ዘገ",
        -9.530573799627433
      ],
      [
        "L",
        -9.530845097837709
      ],
      [
        "▁ይሄው",
        -9.531448781083295
      ],
      [
        "ሼ",
        -9.531866789265479
      ],
      [
        "▁ባላ",
        -9.53189496827022
      ],
      [
        "አዲሱ",
        -9.532318195883771
      ],
      [
        "ዛሬው",
        -9.532477363859792
      ],
      [
        "▁መዝ",
        -9.53255376717735
      ],
      [
        "ኢትዮጲያ",
        -9.533094801600633
      ],
      [
        "▁የሚሉ",
        -9.533552776246704
      ],
      [
        "▁ሠው",
        -9.534789247255098
      ],
      [
        "ዓመት",
        -9.53494433476484
      ],
      [
        "ክራ",
        -9.536365786782063
      ],
      [
        "ቀን",
        -9.536804218957716
      ],
      [
        "▁መግ",
        -9.537181032610384
      ],
      [
        "ሙሉ",
        -9.537676862037198
      ],
      [
        "▁ስላለ",
        -9.538316857290278
      ],
      [
        "▁እንዳል",
        -9.539046436499532
      ],
      [
        "▁ቅን",
        -9.53916939639447
      ],
      [
        "▁የሚመ",
        -9.539486922365864
      ],
      [
        "▁መደ",
        -9.540581023109032
      ],
      [
        "መሰረት",
        -9.54064285712298
      ],
      [
        "▁ጣ",
        -9.5411073964766
      ],
      [
        "ናችን",
        -9.542717595589458
      ],
      [
        "ታሪክ",
        -9.54285096921961
      ],
      [
        "ፍርድ",
        -9.54296969581119
      ],
      [
        "ረብ",
        -9.543454274011202
      ],
      [
        "ቸዋል።",
        -9.54620913839178
      ],
      [
        "ምነው",
        -9.546675494195028
      ],
      [
        "▁ወቅ",
        -9.547893248298823
      ],
      [
        "ርድ",
        -9.55000821730313
      ],
      [
        "ዋይ",
        -9.550455397502157
      ],
      [
        "▁ያነ",
        -9.550822648406493
      ],
      [
        "ለምን",
        -9.551978235122679
      ],
      [
        "▁አመሰግናለሁ",
        -9.553033535534365
      ],
      [
        "▁ለዛ",
        -9.553577677334742
      ],
      [
        "ሜን",
        -9.554655715147844
      ],
      [
        "ዶች",
        -9.555651392224636
      ],
      [
        "▁ብሏል",
        -9.557372246051713
      ],
      [
        "▁9",
        -9.557669688968243
      ],
      [
        "▁ድርጊ",
        -9.55863220820845
      ],
      [
        "ግል",
        -9.560244572628932
      ],
      [
        "▁h",
        -9.561791146670153
      ],
      [
        "▁ናችሁ",
        -9.562457367984049
      ],
      [
        "▁የራስ",
        -9.562780762252057
      ],
      [
        "▁ድር",
        -9.563968443959954
      ],
      [
        "▁ጅ",
        -9.564179628372706
      ],
      [
        "ቂያ",
        -9.564983014657056
      ],
      [
        "▁አጀንዳ",
        -9.565710893637782
      ],
      [
        "▁አሸናፊ",
        -9.56761747063336
      ],
      [
        "ማራ",
        -9.56822787829918
      ],
      [
        "▁ጓደኛ",
        -9.568405926198864
      ],
      [
        "ዌ",
        -9.569348452704324
      ],
      [
        "†",
        -9.569521442733926
      ],
      [
        "ፔ",
        -9.569562984525646
      ],
      [
        "x",
        -9.569594406053248
      ],
      [
        "’",
        -9.569594410322724
      ],
      [
        "<",
        -9.569594410322726
      ],
      [
        "▁ፖለቲከኛ",
        -9.569594410323273
      ],
      [
        "▁እናመሰግናለን",
        -9.569594410356627
      ],
      [
        "ኦርቶዶክ",
        -9.569594417583613
      ],
      [
        "▁ግለሰቦች",
        -9.56959460465646
      ],
      [
        "▁የመከላከያ",
        -9.569594640765255
      ],
      [
        "▁New",
        -9.569596012849633
      ],
      [
        "▁መከላከያ",
        -9.569596120228859
      ],
      [
        "▁እንኩዋን",
        -9.569596785168647
      ],
      [
        "▁ፕሮጀክቶች",
        -9.56959821241345
      ],
      [
        "▁ነበሩ",
        -9.56960802092084
      ],
      [
        "▁እድገት",
        -9.569609294268977
      ],
      [
        "▁ዝርዝ",
        -9.569612282093244
      ],
      [
        "▁አይደሉም",
        -9.56961521038167
      ],
      [
        "▁የልደት",
        -9.569619413441195
      ],
      [
        "††",
        -9.569630896112574
      ],
      [
        "▁የባህል",
        -9.569632829893793
      ],
      [
        "▁ማውራት",
        -9.569639318934879
      ],
      [
        "▁አመራሮች",
        -9.56965781565801
      ],
      [
        "ወላይታ",
        -9.569665911967599
      ],
      [
        "▁for",
        -9.569677359594337
      ],
      [
        "▁ብዛት",
        -9.56968353711744
      ],
      [
        "▁ቋሚ",
        -9.569691452739702
      ],
      [
        "ፈለግ",
        -9.56975492365634
      ],
      [
        "▁መቀጠል",
        -9.56978479332295
      ],
      [
        "ፌዴራል",
        -9.569864552664601
      ],
      [
        "▁የቀረ",
        -9.56989350936806
      ],
      [
        "▁ጣቢያ",
        -9.569962551884005
      ],
      [
        "▁ሰማይ",
        -9.57000879865435
      ],
      [
        "▁ሌባ",
        -9.570056856594194
      ],
      [
        "▁አጋጣሚ",
        -9.570357435085597
      ],
      [
        "ጨመር",
        -9.570825113034818
      ],
      [
        "▁የተባለ",
        -9.570835602976627
      ],
      [
        "መጪው",
        -9.570870387772366
      ],
      [
        "▁ባይሆን",
        -9.571004988073872
      ],
      [
        "▁ጸጋ",
        -9.571020346401024
      ],
      [
        "ህሊና",
        -9.571031071761585
      ],
      [
        "▁ፍቃድ",
        -9.571073336267133
      ],
      [
        "▁ለማግኘት",
        -9.571262874648392
      ],
      [
        "▁ዕለት",
        -9.57131152946964
      ],
      [
        "▁ገብቶ",
        -9.571473862364655
      ],
      [
        "ተኛው",
        -9.571502293808395
      ],
      [
        "ጉራጌ",
        -9.571875428341809
      ],
      [
        "▁ክብረ",
        -9.57247605901184
      ],
      [
        "ው?",
        -9.57254652058013
      ],
      [
        "▁ማነው?",
        -9.572611814221737
      ],
      [
        "መንበር",
        -9.572904597835032
      ],
      [
        "▁ቃለ",
        -9.57292687654782
      ],
      [
        "ሁለት",
        -9.573082420475455
      ],
      [
        "▁ዶላ",
        -9.573174637551297
      ],
      [
        "ኖሪያ",
        -9.573733098604892
      ],
      [
        "ጠባ",
        -9.573865345582117
      ],
      [
        "▁ሃይል",
        -9.574207791098768
      ],
      [
        "▁አለባቸው",
        -9.574268413406454
      ],
      [
        "ሆነው",
        -9.574318377903197
      ],
      [
        "▁ቢኖር",
        -9.574342878144034
      ],
      [
        "▁H",
        -9.574733394443609
      ],
      [
        "▁ሥርዓት",
        -9.574741603863616
      ],
      [
        "በነ",
        -9.575484236759575
      ],
      [
        "ሊት",
        -9.576564724190748
      ],
      [
        "▁ተባለ",
        -9.576587603580666
      ],
      [
        "ኸው",
        -9.576678524529102
      ],
      [
        "መንደር",
        -9.577155892963619
      ],
      [
        "▁ሕይወት",
        -9.577208770623324
      ],
      [
        "ቡን",
        -9.577429722248436
      ],
      [
        "ed",
        -9.57761660189782
      ],
      [
        "▁ማህበረሰብ",
        -9.578083051993648
      ],
      [
        "▁ክልሎች",
        -9.578191285947845
      ],
      [
        "▁ምሳሌ",
        -9.578271237294814
      ],
      [
        "▁16",
        -9.578334681583502
      ],
      [
        "he",
        -9.578503979318185
      ],
      [
        "▁ሲመጣ",
        -9.579139729771121
      ],
      [
        "▁በጀት",
        -9.579311957866704
      ],
      [
        "▁በዚያ",
        -9.579376631979112
      ],
      [
        "▁ይበ",
        -9.579591867822323
      ],
      [
        "▁ግድያ",
        -9.579649266026298
      ],
      [
        "▁ዶር",
        -9.579748724136165
      ],
      [
        "▁የሚያደርገው",
        -9.580209785141607
      ],
      [
        "ጮች",
        -9.58030248774524
      ],
      [
        "▁ኢራን",
        -9.580901073587846
      ],
      [
        "ባችሁ",
        -9.580993627442746
      ],
      [
        "▁ቢሆንም",
        -9.581053179696285
      ],
      [
        "▁የሚሆን",
        -9.581535432407348
      ],
      [
        "ምርጫ",
        -9.581926875408417
      ],
      [
        "▁የሚችል",
        -9.582411187503059
      ],
      [
        "ቀበ",
        -9.583287534300847
      ],
      [
        "ረር",
        -9.583852796757215
      ],
      [
        "ጥል",
        -9.583937611733717
      ],
      [
        "13",
        -9.584151582617174
      ],
      [
        "▁የተቀ",
        -9.584792805947462
      ],
      [
        "▁አክሱም",
        -9.584887645490987
      ],
      [
        "▁አስቸ",
        -9.585291343152303
      ],
      [
        "ሯል",
        -9.585423428441807
      ],
      [
        "ወቁ",
        -9.585721118940581
      ],
      [
        "▁ስብ",
        -9.585840162092838
      ],
      [
        "▁መሸ",
        -9.586863782551854
      ],
      [
        "▁አለው።",
        -9.58779159209125
      ],
      [
        "▁ግጭት",
        -9.588330396916291
      ],
      [
        "ተረፈ",
        -9.589577961244638
      ],
      [
        "▁አክራሪ",
        -9.590902672852096
      ],
      [
        "▁ወንድም",
        -9.59127088617247
      ],
      [
        "▁ዛ",
        -9.591340363829666
      ],
      [
        "▁ግብፅ",
        -9.592073980298622
      ],
      [
        "▁በሆነ",
        -9.592136674131046
      ],
      [
        "▁መብራ",
        -9.59234331082118
      ],
      [
        "▁ሸገር",
        -9.592491336814568
      ],
      [
        "▁በሀገር",
        -9.593023275717504
      ],
      [
        "▁ድሃ",
        -9.593868290502988
      ],
      [
        "ቆይ",
        -9.59395049301196
      ],
      [
        "ተደጋ",
        -9.594741990420111
      ],
      [
        "ወጣው",
        -9.595738417952283
      ],
      [
        "▁ቴዲ",
        -9.59589631920183
      ],
      [
        "▁እንደሚያ",
        -9.596162433330813
      ],
      [
        "▁ህዝ",
        -9.596196584849983
      ],
      [
        "▁ተጠቃሚ",
        -9.596705964070521
      ],
      [
        "▁ዴሞክራሲ",
        -9.597088494791228
      ],
      [
        "ጊዜ",
        -9.597494155744634
      ],
      [
        "ሥራ",
        -9.597670783742787
      ],
      [
        "ቆር",
        -9.597795470153304
      ],
      [
        "▁ኢትዮጵያዊነት",
        -9.597877956102746
      ],
      [
        "▁ነዋሪ",
        -9.59924266902423
      ],
      [
        "▁ምርጫው",
        -9.601533490150045
      ],
      [
        "ታቹ",
        -9.602028119719318
      ],
      [
        "ብስ",
        -9.603708886691749
      ],
      [
        "▁የባ",
        -9.604513836730568
      ],
      [
        "መስል",
        -9.604715155016008
      ],
      [
        "አል",
        -9.605104624310655
      ],
      [
        "▁ኪ",
        -9.607034035122581
      ],
      [
        "ብልጽግና",
        -9.60712379039612
      ],
      [
        "▁እኩልነት",
        -9.607948394736795
      ],
      [
        "ደኛ",
        -9.608561235555523
      ],
      [
        "መንገድ",
        -9.609133092179029
      ],
      [
        "▁አልተ",
        -9.609240511318461
      ],
      [
        "▁ቀር",
        -9.60978249729956
      ],
      [
        "ጨት",
        -9.610248314368224
      ],
      [
        "▁እንደምን",
        -9.610482353634684
      ],
      [
        "▁ከሰው",
        -9.611718950832548
      ],
      [
        "▁ሳት",
        -9.613150294046061
      ],
      [
        "ም?",
        -9.614198768000874
      ],
      [
        "ዛችሁ",
        -9.614672041713694
      ],
      [
        "▁ሥ",
        -9.614921721572
      ],
      [
        "ቴን",
        -9.615304983871383
      ],
      [
        "ከል",
        -9.615313509160622
      ],
      [
        "▁የአንድ",
        -9.615714513481407
      ],
      [
        "▁ያድ",
        -9.617993673360806
      ],
      [
        "▁ንገ",
        -9.618262438213147
      ],
      [
        "▁በማስ",
        -9.619030808287285
      ],
      [
        "▁ነፍ",
        -9.62015630340761
      ],
      [
        "ለሁ።",
        -9.620224036585157
      ],
      [
        "▁ማይ",
        -9.62083482308043
      ],
      [
        "ለየት",
        -9.622040058956301
      ],
      [
        "ታክሲ",
        -9.622451363549619
      ],
      [
        "▁ኖ",
        -9.622670642996786
      ],
      [
        "E",
        -9.622748162977262
      ],
      [
        "▁መያዝ",
        -9.623263978407449
      ],
      [
        "ደረግ",
        -9.62329814101985
      ],
      [
        "▁ወይ?",
        -9.623960522731373
      ],
      [
        "▁እንደምት",
        -9.624194405325877
      ],
      [
        "ራስህ",
        -9.624325769379974
      ],
      [
        "▁ፍት",
        -9.624670214139575
      ],
      [
        "▁ሀላፊ",
        -9.624933506141213
      ],
      [
        "▁በደረሰ",
        -9.625159392387332
      ],
      [
        "ሁሉም",
        -9.625179495965028
      ],
      [
        "▁ማረ",
        -9.625403614092743
      ],
      [
        "ጠገ",
        -9.627408113256053
      ],
      [
        "▁አለን",
        -9.627656873745806
      ],
      [
        "ተጋ",
        -9.627749050600766
      ],
      [
        "ጣሪ",
        -9.628135454363099
      ],
      [
        "▁ለሌላ",
        -9.630424812167613
      ],
      [
        "ቆመ",
        -9.632362114614544
      ],
      [
        "▁አላየ",
        -9.634049416728292
      ],
      [
        "እኮ",
        -9.635106896436612
      ],
      [
        "ዩት",
        -9.635304544329824
      ],
      [
        "እኩልነት",
        -9.636156174738266
      ],
      [
        "▁የታ",
        -9.636458278522099
      ],
      [
        "▁የቆ",
        -9.637312368554754
      ],
      [
        "▁እንድት",
        -9.637578150635562
      ],
      [
        "▁ስማ",
        -9.637642020693036
      ],
      [
        "▁ውሰ",
        -9.638684399245351
      ],
      [
        "ባዶ",
        -9.641801153854574
      ],
      [
        "▁ስለሚ",
        -9.642887082864618
      ],
      [
        "መጣል",
        -9.643077465176763
      ],
      [
        "▁ከወ",
        -9.646130678744317
      ],
      [
        "▁ስርዓ",
        -9.647625448751135
      ],
      [
        "እለት",
        -9.648297646270404
      ],
      [
        "▁የሚታ",
        -9.648453236947647
      ],
      [
        "ካይ",
        -9.648634292782015
      ],
      [
        "▁ልም",
        -9.649412684701014
      ],
      [
        "ፋት",
        -9.650273500414322
      ],
      [
        "▁አለመ",
        -9.652899516549354
      ],
      [
        "▁መፈ",
        -9.65320009988363
      ],
      [
        "ብይ",
        -9.65342267390647
      ],
      [
        "ገሮች",
        -9.654240161711083
      ],
      [
        "ሳችሁ",
        -9.654758881283671
      ],
      [
        "▁ውነ",
        -9.65562490456433
      ],
      [
        "ምንም",
        -9.65644918832794
      ],
      [
        "▁ተለ",
        -9.656463367072211
      ],
      [
        "R",
        -9.656589623448143
      ],
      [
        "ካሄድ",
        -9.658445261359898
      ],
      [
        "▁ይወ",
        -9.659168235904813
      ],
      [
        "▁አግ",
        -9.659326789592795
      ],
      [
        "ተፈፀመ",
        -9.659919903792394
      ],
      [
        "ማኖት",
        -9.660210226770173
      ],
      [
        "▁የቤተ",
        -9.660297179847806
      ],
      [
        "▁ወረ",
        -9.660309436285171
      ],
      [
        "▁ኢትዮ",
        -9.660433658738027
      ],
      [
        "ጀመሩ",
        -9.660452304416761
      ],
      [
        "ጳ",
        -9.660503500546064
      ],
      [
        "ጬ",
        -9.660503501232085
      ],
      [
        "▁እንቅስቃሴ",
        -9.660503503106598
      ],
      [
        "▁ውሸታም",
        -9.660503660421377
      ],
      [
        "▁ተላላኪ",
        -9.66050474777405
      ],
      [
        "▁አውቃለሁ",
        -9.660505881031618
      ],
      [
        "▁ደቂቃ",
        -9.660506448824199
      ],
      [
        "▁d",
        -9.66051286366844
      ],
      [
        "ስተካከል",
        -9.66051486291311
      ],
      [
        "▁ይገርማል",
        -9.660516953752445
      ],
      [
        "---",
        -9.660517851339495
      ],
      [
        "▁አንበሳ",
        -9.660525690887553
      ],
      [
        "▁ጀዋር",
        -9.660525881486327
      ],
      [
        "▁ሚንስትር",
        -9.660534835402112
      ],
      [
        "▁ወዳጄ",
        -9.660570918622378
      ],
      [
        "▁ወዴት",
        -9.660589176970225
      ],
      [
        "ችኋል",
        -9.660627575532786
      ],
      [
        "▁አመራር",
        -9.660651560776559
      ],
      [
        "▁የመሰለ",
        -9.660709592421233
      ],
      [
        "▁ዘመቻ",
        -9.660734338655477
      ],
      [
        "ar",
        -9.6607394980717
      ],
      [
        "▁ብሄራ",
        -9.660955988147013
      ],
      [
        "▁ደርሶ",
        -9.661143519951796
      ],
      [
        "▁ወንድሜ",
        -9.661154168328729
      ],
      [
        "▁በለው",
        -9.661162750174208
      ],
      [
        "ለዚያ",
        -9.661163015665412
      ],
      [
        "▁ሄዶ",
        -9.661267887316095
      ],
      [
        "▁እያደረገ",
        -9.661334067799189
      ],
      [
        "ውሰድ",
        -9.661458006055332
      ],
      [
        "ዛዝ",
        -9.661679523252987
      ],
      [
        "▁የተማረ",
        -9.66191810626145
      ],
      [
        "▁የተሞላ",
        -9.662009618229384
      ],
      [
        "ፋር",
        -9.662038154541982
      ],
      [
        "▁ያልከው",
        -9.66210233753908
      ],
      [
        "▁ጥቂ",
        -9.66211498393361
      ],
      [
        "▁ለምሳሌ",
        -9.662284648745864
      ],
      [
        "ዘመ",
        -9.66275729039636
      ],
      [
        "▁ግቢ",
        -9.662833182156144
      ],
      [
        "▁በኢ",
        -9.663387928300098
      ],
      [
        "ተኝነት",
        -9.66366320462045
      ],
      [
        "ቤተሰቦቻቸው",
        -9.664311270410023
      ],
      [
        "▁አለብን",
        -9.66441234108801
      ],
      [
        "ድርድር",
        -9.664673193729914
      ],
      [
        "▁የፍቅር",
        -9.66471565360947
      ],
      [
        "▁ወንድሞ",
        -9.66481097416337
      ],
      [
        "▁ሚዛ",
        -9.664901366075387
      ],
      [
        "▁ሄደ",
        -9.665254838620516
      ],
      [
        "ታየው",
        -9.666014053306448
      ],
      [
        "▁ይሰማ",
        -9.666046266729891
      ],
      [
        "▁ከንቲባ",
        -9.666189044072008
      ],
      [
        "ግና",
        -9.666371322175102
      ],
      [
        "▁ትኩ",
        -9.666634526620228
      ],
      [
        "▁እምቢ",
        -9.66704581206007
      ],
      [
        "ማሪ",
        -9.667447130822904
      ],
      [
        "ጥሩ",
        -9.66788459741812
      ],
      [
        "▁መራራ",
        -9.667909255554454
      ],
      [
        "▁ጥላ",
        -9.668354690135727
      ],
      [
        "ዘው",
        -9.668431933596365
      ],
      [
        "ተዉ",
        -9.669108008335796
      ],
      [
        "▁ትዝ",
        -9.669170663603682
      ],
      [
        "▁በተግባር",
        -9.669426270766078
      ],
      [
        "▁የተሰጠው",
        -9.669561815230836
      ],
      [
        "▁ፊል",
        -9.669734352143163
      ],
      [
        "▁ታምራት",
        -9.670051355480643
      ],
      [
        "▁በአሁኑ",
        -9.670216519428445
      ],
      [
        "▁ብለዋል",
        -9.67035542696049
      ],
      [
        "▁ግማ",
        -9.670556039706806
      ],
      [
        "▁በራሱ",
        -9.670986884412388
      ],
      [
        "ወል",
        -9.671485539506545
      ],
      [
        "▁ገነት",
        -9.671947944559026
      ],
      [
        "ቀላ",
        -9.672869077495326
      ],
      [
        "▁ባልደራስ",
        -9.673575390404189
      ],
      [
        "▁አዴፓ",
        -9.674314819253603
      ],
      [
        "ዳይ",
        -9.674396544807415
      ],
      [
        "ፈጠራ",
        -9.675098972868401
      ],
      [
        "▁ክን",
        -9.675476861372001
      ],
      [
        "የጤና",
        -9.67593730638484
      ],
      [
        "▁የምትለ",
        -9.676398321266204
      ],
      [
        "ነበረ",
        -9.676624724543172
      ],
      [
        "ፋሲ",
        -9.676795568422838
      ],
      [
        "ill",
        -9.676910172955841
      ],
      [
        "▁ህወሃት",
        -9.677097995179176
      ],
      [
        "▁እም",
        -9.677357914671234
      ],
      [
        "ደሬ",
        -9.677912741866303
      ],
      [
        "▁አፈር",
        -9.678719360094382
      ],
      [
        "▁ነጭ",
        -9.679437638967107
      ],
      [
        "ዝናና",
        -9.679969849654023
      ],
      [
        "▁መሃ",
        -9.680359360381036
      ],
      [
        "ጎዳ",
        -9.680875901131694
      ],
      [
        "ግባ",
        -9.680977644337482
      ],
      [
        "▁እሷ",
        -9.681148626682962
      ],
      [
        "▁መሀ",
        -9.681287841221172
      ],
      [
        "▁ተሸ",
        -9.681628764008178
      ],
      [
        "▁ደብረ",
        -9.68188992812597
      ],
      [
        "▁ዘንድሮ",
        -9.681974943394366
      ],
      [
        "▁መሃል",
        -9.682567639987695
      ],
      [
        "ብላ",
        -9.682877735656
      ],
      [
        "▁የዓለም",
        -9.682984923474361
      ],
      [
        "▁የከፋ",
        -9.68300029944275
      ],
      [
        "▁ኤር",
        -9.68336311560054
      ],
      [
        "▁ጌታቸው",
        -9.684085436498808
      ],
      [
        "ፕሬዝዳን",
        -9.684664277335147
      ],
      [
        "▁ዋናው",
        -9.686115333160483
      ],
      [
        "▁አስበ",
        -9.68677115035585
      ],
      [
        "ተቻለ",
        -9.687005072561718
      ],
      [
        "ታል።",
        -9.687411540140484
      ],
      [
        "▁በደቡ",
        -9.68821996622545
      ],
      [
        "▁የጠ",
        -9.688671099930588
      ],
      [
        "30",
        -9.689289400213905
      ],
      [
        "▁የዘር",
        -9.690784182504366
      ],
      [
        "ቀጥሎ",
        -9.69106282353473
      ],
      [
        "▁ወንዶ",
        -9.691171499305547
      ],
      [
        "ሳሳት",
        -9.691836903027305
      ],
      [
        "ራሱን",
        -9.692215875185392
      ],
      [
        "▁በእኛ",
        -9.692495581743085
      ],
      [
        "▁ሠላም",
        -9.692547273356485
      ],
      [
        "▁ሶስት",
        -9.693445582310154
      ],
      [
        "▁ኮር",
        -9.693598931198997
      ],
      [
        "ላቹ",
        -9.693933416906326
      ],
      [
        "አይ",
        -9.695071367331467
      ],
      [
        "▁ይች",
        -9.695124373767252
      ],
      [
        "▁ትተ",
        -9.695358150575428
      ],
      [
        "ጋል",
        -9.695409012443436
      ],
      [
        "el",
        -9.695748834356381
      ],
      [
        "ህ?",
        -9.695975825923444
      ],
      [
        "ወቅ",
        -9.69665275437066
      ],
      [
        "ተለያየ",
        -9.696844828945522
      ],
      [
        "ዛው",
        -9.698803639756328
      ],
      [
        "80",
        -9.69916586384441
      ],
      [
        "▁ታክሲ",
        -9.7001540324886
      ],
      [
        "ጡት",
        -9.702304902915843
      ],
      [
        "ሶች",
        -9.70234843350528
      ],
      [
        "▁መረዳ",
        -9.702585335065327
      ],
      [
        "ባረ",
        -9.703766631985934
      ],
      [
        "ወሰን",
        -9.704125322430567
      ],
      [
        "ሆንክ",
        -9.704255348034303
      ],
      [
        "▁ከሚያ",
        -9.704860419758049
      ],
      [
        "▁ቀል",
        -9.708730437134124
      ],
      [
        "▁ክልሉ",
        -9.709801657466892
      ],
      [
        "ከለ",
        -9.71143457231485
      ],
      [
        "ነቴ",
        -9.71160443456279
      ],
      [
        "ኋላ",
        -9.711800304203397
      ],
      [
        "▁በኣ",
        -9.712752624083228
      ],
      [
        "እውነት",
        -9.712966656238661
      ],
      [
        "ማለት",
        -9.715449600392619
      ],
      [
        "እርስ",
        -9.715764838877725
      ],
      [
        "▁ቀው",
        -9.716336161361149
      ],
      [
        "ፊት",
        -9.71637237765289
      ],
      [
        "▁አምስ",
        -9.716653944441271
      ],
      [
        "▁አሻ",
        -9.717470604740443
      ],
      [
        "ነያ",
        -9.72058054736332
      ],
      [
        "እስልምና",
        -9.722188130062218
      ],
      [
        "ጠጣ",
        -9.72253193647627
      ],
      [
        "ማረ",
        -9.722544457823137
      ],
      [
        "♥",
        -9.72314587328016
      ],
      [
        "▁ገብ",
        -9.723505701196569
      ],
      [
        "በዓል",
        -9.723879719166032
      ],
      [
        "▁ሦስ",
        -9.723936152995327
      ],
      [
        "ጠቅላይ",
        -9.724398333935646
      ],
      [
        "አማርኛ",
        -9.72456884217804
      ],
      [
        "ሀሳብ",
        -9.724638385291943
      ],
      [
        "▁ዘግ",
        -9.725320902156259
      ],
      [
        "▁ትዕግ",
        -9.725462169875009
      ],
      [
        "▁ቅድስ",
        -9.725777167194812
      ],
      [
        "▁ዝና",
        -9.725817156212115
      ],
      [
        "???♂️",
        -9.725905852439341
      ],
      [
        "▁ስና",
        -9.7268851372844
      ],
      [
        "ወርቅ",
        -9.726955873174148
      ],
      [
        "ባባ",
        -9.728742636959122
      ],
      [
        "▁ታም",
        -9.728927989765108
      ],
      [
        "ያልፍ",
        -9.728991024203085
      ],
      [
        "ለመናገር",
        -9.730547553825891
      ],
      [
        "ግልፅ",
        -9.731006181834953
      ],
      [
        "ነበርኩ",
        -9.73241822576119
      ],
      [
        "ቻቸውን",
        -9.732449811000379
      ],
      [
        "12",
        -9.733524339091211
      ],
      [
        "ገኘ",
        -9.733620697977926
      ],
      [
        "▁እንደዚ",
        -9.734482103053558
      ],
      [
        "ርግ",
        -9.734774637681792
      ],
      [
        "▁አደ",
        -9.735673712683841
      ],
      [
        "ገደለ",
        -9.736801598342375
      ],
      [
        "ra",
        -9.737120864927864
      ],
      [
        "ርካ",
        -9.737379297188662
      ],
      [
        "ፍነው",
        -9.73803936260423
      ],
      [
        "▁የምር",
        -9.739527975740497
      ],
      [
        "▁ቡድ",
        -9.739631847691033
      ],
      [
        "ችለው",
        -9.740833558051342
      ],
      [
        "▁የፊ",
        -9.741532047036031
      ],
      [
        "❤️",
        -9.742665702121776
      ],
      [
        "▁ደቡ",
        -9.743132267492639
      ],
      [
        "ዲዮ",
        -9.744915458437664
      ],
      [
        "ፍጹም",
        -9.74608848949865
      ],
      [
        "ተጨማሪ",
        -9.747441909927401
      ],
      [
        "▁በመሆኑ",
        -9.74826835110577
      ],
      [
        "▁ጨዋ",
        -9.748613732881179
      ],
      [
        "ደዱ",
        -9.748788159324581
      ],
      [
        "እሳት",
        -9.74895967082928
      ],
      [
        "▁100",
        -9.75028313211319
      ],
      [
        "▁ያለህ",
        -9.751019516148775
      ],
      [
        "ብሎ",
        -9.751419545983705
      ],
      [
        "ሰና",
        -9.75232415631369
      ],
      [
        "▁......",
        -9.753379273489523
      ],
      [
        "ፄ",
        -9.753947308864088
      ],
      [
        "መለከተ",
        -9.754205289248262
      ],
      [
        "ጋቾቹ",
        -9.75439085344216
      ],
      [
        "ፖሊ",
        -9.756383186316286
      ],
      [
        "ወሩ",
        -9.756583344204744
      ],
      [
        "▁ከምን",
        -9.757968489320325
      ],
      [
        "ገባህ",
        -9.75797166984173
      ],
      [
        "ጠቃሚ",
        -9.758232730346071
      ],
      [
        "ዣ",
        -9.758982738556057
      ],
      [
        "▁ባሉ",
        -9.759470383231273
      ],
      [
        "ተፈጠረ",
        -9.76005009058663
      ],
      [
        "ጠየቁ",
        -9.760138047245166
      ],
      [
        "ኜ",
        -9.760503501232858
      ],
      [
        "ሒ",
        -9.76050350123286
      ],
      [
        "▁ሢ",
        -9.760503592804085
      ],
      [
        "▁ለመጀመሪያ",
        -9.76050365151854
      ],
      [
        "▁የጸጥታ",
        -9.760503670455197
      ],
      [
        "▁ያሳዝናል",
        -9.760503829474626
      ],
      [
        "▁ህይወታቸ",
        -9.760503931620441
      ],
      [
        "▁ቃጠሎ",
        -9.760504062377795
      ],
      [
        "▁ታሪካዊ",
        -9.76050419322414
      ],
      [
        "▁የዜጎች",
        -9.760505383632193
      ],
      [
        "▁በትክክል",
        -9.76050588011464
      ],
      [
        "▁ወታደር",
        -9.760511288314367
      ],
      [
        "▁በቁጥጥ",
        -9.76051935596939
      ],
      [
        "▁ይባርክ",
        -9.76052126274382
      ],
      [
        "▁ጠባቂ",
        -9.760521859490137
      ],
      [
        "▁ሰራተኞች",
        -9.760531281713543
      ],
      [
        "▁አይመስለኝም",
        -9.760538166779739
      ],
      [
        "ቀጣዩ",
        -9.760566951942216
      ],
      [
        "▁ክብሩ",
        -9.760569674265323
      ],
      [
        "▁ጆሮ",
        -9.760619458853103
      ],
      [
        "▁ያደረጉት",
        -9.760621693589197
      ],
      [
        "▁አይቻልም",
        -9.76064710761631
      ],
      [
        "▁ተብዬ",
        -9.760688547857905
      ],
      [
        "▁ሀዋሳ",
        -9.760701245789699
      ],
      [
        "▁ህዝቦች",
        -9.760724300014347
      ],
      [
        "▁የሚመራው",
        -9.760769563621496
      ],
      [
        "▁የተመሰረተ",
        -9.760774692444965
      ],
      [
        "▁ጤነ",
        -9.76078443890684
      ],
      [
        "▁አደለም",
        -9.760950556886304
      ],
      [
        "▁አውሬ",
        -9.761042754228168
      ],
      [
        "▁አውቆ",
        -9.76105528835003
      ],
      [
        "▁የሚያደርጉት",
        -9.761100819154624
      ],
      [
        "▁የሚሰማቸው",
        -9.761343665299954
      ],
      [
        "▁ታዲያ",
        -9.761375291009294
      ],
      [
        "▁ድርሻ",
        -9.761389470437779
      ],
      [
        "▁ቀደም",
        -9.761453401583436
      ],
      [
        "መልክቶ",
        -9.761470086669352
      ],
      [
        "ታኅሣ",
        -9.761688742717185
      ],
      [
        "ፈታ",
        -9.761698973679731
      ],
      [
        "▁የለ",
        -9.762026830791756
      ],
      [
        "ጠይቁ",
        -9.762028366674613
      ],
      [
        "▁ሰወች",
        -9.762310545916863
      ],
      [
        "▁የተባሉ",
        -9.762321150128212
      ],
      [
        "▁ባለቤት",
        -9.762568452689864
      ],
      [
        "ራሳችን",
        -9.762741671278569
      ],
      [
        "▁ገብተዋል",
        -9.76290453968403
      ],
      [
        "▁ልጁ",
        -9.762960225857798
      ],
      [
        "▁ስፍራ",
        -9.762971209344624
      ],
      [
        "▁ዙር",
        -9.763015952227073
      ],
      [
        "ሻለሁ",
        -9.76312114123148
      ],
      [
        "▁በርታልን",
        -9.763165193253009
      ],
      [
        "▁ፀጋ",
        -9.763204623983421
      ],
      [
        "▁አለብህ",
        -9.763238158924137
      ],
      [
        "▁ይደረግ",
        -9.76349149949268
      ],
      [
        "▁ዛፍ",
        -9.763740691807136
      ],
      [
        "▁ይላሉ",
        -9.763899877418481
      ],
      [
        "▁ለሁላችን",
        -9.764080409395
      ],
      [
        "OM",
        -9.764276229882267
      ],
      [
        "▁ባልተ",
        -9.764619297144689
      ],
      [
        "▁ይበልጥ",
        -9.764748240877191
      ],
      [
        "ፕሪ",
        -9.764962775251352
      ],
      [
        "ምሰል",
        -9.764962991435617
      ],
      [
        "▁አብቹ",
        -9.765308245738161
      ],
      [
        "መምራት",
        -9.765617027763314
      ],
      [
        "ከበ",
        -9.765633962590387
      ],
      [
        "▁ቤተሰብዎ",
        -9.76582669920581
      ],
      [
        "▁24፣",
        -9.765977962164364
      ],
      [
        "▁እዚያ",
        -9.766035026828963
      ],
      [
        "ገሉ",
        -9.766083036410954
      ],
      [
        "መልከት",
        -9.766129911203922
      ],
      [
        "▁ለመከላከል",
        -9.766139331066746
      ],
      [
        "▁1.",
        -9.766230738837635
      ],
      [
        "▁ለመላው",
        -9.766742138010617
      ],
      [
        "▁ከአንድ",
        -9.766761831364313
      ],
      [
        "▁ግለሰቡ",
        -9.766785934490347
      ],
      [
        "▁•",
        -9.766787206151232
      ],
      [
        "▁የሚኖረው",
        -9.767107423198306
      ],
      [
        "ከበር",
        -9.767290163271532
      ],
      [
        "▁ጊ",
        -9.768351295295204
      ],
      [
        "▁ጥቁ",
        -9.768480202358017
      ],
      [
        "ወርድ",
        -9.768515633096728
      ],
      [
        "ሃገራችን",
        -9.769154743278616
      ],
      [
        "▁ላንተ",
        -9.76922972850256
      ],
      [
        "▁ቢሊ",
        -9.770215686172017
      ],
      [
        "▁ነክ",
        -9.77077547772543
      ],
      [
        "▁ምስጋና",
        -9.770906618521462
      ],
      [
        "▁ብልግና",
        -9.77095086575931
      ],
      [
        "▁ምና",
        -9.770955742497446
      ],
      [
        "▁መስማት",
        -9.771685409247379
      ],
      [
        "▁ሀቅ",
        -9.77294000427119
      ],
      [
        "▁እንጅ",
        -9.773561055463468
      ],
      [
        "▁እብድ",
        -9.773862740423517
      ],
      [
        "▁ጋሽ",
        -9.774432472712407
      ],
      [
        "▁ፕሮ",
        -9.774867713860594
      ],
      [
        "እየሱስ",
        -9.774897165937288
      ],
      [
        "▁ታላቁ",
        -9.77504479642681
      ],
      [
        "▁በእውነት",
        -9.775063597624689
      ],
      [
        "▁ከነማ",
        -9.775951343330682
      ],
      [
        "ራል።",
        -9.776136472764197
      ],
      [
        "▁የተደረገ",
        -9.776188253084262
      ],
      [
        "ስተኛ",
        -9.777180840878982
      ],
      [
        "▁ዶሮ",
        -9.777353598111553
      ],
      [
        "▁አድርገው",
        -9.778447440193155
      ],
      [
        "▁አራት",
        -9.778748152871465
      ],
      [
        "በለ",
        -9.7790458427206
      ],
      [
        "▁ሙዚቃ",
        -9.779199170317023
      ],
      [
        "▁ሰይፉ",
        -9.779207067907649
      ],
      [
        "▁ታስ",
        -9.780443018345123
      ],
      [
        "▁የሁለት",
        -9.780592564261628
      ],
      [
        "ዋልታ",
        -9.781424004526219
      ],
      [
        "▁ቻይና",
        -9.783099940691729
      ],
      [
        "▁ገባ",
        -9.783270081028936
      ],
      [
        "ገጥ",
        -9.78379473341366
      ],
      [
        "▁ኩ",
        -9.784368575228555
      ],
      [
        "ሆነ",
        -9.785472813108099
      ],
      [
        "▁.....",
        -9.786009593868611
      ],
      [
        "ዎታል",
        -9.786435119404599
      ],
      [
        "▁ረዳ",
        -9.787604656911395
      ],
      [
        "ኢትዮጵያ",
        -9.788161665484452
      ],
      [
        "▁አለ።",
        -9.790196505764499
      ],
      [
        "ፋን",
        -9.790263304156467
      ],
      [
        "▁ብሩ",
        -9.79164296977158
      ],
      [
        "ሳስብ",
        -9.793104899131137
      ],
      [
        "ግብርና",
        -9.793141659830201
      ],
      [
        "de",
        -9.79325074142201
      ],
      [
        "ልጥ",
        -9.793433409958842
      ],
      [
        "ለፉ",
        -9.793469369088866
      ],
      [
        "▁የፓርቲ",
        -9.793775134838802
      ],
      [
        "▁የህግ",
        -9.7941382907993
      ],
      [
        "ያችሁ",
        -9.794790594109635
      ],
      [
        "▁ኤል",
        -9.79506047933787
      ],
      [
        "▁ለውጡ",
        -9.795180569709192
      ],
      [
        "▁ልን",
        -9.796082667200377
      ],
      [
        "ማችሁ",
        -9.796313334447527
      ],
      [
        "ል?",
        -9.797315010560407
      ],
      [
        "ብዓ",
        -9.798529063263851
      ],
      [
        "ፋይ",
        -9.798941593275792
      ],
      [
        "▁እስልምና",
        -9.800347518491701
      ],
      [
        "▁???♂️",
        -9.800472505126754
      ],
      [
        "▁የእኛ",
        -9.800521915570936
      ],
      [
        "%",
        -9.80101216662575
      ],
      [
        "▁አልኩ",
        -9.802110116962966
      ],
      [
        "ቅጡ",
        -9.80276528262457
      ],
      [
        "▁የዘመ",
        -9.804636519791547
      ],
      [
        "▁እስር",
        -9.805459958304972
      ],
      [
        "▁f",
        -9.805557848710908
      ],
      [
        "ሃይ",
        -9.806001904738515
      ],
      [
        "▁ይሁን።",
        -9.806574001584616
      ],
      [
        "ዋለን",
        -9.806579698284539
      ],
      [
        "▁ዩ",
        -9.806743315036467
      ],
      [
        "▁ምንጭ",
        -9.808719614375068
      ],
      [
        "▁ሊያስ",
        -9.808801822572624
      ],
      [
        "ሌት",
        -9.809195172358873
      ],
      [
        "ወተ",
        -9.809935979178995
      ],
      [
        "▁እርስ",
        -9.810512334500004
      ],
      [
        "▁አላቸው",
        -9.810722870089556
      ],
      [
        "▁ስሙን",
        -9.811355827730951
      ],
      [
        "▁ተቀብ",
        -9.812058563567998
      ],
      [
        "ንቆ",
        -9.813748942561771
      ],
      [
        "ቀየር",
        -9.81390371162134
      ],
      [
        "/የ",
        -9.814458927583576
      ],
      [
        "ሰማው",
        -9.814781291593535
      ],
      [
        "li",
        -9.814974120918382
      ],
      [
        "ናል!",
        -9.815311146553766
      ],
      [
        "ወገ",
        -9.815490104298895
      ],
      [
        "በኞች",
        -9.81608545296591
      ],
      [
        "ካችን",
        -9.816293071039993
      ],
      [
        "ኢህአዴግ",
        -9.816524487683047
      ],
      [
        "ህወሓት",
        -9.81686546661742
      ],
      [
        "▁ስንል",
        -9.817037328793688
      ],
      [
        "▁አምባ",
        -9.81750322930617
      ],
      [
        "ጋቢ",
        -9.81771291146858
      ],
      [
        "▁እጣ",
        -9.819249966557111
      ],
      [
        "ke",
        -9.820083954359223
      ],
      [
        "▁የሠ",
        -9.820375528992695
      ],
      [
        "ዝና",
        -9.820802951190615
      ],
      [
        "0%",
        -9.821592960576869
      ],
      [
        "ግድ",
        -9.821611183285874
      ],
      [
        "ግዜ",
        -9.822392406122432
      ],
      [
        "▁የጎ",
        -9.82299619703581
      ],
      [
        "ኪያ",
        -9.823087798829844
      ],
      [
        "▁ብዙዎች",
        -9.823464080617438
      ],
      [
        "▁ዲያ",
        -9.82493062203027
      ],
      [
        "ng",
        -9.824975247681362
      ],
      [
        "❤",
        -9.82507002140871
      ],
      [
        "▁20",
        -9.827251248854715
      ],
      [
        "se",
        -9.828418148283873
      ],
      [
        "▁የሌላ",
        -9.828542925055544
      ],
      [
        "▁ጣል",
        -9.829271630019985
      ],
      [
        "ልን።",
        -9.829414739318693
      ],
      [
        "▁me",
        -9.829940715895688
      ],
      [
        "ዲን",
        -9.830359038562484
      ],
      [
        "ቹህ",
        -9.83129661234237
      ],
      [
        "▁ይገ",
        -9.83199629856947
      ],
      [
        "አገሪቱ",
        -9.833070511386031
      ],
      [
        "ነዋሪ",
        -9.833420543915505
      ],
      [
        "መግባት",
        -9.83396525916074
      ],
      [
        "ለመደው",
        -9.8346070878104
      ],
      [
        "ሠላም",
        -9.834881478594214
      ],
      [
        "27",
        -9.834961075470227
      ],
      [
        "ክሪ",
        -9.83501465794351
      ],
      [
        "ጡን",
        -9.835019880598699
      ],
      [
        "ቅዱስ",
        -9.835097309471594
      ],
      [
        "ግለሰብ",
        -9.835127363088166
      ],
      [
        "ተመሳ",
        -9.835238787443375
      ],
      [
        "▁ካልተ",
        -9.835586898244063
      ],
      [
        "ሶስት",
        -9.835772444978074
      ],
      [
        "ልኩ",
        -9.83676139339967
      ],
      [
        "▁ዝቅ",
        -9.837252609294232
      ],
      [
        "▁ስለማ",
        -9.837870678733887
      ],
      [
        "ክልል",
        -9.837896129819143
      ],
      [
        "▁ነው!!!",
        -9.837958932939472
      ],
      [
        "ካቸው",
        -9.838008199592894
      ],
      [
        "▁ተገቢ",
        -9.838143682814254
      ],
      [
        "ኩኝ",
        -9.838698368328986
      ],
      [
        "ቀጥል",
        -9.840571966566218
      ],
      [
        "ታገቱ",
        -9.840806298744885
      ],
      [
        "ርያ",
        -9.841522861616404
      ],
      [
        "ደምዎ",
        -9.84193961617874
      ],
      [
        "ኩል",
        -9.841965536432669
      ],
      [
        "▁ይላ",
        -9.8420352859868
      ],
      [
        "ሏል",
        -9.842043915232196
      ],
      [
        "ጣለ",
        -9.84329788994338
      ],
      [
        "እምነት",
        -9.84413595975731
      ],
      [
        "ጣጥ",
        -9.84468712788755
      ],
      [
        "▁ተማሪዎችን",
        -9.844927603317865
      ],
      [
        "2/",
        -9.845210779391435
      ],
      [
        "ሚቀጥ",
        -9.84550987398554
      ],
      [
        "ባቡ",
        -9.845614728714526
      ],
      [
        "ዩኒቨርሲቲ",
        -9.84594192650846
      ],
      [
        "▁3.",
        -9.84596437257774
      ],
      [
        "ሾች",
        -9.847095562115447
      ],
      [
        "ወክ",
        -9.847500208026421
      ],
      [
        "▁ጎል",
        -9.847870153832059
      ],
      [
        "ጦር",
        -9.848101544730401
      ],
      [
        "▁ያደረገ",
        -9.850152359798718
      ],
      [
        "▁እሄ",
        -9.850175629919994
      ],
      [
        "ተደረገ",
        -9.850234165463636
      ],
      [
        "ባሌ",
        -9.850343277598927
      ],
      [
        "ክበር",
        -9.851412848836034
      ],
      [
        "ም::",
        -9.851672457730256
      ],
      [
        "ኞ",
        -9.85225607377833
      ],
      [
        "ክብር",
        -9.852990906322143
      ],
      [
        "▁ገለ",
        -9.853058222848718
      ],
      [
        "ነገር",
        -9.854923061837345
      ],
      [
        "▁ቲ",
        -9.854929215443438
      ],
      [
        "▁ማስወ",
        -9.855219331614686
      ],
      [
        "ዥን",
        -9.85539336068843
      ],
      [
        "▁እራ",
        -9.855886664014871
      ],
      [
        "ዳችሁ",
        -9.857195807079671
      ],
      [
        "▁እሚ",
        -9.857988160846816
      ],
      [
        "▁ዓይነ",
        -9.858002763095751
      ],
      [
        "▁እናቴ",
        -9.858550734795068
      ],
      [
        "▁በራስ",
        -9.858666711327464
      ],
      [
        "▁ከስራ",
        -9.858764825035465
      ],
      [
        "እርግጥ",
        -9.859024043929294
      ],
      [
        "ጠላት",
        -9.861222147446687
      ],
      [
        "ጠኝነት",
        -9.863655026098499
      ],
      [
        "ፖርት",
        -9.863800020612913
      ],
      [
        "ዷ",
        -9.864644113233046
      ],
      [
        "ቁም",
        -9.864869456665547
      ],
      [
        "▁የፍር",
        -9.86569250290073
      ],
      [
        "ያለው",
        -9.865823500122172
      ],
      [
        "ሰሙ",
        -9.865896515760909
      ],
      [
        "▁የሰጠ",
        -9.866447987392723
      ],
      [
        "ዜና",
        -9.866663728003118
      ],
      [
        "ቃጠል",
        -9.867859619276713
      ],
      [
        "▁ሌላውን",
        -9.868113390921653
      ],
      [
        "▁ሳን",
        -9.869919317647843
      ],
      [
        "ጣጣ",
        -9.870249963079054
      ],
      [
        "▁እመቤ",
        -9.870760571271017
      ],
      [
        "ቾች",
        -9.87148227345788
      ],
      [
        "Y",
        -9.871610829507471
      ],
      [
        "ቬ",
        -9.871614612346443
      ],
      [
        "፮",
        -9.871614612346445
      ],
      [
        "===",
        -9.87161462076021
      ],
      [
        "▁ፍልስፍና",
        -9.871614624259498
      ],
      [
        "▁ተደርጓል",
        -9.87161466112359
      ],
      [
        "መወያየት",
        -9.871614717687272
      ],
      [
        "▁በቀጣይ",
        -9.871615373147847
      ],
      [
        "▁ጥንካሬ",
        -9.871615466126519
      ],
      [
        "▁ምናልባት",
        -9.871617703466477
      ],
      [
        "▁ሆኗል",
        -9.871621224160105
      ],
      [
        "ክህደት",
        -9.87162390958764
      ],
      [
        "▁of",
        -9.871623941780877
      ],
      [
        "▁አስተዋፅ",
        -9.871624004321397
      ],
      [
        "በረከቱ",
        -9.87162767318287
      ],
      [
        "▁ደነዝ",
        -9.871634107460643
      ],
      [
        "ቋቋም",
        -9.871637068135202
      ],
      [
        "▁ዋነኛ",
        -9.871638731268966
      ],
      [
        "▁የእግር",
        -9.871642579256662
      ],
      [
        "▁ተከትሎ",
        -9.871643735861307
      ],
      [
        "▁የእርስዎ",
        -9.871646231192042
      ],
      [
        "▁ገለልተኛ",
        -9.871649261155946
      ],
      [
        "ማጠናከር",
        -9.871657541447723
      ],
      [
        "▁ዋስትና",
        -9.871661870592842
      ],
      [
        "▁ሰብሳቢ",
        -9.871662463161645
      ],
      [
        "▁ዮሐንስ",
        -9.871666330184581
      ],
      [
        "▁በድጋሚ",
        -9.871674374423185
      ],
      [
        "ሐበሻ",
        -9.871674689989648
      ],
      [
        "▁ፕሮጀክት",
        -9.8717057876752
      ],
      [
        "▁እውቅና",
        -9.87171355033025
      ],
      [
        "▁የሴቶች",
        -9.871715228647965
      ],
      [
        "▁አውጪ",
        -9.871721470468062
      ],
      [
        "ቀላቀሉ",
        -9.871728513858741
      ],
      [
        "▁በስተቀር",
        -9.871738346993478
      ],
      [
        "▁የኦነግ",
        -9.871741852366897
      ],
      [
        "▁እንቅልፍ",
        -9.871744695549832
      ],
      [
        "▁አይገባኝም",
        -9.871755603445797
      ],
      [
        "መተግበ",
        -9.871765298792038
      ],
      [
        "▁እገታ",
        -9.871791410241933
      ],
      [
        "ጥቆማ",
        -9.871792117682968
      ],
      [
        "▁ድንአ",
        -9.871799457889312
      ],
      [
        "ዓመቱ",
        -9.871804659185724
      ],
      [
        "▁ትላንት",
        -9.871825026798081
      ],
      [
        "▁የሽብር",
        -9.871909406902692
      ],
      [
        "▁ተግባራ",
        -9.871982754570396
      ],
      [
        "▁ፅዮን",
        -9.87198342629557
      ],
      [
        "▁ክት",
        -9.872021715859706
      ],
      [
        "▁ግርማ",
        -9.872053281634082
      ],
      [
        "▁ድህነት",
        -9.87205341191747
      ],
      [
        "ፕ/ር",
        -9.872178493138358
      ],
      [
        "and",
        -9.872216482164696
      ],
      [
        "▁ቤቲ",
        -9.872246208176723
      ],
      [
        "▁የሚያስችል",
        -9.872297301701366
      ],
      [
        "▁መሞከ",
        -9.872316710190267
      ],
      [
        "▁ባንዳ",
        -9.872348280395979
      ],
      [
        "▁ታይቶ",
        -9.872367395083222
      ],
      [
        "▁ትግሬ",
        -9.872371866271312
      ],
      [
        "▁ሞራል",
        -9.872528354189997
      ],
      [
        "ከባበር",
        -9.872682607679632
      ],
      [
        "ወጥ",
        -9.87268669984453
      ],
      [
        "▁የድሮ",
        -9.872695277190445
      ],
      [
        "▁ዘመኑ",
        -9.872740674064353
      ],
      [
        "ቆጠር",
        -9.872771409133026
      ],
      [
        "▁እየሆነ",
        -9.87281577525377
      ],
      [
        "▁ወንድሙ",
        -9.872904490009713
      ],
      [
        "****************",
        -9.872984140643041
      ],
      [
        "▁መኪኖ",
        -9.873297248000446
      ],
      [
        "v",
        -9.87339567022502
      ],
      [
        "ካል",
        -9.873458082902108
      ],
      [
        "ጠጋ",
        -9.873464767248077
      ],
      [
        "አክብሮ",
        -9.873518524826803
      ],
      [
        "▁ባለስልጣን",
        -9.87354802120868
      ],
      [
        "▁የልጅ",
        -9.873697154274339
      ],
      [
        "▁እራሳቸው",
        -9.873712930778666
      ],
      [
        "18",
        -9.873739212214216
      ],
      [
        "▁አርጎ",
        -9.873772025263268
      ],
      [
        "▁ብለሽ",
        -9.873827465862274
      ],
      [
        "▁የዲሞክራሲ",
        -9.873968802669847
      ],
      [
        "▁ስላል",
        -9.874079137788087
      ],
      [
        "▁ማስታወሻ",
        -9.874202275443714
      ],
      [
        "ቀላሉ",
        -9.87421739561551
      ],
      [
        "ካሄዱ",
        -9.874271656328396
      ],
      [
        "▁አለብኝ",
        -9.874315180162533
      ],
      [
        "▁ችሎ",
        -9.87431797728422
      ],
      [
        "▁ሁላችሁ",
        -9.874399816556721
      ],
      [
        "ፓርት",
        -9.874449395271743
      ],
      [
        "▁መኖራቸው",
        -9.874528056224637
      ],
      [
        "▁የትኛው",
        -9.874557635577352
      ],
      [
        "▁ቆሞ",
        -9.874569058366639
      ],
      [
        "▁ሥነ",
        -9.874584870084025
      ],
      [
        "▁ካስሽ",
        -9.874614147561227
      ],
      [
        "▁ጉዲና",
        -9.874698482502737
      ],
      [
        "በታል",
        -9.874715246755724
      ],
      [
        "▁መቃብ",
        -9.874752676529676
      ],
      [
        "ምቦ",
        -9.874763028320816
      ],
      [
        "ጀርመ",
        -9.874802777728455
      ],
      [
        "▁ከየት",
        -9.874921888629355
      ],
      [
        "▁ይመስል",
        -9.875222381116423
      ],
      [
        "▁ሚስት",
        -9.875434382641306
      ],
      [
        "ሏቸው",
        -9.875582609508568
      ],
      [
        "▁የባህር",
        -9.875720672104114
      ],
      [
        "▁ሚሊየ",
        -9.875752451719748
      ],
      [
        "ላሽ",
        -9.875767103024602
      ],
      [
        "▁ቴክ",
        -9.875802077046425
      ],
      [
        "ደገፍ",
        -9.875837577425022
      ],
      [
        "ማምጣት",
        -9.875896959247612
      ],
      [
        "ፈፀሙ",
        -9.876046955714992
      ],
      [
        "ይዤ",
        -9.876189124415536
      ],
      [
        "ነፃ",
        -9.876257865215525
      ],
      [
        "▁ንጉስ",
        -9.876268529473322
      ],
      [
        "▁ኃላፊነት",
        -9.8763126952509
      ],
      [
        "ቻለ",
        -9.876565642324259
      ],
      [
        "▁ሲጀመር",
        -9.876624931603855
      ],
      [
        "▁እጥ",
        -9.876922351628611
      ],
      [
        "▁አይዞ",
        -9.876955694517275
      ],
      [
        "መበ",
        -9.876962387944644
      ],
      [
        "ራሷ",
        -9.877041006548252
      ],
      [
        "ፎካ",
        -9.877065913102706
      ],
      [
        "▁ንሕ",
        -9.877157029644842
      ],
      [
        "▁ገዳይ",
        -9.877550577945978
      ],
      [
        "▁የተነሳ",
        -9.877567555025866
      ],
      [
        "▁ሃይማኖት",
        -9.877593125954515
      ],
      [
        "▁ጅማ",
        -9.877598171874258
      ],
      [
        "▁ሰል",
        -9.877846278180673
      ],
      [
        "ላስ",
        -9.877848981244641
      ],
      [
        "▁ያለባቸው",
        -9.878339623770922
      ],
      [
        "▁ለመሆኑ",
        -9.878525432545345
      ],
      [
        "▁ክፍለ",
        -9.878575168195518
      ],
      [
        "▁ኦሮምያ",
        -9.87868145070907
      ],
      [
        "▁መግባባት",
        -9.878686775506951
      ],
      [
        "▁ኢ-",
        -9.87889604544502
      ],
      [
        "▁ሞተ",
        -9.878943229153355
      ],
      [
        "▁መስሎ",
        -9.87911763692589
      ],
      [
        "ቃቂ",
        -9.879206762438677
      ],
      [
        "▁ጥግ",
        -9.879737356723037
      ],
      [
        "▁ዩኒቨርሲቲዎች",
        -9.879886091661344
      ],
      [
        "ስቱ",
        -9.880061301607709
      ],
      [
        "▁ያድርግ",
        -9.880073089590578
      ],
      [
        "▁ዴ",
        -9.880354496068483
      ],
      [
        "▁2)",
        -9.881024208260573
      ],
      [
        "ሐገር",
        -9.881375711869936
      ],
      [
        "▁ከፊት",
        -9.882144081632019
      ],
      [
        "▁የዛሬ",
        -9.882259902332418
      ],
      [
        "▁በሬ",
        -9.88280309693797
      ],
      [
        "▁እጁ",
        -9.883084150990888
      ],
      [
        "በታል።",
        -9.883148015853024
      ],
      [
        "▁ባንዲራ",
        -9.883297929878022
      ],
      [
        "▁ብአዴን",
        -9.88329794834373
      ],
      [
        "▁ፅሁፍ",
        -9.883303192963043
      ],
      [
        "▁ዕድሜ",
        -9.883303353520132
      ],
      [
        "ቃል።",
        -9.884057690970995
      ],
      [
        "ወራት",
        -9.884333090186146
      ],
      [
        "▁የያዘ",
        -9.88505352770302
      ],
      [
        "ብቃ",
        -9.885294326585269
      ],
      [
        "▁የሚገኘው",
        -9.88583394313888
      ],
      [
        "ስተዋ",
        -9.886216253199276
      ],
      [
        "▁ማጥፋት",
        -9.88634448749115
      ],
      [
        "▁ጠፋ",
        -9.886972259567639
      ],
      [
        "▁ልበል",
        -9.887830855925857
      ],
      [
        "▁ቁር",
        -9.88785311519161
      ],
      [
        "▁ዘላለማዊ",
        -9.887961445431813
      ],
      [
        "▁ውህደት",
        -9.887961682745544
      ],
      [
        "▁ቦረና",
        -9.888017458243723
      ],
      [
        "ል፣",
        -9.888514831110806
      ],
      [
        "ነገሩ",
        -9.888828285007389
      ],
      [
        "ቻቸው",
        -9.888842677022481
      ],
      [
        "▁ዘው",
        -9.889383461901716
      ],
      [
        "▁አሸባሪ",
        -9.889475072424284
      ],
      [
        "▁ቦታዎች",
        -9.88958885894732
      ],
      [
        "▁ቪዲ",
        -9.89002948522187
      ],
      [
        "▁አይቼ",
        -9.890236532828528
      ],
      [
        "▁የኢራን",
        -9.890479862909494
      ],
      [
        "▁የቀድሞው",
        -9.891072006017824
      ],
      [
        "ቃቸው",
        -9.89135265315984
      ],
      [
        "ጫጫ",
        -9.891355760632042
      ],
      [
        "▁ደሳ",
        -9.8916433289117
      ],
      [
        "▁ጁ",
        -9.891813110187957
      ],
      [
        "▁በአግ",
        -9.891819923439627
      ],
      [
        "ገፋ",
        -9.891820241875543
      ],
      [
        "▁ሀገራችን",
        -9.892816632194794
      ],
      [
        "▁ሀገሪቱ",
        -9.893017965958386
      ],
      [
        "ዮሽ",
        -9.893419174415602
      ],
      [
        "ትራንስፖርት",
        -9.893664163161604
      ],
      [
        "ኣብይ",
        -9.894999666108212
      ],
      [
        "ፈላ",
        -9.895372578789688
      ],
      [
        "ስተዳደር",
        -9.895876792095251
      ],
      [
        "ጋሞ",
        -9.896159359296565
      ],
      [
        "ሯቸው",
        -9.896288310117473
      ],
      [
        "▁ይገባ",
        -9.896802454907283
      ],
      [
        "▁28",
        -9.897089640200228
      ],
      [
        "▁ሳላ",
        -9.897816296841995
      ],
      [
        "▁ጥንቃ",
        -9.899486064658712
      ],
      [
        "▁ውጣ",
        -9.899514299560623
      ],
      [
        "ያገኙ",
        -9.8995765219821
      ],
      [
        "ቃችሁ",
        -9.899665847278783
      ],
      [
        "በበ",
        -9.89968778898972
      ],
      [
        "▁ይቺን",
        -9.899710666772744
      ],
      [
        "▁ሃይ",
        -9.899856294509686
      ],
      [
        "▁ብየ",
        -9.899880104104746
      ],
      [
        "es",
        -9.90002655668703
      ],
      [
        "▁የሚገባው",
        -9.900040868267826
      ],
      [
        "▁በቀል",
        -9.900355677412866
      ],
      [
        "ነዳ",
        -9.900885637034953
      ],
      [
        "▁እሰ",
        -9.90187130576681
      ],
      [
        "▁ውብ",
        -9.901948686445087
      ],
      [
        "▁ምዕራ",
        -9.902134599302084
      ],
      [
        "ድል",
        -9.90259284768569
      ],
      [
        "▁በቀጥታ",
        -9.9026761371211
      ],
      [
        "▁ነበር?",
        -9.902783415529257
      ],
      [
        "▁መለስ",
        -9.903002472684651
      ],
      [
        "ገዥ",
        -9.90368828584557
      ],
      [
        "▁በመቶ",
        -9.90382655775948
      ],
      [
        "A",
        -9.90409763294138
      ],
      [
        "▁በቀን",
        -9.904200165349813
      ],
      [
        "መግደል",
        -9.90431857970793
      ],
      [
        "lo",
        -9.905079626182875
      ],
      [
        "ራሴን",
        -9.906306728194856
      ],
      [
        "ኸ",
        -9.906855872873109
      ],
      [
        "▁ባህርዳር",
        -9.906857381417101
      ],
      [
        "▁—",
        -9.906902826486927
      ],
      [
        "▁ትዊተር",
        -9.90690299495191
      ],
      [
        "ጣቸው",
        -9.907045013724067
      ],
      [
        "ዋሽ",
        -9.907117456692722
      ],
      [
        "▁ኸ",
        -9.907181740148705
      ],
      [
        "▁በጉ",
        -9.90755885679522
      ],
      [
        "ፍር",
        -9.907955505131339
      ],
      [
        "ዝም",
        -9.908512483868906
      ],
      [
        "▁አሥ",
        -9.908575212177698
      ],
      [
        "ation",
        -9.910120177160088
      ],
      [
        "▁ቀልድ",
        -9.91083220629882
      ],
      [
        ".5",
        -9.910964994149726
      ],
      [
        "▁አገሪቱ",
        -9.911719702412396
      ],
      [
        "▁ምድ",
        -9.911780851120554
      ],
      [
        "▁ወጣ",
        -9.911898537070742
      ],
      [
        "▁ያላት",
        -9.912115582061961
      ],
      [
        "▁የደረ",
        -9.912657178439382
      ],
      [
        "▁??????????",
        -9.912775502698421
      ],
      [
        "ፊቱ",
        -9.912927783796325
      ],
      [
        "▁አፋር",
        -9.913138222238956
      ],
      [
        "▁አገራችን",
        -9.913160054904317
      ],
      [
        "ረታ",
        -9.913252258576044
      ],
      [
        "▁መድ",
        -9.914085099830665
      ],
      [
        "▁♥",
        -9.915076372644062
      ],
      [
        "ለውጡ",
        -9.915363685014817
      ],
      [
        "ሠሩ",
        -9.915553767570715
      ],
      [
        "ሌላው",
        -9.915720514852898
      ],
      [
        "▁ብና",
        -9.916098753073774
      ],
      [
        "▁li",
        -9.916503933117104
      ],
      [
        "▁2ኛ",
        -9.916645737929173
      ],
      [
        "ምንድነው",
        -9.917365024128914
      ],
      [
        "▁ትዕ",
        -9.91777417036673
      ],
      [
        "▁ይታ",
        -9.918054247245344
      ],
      [
        "ችበት",
        -9.918309962212206
      ],
      [
        "በይ",
        -9.919438217789535
      ],
      [
        "ነቱን",
        -9.919482547152317
      ],
      [
        "▁አቀባ",
        -9.919844894800645
      ],
      [
        "▁ልታ",
        -9.920029257011969
      ],
      [
        "▁በ1",
        -9.921371918625127
      ],
      [
        "▁የገዛ",
        -9.92200305517613
      ],
      [
        "ብሶ",
        -9.92218314574113
      ],
      [
        "▁ያንን",
        -9.922935732989428
      ],
      [
        "▁ኢትዮጲያ",
        -9.92318781575219
      ],
      [
        "ፈቱ",
        -9.925386591373494
      ],
      [
        "▁ነበር!",
        -9.926267821405036
      ],
      [
        "vi",
        -9.926343566011255
      ],
      [
        "ባዊ",
        -9.92640711302046
      ],
      [
        "ተኩ",
        -9.927496997005672
      ],
      [
        "▁ወርቅ",
        -9.927767538865872
      ],
      [
        "▁ዘመና",
        -9.927954277163126
      ],
      [
        "ሌሎች",
        -9.929665153383905
      ],
      [
        "▁ተዋ",
        -9.930831607866532
      ],
      [
        "▁ላለማ",
        -9.930883182219636
      ],
      [
        "▁ማስፈ",
        -9.930957611089461
      ],
      [
        "▁አገኘ",
        -9.932175601166158
      ],
      [
        "▁እቃ",
        -9.933551753295543
      ],
      [
        "ደለ",
        -9.933859466768624
      ],
      [
        "ሕዝብ",
        -9.934599322231742
      ],
      [
        "ሮቹ",
        -9.935077062196514
      ],
      [
        "ከብር",
        -9.935530646927944
      ],
      [
        "ብያ",
        -9.93695941363411
      ],
      [
        "▁ደብ",
        -9.93821792566605
      ],
      [
        "መሠ",
        -9.938592922156133
      ],
      [
        "▁ገዝ",
        -9.939586390525788
      ],
      [
        "ዋቸው",
        -9.94104611480501
      ],
      [
        "ዘመና",
        -9.941172151149665
      ],
      [
        "ዲግ",
        -9.941422821905824
      ],
      [
        "ወለጋ",
        -9.9417932930035
      ],
      [
        "ዐ",
        -9.942119743800573
      ],
      [
        "▁ብርሃን",
        -9.943312592585896
      ],
      [
        "en",
        -9.94335639208267
      ],
      [
        "ጥላቻ",
        -9.943554890694912
      ],
      [
        "▁ለአንድ",
        -9.943960977314092
      ],
      [
        "▁ማደ",
        -9.945692624535672
      ],
      [
        "▁የሚሰማ",
        -9.946149899699268
      ],
      [
        "ሰጡት",
        -9.946775281694558
      ],
      [
        "P",
        -9.947097831668978
      ],
      [
        "sh",
        -9.947141810389935
      ],
      [
        "10",
        -9.947509093021594
      ],
      [
        "fe",
        -9.947573308148367
      ],
      [
        "ደባ",
        -9.948074895921513
      ],
      [
        "ow",
        -9.948652204607626
      ],
      [
        "▁አለ!",
        -9.949142539627383
      ],
      [
        "ራሱ",
        -9.952746592699146
      ],
      [
        "▁ማንን",
        -9.952950177290072
      ],
      [
        "ታወቀ",
        -9.953298775110353
      ],
      [
        "ከን",
        -9.95332620237185
      ],
      [
        "ሂድ",
        -9.953449020423665
      ],
      [
        "▁ከማን",
        -9.955466250539768
      ],
      [
        "▁ከሀ",
        -9.955637253225712
      ],
      [
        "▁እናቶች",
        -9.956621808466846
      ],
      [
        "መላው",
        -9.957072669916354
      ],
      [
        "ሙስሊሙ",
        -9.957465363672716
      ],
      [
        "ሁ...",
        -9.957710693688128
      ],
      [
        "ሱዳን",
        -9.957966045028046
      ],
      [
        "—",
        -9.958081622430758
      ],
      [
        "ትዊተር",
        -9.95821118676873
      ],
      [
        "T",
        -9.95830395997182
      ],
      [
        "ቀልድ",
        -9.95859642598937
      ],
      [
        "▁70",
        -9.959338408397443
      ],
      [
        "ጥበብ",
        -9.959600824436084
      ],
      [
        "ሳምንት",
        -9.959616495080157
      ],
      [
        "ርጂ",
        -9.959681339436402
      ],
      [
        "ገንዘብ",
        -9.959720864248268
      ],
      [
        "ፖሊሲ",
        -9.95977055955301
      ],
      [
        "▁ወን",
        -9.95980051089192
      ],
      [
        "እስክንድር",
        -9.959837053288451
      ],
      [
        "እንግዲህ",
        -9.959876457848013
      ],
      [
        "አክራሪ",
        -9.960157354723705
      ],
      [
        "ለወጣ",
        -9.960345302550927
      ],
      [
        "አገራችን",
        -9.961389877651502
      ],
      [
        "ደስታ",
        -9.961405727339455
      ],
      [
        "መደመር",
        -9.961755167110876
      ],
      [
        "ቡት",
        -9.962254377971629
      ],
      [
        "ኢየሱስ",
        -9.962344816336632
      ],
      [
        "ስቶች",
        -9.96307919983271
      ],
      [
        "መሬት",
        -9.964849740460936
      ],
      [
        "ne",
        -9.966156500021025
      ],
      [
        "ሄደ",
        -9.966323718993358
      ],
      [
        "▁ወዳጆ",
        -9.966561260408895
      ],
      [
        "ፖሊስ",
        -9.96696981075246
      ],
      [
        "▁in",
        -9.967248580881519
      ],
      [
        "ያረጉ",
        -9.967269911522976
      ],
      [
        "አንድነት",
        -9.968631998050327
      ],
      [
        "ፍኖ",
        -9.969104593898368
      ],
      [
        "ሰጣቸው",
        -9.969325997951021
      ],
      [
        "ባህርዳር",
        -9.970685547813144
      ],
      [
        "▁እንደነበር",
        -9.971123908426375
      ],
      [
        "ቴዲ",
        -9.97177620439436
      ],
      [
        "ነጋገር",
        -9.972052184107447
      ],
      [
        "▁ይቺ",
        -9.973169241663587
      ],
      [
        "ዚሁ",
        -9.973576509710885
      ],
      [
        "ጊዜው",
        -9.973703745022013
      ],
      [
        "____",
        -9.974370821233222
      ],
      [
        "ዋል፡፡",
        -9.976185447577592
      ],
      [
        "▁አያስ",
        -9.976507925215262
      ],
      [
        "▁እንቁ",
        -9.976793967808796
      ],
      [
        "ራሴ",
        -9.978581510702544
      ],
      [
        "ጠይ",
        -9.979970614397018
      ],
      [
        "▁አለ?",
        -9.980091238353543
      ],
      [
        "▁ትምህር",
        -9.983037211810087
      ],
      [
        "ሀድ",
        -9.983843334682554
      ],
      [
        "▁ተብለ",
        -9.984758778645112
      ],
      [
        "▁እንዳላ",
        -9.985402726706337
      ],
      [
        "▁ቁል",
        -9.986023370165139
      ],
      [
        "ቀኛ",
        -9.986704400451488
      ],
      [
        "▁ማር",
        -9.98827870811416
      ],
      [
        "ሪት",
        -9.989005627171965
      ],
      [
        "ባቸዉ",
        -9.989438540089395
      ],
      [
        "fa",
        -9.989582740387212
      ],
      [
        "▁ጥቃ",
        -9.98964480411453
      ],
      [
        "መከላከል",
        -9.9897035989023
      ],
      [
        "▁በሰው",
        -9.989774143803892
      ],
      [
        "ፊው",
        -9.98983104214786
      ],
      [
        "ወዳደ",
        -9.990956189799885
      ],
      [
        "ፋል",
        -9.991442835819887
      ],
      [
        "▁ተፋ",
        -9.991677310479623
      ],
      [
        "መደበ",
        -9.991689351350571
      ],
      [
        "መቸ",
        -9.99228785105367
      ],
      [
        "▁ስብሰባው",
        -9.992654871516663
      ],
      [
        "ዋጋ",
        -9.993636288550787
      ],
      [
        "ትውልድ",
        -9.993769732458937
      ],
      [
        "ቾ",
        -9.99390688745737
      ],
      [
        "ኾ",
        -9.99457840310534
      ],
      [
        "ጹ",
        -9.99519109856729
      ],
      [
        "መሆናቸው",
        -9.995583409795204
      ],
      [
        "ፏ",
        -9.996341270170658
      ],
      [
        "ኚ",
        -9.99653398682887
      ],
      [
        "ከተለ",
        -9.996543761265581
      ],
      [
        "ሽከርካሪ",
        -9.996596983774598
      ],
      [
        "፪",
        -9.996614612355547
      ],
      [
        "ጾ",
        -9.996614612355549
      ],
      [
        "U",
        -9.99661461235555
      ],
      [
        "▁ይኼ",
        -9.996614620540011
      ],
      [
        "▁ኢንዱስትሪ",
        -9.996614633386084
      ],
      [
        "▁ንፁሀን",
        -9.996614659493972
      ],
      [
        "▁ተቃዋሚ",
        -9.996614667378264
      ],
      [
        "▁በመጀመሪያ",
        -9.996614795549322
      ],
      [
        "▁እንጠብቃለን",
        -9.9966148370348
      ],
      [
        "ፌዴራሊስ",
        -9.996614930122877
      ],
      [
        "▁ነበልባል",
        -9.9966150371012
      ],
      [
        "▁ይመስገን",
        -9.996615302935517
      ],
      [
        "▁መገለጫ",
        -9.996615746402338
      ],
      [
        "▁ዱቄት",
        -9.996616624564131
      ],
      [
        "▁ተሳትፎ",
        -9.996616633730142
      ],
      [
        "▁መሆኗ",
        -9.996617191558546
      ],
      [
        "ሕገወጥ",
        -9.996617390258972
      ],
      [
        "▁ይታወቃል",
        -9.996617592293369
      ],
      [
        "▁ለኢትዮ",
        -9.996618963587824
      ],
      [
        "▁የማይችሉት",
        -9.996618997941438
      ],
      [
        "ኢሳይያስ",
        -9.996624316950172
      ],
      [
        "ጻድቁ",
        -9.99662535801318
      ],
      [
        "▁ተደርጎ",
        -9.99662657966875
      ],
      [
        "▁ቀጣይ",
        -9.9966342781871
      ],
      [
        "▁አማካሪ",
        -9.996636260258928
      ],
      [
        "▁አታውቅም",
        -9.99663661254346
      ],
      [
        "▁ድራማ",
        -9.996641788627468
      ],
      [
        "ተባበሩ",
        -9.996645350382554
      ],
      [
        "▁ይሉታል",
        -9.996646141268496
      ],
      [
        "▁የፈጠረ",
        -9.996651345842105
      ],
      [
        "▁በተለየ",
        -9.996657345856729
      ],
      [
        "▁የገበያ",
        -9.996700787703805
      ],
      [
        "▁ሚድያ",
        -9.996701714988433
      ],
      [
        "▁ውለታ",
        -9.996713159266426
      ],
      [
        "ተጀመረ",
        -9.996725517164599
      ],
      [
        "▁ዋዜማ",
        -9.996733629301634
      ],
      [
        "▁መነሻ",
        -9.99677115254206
      ],
      [
        "▁ሳሙኤ",
        -9.996783227568937
      ],
      [
        "ችግኝ",
        -9.996823431529469
      ],
      [
        "▁በሰማይ",
        -9.99683261186415
      ],
      [
        "▁ስብስብ",
        -9.996869715675375
      ],
      [
        "▁ቃላት",
        -9.996888901015165
      ],
      [
        "▁ሞገስ",
        -9.996899330353935
      ],
      [
        "▁የጌታ",
        -9.996906676423084
      ],
      [
        "▁አሰራር",
        -9.996917754458215
      ],
      [
        "2019",
        -9.996936426962199
      ],
      [
        "ህውሃት",
        -9.996976947839064
      ],
      [
        "▁መምህራን",
        -9.996981996134597
      ],
      [
        "ሀገሩ",
        -9.996992803247334
      ],
      [
        "▁ያውቃሉ",
        -9.99699612349937
      ],
      [
        "▁ሃብት",
        -9.997001657684878
      ],
      [
        "▁ሃሃሃሃ",
        -9.997009066366422
      ],
      [
        "▁እቅድ",
        -9.997032629761739
      ],
      [
        "▁ዘረኝነት",
        -9.997117427478663
      ],
      [
        "▁ጎዳና",
        -9.997212348679758
      ],
      [
        "▁አድርጌ",
        -9.997218993052842
      ],
      [
        "▁የምትሉ",
        -9.99724444428524
      ],
      [
        "▁የተፈጠረው",
        -9.997316239066805
      ],
      [
        "▁እውነቱ",
        -9.997334283222967
      ],
      [
        "▁ህዝቤ",
        -9.997411355454002
      ],
      [
        "▁እያንዳንዱ",
        -9.997470457727477
      ],
      [
        "▁ድፍረ",
        -9.997604373786
      ],
      [
        "▁አፄ",
        -9.997686816522016
      ],
      [
        "▁ማሰባሰ",
        -9.997705044313985
      ],
      [
        "ሜት",
        -9.997778849781687
      ],
      [
        "▁ጠባብ",
        -9.997819571905659
      ],
      [
        "ቀመጥ",
        -9.997899899125361
      ],
      [
        "▁ሀይማኖት",
        -9.997938479173149
      ],
      [
        "▁መዝሙ",
        -9.997987052405032
      ],
      [
        "ብርሀኑ",
        -9.997999157171943
      ],
      [
        "ቀደመ",
        -9.998432949056657
      ],
      [
        "▁አውጥ",
        -9.998486938798962
      ],
      [
        "▁አባታችን",
        -9.998540578564803
      ],
      [
        "▁አንፃ",
        -9.998545981166702
      ],
      [
        "▁አከባቢ",
        -9.998575878034993
      ],
      [
        "ተላለፍ",
        -9.998588810073402
      ],
      [
        "▁ምልክ",
        -9.99861111683596
      ],
      [
        "ክብረት",
        -9.998659475724175
      ],
      [
        "▁እጃቸው",
        -9.998662829392869
      ],
      [
        "▁ኪዳ",
        -9.998807100374249
      ],
      [
        "▁የተረገ",
        -9.998819197411953
      ],
      [
        "▁የዋህ",
        -9.999052782118703
      ],
      [
        "▁እንደምታ",
        -9.999102601606754
      ],
      [
        "ተሳካ",
        -9.999119001182354
      ],
      [
        "▁ሱእ",
        -9.999156303536404
      ],
      [
        "▁ሲቀጥል",
        -9.999157140938735
      ],
      [
        "▁አደረሰህ",
        -9.999194701805052
      ],
      [
        "▁አብዛኛው",
        -9.999347168293367
      ],
      [
        "ጽድቅ",
        -9.999481826675352
      ],
      [
        "ሻገር",
        -9.999646121586146
      ],
      [
        "▁አሰፋ",
        -9.999656385732013
      ],
      [
        "▁በኦሮሞ",
        -9.999689130308429
      ],
      [
        "▁አቤቱ",
        -9.999953418188415
      ],
      [
        "▁አንዲ",
        -10.000045674401797
      ],
      [
        "▁ስትሆን",
        -10.000159903351971
      ],
      [
        "▁አሸባሪዎች",
        -10.000174727484707
      ],
      [
        "ማንበብ",
        -10.000201212533531
      ],
      [
        "▁ተበ",
        -10.000380106863446
      ],
      [
        "▁ብላቹ",
        -10.00045332984013
      ],
      [
        "ቀይ",
        -10.00055525701638
      ],
      [
        "▁ነህ?",
        -10.000603456903386
      ],
      [
        "▁ቅንነት",
        -10.000793590112302
      ],
      [
        "▁የታገቱ",
        -10.00109430241988
      ],
      [
        "▁ተወስ",
        -10.001142509551121
      ],
      [
        "ረቱ",
        -10.001146882766585
      ],
      [
        "ገዙ",
        -10.001293736203612
      ],
      [
        "▁ሠዉ",
        -10.001555654748385
      ],
      [
        "▁በፍቅር",
        -10.00160745690076
      ],
      [
        "ወጣቶች",
        -10.001719892437848
      ],
      [
        "▁ሽልማት",
        -10.001755767466536
      ],
      [
        "▁Mo",
        -10.001818458107854
      ],
      [
        "▁አልሰማ",
        -10.001917747875774
      ],
      [
        "ግዝ",
        -10.002226995484564
      ],
      [
        "ጨምር",
        -10.002301114977367
      ],
      [
        "ጽሔ",
        -10.00302171765382
      ],
      [
        "▁ኡማ",
        -10.003131580764046
      ],
      [
        "ጓዝ",
        -10.003285537096524
      ],
      [
        "አራተኛ",
        -10.003299209514765
      ],
      [
        "▁ግዛት",
        -10.00343924120688
      ],
      [
        "▁አርገ",
        -10.003446633554343
      ],
      [
        "ረጠ",
        -10.003615838835263
      ],
      [
        "▁The",
        -10.003811711577725
      ],
      [
        "▁*",
        -10.003943643051876
      ],
      [
        "▁Ma",
        -10.004094659797897
      ],
      [
        "▁ለሕዝብ",
        -10.004245427171924
      ],
      [
        "ደቅ",
        -10.004331041038203
      ],
      [
        "▁ለራሱ",
        -10.004514039306573
      ],
      [
        "▁ይግባ",
        -10.004536748031137
      ],
      [
        "▁መንገዶች",
        -10.004724598163829
      ],
      [
        "▁የሚችለው",
        -10.005082513851722
      ],
      [
        "▁ግሩም",
        -10.005087834052294
      ],
      [
        "ሕደ",
        -10.005111752242493
      ],
      [
        "ቻችሁ",
        -10.005246126678244
      ],
      [
        "▁እንስሳት",
        -10.005376515525299
      ],
      [
        "▁በሕይወት",
        -10.005424342492713
      ],
      [
        "▁ታቦ",
        -10.005688435622048
      ],
      [
        "▁ማመን",
        -10.00624484880006
      ],
      [
        "ያያዘ",
        -10.006466326194143
      ],
      [
        "▁ወዲያ",
        -10.006770299624193
      ],
      [
        "▁የትራፊ",
        -10.006872331825273
      ],
      [
        "▁አቢይ",
        -10.006915019738486
      ],
      [
        "▁የሚሰራው",
        -10.007192287103418
      ],
      [
        "▁የሀገሪቱ",
        -10.007269747536842
      ],
      [
        "▁እንደገና",
        -10.007315384629669
      ],
      [
        "ሰለቸ",
        -10.007348411759706
      ],
      [
        "▁በእርሱ",
        -10.007720806100707
      ],
      [
        "▁ይማር",
        -10.008133640549548
      ],
      [
        "si",
        -10.008189590436292
      ],
      [
        "ንጻ",
        -10.008463236887202
      ],
      [
        "▁መቻል",
        -10.008927515182119
      ],
      [
        "ህብረተሰቡ",
        -10.00895158274746
      ],
      [
        "▁በምድር",
        -10.009166400326514
      ],
      [
        "▁የራሳቸው",
        -10.009445109466022
      ],
      [
        "▁ባት",
        -10.009852306690558
      ],
      [
        "▁ሌሎቹ",
        -10.009961440432107
      ],
      [
        "▁ጋዜጠኞች",
        -10.009963596031865
      ],
      [
        "▁ወንጀለኞች",
        -10.0100002197916
      ],
      [
        "▁ሲኖር",
        -10.010447788310378
      ],
      [
        "▁መሪዬ",
        -10.010626519236936
      ],
      [
        "▁አደገ",
        -10.01064704476643
      ],
      [
        "ታደግ",
        -10.010840541109978
      ],
      [
        "▁መውደ",
        -10.010862396067303
      ],
      [
        "ቆጠሩ",
        -10.011112705014476
      ],
      [
        "▁መጽ",
        -10.011369656097049
      ],
      [
        "ቃለች",
        -10.011399835092572
      ],
      [
        "▁ሰፊ",
        -10.011423059784418
      ],
      [
        "▁ፖለቲካዊ",
        -10.011539000960596
      ],
      [
        "▁ከአማራ",
        -10.01158942488555
      ],
      [
        "▁ይኸ",
        -10.01184523883769
      ],
      [
        "▁1)",
        -10.012061525856327
      ],
      [
        "▁ክስ",
        -10.012247114098464
      ],
      [
        "▁በተጨማሪም",
        -10.012256716963646
      ],
      [
        "ቤቴ",
        -10.012539416113857
      ],
      [
        "▁ተረት",
        -10.012815202318755
      ],
      [
        "▁የልብ",
        -10.01287538617784
      ],
      [
        "ጥፋት",
        -10.012952007262198
      ],
      [
        "▁ጅል",
        -10.013497156739483
      ],
      [
        "▁ይኖር",
        -10.013802099680122
      ],
      [
        "ማይታወቅ",
        -10.013962167732675
      ],
      [
        "ራለች",
        -10.014309668104445
      ],
      [
        "▁ወ/",
        -10.014392235765488
      ],
      [
        "አፋር",
        -10.014507843320125
      ],
      [
        "▁የጦር",
        -10.014800062963738
      ],
      [
        "ዱት",
        -10.014819116215635
      ],
      [
        "▁አስራ",
        -10.01528998820001
      ],
      [
        "▁አርማጭሆ",
        -10.015296552332574
      ],
      [
        "ዞኑ",
        -10.015334503651806
      ],
      [
        "▁ጉብኝ",
        -10.016027364751826
      ],
      [
        "▁ሰንበት",
        -10.016668276456313
      ],
      [
        "▁ትነ",
        -10.01691189789076
      ],
      [
        "ደስት",
        -10.017189021813941
      ],
      [
        "▁be",
        -10.018258783467566
      ],
      [
        "ድቅ",
        -10.018271408029978
      ],
      [
        "▁አሽ",
        -10.018903200465509
      ],
      [
        "▁ፋሽ",
        -10.019084189615997
      ],
      [
        "▁አርብ",
        -10.019605003940226
      ],
      [
        "▁17",
        -10.020235257787014
      ],
      [
        "ረጋጋ",
        -10.020267321754341
      ],
      [
        "▁አንገ",
        -10.020304975888878
      ],
      [
        "▁የሚሆኑ",
        -10.020515276523263
      ],
      [
        "▁ባለስልጣናት",
        -10.020676242184882
      ],
      [
        "▁ንፁህ",
        -10.020677543888102
      ],
      [
        "▁ወንጌል",
[...]
