{
  "version": "1.0",
  "truncation": null,
  "padding": null,
  "added_tokens": [
    {
      "id": 0,
      "content": "<pad>",
      "single_word": false,
      "lstrip": false,
      "rstrip": false,
      "normalized": false,
      "special": true
    },
    {
      "id": 1,
      "content": "<unk>",
      "single_word": false,
      "lstrip": false,
      "rstrip": false,
      "normalized": false,
      "special": true
    },
    {
      "id": 2,
      "content": "<cls>",
      "single_word": false,
      "lstrip": false,
      "rstrip": false,
      "normalized": false,
      "special": true
    }
  ],
  "normalizer": {
    "type": "Sequence",
    "normalizers": [
      {
        "type": "Nmt"
      },
      {
        "type": "NFKC"
      },
      {
        "type": "Replace",
        "pattern": {
          "Regex": " {2,}"
        },
        "content": " "
      }
    ]
  },
  "pre_tokenizer": {
    "type": "Metaspace",
    "replacement": "▁",
    "prepend_scheme": "always",
    "split": true
  },
  "post_processor": {
    "type": "TemplateProcessing",
    "single": [
      {
        "SpecialToken": {
          "id": "<cls>",
          "type_id": 0
        }
      },
      {
        "Sequence": {
          "id": "A",
          "type_id": 0
        }
      }
    ],
    "pair": [
      {
        "Sequence": {
          "id": "A",
          "type_id": 0
        }
      },
      {
        "Sequence": {
          "id": "B",
          "type_id": 1
        }
      }
    ],
    "special_tokens": {
      "<cls>": {
        "id": "<cls>",
        "ids": [
          2
        ],
        "tokens": [
          "<cls>"
        ]
      }
    }
  },
  "decoder": {
    "type": "Metaspace",
    "replacement": "▁",
    "prepend_scheme": "always",
    "split": true
  },
  "model": {
    "type": "Unigram",
    "unk_id": 1,
    "vocab": [
      [
        "<pad>",
        0.0
      ],
      [
        "<unk>",
        0.0
      ],
      [
        "<cls>",
        0.0
      ],
      [
        "▁@user",
        -2.75894904131035
      ],
      [
        "▁da",
        -3.821676760288023
      ],
      [
        "n",
        -4.038879449405604
      ],
      [
        "▁ya",
        -4.117697693713243
      ],
      [
        "▁Allah",
        -4.161712855050212
      ],
      [
        "▁",
        -4.3358024028307725
      ],
      [
        "▁a",
        -4.362029329133685
      ],
      [
        ",",
        -4.537781526817723
      ],
      [
        ".",
        -4.616313857597445
      ],
      [
        "▁ba",
        -4.654445368239544
      ],
      [
        "r",
        -4.881194049309314
      ],
      [
        "i",
        -5.076469373850554
      ],
      [
        "▁ta",
        -5.2058776295157125
      ],
      [
        "▁na",
        -5.261043225839433
      ],
      [
        "a",
        -5.293218435779641
      ],
      [
        "▁ka",
        -5.345400195322957
      ],
      [
        "da",
        -5.355485295483228
      ],
      [
        "▁mu",
        -5.364912521820446
      ],
      [
        "▁ne",
        -5.365254180429398
      ],
      [
        "wa",
        -5.446985359928173
      ],
      [
        "▁wannan",
        -5.567696515039814
      ],
      [
        "e",
        -5.600009045920734
      ],
      [
        "▁ma",
        -5.61163883451007
      ],
      [
        "▁su",
        -5.623602565017112
      ],
      [
        "▁sai",
        -5.675905967954421
      ],
      [
        "▁kuma",
        -5.67716339503512
      ],
      [
        "▁ko",
        -5.7062692367174375
      ],
      [
        "ta",
        -5.70842409355004
      ],
      [
        "▁A",
        -5.783134162289899
      ],
      [
        "u",
        -5.809903625723362
      ],
      [
        "ka",
        -5.8458585387821955
      ],
      [
        "▁😂",
        -5.87320656932165
      ],
      [
        "▁dai",
        -5.880274221248077
      ],
      [
        "▁mana",
        -5.886256836766512
      ],
      [
        "ma",
        -5.8932722424474315
      ],
      [
        "▁Ya",
        -5.9423874804793195
      ],
      [
        "sa",
        -5.976106004353932
      ],
      [
        "▁ku",
        -5.99351591452162
      ],
      [
        "ba",
        -6.0186082594400645
      ],
      [
        "▁ga",
        -6.044668447350026
      ],
      [
        "s",
        -6.04520301776946
      ],
      [
        "▁shi",
        -6.052015523174021
      ],
      [
        "mu",
        -6.085468169474271
      ],
      [
        "su",
        -6.106639228779441
      ],
      [
        "▁yayi",
        -6.15288693403927
      ],
      [
        "😂",
        -6.1605415557489005
      ],
      [
        "▁sa",
        -6.162820668392779
      ],
      [
        "?",
        -6.209883417475669
      ],
      [
        "ce",
        -6.217136822123593
      ],
      [
        "▁nan",
        -6.221654129903676
      ],
      [
        "yi",
        -6.248013257043439
      ],
      [
        "h",
        -6.250117736346026
      ],
      [
        "▁ai",
        -6.257658346711115
      ],
      [
        "▁mai",
        -6.287632029337637
      ],
      [
        "ne",
        -6.296032563444244
      ],
      [
        "▁wani",
        -6.309292852776899
      ],
      [
        "▁Nigeria",
        -6.323557916268902
      ],
      [
        "...",
        -6.358424925399704
      ],
      [
        "!",
        -6.3664458793713115
      ],
      [
        "ya",
        -6.36755793229419
      ],
      [
        "▁Da",
        -6.380394530194313
      ],
      [
        "ki",
        -6.384373228112744
      ],
      [
        "▁yasa",
        -6.384493648021396
      ],
      [
        "▁dan",
        -6.3952472337568835
      ],
      [
        "na",
        -6.406024506951556
      ],
      [
        "▁Dan",
        -6.407761324556286
      ],
      [
        "▁din",
        -6.414606902768773
      ],
      [
        "y",
        -6.417690082109962
      ],
      [
        "▁kawai",
        -6.423760512254322
      ],
      [
        "m",
        -6.4324666967772055
      ],
      [
        "shi",
        -6.455115370873575
      ],
      [
        "▁zai",
        -6.457405141678874
      ],
      [
        "▁an",
        -6.458693392354296
      ],
      [
        "▁in",
        -6.462825987110633
      ],
      [
        "▁ki",
        -6.484749094043786
      ],
      [
        "▁yan",
        -6.4889754025601265
      ],
      [
        "▁haka",
        -6.507450001818263
      ],
      [
        "▁duk",
        -6.53452547202054
      ],
      [
        "▁wa",
        -6.556667267990991
      ],
      [
        "▁sun",
        -6.5569287766523665
      ],
      [
        "ku",
        -6.561252545253958
      ],
      [
        "▁kenan",
        -6.562554599425008
      ],
      [
        "▁kai",
        -6.565413016410239
      ],
      [
        "o",
        -6.571422556905323
      ],
      [
        "▁muna",
        -6.571786402154133
      ],
      [
        "▁ce",
        -6.586600931664176
      ],
      [
        "▁fa",
        -6.587289203917492
      ],
      [
        "▁har",
        -6.59489205050186
      ],
      [
        "▁to",
        -6.597168557607486
      ],
      [
        "▁🙏",
        -6.597200493925485
      ],
      [
        "🙏",
        -6.608329976361572
      ],
      [
        "▁Wannan",
        -6.6132473869946455
      ],
      [
        "▁amma",
        -6.6228450309272695
      ],
      [
        "▁yake",
        -6.62493377671719
      ],
      [
        "▁masu",
        -6.638266587973093
      ],
      [
        "k",
        -6.650583136089075
      ],
      [
        "▁ke",
        -6.672897322045297
      ],
      [
        "▁iya",
        -6.676742526119004
      ],
      [
        "▁Ba",
        -6.678101142118226
      ],
      [
        "▁ina",
        -6.678668875884495
      ],
      [
        "▁me",
        -6.697541217958489
      ],
      [
        "ji",
        -6.70650371230074
      ],
      [
        "▁daya",
        -6.745905160917059
      ],
      [
        "l",
        -6.751159182840575
      ],
      [
        "▁yi",
        -6.755923735358146
      ],
      [
        "▁🤔",
        -6.769453792850496
      ],
      [
        "😂😂",
        -6.770682553768099
      ],
      [
        "▁kawo",
        -6.772549420984357
      ],
      [
        "▁cikin",
        -6.783860593366113
      ],
      [
        "▁Kuma",
        -6.78881387938528
      ],
      [
        "▁idan",
        -6.79482289070728
      ],
      [
        "\"\"\"\"\"\"\"\"\"\"\"\"\"\"\"\"",
        -6.799729058345953
      ],
      [
        "t",
        -6.800114106858019
      ],
      [
        "▁Kai",
        -6.802604647443002
      ],
      [
        "▁😂😂😂",
        -6.80265037456091
      ],
      [
        "▁wlh",
        -6.804742991167431
      ],
      [
        "▁aka",
        -6.819774389139757
      ],
      [
        "▁ake",
        -6.823478203286821
      ],
      [
        "▁daga",
        -6.825988035336429
      ],
      [
        "d",
        -6.82877625474527
      ],
      [
        "ra",
        -6.829054317195149
      ],
      [
        "..",
        -6.831680145551615
      ],
      [
        "▁wai",
        -6.835049495481199
      ],
      [
        "▁allah",
        -6.83651952500466
      ],
      [
        "▁kasa",
        -6.851804016418251
      ],
      [
        "▁suka",
        -6.854373962299707
      ],
      [
        "▁yana",
        -6.8544616480224265
      ],
      [
        "ga",
        -6.86374472276952
      ],
      [
        "▁To",
        -6.8662278522376425
      ],
      [
        "▁Sai",
        -6.869439092925979
      ],
      [
        "▁irin",
        -6.874009958160032
      ],
      [
        "ci",
        -6.8795786341156475
      ],
      [
        "▁so",
        -6.891160920199008
      ],
      [
        "▁Gaskiya",
        -6.897903240923387
      ],
      [
        "▁ni",
        -6.90440744437572
      ],
      [
        "ke",
        -6.907766339434769
      ],
      [
        "▁kara",
        -6.915306706168118
      ],
      [
        "▁za",
        -6.919865744117163
      ],
      [
        "▁mun",
        -6.920162344886287
      ],
      [
        "la",
        -6.922609864662307
      ],
      [
        "▁babu",
        -6.92987174728621
      ],
      [
        "▁gaskiya",
        -6.932558005910297
      ],
      [
        "▁Ina",
        -6.9499581731814395
      ],
      [
        "▁kyau",
        -6.959757210464137
      ],
      [
        "▁😂😂",
        -6.96018642975118
      ],
      [
        "▁Na",
        -6.966196168822327
      ],
      [
        "▁shine",
        -6.976928536946975
      ],
      [
        "▁Mu",
        -6.986290056183926
      ],
      [
        "▁Amma",
        -6.988306460346608
      ],
      [
        "🤔",
        -7.017519510460097
      ],
      [
        "▁wanda",
        -7.028510724114465
      ],
      [
        "▁wata",
        -7.029648419712597
      ],
      [
        "▁yanzu",
        -7.030867694908739
      ],
      [
        "▁kowa",
        -7.033299727861103
      ],
      [
        "▁Wai",
        -7.034894563324262
      ],
      [
        "▁gaba",
        -7.043115766665196
      ],
      [
        "▁suna",
        -7.044915287205776
      ],
      [
        "🙄",
        -7.045796932732419
      ],
      [
        "▁Ai",
        -7.046674005135498
      ],
      [
        "▁♂️",
        -7.054953623237646
      ],
      [
        "▁baki",
        -7.061683489926992
      ],
      [
        "nan",
        -7.084967636186793
      ],
      [
        "▁Toh",
        -7.08968641167001
      ],
      [
        "▁suke",
        -7.091072330554138
      ],
      [
        "▁banza",
        -7.097765634860116
      ],
      [
        "re",
        -7.101359680184214
      ],
      [
        "fa",
        -7.104574586623475
      ],
      [
        "▁duniya",
        -7.117153997549349
      ],
      [
        "😂😂😂",
        -7.123594933304447
      ],
      [
        "▁I",
        -7.126695655863621
      ],
      [
        "▁BBC",
        -7.128650623458279
      ],
      [
        "▁ana",
        -7.131057355802904
      ],
      [
        "▁kashe",
        -7.138965669169143
      ],
      [
        "▁masa",
        -7.145821258534212
      ],
      [
        "▁#",
        -7.152737741271718
      ],
      [
        "▁baya",
        -7.153847478363462
      ],
      [
        "▁abin",
        -7.162778527214672
      ],
      [
        "▁dama",
        -7.165663714601421
      ],
      [
        "▁fara",
        -7.172618323150261
      ],
      [
        "w",
        -7.201812824060433
      ],
      [
        "▁basu",
        -7.2031324704893605
      ],
      [
        "▁Mai",
        -7.207791888696487
      ],
      [
        "fi",
        -7.221508884943944
      ],
      [
        "▁akwai",
        -7.2227564056100935
      ],
      [
        "b",
        -7.228549209711808
      ],
      [
        "▁lafiya",
        -7.232981344021161
      ],
      [
        "▁mutane",
        -7.233775300248502
      ],
      [
        "▁Ka",
        -7.235771018370924
      ],
      [
        "ni",
        -7.240056596931873
      ],
      [
        "▁rahama",
        -7.2421016512247345
      ],
      [
        "▁kuwa",
        -7.252198970331161
      ],
      [
        "▁sha",
        -7.253256776092658
      ],
      [
        "▁Buhari",
        -7.257621169269144
      ],
      [
        "▁samu",
        -7.275125026614925
      ],
      [
        "▁abun",
        -7.275317446913766
      ],
      [
        "🤣",
        -7.282494025037994
      ],
      [
        "A",
        -7.284696345512883
      ],
      [
        "dai",
        -7.285932437692807
      ],
      [
        "▁Ko",
        -7.287004149803449
      ],
      [
        "▁Ni",
        -7.287166722158978
      ],
      [
        "....",
        -7.291178876831527
      ],
      [
        "g",
        -7.300197970849325
      ],
      [
        "▁ALLAH",
        -7.301155600658042
      ],
      [
        "▁musu",
        -7.305370004567781
      ],
      [
        "je",
        -7.306365298326332
      ],
      [
        "▁kun",
        -7.320130899228843
      ],
      [
        "▁Rahama",
        -7.326096209109819
      ],
      [
        "▁kasar",
        -7.326492894381175
      ],
      [
        "▁🇳🇬",
        -7.338844065765602
      ],
      [
        "ye",
        -7.343238408651928
      ],
      [
        "▁ji",
        -7.34529988355837
      ],
      [
        "p",
        -7.346834966245714
      ],
      [
        "▁kudin",
        -7.347309678461819
      ],
      [
        "▁akan",
        -7.347365776565669
      ],
      [
        "▁ci",
        -7.348348950195117
      ],
      [
        "😎",
        -7.349094315447643
      ],
      [
        "▁mata",
        -7.3506480943042884
      ],
      [
        "▁kin",
        -7.354788199751283
      ],
      [
        "▁saka",
        -7.356936182090017
      ],
      [
        "▁bamu",
        -7.360130196762478
      ],
      [
        "▁gani",
        -7.361300023299717
      ],
      [
        "▁kamar",
        -7.361391549032652
      ],
      [
        "▁Ku",
        -7.365484988434591
      ],
      [
        "▁Ameen",
        -7.365680304960784
      ],
      [
        "min",
        -7.3659620119731954
      ],
      [
        "▁sabo",
        -7.370594091180315
      ],
      [
        "▁Dama",
        -7.374775552648072
      ],
      [
        "▁d",
        -7.379168595098626
      ],
      [
        "▁bai",
        -7.382447647107411
      ],
      [
        "▁yau",
        -7.384267434746814
      ],
      [
        "▁bane",
        -7.401513226293907
      ],
      [
        "▁domin",
        -7.406204622777126
      ],
      [
        "▁don",
        -7.406695704788816
      ],
      [
        "▁Ta",
        -7.4082712298264966
      ],
      [
        "▁😭",
        -7.4093539546608245
      ],
      [
        "kuma",
        -7.411243575380062
      ],
      [
        "▁abinda",
        -7.417848693228796
      ],
      [
        "ing",
        -7.420028430169883
      ],
      [
        "😏",
        -7.421422907152942
      ],
      [
        "😭",
        -7.424629379237072
      ],
      [
        "ri",
        -7.427772330862254
      ],
      [
        "▁kudi",
        -7.438441059071025
      ],
      [
        "mi",
        -7.450572054716721
      ],
      [
        "▁shiga",
        -7.452761936883615
      ],
      [
        "▁zuwa",
        -7.456500758603414
      ],
      [
        "▁mutum",
        -7.4570822045575476
      ],
      [
        "▁ita",
        -7.457221022355098
      ],
      [
        "▁cewa",
        -7.464546077317639
      ],
      [
        "f",
        -7.467711426143546
      ],
      [
        "▁the",
        -7.470231690050761
      ],
      [
        "▁you",
        -7.472058039286644
      ],
      [
        "▁Shi",
        -7.473736923339514
      ],
      [
        "▁ruwa",
        -7.474201002540684
      ],
      [
        "▁wallahi",
        -7.477191454835596
      ],
      [
        "▁Muna",
        -7.478315740109545
      ],
      [
        "c",
        -7.486141759633215
      ],
      [
        "▁hakan",
        -7.487989784504617
      ],
      [
        "▁ciki",
        -7.496316809208331
      ],
      [
        "▁is",
        -7.498218030854737
      ],
      [
        "▁buhari",
        -7.504184513001393
      ],
      [
        "▁ayi",
        -7.504188827871407
      ],
      [
        "'",
        -7.504350668866123
      ],
      [
        "mana",
        -7.508490298274114
      ],
      [
        "▁sarki",
        -7.509094932767263
      ],
      [
        "in",
        -7.5134287481063975
      ],
      [
        "S",
        -7.514424433911623
      ],
      [
        "▁kuka",
        -7.520675254067881
      ],
      [
        "▁kare",
        -7.521277846983686
      ],
      [
        "▁kam",
        -7.521728188648583
      ],
      [
        "▁karya",
        -7.522856994524882
      ],
      [
        "▁hankali",
        -7.5230409919354395
      ],
      [
        "▁fada",
        -7.523566703742301
      ],
      [
        "▁yafi",
        -7.524850237906231
      ],
      [
        "▁gida",
        -7.531371537669943
      ],
      [
        "▁bata",
        -7.538177071764275
      ],
      [
        "▁take",
        -7.5386295959516465
      ],
      [
        "▁y",
        -7.539354946907081
      ],
      [
        "▁san",
        -7.5405196653704785
      ],
      [
        "▁Su",
        -7.541475306968964
      ],
      [
        "▁yadda",
        -7.542466457062066
      ],
      [
        "▁koma",
        -7.544851674826732
      ],
      [
        "▁Ga",
        -7.5463200977895
      ],
      [
        "le",
        -7.547278641833859
      ],
      [
        "▁Ma",
        -7.556601683277254
      ],
      [
        "▁🙄",
        -7.561156114246057
      ],
      [
        "▁An",
        -7.561561359623048
      ],
      [
        "I",
        -7.564588485110954
      ],
      [
        "▁😎",
        -7.5654236073712475
      ],
      [
        "▁ganin",
        -7.566751808706693
      ],
      [
        "▁tayi",
        -7.569531942442706
      ],
      [
        "▁inda",
        -7.569694115206144
      ],
      [
        "▁magana",
        -7.582145109043409
      ],
      [
        "ko",
        -7.582594120659588
      ],
      [
        "▁son",
        -7.5839851290579
      ],
      [
        "▁be",
        -7.5858658293523895
      ],
      [
        "-",
        -7.588209631024875
      ],
      [
        "▁zasu",
        -7.588664909815418
      ],
      [
        "▁zamu",
        -7.589498295767198
      ],
      [
        "▁gidan",
        -7.590291479941879
      ],
      [
        "😁",
        -7.591423248500969
      ],
      [
        "▁kyauta",
        -7.5996350288703995
      ],
      [
        "▁Idan",
        -7.60016398511645
      ],
      [
        "▁taba",
        -7.607076963588902
      ],
      [
        "▁se",
        -7.6122430923966125
      ],
      [
        "▁dole",
        -7.615133667441135
      ],
      [
        "▁Duk",
        -7.616321988813785
      ],
      [
        "▁muke",
        -7.626857888602707
      ],
      [
        "😅",
        -7.62769785959311
      ],
      [
        "▁kana",
        -7.632614548774672
      ],
      [
        "▁of",
        -7.63641731694186
      ],
      [
        "▁ba,",
        -7.640344223286199
      ],
      [
        "an",
        -7.642405707658955
      ],
      [
        "▁komai",
        -7.642624125391866
      ],
      [
        "▁bayan",
        -7.657596506104146
      ],
      [
        "▁wasu",
        -7.658989165640024
      ],
      [
        "▁Yan",
        -7.660653974689904
      ],
      [
        "▁zama",
        -7.664835652500958
      ],
      [
        "🤲",
        -7.666039006012317
      ],
      [
        "▁fi",
        -7.667493265484593
      ],
      [
        "G",
        -7.6692073826812415
      ],
      [
        "▁kuke",
        -7.669796686870853
      ],
      [
        "de",
        -7.671955325210869
      ],
      [
        "li",
        -7.672928433051359
      ],
      [
        "R",
        -7.675089304678513
      ],
      [
        "z",
        -7.675296872247123
      ],
      [
        "🤣🤣",
        -7.678259059286985
      ],
      [
        "▁S",
        -7.678270183900605
      ],
      [
        "▁karshen",
        -7.683036922173765
      ],
      [
        "▁baba",
        -7.6850790282606924
      ],
      [
        "▁🤣",
        -7.685436573396003
      ],
      [
        "N",
        -7.688080488892099
      ],
      [
        "me",
        -7.6884329118695325
      ],
      [
        "▁film",
        -7.695237591369163
      ],
      [
        "▁aiki",
        -7.696063881869359
      ],
      [
        "▁kan",
        -7.701640165197052
      ],
      [
        "▁kamata",
        -7.702052902620951
      ],
      [
        "▁yin",
        -7.705142970861024
      ],
      [
        "▁rashin",
        -7.707819885354178
      ],
      [
        "▁Masha",
        -7.7137967278466615
      ],
      [
        "▁baka",
        -7.714019070579287
      ],
      [
        "▁dashi",
        -7.714334592257714
      ],
      [
        "▁aikin",
        -7.714512643758218
      ],
      [
        "rin",
        -7.720635593318383
      ],
      [
        "▁abu",
        -7.721914548959726
      ],
      [
        "▁Baba",
        -7.722226417638123
      ],
      [
        "▁kano",
        -7.724617226285633
      ],
      [
        "▁zaman",
        -7.72861935986665
      ],
      [
        "▁dadi",
        -7.733310162829673
      ],
      [
        "▁zan",
        -7.735488111238997
      ],
      [
        "▁🤲",
        -7.745913372251647
      ],
      [
        "▁tunda",
        -7.750054229896683
      ],
      [
        "di",
        -7.752901295715189
      ],
      [
        ":",
        -7.754593763053364
      ],
      [
        "▁bashi",
        -7.75499077471749
      ],
      [
        "L",
        -7.757780391703303
      ],
      [
        "so",
        -7.757956153429967
      ],
      [
        "▁biya",
        -7.760967183701089
      ],
      [
        "T",
        -7.763030783516709
      ],
      [
        "▁😁",
        -7.7631538346961415
      ],
      [
        "kin",
        -7.76404279141502
      ],
      [
        "zo",
        -7.7654751903092265
      ],
      [
        "bi",
        -7.770336688541362
      ],
      [
        "▁kayi",
        -7.770969197319856
      ],
      [
        "'a",
        -7.77740005948255
      ],
      [
        "▁isa",
        -7.781206062459025
      ],
      [
        "▁kama",
        -7.786892087732467
      ],
      [
        "▁😭😭😭",
        -7.789393700150301
      ],
      [
        "▁kuna",
        -7.793749487588005
      ],
      [
        "▁In",
        -7.800121558897307
      ],
      [
        "▁uban",
        -7.800325723701221
      ],
      [
        "▁Wa",
        -7.801924072401544
      ],
      [
        "▁kina",
        -7.803904819560403
      ],
      [
        "ha",
        -7.808509526739859
      ],
      [
        "▁Sa",
        -7.811220500542145
      ],
      [
        "▁abunda",
        -7.8147327536475615
      ],
      [
        "👌",
        -7.817662077596639
      ],
      [
        "▁arewa",
        -7.819709211496888
      ],
      [
        "▁zata",
        -7.821174302187628
      ],
      [
        "▁Ana",
        -7.82268152164014
      ],
      [
        ")",
        -7.823878124113622
      ],
      [
        "nda",
        -7.826076462440791
      ],
      [
        "v",
        -7.831897353664282
      ],
      [
        "▁maganar",
        -7.835860787774945
      ],
      [
        "M",
        -7.841482178867781
      ],
      [
        "▁bada",
        -7.842696050814219
      ],
      [
        "😭😭",
        -7.8482335140408575
      ],
      [
        "▁kar",
        -7.849421444374047
      ],
      [
        "x",
        -7.849546084757421
      ],
      [
        "▁ba.",
        -7.8556328865781655
      ],
      [
        "▁anyi",
        -7.855861404856642
      ],
      [
        "▁🤣🤣🤣",
        -7.858170166661953
      ],
      [
        "▁T",
        -7.8600097524935535
      ],
      [
        "▁yakara",
        -7.861030439560809
      ],
      [
        "H",
        -7.863520434235048
      ],
      [
        "▁😏",
        -7.8730145125926585
      ],
      [
        "▁jin",
        -7.874099966052061
      ],
      [
        "san",
        -7.8753522342639215
      ],
      [
        "▁bah",
        -7.879665208817119
      ],
      [
        "sha",
        -7.881504367667043
      ],
      [
        "▁cin",
        -7.882216752295773
      ],
      [
        "cin",
        -7.884038076427398
      ],
      [
        "▁maka",
        -7.889086847159033
      ],
      [
        "▁ace",
        -7.8899610398998155
      ],
      [
        "ja",
        -7.894280972056648
      ],
      [
        "j",
        -7.894942262402962
      ],
      [
        "ge",
        -7.895212373909789
      ],
      [
        "▁toh",
        -7.8973750616128715
      ],
      [
        "▁baku",
        -7.899577179874748
      ],
      [
        "▁yace",
        -7.902741250666377
      ],
      [
        "▁dawo",
        -7.903607313311262
      ],
      [
        "q",
        -7.906092476002542
      ],
      [
        "O",
        -7.914705148134534
      ],
      [
        "▁Wallahi",
        -7.918118228444473
      ],
      [
        "ll",
        -7.920487358441448
      ],
      [
        "to",
        -7.920606708098125
      ],
      [
        "▁mutu",
        -7.9206573024338125
      ],
      [
        "▁tare",
        -7.921886233618807
      ],
      [
        "😢",
        -7.924016640553357
      ],
      [
        "▁🤣🤣",
        -7.925808136287166
      ],
      [
        "▁ruwan",
        -7.933539374673215
      ],
      [
        "B",
        -7.935082299805764
      ],
      [
        "😭😭😭",
        -7.935873320961681
      ],
      [
        "▁jikan",
        -7.937324930104036
      ],
      [
        "ti",
        -7.937446592605396
      ],
      [
        "D",
        -7.9389294475314784
      ],
      [
        "▁bakin",
        -7.939004831727444
      ],
      [
        "▁Wanda",
        -7.939715215416398
      ],
      [
        "▁fatan",
        -7.94219390415157
      ],
      [
        "▁kunya",
        -7.942562705979975
      ],
      [
        "U",
        -7.942727883445958
      ],
      [
        "C",
        -7.944450186720962
      ],
      [
        "▁yawa",
        -7.944699719432356
      ],
      [
        "za",
        -7.955051245230261
      ],
      [
        "▁shugaban",
        -7.956996931936283
      ],
      [
        "▁Kano",
        -7.959094531295714
      ],
      [
        "▁tafi",
        -7.959149166158035
      ],
      [
        "😀",
        -7.961321928324979
      ],
      [
        "ar",
        -7.963982339474019
      ],
      [
        "▁ubangiji",
        -7.968850641809549
      ],
      [
        "▁sani",
        -7.970373226154705
      ],
      [
        "▁nuna",
        -7.972800278237354
      ],
      [
        "▁bi",
        -7.977417698460208
      ],
      [
        "▁yanxu",
        -7.98025430533135
      ],
      [
        "F",
        -7.98045992988503
      ],
      [
        "yar",
        -7.9848648573758165
      ],
      [
        "▁Hausa",
        -7.985920945905453
      ],
      [
        "▁tana",
        -7.987090269891029
      ],
      [
        "▁Wlh",
        -7.987541702267964
      ],
      [
        "▁damu",
        -7.992846264257532
      ],
      [
        "▁Mana",
        -7.993017402989752
      ],
      [
        "▁wuta",
        -8.001225647299433
      ],
      [
        "▁wajen",
        -8.002435014505409
      ],
      [
        "▁daukaka",
        -8.002648925248465
      ],
      [
        "😡",
        -8.004971057490344
      ],
      [
        "▁Kara",
        -8.006701021803988
      ],
      [
        "▁Ki",
        -8.008788625700682
      ],
      [
        "man",
        -8.009950185907229
      ],
      [
        "▁za'a",
        -8.009989554854169
      ],
      [
        "do",
        -8.015448405504099
      ],
      [
        "▁maganin",
        -8.017908015379385
      ],
      [
        "K",
        -8.022450976971875
      ],
      [
        "▁min",
        -8.023622219345228
      ],
      [
        "▁fah",
        -8.025583638492808
      ],
      [
        "▁tun",
        -8.026682966697102
      ],
      [
        "▁lokacin",
        -8.029050994936874
      ],
      [
        "ru",
        -8.033042166130087
      ],
      [
        "🙏🙏🙏",
        -8.035576146269456
      ],
      [
        "▁talaka",
        -8.036490480986973
      ],
      [
        "▁dasu",
        -8.038020150464092
      ],
      [
        "ro",
        -8.040198462878347
      ],
      [
        "▁taya",
        -8.040899347577273
      ],
      [
        "bo",
        -8.04189600662215
      ],
      [
        "▁dauki",
        -8.04500591824658
      ],
      [
        "▁sosai",
        -8.046297314147367
      ],
      [
        "▁can",
        -8.046719624558488
      ],
      [
        "▁dake",
        -8.050080717323766
      ],
      [
        "▁uwar",
        -8.052314058005205
      ],
      [
        "▁basira",
        -8.054920950317648
      ],
      [
        "war",
        -8.056136501332933
      ],
      [
        "▁mulkin",
        -8.056222701568451
      ],
      [
        "▁B",
        -8.056235769632215
      ],
      [
        "▁miki",
        -8.057549294225819
      ],
      [
        "▁Har",
        -8.057553041277803
      ],
      [
        "▁my",
        -8.05756766014743
      ],
      [
        "▁😢",
        -8.059910760318616
      ],
      [
        "▁Ha",
        -8.060981260105494
      ],
      [
        "▁kaji",
        -8.062208447596447
      ],
      [
        "3",
        -8.062875123468324
      ],
      [
        "@user",
        -8.064618503256156
      ],
      [
        "▁Sarki",
        -8.066365460867807
      ],
      [
        "bu",
        -8.066935569099037
      ],
      [
        "🙏🙏",
        -8.068198220254061
      ],
      [
        "▁gari",
        -8.068261539199163
      ],
      [
        "▁wadan",
        -8.069967813321107
      ],
      [
        "▁zaku",
        -8.071702579145139
      ],
      [
        "▁zaka",
        -8.073554786459303
      ],
      [
        "▁M",
        -8.075345039445192
      ],
      [
        "▁ban",
        -8.076319086863215
      ],
      [
        "▁and",
        -8.078136858270959
      ],
      [
        "▁👌",
        -8.078274331598687
      ],
      [
        "she",
        -8.07868239673084
      ],
      [
        "▁talakawa",
        -8.08067198192369
      ],
      [
        "▁😂😂😂😂",
        -8.083170889445807
      ],
      [
        "▁kace",
        -8.083510611941787
      ],
      [
        "▁Yau",
        -8.08371627432468
      ],
      [
        "▁hada",
        -8.084893129968265
      ],
      [
        "▁la",
        -8.090906583552268
      ],
      [
        "J",
        -8.091847885120224
      ],
      [
        "!!",
        -8.09647795230742
      ],
      [
        "▁albarka",
        -8.09970388843391
      ],
      [
        "ed",
        -8.099830842619225
      ],
      [
        "▁hakuri",
        -8.101159726112215
      ],
      [
        "gi",
        -8.101949037630886
      ],
      [
        "0",
        -8.102428433166772
      ],
      [
        "▁for",
        -8.105869468713959
      ],
      [
        "W",
        -8.112129862514225
      ],
      [
        "▁sauran",
        -8.112863413629565
      ],
      [
        "👍",
        -8.112899909840662
      ],
      [
        "▁kallo",
        -8.114596532197266
      ],
      [
        "▁ranar",
        -8.11624969401079
      ],
      [
        "▁😀",
        -8.118735885458388
      ],
      [
        "!!!",
        -8.121004538695793
      ],
      [
        "▁Akwai",
        -8.126005272517546
      ],
      [
        "▁amfani",
        -8.128253267857023
      ],
      [
        "▁koh",
        -8.129700964405536
      ],
      [
        "▁raba",
        -8.12987679145164
      ],
      [
        "▁naga",
        -8.130512669318339
      ],
      [
        "😥",
        -8.13580884334441
      ],
      [
        "▁cika",
        -8.136623942085055
      ],
      [
        "▁qara",
        -8.139385503485943
      ],
      [
        "Y",
        -8.139535447466573
      ],
      [
        "▁neman",
        -8.139855048905538
      ],
      [
        "▁Amin",
        -8.145848371211397
      ],
      [
        "Z",
        -8.147233946225738
      ],
      [
        "▁alkhairi",
        -8.150174189602133
      ],
      [
        "▁(",
        -8.151344657952626
      ],
      [
        "▁Najeriya",
        -8.151473892269472
      ],
      [
        "lo",
        -8.15543730947428
      ],
      [
        "▁😅",
        -8.156002437326073
      ],
      [
        "▁gudu",
        -8.156256302646
      ],
      [
        "😍",
        -8.157799931675864
      ],
      [
        "1",
        -8.157950527429154
      ],
      [
        "▁b",
        -8.158007685968963
      ],
      [
        "▁neh",
        -8.158895328536918
      ],
      [
        "▁mutanen",
        -8.160173233873987
      ],
      [
        "6",
        -8.162237860108718
      ],
      [
        "▁kwana",
        -8.163302081567561
      ],
      [
        "▁ba'a",
        -8.163701022338415
      ],
      [
        "▁gama",
        -8.166704604507892
      ],
      [
        "▁🙏🙏",
        -8.166732424701255
      ],
      [
        "▁muka",
        -8.167292446257076
      ],
      [
        "fara",
        -8.167463299921923
      ],
      [
        "nci",
        -8.168937404624167
      ],
      [
        "P",
        -8.173365365066633
      ],
      [
        "▁Innalillahi",
        -8.175063939074173
      ],
      [
        "▁nake",
        -8.175327628372333
      ],
      [
        "▁tsaro",
        -8.17772999225906
      ],
      [
        "▁Ke",
        -8.17784713390013
      ],
      [
        "ly",
        -8.178612238752052
      ],
      [
        "▁Kaji",
        -8.179098933403573
      ],
      [
        "▁nawa",
        -8.180639001489716
      ],
      [
        "▁wllh",
        -8.181603343458823
      ],
      [
        "😒",
        -8.184401888098082
      ],
      [
        "5",
        -8.185250774671053
      ],
      [
        "▁hausa",
        -8.188394029951272
      ],
      [
        "4",
        -8.189729522037375
      ],
      [
        "nki",
        -8.190235296929181
      ],
      [
        "▁hana",
        -8.190525637642851
      ],
      [
        "▁dadin",
        -8.191391458897419
      ],
      [
        "kai",
        -8.191628658538223
      ],
      [
        "9",
        -8.191904124184424
      ],
      [
        "yan",
        -8.192770335257418
      ],
      [
        "▁muku",
        -8.199540139949214
      ],
      [
        "mai",
        -8.200625993776912
      ],
      [
        "▁lfy",
        -8.200664863483588
      ],
      [
        "▁ikon",
        -8.204970988426407
      ],
      [
        "▁de",
        -8.207017802838084
      ],
      [
        "▁kaga",
        -8.20725467550757
      ],
      [
        "▁https://t.co/",
        -8.213180967644004
      ],
      [
        "▁Ubangiji",
        -8.213773777633408
      ],
      [
        "▁sadau",
        -8.215139671430139
      ],
      [
        "▁Babu",
        -8.21522764087075
      ],
      [
        "▁taimaka",
        -8.215353015487786
      ],
      [
        "▁sallah",
        -8.21557418589715
      ],
      [
        "▁yaushe",
        -8.21569199666088
      ],
      [
        "▁👍",
        -8.218994611838273
      ],
      [
        "nta",
        -8.223459664012852
      ],
      [
        "mo",
        -8.22376662075639
      ],
      [
        "▁tsare",
        -8.225629358271807
      ],
      [
        "8",
        -8.226830152104954
      ],
      [
        "▁yakamata",
        -8.227726591549732
      ],
      [
        "▁aure",
        -8.228893363603518
      ],
      [
        "▁malam",
        -8.236672865227126
      ],
      [
        "▁gafarta",
        -8.240827409228963
      ],
      [
        "▁San",
        -8.242716056677157
      ],
      [
        "tar",
        -8.242892697732735
      ],
      [
        "💔",
        -8.24386347476566
      ],
      [
        "▁ha",
        -8.243910540084757
      ],
      [
        "ai",
        -8.24571061116319
      ],
      [
        "▁yafe",
        -8.249575077384078
      ],
      [
        "▁s",
        -8.25058696158934
      ],
      [
        "Q",
        -8.253325941522114
      ],
      [
        "▁dauka",
        -8.254001136120104
      ],
      [
        "▁Me",
        -8.255587700741911
      ],
      [
        "bar",
        -8.257503079190636
      ],
      [
        "▁Ashe",
        -8.258027103294253
      ],
      [
        "▁Haba",
        -8.258185923604252
      ],
      [
        "▁iska",
        -8.258789916605311
      ],
      [
        "▁Malam",
        -8.262518238468987
      ],
      [
        "▁zaki",
        -8.263280066344429
      ],
      [
        "▁namu",
        -8.267016184081886
      ],
      [
        "▁Yana",
        -8.267034873953659
      ],
      [
        "▁Annabi",
        -8.268223437373369
      ],
      [
        "du",
        -8.268606090221056
      ],
      [
        "2",
        -8.269001969835912
      ],
      [
        "▁Saboda",
        -8.269041832925268
      ],
      [
        "▁nayi",
        -8.269478295705138
      ],
      [
        "nsa",
        -8.27038455766882
      ],
      [
        "be",
        -8.271364043506265
      ],
      [
        "▁matsala",
        -8.273687279662859
      ],
      [
        "chi",
        -8.275032468402287
      ],
      [
        "una",
        -8.27558504303189
      ],
      [
        "▁Don",
        -8.275700766950802
      ],
      [
        ".....",
        -8.276756833959059
      ],
      [
        "▁yarda",
        -8.278618312069078
      ],
      [
        "_",
        -8.282292120787487
      ],
      [
        "▁halin",
        -8.284287156300753
      ],
      [
        "▁😭😭",
        -8.285205603743993
      ],
      [
        "▁biyu",
        -8.285351348235697
      ],
      [
        "gu",
        -8.285375576081716
      ],
      [
        "▁bar",
        -8.287405948395202
      ],
      [
        "▁wahala",
        -8.287630756330863
      ],
      [
        "▁kafin",
        -8.288718958178118
      ],
      [
        "▁hannu",
        -8.293293931396956
      ],
      [
        "”",
        -8.295772070562744
      ],
      [
        "▁ra",
        -8.296202656954662
      ],
      [
        "▁Za",
        -8.296893065341933
      ],
      [
        "▁duba",
        -8.297527590765164
      ],
      [
        "▁bu",
        -8.298444040611145
      ],
      [
        "st",
        -8.299895942489002
      ],
      [
        "🤷",
        -8.307491907856015
      ],
      [
        "▁al",
        -8.30814040574587
      ],
      [
        "▁kika",
        -8.312248299132593
      ],
      [
        "🏻",
        -8.31250174005083
      ],
      [
        "▁DA",
        -8.314520197749207
      ],
      [
        "▁'yan",
        -8.314983320350983
      ],
      [
        "??",
        -8.317625968151589
      ],
      [
        "▁kadai",
        -8.319508326142772
      ],
      [
        "▁go",
        -8.32004389140217
      ],
      [
        "▁?",
        -8.323810634201386
      ],
      [
        "hi",
        -8.324102510783536
      ],
      [
        "▁labarin",
        -8.325134979087899
      ],
      [
        "▁love",
        -8.32577930640739
      ],
      [
        "💯",
        -8.3265014199958
      ],
      [
        "▁kada",
        -8.32929715512752
      ],
      [
        "▁sauki",
        -8.329811196014134
      ],
      [
        "▁cigaba",
        -8.330956559471511
      ],
      [
        "▁gane",
        -8.331322889267444
      ],
      [
        "▁W",
        -8.33176213382825
      ],
      [
        "▁hanya",
        -8.332393024935385
      ],
      [
        "▁shekara",
        -8.333008640008064
      ],
      [
        "E",
        -8.333857074140594
      ],
      [
        "7",
        -8.335998137041269
      ],
      [
        "▁2",
        -8.33621123818522
      ],
      [
        "▁mulki",
        -8.339003532797571
      ],
      [
        "X",
        -8.339355610611324
      ],
      [
        "▁shirin",
        -8.339470971672705
      ],
      [
        "▁kwa",
        -8.339479380012973
      ],
      [
        "▁akayi",
        -8.340091361920877
      ],
      [
        "😄",
        -8.340662601787054
      ],
      [
        "▁nigeria",
        -8.341120732595243
      ],
      [
        "▁Arewa",
        -8.341683813405485
      ],
      [
        "▁ameen",
        -8.341905728593925
      ],
      [
        "▁rayuwa",
        -8.342765773898723
      ],
      [
        "yya",
        -8.34725461378216
      ],
      [
        "▁waye",
        -8.349041188152231
      ],
      [
        "▁Nan",
        -8.35096482232996
      ],
      [
        "🙄🙄",
        -8.353809601096827
      ],
      [
        "▁bani",
        -8.354850777503948
      ],
      [
        "▁annabi",
        -8.355874156350938
      ],
      [
        "▁Lallai",
        -8.35594753797903
      ],
      [
        "▁uwa",
        -8.356492074868484
      ],
      [
        "yo",
        -8.357839982339073
      ],
      [
        "🤣🤣🤣",
        -8.363756501854766
      ],
      [
        "kan",
        -8.365741407270068
      ],
      [
        "▁kayan",
        -8.367429050761068
      ],
      [
        "▁Hmm",
        -8.37002078405371
      ],
      [
        "▁Rahma",
        -8.3712460505159
      ],
      [
        "▁G",
        -8.371631809224859
      ],
      [
        "go",
        -8.373386210427986
      ],
      [
        "▁So",
        -8.375448614534662
      ],
      [
        "▁Sha",
        -8.375733421315125
      ],
      [
        "Allah",
        -8.379137772961695
      ],
      [
        "▁gwamnati",
        -8.379904891693641
      ],
      [
        "😃",
        -8.381504052323564
      ],
      [
        "▁anan",
        -8.382313131761599
      ],
      [
        "▁Sun",
        -8.384437935389986
      ],
      [
        "▁gashi",
        -8.3874418146567
      ],
      [
        "▁yaji",
        -8.390361726214946
      ],
      [
        "▁H",
        -8.390866270878298
      ],
      [
        "▁yakawo",
        -8.391224097349046
      ],
      [
        "un",
        -8.391872372681284
      ],
      [
        "▁we",
        -8.392890729226124
      ],
      [
        "▁ja",
        -8.39334901119542
      ],
      [
        "▁🤔🤔",
        -8.396621799449997
      ],
      [
        "lu",
        -8.397396604289131
      ],
      [
        "▁manta",
        -8.399597448481988
      ],
      [
        "▁😍",
        -8.400078258917825
      ],
      [
        "▁mamaki",
        -8.402847683851373
      ],
      [
        "▁Yayi",
        -8.406562719755557
      ],
      [
        "▁kike",
        -8.407573287776316
      ],
      [
        "▁imani",
        -8.410110028310992
      ],
      [
        "▁👏",
        -8.410663966363973
      ],
      [
        "▁girma",
        -8.411265304932474
      ],
      [
        "👏",
        -8.412931100572816
      ],
      [
        "▁k",
        -8.414586574138628
      ],
      [
        "▁😡",
        -8.414851201665204
      ],
      [
        "▁gaske",
        -8.41568357477022
      ],
      [
        "▁t",
        -8.417035309346833
      ],
      [
        "▁fito",
        -8.418412528012336
      ],
      [
        "▁gyara",
        -8.419034082955566
      ],
      [
        "▁Wato",
        -8.420035550123654
      ],
      [
        "▁musulmi",
        -8.425077154375769
      ],
      [
        "▁ne?",
        -8.426502919910241
      ],
      [
        "▁kusa",
        -8.427774267771934
      ],
      [
        "▁daidai",
        -8.428565047533581
      ],
      [
        "▁dariya",
        -8.43035848262512
      ],
      [
        "▁are",
        -8.43060737432665
      ],
      [
        "▁tambaya",
        -8.4307649124258
      ],
      [
        "▁tsoron",
        -8.43083828211278
      ],
      [
        "▁♀️",
        -8.435027289988804
      ],
      [
        "▁sbd",
        -8.435289392020387
      ],
      [
        "🙌",
        -8.437534090965908
      ],
      [
        "▁sama",
        -8.44097222567203
      ],
      [
        "▁bazai",
        -8.442404532031645
      ],
      [
        "▁Mun",
        -8.444664228011595
      ],
      [
        "▁siyasa",
        -8.446634923516811
      ],
      [
        "nmu",
        -8.446914386595745
      ],
      [
        "▁Abu",
        -8.450554468692996
      ],
      [
        "▁corona",
        -8.451926645540894
      ],
      [
        "▁Kawai",
        -8.452547071965604
      ],
      [
        "▁Daga",
        -8.453235761343176
      ],
      [
        "si",
        -8.455013996161268
      ],
      [
        "▁kasan",
        -8.45557782137397
      ],
      [
        "😊",
        -8.457114402989536
      ],
      [
        "▁wanan",
        -8.458424252630255
      ],
      [
        "▁Mata",
        -8.458997736427614
      ],
      [
        "▁wasa",
        -8.460050368732848
      ],
      [
        "▁muyi",
        -8.46111841620612
      ],
      [
        "▁samun",
        -8.46137289420988
      ],
      [
        "▁U",
        -8.46408517189608
      ],
      [
        "▁yar",
        -8.466154295543248
      ],
      [
        "▁sake",
        -8.467393139193685
      ],
      [
        "▁suyi",
        -8.468338399570687
      ],
      [
        "▁Abun",
        -8.469462342691791
      ],
      [
        "😂😂😂😂",
        -8.46956525050599
      ],
      [
        "▁wanke",
        -8.4707000137842
      ],
      [
        "▁“",
        -8.471959648721947
      ],
      [
        "▁mutuwa",
        -8.473219172101912
      ],
      [
        "▁sannan",
        -8.473308056729199
      ],
      [
        "▁babban",
        -8.473674272510062
      ],
      [
        "▁labari",
        -8.479154850449559
      ],
      [
        "▁acikin",
        -8.48189140572357
      ],
      [
        "▁shima",
        -8.482911989250194
      ],
      [
        "▁yazo",
        -8.485139608567
      ],
      [
        "▁1",
        -8.485309888634117
      ],
      [
        "▁K",
        -8.485526638134079
      ],
      [
        "▁rai",
        -8.486228455875114
      ],
      [
        "kam",
        -8.486361510162881
      ],
      [
        "▁like",
        -8.486692972274358
      ],
      [
        "▁bawa",
        -8.490442444279273
      ],
      [
        "▁ne,",
        -8.49099223253506
      ],
      [
        "▁3",
        -8.492178117669264
      ],
      [
        "▁daban",
        -8.49363993462742
      ],
      [
        "▁sunan",
        -8.495631445335807
      ],
      [
        "▁naka",
        -8.499071688951044
      ],
      [
        "▁😊",
        -8.499494851096372
      ],
      [
        "▁kallon",
        -8.501993464940442
      ],
      [
        "▁this",
        -8.503660996983978
      ],
      [
        "▁gsky",
        -8.504246663051578
      ],
      [
        "▁Duniya",
        -8.50456837864104
      ],
      [
        "▁kullum",
        -8.504671288854325
      ],
      [
        "▁🙏🙏🙏",
        -8.5054763318306
      ],
      [
        "▁wuce",
        -8.507068488335502
      ],
      [
        "▁man",
        -8.507686911953716
      ],
      [
        "▁wato",
        -8.509464819496056
      ],
      [
        "che",
        -8.510433201783641
      ],
      [
        "▁muma",
        -8.514158213987013
      ],
      [
        "’",
        -8.517028329710913
      ],
      [
        "️",
        -8.520536459767062
      ],
      [
        "▁Gsky",
        -8.521517001018097
      ],
      [
        "🤗",
        -8.52493238744363
      ],
      [
        "V",
        -8.525482753182512
      ],
      [
        "nnan",
        -8.527825703676463
      ],
      [
        "▁yaci",
        -8.527865505307773
      ],
      [
        "▁bari",
        -8.528897359626518
      ],
      [
        "▁daina",
        -8.52927432170815
      ],
      [
        "▁Ne",
        -8.531079070243301
      ],
      [
        "▁mi",
        -8.532479982986478
      ],
      [
        "▁YA",
        -8.534213006269606
      ],
      [
        "▁nasan",
        -8.534679118208954
      ],
      [
        "ho",
        -8.535738834461174
      ],
      [
        "▁xa",
        -8.539285122296228
      ],
      [
        "▁wane",
        -8.539312046796844
      ],
      [
        "▁do",
        -8.539630926375954
      ],
      [
        "▁rahma",
        -8.539719768087934
      ],
      [
        "▁godiya",
        -8.53972464087016
      ],
      [
        "▁Ra",
        -8.540721135635357
      ],
      [
        "▁tashi",
        -8.541266003806431
      ],
      [
        "▁hauka",
        -8.541330364599176
      ],
      [
        "▁kiyaye",
        -8.543307595995891
      ],
      [
        "jin",
        -8.543373939445251
      ],
      [
        "▁Kar",
        -8.545765804424889
      ],
      [
        "▁ido",
        -8.547355399725554
      ],
      [
        "bamu",
        -8.549019623971478
      ],
      [
        "🏼",
        -8.549876832656576
      ],
      [
        "▁zo",
        -8.550243232016015
      ],
      [
        "▁huta",
        -8.552411101851254
      ],
      [
        "▁Haka",
        -8.553201689160604
      ],
      [
        "ura",
        -8.557878636358131
      ],
      [
        "▁najeriya",
        -8.55821882495324
      ],
      [
        "▁F",
        -8.558836231263827
      ],
      [
        "▁amin",
        -8.560887760839098
      ],
      [
        "???",
        -8.562004849305776
      ],
      [
        "▁karfin",
        -8.563940336981009
      ],
      [
        "te",
        -8.564312672706777
      ],
      [
        "▁tuba",
        -8.565685951862658
      ],
      [
        "iya",
        -8.570074903129937
      ],
      [
        "▁shugaba",
        -8.570095338505244
      ],
      [
        "▁Al",
        -8.570671110507227
      ],
      [
        "▁duka",
        -8.571185880693458
      ],
      [
        "😂🤣",
        -8.573477454263113
      ],
      [
        "▁Kowa",
        -8.573759856581436
      ],
      [
        "on",
        -8.575790360157724
      ],
      [
        "▁N",
        -8.577612175599844
      ],
      [
        "▁lahira",
        -8.577979853027589
      ],
      [
        "▁kaman",
        -8.578179021547726
      ],
      [
        "😠",
        -8.580333513754635
      ],
      [
        "▁mafita",
        -8.582268444566687
      ],
      [
        "▁baza",
        -8.582356983802168
      ],
      [
        "▁maza",
        -8.583090425112466
      ],
      [
        "er",
        -8.584835537207987
      ],
      [
        "▁Kin",
        -8.586303309671697
      ],
      [
        "▁kadan",
        -8.587156696625105
      ],
      [
        "▁matsalar",
        -8.58894630881684
      ],
      [
        "▁fadi",
        -8.589931199437519
      ],
      [
        "qa",
        -8.5927068942933
      ],
      [
        "▁waya",
        -8.59462424180772
      ],
      [
        "se",
        -8.596127164893405
      ],
      [
        "▁gobe",
        -8.596661403921727
      ],
      [
        "▁bbc",
        -8.597825548174134
      ],
      [
        "▁insha",
        -8.599585235996276
      ],
      [
        "▁lokaci",
        -8.602510142600213
      ],
      [
        "▁uba",
        -8.6065757742509
      ],
      [
        "kar",
        -8.608688571115797
      ],
      [
        "▁it",
        -8.613942841901746
      ],
      [
        "▁akeyi",
        -8.615331596899468
      ],
      [
        "▁ganduje",
        -8.615984314625159
      ],
      [
        "▁musulunci",
        -8.61611440734205
      ],
      [
        "▁shirya",
        -8.616742477728444
      ],
      [
        "nzu",
        -8.617618168515516
      ],
      [
        "▁kake",
        -8.618036164751615
      ],
      [
        "▁ashe",
        -8.618143706920362
      ],
      [
        "▁hannun",
        -8.620143773913878
      ],
      [
        "▁meye",
        -8.620388398156024
      ],
      [
        "'i",
        -8.622415519064969
      ],
      [
        "▁je",
        -8.62378414161502
      ],
      [
        "▁akai",
        -8.623862382966045
      ],
      [
        "▁C",
        -8.624867481014348
      ],
      [
        "tu",
        -8.63178945931119
      ],
      [
        "▁faru",
        -8.633304643407484
      ],
      [
        "▁Sadau",
        -8.63603724926126
      ],
      [
        "▁she",
        -8.638617214206661
      ],
      [
        "▁nima",
        -8.639210683172223
      ],
      [
        "▁bude",
        -8.639569899265325
      ],
      [
        "▁yasin",
        -8.64057570887702
      ],
      [
        "▁Allahu",
        -8.641183384704217
      ],
      [
        "son",
        -8.642610541277945
      ],
      [
        "▁Kamar",
        -8.64542492918914
      ],
      [
        "▁tsohon",
        -8.645581370443065
      ],
      [
        "uwa",
        -8.647541758704989
      ],
      [
        "▁garin",
        -8.651067902940856
      ],
      [
        "▁kansa",
        -8.651920557110927
      ],
      [
        "▁bama",
        -8.653201099720388
      ],
      [
        "'s",
        -8.654304804523793
      ],
      [
        "▁zabe",
        -8.654973444594138
      ],
      [
        "▁kasuwa",
        -8.65615558295888
      ],
      [
        "▁Ganduje",
        -8.656331887980878
      ],
      [
        "▁lallai",
        -8.656333293109546
      ],
      [
        "▁Gaskia",
        -8.65633362038841
      ],
      [
        "▁yajikan",
        -8.656910511789212
      ],
      [
        "▁❤️",
        -8.657581484090871
      ],
      [
        "▁nasara",
        -8.65855246327789
      ],
      [
        "▁karshe",
        -8.65921283217564
      ],
      [
        "shin",
        -8.659704165321793
      ],
      [
        "▁dukkan",
        -8.659818412301899
      ],
      [
        "▁cutar",
        -8.659981368863216
      ],
      [
        "▁Wata",
        -8.663573700056318
      ],
      [
        "▁pa",
        -8.6635890463487
      ],
      [
        "▁yara",
        -8.664008391719427
      ],
      [
        "▁jiya",
        -8.664048817791254
      ],
      [
        "▁zuciya",
        -8.66768276022082
      ],
      [
        "▁Do",
        -8.668157035308342
      ],
      [
        "▁shan",
        -8.668712916521127
      ],
      [
        "nsu",
        -8.66917032708659
      ],
      [
        "llah",
        -8.670180166149377
      ],
      [
        "▁tamu",
        -8.672028323485002
      ],
      [
        "▁tu",
        -8.673621111220745
      ],
      [
        "▁wurin",
        -8.67540938096272
      ],
      [
        "kace",
        -8.676115785068458
      ],
      [
        "▁ilaihi",
        -8.679530678947586
      ],
      [
        "wo",
        -8.684162701780544
      ],
      [
        "😏😏",
        -8.687304728675379
      ],
      [
        "▁kafa",
        -8.689086546545674
      ],
      [
        "▁zaiyi",
        -8.695361110219203
      ],
      [
        "▁bana",
        -8.697548231385179
      ],
      [
        "▁😄",
        -8.698275941127875
      ],
      [
        "▁Corona",
        -8.699115902072508
      ],
      [
        "▁musulmai",
        -8.700756802340965
      ],
      [
        "▁tabbatar",
        -8.702736253150153
      ],
      [
        "😆",
        -8.703498164378303
      ],
      [
        "▁Wani",
        -8.704331025939874
      ],
      [
        "ve",
        -8.70732611272341
      ],
      [
        "▁E",
        -8.707406229720451
      ],
      [
        "▁en",
        -8.707983692391071
      ],
      [
        "▁Abin",
        -8.709702255964814
      ],
      [
        "▁mafi",
        -8.710204520984215
      ],
      [
        "▁on",
        -8.712120764153315
      ],
      [
        "🏽",
        -8.712394584372321
      ],
      [
        "▁🙄🙄",
        -8.71248855976048
      ],
      [
        "▁naji",
        -8.712612739076432
      ],
      [
        "😜",
        -8.71381822597953
      ],
      [
        "▁😒",
        -8.71423739531404
      ],
      [
        "▁Aikin",
        -8.721810519743663
      ],
      [
        "pa",
        -8.721864271329277
      ],
      [
        "▁raina",
        -8.724454956120779
      ],
      [
        "▁sauka",
        -8.724757579836222
      ],
      [
        "▁Uban",
        -8.725640476099398
      ],
      [
        "▁rasa",
        -8.728829556317256
      ],
      [
        "▁yasan",
        -8.731365811233227
      ],
      [
        "🤔🤔",
        -8.731660559246151
      ],
      [
        "▁qa",
        -8.7359957429763
      ],
      [
        "▁kira",
        -8.736080341081202
      ],
      [
        "▁suma",
        -8.736502030959583
      ],
      [
        "mar",
        -8.736676032064905
      ],
      [
        "▁kansu",
        -8.73668531928271
      ],
      [
        "▁tsaya",
        -8.739281792219758
      ],
      [
        "nku",
        -8.7400377206396
      ],
      [
        "▁http://t.co/",
        -8.74174601658276
      ],
      [
        "▁banda",
        -8.741972185026707
      ],
      [
        "▁time",
        -8.742422077341583
      ],
      [
        "▁qarya",
        -8.742491285884782
      ],
      [
        "▁jama'a",
        -8.74256490351766
      ],
      [
        "▁g",
        -8.74315542661346
      ],
      [
        "▁gaskia",
        -8.743160341303422
      ],
      [
        "▁..",
        -8.7437335516642
      ],
      [
        "▁zauna",
        -8.744074033337123
      ],
      [
        "▁Yar",
        -8.745084589015136
      ],
      [
        "▁tsakanin",
        -8.745188712788085
      ],
      [
        "▁basa",
        -8.745739800144726
      ],
      [
        "▁Kun",
        -8.746148966806789
      ],
      [
        "hu",
        -8.746557373362633
      ],
      [
        "▁your",
        -8.747833665904647
      ],
      [
        "▁koda",
        -8.747945968344412
      ],
      [
        "▁not",
        -8.749536966688737
      ],
      [
        "▁ran",
        -8.749546862612421
      ],
      [
        "▁kawae",
        -8.75051748692097
      ],
      [
        "▁yiwa",
        -8.752382937445226
      ],
      [
        "▁yaga",
        -8.75283442832755
      ],
      [
        "🤔🤔🤔",
        -8.753011332543489
      ],
      [
        "▁Nima",
        -8.754317361266537
      ],
      [
        "▁La",
        -8.754401053640866
      ],
      [
        "▁inna",
        -8.754645433470685
      ],
      [
        "fe",
        -8.757033044877339
      ],
      [
        "▁🔥",
        -8.757235933612113
      ],
      [
        "▁murna",
        -8.758351078114956
      ],
      [
        "▁harda",
        -8.761038888400126
      ],
      [
        "’a",
        -8.761341442964081
      ],
      [
        "AR",
        -8.761827166998629
      ],
      [
        "al",
        -8.762143859305354
      ],
      [
        "nka",
        -8.764210581330417
      ],
      [
        "▁alheri",
        -8.76513073021576
      ],
      [
        "▁sumayya",
        -8.765394164290568
      ],
      [
        "▁di",
        -8.765544678065393
      ],
      [
        "▁matuka",
        -8.765625384669832
      ],
      [
        "wai",
        -8.765784613676788
      ],
      [
        "▁soyayya",
        -8.772908285695213
      ],
      [
        "▁Tab",
        -8.775047884725081
      ],
      [
        "▁cire",
        -8.775628814117027
      ],
      [
        "▁Alhamdulillah",
        -8.78169015892269
      ],
      [
        "▁m",
        -8.785313971353041
      ],
      [
        "nin",
        -8.785491417257731
      ],
      [
        "muna",
        -8.785666474210698
      ],
      [
        "▁dade",
        -8.785780749012154
      ],
      [
        "▁P",
        -8.786653771373402
      ],
      [
        "▁karba",
        -8.786752621420277
      ],
      [
        "▁kaduna",
        -8.7884272595929
      ],
      [
        "▁Fa",
        -8.790163544901478
      ],
      [
        "▁kasata",
        -8.790560188513972
      ],
      [
        "▁c",
        -8.791105771762588
      ],
      [
        "▁daman",
        -8.79194028659764
      ],
      [
        "🤦",
        -8.792483936379169
      ],
      [
        "▁Tunda",
        -8.792825451872385
      ],
      [
        "▁Eh",
        -8.795395504458838
      ],
      [
        "▁ne.",
        -8.798761946651666
      ],
      [
        "▁hoton",
        -8.798778033252425
      ],
      [
        "▁karemu",
        -8.799502824438925
      ],
      [
        "zu",
        -8.800288215438954
      ],
      [
        "▁tazo",
        -8.804073217498882
      ],
      [
        "💪",
        -8.806999610163105
      ],
      [
        "qi",
        -8.809677419698495
      ],
      [
        "▁🤦",
        -8.810151145520686
      ],
      [
        "samu",
        -8.810549578426771
      ],
      [
        "▁rage",
        -8.811366321868862
      ],
      [
        "▁saura",
        -8.811632615168431
      ],
      [
        "▁arziki",
        -8.812195778446604
      ],
      [
        "▁lpy",
        -8.812240937339157
      ],
      [
        "▁Mallam",
        -8.812246074128794
      ],
      [
        "▁adalci",
        -8.81256157862053
      ],
      [
        "▁Kenan",
        -8.81387265233208
      ],
      [
        "▁mace",
        -8.813881737598095
      ],
      [
        "▁rufe",
        -8.814100296626911
      ],
      [
        "▁Nabi",
        -8.814874022515832
      ],
      [
        "▁Albarka",
        -8.8149227485124
      ],
      [
        "rar",
        -8.81769852823431
      ],
      [
        "▁wadai",
        -8.819388114004798
      ],
      [
        "shiga",
        -8.820460294041785
      ],
      [
        "gama",
        -8.822259187321466
      ],
      [
        "▁sune",
        -8.822612918741314
      ],
      [
        "▁'",
        -8.823474804168425
      ],
      [
        "▁taka",
        -8.825718031600474
      ],
      [
        "▁yaro",
        -8.826035815198344
      ],
      [
        "▁Ali",
        -8.830694642034768
      ],
      [
        "iyar",
        -8.830828315948894
      ],
      [
        "▁cha",
        -8.832969950459256
      ],
      [
        "▁zaa",
        -8.833732077766097
      ],
      [
        "▁wasan",
        -8.836052299208953
      ],
      [
        "▁yunwa",
        -8.836593051444071
      ],
      [
        "▁with",
        -8.836626733750734
      ],
      [
        "▁farko",
        -8.83662986150719
      ],
      [
        "▁tunanin",
        -8.83714477656296
      ],
      [
        "▁guda",
        -8.837329365653988
      ],
      [
        "▁uku",
        -8.83736055530995
      ],
      [
        "▁abinci",
        -8.837956162314885
      ],
      [
        "▁mishi",
        -8.838770718851162
      ],
      [
        "▁shiru",
        -8.842385493663222
      ],
      [
        "▁ae",
        -8.843064355065229
      ],
      [
        "gani",
        -8.845192210108854
      ],
      [
        "▁L",
        -8.845199499645405
      ],
      [
        "▁co",
        -8.845409209865304
      ],
      [
        "yin",
        -8.845473758174945
      ],
      [
        "▁🙌",
        -8.84553902145948
      ],
      [
        "▁re",
        -8.84579244120845
      ],
      [
        "▁Zan",
        -8.846004469651001
      ],
      [
        "▁dinnan",
        -8.846877448278487
      ],
      [
        "▁Inna",
        -8.847566121746976
      ],
      [
        "▁💪",
        -8.848827416196368
      ],
      [
        "▁yaran",
        -8.850515826171286
      ],
      [
        "▁sarkin",
        -8.851235612910777
      ],
      [
        "▁laifin",
        -8.853749861876045
      ],
      [
        "▁Karya",
        -8.855646410004304
      ],
      [
        "din",
        -8.856556594497958
      ],
      [
        "▁wan",
        -8.857240614588033
      ],
      [
        "▁hali",
        -8.858831827391544
      ],
      [
        "rsa",
        -8.860547724790457
      ],
      [
        "▁Saura",
        -8.862664798488618
      ],
      [
        "▁sanda",
        -8.864183618566049
      ],
      [
        "▁zaben",
        -8.86506856588039
      ],
      [
        "yu",
        -8.867056301747299
      ],
      [
        "▁Aminu",
        -8.867890528723148
      ],
      [
        "xo",
        -8.869609301159501
      ],
      [
        "ch",
        -8.871616944222783
      ],
      [
        "▁miya",
        -8.872762659665206
      ],
      [
        "▁girman",
        -8.872899199688513
      ],
      [
        "▁gaban",
        -8.874666115622533
      ],
      [
        "▁😃",
        -8.875111776725863
      ],
      [
        "▁koya",
        -8.877216319187207
      ],
      [
        "▁Hakan",
        -8.877537599726146
      ],
      [
        "dda",
        -8.881647624741149
      ],
      [
        "koma",
        -8.882291925749406
      ],
      [
        "▁fita",
        -8.882317057541822
      ],
      [
        "rainin",
        -8.882558386993123
      ],
      [
        "▁all",
        -8.88416975378767
      ],
      [
        "▁Muhammad",
        -8.884654709687696
      ],
      [
        "dawo",
        -8.887713602108814
      ],
      [
        "ban",
        -8.888355544731905
      ],
      [
        "▁tuna",
        -8.88952614616871
      ],
      [
        "karbi",
        -8.890602891354963
      ],
      [
        "ty",
        -8.891599343459347
      ],
      [
        ",Allah",
        -8.892067981259064
      ],
      [
        "▁tsa",
        -8.894338375070411
      ],
      [
        "▁Anya",
        -8.89443619702302
      ],
      [
        "▁...",
        -8.895010347248638
      ],
      [
        "sai",
        -8.895424640509493
      ],
      [
        "▁itace",
        -8.895717129544124
      ],
      [
        "▁du",
        -8.895832652491091
      ],
      [
        "🏃",
        -8.896440796327962
      ],
      [
        "▁wuya",
        -8.897369918911549
      ],
      [
        "▁sace",
        -8.898672629442618
      ],
      [
        "▁Insha",
        -8.899250430057664
      ],
      [
        "▁😂🤣",
        -8.900358111866602
      ],
      [
        "▁jiran",
        -8.901467424877973
      ],
      [
        "▁dinga",
        -8.902696742028102
      ],
      [
        "▁🤔🤔🤔",
        -8.903459320772342
      ],
      [
        "▁addinin",
        -8.906110366932014
      ],
      [
        "▁jira",
        -8.907157679725989
      ],
      [
        "▁Ja",
        -8.908325908275069
      ],
      [
        "▁sunyi",
        -8.908482368664341
      ],
      [
        "nga",
        -8.908955981731896
      ],
      [
        "▁💯",
        -8.909508895444388
      ],
      [
        "▁pls",
        -8.909521126600442
      ],
      [
        "🏿",
        -8.910958296493227
      ],
      [
        "▁Mahmud",
        -8.913619893627835
      ],
      [
        "▁muga",
        -8.916723797541927
      ],
      [
        "far",
        -8.917771387089852
      ],
      [
        "mma",
        -8.917817450733507
      ],
      [
        "▁one",
        -8.918562457454502
      ],
      [
        "▁munyi",
        -8.919410761934346
      ],
      [
        "🏾",
        -8.919908455322771
      ],
      [
        "zama",
        -8.922050486021332
      ],
      [
        "▁mutumin",
        -8.923327025809055
      ],
      [
        "mun",
        -8.923446467083934
      ],
      [
        "▁siya",
        -8.926267390963895
      ],
      [
        "✊",
        -8.926611314516641
      ],
      [
        "▁🤲🤲🤲",
        -8.92871028447214
      ],
      [
        "▁haba",
        -8.930345538171856
      ],
      [
        "ry",
        -8.930392467233297
      ],
      [
        "▁nufin",
        -8.930844368284323
      ],
      [
        "▁mudai",
        -8.932879858176412
      ],
      [
        "WA",
        -8.93440706544656
      ],
      [
        "▁gaji",
        -8.934689205435024
      ],
      [
        "masa",
        -8.935290552548855
      ],
      [
        "▁amsa",
        -8.935637718513993
      ],
      [
        "▁aljanna",
        -8.939083525412258
      ],
      [
        "▁😭😭😭😭",
        -8.940262961137297
      ],
      [
        "▁Hmmm",
        -8.941725267852902
      ],
      [
        "▁kirki",
        -8.942178376425993
      ],
      [
        "▁auren",
        -8.943229678071612
      ],
      [
        "▁D",
        -8.943816659585863
      ],
      [
        "▁dana",
        -8.944807059453705
      ],
      [
        "😀😀",
        -8.945983264938668
      ],
      [
        "▁🤣🤣🤣🤣",
        -8.947814158111942
      ],
      [
        "▁sae",
        -8.948060225462594
      ],
      [
        "▁he",
        -8.950482923071286
      ],
      [
        "▁shege",
        -8.950658269263641
      ],
      [
        "▁haram",
        -8.951118706734503
      ],
      [
        "▁faruwa",
        -8.952646422842887
      ],
      [
        "our",
        -8.95435442423928
      ],
      [
        "▁Kaga",
        -8.95962109833623
      ],
      [
        "❤️",
        -8.960743243840778
      ],
      [
        "▁Kina",
        -8.961189999286391
      ],
      [
        "▁Subhanallah",
        -8.961832620895187
      ],
      [
        "▁Ita",
        -8.963051047218299
      ],
      [
        "xt",
        -8.96591614196412
      ],
      [
        "▁p",
        -8.967275917584892
      ],
      [
        "▁yaya",
        -8.9679114232112
      ],
      [
        "▁Kaduna",
        -8.968351693690844
      ],
      [
        "▁dubu",
        -8.968847784945314
      ],
      [
        "▁waje",
        -8.969497510932712
      ],
      [
        "▁mah",
        -8.970311401828322
      ],
      [
        "▁dace",
        -8.971047363401626
      ],
      [
        "▁😏😏",
        -8.972700561662945
      ],
      [
        "▁Mudai",
        -8.9751933434592
      ],
      [
        "▁yawan",
        -8.975980110433577
      ],
      [
        "tsi",
        -8.976153111513819
      ],
      [
        "▁tace",
        -8.976187072694922
      ],
      [
        "▁sabi",
        -8.976205505020916
      ],
      [
        "▁chan",
        -8.976364038509857
      ],
      [
        "▁laifi",
        -8.97715107762054
      ],
      [
        "▁Inda",
        -8.977259174684544
      ],
      [
        "tin",
        -8.978531196169477
      ],
      [
        "ss",
        -8.980417597575286
      ],
      [
        "▁kasarmu",
        -8.980547548153176
      ],
      [
        "▁😔",
        -8.980570354130716
      ],
      [
        "▁no",
        -8.98193069479245
      ],
      [
        "▁labarina",
        -8.982804228387437
      ],
      [
        "▁🙏🏻",
        -8.98388100623183
      ],
      [
        "▁😆",
        -8.985113847631315
      ],
      [
        "▁R",
        -8.987003499366915
      ],
      [
        "🙏🏻",
        -8.987108942007577
      ],
      [
        "▁Iya",
        -8.988370483112718
      ],
      [
        "▁wlhy",
        -8.989088221317392
      ],
      [
        "'t",
        -8.990359882461817
      ],
      [
        "▁♂️🚶",
        -8.993352338445018
      ],
      [
        "▁Amman",
        -8.994743991355126
      ],
      [
        "▁musamman",
        -8.996920704499136
      ],
      [
        "▁kannywood",
        -8.99694338490886
      ],
      [
        "▁Ah",
        -8.99761409356379
      ],
      [
        "▁Oga",
        -8.99783060940469
      ],
      [
        "▁shiyasa",
        -8.99852118340321
      ],
      [
        "▁😥",
        -8.998919096788667
      ],
      [
        "ran",
        -8.999009584582604
      ],
      [
        "xa",
        -9.000565131386148
      ],
      [
        "▁up",
        -9.001600221823452
      ],
      [
        "▁gurin",
        -9.0041592007737
      ],
      [
        "▁🚶",
        -9.00471821757793
      ],
      [
        "😁😁",
        -9.004851898321292
      ],
      [
        "▁tsoro",
        -9.004900628508473
      ],
      [
        "▁bazan",
        -9.004907182886686
      ],
      [
        "▁sanya",
        -9.004992846759283
      ],
      [
        "▁Ruwa",
        -9.005999798974042
      ],
      [
        "ina",
        -9.00980328084733
      ],
      [
        "▁gwamnatin",
        -9.010297453822592
      ],
      [
        "▁wayo",
        -9.010663703096116
      ],
      [
        "🥺",
        -9.01098669161746
      ],
      [
        "ts",
        -9.011655785360752
      ],
      [
        "▁Rashi",
        -9.012111261393215
      ],
      [
        "▁😠",
        -9.014900902594745
      ],
      [
        "▁sukayi",
        -9.016834530205525
      ],
      [
        "tsa",
        -9.017375714438794
      ],
      [
        "▁4",
        -9.018732068183025
      ],
      [
        "▁mo",
        -9.021323613137202
      ],
      [
        "▁kiyi",
        -9.021668530839566
      ],
      [
        "▁kokari",
        -9.022837882919395
      ],
      [
        "▁ah",
        -9.023212762551587
      ],
      [
        "👋",
        -9.026330827399505
      ],
      [
        "▁ilimi",
        -9.026357188348943
      ],
      [
        "▁bindiga",
        -9.026358421873631
      ],
      [
        "▁boko",
        -9.026806290006817
      ],
      [
        "▁ho",
        -9.02711255335694
      ],
      [
        "▁zazzau",
        -9.02734003869897
      ],
      [
        "▁Rana",
        -9.027575779975034
      ],
      [
        "▁best",
        -9.027600618885252
      ],
      [
        "bin",
        -9.030708559531245
      ],
      [
        "▁aikata",
        -9.031333543455336
      ],
      [
        "▁mati",
        -9.031795180708986
      ],
      [
        "▁zafi",
        -9.032548922038146
      ],
      [
        "▁ze",
        -9.032714964046285
      ],
      [
        "Ka",
        -9.033364908682396
      ],
      [
        "pi",
        -9.034198975275364
      ],
      [
        "▁zancen",
        -9.034222732122661
      ],
      [
        "▁ru",
        -9.036936824327494
      ],
      [
        "tse",
        -9.036963500883935
      ],
      [
        "▁hu",
        -9.040363596829291
      ],
      [
        "😔",
        -9.042864152220437
      ],
      [
        "▁watan",
        -9.044622490903851
      ],
      [
        "▁yazama",
        -9.04505917051978
      ],
      [
        "yen",
        -9.046673146494914
      ],
      [
        "▁nasu",
        -9.04687321659263
      ],
      [
        "▁banga",
        -9.04778220671113
      ],
      [
        "▁maida",
        -9.047838546763288
      ],
      [
        "▁daraja",
        -9.048829682681776
      ],
      [
        "▁qasa",
        -9.05018490337767
      ],
      [
        "▁jagora",
        -9.054376505955393
      ],
      [
        "▁Bi",
        -9.054766073130548
      ],
      [
        "▁Lol",
        -9.05663599443088
      ],
      [
        "▁that",
        -9.056643443235252
      ],
      [
        "▁sabuwa",
        -9.056745283436378
      ],
      [
        "▁banxa",
        -9.05716010082742
      ],
      [
        "▁nagari",
        -9.059709514222165
      ],
      [
        "▁😂😂😂😂😂",
        -9.064363742100863
      ],
      [
        "▁ca",
        -9.064471081616045
      ],
      [
        "▁farin",
        -9.066563906565658
      ],
      [
        "ck",
        -9.066601404111909
      ],
      [
        "bada",
        -9.066823956897421
      ],
      [
        "▁ance",
        -9.06694285442903
      ],
      [
        "🙄🙄🙄",
        -9.0673451347705
      ],
      [
        "▁bin",
        -9.068480939436434
      ],
      [
        "▁Mi",
        -9.068750745429654
      ],
      [
        "🇳🇬",
        -9.071170170094781
      ],
      [
        "🙅",
        -9.071834343528392
      ],
      [
        "😉",
        -9.073368619133609
      ],
      [
        "▁Kuna",
        -9.073548984068282
      ],
      [
        "👈",
        -9.074070574969955
      ],
      [
        "▁wanna",
        -9.074605924317702
      ],
      [
        "▁gado",
        -9.07521365246851
      ],
      [
        "▁Hahaha",
        -9.078681647468418
      ],
      [
        "▁wutar",
        -9.07940430888645
      ],
      [
        "▁mugun",
        -9.079886809264499
      ],
      [
        "▁Bayan",
        -9.081527496733552
      ],
      [
        "▁sata",
        -9.081900064147645
      ],
      [
        "▁wace",
        -9.082454500086788
      ],
      [
        "▁uwan",
        -9.085439745272332
      ],
      [
        "▁Se",
        -9.085948281532321
      ],
      [
        "▁riga",
        -9.085958845232792
      ],
      [
        "▁li",
        -9.087653067145839
      ],
      [
        "▁Africa",
        -9.087883861797629
      ],
      [
        "▁Twitter",
        -9.08788387227049
      ],
      [
        "▁hajiya",
        -9.087897915287662
      ],
      [
        "▁real",
        -9.08790256639168
      ],
      [
        "▁Ikon",
        -9.087950667827451
      ],
      [
        "va",
        -9.088134304781622
      ],
      [
        "▁APC",
        -9.088235372757143
      ],
      [
        "▁Barka",
        -9.08908040597452
      ],
      [
        "▁her",
        -9.091442106462118
      ],
      [
        "▁bawan",
        -9.092055058316308
      ],
      [
        "▁🤲🤲",
        -9.094405167028828
      ],
      [
        "▁kalla",
        -9.094420884683421
      ],
      [
        "▁Nifa",
        -9.096928914372254
      ],
      [
        "▁qasar",
        -9.097072301960553
      ],
      [
        "lin",
        -9.097141500833414
      ],
      [
        "▁kaya",
        -9.099070895250374
      ],
      [
        "▁matsayin",
        -9.09932490248047
      ],
      [
        "▁turawa",
        -9.101240523458976
      ],
      [
        "🥰",
        -9.101456426499707
      ],
      [
        "▁munga",
        -9.102343069851988
      ],
      [
        "▁iyayen",
        -9.103068330004984
      ],
      [
        "▁We",
        -9.103630954354351
      ],
      [
        "😳",
        -9.104802668069619
      ],
      [
        "▁karo",
        -9.104817070207355
      ],
      [
        "Ya",
        -9.10498706713949
      ],
      [
        "🤨",
        -9.105871022968838
      ],
      [
        "▁yayan",
        -9.106500058323505
      ],
      [
        "😞",
        -9.106533121126697
      ],
      [
        "th",
        -9.107756188641726
      ],
      [
        "▁naku",
        -9.108360880653498
      ],
      [
        "▁chi",
        -9.109014266254746
      ],
      [
        "▁w",
        -9.110941004925085
      ],
      [
        "▁f",
        -9.113364560885383
      ],
      [
        "▁bace",
        -9.116407552304533
      ],
      [
        "▁gwamna",
        -9.11668599085053
      ],
      [
        "▁alama",
        -9.118454898588286
      ],
      [
        "▁Kama",
        -9.119432310311005
      ],
      [
        "/",
        -9.12014192221866
      ],
      [
        "▁alfarma",
        -9.120148198866131
      ],
      [
        "▁wajan",
        -9.120238732630119
      ],
      [
        "▁posting",
        -9.120436688900623
      ],
      [
        "▁hadu",
        -9.123164166548323
      ],
      [
        "▁dauke",
        -9.123174193119251
      ],
      [
        "▁zagi",
        -9.123436890130641
      ],
      [
        "▁tsiya",
        -9.12494387207349
      ],
      [
        "▁nasa",
        -9.125886623969176
      ],
      [
        "▁😁😁😁",
        -9.126454866021993
      ],
      [
        "▁Abinda",
        -9.12740855074701
      ],
      [
        "🙈",
        -9.128114075674679
      ],
      [
        "▁Fatan",
        -9.128914503345907
      ],
      [
        "▁sanin",
        -9.129550999053777
      ],
      [
        "YA",
        -9.13085456258584
      ],
      [
        "▁matan",
        -9.131505964841848
      ],
      [
        "▁😀😀",
        -9.131567743751127
      ],
      [
        "uri",
        -9.132055033848955
      ],
      [
        "dan",
        -9.132927145927534
      ],
      [
        "▁saira",
        -9.134675569296203
      ],
      [
        "▁Bai",
        -9.135022516212274
      ],
      [
        "😕",
        -9.13596918110067
      ],
      [
        "▁isar",
        -9.136231097411967
      ],
      [
        "▁sh",
        -9.137954073281257
      ],
      [
        "lle",
        -9.138328427029027
      ],
      [
        "▁Suna",
        -9.13898003199271
      ],
      [
        "▁Baki",
        -9.139451813300255
      ],
      [
        "▁fama",
        -9.141750741406202
      ],
      [
        "▁Baku",
        -9.14256583736029
      ],
      [
        "😩",
        -9.143396594025049
      ],
      [
        "▁kema",
        -9.146012663394776
      ],
      [
        "▁hk",
        -9.146390803466623
      ],
      [
        "im",
        -9.147821763364664
      ],
      [
        "🤣😂",
        -9.148034554807463
      ],
      [
        "▁karfi",
        -9.148187553517122
      ],
      [
        "▁bo",
        -9.148227757674023
      ],
      [
        "▁saidai",
        -9.148775367293153
      ],
      [
        "▁nashi",
        -9.150821806107519
      ],
      [
        "nt",
        -9.150831813676774
      ],
      [
        "▁rubuta",
        -9.15347651761611
      ],
      [
        "▁Hajiya",
        -9.15348784695438
      ],
      [
        "▁waka",
        -9.153595423960342
      ],
      [
        "ment",
        -9.155144583567148
      ],
      [
        "▁Abba",
        -9.155590681987427
      ],
      [
        "very",
        -9.15670880407225
      ],
      [
        "▁nauyin",
        -9.156814666817407
      ],
      [
        "▁jiki",
        -9.158068121774113
      ],
      [
        "▁baban",
        -9.158828780442981
      ],
      [
        "▁Zamu",
        -9.158941910417193
      ],
      [
        "▁was",
        -9.161142080698118
      ],
      [
        "▁rokon",
        -9.161853868508276
      ],
      [
        "🚶",
        -9.16187424352968
      ],
      [
        "▁zanyi",
        -9.16199389479698
      ],
      [
        "▁zamuyi",
        -9.162940052504133
      ],
      [
        "▁zasuyi",
        -9.162954071706237
      ],
      [
        "▁xai",
        -9.165417846221846
      ],
      [
        "▁but",
        -9.166335730153282
      ],
      [
        "▁kura",
        -9.167933044313324
      ],
      [
        "▁va",
        -9.16843167866093
      ],
      [
        "▁ur",
        -9.1686428963093
      ],
      [
        "▁May",
        -9.169508851364542
      ],
      [
        "▁yawo",
        -9.1697117907973
      ],
      [
        "▁yakai",
        -9.17108904242911
      ],
      [
        "▁tsoho",
        -9.171518387275192
      ],
      [
        "▁us",
        -9.171986650841424
      ],
      [
        "▁masifa",
        -9.173035981159913
      ],
      [
        "▁rana",
        -9.173533958737377
      ],
      [
        "▁idon",
        -9.17379185150752
      ],
      [
        "😰",
        -9.17405964705934
      ],
      [
        "▁wanka",
        -9.177415879496634
      ],
      [
        "▁yaki",
        -9.178448259290029
      ],
      [
        "▁mataki",
        -9.180106495571856
      ],
      [
        "▁hankalin",
        -9.180218741911913
      ],
      [
        "▁Basu",
        -9.180878394301036
      ],
      [
        "▁tausayi",
        -9.18218280986926
      ],
      [
        "▁dame",
        -9.184382195007084
      ],
      [
        "ting",
        -9.187216395559393
      ],
      [
        "▁Fi",
        -9.18758988769332
      ],
      [
        "▁alkairi",
        -9.187977683089805
      ],
      [
        "▁shinkafa",
        -9.187979719130812
      ],
      [
        "▁Alkhairi",
        -9.187979791232344
      ],
      [
        "▁bara",
        -9.18853694291364
      ],
      [
        "▁jihar",
        -9.188546067310579
      ],
      [
        "▁goyo",
        -9.188575568096777
      ],
      [
        "▁Sallah",
        -9.188961138793122
      ],
      [
        "▁Shin",
        -9.189102459346774
      ],
      [
        "kara",
        -9.190369224820811
      ],
      [
        "▁mudace",
        -9.19079357727429
      ],
      [
        "▁mu,",
        -9.19129471986857
      ],
      [
        "▁asara",
        -9.192076573569514
      ],
      [
        "▁You",
        -9.192384765524695
      ],
      [
        "▁alamu",
        -9.193081705465321
      ],
      [
        "▁zanga",
        -9.198057904406857
      ],
      [
        "▁Masu",
        -9.19948670476016
      ],
      [
        "▁Ji",
        -9.199560021731221
      ],
      [
        "▁hanci",
        -9.200221748672803
      ],
      [
        "▁balle",
        -9.20040758461244
      ],
      [
        "▁asiri",
        -9.201470401710619
      ],
      [
        "▁nufi",
        -9.202217571159265
      ],
      [
        "▁Fara",
        -9.20222921016916
      ],
      [
        "▁tsari",
        -9.20225225886115
      ],
      [
        "▁O",
        -9.202879984944126
      ],
      [
        "▁dinki",
        -9.203232656856486
      ],
      [
        "▁rayuwar",
        -9.203370027505358
      ],
      [
        "▁Zai",
        -9.203835813990144
      ],
      [
        "▁tin",
        -9.204408815543584
      ],
      [
        "▁kudu",
        -9.205287955350691
      ],
      [
        "▁dun",
        -9.20589310188154
      ],
      [
        "▁tura",
        -9.206123425479982
      ],
      [
        "▁hau",
        -9.206179418651473
      ],
      [
        "🤓",
        -9.20721635426667
      ],
      [
        "▁🤷",
        -9.210039636958427
      ],
      [
        "😡😡😡",
        -9.210115251796674
      ],
      [
        "❤",
        -9.210544158609682
      ],
      [
        "kayi",
        -9.211009040333922
      ],
      [
        "▁dalilin",
        -9.211038527669833
      ],
      [
        "▁🤗",
        -9.211838205473056
      ],
      [
        "▁lalace",
        -9.21316520814928
      ],
      [
        "co",
        -9.213579087211281
      ],
      [
        "rwa",
        -9.214633829769904
      ],
      [
        "▁wnn",
        -9.217445142129616
      ],
      [
        "▁shekaru",
        -9.221726072909503
      ],
      [
        "▁Kan",
        -9.223773014921953
      ],
      [
        "▁dari",
        -9.224018746630252
      ],
      [
        "😘",
        -9.224357581846206
      ],
      [
        "▁nema",
        -9.224486068567085
      ],
      [
        "▁Dole",
        -9.22459760983083
      ],
      [
        "▁sauke",
        -9.224688505954177
      ],
      [
        "▁wadaran",
        -9.22494773518614
      ],
      [
        "▁Boko",
        -9.225253009451515
      ],
      [
        "▁yaje",
        -9.227093494930049
      ],
      [
        "▁soja",
        -9.227619506761062
      ],
      [
        "▁Wan",
        -9.228361584594047
      ],
      [
        "▁marasa",
        -9.229069864400849
      ],
      [
        "▁👉",
        -9.229528789390482
      ],
      [
        "▁Y",
        -9.230359730933174
      ],
      [
        "......",
        -9.232029065957285
      ],
      [
        "▁Babban",
        -9.232799164097106
      ],
      [
        "▁gare",
        -9.232874780536452
      ],
      [
        "▁sa'a",
        -9.233113572171437
      ],
      [
        "😏😏😏",
        -9.237146373777055
      ],
      [
        "▁wakar",
        -9.237348164328168
      ],
      [
        "▁barka",
        -9.238596679142368
      ],
      [
        "▁manyan",
        -9.238928070512713
      ],
      [
        "▁kenan?",
        -9.240147602613417
      ],
      [
        "▁abubuwan",
        -9.241054964426258
      ],
      [
        "▁kala",
        -9.241180030058299
      ],
      [
        "▁naki",
        -9.24130146445223
      ],
      [
        "▁sukeyi",
        -9.244334755032067
      ],
      [
        "▁si",
        -9.245529072861107
      ],
      [
        "wannan",
        -9.245852035060784
      ],
      [
        "kinyi",
        -9.246758182054386
      ],
      [
        "▁Yasa",
        -9.246775191249512
      ],
      [
        "ul",
        -9.249123884730903
      ],
      [
        "▁iskanci",
        -9.249271601687738
      ],
      [
        "▁mayar",
        -9.25095047270457
      ],
      [
        "▁bukata",
        -9.251916639074704
      ],
      [
        "▁maku",
        -9.253711918312357
      ],
      [
        "nce",
        -9.255509224641266
      ],
      [
        "▁mutun",
        -9.256205958714041
      ],
      [
        "▁shirye",
        -9.256710079597887
      ],
      [
        "▁ta'adda",
        -9.259201468832542
      ],
      [
        "▁tsine",
        -9.259612228186223
      ],
      [
        "ton",
        -9.260085924058702
      ],
      [
        "♥️",
        -9.260537789556343
      ],
      [
        "▁what",
        -9.260715079970074
      ],
      [
        "▁Wayyo",
        -9.260767791622726
      ],
      [
        "▁laila",
        -9.260955200299907
      ],
      [
        "▁karewa",
        -9.260991131292394
      ],
      [
        "▁sau",
        -9.26392096761229
      ],
      [
        "▁kula",
        -9.265963378415634
      ],
      [
        "▁👑",
        -9.266579411043631
      ],
      [
        "▁taimaki",
        -9.266929882962614
      ],
      [
        "▁👀",
        -9.267024852546392
      ],
      [
        "▁munsan",
        -9.267350491173707
      ],
      [
        "▁gode",
        -9.267721844506644
      ],
      [
        "▁daku",
        -9.268132811514661
      ],
      [
        "▁haushi",
        -9.271590802998862
      ],
      [
        "▁hakkin",
        -9.271986386166022
      ],
      [
        "▁bisa",
        -9.273460927735233
      ],
      [
        "dama",
        -9.275045047444134
      ],
      [
        "tta",
        -9.279236483417602
      ],
      [
        "▁God",
        -9.279705719506373
      ],
      [
        "▁maki",
        -9.282534280228534
      ],
      [
        "cigaba",
        -9.282629110007813
      ],
      [
        "▁Gaba",
        -9.28386009804399
      ],
      [
        "hana",
        -9.284211286389873
      ],
      [
        "out",
        -9.284897638276764
      ],
      [
        "😱",
        -9.286993756697202
      ],
      [
        "▁zu",
        -9.28715930965837
      ],
      [
        "▁jikin",
        -9.28744369502061
      ],
      [
        "▁daura",
        -9.288346772696404
      ],
      [
        "▁fadin",
        -9.28940496145428
      ],
      [
        "rs",
        -9.292067918671801
      ],
      [
        "▁tabbata",
        -9.293663386716657
      ],
      [
        "mmu",
        -9.293937882847146
      ],
      [
        "▁tara",
        -9.294011698287465
      ],
      [
        "▁BA",
        -9.295861402735301
      ],
      [
        "▁5",
        -9.298759639915005
      ],
      [
        "▁kanka",
        -9.298965025387956
      ],
      [
        "▁Director",
        -9.299170875386713
      ],
      [
        "▁follow",
        -9.299170875930576
      ],
      [
        "▁2023",
        -9.299170925030003
      ],
      [
        "▁makaranta",
        -9.29924028734664
      ],
      [
        "▁Laila",
        -9.299296099649144
      ],
      [
        "▁bacci",
        -9.29937512184998
      ],
      [
        "This",
        -9.299384217124178
      ],
      [
        "▁director",
        -9.299470880415601
      ],
      [
        "▁Aunty",
        -9.301461048278513
      ],
      [
        "▁mara",
        -9.301894490760393
      ],
      [
        "🤲🤲",
        -9.301898180725448
      ],
      [
        "▁karanta",
        -9.302881528466198
      ],
      [
        "▁No",
        -9.304486783728915
      ],
      [
        "▁talakawan",
        -9.30625210071807
      ],
      [
        "▁addini",
        -9.306324282986168
      ],
      [
        "▁za'ayi",
        -9.306349834556627
      ],
      [
        "he",
        -9.306430706752867
      ],
      [
        "▁talakan",
        -9.308347193444757
      ],
      [
        "▁see",
        -9.308513171847693
      ],
      [
        "▁Banda",
        -9.308560793481442
      ],
      [
        "▁KO",
        -9.309688502295295
      ],
      [
        "😋",
        -9.309875476999693
      ],
      [
        "▁goma",
        -9.310480626183796
      ],
      [
        "▁😅😅",
        -9.311077561984211
      ],
      [
        "can",
        -9.311269728373734
      ],
      [
        "▁wu",
        -9.314516124554935
      ],
      [
        "▁am",
        -9.314840781428867
      ],
      [
        "🤣🤣🤣🤣",
        -9.317370118390189
      ],
      [
        "tt",
        -9.31747163842487
      ],
      [
        "▁kyautata",
        -9.317891501578377
      ],
      [
        "ca",
        -9.318061761994546
      ],
      [
        "▁saida",
        -9.319948215041611
      ],
      [
        "▁shawara",
        -9.322172186106405
      ],
      [
        "😟",
        -9.325435444538382
      ],
      [
        "▁Aiki",
        -9.326043170850514
      ],
      [
        "▁daukar",
        -9.326687552458527
      ],
      [
        "▁Yo",
        -9.326916532935416
      ],
      [
        "▁che",
        -9.329239781367518
      ],
      [
        "▁yarinya",
        -9.331515514704627
      ],
      [
        "🙆",
        -9.333758687387538
      ],
      [
        "▁komi",
        -9.334097166845691
      ],
      [
        "▁ƙa",
        -9.336428989270125
      ],
      [
        "bani",
        -9.336616927489935
      ],
      [
        "▁kaima",
        -9.337223744056939
      ],
      [
        "▁Mara",
        -9.339014475232744
      ],
      [
        "▁shegiya",
        -9.339271231889214
      ],
      [
        "▁Trump",
        -9.339291339780523
      ],
      [
        "▁will",
        -9.33931468012972
      ],
      [
        "▁just",
        -9.339365818643262
      ],
      [
        "▁Banza",
        -9.339462473830736
      ],
      [
        "▁burgeni",
        -9.340438532425
      ],
      [
        "▁shikenan",
        -9.340452335762897
      ],
      [
        "▁kwallo",
        -9.341114247682242
      ],
      [
        "▁fe",
        -9.341204644413988
      ],
      [
        "▁wadda",
        -9.341725807541009
      ],
      [
        "▁safe",
        -9.343070005786014
      ],
      [
        "▁Irin",
        -9.3434229671411
      ],
      [
        "▁nada",
        -9.343900240372069
      ],
      [
        "▁sabon",
        -9.344730974495873
      ],
      [
        "gin",
        -9.345842698578878
      ],
      [
        "▁jahar",
        -9.346518996667179
      ],
      [
        "▁Masa",
        -9.348974095526252
      ],
      [
        "py",
        -9.350868717957159
      ],
      [
        "sh",
        -9.351012263436365
      ],
      [
        "ana",
        -9.356892570721618
      ],
      [
        "pe",
        -9.357312581812634
      ],
      [
        "▁Adam",
        -9.357907095667393
      ],
      [
        "▁dayawa",
        -9.358825046633134
      ],
      [
        "cce",
        -9.358951877825323
      ],
      [
        "▁mutunci",
        -9.360685777710781
      ],
      [
        "▁Kare",
        -9.361731782409208
      ],
      [
        "▁Dai",
        -9.363950990448743
      ],
      [
        "SA",
        -9.364365720381516
      ],
      [
        "▁Tun",
        -9.365008336259242
      ],
      [
        "▁gwa",
        -9.365536680526374
      ],
      [
        "😣",
        -9.3658332622491
      ],
      [
        "▁tuni",
        -9.366482156831527
      ],
      [
        "es",
        -9.366550342850744
      ],
      [
        ".......",
        -9.367090050686183
      ],
      [
        "▁kaza",
        -9.36777929008748
      ],
      [
        "fu",
        -9.368237586609446
      ],
      [
        "▁Ae",
        -9.368563891477933
      ],
      [
        "mata",
        -9.368774690433982
      ],
      [
        "hausa",
        -9.368927265704738
      ],
      [
        "▁🏃",
        -9.369601096280284
      ],
      [
        "🙏🏽",
        -9.370255207488299
      ],
      [
        "▁Hmmmm",
        -9.371474957709621
      ],
      [
        "▁jini",
        -9.371652941680011
      ],
      [
        "▁inji",
        -9.371899486923212
      ],
      [
        "▁Koda",
        -9.372468364145377
      ],
      [
        "▁at",
        -9.374700767336005
      ],
      [
        "▁saya",
        -9.376408805620843
      ],
      [
        "😭😭😭😭",
        -9.376681237302835
      ],
      [
        "▁yaye",
        -9.37870528473633
      ],
      [
        "▁taci",
        -9.379202804386782
      ],
      [
        "▁Aljanna",
        -9.37964081818389
      ],
      [
        "▁birthday",
        -9.380837542292138
      ],
      [
        "▁Yakamata",
        -9.380846991404207
      ],
      [
        "▁Lafiya",
        -9.380921743351843
      ],
      [
        "▁life",
        -9.381065728657113
      ],
      [
        "▁Sir",
        -9.38110929375082
      ],
      [
        "▁Wow",
        -9.3811282472785
      ],
      [
        "har",
        -9.381231672411685
      ],
      [
        "▁meyasa",
        -9.381664051847913
      ],
      [
        "▁Sumayya",
        -9.38192699721882
      ],
      [
        "▁lashe",
        -9.382016441732395
      ],
      [
        "▁boye",
        -9.38204497582829
      ],
      [
        "▁Yasin",
        -9.382335840136761
      ],
      [
        "▁wando",
        -9.382743321769745
      ],
      [
        "▁yakare",
        -9.38302942410531
      ],
      [
        "▁Gwamna",
        -9.383858792578112
      ],
      [
        "▁please",
        -9.384009745093847
      ],
      [
        "▁hudu",
        -9.384373072715423
      ],
      [
        "▁fiye",
        -9.384571957809444
      ],
      [
        "▁The",
        -9.385488512487564
      ],
      [
        "▁damun",
        -9.386586794165291
      ],
      [
        "▁tsada",
        -9.388800609360977
      ],
      [
        "▁much",
        -9.388975818824424
      ],
      [
        "▁makiya",
        -9.390353601749146
      ],
      [
        "en",
        -9.390356134055683
      ],
      [
        "▁him",
        -9.39162184605807
      ],
      [
        "▁💔",
        -9.392162340928294
      ],
      [
        "▁☹️",
        -9.39259176817899
      ],
      [
        "▁gona",
        -9.392617219043496
      ],
      [
        "▁✊",
        -9.398629461269035
      ],
      [
        "▁kuce",
        -9.398847221274394
      ],
      [
        "am",
        -9.401368870319272
      ],
      [
        "▁sakamako",
        -9.403917466274567
      ],
      [
        "▁KA",
        -9.404011466011436
      ],
      [
        "▁dare",
        -9.405213739796643
      ],
      [
        "✌",
        -9.40781414818374
      ],
      [
        "▁kanmu",
        -9.40827783829033
      ],
      [
        "▁lamarin",
        -9.410069533634559
      ],
      [
        "▁😁😁",
        -9.410343498047578
      ],
      [
        "▁Akan",
        -9.411129124959984
      ],
      [
        "▁Isa",
        -9.411668114749402
      ],
      [
        "▁mijin",
        -9.413067055942719
      ],
      [
        "▁talla",
        -9.414407994565572
      ],
      [
        "▁tab",
        -9.416682568626243
      ],
      [
        "amma",
        -9.418776036325077
      ],
      [
        "rka",
        -9.419595062466804
      ],
      [
        "▁Z",
        -9.421693911894794
      ],
      [
        "▁rawa",
        -9.421924181475067
      ],
      [
        "😎😎😎",
        -9.422730383734264
      ],
      [
        "▁biyar",
        -9.423126510315095
      ],
      [
        "▁kashi",
        -9.423150979880042
      ],
      [
        "▁Hhhh",
        -9.424137336830762
      ],
      [
        "🙊",
        -9.424154550366085
      ],
      [
        "💗",
        -9.42431579721856
      ],
      [
        "▁people",
        -9.424315802931542
      ],
      [
        "▁America",
        -9.424315818264757
      ],
      [
        "▁video",
        -9.424316462195687
      ],
      [
        "▁Bbc",
        -9.424317449058957
      ],
      [
        "▁Tabbas",
        -9.424330467841315
      ],
      [
        "▁Pls",
        -9.424375838961016
      ],
      [
        "▁mgn",
        -9.424434431071507
      ],
      [
        "▁mummuna",
        -9.424530443122375
      ],
      [
        "▁doka",
        -9.424893510913833
      ],
      [
        "▁shegu",
        -9.424902674658288
      ],
      [
        "▁haske",
        -9.424916350899597
      ],
      [
        "▁sunfi",
        -9.426031839652575
      ],
      [
        "▁wa'inna",
        -9.427335959330074
      ],
      [
        "▁bayyana",
        -9.42741149422227
      ],
      [
        "▁bazamu",
        -9.429839451429705
      ],
      [
        "▁kokarin",
        -9.430412133857102
      ],
      [
        "▁bazata",
        -9.432330674017901
      ],
      [
        "riya",
        -9.434170636010789
      ],
      [
        "▁Niger",
        -9.434961695332206
      ],
      [
        "▁darajar",
        -9.435806652581652
      ],
      [
        "😅😅",
        -9.435907835918815
      ],
      [
        "▁bukatar",
        -9.436518834524847
      ],
      [
        "▁magani",
        -9.437551833922031
      ],
      [
        "▁😕",
        -9.438032476888687
      ],
      [
        "▁😳",
        -9.43982503643911
      ],
      [
        "😎😎",
        -9.4400834874576
      ],
      [
        "qe",
        -9.440242053516213
      ],
      [
        "▁Kwa",
        -9.44114056602679
      ],
      [
        "▁shugabannin",
        -9.442167151639532
      ],
      [
        "▁🙅",
        -9.442971266510988
      ],
      [
        "▁kanku",
        -9.443916655723218
      ],
      [
        "▁Go",
        -9.443991747423325
      ],
      [
        "▁Shima",
        -9.444066986595683
      ],
      [
        "▁tafiya",
        -9.445180177784382
      ],
      [
        "😍😍",
        -9.446860449889163
      ],
      [
        "▁fili",
        -9.447319597455273
      ],
      [
        "mm",
        -9.448398723004122
      ],
      [
        "▁Waya",
        -9.449337406104501
      ],
      [
        "▁yasaka",
        -9.450193715857505
      ],
      [
        "▁q",
        -9.450520156894
      ],
      [
        "▁🤣🤣🤣🤣🤣",
        -9.450734740212924
      ],
      [
        "▁tashin",
        -9.452621856596052
      ],
      [
        "▁jan",
        -9.452729285496309
      ],
      [
        "▁ri",
        -9.453988751973949
      ],
      [
        "▁gudun",
        -9.454605134961113
      ],
      [
        "🔥",
        -9.455031281941451
      ],
      [
        "shen",
        -9.455379919080139
      ],
      [
        "▁amana",
        -9.455900028222494
      ],
      [
        "▁un",
        -9.456994204986643
      ],
      [
        "▁ay",
        -9.458284281465975
      ],
      [
        "▁manya",
        -9.4592011197104
      ],
      [
        "▁kishin",
        -9.459215548798095
      ],
      [
        "▁Bamu",
        -9.461310156029576
      ],
      [
        "▁kaimu",
        -9.466387230094178
      ],
      [
        "▁majalisa",
        -9.469770372743858
      ],
      [
        "▁Katsina",
        -9.469772632308619
      ],
      [
        "▁twitter",
        -9.46977588404658
      ],
      [
        "▁Amurka",
        -9.469780114354233
      ],
      [
        "▁tabbas",
        -9.469789591466498
      ],
      [
        "▁lbr",
        -9.46979861371801
      ],
      [
        "▁Akbar",
        -9.46980542015864
      ],
      [
        "▁yaudara",
        -9.46990280124194
      ],
      [
        "▁Barcelona",
        -9.470040749540132
      ],
      [
        "😂💔",
        -9.470126844554477
      ],
      [
        "▁jawo",
        -9.470287086489467
      ],
      [
        "▁tunani",
        -9.4707078706174
      ],
      [
        "▁PDP",
        -9.47073195109514
      ],
      [
        "tun",
        -9.47086216958698
      ],
      [
        "▁Yaushe",
        -9.47106682476645
      ],
      [
        "▁zango",
        -9.471182560839702
      ],
      [
        "▁haska",
        -9.47178446530851
      ],
      [
        "▁za’a",
        -9.471808295696711
      ],
      [
        "▁tir",
        -9.472254916994617
      ],
      [
        "▁naira",
        -9.47349600621406
      ],
      [
        "▁saba",
        -9.473690110604451
      ],
      [
        "biya",
        -9.473882766865806
      ],
      [
        "▁kafi",
        -9.47454342508485
      ],
      [
        "▁Hap",
        -9.475753847294339
      ],
      [
        "▁kanta",
        -9.47617453786714
      ],
      [
        "▁bayani",
        -9.477226461648936
      ],
      [
        "Ma",
        -9.47751881802891
      ],
      [
        "fada",
        -9.480121276861274
      ],
      [
        "▁😘",
        -9.480589951288458
      ],
      [
        "▁kk",
        -9.480948167174555
      ],
      [
        "▁👇",
        -9.481300148342573
      ],
      [
        "▁gafara",
        -9.481350153333974
      ],
      [
        "▁bare",
        -9.48182307559166
      ],
      [
        "uba",
        -9.482031081786184
      ],
      [
        "▁😡😡😡",
        -9.48332683025188
      ],
      [
        "▁yayiwa",
        -9.484485972712173
      ],
      [
        "▁aci",
        -9.485380935497606
      ],
      [
        "▁nisan",
        -9.486948365287894
      ],
      [
        "▁bayin",
        -9.48714209020626
      ],
      [
        "▁Shugaba",
        -9.488532953513056
      ],
      [
        "▁🤨",
        -9.490062997513682
      ],
      [
        "▁siyasar",
        -9.491731977944156
      ],
      [
        "▁kiran",
        -9.4930150609233
      ],
      [
        "▁batun",
        -9.493217948534237
      ],
      [
        "▁Can",
        -9.493458382108184
      ],
      [
        "▁azumi",
        -9.493741911391819
      ],
      [
        "▁kazo",
        -9.49717816626236
      ],
      [
        "▁Ho",
        -9.497266339517779
      ],
      [
        "▁kwarai",
        -9.497955574956325
      ],
      [
        "tafi",
        -9.498325427257033
      ],
      [
        "masu",
        -9.498747898473967
      ],
      [
        "▁mugu",
        -9.499106718644665
      ],
      [
        "▁Qa",
        -9.499793742626448
      ],
      [
        "😲",
        -9.501273659163118
      ],
      [
        "awa",
        -9.502442114292606
      ],
      [
        "💁",
        -9.502634923957297
      ],
      [
        "▁ro",
        -9.504398071464395
      ],
      [
        "▁tambay",
        -9.505812763725032
      ],
      [
        "liya",
        -9.505845955502268
      ],
      [
        "▁She",
        -9.507504332229294
      ],
      [
        "▁Du",
        -9.509890792566376
      ],
      [
        "zan",
        -9.5099330841324
      ],
      [
        "rai",
        -9.510875177971302
      ],
      [
        "nshi",
        -9.510906450562787
      ],
      [
        "#",
        -9.511235820047608
      ],
      [
        "ter",
        -9.511935583222373
      ],
      [
        "▁aji",
        -9.512078185927873
      ],
      [
        "▁cuta",
        -9.512472278044768
      ],
      [
        "maka",
        -9.512925737982279
      ],
      [
        "▁yakeyi",
        -9.513280761156112
      ],
      [
        "▁😢😢",
        -9.515311181425135
      ],
      [
        "▁rabon",
        -9.516329110670856
      ],
      [
        "▁🙄🙄🙄",
        -9.516596609989604
      ],
      [
        "▁kishi",
        -9.516743638505
      ],
      [
        "▁talauci",
        -9.517390093136637
      ],
      [
        "▁Wllh",
        -9.51739181617597
      ],
      [
        "▁hakura",
        -9.517395797330941
      ],
      [
        "▁katsina",
        -9.517404748743719
      ],
      [
        "▁What",
        -9.517422864774353
      ],
      [
        "▁sulhu",
        -9.517442349616232
      ],
      [
        "▁Qarya",
        -9.517500056069968
      ],
      [
        "▁oho",
        -9.517831082244658
      ],
      [
        "▁Lall",
        -9.518181533201982
      ],
      [
        "▁knn",
        -9.518425677169983
      ],
      [
        "▁Uwar",
        -9.518558516463221
      ],
      [
        "▁jiqan",
        -9.519171448050752
      ],
      [
        "▁tausaya",
        -9.519715055086884
      ],
      [
        "▁Bama",
        -9.520262741276474
      ],
      [
        "▁Waye",
        -9.521068678524852
      ],
      [
        "Ba",
        -9.521244630088898
      ],
      [
        "bawa",
        -9.5214179377418
      ],
      [
        "▁mallam",
        -9.521923679079297
      ],
      [
        "▁Wanan",
        -9.523216134147358
      ],
      [
        "▁ko?",
        -9.524059053093977
      ],
      [
        "😠😠",
        -9.524173596279198
      ],
      [
        "▁Kam",
        -9.525108238075621
      ],
      [
        "▁qan",
        -9.525770587664061
      ],
      [
        "▁jaki",
        -9.526228766618937
      ],
      [
        "ƙa",
        -9.528198192492509
      ],
      [
        "🤐",
        -9.528374394518305
      ],
      [
        "▁jirgi",
        -9.529466290544981
      ],
      [
        "▁muji",
        -9.531037393581332
      ],
      [
        "▁z",
        -9.533216757123189
      ],
      [
        "IN",
        -9.533242906098389
      ],
      [
        "▁kwata",
        -9.53325511394793
      ],
      [
        "▁J",
        -9.53363054033575
      ],
      [
        "kuwa",
        -9.53451295890228
      ],
      [
        "rewa",
        -9.534975124481905
      ],
      [
        "▁Suma",
        -9.538353970434972
      ],
      [
        "Dan",
        -9.54138014758787
      ],
      [
        "😢😢😢",
        -9.5415907682853
      ],
      [
        "duk",
        -9.542016750123846
      ],
      [
        "▁Shugaban",
        -9.543416363258979
      ],
      [
        "▁turo",
        -9.543561660862434
      ],
      [
        "baki",
        -9.545408779919889
      ],
      [
        "▁Kada",
        -9.54662665965218
      ],
      [
        "▁sir",
        -9.547228283501617
      ],
      [
        "▁shigar",
        -9.54787451124249
      ],
      [
        "▁hukunci",
        -9.549205291215
      ],
      [
        "▁bala'i",
        -9.549640637269748
      ],
      [
        "haka",
        -9.550160155978386
      ],
      [
        "▁by",
        -9.551422909783183
      ],
      [
        "▁😂🤣😂",
        -9.551807563976734
      ],
      [
        "🤝",
        -9.552044153995137
      ],
      [
        "utar",
        -9.55290631629372
      ],
      [
        "☹️",
        -9.553406107218375
      ],
      [
        "▁Daya",
        -9.553926167579753
      ],
      [
        "▁SU",
        -9.55405859449357
      ],
      [
        "▁Hhhhh",
        -9.555597788333973
      ],
      [
        "▁Ri",
        -9.55627470181261
      ],
      [
        "▁nama",
        -9.557094785413392
      ],
      [
        "▁biyan",
        -9.55757323286208
      ],
      [
        "▁al'umma",
        -9.559380786745276
      ],
      [
        "▁annoba",
        -9.559694999698106
      ],
      [
        "😜😜",
        -9.55977052018172
      ],
      [
        "▁bayar",
        -9.559789109357801
      ],
      [
        "musu",
        -9.561697457838704
      ],
      [
        "?🤔",
        -9.561762434721347
      ],
      [
        "▁Magana",
        -9.562002200388054
      ],
      [
        "▁mota",
        -9.565432190383936
      ],
      [
        "▁Hhh",
        -9.565471210126212
      ],
      [
        "▁le",
        -9.566453570740762
      ],
      [
        "ooo",
        -9.567009835207068
      ],
      [
        "▁alfahari",
        -9.567389549404833
      ],
      [
        "▁lapia",
        -9.567392276927826
      ],
      [
        "▁#SecureNorth",
        -9.567454700961008
      ],
      [
        "▁Haram",
        -9.567963157499484
      ],
      [
        "🤪",
        -9.568135140296537
      ],
      [
        "▁Madrid",
        -9.568451904005995
      ],
      [
        "▁♂️🙅",
        -9.56884417078288
      ],
      [
        "▁rabo",
        -9.569736245308796
      ],
      [
        "▁😏😏😏",
        -9.569971394659444
      ],
      [
        "▁kunyar",
        -9.570608750508432
      ],
      [
        "▁kauye",
        -9.57125327358579
      ],
      [
        "▁tsawo",
        -9.571406852576356
      ],
      [
        "▁zagin",
        -9.571867728168911
      ],
      [
        "▁gano",
        -9.571916810335862
      ],
      [
        "▁xaki",
        -9.572237945683005
      ],
      [
        "▁Mal",
        -9.572383718021225
      ],
      [
        "▁zage",
        -9.572805735056928
      ],
      [
        "▁ƙara",
        -9.573085520447227
      ],
      [
        "▁aga",
        -9.574114253488304
      ],
      [
        "▁hi",
        -9.574329280884172
      ],
      [
        "▁dear",
        -9.575032108360277
      ],
      [
        "▁tausayin",
        -9.575890860959309
      ],
      [
        "▁harkar",
        -9.576397421073903
      ],
      [
        "▁Zaki",
        -9.577606413447558
      ],
      [
        "▁maganan",
        -9.577723972559903
      ],
      [
        "▁masifar",
        -9.5790455714638
      ],
      [
        "▁😎😎😎",
        -9.579438733671926
      ],
      [
        "▁mutuwar",
        -9.580164979706682
      ],
      [
        "▁Bari",
        -9.580809327514796
      ],
      [
        "▁raji'un",
        -9.581011487868206
      ],
      [
        "▁kasance",
        -9.581549155970722
      ],
      [
        "▁Mutum",
        -9.58302938269892
      ],
      [
        "▁Kudi",
        -9.583040849887986
      ],
      [
        "▁sharrin",
        -9.583081444238701
      ],
      [
        "▁kune",
        -9.58351797726393
      ],
      [
        "▁Anyi",
        -9.583795740205966
      ],
      [
        "RA",
        -9.584147815108807
      ],
      [
        "▁same",
        -9.584699776043148
      ],
      [
        "ld",
        -9.584815570837423
      ],
      [
        "▁ju",
        -9.585823318613205
      ],
      [
        "▁hukuncin",
        -9.585918721646998
      ],
      [
        "nd",
        -9.586748833100113
      ],
      [
        "▁kenan.",
        -9.58691412723189
      ],
      [
        "ine",
        -9.587489841952939
      ],
      [
        "▁Be",
        -9.58779691080846
      ],
      [
        "▁ala",
        -9.589847310692196
      ],
      [
        "kowa",
        -9.58991867482235
      ],
      [
        "▁Kasa",
        -9.590262627536783
      ],
      [
        "wani",
        -9.591024581437154
      ],
      [
        "▁kya",
        -9.591034586978243
      ],
      [
        "▁But",
        -9.591462167620582
      ],
      [
        "▁azumin",
        -9.592901370237858
      ],
      [
        "allah",
        -9.59379734453308
      ],
      [
        "▁yanke",
        -9.593851355448555
      ],
      [
        "▁Man",
        -9.596970646862081
      ],
      [
        "cewa",
        -9.597175073573524
      ],
      [
        "▁hoto",
        -9.597391733990648
      ],
      [
        "daina",
        -9.597663920682926
      ],
      [
        "▁chin",
        -9.598167422155363
      ],
      [
        "▁luk",
        -9.598980966086492
      ],
      [
        "kaimu",
        -9.599263607448801
      ],
      [
        "▁wahalar",
        -9.599948108439165
      ],
      [
        "kun",
        -9.600933173067741
      ],
      [
        "qu",
        -9.602290246440315
      ],
      [
        "▁dey",
        -9.604359379160668
      ],
      [
        "run",
        -9.604590657630578
      ],
      [
        "▁Ran",
        -9.60484465895711
      ],
      [
        "▁gaya",
        -9.605535579422924
      ],
      [
        "😋😋",
        -9.605831557322912
      ],
      [
        "▁Dadi",
        -9.607913455011591
      ],
      [
        "▁inba",
        -9.609644532837121
      ],
      [
        "mbo",
        -9.609922375109184
      ],
      [
        "yayi",
        -9.610464023281354
      ],
      [
        "▁zaba",
        -9.610656312340316
      ],
      [
        "▁hav",
        -9.613472911111476
      ],
      [
        "KA",
        -9.613485308367437
      ],
      [
        "▁dakai",
        -9.61385314320937
      ],
      [
        "▁😅😅😅",
        -9.613993367929028
      ],
      [
        "👇",
        -9.614781029901348
      ],
      [
        "▁karka",
        -9.614894972182046
      ],
      [
        "el",
        -9.616394279818396
      ],
      [
        "▁Ye",
        -9.61670594315528
      ],
      [
        "▁guy",
        -9.617821554801647
      ],
      [
        "▁yen",
        -9.617866790999582
      ],
      [
        "unty",
        -9.618553336666329
      ],
      [
        "💃💃",
        -9.619386473512357
      ],
      [
        "▁lantarki",
        -9.620021178225151
      ],
      [
        "▁look",
        -9.620023216278119
      ],
      [
        "▁qarshe",
        -9.62013670866722
      ],
      [
        "▁good",
        -9.620167496382773
      ],
      [
        "▁Naga",
        -9.620169398410587
      ],
      [
        "RI",
        -9.620634415225414
      ],
      [
        "▁30",
        -9.620998025112803
      ],
      [
        "▁6",
        -9.62107666022585
      ],
      [
        "▁ynxu",
        -9.62119166703509
      ],
      [
        "▁Gobe",
        -9.621456636315845
      ],
      [
        "▁actress",
        -9.621833820655507
      ],
      [
        "chin",
        -9.622416787848072
      ],
      [
        "▁Aka",
        -9.622809793014323
      ],
      [
        "use",
        -9.623118521929317
      ],
      [
        "😡😡",
        -9.624037548460578
      ],
      [
        "▁more",
        -9.624138620747223
      ],
      [
        "▁bane,",
        -9.624379661957217
      ],
      [
        "▁if",
        -9.624614835805076
      ],
      [
        "▁Mati",
        -9.625801114233525
      ],
      [
        "▁Koma",
        -9.626002856661563
      ],
      [
        "▁yaqara",
        -9.626052175061789
      ],
      [
        "wi",
        -9.626321211204019
      ],
      [
        "▁Bo",
        -9.626586119923989
      ],
      [
        "▁Mo",
        -9.626615638169532
      ],
      [
        "😁😁😁",
        -9.62671472894828
      ],
      [
        "😀😀😀",
        -9.626879575683482
      ],
      [
        "▁De",
        -9.62735343463434
      ],
      [
        "▁hala",
        -9.627471197037034
      ],
      [
        "🥴",
        -9.627488835567515
      ],
      [
        "▁-",
        -9.627619018454599
      ],
      [
        "▁tona",
        -9.628333564334797
      ],
      [
        "▁washa",
        -9.62928582404601
      ],
      [
        "▁zakuyi",
        -9.629434255482021
      ],
      [
        "🤲🤲🤲",
        -9.629897675257533
      ],
      [
        "gar",
        -9.630281453141139
      ],
      [
        "▁nidai",
        -9.631290815912823
      ],
      [
        "tion",
        -9.631481670364614
      ],
      [
        "▁mugani",
        -9.632304476375289
      ],
      [
        "🤸",
        -9.632586248391299
      ],
      [
        "▁summa",
        -9.632895111888708
      ],
      [
        "▁🙏🏼",
        -9.635355696824401
      ],
      [
        "▁🤣😂",
        -9.637035133187482
      ],
      [
        "▁king",
        -9.63706312055866
      ],
      [
        "▁gajiya",
        -9.63772837772801
      ],
      [
        "▁miji",
        -9.638323022764439
      ],
      [
        "▁😱",
        -9.63857378695657
      ],
      [
        "▁hausawa",
        -9.638744845058195
      ],
      [
        "▁hawa",
        -9.640448727393949
      ],
      [
        "▁daure",
        -9.642834772909751
      ],
      [
        "we",
        -9.643488197287482
      ],
      [
        "😂😂😂😂😂",
        -9.644158917732888
      ],
      [
        "wacce",
        -9.644255712826933
      ],
      [
        "nar",
        -9.64587842381789
      ],
      [
        "▁aciki",
        -9.646034069494549
      ],
      [
        "▁tambayar",
        -9.646420444618949
      ],
      [
        "My",
        -9.646453083153434
      ],
      [
        "▁shirme",
        -9.646515155207151
      ],
      [
        "▁biki",
        -9.648107558715104
      ],
      [
        "▁fu",
        -9.648419836524097
      ],
      [
        "▁yaba",
        -9.64882490244282
      ],
      [
        "▁abubuwa",
        -9.648872626539372
      ],
      [
        "ara",
        -9.651654069395217
      ],
      [
        "yake",
        -9.65177481310656
      ],
      [
        "▁Aure",
        -9.652384092104256
      ],
      [
        "yarda",
        -9.652689871243192
      ],
      [
        "😅😅😅",
        -9.65429366790184
      ],
      [
        ".🙏",
        -9.654299194863107
      ],
      [
        "▁xuwa",
        -9.654498586811483
      ],
      [
        "▁wae",
        -9.654859268691437
      ],
      [
        "sa,",
        -9.655131492379825
      ],
      [
        "LA",
        -9.655169263877937
      ],
      [
        "▁as",
        -9.655877759927025
      ],
      [
        "▁shegen",
        -9.655930089263329
      ],
      [
        "▁Zama",
        -9.657682054856823
      ],
      [
        "qar",
        -9.658769652224384
      ],
      [
        "▁aika",
        -9.659433261860311
      ],
      [
        "▁shayi",
        -9.659809945419541
      ],
      [
        "🤭",
        -9.660853946100364
      ],
      [
        "▁yasha",
        -9.66093085022093
      ],
      [
        "▁yaja",
        -9.661027257642937
      ],
      [
        "▁addu'a",
        -9.662989317490807
      ],
      [
        "ila",
        -9.66321009378936
      ],
      [
        "🙏🏾",
        -9.663648849503891
      ],
      [
        "▁Saka",
        -9.663959581431211
      ],
      [
        "▁wawa",
        -9.664840526777994
      ],
      [
        "▁nu",
        -9.665468111925632
      ],
      [
        "▁badan",
        -9.66777068864664
      ],
      [
        "'in",
        -9.668121107052652
      ],
      [
        "▁baxa",
        -9.66887521664599
      ],
      [
        "▁amfanin",
        -9.669770710949864
      ],
      [
        "▁cu",
        -9.669854059752964
      ],
      [
        "▁abokin",
        -9.670082670726485
      ],
      [
        "▁👏👏👏",
        -9.671176404890613
      ],
      [
        "▁ab",
        -9.672629273518808
      ],
      [
        "hh",
        -9.673510376688622
      ],
      [
        "ida",
        -9.673614761365625
      ],
      [
        "▁muci",
        -9.674814559600376
      ],
      [
        "▁nesa",
        -9.67483695264804
      ],
      [
        "▁tweet",
        -9.675136883809529
      ],
      [
        "😨",
        -9.675469207405914
      ],
      [
        "😈",
        -9.675576530313942
      ],
      [
        "😑",
        -9.675576530313942
      ],
      [
        "▁larabci",
        -9.675576544274703
      ],
      [
        "▁sojoji",
        -9.67557666685746
      ],
      [
        "▁Koh",
        -9.675577871962723
      ],
      [
        "▁gulma",
        -9.675577885115167
      ],
      [
        "▁fyade",
        -9.675578053244207
      ],
      [
        "▁know",
        -9.675578485092766
      ],
      [
        "▁why",
        -9.675582690737901
      ],
      [
        "▁dani",
        -9.6755981418845
      ],
      [
        "▁jinjina",
        -9.67560154204384
      ],
      [
        "▁wiwi",
        -9.675616149606714
      ],
      [
        "▁media",
        -9.675621725374421
      ],
      [
        "▁or",
        -9.675737203689826
      ],
      [
        "▁fassara",
        -9.675843838095725
      ],
      [
        "▁zalunci",
        -9.675895564977036
      ],
      [
        "▁Shege",
        -9.676032188473377
      ],
      [
        "▁Amen",
        -9.67607035268718
      ],
      [
        "▁fasa",
        -9.676426489938201
      ],
      [
        "▁mahmud",
        -9.676778650228943
      ],
      [
        "▁kamu",
        -9.676886532688274
      ],
      [
        "▁kwance",
        -9.677121928363793
      ],
      [
        "▁menene",
        -9.677479243368747
      ],
      [
        "👍👍",
        -9.677527762405193
      ],
      [
        "▁guys",
        -9.678156570643496
      ],
      [
        ",000",
        -9.679291141657652
      ],
      [
        "▁kasashen",
        -9.679316246388126
      ],
      [
        "▁kulle",
        -9.68007349406416
      ],
      [
        "▁lillahi",
        -9.680765142629962
      ],
      [
        "▁bura",
        -9.680808214072478
      ],
      [
        "▁shin",
        -9.68156069818603
      ],
      [
        "hhh",
        -9.681637018144727
      ],
      [
        "▁babbar",
        -9.682360629239056
      ],
      [
        "▁Muhammadu",
        -9.682435550371476
      ],
      [
        "▁xasu",
        -9.682764903503084
      ],
      [
        "uwar",
        -9.68278489779851
      ],
      [
        "▁uwarku",
        -9.683030168481643
      ],
      [
        "▁Kafi",
        -9.684472763802953
      ],
      [
        "▁shigo",
        -9.685018905161801
      ],
      [
        "▁rasu",
        -9.68529001791938
      ],
      [
        "▁pic",
        -9.685574291601423
      ],
      [
        "▁malan",
        -9.685718948580345
      ],
      [
        "▁uwarsu",
        -9.687391825937137
      ],
      [
        "▁😠😠",
        -9.68829366981771
      ],
      [
        "▁Maza",
        -9.688403284701312
      ],
      [
        "▁yanka",
        -9.68868468626414
      ],
      [
        "▁karatu",
        -9.688927760541597
      ],
      [
        "▁Ala",
        -9.689336792561857
      ],
      [
        "ata",
        -9.690473291804889
      ],
      [
        "▁Oh",
        -9.690640933225097
      ],
      [
        "▁shiri",
        -9.690996716570702
      ],
      [
        "▁Anayi",
        -9.691528317256479
      ],
      [
        "▁gara",
        -9.691766003076149
      ],
      [
        "▁Shan",
        -9.69231095946742
      ],
      [
        "su.",
        -9.692572262509369
      ],
      [
        "▁pha",
        -9.69301569302623
      ],
      [
        "▁kenan,",
        -9.693280265380722
      ],
      [
        "▁game",
        -9.693692156969073
      ],
      [
        "▁dage",
        -9.695051016229893
      ],
      [
        "▁star",
        -9.695903833361513
      ],
      [
        "ddin",
        -9.69656172438727
      ],
      [
        "▁kuskure",
        -9.69717696734737
      ],
      [
        "ure",
        -9.697409185029022
      ],
      [
        "▁🙏🏽",
        -9.698720363292878
      ],
      [
        "▁kwai",
        -9.698880761849068
      ],
      [
        "▁Kace",
        -9.69933252288264
      ],
      [
        "▁wake",
        -9.699599655424244
      ],
      [
        "▁fro",
        -9.701822588608763
      ],
      [
        "▁Kana",
        -9.702187097790432
      ],
      [
        "😒😒",
        -9.704395736604695
      ],
      [
        "ver",
        -9.704467592324283
      ],
      [
        "Wa",
        -9.707427203272578
      ],
      [
        "▁mutuncin",
        -9.707742687013381
      ],
      [
        "ring",
        -9.708003205445769
      ],
      [
        "at",
        -9.708895135236151
      ],
      [
        "▁baiwa",
        -9.708918338272998
      ],
      [
        "▁sayar",
        -9.71025906214911
      ],
      [
        "▁anayi",
        -9.710338061979199
      ],
      [
        "▁8",
        -9.711228312983742
      ],
      [
        "▁Zaman",
        -9.711388808445493
      ],
      [
        "▁ranan",
        -9.711421165921209
      ],
      [
        "don",
        -9.711448683943596
      ],
      [
        "INA",
        -9.712022546961798
      ],
      [
        "▁kanki",
        -9.712719911594128
      ],
      [
        "▁saki",
        -9.71330825542262
      ],
      [
        "😭💔",
        -9.713355874311377
      ],
      [
        "han",
        -9.713390257116298
      ],
      [
        "▁damar",
        -9.71391993200381
      ],
      [
        "▁matar",
        -9.714131065620066
      ],
      [
        "▁Yaya",
        -9.714401829916453
      ],
      [
        "▁fadawa",
        -9.714828625139067
      ],
      [
        "▁Rayuwa",
        -9.715030026245298
      ],
      [
        "dade",
        -9.716277380961145
      ],
      [
        "👀",
        -9.716541914763088
      ],
      [
        "😫",
        -9.71757699326685
      ],
      [
        "💞",
        -9.71902142323699
      ],
      [
        "❓",
        -9.719083089826652
      ],
      [
        "*",
        -9.7197272031246
      ],
      [
        "😌",
        -9.719909676895835
      ],
      [
        "kiya",
        -9.72048085266573
      ],
      [
        "😷",
        -9.720498196070658
      ],
      [
        "😇",
        -9.720552787356525
      ],
      [
        "(",
        -9.721170848084657
      ],
      [
        "▁fadar",
        -9.725501835954688
      ],
      [
        "▁9",
        -9.72583341136881
      ],
      [
        "kawo",
        -9.726541128829531
      ],
      [
        "▁Hhhhhh",
        -9.726658371366396
      ],
      [
        "▁buga",
        -9.727259416708902
      ],
      [
        "duniya",
        -9.728845787570435
      ],
      [
        "▁wataran",
        -9.731247589092739
      ],
      [
        "▁asa",
        -9.733328230385933
      ],
      [
        "😢😢",
        -9.733457569121141
      ],
      [
        ";",
        -9.734400059909726
      ],
      [
        "ه",
        -9.734400059910065
      ],
      [
        "🤧",
        -9.734400059910065
      ],
      [
        "▁Queen",
        -9.734400266608613
      ],
      [
        "▁level",
        -9.734400383713083
      ],
      [
        "▁mahaukaci",
        -9.734400529324738
      ],
      [
        "▁virus",
        -9.734400800445883
      ],
      [
        "▁labarai",
        -9.734401824955958
      ],
      [
        "▁rijiya",
        -9.734403216462853
      ],
      [
        "▁Alheri",
        -9.734403439251105
      ],
      [
        "▁lafia",
        -9.73442072163908
      ],
      [
        "▁lalata",
        -9.734502211344958
      ],
      [
        "▁kwalliya",
        -9.734522286787858
      ],
      [
        "▁bless",
        -9.734565669515261
      ],
      [
        "▁kujerar",
        -9.734568867262402
      ],
      [
        "▁hope",
        -9.734586303424742
      ],
      [
        "▁sister",
        -9.73463969492369
      ],
      [
        "▁halitta",
        -9.73466802922156
      ],
      [
        "▁oga",
        -9.734732746158643
      ],
      [
        "▁Godiya",
        -9.734734638716493
      ],
      [
        "▁mashi",
        -9.734988864065123
      ],
      [
        "ction",
        -9.735049324308102
      ],
      [
        "▁akwa",
        -9.735055881371176
      ],
      [
        "▁Zazzau",
        -9.735151491962055
      ],
      [
        "▁yo",
        -9.735564500956237
      ],
      [
        "▁Umar",
        -9.735731614415867
      ],
      [
        "▁Congratulations",
        -9.73588763201429
      ],
      [
        "▁now",
        -9.736137343998722
      ],
      [
        "▁rufa",
        -9.736160590658772
      ],
      [
        "▁Taska",
        -9.736241778130875
      ],
      [
        "▁amen",
        -9.736483692029253
      ],
      [
        "tter",
        -9.736528091729625
      ],
      [
        "▁gwara",
        -9.736766858363945
      ],
      [
        "▁kisa",
        -9.737087298007513
      ],
      [
        "▁Mutumin",
        -9.737369811417848
      ],
      [
        "▁tasa",
        -9.738705042980389
      ],
      [
        "▁cinye",
        -9.738825327674652
      ],
      [
        "▁aljannah",
        -9.738862479978742
      ],
      [
        "▁munafukai",
        -9.739680221171442
      ],
      [
        "▁makomar",
        -9.739698527545409
      ],
      [
        "DA",
        -9.74060764829639
      ],
      [
        "▁taska",
        -9.740815137091964
      ],
      [
        "Da",
        -9.740887761641847
      ],
      [
        "▁SA",
        -9.741022186540023
      ],
      [
        "▁wuri",
        -9.741529147329645
      ],
      [
        "▁tso",
        -9.742082791031052
      ],
      [
        "tul",
        -9.7420834738619
      ],
      [
        "▁Cikin",
        -9.742109752707176
      ],
      [
        "▁I'",
        -9.74222167617324
      ],
      [
        "▁10",
        -9.742319941040314
      ],
      [
        "▁Ba'a",
        -9.743838164313082
      ],
      [
        "😹",
        -9.744345815933976
      ],
      [
        "▁birnin",
        -9.74508569965148
      ],
      [
        "▁xata",
        -9.745760721024949
      ],
      [
        "▁tallafin",
        -9.74586815362732
      ],
      [
        "makon",
        -9.746121666047259
      ],
      [
        "▁samo",
        -9.746251294493486
      ],
      [
        "💃",
        -9.748647613074295
      ],
      [
        "▁akasa",
        -9.749225250657013
      ],
      [
        "▁Ce",
        -9.749409127198852
      ],
      [
        "▁Mutane",
        -9.751924536424085
      ],
      [
        "▁amsar",
        -9.75204221965626
      ],
      [
        "▁hadin",
        -9.75208400027145
      ],
      [
        "👍👍👍",
        -9.75264278672003
      ],
      [
        "▁jima",
        -9.752693176131634
      ],
      [
        "king",
        -9.753598779438814
      ],
      [
        "▁😎😎",
        -9.753762141923003
      ],
      [
        "▁Co",
        -9.753863807716375
      ],
      [
        "▁karasa",
        -9.754000696426283
      ],
      [
        "▁yinki",
        -9.754287162341951
      ],
      [
        "▁inason",
        -9.754607725707938
      ],
      [
        "▁Tana",
        -9.754977144175294
      ],
      [
        "tashi",
        -9.756897467402316
      ],
      [
        "qin",
        -9.757302816163385
      ],
      [
        "▁baiyi",
        -9.757607698034194
      ],
      [
        "▁shafin",
        -9.75786691143065
      ],
      [
        "▁kariya",
        -9.758362057622994
      ],
      [
        "▁illa",
        -9.758988319827804
      ],
      [
        "ct",
        -9.759128121863998
      ],
      [
        "▁Li",
        -9.759151572552135
      ],
      [
        "▁Au",
        -9.760804524523744
      ],
      [
        "ww",
        -9.761754077808028
      ],
      [
        "▁zuciyar",
        -9.76226829425144
      ],
      [
        "shan",
        -9.762312577285948
      ],
      [
        "▁He",
        -9.762622880971612
      ],
      [
        "waye",
        -9.762776850044785
      ],
      [
        "▁kuje",
        -9.763061800308929
      ],
      [
        "▁kunce",
        -9.763128151677241
      ],
      [
        "bbu",
        -9.764353835859405
      ],
      [
        "▁kaso",
        -9.765472693728933
      ],
      [
        "▁Baza",
        -9.765683180028457
      ],
      [
        "▁Di",
        -9.765723662132956
      ],
      [
        "▁nace",
        -9.766110679520123
      ],
      [
        "▁kwara",
        -9.766353504791674
      ],
      [
        "ta.",
        -9.766365028807506
      ],
      [
        "▁siyar",
        -9.766427581263834
      ],
      [
        "AMA",
        -9.767765798387233
      ],
      [
        "▁NA",
        -9.76852986253521
      ],
      [
        "▁♂️🏃",
        -9.768644950804116
      ],
      [
        "🙏🙏🙏🙏",
        -9.769133967225349
      ],
      [
        "fo",
        -9.769658598292542
      ],
      [
        "kyau",
        -9.770891779586028
      ],
      [
        "tch",
        -9.771061258084673
      ],
      [
        "😭🙏",
        -9.7711347391345
      ],
      [
        "▁kau",
        -9.771517112064558
      ],
      [
        "▁tasha",
        -9.77208620550752
      ],
      [
        "▁nunawa",
        -9.772854549044492
      ],
      [
        "▁mene",
        -9.774998704953594
      ],
      [
        "▁iko",
        -9.776440372545315
      ],
      [
        "bun",
        -9.77721917235854
      ],
      [
        "▁jama",
        -9.777633384603574
      ],
      [
        "toh",
        -9.777900475423598
      ],
      [
        "▁fitar",
        -9.777993481899797
      ],
      [
        "▁GA",
        -9.780312790989123
      ],
      [
        "🤩",
        -9.781492110370507
      ],
      [
        "▁tukun",
        -9.782040190389194
      ],
      [
        "👊",
        -9.782418776499757
      ],
      [
        "😪",
        -9.782905830600683
      ],
      [
        "▁kukan",
        -9.783398172970259
      ],
      [
        "▁juna",
        -9.783748458611164
      ],
      [
        "▁Kudin",
        -9.784202301673368
      ],
      [
        "▁Ci",
        -9.785791557914393
      ],
      [
        "us",
        -9.788379962365898
      ],
      [
        "vi",
        -9.788483235414377
      ],
      [
        "▁km",
        -9.789377095256206
      ],
      [
        "gaya",
        -9.790503918368774
      ],
      [
        "▁may",
        -9.790672481209851
      ],
      [
        "taba",
        -9.791386019973674
      ],
      [
        "▁taji",
        -9.792515393846875
      ],
      [
        "hassada",
        -9.793507024008662
      ],
      [
        "▁musulma",
        -9.793758469194998
      ],
      [
        "▁KU",
        -9.794462184941327
      ],
      [
        "est",
        -9.794770871477338
      ],
      [
        "▁😡😡",
        -9.794984933499089
      ],
      [
        "▁sin",
        -9.79560713848422
      ],
      [
        "▁dagaske",
        -9.795656143315377
      ],
      [
        "▁wa'in",
        -9.796371125662027
      ],
      [
        "▁Saudi",
        -9.796640716001837
      ],
      [
        "🕺",
        -9.796741378724857
      ],
      [
        "▁ball",
        -9.79676501299163
      ],
      [
        "%",
        -9.7968487556262
      ],
      [
        "😚",
        -9.79690005029666
      ],
      [
        "▁beautiful",
        -9.796900059912765
      ],
      [
        "▁ƴan",
        -9.79690005997552
      ],
      [
        "▁account",
        -9.796901273092464
      ],
      [
        "▁Lagos",
        -9.796901626320341
      ],
      [
        "▁tsufa",
        -9.796919211520592
      ],
      [
        "▁Ameeen",
        -9.796923504277858
      ],
      [
        "▁anfani",
        -9.796969022676066
      ],
      [
        "▁tarihi",
        -9.79702341825021
      ],
      [
        "▁masoya",
        -9.797057710877024
      ],
      [
        "▁fitina",
        -9.797291366090821
      ],
      [
        "▁amarya",
        -9.797325962493563
      ],
      [
        "▁Alhaji",
        -9.797399924284084
      ],
      [
        "▁#RanarHausa",
        -9.798245445611668
      ],
      [
        "▁Atiku",
        -9.79827200776886
      ],
      [
        "▁ishe",
        -9.798523686684689
      ],
      [
        "▁watch",
        -9.798669114540093
      ],
      [
        "▁Kwarai",
        -9.798899895534692
      ],
      [
        "idan",
        -9.799382961584367
      ],
      [
        "▁sorry",
        -9.799552936713718
      ],
      [
        "▁gaggawa",
        -9.799770878780807
      ],
      [
        "▁shuka",
        -9.800039301223933
      ],
      [
        "▁kawai.",
        -9.80099662884263
      ],
      [
        "▁hadda",
        -9.801119024975614
      ],
      [
        "▁jefa",
        -9.801346042949062
      ],
      [
        "▁over",
        -9.801794239455644
      ],
      [
        "▁xan",
        -9.801815656840503
      ],
      [
        "▁Lokacin",
        -9.802324265775388
      ],
      [
        "▁come",
        -9.803029345136345
      ],
      [
        "ayyu",
        -9.803148692943491
      ],
      [
        "▁NE",
        -9.804129555825057
      ],
      [
        "▁50",
        -9.804272928688874
      ],
      [
        "▁💋",
        -9.804385879298346
      ],
      [
        "▁xamu",
        -9.80521301580174
      ],
      [
        "🙏🏼",
        -9.805268495118789
      ],
      [
        "?🙄",
        -9.805881859872539
      ],
      [
        "▁yanayi",
        -9.806344924759234
      ],
      [
        "▁Maganar",
        -9.806924670677471
      ],
      [
        "▁batu",
        -9.808516993935797
      ],
      [
        "▁han",
        -9.809370298103158
      ],
      [
        "lala",
        -9.809828575675192
      ],
      [
        "▁mna",
        -9.809866803289689
      ],
      [
        "ne,",
        -9.809957331065107
      ],
      [
        "▁kenn",
        -9.81063169419255
      ],
      [
        "▁ba?",
        -9.812655038250213
      ],
      [
        "▁20",
        -9.813307262357638
      ],
      [
        "▁abincin",
        -9.813793128932613
      ],
      [
        "▁iskan",
        -9.813925071251179
      ],
      [
        "▁Jin",
        -9.813955894589768
      ],
      [
        "▁kwace",
        -9.814082795122534
      ],
      [
        "😓",
        -9.814344332265117
      ],
      [
        "▁barmu",
        -9.814587499102077
      ],
      [
        "▁mukayi",
        -9.81615975943891
      ],
      [
        "▁karawa",
        -9.8161959904684
      ],
      [
        "AI",
        -9.817937517181166
      ],
      [
        "▁yankin",
        -9.818763747739457
      ],
      [
        "▁😉",
        -9.818922774110906
      ],
      [
        "🤫",
        -9.819345588255896
      ],
      [
        "▁adam",
        -9.820028642679741
      ],
      [
        "▁Kayi",
        -9.822980989735079
      ],
      [
        "▁masha",
        -9.823135939481585
      ],
      [
        "▁too",
        -9.823319567687328
      ],
      [
        "ria",
        -9.824490800489006
      ],
      [
        "▁dena",
        -9.825681215552306
      ],
      [
        "uta",
        -9.826027444419054
      ],
      [
        "▁itama",
        -9.826580544276668
      ],
      [
        "day",
        -9.826804793700433
      ],
      [
        "ng",
        -9.827089266218257
      ],
      [
        "▁babba",
        -9.827520862408273
      ],
      [
        "UMA",
        -9.82790452551353
      ],
      [
        "▁sanyi",
        -9.828251815594903
      ],
      [
        "ers",
        -9.82834885179278
      ],
      [
        "uro",
        -9.82842312270644
      ],
      [
        "▁shuwagabannin",
        -9.829282460163007
      ],
      [
        "ncin",
        -9.831247255634256
      ],
      [
        "fito",
        -9.832370240214955
      ],
      [
        "mala",
        -9.83305483042059
      ],
      [
        "▁yasamu",
        -9.834051476442115
      ],
      [
        "ze",
        -9.834990790991771
      ],
      [
        "▁V",
        -9.836061359296083
      ],
      [
        "▁l",
        -9.836658952389353
      ],
      [
        "▁dea",
        -9.837043961684182
      ],
      [
        "kaji",
        -9.838325147700248
      ],
      [
        "iyya",
        -9.838865012897822
      ],
      [
        "ON",
        -9.839339455327252
      ],
      [
        "rasa",
        -9.841066730591326
      ],
      [
        "mal",
        -9.842057125649303
      ],
      [
        "▁shugabanni",
        -9.843154157245948
      ],
      [
        "▁muta",
        -9.843304532949773
      ],
      [
        "▁Mutanen",
        -9.84410652493776
      ],
      [
        "▁Yi",
        -9.845054805700528
      ],
      [
        "cha",
        -9.84600419365405
      ],
      [
        "▁dacewa",
        -9.847355144162872
      ],
      [
        "😬",
        -9.848547500278627
      ],
      [
        "🤕",
        -9.848679272872428
      ],
      [
        "▁kusan",
        -9.84903209046239
      ],
      [
        "hada",
        -9.849784924891068
      ],
      [
        "▁ƙ",
        -9.850993262456992
      ],
      [
        "thing",
        -9.85102011093944
      ],
      [
        "is",
        -9.852375630846765
      ],
      [
        "ood",
        -9.8525037311165
      ],
      [
        "▁tambaye",
        -9.853586599174161
      ],
      [
        "ju",
        -9.85408900982876
      ],
      [
        "▁200",
        -9.854733144449142
      ],
      [
        "ALLAH",
        -9.856469169240633
      ],
      [
        "▁kuma?",
        -9.858578005962501
      ],
      [
        "▁karatun",
        -9.859540467778368
      ],
      [
        "▁yah",
        -9.860299138671678
      ],
      [
        "▁All",
        -9.861695115671253
      ],
      [
        "ɓ",
        -9.861811438294696
      ],
      [
        "▁kullu",
        -9.862207770563627
      ],
      [
        "▁xu",
        -9.863130427219486
      ],
      [
        "▁happ",
        -9.863456023495146
      ],
      [
        "😶",
        -9.863566726576746
      ],
      [
        "🙃",
        -9.863566726576746
      ],
      [
        "😖",
        -9.863566726576746
      ],
      [
        "▁school",
        -9.863566726798737
      ],
      [
        "▁BUHARI",
        -9.863567707475198
      ],
      [
        "▁photo",
        -9.863568094219728
      ],
      [
        "▁lockdown",
        -9.863569583349186
      ],
      [
        "▁Messi",
        -9.863574696528875
      ],
      [
        "▁lauje",
        -9.86357938630465
      ],
      [
        "▁Meyasa",
        -9.863598017886968
      ],
      [
        "▁haifi",
        -9.863598258190802
      ],
      [
        "▁Shiyasa",
        -9.863615484984027
      ],
      [
        "▁korona",
        -9.86364503313406
      ],
      [
        "▁alkawari",
        -9.863646503061942
      ],
      [
        "▁bangaren",
        -9.863652682783968
      ],
      [
        "▁dunia",
        -9.863688874617985
      ],
      [
        "▁even",
        -9.863720392953036
      ],
      [
        "▁waɗan",
        -9.863913449244103
      ],
      [
        "▁SAW",
        -9.86392304502732
      ],
      [
        "tumar",
        -9.864092838432098
      ],
      [
        "▁state",
        -9.864224921635303
      ],
      [
        "▁dogo",
        -9.864500775730482
      ],
      [
        "▁sannu",
        -9.864575931468007
      ],
      [
        "✌️",
        -9.864773348744329
      ],
      [
        "▁zance",
        -9.8652696573387
      ],
      [
        "😣😣",
        -9.865615380112912
      ],
      [
        "▁canza",
        -9.865819859153486
      ],
      [
        "▁HAUSA",
        -9.866899275572209
      ],
      [
        "▁Duba",
        -9.867158589775103
      ],
      [
        "▁janye",
        -9.867715225437728
      ],
      [
        "▁daji",
        -9.867921106470535
      ],
      [
        "▁garesu",
        -9.868048697019102
      ],
      [
        "▁takaici",
        -9.868414810410652
      ],
      [
        "▁hanu",
        -9.86861152239011
      ],
      [
        "▁💵",
        -9.868779125160568
      ],
      [
        "▁tukunna",
        -9.86892545882003
      ],
      [
        "▁Kanawa",
        -9.869129458026386
      ],
      [
        "▁gareka",
        -9.869341849731029
      ],
      [
        "▁zaayi",
        -9.869378781381517
      ],
      [
        "▁Gyad",
        -9.870484825483341
      ],
      [
        "ation",
        -9.870809686579872
      ],
      [
        "▁!!",
        -9.870816314819482
      ],
      [
        "▁Yadda",
        -9.8711114535741
      ],
      [
        "▁some",
        -9.872948946080175
      ],
      [
        "▁Kwana",
        -9.873088853898201
      ],
      [
        "▁shi,",
        -9.873254687837237
      ],
      [
        "▁Alh",
        -9.873434310630142
      ],
      [
        "▁fuska",
        -9.873721061345556
      ],
      [
        "ron",
        -9.874107658083958
      ],
      [
        "Su",
        -9.874400116589907
      ],
      [
        "ah",
        -9.874830972660623
      ],
      [
        "▁fuskar",
        -9.875061047916434
      ],
      [
        "▁And",
        -9.875136169411588
      ],
      [
        "▁Nawa",
        -9.875264572412483
      ],
      [
        "▁Wuta",
        -9.876593682157694
      ],
      [
        "▁qare",
        -9.876890127880888
      ],
      [
        "▁bazasu",
        -9.876947313493199
      ],
      [
        "▁yarinyar",
        -9.87712454265765
      ],
      [
        "ntaba",
        -9.877133529457
      ],
      [
        "▁zakayi",
        -9.877655400225185
      ],
      [
        "ne?",
        -9.879069787505156
      ],
      [
        "▁Daura",
        -9.879097305260414
      ],
      [
        "▁❓",
        -9.879499413853713
      ],
      [
        "▁Gashi",
        -9.880279151924839
      ],
      [
        "▁😂😂🤣🤣",
        -9.88047966489156
      ],
      [
        "Manjo",
        -9.881151899327246
      ],
      [
        "sco",
        -9.881844883541211
      ],
      [
        "▁ahaka",
        -9.882359532527502
      ],
      [
        "yy",
        -9.882455674944612
      ],
      [
        "▁fitowa",
        -9.88266156457512
      ],
      [
        "▁HA",
        -9.884108727776983
      ],
      [
        "▁namiji",
        -9.885039732309455
      ],
      [
        "▁sonki",
        -9.887153685835942
      ],
      [
        "▁Bashi",
        -9.887326060957603
      ],
      [
        "▁Garin",
        -9.88741516663551
      ],
      [
        "▁murnar",
        -9.887714852554053
      ],
      [
        "▁❤",
        -9.887855073098962
      ],
      [
        "..Allah",
        -9.88882610400996
      ],
      [
        "▁ida",
        -9.890018402224511
      ],
      [
        "😹😹",
        -9.891862256437452
      ],
      [
        "▁🥺",
        -9.891953829569973
      ],
      [
        "▁bera",
        -9.892702172388162
      ],
      [
        "▁😞",
        -9.892800318854803
      ],
      [
        "▁gana",
        -9.892828238748375
      ],
      [
        "▁Hausawa",
        -9.893052666355306
      ],
      [
        "dace",
        -9.89332245102156
      ],
      [
        "Mu",
        -9.893613577970283
      ],
      [
        "▁munji",
        -9.894271652976256
      ],
      [
        "▁nabi",
        -9.894353328066096
      ],
      [
        "▁yima",
        -9.89471686193799
      ],
      [
        "▁mune",
        -9.894824999329643
      ],
      [
        "▁karyar",
        -9.894997813043926
      ],
      [
        "▁Hahahaha",
        -9.9003594105274
      ],
      [
        "hin",
        -9.90219919507071
      ],
      [
        "▁😂😂😂😂😂😂",
        -9.902211284152093
      ],
      [
        "▁xaman",
        -9.904810332252904
      ],
      [
        "👌🏻",
        -9.905097090209855
      ],
      [
        "bb",
        -9.905107361420553
      ],
      [
        "▁Baka",
        -9.905255559255913
      ],
      [
        "ɗa",
        -9.905495751966686
      ],
      [
        "▁wait",
        -9.905615284100417
      ],
      [
        "▁sta",
        -9.905717394964991
      ],
      [
        "KI",
        -9.907483249661352
      ],
      [
        "▁kanawa",
        -9.907579099890787
      ],
      [
        "▁Mala",
        -9.907807225950165
      ],
      [
        "ASU",
        -9.907853061996239
      ],
      [
        "▁Kut",
        -9.908702592816406
      ],
      [
        "▁nadi",
        -9.909484179692187
      ],
      [
        "ble",
        -9.910259018156442
      ],
      [
        "▁sharri",
        -9.912881578885958
      ],
      [
        "▁pi",
        -9.912909852723518
      ],
      [
        "fadi",
        -9.914691598909334
      ],
      [
        "▁te",
        -9.91570159501203
      ],
      [
        "▁bashin",
        -9.916204482802133
      ],
      [
        "▁tuwo",
        -9.916385982617722
      ],
      [
        "ger",
        -9.91667357569501
      ],
      [
        "▁sam",
        -9.916748522347284
      ],
      [
        "▁Hi",
        -9.917267720601458
      ],
      [
        "▁Musa",
        -9.918891012625636
      ],
      [
        "▁duniyar",
        -9.919128100834051
      ],
      [
        "🤲🏻",
        -9.919446395907151
      ],
      [
        "▁iri",
        -9.919906157933255
      ],
      [
        "▁🙏🙏🙏🙏",
        -9.920621029862325
      ],
      [
        "rsenal",
        -9.92091587132487
      ],
      [
        "▁IN",
        -9.921146131763084
      ],
      [
        "“",
        -9.92174070432911
      ],
      [
        "▁Ban",
        -9.922782481969875
      ],
      [
        "🏃🏃",
        -9.92336780039367
      ],
      [
        "HU",
        -9.927637878578613
      ],
      [
        "iii",
        -9.927699486697138
      ],
      [
        "▁musa",
        -9.928050004309029
      ],
      [
        "h,",
        -9.92902767571257
      ],
      [
        "▁👍👍",
        -9.929313667968398
      ],
      [
        "▁salla",
        -9.929395837361769
      ],
      [
        "▁sati",
        -9.929809018225477
      ],
      [
        "💪💪",
        -9.929902388589124
      ],
      [
        "▁lada",
        -9.930271748929268
      ],
      [
        "▁'Ya",
        -9.931628196569347
      ],
      [
        "▁movie",
        -9.932296693023709
      ],
      [
        "▁rayukan",
        -9.93251474207602
      ],
      [
        "▁Baya",
        -9.934471205375578
      ],
      [
        "▁eh",
        -9.93471482636435
      ],
      [
        "👐",
        -9.934799052181553
      ],
      [
        "💖",
        -9.934832689502857
      ],
      [
        "▁100",
        -9.934994491647961
      ],
      [
        "🕋",
        -9.934994990247912
      ],
      [
        "😛",
        -9.934995289094196
      ],
      [
        "🖕",
        -9.93499529099695
      ],
      [
        "👂",
        -9.934995291470809
      ],
      [
        "🙁",
        -9.934995298005337
      ],
      [
        "▁Please",
        -9.93499529972496
      ],
      [
        "▁gomnati",
        -9.934995332274916
      ],
      [
        "▁mahaukata",
        -9.934995470484811
      ],
      [
        "▁YDG",
        -9.934995660050744
      ],
      [
        "▁hakori",
        -9.934997085845957
      ],
      [
        "▁Ramadan",
        -9.934997480173234
      ],
      [
        "special",
        -9.934999497922083
      ],
      [
        "▁labaran",
        -9.935000424522215
      ],
      [
        "▁post",
        -9.935020142444259
      ],
      [
        "▁number",
        -9.935021967158008
      ],
      [
        "▁Allaah",
        -9.935024726798202
      ],
      [
        "▁India",
        -9.935033760578262
      ],
      [
        "▁messi",
        -9.935050305183708
      ],
      [
        "▁KANO",
        -9.935073607071306
      ],
      [
        "▁Shegiya",
        -9.935074302534812
      ],
      [
        "▁tarbiya",
        -9.93507946011313
      ],
      [
        "▁zaune",
        -9.935133374998252
      ],
      [
        "▁gabadaya",
        -9.93516163604989
      ],
      [
        "▁ciniki",
        -9.935207630721202
      ],
      [
        "▁BABA",
        -9.935261791040618
      ],
      [
        "▁giwa",
        -9.935450439475156
      ],
      [
        "▁9ja",
        -9.935502940997743
      ],
      [
        "▁Chi",
        -9.935794487883465
      ],
      [
        "ould",
        -9.935878768885296
      ],
      [
        "▁lalle",
        -9.936091334327
      ],
      [
        "▁barawo",
        -9.936194266128716
      ],
      [
        "▁ɗaya",
        -9.936254523330456
      ],
      [
        "▁koshi",
        -9.936278137384472
      ],
      [
        "🥰🥰",
        -9.936497329312301
      ],
      [
        "▁kwashe",
        -9.936560041380632
      ],
      [
        "▁China",
        -9.936755013211037
      ],
      [
        "▁biyo",
        -9.936778040361613
      ],
      [
        "▁wallah",
        -9.937064807375798
      ],
      [
        "▁taga",
        -9.93707859372001
      ],
      [
        "nsa.",
        -9.937182950856554
      ],
      [
        "▁shafe",
        -9.93740509625653
      ],
      [
        "▁2019",
        -9.937861668256883
      ],
      [
        "▁Imani",
        -9.937946814228816
      ],
      [
        "cial",
        -9.938511217170998
      ],
      [
        "▁Kannywood",
        -9.938583759010838
      ],
      [
        "▁Matsalar",
        -9.938837002918357
      ],
      [
        "▁Zuwa",
        -9.938841752467049
      ],
      [
        "🇳🇬🇳🇬🇳🇬",
        -9.939044607251294
      ],
      [
        "▁kanwar",
        -9.939073157437779
      ],
      [
        "▁0",
        -9.939104587837482
      ],
      [
        "▁mukeso",
        -9.939494500051097
      ],
      [
        "▁keep",
        -9.939764754702857
      ],
      [
        "▁makoma",
        -9.940035048676753
      ],
      [
        "▁damuwa",
        -9.94044891525361
      ],
      [
        "▁anka",
        -9.940845477692765
      ],
      [
        "▁tsin",
        -9.940939345910428
      ],
      [
        "▁nuhu",
        -9.940955558852895
      ],
      [
        "▁kinga",
        -9.941642793074593
      ],
      [
        "▁jami'a",
        -9.942506812736696
      ],
      [
        "▁baida",
        -9.942666207649719
      ],
      [
        "💔💔",
        -9.942832822443032
      ],
      [
        "▁aradu",
        -9.943583585676972
      ],
      [
        "▁🙆",
        -9.94418879042155
      ],
      [
        "▁Tin",
        -9.944339309474636
      ],
      [
        "'ala",
        -9.944467409218422
      ],
      [
        "▁fati",
        -9.945806093347187
      ],
      [
        "▁wayan",
        -9.94635704649107
      ],
      [
        "▁Zasu",
        -9.946969013756982
      ],
      [
        "▁kaina",
        -9.947727651418484
      ],
      [
        "▁ruwanku",
        -9.9481730943296
      ],
      [
        "▁al'ummar",
        -9.94854489407362
      ],
      [
        "▁daya.",
        -9.948633023645911
      ],
      [
        "▁abi",
        -9.949076536715717
      ],
      [
        "ska",
        -9.949125656317774
      ],
      [
        "▁TA",
        -9.949317671410084
      ],
      [
        "▁ansha",
        -9.949590306618529
      ],
      [
        "▁amince",
        -9.94984823125964
      ],
      [
        "▁🤭",
        -9.950858836779796
      ],
      [
        "▁😷",
        -9.951841320604627
      ],
      [
        "▁Gidan",
        -9.952183277060135
      ],
      [
        "▁Subhanallahi",
        -9.952326119263766
      ],
      [
        "▁birgeni",
        -9.953748045188526
      ],
      [
        "baka",
        -9.954349818234828
      ],
      [
        "▁Manya",
        -9.955237770874836
      ],
      [
        "▁ansa",
        -9.955656095724368
      ],
      [
        "▁karuwa",
        -9.95597522118505
      ],
      [
        "KE",
        -9.95600707655219
      ],
      [
        "▁rajiun",
        -9.956573059645127
      ],
      [
        "▁abaya",
        -9.956760084296302
      ],
      [
        "▁Taya",
        -9.95734004795129
      ],
      [
        "▁dubawa",
        -9.958455647717507
      ],
      [
        "▁karku",
        -9.958505264617116
      ],
      [
        "▁rago",
        -9.958951324168947
      ],
      [
        "hm",
        -9.960004833776685
      ],
      [
        "▁has",
        -9.9614043894508
      ],
      [
        "▁Fada",
        -9.962182070739871
      ],
      [
        "▁kabarin",
        -9.96239882319264
      ],
      [
        "▁dalili",
        -9.962920818056089
      ],
      [
        "▁Gu",
        -9.964542851402529
      ],
      [
        "udu",
        -9.96523240922064
      ],
      [
        "▁fata",
        -9.965435460898973
      ],
      [
        "giya",
        -9.965883457624562
      ],
      [
        "▁hakane",
        -9.966327785007142
      ],
      [
        "🤲🏽",
        -9.968013865472999
      ],
      [
        "how",
        -9.969224621669156
      ],
      [
        "▁yawon",
        -9.971195557262138
      ],
      [
        "yanzu",
        -9.971673559930084
      ],
      [
        "▁Wane",
        -9.972913949607651
      ],
      [
        "iz",
        -9.97455706735663
      ],
      [
        "zamo",
        -9.974964153342725
      ],
      [
        ".Allah",
        -9.976084931429487
      ],
      [
        "fari",
        -9.976743670331551
      ],
      [
        "🔥🔥",
        -9.977412073391331
      ],
      [
        "kusa",
        -9.97745023742322
      ],
      [
        "▁yabi",
        -9.977874638694956
      ],
      [
        "▁kasha",
        -9.978683511086814
      ],
      [
        "▁nice",
        -9.97938662902083
      ],
      [
        "▁gamu",
        -9.979691942919393
      ],
      [
        "▁😢😢😢",
        -9.98041431403579
      ],
      [
        "▁asalin",
        -9.980871104478842
      ],
      [
        "zar",
        -9.981061997584737
      ],
      [
        "▁MA",
        -9.98137859923246
      ],
      [
        "▁kabari",
        -9.983224361396752
      ],
      [
        "▁gada",
        -9.983444834911866
      ],
      [
        "▁Gwamnati",
        -9.984084808579897
      ],
      [
        "🙉",
        -9.984264026275833
      ],
      [
        "a'a",
        -9.985098352466437
      ],
      [
        "ity",
        -9.986064262104126
      ],
      [
        "▁tsarin",
        -9.98685257404501
      ],
      [
        "▁???",
        -9.986877445208302
      ],
      [
        "▁aza",
        -9.988140907938044
      ],
      [
        "▁jami",
        -9.989159692040161
      ],
      [
        "▁Rai",
        -9.989568975140543
      ],
      [
        "😃😃",
        -9.990386319546815
      ],
      [
        "▁Babba",
        -9.99301886754453
      ],
      [
        "iba",
        -9.993147079247095
      ],
      [
        "▁raji'u",
        -9.993754956951104
      ],
      [
        "▁harbe",
        -9.99400425587065
      ],
      [
        "▁https://t.co/g",
        -9.994215287446131
      ],
      [
        "▁musiba",
        -9.994313053566593
      ],
      [
        "lar",
        -9.994344442161214
      ],
      [
        "🚶🚶🚶",
        -9.994841428183044
      ],
      [
        "▁face",
        -9.995761735030493
      ],
      [
        "▁Sb",
        -9.996007922578675
      ],
      [
        "😆😆",
        -9.996048301605867
      ],
      [
        "▁Is",
        -9.996887968433954
      ],
      [
        "▁201",
        -9.997235238646121
      ],
      [
        "😄😄",
        -9.99744829706432
      ],
      [
        "🏃🏃🏃",
        -9.997452668451853
      ],
      [
        "▁gun",
        -9.997721630611462
      ],
      [
        "💓",
        -9.997870671516411
      ],
      [
        "🎶",
        -9.997893727285101
      ],
      [
        "👆",
        -9.9979929695922
      ],
      [
        "!!!!",
        -9.998013713604532
      ],
      [
        "👉",
        -9.998059180463478
      ],
      [
        "ning",
        -9.998067831617563
      ],
      [
        "▁wayar",
        -9.998392239046414
      ],
      [
        "gaskiya",
        -9.998753756392269
      ],
      [
        "kiyaye",
        -9.99971859864577
      ],
      [
        "pha",
        -10.000501388086956
      ],
      [
        "cc",
        -10.002130225346649
      ],
      [
        "▁😭😭😭😭😭",
        -10.002903352082402
      ],
      [
        "😥😥😥",
        -10.002992647873393
      ],
      [
        "▁way",
        -10.003131634977693
      ],
      [
        "▁jar",
        -10.004791764438314
      ],
      [
        "▁burge",
        -10.006327335699119
      ],
      [
        "▁kaka",
        -10.006392791129421
      ],
      [
        "cire",
        -10.00679554050846
      ],
      [
        "ther",
        -10.008098680755003
      ],
      [
        "▁ƙasa",
        -10.008435810202712
      ],
      [
        "▁ibada",
        -10.010088867467307
      ],
      [
        "▁Sabo",
        -10.01021862903028
      ],
      [
        "ira",
        -10.010344452410104
      ],
      [
        "▁Uhm",
        -10.010389354402827
      ],
      [
        "faru",
        -10.010451570185312
      ],
      [
        "▁kyale",
        -10.011013832274413
      ],
      [
        "▁india",
        -10.011454864851823
      ],
      [
        "▁♂",
        -10.011718638164009
      ],
      [
        "📿",
        -10.011918374928456
      ],
      [
        "▁kyakkyawa",
        -10.011918375000684
      ],
      [
        "▁S.A.W",
        -10.011918375147447
      ],
      [
        "▁makarantu",
        -10.011920598228386
      ],
      [
        "▁Hankali",
        -10.01192401479241
      ],
      [
        "▁gefe",
        -10.011938488897762
      ],
      [
        "▁haihuwa",
        -10.01195978991323
      ],
      [
        "▁falalu",
        -10.011961821768923
      ],
      [
        "▁free",
        -10.01197858675681
      ],
      [
        "▁Nasara",
        -10.012019128949952
      ],
      [
        "▁Kullu",
        -10.012082450583973
      ],
      [
        "▁Shekara",
        -10.012108509282337
      ],
      [
        "▁murza",
        -10.012208578136367
      ],
      [
        "▁Shegu",
        -10.0123561037975
      ],
      [
        "▁tsallake",
        -10.01249690507135
      ],
      [
        "▁riko",
        -10.012922332489708
      ],
      [
        "▁tho",
        -10.013060984304778
      ],
      [
        "▁Hauka",
        -10.013151978631429
      ],
      [
        "▁za,a",
        -10.01317157095367
      ],
      [
        "▁warke",
        -10.013258916783435
      ],
      [
        "▁Arziki",
        -10.013599194206055
      ],
      [
        "▁hukuma",
        -10.013679865998272
      ],
      [
        "▁budurwa",
        -10.01370933284342
      ],
      [
        "▁aura",
        -10.014511526987711
      ],
      [
        "▁bincike",
        -10.014916033227985
      ],
      [
        "▁turanci",
        -10.015153762454634
      ],
      [
        "▁Real",
        -10.016152309379763
      ],
      [
        "ula",
        -10.016434203107007
      ],
      [
        "▁kunne",
        -10.016482473306747
      ],
      [
        "▁adu",
        -10.016936649417817
      ],
      [
        "BI",
        -10.017762447766295
      ],
      [
        "▁DAN",
        -10.017863897258273
      ],
      [
        "▁jarida",
        -10.01810480632467
      ],
      [
        "fah",
        -10.018121001733284
      ],
      [
        "▁maye",
        -10.018492823366541
      ],
      [
        "▁Yakara",
        -10.018623744856562
      ],
      [
        "▁hula",
        -10.01873684738816
      ],
      [
        "▁💃",
        -10.018750257223294
      ],
      [
        "▁kakawo",
        -10.01883450128895
      ],
      [
        "▁watarana",
        -10.019062307933476
      ],
      [
        "▁munajin",
        -10.019063759492758
      ],
      [
        "▁yakeso",
        -10.019341343332222
      ],
      [
        "▁me?",
        -10.01952072521439
      ],
      [
        "▁Nisan",
        -10.019549371329871
      ],
      [
        "▁matasa",
        -10.019909772314588
      ],
      [
        "🙌🙌🙌",
        -10.020206769161454
      ],
      [
        "▁sallar",
        -10.02066637770721
      ],
      [
        "kashe",
        -10.020968605579888
      ],
      [
        "▁goyan",
        -10.021810990332124
      ],
      [
        "60",
        -10.02192564138389
      ],
      [
        "kalli",
        -10.022201168157368
      ],
      [
        "▁dora",
        -10.02244421778392
      ],
      [
        "▁19",
        -10.02276193832387
      ],
      [
        "▁here",
        -10.024336769309233
      ],
      [
        "▁karama",
        -10.02453886562217
      ],
      [
        "▁‘ya",
        -10.025406087649698
      ],
      [
        "▁salo",
        -10.026566690165048
      ],
      [
        "▁adawa",
        -10.0266165857274
      ],
      [
        "▁mu.",
        -10.02717067507761
      ],
      [
        "▁abba",
        -10.027677335192841
      ],
      [
        "▁Sani",
        -10.027812284824709
      ],
      [
        "▁ɗan",
        -10.027884718333432
      ],
      [
        "▁King",
        -10.028301927670395
      ],
      [
        "▁ye",
        -10.028516793006247
      ],
      [
        "▁batare",
        -10.029995257907702
      ],
      [
        "▁yabashi",
        -10.030977271117486
      ],
      [
        "ɗi",
        -10.031400895009089
      ],
      [
        "▁uwarsa",
        -10.031699835903387
      ],
      [
        "▁layin",
        -10.03192499312751
      ],
      [
        "▁hka",
        -10.032008243746045
      ],
      [
        "▁tsaba",
        -10.03217606247182
      ],
      [
        "▁zabi",
        -10.032622325840132
      ],
      [
        "niya",
        -10.032777143142228
      ],
      [
        "▁noma",
        -10.033743829264882
      ],
      [
        "▁🤲🏻",
        -10.034109649886169
      ],
      [
        "ice",
        -10.034542556262368
      ],
      [
        "▁suji",
        -10.034608865185623
      ],
      [
        "▁kukeyi",
        -10.035680966700378
      ],
      [
        "▁😣",
        -10.035865164841248
      ],
      [
        "▁lalacewa",
        -10.035895539897096
      ],
      [
        "▁🙏🏾",
        -10.036247413183432
      ],
      [
        "▁dis",
        -10.036901565362445
      ],
      [
        "▁😋",
        -10.038127554177747
      ],
      [
        "▁back",
        -10.038186507118978
      ],
      [
        "▁alka",
        -10.038439463045083
      ],
      [
        "▁Karyar",
        -10.039112410987396
      ],
      [
        "▁Ca",
        -10.042082690202415
      ],
      [
        "ness",
        -10.042575298600726
      ],
      [
        "cre",
        -10.042721826040772
      ],
      [
        "▁nadama",
        -10.043222558813135
      ],
      [
        "▁taimakon",
        -10.045494707552415
      ],
      [
        "um",
        -10.047368874736048
      ],
      [
        "aaaa",
        -10.047433948547589
      ],
      [
        "😠😠😠",
        -10.047895915073259
      ],
      [
        "▁Yafi",
        -10.048607346968272
      ],
      [
        "barshi",
        -10.048690919704844
      ],
      [
        "▁su.",
        -10.050000900153805
      ],
      [
        "▁marar",
        -10.05049282351241
      ],
      [
        "▁koh?",
        -10.050983256791922
      ],
      [
        "▁aje",
        -10.051026854962045
      ],
      [
        "illa",
        -10.051413573815227
      ],
      [
        "▁dashi,",
        -10.052236784164652
      ],
      [
        "▁Ay",
        -10.053153256283444
      ],
      [
        "▁MU",
        -10.053744256652243
      ],
      [
        "▁shuwagabanni",
        -10.054149210646735
      ],
      [
        "▁Yauwa",
        -10.054728230737965
      ],
      [
        "▁takai",
        -10.054893434350516
      ],
      [
        "▁😒😒",
        -10.055089765636298
      ],
      [
        "▁shekarar",
        -10.055440092295125
      ],
      [
        "▁https://t.co/0",
        -10.055930323495119
      ],
      [
        "kata",
        -10.056899928051715
      ],
      [
        "mfanin",
        -10.057951392779438
      ],
      [
        "▁😜",
        -10.058128226754931
      ],
      [
        "▁hayy",
        -10.058311298419966
      ],
      [
        "boo",
        -10.059130091149239
      ],
      [
        "▁xaku",
        -10.05961932065735
      ],
      [
        "▁rama",
        -10.061494372835552
      ],
      [
        "▁Wu",
        -10.062569158358247
      ],
      [
        "hari",
        -10.063050843609545
      ],
      [
        "▁As",
        -10.064052231211324
      ],
      [
        "yyi",
        -10.064172665539608
      ],
      [
        "▁Sabi",
        -10.065486738745982
      ],
      [
        "cika",
        -10.067441755857985
      ],
      [
        "▁WA",
        -10.067973428662611
      ],
      [
        "▁ciwo",
        -10.068443003871463
      ],
      [
        "nji",
        -10.068748135930607
      ],
      [
        "▁asirin",
        -10.068820415289059
      ],
      [
        "▁niger",
        -10.070478608407328
      ],
      [
        "▁😍😍",
        -10.071908176199114
      ],
      [
        "kasa",
        -10.071949788763245
      ],
      [
        "▁😭😭😭😭😭😭",
        -10.072914221012063
      ],
      [
        "▁Allahumma",
        -10.07334921839101
      ],
      [
        "ead",
        -10.073549455842716
      ],
      [
        "Ku",
        -10.074129126039903
      ],
      [
        "▁Ahh",
        -10.074240534276278
      ],
      [
        "▁jirgin",
        -10.074412874958169
      ],
      [
        "▁🏃🏃🏃",
        -10.07511219415914
      ],
      [
        "▁Kasan",
        -10.075872851872067
      ],
      [
        "▁tsaron",
        -10.076791545055972
      ],
      [
        "▁jinin",
        -10.07756600516327
      ],
      [
        "▁Has",
        -10.078323614502386
      ],
      [
        "😐",
        -10.078502896314422
      ],
      [
        "▁ruwana",
        -10.078778872292634
      ],
      [
        "👌👌",
        -10.079560968720967
      ],
      [
        "vo",
        -10.079927122754388
      ],
      [
        "▁war",
        -10.080480634439787
      ],
      [
        "🙋",
        -10.081328102597908
      ],
      [
        "🌚",
        -10.081328257566415
      ],
      [
        "mutu",
        -10.081629491910173
      ],
      [
        "👑",
        -10.081861506142769
      ],
      [
        "Ameen",
        -10.082070001400911
      ],
      [
        "taimaki",
        -10.08241422866557
      ],
      [
        "▁seya",
        -10.083642776986359
      ],
      [
        "▁taimake",
        -10.08429779598588
      ],
      [
        "▁koyi",
        -10.084308525462571
      ],
      [
        "▁said",
        -10.08473296097658
      ],
      [
        "fatan",
        -10.084929156637562
      ],
      [
        "▁Mtsw",
        -10.085958270075466
      ],
      [
        "’i",
        -10.086200302536943
      ],
      [
        "▁rashi",
        -10.086886689953616
      ],
      [
        "sin",
        -10.087548585427971
      ],
      [
        "baku",
        -10.08805699284465
      ],
      [
        "domin",
        -10.088793786367065
      ],
      [
        "tsaya",
        -10.089336394621427
      ],
      [
        "▁Zaka",
        -10.08950458364268
      ],
      [
        "up",
        -10.08996764163972
      ],
      [
        "▁fans",
        -10.09006672420635
      ],
      [
        "▁kyau,",
        -10.09030434072686
      ],
      [
        "ful",
        -10.090568084845426
      ],
      [
        "▁Rabb",
        -10.091544438842451
      ],
      [
        "▁hadi",
        -10.09156362257163
      ],
      [
        "▁talakka",
        -10.091580255556517
      ],
      [
        "▁👏👏",
        -10.092011271373838
      ],
      [
        "▁dollar",
        -10.092747622746046
      ],
      [
        "▁Talaka",
        -10.092855849959971
      ],
      [
        "▁Sauran",
        -10.093551385767647
      ],
      [
        "▁inaga",
        -10.094020227418307
      ],
      [
        "▁kashewa",
        -10.09437205364149
      ],
      [
        "hiri",
        -10.0944258773845
      ],
      [
        "▁qu",
        -10.095170545443363
      ],
      [
        "🌹",
        -10.095175562707844
      ],
      [
        "▁jaruma",
        -10.09522595757795
      ],
      [
        "🇷",
        -10.095251708261893
      ],
      [
        "😴",
        -10.095251708261893
      ],
      [
        "🤥",
        -10.095251708261893
      ],
      [
        "&amp;",
        -10.095251708262381
      ],
      [
        "▁Jonathan",
        -10.095251708420653
      ],
      [
        "▁United",
        -10.095251710678895
      ],
      [
        "▁#Labarina",
        -10.095252011314134
      ],
      [
        "▁headline",
        -10.095252370550599
      ],
      [
        "▁second",
        -10.095252490709282
      ],
      [
        "▁Dollar",
        -10.09525281698743
      ],
      [
        "▁Lahira",
        -10.095253114292138
      ],
      [
        "▁bahaushe",
        -10.095254721779972
      ],
      [
        "▁azzaluma",
        -10.095254842863287
      ],
      [
        "▁sabulu",
        -10.095255608708264
      ],
      [
        "▁sokoto",
        -10.095256478862233
      ],
      [
        "▁Alfarma",
        -10.09526296264093
      ],
      [
        "▁amfana",
        -10.095274181751185
      ],
      [
        "▁reply",
        -10.095275006274743
      ],
      [
        "▁Bauchi",
        -10.095276111161507
      ],
      [
        "▁down",
        -10.09532523798996
      ],
      [
        "▁Azumi",
        -10.095327129678479
      ],
      [
        "▁season",
        -10.09533097913516
      ],
      [
        "▁yakyauta",
        -10.095336384486263
      ],
      [
        "▁Bahaush",
        -10.095348902089889
      ],
      [
        "▁dawowa",
        -10.095393917277876
      ],
      [
        "▁tsoran",
        -10.095489882654315
      ],
      [
        "▁series",
        -10.095506895609187
      ],
      [
        "▁Jama'a",
        -10.095522395783066
      ],
      [
        "▁naija",
        -10.095559462464792
      ],
      [
        "kasan",
        -10.09557708316487
      ],
      [
        "▁bulala",
        -10.095608387208186
      ],
      [
        "▁boss",
        -10.095617377915023
      ],
      [
        "lf",
        -10.095678692585937
      ],
      [
        "▁muntuba",
        -10.095809485935238
      ],
      [
        "▁Good",
        -10.095912089862791
      ],
      [
        "▁barca",
        -10.096028603336915
      ],
      [
        "▁allura",
        -10.09609824412162
      ],
      [
        "▁wakil",
        -10.096184150599884
      ],
      [
        "▁kwankwaso",
        -10.096208371358419
      ],
      [
        "i-da",
        -10.096339282649375
      ],
      [
        "▁gaisuwa",
        -10.096443908484918
      ],
      [
        "▁hege",
        -10.096492495582059
      ],
      [
        "▁Naira",
        -10.096538456722627
      ],
      [
        "▁wlhi",
        -10.096562399917271
      ],
      [
        "😕😕😕",
        -10.096998679823582
      ],
      [
        "▁NIGERIA",
        -10.097084753227158
      ],
      [
        "▁Anty",
        -10.097253206804616
      ],
      [
        "☝️",
        -10.0973383570132
      ],
      [
        "▁rike",
        -10.097356553944907
      ],
      [
        "▁tsaye",
        -10.097508354577933
      ],
      [
        "▁manjo",
        -10.097529765717196
      ],
      [
        "▁ma'ana",
        -10.097674259387503
      ],
      [
        "▁malamai",
        -10.097715578710288
      ],
      [
        "▁dauko",
        -10.098281352990059
      ],
      [
        "▁Liverpool",
        -10.098283598592664
      ],
      [
        "▁2020",
        -10.098314168877177
      ],
      [
        "😳😳",
        -10.098948681938182
      ],
      [
        "▁gareshi",
        -10.09922897390009
      ],
      [
        "▁Talakawa",
        -10.099759626221653
      ],
      [
        "▁shekarun",
        -10.100245426610073
      ],
      [
        "😘😘",
        -10.100351976762054
      ],
      [
        "▁'yar",
        -10.100509595491607
      ],
      [
        "fiya",
        -10.100629734358755
      ],
      [
        "▁minista",
        -10.1006864381747
      ],
      [
        "▁Gwar",
        -10.101369539021785
      ],
      [
        "▁😠😠😠",
        -10.102100141882271
      ],
      [
        "▁Chan",
        -10.102154814611715
      ],
      [
        "▁yabar",
        -10.102572865403369
      ],
      [
        "▁kenan😂😂",
        -10.102576761620767
      ],
      [
        "▁agare",
        -10.102983394505202
      ],
      [
        "▁Zaku",
        -10.104180935230989
      ],
      [
        "▁say",
        -10.104195343057853
      ],
      [
        "duba",
        -10.10432476619669
      ],
      [
        "▁kinsa",
        -10.104875129743016
      ],
      [
        "▁kunci",
        -10.105103995605806
      ],
      [
        "💯💯💯",
        -10.105415685477352
      ],
      [
        "▁bayinka",
        -10.105976527296274
      ],
      [
        "'A",
        -10.106491736738889
      ],
      [
        "▁😤",
        -10.106727624807393
      ],
      [
        "AMU",
        -10.10694838485744
      ],
      [
        "▁😀😀😀",
        -10.107171281660618
      ],
      [
        "▁kikeyi",
        -10.107776956233076
      ],
      [
        "IS",
        -10.108351019951648
      ],
      [
        "▁😐",
        -10.108663511448373
      ],
      [
        "▁😊😊",
        -10.10916636505344
      ],
      [
        "stay",
        -10.109512184018866
      ],
      [
        "▁Mugu",
        -10.109520264891142
      ],
      [
        "▁😄😄",
        -10.109737598606603
      ],
      [
        "▁mika",
        -10.11013480895998
      ],
      [
        "▁bakwa",
        -10.11026843954518
      ],
      [
        "▁aminu",
        -10.110598315395594
      ],
      [
        "▁kikayi",
        -10.11136640030346
      ],
      [
        "▁inde",
        -10.113929899663194
      ],
      [
        "lam",
        -10.114227126017454
      ],
      [
        "▁lea",
        -10.1142324956651
      ],
      [
        "▁raka",
        -10.114401473920498
      ],
      [
        "▁keda",
        -10.11646317525206
      ],
      [
        "tuna",
        -10.11725819069111
      ],
      [
        "▁anata",
        -10.117534179089041
      ],
      [
        "▁mutan",
        -10.117906981946906
      ],
      [
        "▁addua",
        -10.118729542324125
      ],
      [
        "bashi",
        -10.119688857941043
      ],
      [
        "▁ruwanmu",
        -10.119791514028346
      ],
      [
        "LI",
        -10.12150239216869
      ],
      [
        "▁ba🙄",
        -10.122139016150001
      ],
      [
        "▁oo",
        -10.122143390028281
      ],
      [
        "▁Cin",
        -10.123090300404998
      ],
      [
        "▁lamari",
        -10.12376451839331
      ],
      [
        "▁Mik",
        -10.123829876985848
      ],
      [
        "tina",
        -10.123977486024362
      ],
      [
        "bari",
        -10.124525138832494
      ],
      [
        "▁albarkacin",
        -10.124931050647259
      ],
      [
        "▁💪💪",
        -10.127474351307766
      ],
      [
        "In",
        -10.127815906527838
      ],
      [
        "▁🤣😂🤣",
        -10.127889403200797
      ],
      [
        "▁hankali.",
        -10.12789315312628
      ],
      [
        "bude",
        -10.128729402831674
      ],
      [
        "▁rika",
        -10.129766613189277
      ],
      [
        "▁baiji",
        -10.130583403465465
      ],
      [
        "bayan",
        -10.131476864713937
      ],
      [
        "▁need",
        -10.13290999424466
      ],
      [
        "▁ba’a",
        -10.133292996861138
      ],
      [
        "▁tai",
        -10.13386420012054
      ],
      [
        "▁....",
        -10.133932347162126
      ],
      [
        "▁gaza",
        -10.136475422385836
      ],
      [
        "n't",
        -10.137032868120503
      ],
      [
        "▁nan.",
        -10.137218187559
      ],
      [
        "▁su,",
        -10.137309058749828
      ],
      [
        "▁zamanin",
        -10.137462174065272
      ],
      [
        "▁abada",
        -10.137788222619125
      ],
      [
        "▁Auren",
        -10.13794960247113
      ],
      [
        "▁koko",
        -10.139046888428798
      ],
      [
        "▁Hali",
        -10.13945403544034
      ],
      [
        "tana",
        -10.139635943683704
      ],
      [
        "????",
        -10.140157377571118
      ],
      [
        "▁If",
        -10.140268753072109
      ],
      [
        "zz",
        -10.140915265414527
      ],
      [
        "rinka",
        -10.141088881143748
      ],
      [
        "▁El",
        -10.14213441959312
      ],
      [
        "ster",
        -10.145408792067332
      ],
      [
        ",A",
        -10.145906211307471
      ],
      [
        "▁Hu",
        -10.14729955795611
      ],
      [
        "😊😊",
        -10.147675323903554
      ],
      [
        "ta,",
        -10.147717386117955
      ],
      [
        "kira",
        -10.147834339988892
      ],
      [
        "▁aii",
        -10.149237842519737
      ],
      [
        "hadi",
        -10.15050701440539
      ],
      [
        "ƙan",
        -10.150642661353928
      ],
      [
        "lm",
        -10.15139213590961
      ],
      [
        "▁daki",
        -10.152703876766763
      ],
      [
        "▁ai.",
        -10.152760919118956
      ],
      [
        "allahu",
        -10.15456241620429
      ],
      [
        "▁taki",
        -10.154644482120954
      ],
      [
        "▁ne...",
        -10.155038998160334
      ],
      [
        "hau",
        -10.155605355082884
      ],
      [
        "▁😍😍😍",
        -10.156454476063383
      ],
      [
        "▁sauri",
        -10.156722082901323
      ],
      [
        "UN",
        -10.157820302171581
      ],
      [
        "▁mt",
        -10.159514612047921
      ],
      [
        "▁lafiya.",
        -10.159919410264477
      ],
      [
        "▁Maka",
        -10.160460934480579
      ],
      [
        "▁saina",
        -10.161231502175093
      ],
      [
        "▁work",
        -10.16360363919259
      ],
      [
        "▁haushin",
        -10.163903282642766
      ],
      [
        "▁Q",
        -10.164915464456275
      ],
      [
        "▁.....",
        -10.166127249975913
      ],
      [
        "gga",
        -10.167200379914357
      ],
      [
        "▁iyaye",
        -10.167556378008328
      ],
      [
        "▁kunga",
        -10.167986540440337
      ],
      [
        "▁xama",
        -10.168697312383005
      ],
      [
        "MB",
        -10.16899201501429
      ],
      [
        "▁Gari",
        -10.169267427693088
      ],
      [
        "?😂",
        -10.169432374731993
      ],
      [
        "🧐",
        -10.169532086742391
      ],
      [
        "▁kwali",
        -10.170135882748058
      ],
      [
        "▁kisan",
        -10.171164730324866
      ],
      [
        "▁fahimta",
        -10.171643177144736
      ],
      [
        "💝",
        -10.171794113988891
      ],
      [
        "▁taku",
        -10.17221275266414
      ],
      [
        "👨",
        -10.172389001467621
      ],
      [
        "yanxu",
        -10.172965890651643
      ],
      [
        "ABA",
        -10.17349265894222
      ],
      [
        "The",
        -10.17387438339726
      ],
      [
        "gudu",
        -10.175615172381226
      ],
      [
        "▁7",
        -10.176868340190135
      ],
      [
        "abin",
        -10.177544236088917
      ],
      [
        "dauka",
        -10.177557787183511
      ],
      [
        "▁tsohuwa",
        -10.178175167287804
      ],
      [
        "▁gaskiyane",
        -10.178598229148953
      ],
      [
        "keyi",
        -10.178700485868909
      ],
      [
        "▁hira",
        -10.179974607941851
      ],
      [
        "▁iyayi",
        -10.180374927149863
      ],
      [
        "▁kash",
        -10.18047451617459
      ],
      [
        "▁Wanna",
        -10.180521893897485
      ],
      [
        "▁Waka",
        -10.180665098568225
      ],
      [
        "▁sane",
        -10.181721245350625
      ],
      [
        "xama",
        -10.18175246767427
      ],
      [
        "miki",
        -10.182259564331302
      ],
      [
        "▁walla",
        -10.18246611589488
      ],
      [
        "🤪🤪",
        -10.18296860756135
      ],
      [
        "▁el",
        -10.183377787536848
      ],
      [
        "▁alha",
        -10.183421995403467
      ],
      [
        "▁comment",
        -10.183615473642664
      ],
      [
        "▁Tir",
        -10.183739639647687
      ],
      [
        "rah",
        -10.183869705349267
      ],
      [
        "▁zalin",
        -10.184239644105372
      ],
      [
        "▁Fati",
        -10.18480172977201
      ],
      [
        "▁yaso",
        -10.184850969205169
      ],
      [
        "▁miss",
        -10.185885590753303
      ],
      [
        "😧",
        -10.186160799171253
      ],
      [
        "🤯",
        -10.186160799171253
      ],
      [
        "▁🇳🇪",
        -10.186160886199707
      ],
      [
        "▁maiduguri",
        -10.186161313234699
      ],
      [
        "▁presdo",
        -10.186161530961442
      ],
      [
        "▁muhammad",
        -10.186161725719677
      ],
      [
        "▁Mahmoud",
        -10.186161870435727
      ],
      [
        "▁fahimci",
        -10.18616190605606
      ],
      [
        "▁Sokoto",
        -10.186161985511783
      ],
      [
        "▁still",
        -10.186162101800118
      ],
      [
        "▁haquri",
        -10.186164724259822
      ],
      [
        "▁Basira",
        -10.186173100085112
      ],
      [
        "▁kwakwalwa",
        -10.186175382343219
      ],
      [
        "▁Zamfara",
        -10.186181473981456
      ],
      [
        "▁likita",
        -10.186182332368828
      ],
      [
        "▁misali",
        -10.186183849996219
      ],
      [
        "▁market",
        -10.186188051389955
      ],
      [
        "▁surutu",
        -10.18622282956921
      ],
      [
        "▁pray",
        -10.186264232233256
      ],
      [
        "▁Film",
        -10.18628052301387
      ],
      [
        "▁lol",
        -10.186284633579413
      ],
      [
        "▁thumm",
        -10.18629247619725
      ],
      [
        "▁manzon",
        -10.186305481014147
      ],
      [
        "▁kwanciya",
        -10.186306887078915
      ],
      [
        "▁jigawa",
        -10.186316339583415
      ],
      [
        "▁Shawara",
        -10.186323139397322
      ],
      [
        "▁munafurci",
        -10.186329038952916
      ],
      [
        "▁get",
        -10.186345394058767
      ],
      [
        "▁cinema",
        -10.186364304164517
      ],
      [
        "▁episode",
        -10.18637156437165
      ],
      [
        "🤗🤗🤗",
        -10.186373230870885
      ],
      [
        "▁Hakuri",
        -10.186383213139429
      ],
      [
        "▁Daraja",
        -10.186406641255708
      ],
      [
        "▁atiku",
        -10.186414526402823
      ],
      [
        "▁inganta",
        -10.18648531137529
      ],
      [
        "▁motsa",
        -10.186581299522315
      ],
      [
        "▁whi",
        -10.18700661171889
      ],
      [
        "▁jadda",
        -10.187083231204271
      ],
      [
        "▁kofin",
        -10.187375655467719
      ],
      [
        "▁bakidaya",
        -10.187434687886292
      ],
      [
        "▁kwanan",
        -10.187656215858816
      ],
      [
        "▁ajiye",
        -10.187769741480853
      ],
      [
        "▁haryanzu",
        -10.187955257659418
      ],
      [
        "▁https://t.co/5",
        -10.18818978143268
      ],
      [
        "▁sauqi",
        -10.188269348222825
      ],
      [
        "▁Abuja",
        -10.188387875747413
      ],
      [
        "▁rabu",
        -10.188446304490395
      ],
      [
        "yuwa",
        -10.188493146616299
      ],
      [
        "maimaita",
        -10.189290010156066
      ],
      [
        "▁mallaka",
        -10.18956796769649
      ],
      [
        "▁♂️🤦",
        -10.189811579203457
      ],
      [
        "▁yahudawa",
        -10.190293737489212
      ],
      [
        "▁akeso",
        -10.190335563459515
      ],
      [
        "▁😷😷",
        -10.19081969694242
      ],
      [
        "▁his",
        -10.19090146918512
      ],
      [
        "▁kungiyar",
        -10.19124100558133
      ],
      [
        "ight",
        -10.191248951316522
      ],
      [
        "▁make",
        -10.191371099055285
      ],
      [
        "▁https://t.co/b",
        -10.191391728237747
      ],
      [
        "gh",
        -10.19155782900984
      ],
      [
        "▁kaunar",
        -10.19168923324523
      ],
      [
        "▁!!!",
        -10.191721660502918
      ],
      [
        "EWA",
        -10.191841263347072
      ],
      [
        "▁soon",
        -10.19227795622814
      ],
      [
        "▁zeyi",
        -10.192640207058597
      ],
      [
        "▁nata",
        -10.193211246110172
      ],
      [
        "▁kd",
        -10.193408733231724
      ],
      [
        "chan",
        -10.194156647858955
      ],
      [
        "▁🚶🚶",
        -10.19454725532695
      ],
      [
        "▁Face",
        -10.194629840712192
      ],
      [
        "▁bamusan",
        -10.194900533385152
      ],
      [
        "▁sallama",
        -10.195062471187265
      ],
      [
        "App",
        -10.19518642883239
      ],
      [
        "▁Aisha",
        -10.195516810161182
      ],
      [
        "▁ƙasar",
        -10.195798019503105
      ],
      [
        "▁leda",
        -10.196161109147322
      ],
      [
        "▁end",
        -10.196640520325396
      ],
      [
        "▁gwada",
        -10.197007305824137
      ],
      [
        "▁fanni",
        -10.197264176032295
      ],
      [
        "dena",
        -10.197577754762092
      ],
      [
        "▁sakon",
        -10.197672541455045
      ],
      [
        "▁ring",
        -10.197988488041483
      ],
      [
        "▁kenan😂",
        -10.19860140715522
      ],
      [
        "gaba",
        -10.199198800089945
      ],
      [
        "▁chikin",
        -10.199376852560386
      ],
      [
        "▁Tsohon",
        -10.199525463654911
      ],
      [
        "▁kinfi",
        -10.19981110707215
      ],
      [
        "▁🙂",
        -10.19994890664592
      ],
      [
        "▁👨",
        -10.200124764516215
      ],
      [
        "▁wuff",
        -10.200372174131212
      ],
      [
        "▁abar",
        -10.200555980905657
      ],
      [
        "▁🚶🚶🚶",
        -10.200826923980038
      ],
      [
        "10",
        -10.200903772306033
      ],
      [
        "JI",
        -10.20111966608181
      ],
      [
        "▁annobar",
        -10.201269780470025
      ],
      [
        "▁gatan",
        -10.20136311528765
      ],
      [
        "wuya",
        -10.201723393802947
      ],
      [
        "▁jikanshi",
        -10.201893167903588
      ],
      [
        "ɗin",
        -10.202281808378554
      ],
      [
        "'u",
        -10.202372053895957
      ],
      [
        "▁Bakin",
        -10.202625766665795
      ],
      [
        "tsiya",
        -10.202854042541038
      ],
      [
        "▁Mota",
        -10.20306759501796
      ],
      [
        "▁😥😥😥",
        -10.203111125064407
      ],
      [
        "▁agaji",
        -10.204564984724316
      ],
      [
        "▁Tu",
        -10.206912352026048
      ],
      [
        "FI",
        -10.207118957929794
      ],
      [
        "▁😬",
        -10.207271434020493
      ],
      [
        "▁Kema",
        -10.207712855741441
      ],
      [
        "▁lu",
        -10.207745473046481
      ],
      [
        "▁Tofa",
        -10.207913977344912
      ],
      [
        "▁💞",
        -10.208230402840641
      ],
      [
        "▁sukai",
        -10.20826677999526
      ],
      [
        "▁addu'ar",
        -10.208286164837224
      ],
      [
        "won",
        -10.208482794281041
      ],
      [
        "zuwa",
        -10.208707116052656
      ],
      [
        "😂🤣😂",
        -10.208883317013086
      ],
      [
        "▁yabasu",
        -10.209169673630988
      ],
      [
        "▁sis",
        -10.209276010112564
      ],
      [
        "huta",
        -10.209603847358018
      ],
      [
        "▁yajin",
        -10.20979181687206
      ],
      [
        "guwa",
        -10.211105818821538
      ],
      [
        "zaba",
        -10.211578715129747
      ],
      [
        "▁Muke",
        -10.211805162603046
      ],
      [
        "▁karfa",
        -10.212268754115934
      ],
      [
        "▁Falal",
        -10.212383942046072
      ],
      [
        "▁kuwa?",
        -10.213048167005319
      ],
      [
        "▁💁",
        -10.213641304219355
      ],
      [
        "🤦🏾",
        -10.21377199309415
      ],
      [
        "▁✌",
        -10.215813479641659
      ],
      [
        "▁kotu",
        -10.215962850213302
      ],
      [
        "▁films",
        -10.216518061560476
      ],
      [
        "lahi",
        -10.216605419155492
      ],
      [
        "▁Ru",
        -10.217269047338597
      ],
      [
        "▁kunnen",
        -10.21781675850181
      ],
      [
        "▁miy",
        -10.218344827413231
      ],
      [
        "▁🔥🔥🔥",
        -10.21862949112205
      ],
      [
        "▁😟",
        -10.21894190941788
      ],
      [
        "▁tsaf",
        -10.219024141369895
      ],
      [
        "▁acan",
[...]
