{
  "version": "1.0",
  "truncation": null,
  "padding": null,
  "added_tokens": [
    {
      "id": 0,
      "content": "<pad>",
      "single_word": false,
      "lstrip": false,
      "rstrip": false,
      "normalized": false,
      "special": true
    },
    {
      "id": 1,
      "content": "<unk>",
      "single_word": false,
      "lstrip": false,
      "rstrip": false,
      "normalized": false,
      "special": true
    },
    {
      "id": 2,
      "content": "<cls>",
      "single_word": false,
      "lstrip": false,
      "rstrip": false,
      "normalized": false,
      "special": true
    }
  ],
  "normalizer": {
    "type": "Sequence",
    "normalizers": [
      {
        "type": "Nmt"
      },
      {
        "type": "NFKC"
      },
      {
        "type": "Replace",
        "pattern": {
          "Regex": " {2,}"
        },
        "content": " "
      }
    ]
  },
  "pre_tokenizer": {
    "type": "Metaspace",
    "replacement": "▁",
    "prepend_scheme": "always",
    "split": true
  },
  "post_processor": {
    "type": "TemplateProcessing",
    "single": [
      {
        "SpecialToken": {
          "id": "<cls>",
          "type_id": 0
        }
      },
      {
        "Sequence": {
          "id": "A",
          "type_id": 0
        }
      }
    ],
    "pair": [
      {
        "Sequence": {
          "id": "A",
          "type_id": 0
        }
      },
      {
        "Sequence": {
          "id": "B",
          "type_id": 1
        }
      }
    ],
    "special_tokens": {
      "<cls>": {
        "id": "<cls>",
        "ids": [
          2
        ],
        "tokens": [
          "<cls>"
        ]
      }
    }
  },
  "decoder": {
    "type": "Metaspace",
    "replacement": "▁",
    "prepend_scheme": "always",
    "split": true
  },
  "model": {
    "type": "Unigram",
    "unk_id": 1,
    "vocab": [
      [
        "<pad>",
        0.0
      ],
      [
        "<unk>",
        0.0
      ],
      [
        "<cls>",
        0.0
      ],
      [
        "▁@user",
        -2.462419269549809
      ],
      [
        "▁",
        -3.8716535582223592
      ],
      [
        "▁na",
        -3.982289444075512
      ],
      [
        ".",
        -4.052301296846599
      ],
      [
        ",",
        -4.172805488581162
      ],
      [
        "▁gi",
        -4.678519885614895
      ],
      [
        "▁m",
        -4.917640913343571
      ],
      [
        "m",
        -4.9534059687913805
      ],
      [
        "▁ka",
        -4.957511622432006
      ],
      [
        "a",
        -5.036083554729469
      ],
      [
        "▁a",
        -5.058581400078319
      ],
      [
        "▁ya",
        -5.1226370311436185
      ],
      [
        "e",
        -5.181594311041563
      ],
      [
        "▁onye",
        -5.211211457521424
      ],
      [
        "!",
        -5.212683120428056
      ],
      [
        "▁di",
        -5.229908735616128
      ],
      [
        "...",
        -5.2872910130601944
      ],
      [
        "?",
        -5.373006796500602
      ],
      [
        "▁Onye",
        -5.3743422225614985
      ],
      [
        "o",
        -5.386507114974644
      ],
      [
        "s",
        -5.390709304913547
      ],
      [
        "▁o",
        -5.463773043580972
      ],
      [
        "▁I",
        -5.466463776106441
      ],
      [
        "▁bu",
        -5.496935678981542
      ],
      [
        "▁nke",
        -5.517775097929978
      ],
      [
        "▁#",
        -5.534759700884372
      ],
      [
        "▁ndi",
        -5.599365015214978
      ],
      [
        "u",
        -5.613595057064913
      ],
      [
        "▁ga",
        -5.627885238714099
      ],
      [
        "▁O",
        -5.639561885233993
      ],
      [
        "n",
        -5.722169752991895
      ],
      [
        "r",
        -5.731067157957551
      ],
      [
        "i",
        -5.781125780482917
      ],
      [
        "▁ihe",
        -5.784187001858946
      ],
      [
        "▁anyi",
        -5.806044742213703
      ],
      [
        "▁Chukwu",
        -5.821304988201708
      ],
      [
        "▁gị",
        -5.9138107616676265
      ],
      [
        "▁ma",
        -5.949881341192158
      ],
      [
        "y",
        -6.010374989207459
      ],
      [
        "▁e",
        -6.073218340455449
      ],
      [
        "▁eme",
        -6.077138530874702
      ],
      [
        "..",
        -6.082089121739455
      ],
      [
        "d",
        -6.097601022869895
      ],
      [
        "▁A",
        -6.134463390435141
      ],
      [
        "h",
        -6.163140983020723
      ],
      [
        "▁ọ",
        -6.176523250430484
      ],
      [
        "▁Igbo",
        -6.199156863136999
      ],
      [
        "kwa",
        -6.225138403699104
      ],
      [
        "t",
        -6.226725207853204
      ],
      [
        "▁ha",
        -6.248592491597196
      ],
      [
        "▁i",
        -6.272762967306695
      ],
      [
        "l",
        -6.273051169155422
      ],
      [
        "lu",
        -6.27577132099284
      ],
      [
        "▁aka",
        -6.289874174472664
      ],
      [
        "g",
        -6.298963168760314
      ],
      [
        "▁Ndi",
        -6.310465204941041
      ],
      [
        "w",
        -6.311276992032857
      ],
      [
        "▁mma",
        -6.3245492451608945
      ],
      [
        "▁nwa",
        -6.326703759239929
      ],
      [
        "▁kwa",
        -6.3328973426634905
      ],
      [
        "▁ebe",
        -6.353278055699655
      ],
      [
        "▁bụ",
        -6.358461454839259
      ],
      [
        "k",
        -6.374206841542407
      ],
      [
        "▁😂",
        -6.375077100682522
      ],
      [
        "▁dị",
        -6.390214961256124
      ],
      [
        "▁ike",
        -6.396898633795791
      ],
      [
        "▁ji",
        -6.447238221134028
      ],
      [
        "▁mmadu",
        -6.491237780279918
      ],
      [
        "▁n",
        -6.495498878809605
      ],
      [
        "▁egwu",
        -6.496957020867739
      ],
      [
        "b",
        -6.50221826280101
      ],
      [
        "re",
        -6.504688907685894
      ],
      [
        "▁si",
        -6.514114783368255
      ],
      [
        "p",
        -6.5173578286708835
      ],
      [
        "▁E",
        -6.524356620900035
      ],
      [
        "ri",
        -6.535355878099502
      ],
      [
        "▁no",
        -6.536009101862307
      ],
      [
        "▁ife",
        -6.551576969282924
      ],
      [
        "▁Nna",
        -6.551943173730416
      ],
      [
        "ro",
        -6.55603864260048
      ],
      [
        "▁ndị",
        -6.56599678384068
      ],
      [
        "go",
        -6.573571630484582
      ],
      [
        "E",
        -6.575745515868233
      ],
      [
        "▁oma",
        -6.582003755197317
      ],
      [
        "▁the",
        -6.586153639299322
      ],
      [
        "▁isi",
        -6.59581859799153
      ],
      [
        "▁Ọ",
        -6.61125604740694
      ],
      [
        "x",
        -6.6148955380655
      ],
      [
        "▁Ka",
        -6.61587850588004
      ],
      [
        "ra",
        -6.621259471291462
      ],
      [
        "A",
        -6.627600878662384
      ],
      [
        "▁Na",
        -6.629770388409095
      ],
      [
        "f",
        -6.633932661951832
      ],
      [
        "O",
        -6.634984269270761
      ],
      [
        "I",
        -6.638959620947994
      ],
      [
        "▁ego",
        -6.64671419090431
      ],
      [
        "ta",
        -6.652604007042961
      ],
      [
        "M",
        -6.655452130621321
      ],
      [
        "▁unu",
        -6.660046620880759
      ],
      [
        "▁ana",
        -6.669850578786953
      ],
      [
        "▁onu",
        -6.670400139512385
      ],
      [
        "na",
        -6.674529264062837
      ],
      [
        "N",
        -6.6887122134764345
      ],
      [
        "D",
        -6.707560753103749
      ],
      [
        "▁anyị",
        -6.708359856012724
      ],
      [
        "la",
        -6.711945730815464
      ],
      [
        "c",
        -6.714438334362359
      ],
      [
        "▁Ike",
        -6.720900106009981
      ],
      [
        "▁you",
        -6.723333770720867
      ],
      [
        "te",
        -6.729878553606889
      ],
      [
        "▁biko",
        -6.731976923262643
      ],
      [
        "ka",
        -6.7367415293721296
      ],
      [
        "▁go",
        -6.737628779753974
      ],
      [
        "▁Chineke",
        -6.740558085352251
      ],
      [
        "▁be",
        -6.742799530152302
      ],
      [
        "ghi",
        -6.755641750380105
      ],
      [
        "C",
        -6.7594704718482905
      ],
      [
        "T",
        -6.772123207382055
      ],
      [
        "▁ezigbo",
        -6.775684898845028
      ],
      [
        "▁maka",
        -6.777750360783599
      ],
      [
        "▁n'",
        -6.77776014251364
      ],
      [
        "9",
        -6.794873199646011
      ],
      [
        "W",
        -6.798546570167486
      ],
      [
        ":",
        -6.802202245233359
      ],
      [
        "S",
        -6.8208800217658005
      ],
      [
        "ba",
        -6.824294351242805
      ],
      [
        "3",
        -6.824372428087431
      ],
      [
        "z",
        -6.824473250876549
      ],
      [
        "▁nwoke",
        -6.8275872615637265
      ],
      [
        "▁okwu",
        -6.828160327741701
      ],
      [
        "ru",
        -6.846461367733108
      ],
      [
        "▁Nne",
        -6.8466996038745265
      ],
      [
        "▁ahu",
        -6.8582405994478775
      ],
      [
        "▁Nwanne",
        -6.870401241137068
      ],
      [
        "▁mu",
        -6.870526121889551
      ],
      [
        "▁-",
        -6.885346075944393
      ],
      [
        "1",
        -6.888008756954378
      ],
      [
        "▁nwanne",
        -6.8917006450011735
      ],
      [
        "H",
        -6.894413986684718
      ],
      [
        "▁umu",
        -6.895010830304843
      ],
      [
        "▁https://t.co/",
        -6.89765807572589
      ],
      [
        "▁to",
        -6.899226715962648
      ],
      [
        "-",
        -6.900978161812154
      ],
      [
        "▁ị",
        -6.901329518686311
      ],
      [
        "2",
        -6.905773406348089
      ],
      [
        "▁gozie",
        -6.909771484225614
      ],
      [
        "U",
        -6.912074226572013
      ],
      [
        "▁Nwa",
        -6.936183378796912
      ],
      [
        "0",
        -6.945004563783045
      ],
      [
        "!!!",
        -6.947437371518321
      ],
      [
        "B",
        -6.950454678639557
      ],
      [
        "j",
        -6.950494889917135
      ],
      [
        "▁M",
        -6.956180326199475
      ],
      [
        "ing",
        -6.958498410535762
      ],
      [
        "▁so",
        -6.960022107466827
      ],
      [
        "▁N",
        -6.9604251591425665
      ],
      [
        "▁Biko",
        -6.9658539404604
      ],
      [
        "▁nwanyi",
        -6.96865653573881
      ],
      [
        "▁nwe",
        -6.972078751074456
      ],
      [
        "▁nna",
        -6.972372301194364
      ],
      [
        "v",
        -6.9773797126456865
      ],
      [
        "nu",
        -6.989064230150702
      ],
      [
        "....",
        -6.995954806313575
      ],
      [
        "P",
        -6.9978204032930815
      ],
      [
        ")",
        -7.003968182348333
      ],
      [
        "R",
        -7.010396478550288
      ],
      [
        "L",
        -7.013326728652528
      ],
      [
        "▁ala",
        -7.014700729991029
      ],
      [
        "▁obi",
        -7.0203253061160735
      ],
      [
        "Happy",
        -7.029811714862899
      ],
      [
        "▁eji",
        -7.030742318659544
      ],
      [
        "▁anya",
        -7.031369187202816
      ],
      [
        "7",
        -7.033140138196344
      ],
      [
        "G",
        -7.03868461965738
      ],
      [
        "si",
        -7.043319917463714
      ],
      [
        "▁otu",
        -7.045443955184909
      ],
      [
        "wa",
        -7.050543424351759
      ],
      [
        "X",
        -7.058797211325279
      ],
      [
        "▁me",
        -7.062125393705172
      ],
      [
        "▁ara",
        -7.068912180894621
      ],
      [
        "di",
        -7.080619943207116
      ],
      [
        "Z",
        -7.08082800661833
      ],
      [
        "K",
        -7.100274598629344
      ],
      [
        "'",
        -7.104952043335697
      ],
      [
        "▁in",
        -7.109555971259233
      ],
      [
        "▁ndu",
        -7.110342252711778
      ],
      [
        "▁gba",
        -7.110903064903611
      ],
      [
        "▁nwere",
        -7.11142452486916
      ],
      [
        "q",
        -7.112850934383282
      ],
      [
        "▁🤣",
        -7.115405103381884
      ],
      [
        "li",
        -7.116983632643369
      ],
      [
        "▁Nke",
        -7.119401515903133
      ],
      [
        "▁😂😂😂",
        -7.119954751920596
      ],
      [
        "!!",
        -7.121285266643406
      ],
      [
        "▁agba",
        -7.124947262669505
      ],
      [
        "▁of",
        -7.135899365998597
      ],
      [
        "▁Ihe",
        -7.138948370193635
      ],
      [
        "zi",
        -7.139477322486517
      ],
      [
        "J",
        -7.140757412242845
      ],
      [
        "Q",
        -7.14925628436102
      ],
      [
        "ma",
        -7.155614945676503
      ],
      [
        "'m",
        -7.1658683526670925
      ],
      [
        "▁and",
        -7.166924931548603
      ],
      [
        "gi",
        -7.168324829815636
      ],
      [
        "▁mgbe",
        -7.1718190005345255
      ],
      [
        "le",
        -7.177098439386686
      ],
      [
        "▁Ezigbo",
        -7.177389680098043
      ],
      [
        "ọ",
        -7.184136270834963
      ],
      [
        "▁nu",
        -7.194152158142552
      ],
      [
        "▁onwe",
        -7.19655008205283
      ],
      [
        "▁bia",
        -7.2069125525300715
      ],
      [
        "4",
        -7.209432111073061
      ],
      [
        "▁for",
        -7.218325915013533
      ],
      [
        "5",
        -7.220760041343059
      ],
      [
        "be",
        -7.224330262802912
      ],
      [
        "▁is",
        -7.225614328247447
      ],
      [
        "\"\"\"\"",
        -7.22898870887591
      ],
      [
        "▁Umu",
        -7.229413028807814
      ],
      [
        "cha",
        -7.239754244281042
      ],
      [
        "▁my",
        -7.2511972834154585
      ],
      [
        "8",
        -7.270297010729446
      ],
      [
        "nye",
        -7.27690684780321
      ],
      [
        "▁Eze",
        -7.280717773629942
      ],
      [
        "▁nne",
        -7.280906829509252
      ],
      [
        "▁nsogbu",
        -7.290497568854981
      ],
      [
        "▁mmadụ",
        -7.29807836941989
      ],
      [
        "▁igbo",
        -7.299221584823554
      ],
      [
        "▁chukwu",
        -7.312292892263635
      ],
      [
        "▁Ndị",
        -7.313234714632278
      ],
      [
        "▁Kedu",
        -7.313567313536958
      ],
      [
        "V",
        -7.314004934136213
      ],
      [
        "▁♂️",
        -7.315398216762059
      ],
      [
        "6",
        -7.331627941624472
      ],
      [
        "▁oku",
        -7.33172801582911
      ],
      [
        "▁aga",
        -7.336198479698208
      ],
      [
        "▁😂😂",
        -7.3453867310728205
      ],
      [
        "▁\"\"\"\"",
        -7.349006404606362
      ],
      [
        "▁adiro",
        -7.351162960185146
      ],
      [
        "▁ama",
        -7.372581139786685
      ],
      [
        "pu",
        -7.373973066704346
      ],
      [
        "▁birthday",
        -7.376434560331084
      ],
      [
        "▁nma",
        -7.397507008045227
      ],
      [
        "▁(",
        -7.4032309906450635
      ],
      [
        "F",
        -7.413406970801594
      ],
      [
        "▁Obi",
        -7.423445842308723
      ],
      [
        "▁mere",
        -7.423587848436021
      ],
      [
        "▁with",
        -7.427823769657468
      ],
      [
        "ya",
        -7.428319398799118
      ],
      [
        "▁on",
        -7.436092189863665
      ],
      [
        "▁Ada",
        -7.445254071589012
      ],
      [
        "▁Anyi",
        -7.454582574030295
      ],
      [
        "▁U",
        -7.457772878899154
      ],
      [
        "▁nye",
        -7.460440277938504
      ],
      [
        "ko",
        -7.460549988003891
      ],
      [
        "▁n’",
        -7.464254538733678
      ],
      [
        "▁by",
        -7.466119017051173
      ],
      [
        "▁ọma",
        -7.474503989653928
      ],
      [
        ".....",
        -7.478375326140212
      ],
      [
        "ke",
        -7.483233194707217
      ],
      [
        "▁oge",
        -7.491507775908582
      ],
      [
        "▁mmiri",
        -7.493922711388451
      ],
      [
        "▁diri",
        -7.495208822472165
      ],
      [
        "á",
        -7.502481725955766
      ],
      [
        "▁we",
        -7.504460360565847
      ],
      [
        "▁na-a",
        -7.51232020711615
      ],
      [
        "▁chi",
        -7.514845238047183
      ],
      [
        "▁kpo",
        -7.516312374011013
      ],
      [
        "▁Isi",
        -7.516898401358323
      ],
      [
        "ghị",
        -7.519023040006156
      ],
      [
        "▁😁",
        -7.528602735602013
      ],
      [
        "▁obodo",
        -7.546552040998829
      ],
      [
        "ed",
        -7.549319830743239
      ],
      [
        "▁Gi",
        -7.551577973250993
      ],
      [
        "▁Chi",
        -7.555603547303819
      ],
      [
        "ga",
        -7.563881268636391
      ],
      [
        "▁No",
        -7.571764543830088
      ],
      [
        "▁Aka",
        -7.574996199696914
      ],
      [
        "▁Jesus",
        -7.576351715538804
      ],
      [
        "▁Ya",
        -7.582574032481816
      ],
      [
        "??",
        -7.593758573570357
      ],
      [
        "Service",
        -7.594346300357906
      ],
      [
        "▁this",
        -7.594405746372135
      ],
      [
        "▁#NP",
        -7.595333529090565
      ],
      [
        "▁Nwoke",
        -7.597755175645391
      ],
      [
        "▁ya.",
        -7.618606624266373
      ],
      [
        "▁afo",
        -7.624463842596426
      ],
      [
        "chi",
        -7.628840873825901
      ],
      [
        "😂",
        -7.632170506840572
      ],
      [
        "▁Odogwu",
        -7.634071410078288
      ],
      [
        "▁Ife",
        -7.639128916870627
      ],
      [
        "▁Ngwa",
        -7.645231150270627
      ],
      [
        "er",
        -7.650206985980447
      ],
      [
        "▁uwa",
        -7.651428904206724
      ],
      [
        "▁one",
        -7.658265446897778
      ],
      [
        "▁mara",
        -7.660519190257245
      ],
      [
        "tu",
        -7.668213359580753
      ],
      [
        "▁oh",
        -7.682362436667486
      ],
      [
        "▁Oma",
        -7.684361683857768
      ],
      [
        "▁gwuru",
        -7.687398909969505
      ],
      [
        "▁Daalu",
        -7.690221693874328
      ],
      [
        "▁ahụ",
        -7.701385701649218
      ],
      [
        "▁Udo",
        -7.701976777955396
      ],
      [
        "▁Di",
        -7.703144797250951
      ],
      [
        "ge",
        -7.705021122648033
      ],
      [
        "▁The",
        -7.706202836226226
      ],
      [
        "▁bi",
        -7.710058721726694
      ],
      [
        "▁gi.",
        -7.711444293425928
      ],
      [
        "▁ibu",
        -7.714635090789747
      ],
      [
        "▁taa",
        -7.7173418338959765
      ],
      [
        "▁You",
        -7.719629277359134
      ],
      [
        "▁Ị",
        -7.725302295143281
      ],
      [
        "ne",
        -7.725464741647893
      ],
      [
        "de",
        -7.734924521994821
      ],
      [
        "▁ekele",
        -7.7350476276871
      ],
      [
        "▁Ha",
        -7.735614758821862
      ],
      [
        "▁adi",
        -7.737143728470646
      ],
      [
        "▁God",
        -7.740788355777899
      ],
      [
        "Y",
        -7.743791093276574
      ],
      [
        "▁wu",
        -7.745690265582033
      ],
      [
        "▁ime",
        -7.74952917984194
      ],
      [
        "▁ụmụ",
        -7.771178078634066
      ],
      [
        "▁that",
        -7.771678158972304
      ],
      [
        "▁fa",
        -7.775251174669481
      ],
      [
        "bi",
        -7.777079797754026
      ],
      [
        "da",
        -7.777354404891768
      ],
      [
        "▁kam",
        -7.777984812043353
      ],
      [
        "▁Okwa",
        -7.782079156776166
      ],
      [
        "▁Nsogbu",
        -7.7839335439324175
      ],
      [
        "▁nile",
        -7.784804040720937
      ],
      [
        "▁ne",
        -7.788200070299256
      ],
      [
        "me",
        -7.788869634019227
      ],
      [
        "▁oo",
        -7.795257000493304
      ],
      [
        "do",
        -7.804540784990028
      ],
      [
        "▁Bia",
        -7.809322932622395
      ],
      [
        "▁dey",
        -7.809942748408018
      ],
      [
        "▁#Igbo",
        -7.810210685159506
      ],
      [
        "▁buru",
        -7.811226214982225
      ],
      [
        "▁egbu",
        -7.812919557339168
      ],
      [
        "▁S",
        -7.817094412684953
      ],
      [
        "▁akwa",
        -7.819429033208394
      ],
      [
        "ị",
        -7.823294153844683
      ],
      [
        "▁ọnụ",
        -7.823504554278395
      ],
      [
        "▁niile",
        -7.8257083665336555
      ],
      [
        "▁enye",
        -7.829035615552001
      ],
      [
        "▁obu",
        -7.829186179571612
      ],
      [
        "▁anu",
        -7.829814896626046
      ],
      [
        "ni",
        -7.834897123203919
      ],
      [
        "▁Nwanyi",
        -7.835041638245069
      ],
      [
        "▁Maka",
        -7.836094905295836
      ],
      [
        "▁Nigeria",
        -7.836594301261251
      ],
      [
        "▁nti",
        -7.84161224755784
      ],
      [
        "▁ozo",
        -7.846663204445439
      ],
      [
        "▁Jehovah",
        -7.849592088599766
      ],
      [
        "▁ekwu",
        -7.850652034911294
      ],
      [
        "▁Oga",
        -7.851901960066994
      ],
      [
        "▁ke",
        -7.8519901508832355
      ],
      [
        "▁Okwu",
        -7.854446955041588
      ],
      [
        "🏾",
        -7.859129396387415
      ],
      [
        "▁Ma",
        -7.865662911702775
      ],
      [
        "▁n'a",
        -7.868365048917809
      ],
      [
        "▁eh",
        -7.870035257886159
      ],
      [
        "▁nka",
        -7.873198902977809
      ],
      [
        "▁So",
        -7.8733860944300265
      ],
      [
        "▁Egwu",
        -7.875122298584784
      ],
      [
        "'s",
        -7.878829618162625
      ],
      [
        "st",
        -7.880877454505193
      ],
      [
        "in",
        -7.889387316962185
      ],
      [
        "▁ukwu",
        -7.890722505283055
      ],
      [
        "’",
        -7.891732952745396
      ],
      [
        "bu",
        -7.89566845691358
      ],
      [
        "to",
        -7.899230030191627
      ],
      [
        "▁1",
        -7.903188993965104
      ],
      [
        "▁🙏",
        -7.905896350390973
      ],
      [
        "▁oga",
        -7.906731145153898
      ],
      [
        "ly",
        -7.907972647149246
      ],
      [
        "wo",
        -7.90896716110599
      ],
      [
        "▁Mma",
        -7.912168994331549
      ],
      [
        "▁oru",
        -7.915504403110481
      ],
      [
        "▁aru",
        -7.9183704511674575
      ],
      [
        "▁ina",
        -7.921149803109199
      ],
      [
        "▁mana",
        -7.921583667155354
      ],
      [
        "▁ezi",
        -7.924560326287466
      ],
      [
        "▁ndụ",
        -7.925526838651241
      ],
      [
        "▁nọ",
        -7.926003815453461
      ],
      [
        "▁🎶",
        -7.93366952361388
      ],
      [
        "▁kedu",
        -7.938771264145795
      ],
      [
        "▁😂😂😂😂",
        -7.9395561522982785
      ],
      [
        "▁adighi",
        -7.947617098004519
      ],
      [
        "▁wee",
        -7.950357454111886
      ],
      [
        "▁ekwe",
        -7.951196954246025
      ],
      [
        "@user",
        -7.956180646910239
      ],
      [
        "oma",
        -7.959749007130177
      ],
      [
        "ara",
        -7.96279515983587
      ],
      [
        "▁man",
        -7.97276466477909
      ],
      [
        "▁P",
        -7.9769882927502485
      ],
      [
        "▁nri",
        -7.97893481308027
      ],
      [
        "▁cha",
        -7.9816347230671365
      ],
      [
        "▁mba",
        -7.983105504584738
      ],
      [
        "▁like",
        -7.987157397110891
      ],
      [
        "▁eri",
        -7.993240751023894
      ],
      [
        "▁Ututu",
        -7.9942974013061425
      ],
      [
        "▁ta",
        -7.994643867661005
      ],
      [
        "sa",
        -7.998554641005046
      ],
      [
        "▁asa",
        -7.998668384058358
      ],
      [
        "▁dika",
        -7.999145388603655
      ],
      [
        "▁ooo",
        -8.000711871690953
      ],
      [
        "😁",
        -8.001272460777555
      ],
      [
        "▁do",
        -8.001658973235134
      ],
      [
        "▁ofu",
        -8.002391855782946
      ],
      [
        "gbu",
        -8.008510447019413
      ],
      [
        "▁fu",
        -8.010173463051968
      ],
      [
        "▁odi",
        -8.011465481629997
      ],
      [
        "▁gwa",
        -8.01419120391034
      ],
      [
        "no",
        -8.014587928214828
      ],
      [
        "▁mma.",
        -8.018198690915487
      ],
      [
        "▁Igwe",
        -8.018503304718413
      ],
      [
        "▁acho",
        -8.021336014469725
      ],
      [
        "▁gi,",
        -8.023902860152983
      ],
      [
        "▁w",
        -8.02908591299539
      ],
      [
        "▁there",
        -8.03078556648842
      ],
      [
        "▁it",
        -8.032275777553588
      ],
      [
        "▁Mba",
        -8.034826468310163
      ],
      [
        "▁mee",
        -8.035347023927228
      ],
      [
        "▁Mana",
        -8.035995904851116
      ],
      [
        "▁are",
        -8.047069318659638
      ],
      [
        "▁akpo",
        -8.047461746261316
      ],
      [
        "▁Daalụ",
        -8.049273665476704
      ],
      [
        "▁ebube",
        -8.0506627177679
      ],
      [
        "▁ọkụ",
        -8.050695611731129
      ],
      [
        "▁Unu",
        -8.051235739497118
      ],
      [
        "▁eje",
        -8.056032873880286
      ],
      [
        "▁na-e",
        -8.057614002693992
      ],
      [
        "▁akpa",
        -8.059318732046375
      ],
      [
        "▁re",
        -8.059884163004813
      ],
      [
        "ụ",
        -8.061470196766104
      ],
      [
        "▁nụ",
        -8.064322340024132
      ],
      [
        "▁olu",
        -8.070303200045435
      ],
      [
        "ku",
        -8.07332568579423
      ],
      [
        "▁ofe",
        -8.07522749049522
      ],
      [
        "on",
        -8.075746007246401
      ],
      [
        "▁Ana",
        -8.076957472546892
      ],
      [
        "lo",
        -8.081277271476075
      ],
      [
        "Worship",
        -8.081795659871437
      ],
      [
        "▁esi",
        -8.08319200465339
      ],
      [
        "kwanu",
        -8.08789764185433
      ],
      [
        "we",
        -8.089403295267978
      ],
      [
        "▁iji",
        -8.091924514233341
      ],
      [
        "▁elu",
        -8.09582043974283
      ],
      [
        "😂😂😂",
        -8.098367098366582
      ],
      [
        "anyi",
        -8.099360241343128
      ],
      [
        "▁gbaa",
        -8.099745349600504
      ],
      [
        "so",
        -8.09998024197051
      ],
      [
        "▁obula",
        -8.100073981416049
      ],
      [
        "▁eze",
        -8.104796592475305
      ],
      [
        "▁Ego",
        -8.105419003574426
      ],
      [
        "▁azu",
        -8.107038758596488
      ],
      [
        "’m",
        -8.109204013130709
      ],
      [
        "▁Ibu",
        -8.111362775883862
      ],
      [
        "ala",
        -8.111526830949877
      ],
      [
        "▁echi",
        -8.11851375070653
      ],
      [
        "ha",
        -8.12217889035626
      ],
      [
        "▁wa",
        -8.126037856823746
      ],
      [
        "▁G",
        -8.12969067188741
      ],
      [
        "▁ọzọ",
        -8.133483043408544
      ],
      [
        "▁enwe",
        -8.142369000438554
      ],
      [
        "▁uzo",
        -8.143128856312718
      ],
      [
        "ti",
        -8.143248743288105
      ],
      [
        "du",
        -8.143705082051579
      ],
      [
        "▁ada",
        -8.1445277403346
      ],
      [
        "▁♀️",
        -8.150051877697255
      ],
      [
        "▁Anambra",
        -8.154160758014577
      ],
      [
        "▁aha",
        -8.157126379238191
      ],
      [
        "▁ofuma",
        -8.157615935857937
      ],
      [
        "▁Ara",
        -8.160297311871586
      ],
      [
        "mi",
        -8.161880991641954
      ],
      [
        "gu",
        -8.16295444445079
      ],
      [
        "▁eziokwu",
        -8.16344381176966
      ],
      [
        "é",
        -8.163452953548678
      ],
      [
        "ji",
        -8.1653157246085
      ],
      [
        "🙄",
        -8.166556244729517
      ],
      [
        "▁We",
        -8.168632126919146
      ],
      [
        "▁Ebe",
        -8.169229727830245
      ],
      [
        "▁ubochi",
        -8.172012990106108
      ],
      [
        "▁gbuo",
        -8.183496109711523
      ],
      [
        "▁ngwa",
        -8.186982982971381
      ],
      [
        "▁amu",
        -8.188146967676666
      ],
      [
        "▁NP",
        -8.19073749930576
      ],
      [
        "zie",
        -8.197462765461903
      ],
      [
        "à",
        -8.198832318909254
      ],
      [
        "▁L",
        -8.204753068982498
      ],
      [
        "▁Lagos",
        -8.206936560068478
      ],
      [
        "▁Imela",
        -8.206951763878461
      ],
      [
        "▁nkea",
        -8.208045512117806
      ],
      [
        "▁GI",
        -8.209970170441954
      ],
      [
        "godi",
        -8.214398880788586
      ],
      [
        "▁Ama",
        -8.223906083010458
      ],
      [
        "▁kwu",
        -8.225768179257265
      ],
      [
        "▁ya,",
        -8.228586497122748
      ],
      [
        "▁Oge",
        -8.229487337547196
      ],
      [
        "▁not",
        -8.229549442448766
      ],
      [
        "▁ba",
        -8.22994209275327
      ],
      [
        "▁C",
        -8.23001987694389
      ],
      [
        "▁kà",
        -8.230302745678467
      ],
      [
        "ng",
        -8.232184979623407
      ],
      [
        "😂😂",
        -8.2379157445352
      ],
      [
        "▁ụbọchị",
        -8.24288004548328
      ],
      [
        "▁s",
        -8.243335641583503
      ],
      [
        "▁akwukwo",
        -8.243482052180031
      ],
      [
        "▁too",
        -8.243853564323565
      ],
      [
        "▁iche",
        -8.244846792915231
      ],
      [
        "nwa",
        -8.245048397878975
      ],
      [
        "ll",
        -8.245905636374838
      ],
      [
        "▁idi",
        -8.249695834639667
      ],
      [
        "▁o.",
        -8.24986183521219
      ],
      [
        "ho",
        -8.250728072273091
      ],
      [
        "bo",
        -8.252750507879746
      ],
      [
        "▁asi",
        -8.253469468044425
      ],
      [
        "▁ato",
        -8.257142324436304
      ],
      [
        "▁here",
        -8.259494234739282
      ],
      [
        "▁Hapu",
        -8.263593217415071
      ],
      [
        "▁iwe",
        -8.264898357646018
      ],
      [
        "▁Idi",
        -8.26809814408852
      ],
      [
        "▁la",
        -8.27044020484947
      ],
      [
        "▁🤣🤣",
        -8.273464279108289
      ],
      [
        "▁g",
        -8.27913280912729
      ],
      [
        "▁nyere",
        -8.279762459919915
      ],
      [
        "▁ibe",
        -8.280009377467922
      ],
      [
        "▁zi",
        -8.281341590379645
      ],
      [
        ";",
        -8.282142220933629
      ],
      [
        "▁abu",
        -8.282654974781316
      ],
      [
        "▁nwanyị",
        -8.283150833793288
      ],
      [
        "sị",
        -8.284060155121322
      ],
      [
        "▁adịghị",
        -8.285179293808778
      ],
      [
        "▁kwanu",
        -8.285895059631365
      ],
      [
        "▁jee",
        -8.286074021101667
      ],
      [
        "▁ima",
        -8.286770676543261
      ],
      [
        "fe",
        -8.28751703358418
      ],
      [
        "▁choro",
        -8.289319393338868
      ],
      [
        "▁K",
        -8.289798180269457
      ],
      [
        "▁dikwa",
        -8.290354942885866
      ],
      [
        "▁afu",
        -8.2968141990536
      ],
      [
        "!!!!",
        -8.299847759230008
      ],
      [
        "▁da",
        -8.301349652677876
      ],
      [
        "️",
        -8.302643035618019
      ],
      [
        "▁ulo",
        -8.305651449562028
      ],
      [
        "▁https://t.co/x",
        -8.307905889025696
      ],
      [
        "▁https://t.co/N",
        -8.309303607146585
      ],
      [
        "al",
        -8.310767803766057
      ],
      [
        "▁igwe",
        -8.31234594366569
      ],
      [
        "▁were",
        -8.312444764497593
      ],
      [
        "è",
        -8.315136634687846
      ],
      [
        "▁Odi",
        -8.315538667245018
      ],
      [
        "▁osi",
        -8.319626858801083
      ],
      [
        "▁kpa",
        -8.322430191960535
      ],
      [
        "▁aku",
        -8.322671224918196
      ],
      [
        "▁uche",
        -8.32375042953234
      ],
      [
        "▁nzuzu",
        -8.323920999955389
      ],
      [
        "▁Ụmụ",
        -8.324329026491434
      ],
      [
        "kwu",
        -8.325314358165045
      ],
      [
        "hu",
        -8.326642649830681
      ],
      [
        "▁chineke",
        -8.327735401162649
      ],
      [
        "▁🙄",
        -8.327908774869677
      ],
      [
        "▁😁😁",
        -8.33120786789425
      ],
      [
        "ye",
        -8.332874107918922
      ],
      [
        "ck",
        -8.33395510345897
      ],
      [
        "▁atu",
        -8.338589861556088
      ],
      [
        "n't",
        -8.338725354342774
      ],
      [
        "▁oji",
        -8.340349558799566
      ],
      [
        "▁Amen",
        -8.342422099702091
      ],
      [
        "🙏",
        -8.342582215334367
      ],
      [
        "▁Bu",
        -8.343931838275159
      ],
      [
        "ike",
        -8.349053974910042
      ],
      [
        "▁d",
        -8.350936232972112
      ],
      [
        "mu",
        -8.35107994156437
      ],
      [
        "▁mụ",
        -8.352784711922748
      ],
      [
        "▁https://t.co/g",
        -8.357029923632687
      ],
      [
        "ụrụ",
        -8.357685642054552
      ],
      [
        "▁kwe",
        -8.3581627126395
      ],
      [
        "▁aburo",
        -8.358584627317812
      ],
      [
        "kwara",
        -8.361333361733976
      ],
      [
        "▁T",
        -8.362114612567334
      ],
      [
        "▁x",
        -8.362996587438623
      ],
      [
        "▁sa",
        -8.367175582298856
      ],
      [
        "▁'",
        -8.367627588304394
      ],
      [
        "▁Eziokwu",
        -8.36794126917049
      ],
      [
        "Show",
        -8.369119615800336
      ],
      [
        "▁w/",
        -8.369197850170089
      ],
      [
        "▁&amp;",
        -8.369265871898016
      ],
      [
        "▁bụrụ",
        -8.371295504281104
      ],
      [
        "▁cho",
        -8.373769478940456
      ],
      [
        "▁Asa",
        -8.375385348437215
      ],
      [
        "▁Otu",
        -8.382909125904622
      ],
      [
        "hi",
        -8.387987406446658
      ],
      [
        "SARS",
        -8.38896543368902
      ],
      [
        "▁Kedụ",
        -8.38900848873265
      ],
      [
        "▁Mazi",
        -8.390310786336114
      ],
      [
        "▁eche",
        -8.391556309471767
      ],
      [
        "▁afa",
        -8.392676499743482
      ],
      [
        "Igbo",
        -8.393447982221208
      ],
      [
        "FM",
        -8.394950375696876
      ],
      [
        "▁Abu",
        -8.403206105453565
      ],
      [
        "▁ni",
        -8.407090011459152
      ],
      [
        "▁Chai",
        -8.40970782736175
      ],
      [
        "▁“",
        -8.411667450784135
      ],
      [
        "▁n'eme",
        -8.412591650231398
      ],
      [
        "▁enyi",
        -8.413075890679275
      ],
      [
        "▁ewu",
        -8.413387905925187
      ],
      [
        "chukwu",
        -8.41389276471115
      ],
      [
        "very",
        -8.416434083441636
      ],
      [
        "▁Nne,",
        -8.417315454535045
      ],
      [
        "▁sef",
        -8.417475231977384
      ],
      [
        "▁ije",
        -8.422006511448295
      ],
      [
        "▁ncha",
        -8.422564824738537
      ],
      [
        "▁https://t.co/p",
        -8.424506256962298
      ],
      [
        "yi",
        -8.429401443095855
      ],
      [
        "▁#End",
        -8.433770599253307
      ],
      [
        "▁This",
        -8.434949268794389
      ],
      [
        "▁Ebube",
        -8.435035554310764
      ],
      [
        "🤣",
        -8.435409736195734
      ],
      [
        "▁Gozie",
        -8.435738944069199
      ],
      [
        "tara",
        -8.43586380726508
      ],
      [
        "▁ra",
        -8.436473403826378
      ],
      [
        "▁Mgbe",
        -8.437182687420288
      ],
      [
        "en",
        -8.438150101454788
      ],
      [
        "▁Ụ",
        -8.438466646686797
      ],
      [
        "▁Me",
        -8.439973193861682
      ],
      [
        "se",
        -8.44187840386992
      ],
      [
        "ja",
        -8.442131748613836
      ],
      [
        "▁am",
        -8.443677948118244
      ],
      [
        "gba",
        -8.446798082508138
      ],
      [
        "▁now",
        -8.447172004176787
      ],
      [
        "lụ",
        -8.44912422232644
      ],
      [
        "ve",
        -8.449571952238623
      ],
      [
        "▁🙌",
        -8.45165194351586
      ],
      [
        "▁guy",
        -8.454666255072638
      ],
      [
        "▁mo",
        -8.45762670231614
      ],
      [
        "”",
        -8.458732777359796
      ],
      [
        "🙌",
        -8.458852911899607
      ],
      [
        "▁Enugu",
        -8.460028095320407
      ],
      [
        "▁Uwa",
        -8.462025529218929
      ],
      [
        "▁njo",
        -8.462078116840411
      ],
      [
        "nụ",
        -8.462680181746626
      ],
      [
        "▁oyi",
        -8.463268623333526
      ],
      [
        "il",
        -8.463732004888751
      ],
      [
        "nwu",
        -8.464233486567482
      ],
      [
        "shi",
        -8.4648790285368
      ],
      [
        "MA",
        -8.468676954533526
      ],
      [
        "▁N'",
        -8.47040763907044
      ],
      [
        "puta",
        -8.471159240609374
      ],
      [
        "▁Onwe",
        -8.472330089518145
      ],
      [
        "🤣🤣🤣",
        -8.474964605276107
      ],
      [
        "▁https://t.co/a",
        -8.47565116757302
      ],
      [
        "▁Fa",
        -8.477944466039713
      ],
      [
        "▁f",
        -8.477976513524178
      ],
      [
        "▁https://t.co/q",
        -8.478004411656595
      ],
      [
        "▁Lol",
        -8.483373843862385
      ],
      [
        "▁nwunye",
        -8.483380712081416
      ],
      [
        "▁n'ime",
        -8.483570522675256
      ],
      [
        "▁Uche",
        -8.483571395947585
      ],
      [
        "▁obere",
        -8.483752481628809
      ],
      [
        "▁Anyị",
        -8.48414284248361
      ],
      [
        "▁le",
        -8.484151954548302
      ],
      [
        "kwe",
        -8.484286572688298
      ],
      [
        "▁Obodo",
        -8.48512039995029
      ],
      [
        "▁https://t.co/R",
        -8.489963569877501
      ],
      [
        "▁https://t.co/h",
        -8.49073877646992
      ],
      [
        "▁ju",
        -8.492265667646514
      ],
      [
        "▁lu",
        -8.492985060721118
      ],
      [
        "▁okwa",
        -8.49321841273245
      ],
      [
        "▁https://t.co/S",
        -8.493765231058253
      ],
      [
        "▁https://t.co/E",
        -8.49383653537807
      ],
      [
        "▁https://t.co/i",
        -8.494114400303959
      ],
      [
        "▁nwata",
        -8.494266383635699
      ],
      [
        "▁https://t.co/H",
        -8.49528997409462
      ],
      [
        "/",
        -8.498219039409737
      ],
      [
        "▁ona",
        -8.500178971282121
      ],
      [
        "▁https://t.co/W",
        -8.507838653146427
      ],
      [
        "▁hapu",
        -8.507841136053184
      ],
      [
        "▁will",
        -8.508391863992902
      ],
      [
        "▁Ekele",
        -8.508502986419867
      ],
      [
        "▁Aba",
        -8.509493747405998
      ],
      [
        "▁udi",
        -8.50963185544208
      ],
      [
        "▁agwa",
        -8.51057591158892
      ],
      [
        "▁ọrụ",
        -8.511375500949143
      ],
      [
        "???",
        -8.51422571469809
      ],
      [
        "▁dia",
        -8.515440635618717
      ],
      [
        "▁https://t.co/F",
        -8.517039581636467
      ],
      [
        "igbo",
        -8.518830384103609
      ],
      [
        "fu",
        -8.520489443081917
      ],
      [
        "▁🎵",
        -8.521291354050517
      ],
      [
        "▁de",
        -8.522750966351436
      ],
      [
        "▁https://t.co/K",
        -8.522809413309703
      ],
      [
        "▁https://t.co/o",
        -8.524993577832202
      ],
      [
        "▁https://t.co/A",
        -8.526181948318332
      ],
      [
        "▁ata",
        -8.533426669095686
      ],
      [
        "▁afọ",
        -8.535144718092376
      ],
      [
        "▁oke",
        -8.535778033081913
      ],
      [
        "▁tu",
        -8.5365233276227
      ],
      [
        "▁https://t.co/Q",
        -8.536535013363537
      ],
      [
        "▁just",
        -8.5366848565358
      ],
      [
        "▁ehn",
        -8.53822274909374
      ],
      [
        "▁nsi",
        -8.53934234196388
      ],
      [
        "▁up",
        -8.541295745347
      ],
      [
        "▁men",
        -8.542832380413593
      ],
      [
        "▁https://t.co/v",
        -8.546980785239219
      ],
      [
        "rị",
        -8.548197613628847
      ],
      [
        "th",
        -8.548259946136957
      ],
      [
        "▁gini",
        -8.549281452911156
      ],
      [
        "▁🤣🤣🤣",
        -8.552755511202665
      ],
      [
        "▁https://t.co/O",
        -8.556921632935513
      ],
      [
        "he",
        -8.55694265955477
      ],
      [
        "▁https://t.co/C",
        -8.559549359325251
      ],
      [
        "ir",
        -8.559647693297485
      ],
      [
        "▁Chief",
        -8.56010005825072
      ],
      [
        "IgboAmaka",
        -8.560117290070286
      ],
      [
        "▁chọrọ",
        -8.56019198144113
      ],
      [
        "▁Ekene",
        -8.560639936283529
      ],
      [
        "▁na-eme",
        -8.56087462716567
      ],
      [
        "🏽",
        -8.560898199420134
      ],
      [
        "▁Ọkwa",
        -8.56192417722454
      ],
      [
        "▁Mmadu",
        -8.56208354268702
      ],
      [
        "▁akuko",
        -8.562187619421037
      ],
      [
        "▁boy",
        -8.56278868071098
      ],
      [
        "▁time",
        -8.563450285076684
      ],
      [
        "▁https://t.co/e",
        -8.563568198433774
      ],
      [
        "▁nso",
        -8.564972568058579
      ],
      [
        "▁Ke",
        -8.567899449563395
      ],
      [
        "▁ò",
        -8.57711750142202
      ],
      [
        "▁https://t.co/Z",
        -8.577653791361476
      ],
      [
        "▁#igbo",
        -8.579603388476292
      ],
      [
        "at",
        -8.580826782245607
      ],
      [
        "pe",
        -8.58303259892978
      ],
      [
        "▁nno",
        -8.583402342884293
      ],
      [
        "▁k",
        -8.585258945743238
      ],
      [
        "▁c",
        -8.58546475575721
      ],
      [
        "▁uto",
        -8.587261177787664
      ],
      [
        "▁In",
        -8.589149786021013
      ],
      [
        "zu",
        -8.590398110106175
      ],
      [
        "gbuo",
        -8.590628807415829
      ],
      [
        "(",
        -8.594023812185952
      ],
      [
        "#",
        -8.594392660929493
      ],
      [
        "▁rie",
        -8.594968523162562
      ],
      [
        "▁B",
        -8.597172897669093
      ],
      [
        "▁gbara",
        -8.597616913265895
      ],
      [
        "▁bịa",
        -8.601117074142111
      ],
      [
        "▁ebu",
        -8.606195787448126
      ],
      [
        "▁https://t.co/y",
        -8.607467913365998
      ],
      [
        "▁nkem",
        -8.607611661184801
      ],
      [
        "zo",
        -8.60800913466993
      ],
      [
        "▁https://t.co/M",
        -8.611793377455424
      ],
      [
        "▁https://t.co/9",
        -8.612575809865925
      ],
      [
        "▁but",
        -8.613878805937972
      ],
      [
        "▁gị.",
        -8.614055908612851
      ],
      [
        "▁Ndewo",
        -8.614934279658833
      ],
      [
        "▁gọzie",
        -8.61495787361592
      ],
      [
        "▁iberibe",
        -8.614959931510768
      ],
      [
        "▁ụzọ",
        -8.614976573264755
      ],
      [
        "▁Taa",
        -8.615555338631925
      ],
      [
        "bia",
        -8.615811744866807
      ],
      [
        "▁Aga",
        -8.616220508017285
      ],
      [
        "▁ọma.",
        -8.6180930554446
      ],
      [
        "▁nga",
        -8.619078776490502
      ],
      [
        "▁ogologo",
        -8.619487624601403
      ],
      [
        "▁udo",
        -8.620117917125654
      ],
      [
        "▁ru",
        -8.620175198331449
      ],
      [
        "▁https://t.co/Y",
        -8.620774210091955
      ],
      [
        "GO",
        -8.620884147259478
      ],
      [
        "▁https://t.co/3",
        -8.620942486073137
      ],
      [
        "chie",
        -8.621077788810632
      ],
      [
        "▁He",
        -8.623245387399276
      ],
      [
        "▁oyibo",
        -8.627437087154952
      ],
      [
        "▁https://t.co/u",
        -8.627567670022128
      ],
      [
        "rụ",
        -8.62757524193381
      ],
      [
        "▁Nnem",
        -8.628455392359522
      ],
      [
        "▁Olu",
        -8.628890917571528
      ],
      [
        "▁fro",
        -8.628966171731687
      ],
      [
        "▁Kpo",
        -8.629533694256702
      ],
      [
        "▁ebere",
        -8.62966265782964
      ],
      [
        "▁#The",
        -8.63298490168599
      ],
      [
        "pi",
        -8.63622023794585
      ],
      [
        "▁at",
        -8.636547101710198
      ],
      [
        "▁https://t.co/4",
        -8.641099841007206
      ],
      [
        "▁ga-a",
        -8.641294497874132
      ],
      [
        "▁abuo",
        -8.642479421521184
      ],
      [
        "▁https://t.co/D",
        -8.643049020205314
      ],
      [
        "▁ano",
        -8.643073270716174
      ],
      [
        "▁Birthday",
        -8.643456069769137
      ],
      [
        "▁Just",
        -8.643656128722473
      ],
      [
        "▁agozi",
        -8.645706304445287
      ],
      [
        "bata",
        -8.645795052921576
      ],
      [
        "ry",
        -8.645890658061697
      ],
      [
        "▁https://t.co/s",
        -8.646423283008083
      ],
      [
        "▁ko",
        -8.647951887860906
      ],
      [
        "▁ele",
        -8.648760707762472
      ],
      [
        "▁https://t.co/7",
        -8.654233626851353
      ],
      [
        "▁eru",
        -8.654554486124262
      ],
      [
        "kpa",
        -8.654609103924484
      ],
      [
        "🎶",
        -8.656046882912719
      ],
      [
        "......",
        -8.656595926901383
      ],
      [
        "▁https://t.co/l",
        -8.65840264595711
      ],
      [
        "▁mmuo",
        -8.65943962115933
      ],
      [
        "▁https://t.co/V",
        -8.661817040988923
      ],
      [
        "▁https://t.co/8",
        -8.662955909480825
      ],
      [
        "▁agu",
        -8.663785615945972
      ],
      [
        "▁https://t.co/j",
        -8.663952731204043
      ],
      [
        "▁adị",
        -8.664581444773358
      ],
      [
        "My",
        -8.665287622104334
      ],
      [
        "▁https://t.co/2",
        -8.665592724356873
      ],
      [
        "kwala",
        -8.667644924278179
      ],
      [
        "▁😭",
        -8.668162250079522
      ],
      [
        "▁#O",
        -8.668389548085578
      ],
      [
        "▁W",
        -8.669154255158475
      ],
      [
        "▁https://t.co/b",
        -8.670000022840654
      ],
      [
        "nt",
        -8.672132771386504
      ],
      [
        "▁co",
        -8.672215017798802
      ],
      [
        "▁https://t.co/c",
        -8.67241747981072
      ],
      [
        "▁money",
        -8.67447399276491
      ],
      [
        "▁Ala",
        -8.677082311370034
      ],
      [
        "▁gazie",
        -8.679635643831523
      ],
      [
        "\"\"",
        -8.67998573107771
      ],
      [
        "▁https://t.co/P",
        -8.68034812396033
      ],
      [
        "▁ft",
        -8.6810151431017
      ],
      [
        "▁kwuru",
        -8.681270399357
      ],
      [
        "nyere",
        -8.681491192574034
      ],
      [
        "ch",
        -8.684454695151667
      ],
      [
        "ere",
        -8.684787606440995
      ],
      [
        "▁https://t.co/0",
        -8.685799763607593
      ],
      [
        "▁https://t.co/G",
        -8.690365689829804
      ],
      [
        "nà",
        -8.690923138752183
      ],
      [
        "▁biko.",
        -8.69369768074879
      ],
      [
        "▁Ga",
        -8.693767437973282
      ],
      [
        "▁😀",
        -8.69805878690361
      ],
      [
        "ent",
        -8.698307619732045
      ],
      [
        "rọ",
        -8.70127381375921
      ],
      [
        "▁#A",
        -8.701969186168881
      ],
      [
        "▁sị",
        -8.702700915205128
      ],
      [
        "▁down",
        -8.703183132740657
      ],
      [
        "▁Agozi",
        -8.703185701993153
      ],
      [
        "▁Dalu",
        -8.704372013757899
      ],
      [
        "▁agwu",
        -8.704886807291091
      ],
      [
        "▁ututu",
        -8.706216944158516
      ],
      [
        "▁Imo",
        -8.706233933227436
      ],
      [
        "ki",
        -8.708177598463676
      ],
      [
        "▁eh,",
        -8.708758596250732
      ],
      [
        "▁//",
        -8.708907090452595
      ],
      [
        "▁Nwanne,",
        -8.709073455540919
      ],
      [
        "▁okwu.",
        -8.710298704659177
      ],
      [
        "▁https://t.co/J",
        -8.711466583822226
      ],
      [
        "je",
        -8.711660168423721
      ],
      [
        "▁Nwata",
        -8.711788094386636
      ],
      [
        "kpo",
        -8.712816587270524
      ],
      [
        "▁iga",
        -8.712865252804278
      ],
      [
        "▁https://t.co/f",
        -8.713392173160882
      ],
      [
        "▁🙆",
        -8.715047928328973
      ],
      [
        "▁oma.",
        -8.716975168612827
      ],
      [
        "ther",
        -8.718734139616771
      ],
      [
        "dighi",
        -8.721345814344867
      ],
      [
        "▁all",
        -8.722657791555132
      ],
      [
        "▁https://t.co/d",
        -8.722841683260965
      ],
      [
        "che",
        -8.728179126332583
      ],
      [
        "▁https://t.co/I",
        -8.728739531676442
      ],
      [
        "yo",
        -8.730861216342293
      ],
      [
        "í",
        -8.731258227905125
      ],
      [
        "▁ekwensu",
        -8.734421736041469
      ],
      [
        "▁As",
        -8.735026607610447
      ],
      [
        "▁Lol.",
        -8.736051509278916
      ],
      [
        "▁ole",
        -8.737373755539355
      ],
      [
        "▁get",
        -8.738346386963673
      ],
      [
        "▁Mechi",
        -8.738364480102039
      ],
      [
        "▁gi?",
        -8.739672837338754
      ],
      [
        "▁see",
        -8.741777606789048
      ],
      [
        "▁nku",
        -8.745155839640482
      ],
      [
        "▁ume",
        -8.746805446660833
      ],
      [
        "nd",
        -8.747403181282968
      ],
      [
        "godu",
        -8.747626773633176
      ],
      [
        "▁m.",
        -8.752939942506579
      ],
      [
        "▁NA",
        -8.75598957303784
      ],
      [
        "▁nya",
        -8.75781958008973
      ],
      [
        "mma",
        -8.759687851939157
      ],
      [
        "▁kita",
        -8.760272987600683
      ],
      [
        "▁mmadu.",
        -8.76056381723232
      ],
      [
        "ce",
        -8.762717397976342
      ],
      [
        "▁bikonu",
        -8.764840996153335
      ],
      [
        "ò",
        -8.76489865647624
      ],
      [
        "TwitterCommunity",
        -8.766678933659433
      ],
      [
        "▁ọjọọ",
        -8.766743399919894
      ],
      [
        "▁ugwo",
        -8.766828837282267
      ],
      [
        "▁ụwa",
        -8.76749332395418
      ],
      [
        "▁😂😂😂😂😂",
        -8.770763898909216
      ],
      [
        "▁Agu",
        -8.771064281338637
      ],
      [
        "▁Kee",
        -8.773852213481002
      ],
      [
        "▁https://t.co/5",
        -8.777431475002754
      ],
      [
        "😊",
        -8.777850668786645
      ],
      [
        "▁abia",
        -8.78046572006156
      ],
      [
        "▁as",
        -8.780571604794982
      ],
      [
        "▁je",
        -8.781717336010047
      ],
      [
        "▁mma,",
        -8.784300444341254
      ],
      [
        "▁soro",
        -8.785026605716919
      ],
      [
        "▁https://t.co/w",
        -8.786051393109279
      ],
      [
        "ú",
        -8.790286056093846
      ],
      [
        "▁https://t.co/1",
        -8.790623883911646
      ],
      [
        "anyị",
        -8.79176236486808
      ],
      [
        "▁o!",
        -8.79222482442173
      ],
      [
        "gwu",
        -8.793119800768562
      ],
      [
        "▁Onu",
        -8.795331555418992
      ],
      [
        "wu",
        -8.79767004177716
      ],
      [
        "▁say",
        -8.798619062073852
      ],
      [
        "▁egwu.",
        -8.799572007638698
      ],
      [
        "▁siri",
        -8.800203940983046
      ],
      [
        "▁Owerri",
        -8.800417615335324
      ],
      [
        "▁n'elu",
        -8.800970368797515
      ],
      [
        "▁#Praise",
        -8.802825346480873
      ],
      [
        "lum",
        -8.80978479930497
      ],
      [
        "▁oso",
        -8.80984224551692
      ],
      [
        "▁Ima",
        -8.812983920534242
      ],
      [
        "▁D",
        -8.81312703433295
      ],
      [
        "▁🤷",
        -8.813612438592433
      ],
      [
        "▁amaka",
        -8.814406063277255
      ],
      [
        "▁Si",
        -8.823474706601724
      ],
      [
        "▁a.",
        -8.82582381995259
      ],
      [
        "▁jiri",
        -8.82668077241135
      ],
      [
        "▁2",
        -8.83166069164362
      ],
      [
        "▁n'og",
        -8.833006045340554
      ],
      [
        "es",
        -8.833167569103786
      ],
      [
        "za",
        -8.834950512916144
      ],
      [
        "▁p",
        -8.835082690772037
      ],
      [
        "▁uka",
        -8.835109082031664
      ],
      [
        "▁Onitsha",
        -8.83564274861646
      ],
      [
        "qg",
        -8.835773681832235
      ],
      [
        "▁ekpere",
        -8.836210516810175
      ],
      [
        "▁morning",
        -8.83638770502173
      ],
      [
        "▁or",
        -8.836974789710494
      ],
      [
        "▁Anya",
        -8.837047042620897
      ],
      [
        "▁ri",
        -8.837846357623887
      ],
      [
        "▁tinye",
        -8.839022228688636
      ],
      [
        "▁With",
        -8.839442656957548
      ],
      [
        "▁ahia",
        -8.840068560736963
      ],
      [
        "▁puta",
        -8.843030669139415
      ],
      [
        "▁https://t.co/k",
        -8.843801500521328
      ],
      [
        "▁Jisi",
        -8.844388302696
      ],
      [
        "▁On",
        -8.844921333894886
      ],
      [
        "🎤",
        -8.846213574552168
      ],
      [
        "😒",
        -8.846447246486337
      ],
      [
        "it",
        -8.84749574834139
      ],
      [
        "👍",
        -8.848260763902562
      ],
      [
        "▁https://t.co/B",
        -8.850943123727964
      ],
      [
        "😍",
        -8.851790126836038
      ],
      [
        "▁sha",
        -8.852159338901068
      ],
      [
        "▁https://t.co/U",
        -8.853518376272923
      ],
      [
        "nma",
        -8.854859097743763
      ],
      [
        "▁odogwu",
        -8.859187787868699
      ],
      [
        "▁much",
        -8.859674613257416
      ],
      [
        "▁b",
        -8.859714343993248
      ],
      [
        "▁I'm",
        -8.86000316968568
      ],
      [
        "▁ewe",
        -8.860662819873482
      ],
      [
        "▁ye",
        -8.86184818370763
      ],
      [
        "ze",
        -8.863184443179268
      ],
      [
        "▁https://t.co/L",
        -8.863413802585884
      ],
      [
        "▁Do",
        -8.865637711272313
      ],
      [
        "nna",
        -8.8667898179853
      ],
      [
        "▁su",
        -8.868229537270523
      ],
      [
        "▁ogwu",
        -8.8690051279635
      ],
      [
        "▁Ekwensu",
        -8.87020951267055
      ],
      [
        "▁una",
        -8.873230675412886
      ],
      [
        "▁ugbua",
        -8.874111693481307
      ],
      [
        "▁eke",
        -8.874924642487294
      ],
      [
        "▁https://t.co/t",
        -8.875937439355338
      ],
      [
        "▁Nye",
        -8.87632333770812
      ],
      [
        "gh",
        -8.877343419455123
      ],
      [
        "▁bido",
        -8.87890393348874
      ],
      [
        "▁ụ",
        -8.880969200163213
      ],
      [
        "▁day",
        -8.881456411256625
      ],
      [
        "▁jur",
        -8.882078620816996
      ],
      [
        "ọrọ",
        -8.882194056773995
      ],
      [
        "ndi",
        -8.882488185604315
      ],
      [
        "puru",
        -8.883450814545668
      ],
      [
        "▁du",
        -8.884317104284031
      ],
      [
        "▁#104",
        -8.884415166284493
      ],
      [
        "ia",
        -8.884652249552609
      ],
      [
        "▁*",
        -8.885574859961949
      ],
      [
        "jo",
        -8.88598161406697
      ],
      [
        "▁Anu",
        -8.886268890703018
      ],
      [
        "ju",
        -8.887725734871438
      ],
      [
        "fi",
        -8.894340821363013
      ],
      [
        "▁😊",
        -8.89644129725095
      ],
      [
        "▁rapu",
        -8.897120715514964
      ],
      [
        "▁mkpa",
        -8.902690541669168
      ],
      [
        "▁https://t.co/z",
        -8.903266725017394
      ],
      [
        "▁Ina",
        -8.905404737310427
      ],
      [
        "▁Ụtụtụ",
        -8.90731667370076
      ],
      [
        "▁♀️🚶",
        -8.907343061493952
      ],
      [
        "▁nnukwu",
        -8.907348313436875
      ],
      [
        "onye",
        -8.907395047873209
      ],
      [
        "▁enwero",
        -8.910597079300807
      ],
      [
        "▁iwu",
        -8.913330791722043
      ],
      [
        "ever",
        -8.914342746617697
      ],
      [
        "▁Ezi",
        -8.916139852806387
      ],
      [
        "▁https://t.co/X",
        -8.916453247306467
      ],
      [
        "▁anwu",
        -8.916556819131527
      ],
      [
        "▁state",
        -8.916866154156349
      ],
      [
        "kwana",
        -8.917028180362585
      ],
      [
        "▁ese",
        -8.917289303937169
      ],
      [
        "▁Iwe",
        -8.91737000554652
      ],
      [
        "Day",
        -8.91852752744506
      ],
      [
        "ó",
        -8.921718918732926
      ],
      [
        "kọ",
        -8.922397732575053
      ],
      [
        "▁arụ",
        -8.922886777993336
      ],
      [
        "🤦",
        -8.923716936413257
      ],
      [
        "▁Lmao",
        -8.9254218599069
      ],
      [
        "▁Oke",
        -8.925618171997513
      ],
      [
        "ukwu",
        -8.926024397286422
      ],
      [
        "▁#T",
        -8.926811988623946
      ],
      [
        "ụọ",
        -8.927572700904841
      ],
      [
        "▁Adi",
        -8.929191398046552
      ],
      [
        "▁sharp",
        -8.930568890438405
      ],
      [
        "▁ebi",
        -8.93139597638808
      ],
      [
        "obi",
        -8.931670224692681
      ],
      [
        "▁oooo",
        -8.932146348255273
      ],
      [
        "▁melu",
        -8.932296704542598
      ],
      [
        "▁ndo",
        -8.932568688181275
      ],
      [
        "▁🙄🙄",
        -8.93534614738557
      ],
      [
        "kpu",
        -8.935872579519534
      ],
      [
        "▁n'ala",
        -8.936707152438816
      ],
      [
        "chaa",
        -8.936740018446816
      ],
      [
        "▁us",
        -8.941919806007958
      ],
      [
        "▁iri",
        -8.942568887431028
      ],
      [
        "ruo",
        -8.945246264242593
      ],
      [
        "▁ako",
        -8.945645619613188
      ],
      [
        "HtQhxO",
        -8.94570788262081
      ],
      [
        "▁mmụọ",
        -8.945761460389361
      ],
      [
        "▁ụdị",
        -8.945908211558347
      ],
      [
        "▁thing",
        -8.945917920791668
      ],
      [
        "▁Abuja",
        -8.946095675950396
      ],
      [
        "▁Nnukwu",
        -8.946992609336785
      ],
      [
        "▁♂️🚶",
        -8.94705217397988
      ],
      [
        "▁ekene",
        -8.947193762412946
      ],
      [
        "▁Enyi",
        -8.947300903764592
      ],
      [
        "▁Co",
        -8.947411731704175
      ],
      [
        "▁nwayo",
        -8.948082664619898
      ],
      [
        "▁life",
        -8.948486802273386
      ],
      [
        "▁Ne",
        -8.949095647718082
      ],
      [
        "▁Ije",
        -8.949958922545655
      ],
      [
        "mba",
        -8.950090373232452
      ],
      [
        "▁kwado",
        -8.952721312168695
      ],
      [
        "▁welu",
        -8.954267214637133
      ],
      [
        "elu",
        -8.958073951629615
      ],
      [
        "▁way",
        -8.960552380733649
      ],
      [
        "▁iru",
        -8.961864684186772
      ],
      [
        "♫",
        -8.964307769443277
      ],
      [
        "❤️",
        -8.964393090155237
      ],
      [
        "▁ok",
        -8.965961565367705
      ],
      [
        "▁Che",
        -8.967569842967073
      ],
      [
        "▁Obu",
        -8.970111169992004
      ],
      [
        "▁😒",
        -8.970822685266134
      ],
      [
        "siri",
        -8.97280079512325
      ],
      [
        "▁Gba",
        -8.973077062355022
      ],
      [
        "Friday",
        -8.976059896603756
      ],
      [
        "▁mgbu",
        -8.977203420495623
      ],
      [
        "▁https://t.co/n",
        -8.979417982858777
      ],
      [
        "▁agha",
        -8.979652523973463
      ],
      [
        "▁mmanu",
        -8.980381997976144
      ],
      [
        "🏿",
        -8.980762070594663
      ],
      [
        "el",
        -8.985271093875543
      ],
      [
        "▁0809",
        -8.98570776674212
      ],
      [
        "▁Kitikpa",
        -8.985707882922313
      ],
      [
        "▁Nkuzi",
        -8.985710912344647
      ],
      [
        "1067",
        -8.985732577127992
      ],
      [
        "Ubochi",
        -8.98574426771706
      ],
      [
        "▁Awka",
        -8.985745089155985
      ],
      [
        "▁Nnewi",
        -8.985755777516829
      ],
      [
        "▁Buhari",
        -8.985789849631269
      ],
      [
        "ol",
        -8.986474854258322
      ],
      [
        "▁akwu",
        -8.98681090800925
      ],
      [
        "▁iko",
        -8.987561129214798
      ],
      [
        "▁afia",
        -8.98800706422383
      ],
      [
        "▁Ndu",
        -8.98805088700228
      ],
      [
        "▁love",
        -8.988054751912454
      ],
      [
        "▁mechie",
        -8.988093458188786
      ],
      [
        "▁Onwero",
        -8.988567731833067
      ],
      [
        "▁na-",
        -8.988637231306658
      ],
      [
        "▁baby",
        -8.988997759012483
      ],
      [
        "nyi",
        -8.989063522346482
      ],
      [
        "▁Eme",
        -8.989571080744696
      ],
      [
        "▁ike.",
        -8.989804208994432
      ],
      [
        "ele",
        -8.989940677997858
      ],
      [
        "▁IGBO",
        -8.99227361202957
      ],
      [
        "▁Go",
        -8.992749432394866
      ],
      [
        "▁madu",
        -8.993026034769324
      ],
      [
        "▁😏",
        -8.99314023043074
      ],
      [
        "▁ya!",
        -8.994717716801661
      ],
      [
        "▁l",
        -8.995042928852294
      ],
      [
        "fa",
        -8.997608755099272
      ],
      [
        "▁anụ",
        -8.99795812495454
      ],
      [
        "▁eso",
        -8.999306916060686
      ],
      [
        "nwere",
        -8.99967432150707
      ],
      [
        "▁bee",
        -9.000608810672151
      ],
      [
        "▁🤦",
        -9.003321639147622
      ],
      [
        "gbo",
        -9.003621826814863
      ],
      [
        "▁juo",
        -9.004632095808581
      ],
      [
        "or",
        -9.008012992912652
      ],
      [
        "▁gbakwa",
        -9.010339766044975
      ],
      [
        "▁🤣🤣🤣🤣",
        -9.013232187679627
      ],
      [
        "▁mbu",
        -9.014768459677859
      ],
      [
        "▁Nnaa",
        -9.0151797817237
      ],
      [
        "▁nta",
        -9.01740416124128
      ],
      [
        "▁Akwa",
        -9.017583408170095
      ],
      [
        "▁Ta",
        -9.019970369366714
      ],
      [
        "▁chim",
        -9.024243927211202
      ],
      [
        "▁Jehova",
        -9.025301534598832
      ],
      [
        "ì",
        -9.025331799964224
      ],
      [
        "▁https://t.co/T",
        -9.026748676043537
      ],
      [
        "▁gwụrụ",
        -9.02741606072968
      ],
      [
        "▁#Np",
        -9.027432275451563
      ],
      [
        "▁aligo",
        -9.027437895792167
      ],
      [
        "▁yá",
        -9.027606340160649
      ],
      [
        "sh",
        -9.028282384256489
      ],
      [
        "▁nkuzi",
        -9.028457510390572
      ],
      [
        "▁#DC",
        -9.02854615869859
      ],
      [
        "▁Afam",
        -9.029077726096906
      ],
      [
        "▁n'isi",
        -9.029102109336167
      ],
      [
        "▁ede",
        -9.029339840306557
      ],
      [
        "▁ooh",
        -9.029378485661837
      ],
      [
        "▁ozi",
        -9.02945720511135
      ],
      [
        "▁twitter",
        -9.029673224636632
      ],
      [
        "▁https://t.co/r",
        -9.030395690444601
      ],
      [
        "▁mpa",
        -9.03245794445123
      ],
      [
        "▁agwo",
        -9.032788487794292
      ],
      [
        "▁se",
        -9.03385374353164
      ],
      [
        "▁OMA",
        -9.03388801893662
      ],
      [
        "▁j",
        -9.034817554649699
      ],
      [
        "▁Abia",
        -9.035251754331114
      ],
      [
        "▁amara",
        -9.035554115463588
      ],
      [
        "▁ihu",
        -9.035569387996643
      ],
      [
        "uru",
        -9.038224756276268
      ],
      [
        "▁ocha",
        -9.041438521045283
      ],
      [
        "po",
        -9.041654615838908
      ],
      [
        "ca",
        -9.042692244687156
      ],
      [
        "▁Ozo",
        -9.04273702312676
      ],
      [
        "7S",
        -9.042841418723025
      ],
      [
        "▁ku",
        -9.04299483552063
      ],
      [
        "▁mbo",
        -9.04332412893976
      ],
      [
        "▁oo.",
        -9.04395105819965
      ],
      [
        "▁ga-e",
        -9.046037696360537
      ],
      [
        "▁nwelu",
        -9.04808553190684
      ],
      [
        "noria",
        -9.04809123481273
      ],
      [
        "us",
        -9.04877981202185
      ],
      [
        "NG",
        -9.049523112454349
      ],
      [
        "▁Ji",
        -9.050565580620493
      ],
      [
        "▁Agba",
        -9.051198211511279
      ],
      [
        "▁amụ",
        -9.053514025288903
      ],
      [
        "▁aba",
        -9.053950188719664
      ],
      [
        "▁ghi",
        -9.055122135062682
      ],
      [
        "▁F",
        -9.055892173955941
      ],
      [
        "▁akpu",
        -9.056498768480107
      ],
      [
        "▁azụ",
        -9.057931629504173
      ],
      [
        "▁bo",
        -9.060203307912733
      ],
      [
        "▁fe",
        -9.0613892295648
      ],
      [
        "sia",
        -9.06346971899822
      ],
      [
        "cho",
        -9.064106954975385
      ],
      [
        "ss",
        -9.06439259261776
      ],
      [
        "😂😂😂😂",
        -9.065062167404676
      ],
      [
        "▁brother",
        -9.065882152910394
      ],
      [
        "▁https://t.co/m",
        -9.066659918593668
      ],
      [
        "zia",
        -9.067595963384477
      ],
      [
        "▁them",
        -9.06782347316219
      ],
      [
        "▁😁😁😁",
        -9.068775356209873
      ],
      [
        "▁ụtọ",
        -9.07092082404124
      ],
      [
        "▁ugwu",
        -9.071007910561397
      ],
      [
        "▁call",
        -9.071111701570514
      ],
      [
        "▁ụnụ",
        -9.071119072581098
      ],
      [
        "chu",
        -9.071282902251367
      ],
      [
        "▁daalu",
        -9.071487156419646
      ],
      [
        "▁osiso",
        -9.071544945370281
      ],
      [
        "zọ",
        -9.07168795931483
      ],
      [
        "▁Mmiri",
        -9.071713997900183
      ],
      [
        "▁nwuru",
        -9.072859015629122
      ],
      [
        "▁anwụ",
        -9.073035887541636
      ],
      [
        "▁dịrị",
        -9.073881546472991
      ],
      [
        "▁CHUKWU",
        -9.074203897565921
      ],
      [
        "▁oto",
        -9.074359159388067
      ],
      [
        "▁afụ",
        -9.074487859446597
      ],
      [
        "▁asusu",
        -9.074558966008224
      ],
      [
        "▁Amaka",
        -9.07479147602931
      ],
      [
        "▁ndigbo",
        -9.075022738968368
      ],
      [
        "▁obuna",
        -9.075402092412334
      ],
      [
        "▁pu",
        -9.07577474871047
      ],
      [
        "▁Ome",
        -9.078242998084448
      ],
      [
        "pụ",
        -9.079698072067043
      ],
      [
        "▁amaro",
        -9.080758109080849
      ],
      [
        "▁🎤",
        -9.083329052611909
      ],
      [
        "igwe",
        -9.083875874477304
      ],
      [
        "▁Lekwa",
        -9.084591315452613
      ],
      [
        "fo",
        -9.08567949464665
      ],
      [
        "▁#M",
        -9.08833845762579
      ],
      [
        "▁Nwannem",
        -9.091297806588546
      ],
      [
        "😭",
        -9.09137540818012
      ],
      [
        "😌",
        -9.094341601733142
      ],
      [
        "▁bulu",
        -9.094395912896047
      ],
      [
        "😃",
        -9.094428186740352
      ],
      [
        "nce",
        -9.094683765451416
      ],
      [
        "🤣🤣",
        -9.09521633075391
      ],
      [
        "ment",
        -9.096188404287727
      ],
      [
        "ooo",
        -9.097682815026207
      ],
      [
        "1049",
        -9.098429849068461
      ],
      [
        "▁aka.",
        -9.10216211835317
      ],
      [
        "▁akpọ",
        -9.102620311689456
      ],
      [
        "mp",
        -9.104118478835687
      ],
      [
        "▁#I",
        -9.107207429130714
      ],
      [
        "nya",
        -9.107270276585503
      ],
      [
        "ers",
        -9.107334122535057
      ],
      [
        "▁https://t.co/6",
        -9.107668650662273
      ],
      [
        "▁ome",
        -9.11291839873142
      ],
      [
        "▁yi",
        -9.113982613372503
      ],
      [
        "▁bless",
        -9.115336299261024
      ],
      [
        "▁know",
        -9.116308718785696
      ],
      [
        "▁before",
        -9.11631602495804
      ],
      [
        "▁dimkpa",
        -9.116447618200258
      ],
      [
        "▁mind",
        -9.116489820559291
      ],
      [
        "▁Akuko",
        -9.116758402502622
      ],
      [
        "▁ekpe",
        -9.117112598876846
      ],
      [
        "▁Ogini",
        -9.117395103015895
      ],
      [
        "▁ochi",
        -9.119531101202695
      ],
      [
        "▁iyi",
        -9.120537800887924
      ],
      [
        "▁n'aka",
        -9.121541641798695
      ],
      [
        "▁aju",
        -9.121848608119437
      ],
      [
        "▁Good",
        -9.123207138712688
      ],
      [
        "😀",
        -9.123429351847117
      ],
      [
        "▁oburu",
        -9.123752613339482
      ],
      [
        "▁ozu",
        -9.127739902055533
      ],
      [
        "▁Oku",
        -9.129318575783872
      ],
      [
        "▁ori",
        -9.13141532244197
      ],
      [
        "▁oma,",
        -9.131851221509903
      ],
      [
        "▁Chai!",
        -9.1351286485109
      ],
      [
        "isi",
        -9.135806314085126
      ],
      [
        "▁che",
        -9.139766841345203
      ],
      [
        "lie",
        -9.140498336697418
      ],
      [
        "Up",
        -9.14079066741067
      ],
      [
        "▁make",
        -9.141331527584695
      ],
      [
        "dị",
        -9.14172132947143
      ],
      [
        "*",
        -9.142089658481721
      ],
      [
        "Chukwu",
        -9.143163862194271
      ],
      [
        "▁achi",
        -9.145584814059891
      ],
      [
        "▁alu",
        -9.145622352568537
      ],
      [
        "ight",
        -9.146100835423121
      ],
      [
        "for",
        -9.148293035308155
      ],
      [
        "▁De",
        -9.149407835512894
      ],
      [
        "'a",
        -9.150214281398593
      ],
      [
        "▁owu",
        -9.151462667109035
      ],
      [
        "▁nah",
        -9.151749349079601
      ],
      [
        "ine",
        -9.15217374770008
      ],
      [
        "oro",
        -9.153386481759824
      ],
      [
        "gologo",
        -9.154533094453566
      ],
      [
        "▁kwuo",
        -9.15557544060756
      ],
      [
        "▁pi",
        -9.157195688390928
      ],
      [
        "▁asu",
        -9.157495477036788
      ],
      [
        "▁an",
        -9.158248426681105
      ],
      [
        "ty",
        -9.159691598042293
      ],
      [
        "Praise",
        -9.159864798132244
      ],
      [
        "RI",
        -9.160546321195941
      ],
      [
        "ot",
        -9.161868156486033
      ],
      [
        "▁ojoo",
        -9.162204962576029
      ],
      [
        "22",
        -9.163400620030318
      ],
      [
        "▁Iberibe",
        -9.163862881871985
      ],
      [
        "▁Omalicha",
        -9.163928967435586
      ],
      [
        "▁♀️🏃",
        -9.163993111792802
      ],
      [
        "▁talk",
        -9.164068522270435
      ],
      [
        "▁nji",
        -9.165473960375147
      ],
      [
        "▁sure",
        -9.165929304027117
      ],
      [
        "▁ịsị",
        -9.166449573092434
      ],
      [
        "est",
        -9.166831440207444
      ],
      [
        "▁ya?",
        -9.167806613700213
      ],
      [
        "▁Ukwu",
        -9.167934151703317
      ],
      [
        "▁efu",
        -9.168795818217173
      ],
      [
        "▁Da",
        -9.169723063435523
      ],
      [
        "▁nwanne.",
        -9.16989802928594
      ],
      [
        "▁See",
        -9.170511413448626
      ],
      [
        "▁achu",
        -9.170740760437615
      ],
      [
        "▁jide",
        -9.171461608616553
      ],
      [
        "▁Ofu",
        -9.17186943300891
      ],
      [
        "▁Nma",
        -9.172524517803323
      ],
      [
        "▁Bikonu",
        -9.172708109977744
      ],
      [
        "▁onwu",
        -9.173763364335784
      ],
      [
        "LI",
        -9.175537666867855
      ],
      [
        "▁Nri",
        -9.177498650733867
      ],
      [
        "▁ochie",
        -9.177819292965088
      ],
      [
        "▁😭😭😭",
        -9.1783086764843
      ],
      [
        "▁a?",
        -9.179016545046816
      ],
      [
        "🏼",
        -9.179827685803264
      ],
      [
        "▁zuru",
        -9.181956800724471
      ],
      [
        "▁It",
        -9.183627603669606
      ],
      [
        "▁her",
        -9.183972666252624
      ],
      [
        "▁Hi",
        -9.18613620200438
      ],
      [
        "ist",
        -9.18753003175624
      ],
      [
        "▁sir",
        -9.18935177221105
      ],
      [
        "Onye",
        -9.189393451979775
      ],
      [
        "▁❤️",
        -9.189651030287424
      ],
      [
        "▁bro",
        -9.191569638262957
      ],
      [
        "▁▶️",
        -9.19191788956189
      ],
      [
        "▁gwu",
        -9.192533705242699
      ],
      [
        "▁nkwu",
        -9.197001006882292
      ],
      [
        "▁Mu",
        -9.19718779112152
      ],
      [
        "aka",
        -9.200022261843372
      ],
      [
        "▁Kwa",
        -9.20174201688558
      ],
      [
        "▁nnem",
        -9.201866315851941
      ],
      [
        "kiri",
        -9.203184086319782
      ],
      [
        "▁😩",
        -9.20372968176322
      ],
      [
        "ihe",
        -9.204878158087876
      ],
      [
        "nwe",
        -9.205358422093038
      ],
      [
        "▁year",
        -9.205706275860955
      ],
      [
        "▁out",
        -9.206007254641833
      ],
      [
        "miri",
        -9.206592897693353
      ],
      [
        "sha",
        -9.207351164839357
      ],
      [
        "▁Jesu",
        -9.209310487473509
      ],
      [
        "▁Iji",
        -9.211012288002978
      ],
      [
        "▁te",
        -9.211507226974861
      ],
      [
        "_",
        -9.213926097100247
      ],
      [
        "▁Egbe",
        -9.213951026673282
      ],
      [
        "▁good",
        -9.214158587073229
      ],
      [
        "▁kwesiri",
        -9.214243647329948
      ],
      [
        "▁kedụ",
        -9.214257038547236
      ],
      [
        "gwo",
        -9.214475872812827
      ],
      [
        "▁negodu",
        -9.214626487356277
      ],
      [
        "▁ajuju",
        -9.214880967227405
      ],
      [
        "▁ọsọ",
        -9.214966789472424
      ],
      [
        "▁mmanya",
        -9.216152966974349
      ],
      [
        "▁DM",
        -9.216235753982232
      ],
      [
        "▁Igbo.",
        -9.216659560766267
      ],
      [
        "▁ya...",
        -9.217418580501201
      ],
      [
        "▁Ona",
        -9.218853161344498
      ],
      [
        "▁atọ",
        -9.218967759947084
      ],
      [
        "▁hu",
        -9.219912901753421
      ],
      [
        "▁Nya",
        -9.219926547799814
      ],
      [
        "▁banye",
        -9.221165285432452
      ],
      [
        "▁imere",
        -9.221186713704437
      ],
      [
        "chara",
        -9.221266766558088
      ],
      [
        "ZO",
        -9.2226586161904
      ],
      [
        "gha",
        -9.224732692984276
      ],
      [
        "▁our",
        -9.225001475940015
      ],
      [
        "bughi",
        -9.226351419588978
      ],
      [
        "▁Ugo",
        -9.226918850842688
      ],
      [
        "asụsụ",
        -9.228445185883828
      ],
      [
        "’anyi",
        -9.22934726185121
      ],
      [
        "▁don",
        -9.22994448504858
      ],
      [
        "▁🎼",
        -9.230423128391005
      ],
      [
        "ns",
        -9.230501102430557
      ],
      [
        "▁cc",
        -9.230739092648275
      ],
      [
        "agu",
        -9.232861806895201
      ],
      [
        "▁Lmao.",
        -9.234380616174871
      ],
      [
        "▁etinye",
        -9.234733824329913
      ],
      [
        "🤷",
        -9.235660281507215
      ],
      [
        "♬",
        -9.236720238849767
      ],
      [
        "ST",
        -9.236752422884136
      ],
      [
        "🤦🏽",
        -9.2394701401613
      ],
      [
        "▁♫",
        -9.239543518218088
      ],
      [
        "▁👍",
        -9.240453994054867
      ],
      [
        "Now",
        -9.240867204762809
      ],
      [
        "Sunday",
        -9.240966363560018
      ],
      [
        "▁Eji",
        -9.242169647903342
      ],
      [
        "▁mama",
        -9.242270994241759
      ],
      [
        "▁gbalu",
        -9.242712057466578
      ],
      [
        "▁atụ",
        -9.242836071504414
      ],
      [
        "💯",
        -9.243776880511666
      ],
      [
        "▁dike",
        -9.249862480081754
      ],
      [
        "▁if",
        -9.250262245991658
      ],
      [
        "▁Asi",
        -9.252539763493159
      ],
      [
        "is",
        -9.254442278734597
      ],
      [
        "▁za",
        -9.257351566429021
      ],
      [
        "dd",
        -9.258203167447595
      ],
      [
        "co",
        -9.258617631841858
      ],
      [
        "▁ooh..",
        -9.260557476302283
      ],
      [
        "▁nwannem",
        -9.262554903798975
      ],
      [
        "▁ti",
        -9.263060878812192
      ],
      [
        "ẹ",
        -9.266557982002297
      ],
      [
        "▁people",
        -9.266558018588979
      ],
      [
        "▁IGWE",
        -9.266559798414358
      ],
      [
        "▁ONYE",
        -9.267055681532936
      ],
      [
        "▁#IgboProverb",
        -9.267210742296308
      ],
      [
        "▁akwụkwọ",
        -9.267210764743982
      ],
      [
        "▁n'ile",
        -9.267295744414364
      ],
      [
        "▁n'ebe",
        -9.267541509261324
      ],
      [
        "▁ọchị",
        -9.26814433805777
      ],
      [
        "▁n'ihi",
        -9.268179451990662
      ],
      [
        "▁want",
        -9.268468808086315
      ],
      [
        "▁Oburo",
        -9.268580917800735
      ],
      [
        "▁Gini",
        -9.268853697135398
      ],
      [
        "eme",
        -9.269505010558994
      ],
      [
        "▁😍",
        -9.270701993539511
      ],
      [
        "▁tata",
        -9.271637425723393
      ],
      [
        "▁ụtụtụ",
        -9.271877353606053
      ],
      [
        "▁Sa",
        -9.272847166797968
      ],
      [
        "▁Okpa",
        -9.273253405723706
      ],
      [
        "▁he",
        -9.273783791583083
      ],
      [
        "▁ooo.",
        -9.275784129518952
      ],
      [
        "of",
        -9.276580152302165
      ],
      [
        "nyị",
        -9.278503694569297
      ],
      [
        "▁asị",
        -9.279514845327277
      ],
      [
        "▁Je",
        -9.279708228797233
      ],
      [
        "-a",
        -9.280594023974345
      ],
      [
        "ar",
        -9.28439305456742
      ],
      [
        "ghari",
        -9.284935309226189
      ],
      [
        "▁Twitter",
        -9.286918081335196
      ],
      [
        "et",
        -9.28762587367925
      ],
      [
        "zikwa",
        -9.288155788046165
      ],
      [
        "▁nne.",
        -9.288304285033403
      ],
      [
        "▁Nka",
        -9.29400663816708
      ],
      [
        "vi",
        -9.29490212210735
      ],
      [
        "▁Iwu",
        -9.295161747678364
      ],
      [
        "🎵",
        -9.295292117632615
      ],
      [
        "▁ehh",
        -9.295680724229413
      ],
      [
        "▁🔥",
        -9.296359080107473
      ],
      [
        "am",
        -9.297560197759124
      ],
      [
        "DP",
        -9.29831094548942
      ],
      [
        "▁bata",
        -9.298561597579097
      ],
      [
        "🙆",
        -9.299421511807923
      ],
      [
        "ic",
        -9.299639955363315
      ],
      [
        "👌",
        -9.299698284323922
      ],
      [
        "🎼",
        -9.299714101883357
      ],
      [
        "mana",
        -9.30049825294889
      ],
      [
        "📻",
        -9.300683968308666
      ],
      [
        "ahịa",
        -9.300853871905982
      ],
      [
        "🎧",
        -9.300858369861936
      ],
      [
        "gho",
        -9.301144988737674
      ],
      [
        "wà",
        -9.30144367234962
      ],
      [
        "nwanyi",
        -9.301702267445412
      ],
      [
        "um",
        -9.302270906443162
      ],
      [
        "dịghị",
        -9.302611274310804
      ],
      [
        "▁over",
        -9.305082680139273
      ],
      [
        "buru",
        -9.308514741355943
      ],
      [
        "by",
        -9.308660789199845
      ],
      [
        "▁aja",
        -9.310481151707222
      ],
      [
        "▁Ngwanu",
        -9.311167516097084
      ],
      [
        "▁gi!",
        -9.313962071039807
      ],
      [
        "ous",
        -9.314548625911897
      ],
      [
        "▁shi",
        -9.316169027851455
      ],
      [
        "olu",
        -9.316839805932611
      ],
      [
        "▁n'anya",
        -9.317676639318135
      ],
      [
        "▁hi",
        -9.318970995943852
      ],
      [
        "▁Ja",
        -9.319030275849297
      ],
      [
        "▁Thank",
        -9.320441053519904
      ],
      [
        "▁malu",
        -9.321858401727287
      ],
      [
        "▁#OBINWANNE",
        -9.322113537557854
      ],
      [
        "▁tweet",
        -9.322113592339198
      ],
      [
        "▁Bịa",
        -9.322119728273343
      ],
      [
        "▁ntị",
        -9.322143561137679
      ],
      [
        "▁W/@user",
        -9.322273992050347
      ],
      [
        "▁who",
        -9.323219017583456
      ],
      [
        "▁Mpa",
        -9.323284016307962
      ],
      [
        "▁Dr",
        -9.32357945962057
      ],
      [
        "▁ọgwụ",
        -9.323588056039828
      ],
      [
        "▁Christmas",
        -9.323997202657726
      ],
      [
        "gide",
        -9.32435858894905
      ],
      [
        "▁H",
        -9.324490150743063
      ],
      [
        "▁ụkwụ",
        -9.32474819670933
      ],
      [
        "▁well",
        -9.326291046475811
      ],
      [
        "▁achọ",
        -9.326477029674123
      ],
      [
        "▁Nwe",
        -9.327278870834903
      ],
      [
        "tito",
        -9.327585418524968
      ],
      [
        "▁ụlọ",
        -9.327597814873078
      ],
      [
        "▁efe",
        -9.327871773253191
      ],
      [
        "▁lekwa",
        -9.328481112186486
      ],
      [
        "▁mgba",
        -9.328603613791245
      ],
      [
        "iri",
        -9.32923551768494
      ],
      [
        "▁oche",
        -9.329833480811212
      ],
      [
        "▁Nkem",
        -9.330293710938953
      ],
      [
        "▁😎",
        -9.331216418818908
      ],
      [
        "▁okpa",
        -9.331365141035837
      ],
      [
        "rs",
        -9.333378197550616
      ],
      [
        "▁adiri",
        -9.33354004929086
      ],
      [
        "an",
        -9.334337048275255
      ],
      [
        "▁Ri",
        -9.334740207343144
      ],
      [
        "▁zie",
        -9.33605342800404
      ],
      [
        "▁kpọ",
        -9.336059655218143
      ],
      [
        "▁Ju",
        -9.33648225835014
      ],
      [
        "▁lee",
        -9.338031187886845
      ],
      [
        "OW",
        -9.339657507353708
      ],
      [
        "▁n’e",
        -9.33996940218414
      ],
      [
        "By",
        -9.342413938301021
      ],
      [
        "▁n'i",
        -9.34339052063315
      ],
      [
        "▁gbu",
        -9.343442987661362
      ],
      [
        "wuru",
        -9.343916125761439
      ],
      [
        "▁Amu",
        -9.345534996352088
      ],
      [
        "▁Agam",
        -9.347043645569885
      ],
      [
        "▁Ok",
        -9.347360658651342
      ],
      [
        "▁Odikwa",
        -9.347630443222641
      ],
      [
        "▁li",
        -9.347663831366063
      ],
      [
        "zz",
        -9.353044953957228
      ],
      [
        "▁ose",
        -9.353467106228342
      ],
      [
        "▁Oka",
        -9.35401131829859
      ],
      [
        "ù",
        -9.355361675817772
      ],
      [
        "anu",
        -9.355734274543824
      ],
      [
        "id",
        -9.358537582969863
      ],
      [
        "😋",
        -9.358553982324569
      ],
      [
        "▁kpata",
        -9.359413631658207
      ],
      [
        "bịa",
        -9.360918919453216
      ],
      [
        "GOZI",
        -9.361579464864464
      ],
      [
        "▁ó",
        -9.361762511084203
      ],
      [
        "▁bad",
        -9.362240259487558
      ],
      [
        "▁eti",
        -9.362357178640913
      ],
      [
        "uo",
        -9.364981143863703
      ],
      [
        "pa",
        -9.365978578849392
      ],
      [
        "KA",
        -9.367199970097607
      ],
      [
        "▁Osi",
        -9.368575389998503
      ],
      [
        "▁ah",
        -9.368827527729785
      ],
      [
        "▁State",
        -9.368902790973209
      ],
      [
        "rt",
        -9.370219725271141
      ],
      [
        "nne",
        -9.370673212148901
      ],
      [
        "▁ogo",
        -9.371268260527016
      ],
      [
        "▁/",
        -9.37150844932428
      ],
      [
        "▁nma.",
        -9.371589856393046
      ],
      [
        "▁dili",
        -9.372251942496685
      ],
      [
        "▁ndia",
        -9.374857285693928
      ],
      [
        "TA",
        -9.375102759941658
      ],
      [
        "▁Amen.",
        -9.375572916783655
      ],
      [
        "▁Gwa",
        -9.375664331418902
      ],
      [
        "▁noo",
        -9.378796882433488
      ],
      [
        "▁nweta",
        -9.378870838545076
      ],
      [
        "▁Oh",
        -9.379159913998121
      ],
      [
        "zuru",
        -9.379443133444163
      ],
      [
        "okwu",
        -9.379608006683622
      ],
      [
        "▁okpo",
        -9.379658713503286
      ],
      [
        "▁Aku",
        -9.379715968491997
      ],
      [
        "▁ọbụ",
        -9.380770216283532
      ],
      [
        "▁áká",
        -9.380942111251331
      ],
      [
        "▁Rapu",
        -9.380951668069711
      ],
      [
        "▁||",
        -9.380968983605541
      ],
      [
        "▁Ekwueme",
        -9.380996161769318
      ],
      [
        "xpress",
        -9.381433276802127
      ],
      [
        "▁Dede",
        -9.381505307093066
      ],
      [
        "🏻",
        -9.382378904616504
      ],
      [
        "▁Emeka",
        -9.38272859255851
      ],
      [
        "▁ogbe",
        -9.383033832261276
      ],
      [
        "▁chọ",
        -9.38305034815796
      ],
      [
        "▁Olisa",
        -9.384258377015911
      ],
      [
        "▁awu",
        -9.38483112506372
      ],
      [
        "waa",
        -9.385026540427386
      ],
      [
        "▁dere",
        -9.385351153022697
      ],
      [
        "▁can",
        -9.385558664829546
      ],
      [
        "▁mmanụ",
        -9.38557512236633
      ],
      [
        "zị",
        -9.386544169849172
      ],
      [
        "▁nche",
        -9.386876474997141
      ],
      [
        "nta",
        -9.389120302918911
      ],
      [
        "▁him",
        -9.389152496128329
      ],
      [
        "33",
        -9.389686925813207
      ],
      [
        "▁✊",
        -9.39137924497949
      ],
      [
        "▁oshi",
        -9.392043558972917
      ],
      [
        "▁egbe",
        -9.392090471588892
      ],
      [
        "▁agaghi",
        -9.392680597283464
      ],
      [
        "▁ajo",
        -9.393094099967144
      ],
      [
        "▁etu",
        -9.395198225073436
      ],
      [
        "kà",
        -9.396976260089062
      ],
      [
        "▁🤔",
        -9.398564841884799
      ],
      [
        "▁To",
        -9.399183648782664
      ],
      [
        "▁kee",
        -9.399438620904235
      ],
      [
        "▁bụghị",
        -9.3999191263331
      ],
      [
        "▁😘",
        -9.401744864029157
      ],
      [
        "▁wụ",
        -9.403644011854322
      ],
      [
        "▁bukwa",
        -9.403909556023795
      ],
      [
        "▁oh!",
        -9.406993192025912
      ],
      [
        "▁ro",
        -9.407653699056088
      ],
      [
        "▁igba",
        -9.408003739835626
      ],
      [
        "▁gwo",
        -9.409731781479884
      ],
      [
        "Ka",
        -9.409962328125308
      ],
      [
        "ife",
        -9.410930541656088
      ],
      [
        "turu",
        -9.41215881611593
      ],
      [
        "hh",
        -9.413164713212451
      ],
      [
        "▁Ole",
        -9.414635612407833
      ],
      [
        "ion",
        -9.415793118852985
      ],
      [
        "▁jisi",
        -9.415812402251518
      ],
      [
        "umu",
        -9.41620156429934
      ],
      [
        "▁Nnam",
        -9.416988732625427
      ],
      [
        "eze",
        -9.418907686649737
      ],
      [
        "▁m'",
        -9.420322656967151
      ],
      [
        "▁niile.",
        -9.422259865741994
      ],
      [
        "▁ofuma.",
        -9.424098973194852
      ],
      [
        "▁akọ",
        -9.42557278128546
      ],
      [
        "30",
        -9.42575180968172
      ],
      [
        "▁ọma,",
        -9.428757383013519
      ],
      [
        "▁Ba",
        -9.42984346411842
      ],
      [
        "were",
        -9.43125066639838
      ],
      [
        "tụ",
        -9.431935215951434
      ],
      [
        "egwu",
        -9.433110081816686
      ],
      [
        "ziri",
        -9.433668344383893
      ],
      [
        "▁gozi",
        -9.436174588671461
      ],
      [
        "▁anyi.",
        -9.436819406220245
      ],
      [
        "jiri",
        -9.438876160057415
      ],
      [
        "▁Oru",
        -9.439050984161115
      ],
      [
        "dụ",
        -9.440647800264545
      ],
      [
        "▁any",
        -9.441053948212373
      ],
      [
        "▁pa",
        -9.441938875932674
      ],
      [
        "▁abụ",
        -9.442629972333226
      ],
      [
        "gbue",
        -9.442744233178686
      ],
      [
        "Fa",
        -9.442771021110257
      ],
      [
        "▁Afo",
        -9.443213674458327
      ],
      [
        "▁akụ",
        -9.44334538231686
      ],
      [
        "▁ébé",
        -9.443437098749904
      ],
      [
        "fọdụ",
        -9.4434805790228
      ],
      [
        "▁obele",
        -9.443520841837135
      ],
      [
        "17",
        -9.443591335044262
      ],
      [
        "▁ozugbo",
        -9.443615232460004
      ],
      [
        "▁WIT",
        -9.443636794760241
      ],
      [
        "▁Yes",
        -9.443672752475536
      ],
      [
        "▁Dalụ",
        -9.44373186198514
      ],
      [
        "▁n'ụlọ",
        -9.443778623351943
      ],
      [
        "▁Bulie",
        -9.443788054402715
      ],
      [
        "▁ịbụ",
        -9.44399591457913
      ],
      [
        "▁Hapụ",
        -9.444088482403973
      ],
      [
        "▁Jide",
        -9.444155466782203
      ],
      [
        "▁ebea",
        -9.445758633296997
      ],
      [
        "▁otú",
        -9.44589730804276
      ],
      [
        "▁Akpa",
        -9.446807324630202
      ],
      [
        "▁gịnị",
        -9.446935993854611
      ],
      [
        "▁last",
        -9.446988959918645
      ],
      [
        "▁Mama",
        -9.448666151741948
      ],
      [
        "▁nsị",
        -9.44870890891523
      ],
      [
        "▁have",
        -9.448950582045303
      ],
      [
        "ligbo",
        -9.449641950409937
      ],
      [
        "▁ugbo",
        -9.44978557412208
      ],
      [
        "▁oku.",
        -9.449930693670531
      ],
      [
        "▁nwaanyi",
        -9.4503771509244
      ],
      [
        "▁oburo",
        -9.45090962639865
      ],
      [
        "RE",
        -9.451583678998897
      ],
      [
        "▁Lmaooo",
        -9.451762319538862
      ],
      [
        "pper",
        -9.45180143232525
      ],
      [
        "▁For",
        -9.453989930749355
      ],
      [
        "▁gbawa",
        -9.454651868034457
      ],
      [
        "▁ki",
        -9.454875568053453
      ],
      [
        "▁boys",
        -9.455013451034027
      ],
      [
        "▁ilu",
        -9.45509364559473
      ],
      [
        "▁gburu",
        -9.456360372334384
      ],
      [
        "▁Le",
        -9.457421727969558
      ],
      [
        "▁Be",
        -9.457743699036671
      ],
      [
        "▁ike,",
        -9.458267879832366
      ],
      [
        "▁las",
        -9.458463679608444
      ],
      [
        "🔥",
        -9.459082896330909
      ],
      [
        "day",
        -9.46090890522084
      ],
      [
        "▁ha.",
        -9.461140961897701
      ],
      [
        "sịrị",
        -9.461469452672242
      ],
      [
        "▁dem",
        -9.463256857635997
      ],
      [
        "▁app",
        -9.464154438900938
      ],
      [
        "▁k'anyi",
        -9.464191329604757
      ],
      [
        "▁kere",
        -9.464229851058962
      ],
      [
        "ci",
        -9.467031306681722
      ],
      [
        "▁aji",
        -9.467805837295538
      ],
      [
        "▁Negod",
        -9.468558653237952
      ],
      [
        "▁agam",
        -9.47000970736747
      ],
      [
        "SI",
        -9.4703298409723
      ],
      [
        "▁lo",
        -9.470521993169074
      ],
      [
        "▁bụla",
        -9.471154950755611
      ],
      [
        "chụ",
        -9.47129467046822
      ],
      [
        "muo",
        -9.472542511567749
      ],
      [
        "▁uso",
        -9.474280695696613
      ],
      [
        "▁R",
        -9.475602484175093
      ],
      [
        "▁dis",
        -9.476240175816184
      ],
      [
        "ny",
        -9.477085301156729
      ],
      [
        "nke",
        -9.479039638815642
      ],
      [
        "▁gini?",
        -9.47929884334765
      ],
      [
        "😘",
        -9.481037260228788
      ],
      [
        "▁iro",
        -9.481572913201873
      ],
      [
        "▁uru",
        -9.48292711945251
      ],
      [
        "▁ntu",
        -9.484291650855244
      ],
      [
        "▁lie",
        -9.485209052254516
      ],
      [
        "▁Lol,",
        -9.486001449973834
      ],
      [
        "tere",
        -9.48602800900335
      ],
      [
        "GA",
        -9.486725713423526
      ],
      [
        "▁Eh",
        -9.487078973554787
      ],
      [
        "▁Ewu",
        -9.487652242512324
      ],
      [
        "▁name",
        -9.487853467450865
      ],
      [
        "k'anyi",
        -9.488686473550754
      ],
      [
        "🤔",
        -9.488808197652899
      ],
      [
        "aaa",
        -9.489407450194673
      ],
      [
        "▁ca",
        -9.490672014547812
      ],
      [
        "gwa",
        -9.49422747566993
      ],
      [
        "▁Anam",
        -9.494536659941907
      ],
      [
        "▁Kam",
        -9.494980162675692
      ],
      [
        "▁Hahaha",
        -9.495377377232652
      ],
      [
        "▁pe",
        -9.496222066873196
      ],
      [
        "ama",
        -9.497601176093472
      ],
      [
        "oke",
        -9.49783754274676
      ],
      [
        "▁let",
        -9.499557599899894
      ],
      [
        "▁wo",
        -9.499869324129357
      ],
      [
        "SH",
        -9.50016321154608
      ],
      [
        "▁aya",
        -9.50290975959406
      ],
      [
        "hill",
        -9.503492716292705
      ],
      [
        "To",
        -9.50431515804479
      ],
      [
        "▁k’",
        -9.505348730598728
      ],
      [
        "son",
        -9.505693609610883
      ],
      [
        "▁V",
        -9.507067927960273
      ],
      [
        "ive",
        -9.507311268939269
      ],
      [
        "hich",
        -9.50749205687238
      ],
      [
        "ul",
        -9.50885874048573
      ],
      [
        "BI",
        -9.509006415474754
      ],
      [
        "✌",
        -9.509683293572927
      ],
      [
        "Lounge",
        -9.510103736340257
      ],
      [
        "▁ụgwọ",
        -9.510103738560792
      ],
      [
        "service",
        -9.510106158515928
      ],
      [
        "▁number",
        -9.510107187434288
      ],
      [
        "#alig",
        -9.51010820555705
      ],
      [
        "▁happy",
        -9.510109594861841
      ],
      [
        "▁ọhụrụ",
        -9.510117802741131
      ],
      [
        "▁something",
        -9.510121461278295
      ],
      [
        "▁head",
        -9.510126876224756
      ],
      [
        "▁ajụ",
        -9.510129441916181
      ],
      [
        "▁kpọrọ",
        -9.51031494961503
      ],
      [
        "▁♂️🏃",
        -9.510323297506485
      ],
      [
        "▁nnọọ",
        -9.510407546015825
      ],
      [
        "▁Nile",
        -9.51064940178028
      ],
      [
        "▁sister",
        -9.510915107292043
      ],
      [
        "▁abụọ",
        -9.5109714918873
      ],
      [
        "▁back",
        -9.511092722609554
      ],
      [
        "▁Jisike",
        -9.511310178851792
      ],
      [
        "▁Kene",
        -9.511338694848208
      ],
      [
        "▁J",
        -9.51147619600572
      ],
      [
        "body",
        -9.511556501404753
      ],
      [
        "▁ikpere",
        -9.511605210455288
      ],
      [
        "up",
        -9.511625607246941
      ],
      [
        "▁Osita",
        -9.511676568104553
      ],
      [
        "▁umuaka",
        -9.51168934951753
      ],
      [
        "▁Okaka",
        -9.51171165832914
      ],
      [
        "▁Nwanna",
        -9.512280346800313
      ],
      [
        "▁That",
        -9.51251424698887
      ],
      [
        "BY",
        -9.513826049106857
      ],
      [
        "▁again",
        -9.513882802576736
      ],
      [
        "▁ugo",
        -9.514239669006635
      ],
      [
        "▁soon",
        -9.51437442737296
      ],
      [
        "korobia",
        -9.515436787555995
      ],
      [
        "▁agwula",
        -9.515631771440782
      ],
      [
        "▁🙏🙏",
        -9.515747696606875
      ],
      [
        "▁Agidigba",
        -9.5157985194802
      ],
      [
        "▁Azu",
        -9.515809937355025
      ],
      [
        "▁Thanks",
        -9.51588714622971
      ],
      [
        "▁ekwela",
        -9.516070676488907
      ],
      [
        "▁ọlụ",
        -9.516421108577696
      ],
      [
        "▁anyu",
        -9.517014067584611
      ],
      [
        "▁🌚",
        -9.517332670015847
      ],
      [
        "▁his",
        -9.517546940850359
      ],
      [
        "▁every",
        -9.517614096832563
      ],
      [
        "▁emere",
        -9.518408974654946
      ],
      [
        "▁Dike",
        -9.51953325485198
      ],
      [
        "▁kele",
        -9.520118531312306
      ],
      [
        "▁Echi",
        -9.521330614810154
      ],
      [
        "ribe",
        -9.524988908855338
      ],
      [
        "nti",
        -9.527388803020527
      ],
      [
        "▁🙌🙌",
        -9.527565411284092
      ],
      [
        "▁ebele",
        -9.52872500324407
      ],
      [
        "▁gu",
        -9.529167925586474
      ],
      [
        "AR",
        -9.530589419092852
      ],
      [
        "▁onu.",
        -9.530885374803516
      ],
      [
        "▁Ano",
        -9.531242784218387
      ],
      [
        "▁nwu",
        -9.531317860659183
      ],
      [
        "▁lacha",
        -9.531993897645009
      ],
      [
        "man",
        -9.533102330469804
      ],
      [
        "▁Oo",
        -9.533491424876509
      ],
      [
        "▁Ekwe",
        -9.53619455461637
      ],
      [
        "▁🎧",
        -9.536369615767928
      ],
      [
        "ard",
        -9.536387357239743
      ],
      [
        "kw",
        -9.536780720188442
      ],
      [
        "▁Sunday",
        -9.538347941096383
      ],
      [
        "kporo",
        -9.53854398723523
      ],
      [
        "▁mà",
        -9.538797843247428
      ],
      [
        "▁muru",
        -9.539550577746317
      ],
      [
        "▁4",
        -9.53990745321905
      ],
      [
        "▁Oya",
        -9.540216650188537
      ],
      [
        "▁ikpu",
        -9.54092049580573
      ],
      [
        "▁ur",
        -9.54099008830243
      ],
      [
        "sie",
        -9.543863573468537
      ],
      [
        "▁nwokem",
        -9.547696028093478
      ],
      [
        "▁tuo",
        -9.547901658778454
      ],
      [
        "▁enu",
        -9.549620761880053
      ],
      [
        "ON",
        -9.550338972201752
      ],
      [
        "▁🙄🙄🙄",
        -9.55223865881296
      ],
      [
        "▁Elu",
        -9.553272533774255
      ],
      [
        "In",
        -9.554259912176654
      ],
      [
        "kuku",
        -9.55665442686184
      ],
      [
        "un",
        -9.557522481100339
      ],
      [
        "2019",
        -9.558826579884668
      ],
      [
        "▁Sir",
        -9.559021105365527
      ],
      [
        "TE",
        -9.560000874521961
      ],
      [
        "Make",
        -9.560350109928097
      ],
      [
        "ö",
        -9.560999014009635
      ],
      [
        "0Q",
        -9.561929657958007
      ],
      [
        "ebe",
        -9.562192090048384
      ],
      [
        "▁Re",
        -9.563970228322408
      ],
      [
        "im",
        -9.565810232476336
      ],
      [
        "26",
        -9.568668535088317
      ],
      [
        "▁na-agba",
        -9.569140529431568
      ],
      [
        "ose",
        -9.569994460506331
      ],
      [
        "ish",
        -9.57031770340655
      ],
      [
        "▁tupu",
        -9.570743520077814
      ],
      [
        "kike",
        -9.571326182661151
      ],
      [
        "cc",
        -9.571874698639428
      ],
      [
        "obu",
        -9.57320200166928
      ],
      [
        "chị",
        -9.573464030353435
      ],
      [
        ".......",
        -9.576577009671471
      ],
      [
        "The",
        -9.576954217599582
      ],
      [
        "▁ugbu",
        -9.577522002606374
      ],
      [
        "KP",
        -9.578831158291914
      ],
      [
        "np",
        -9.579034917518861
      ],
      [
        "▁But",
        -9.579692806064477
      ],
      [
        "▁#Thanksgiving",
        -9.581532305065082
      ],
      [
        "▁follow",
        -9.581532455344547
      ],
      [
        "▁#Dream",
        -9.58153250139784
      ],
      [
        "▁Ogbaru",
        -9.581544158243464
      ],
      [
        "▁ujo",
        -9.581695052753851
      ],
      [
        "▁♫♫",
        -9.581724273717791
      ],
      [
        "▁hụrụ",
        -9.58195509832426
      ],
      [
        "▁Mmadụ",
        -9.581972468086986
      ],
      [
        "music",
        -9.582062218028193
      ],
      [
        "05",
        -9.582149144513448
      ],
      [
        "▁3",
        -9.582364719266725
      ],
      [
        "▁ogbenye",
        -9.582408182527779
      ],
      [
        "▁♂️🙆",
        -9.58244782053152
      ],
      [
        "▁na-ekwu",
        -9.582860355289808
      ],
      [
        "▁ezu",
        -9.583033392725138
      ],
      [
        "▁ọbụla",
        -9.583074090390753
      ],
      [
        "▁ikpo",
        -9.583147761141733
      ],
      [
        "sụ",
        -9.583219805881109
      ],
      [
        "▁umunna",
        -9.58374758289149
      ],
      [
        "▁since",
        -9.58398318988291
      ],
      [
        "pụta",
        -9.584256531043481
      ],
      [
        "▁nmadu",
        -9.584291844098844
      ],
      [
        "▁babe",
        -9.584740229349142
      ],
      [
        "🙌🙌",
        -9.585140935546363
      ],
      [
        "▁Life",
        -9.586216922709104
      ],
      [
        "NA",
        -9.586290170840531
      ],
      [
        "▁gbasara",
        -9.58633073121875
      ],
      [
        "▁Uzo",
        -9.58709299566719
      ],
      [
        "▁girl",
        -9.587443804888684
      ],
      [
        "▁nwayi",
        -9.587680085017576
      ],
      [
        "▁Nkit",
        -9.58805132407985
      ],
      [
        "▁agbasa",
        -9.588187844507283
      ],
      [
        "▁tụ",
        -9.58877311475306
      ],
      [
        "▁mmaji",
        -9.58930222845208
      ],
      [
        "▁Ko",
        -9.589752785273962
      ],
      [
        "▁😆",
        -9.590455363155172
      ],
      [
        "DA",
        -9.590477810570373
      ],
      [
        "▁ilo",
        -9.590742432750572
      ],
      [
        "eee",
        -9.59228538334914
      ],
      [
        "▁furu",
        -9.592689936068577
      ],
      [
        "▁Una",
        -9.592922910135757
      ],
      [
        "▁nne,",
        -9.593438998815472
      ],
      [
        "▁okike",
        -9.593774767700953
      ],
      [
        "▁Mara",
        -9.594554634335378
      ],
      [
        "▁ise",
        -9.596327090104761
      ],
      [
        "▁Oji",
        -9.596854933607933
      ],
      [
        "▁Fi",
        -9.598144031095849
      ],
      [
        "▁ngwo",
        -9.598253639525755
      ],
      [
        "▁eto",
        -9.598276565600555
      ],
      [
        "▁🎷",
        -9.59842720875471
      ],
      [
        "▁rue",
        -9.598846848558818
      ],
      [
        "rịrị",
        -9.600364419142636
      ],
      [
        "’s",
        -9.602102702936499
      ],
      [
        "onyi",
        -9.605107984655856
      ],
      [
        "NU",
        -9.608634545302614
      ],
      [
        "▁choo",
        -9.608773175329276
      ],
      [
        "▁aza",
        -9.608830868342338
      ],
      [
        "▁mean",
        -9.609511845213612
      ],
      [
        "▁ngw",
        -9.609533252251122
      ],
      [
        "▁📻",
        -9.60974882355512
      ],
      [
        "▁th",
        -9.61258771094934
      ],
      [
        "aha",
        -9.614111022125137
      ],
      [
        "▁ere",
        -9.614267533405103
      ],
      [
        "low",
        -9.615133985387335
      ],
      [
        "mgbe",
        -9.615319988786581
      ],
      [
        "▁😌",
        -9.61597871578376
      ],
      [
        "huru",
        -9.61628175361858
      ],
      [
        "ur",
        -9.617617160335804
      ],
      [
        "▁Se",
        -9.618594756683327
      ],
      [
        "juo",
        -9.618635500955087
      ],
      [
        "▁Ahu",
        -9.619112154214303
      ],
      [
        "▁eli",
        -9.619294622502842
      ],
      [
        "Boy",
        -9.6211936001481
      ],
      [
        "▁yo",
        -9.62406644655373
      ],
      [
        "▁By",
        -9.625035252272818
      ],
      [
        "chiri",
        -9.626916840409095
      ],
      [
        "▁izu",
        -9.626929628754725
      ],
      [
        "▁NDI",
        -9.630290448516908
      ],
      [
        "beghi",
        -9.630333202572473
      ],
      [
        "sk",
        -9.63072985119001
      ],
      [
        "▁zu",
        -9.63302740213497
      ],
      [
        "▁zo",
        -9.634675753786938
      ],
      [
        "😉",
        -9.635004775801075
      ],
      [
        "❤",
        -9.63574611394268
      ],
      [
        "▁ikwu",
        -9.636379278597984
      ],
      [
        "unu",
        -9.636677604082697
      ],
      [
        "🙂",
        -9.636705638166978
      ],
      [
        "chalu",
        -9.638331084703172
      ],
      [
        "ndo",
        -9.638896508783434
      ],
      [
        "va",
        -9.639259815443829
      ],
      [
        "amaka",
        -9.640253900290427
      ],
      [
        "choro",
        -9.640475606628387
      ],
      [
        "God",
        -9.640595408008444
      ],
      [
        "ada",
        -9.642422715066427
      ],
      [
        "kwụ",
        -9.643301976159993
      ],
      [
        "▁apu",
        -9.643876669454528
      ],
      [
        "▁need",
        -9.644781115079951
      ],
      [
        "anya",
        -9.64696939666779
      ],
      [
        "KU",
        -9.647807794736362
      ],
      [
        "IY",
        -9.648141775269828
      ],
      [
        "▁eh...",
        -9.649557946995586
      ],
      [
        "▁eeh",
        -9.649574781899815
      ],
      [
        "ext",
        -9.650284378109511
      ],
      [
        "CH",
        -9.651108441508416
      ],
      [
        "susu",
        -9.651827212993258
      ],
      [
        "ting",
        -9.652059497711795
      ],
      [
        "OB",
        -9.652345572579945
      ],
      [
        "gbọ",
        -9.652855052974582
      ],
      [
        "▁emebi",
        -9.652992195120483
      ],
      [
        "▁gi...",
        -9.653184028532447
      ],
      [
        "LE",
        -9.654028331229373
      ],
      [
        "▁Guy",
        -9.656337453029927
      ],
      [
        "▁anam",
        -9.656650941877889
      ],
      [
        "Radio",
        -9.65708213977935
      ],
      [
        "MU",
        -9.657831942260561
      ],
      [
        "nda",
        -9.658230313088112
      ],
      [
        "????",
        -9.6582402306305
      ],
      [
        "▁Eche",
        -9.658296394120988
      ],
      [
        "💥",
        -9.65845538198664
      ],
      [
        "🥺",
        -9.658455381988011
      ],
      [
        "▁village",
        -9.658455400629597
      ],
      [
        "▁0909",
        -9.658455591577926
      ],
      [
        "777",
        -9.658465054391353
      ],
      [
        "▁What",
        -9.658488042412065
      ],
      [
        "▁nkiti",
        -9.658918039935921
      ],
      [
        "▁uda",
        -9.65908702147194
      ],
      [
        "▁ifea",
        -9.659516147868445
      ],
      [
        "Even",
        -9.659577686386275
      ],
      [
        "ghachi",
        -9.659623101800198
      ],
      [
        "▁eluigwe",
        -9.659750456864503
      ],
      [
        "▁Nah",
        -9.659892205658938
      ],
      [
        "naija",
        -9.659995795269587
      ],
      [
        "▁ula",
        -9.660165536974704
      ],
      [
        "▁Otutu",
        -9.660228316253452
      ],
      [
        "▁Gị",
        -9.660475289401418
      ],
      [
        "▁sie",
        -9.660622224836455
      ],
      [
        "AN",
        -9.66071200808736
      ],
      [
        "▁#BBNaija",
        -9.661120636392827
      ],
      [
        "▁Mo",
        -9.661388099996316
      ],
      [
        "▁#G",
        -9.661858123030775
      ],
      [
        "▁New",
        -9.662275612430225
      ],
      [
        "▁obara",
        -9.662277866178774
      ],
      [
        "▁chebe",
        -9.662396332807539
      ],
      [
        "▁nara",
        -9.663798223235723
      ],
      [
        "▁enweghi",
        -9.663851788112774
      ],
      [
        "▁amaghị",
        -9.664080022333906
      ],
      [
        "▁ajọ",
        -9.664187496149456
      ],
      [
        "▁#Sunday",
        -9.66418816954586
      ],
      [
        "▁otito",
        -9.664714417512679
      ],
      [
        "▁agwụ",
        -9.664888590261143
      ],
      [
        "▁kwo",
        -9.665222683825974
      ],
      [
        "▁etiti",
        -9.665481484617176
      ],
      [
        "🤣🤣🤣🤣",
        -9.665529593705537
      ],
      [
        "▁🏃",
        -9.665606061452811
      ],
      [
        "pt",
        -9.666160003470912
      ],
      [
        "▁long",
        -9.666267924733905
      ],
      [
        "▁best",
        -9.666539540906747
      ],
      [
        "▁line",
        -9.667337378642735
      ],
      [
        "▁ọnwa",
        -9.667414606603373
      ],
      [
        "▁abịa",
        -9.667580404268325
      ],
      [
        "▁nnoo",
        -9.66758428123548
      ],
      [
        "▁pia",
        -9.66970767833379
      ],
      [
        "CI",
        -9.670795955830851
      ],
      [
        "▁Cho",
        -9.670804822884493
      ],
      [
        "▁Eke",
        -9.671049844125644
      ],
      [
        "member",
        -9.671616082214346
      ],
      [
        "▁cholu",
        -9.67163400852089
      ],
      [
        "ND",
        -9.672077688313056
      ],
      [
        "▁💪",
        -9.672909201952034
      ],
      [
        "▁Kpa",
        -9.673240695816204
      ],
      [
        "▁Afu",
        -9.674030892029753
      ],
      [
        "gwụ",
        -9.674680504694194
      ],
      [
        "▁riri",
        -9.67708661854561
      ],
      [
        "▁chekwa",
        -9.677411958642605
      ],
      [
        "▁ohh",
        -9.678360851390485
      ],
      [
        "▁And",
        -9.678581811538477
      ],
      [
        "▁😅",
        -9.678617782604622
      ],
      [
        "▁kene",
        -9.678741868873045
      ],
      [
        "47",
        -9.680043015745357
      ],
      [
        "▁ufod",
        -9.683563434552456
      ],
      [
        "AB",
        -9.683689884258637
      ],
      [
        "▁sịrị",
        -9.6854416037486
      ],
      [
        "▁biri",
        -9.68578129492052
      ],
      [
        "onu",
        -9.68657432813464
      ],
      [
        "▁t",
        -9.68793290137177
      ],
      [
        "ola",
        -9.688332678873628
      ],
      [
        "▁Udi",
        -9.68849212736157
      ],
      [
        "▁ide",
        -9.688585138051508
      ],
      [
        "▁💯",
        -9.689079977621471
      ],
      [
        "out",
        -9.690913472351944
      ],
      [
        "Nw",
        -9.693659544528638
      ],
      [
        "▁chu",
        -9.694628418789582
      ],
      [
        "ah",
        -9.694687697336303
      ],
      [
        "TO",
        -9.695271642787537
      ],
      [
        "▁akp",
        -9.695701724011911
      ],
      [
        "UN",
        -9.695780363918914
      ],
      [
        "lam",
        -9.695907393988984
      ],
      [
        "▁oh.",
        -9.69889512900273
      ],
      [
        "▁gaa",
        -9.698929907358107
      ],
      [
        "▁ibi",
        -9.704747975050864
      ],
      [
        "ncheta",
        -9.706606972346359
      ],
      [
        "▁Ibe",
        -9.707391831504282
      ],
      [
        "kpọ",
        -9.709636964832992
      ],
      [
        "▁Or",
        -9.711965086826151
      ],
      [
        "nu.",
        -9.712501358725213
      ],
      [
        "▁ifu",
        -9.712526628004241
      ],
      [
        "▁Africa",
        -9.714259002747236
      ],
      [
        "93",
        -9.715530389192402
      ],
      [
        "ise",
        -9.71576606564959
      ],
      [
        "cy",
        -9.715954712213371
      ],
      [
        "ity",
        -9.716599221158733
      ],
      [
        "fulu",
        -9.717991719047166
      ],
      [
        "😄",
        -9.71889674108795
      ],
      [
        "BA",
        -9.71919244800922
      ],
      [
        "🙌🏽",
        -9.720116320281235
      ],
      [
        "ves",
        -9.720221510021538
      ],
      [
        "😅",
        -9.720325999319659
      ],
      [
        "▁eh!",
        -9.72036983989526
      ],
      [
        "▁has",
        -9.720677310694942
      ],
      [
        "▁ani",
        -9.720835775383032
      ],
      [
        "Ọ",
        -9.720875393679243
      ],
      [
        "nwanne",
        -9.721366260181227
      ],
      [
        "bs",
        -9.72147055771765
      ],
      [
        "Of",
        -9.723247767963361
      ],
      [
        "LU",
        -9.724116529774797
      ],
      [
        "▁#C",
        -9.72499079593888
      ],
      [
        "▁aso",
        -9.725539664762946
      ],
      [
        "OP",
        -9.72684303560506
      ],
      [
        "▁ara!",
        -9.727878715436603
      ],
      [
        "▁part",
        -9.729391115099341
      ],
      [
        "▁#D",
        -9.730368976358134
      ],
      [
        "▁k'",
        -9.730787976439139
      ],
      [
        "▁kpe",
        -9.732406745108847
      ],
      [
        "▁fo",
        -9.732591652305691
      ],
      [
        "▁ari",
        -9.733383555276143
      ],
      [
        "ary",
        -9.734350840774628
      ],
      [
        "LL",
        -9.734665598382922
      ],
      [
        "tic",
        -9.734840982122154
      ],
      [
        "▁Hmmm",
        -9.734950127839909
      ],
      [
        "ts",
        -9.735450504340607
      ],
      [
        "ness",
        -9.735767599402125
      ],
      [
        "▁à",
        -9.735886463623956
      ],
      [
        "sta",
        -9.736027206464382
      ],
      [
        "ff",
        -9.736267891429039
      ],
      [
        "▁Owu",
        -9.73737978060893
      ],
      [
        "ahụ",
        -9.73772598773245
      ],
      [
        "▁agwugo",
        -9.737896703889596
      ],
      [
        "▁Onyedikagi",
        -9.738093920355254
      ],
      [
        "pia",
        -9.738612667266997
      ],
      [
        "bù",
        -9.738875562898162
      ],
      [
        "▁081",
        -9.740164705235157
      ],
      [
        "▁abeg",
        -9.740927148727424
      ],
      [
        "▁mmadu!",
        -9.741087219517155
      ],
      [
        "▁Ogbu",
        -9.741381506603283
      ],
      [
        "🤪",
        -9.741788715321446
      ],
      [
        "😇",
        -9.741788715321448
      ],
      [
        "▁08188881067",
        -9.741788715323407
      ],
      [
        "▁⭕",
        -9.741788758938643
      ],
      [
        "HighLifeRequest",
        -9.741812881866434
      ],
      [
        "▁home",
        -9.741830864999647
      ],
      [
        "▁omalicha",
        -9.74183568713848
      ],
      [
        "PRAISE",
        -9.741858671497447
      ],
      [
        "▁street",
        -9.741925958195742
      ],
      [
        "▁mbọ",
        -9.741935024833158
      ],
      [
        "▁Nwunye",
        -9.742085699659667
      ],
      [
        "▁icho",
        -9.742109959436048
      ],
      [
        "▁dear",
        -9.74219828600706
      ],
      [
        "▁bú",
        -9.742257343393131
      ],
      [
        "▁kill",
        -9.742259101141535
      ],
      [
        "shop",
        -9.742272258871184
      ],
      [
        "▁n’ime",
        -9.742286254769233
      ],
      [
        "▁tell",
        -9.742397019777986
      ],
      [
        "▁pro",
        -9.742584133865389
      ],
      [
        "🔥🔥",
        -9.742664169908377
      ],
      [
        "▁ga-eme",
        -9.742733037530677
      ],
      [
        "▁Akwuna",
        -9.743003587984065
      ],
      [
        "▁chaa",
        -9.743047590143249
      ],
      [
        "▁come",
        -9.74311636978815
      ],
      [
        "▁today",
        -9.743216254075461
      ],
      [
        "▁Baba",
        -9.743345401753636
      ],
      [
        "😒😒😒",
        -9.743621257397635
      ],
      [
        "▁ọbụna",
        -9.743703631018683
      ],
      [
        "▁said",
        -9.74444297496075
      ],
      [
        "▁gbagbuo",
        -9.744463099323701
      ],
      [
        "▁omume",
        -9.744469195767623
      ],
      [
        "▁Ọzọ",
        -9.74455070478984
      ],
      [
        "▁‘",
        -9.744695319188953
      ],
      [
        "▁Osadebe",
        -9.744695329239374
      ],
      [
        "▁awka",
        -9.744840200332035
      ],
      [
        "▁mkpuru",
        -9.745370453598309
      ],
      [
        "pụrụ",
        -9.745506974842492
      ],
      [
        "▁per",
        -9.745582931193717
      ],
      [
        "16",
        -9.745669042453457
      ],
      [
        "▁amuma",
        -9.746027566909532
      ],
      [
        "▁Emma",
        -9.746063294964179
      ],
      [
        "▁Agwo",
        -9.746116070774361
      ],
      [
        "▁n'obi",
        -9.746181998554608
      ],
      [
        "ringo",
        -9.746328843523724
      ],
      [
        "▁nnam",
        -9.746363508634328
      ],
      [
        "BJ",
        -9.747507006405765
      ],
      [
        "▁hand",
        -9.747849970746119
      ],
      [
        "▁eju",
        -9.74798061151969
      ],
      [
        "▁po",
        -9.7484226841679
      ],
      [
        "▁🇳🇬",
        -9.748491761404505
      ],
      [
        "▁=",
        -9.748530573562638
      ],
      [
        "▁!!",
        -9.750159332903221
      ],
      [
        "▁imela",
        -9.751476342537934
      ],
      [
        "▁anya.",
        -9.75172779964634
      ],
      [
        "▁amasi",
        -9.752021188428904
      ],
      [
        "▁ura",
        -9.75215558946756
      ],
      [
        "▁eyi",
        -9.752536349216193
      ],
      [
        "▁more",
        -9.753196039423703
      ],
      [
        "▁ịma",
        -9.755007801268302
      ],
      [
        "pp",
        -9.755440205991201
      ],
      [
        "▁Pap",
        -9.755453661408437
      ],
      [
        "▁🙌🏾",
        -9.755741209307306
      ],
      [
        "▁Mix",
        -9.756241331921634
      ],
      [
        "GH",
        -9.75652042589018
      ],
      [
        "▁Al",
        -9.757806462667856
      ],
      [
        "▁nde",
        -9.757960863880191
      ],
      [
        "▁🚶",
        -9.758040277991716
      ],
      [
        "▁|",
        -9.75806008713783
      ],
      [
        "'eme",
        -9.758561712630005
      ],
      [
        "pV",
        -9.760528378937181
      ],
      [
        "▁Ime",
        -9.760586887718922
      ],
      [
        "▁Chim",
        -9.76068167573607
      ],
      [
        "▁Aha",
        -9.761621731887757
      ],
      [
        "▁side",
        -9.761874079744056
      ],
      [
        "▁onwero",
        -9.762063343406872
      ],
      [
        "▁rinne",
        -9.762876335582344
      ],
      [
        "SO",
        -9.765082710123083
      ],
      [
        "▁muo",
        -9.765695823043337
      ],
      [
        "▁otua",
        -9.76602317345032
      ],
      [
        "▁Np",
        -9.76651044160857
      ],
      [
        "kwaa",
        -9.767292324134967
      ],
      [
        "▁aputa",
        -9.767679477074822
      ],
      [
        "▁ayo",
        -9.767737750526331
      ],
      [
        "▁ọnye",
        -9.767744406801116
      ],
      [
        "▁ojo",
        -9.768592543255055
      ],
      [
        "ram",
        -9.768795148939358
      ],
      [
        "Bi",
        -9.771541425158466
      ],
      [
        "▁dịkwa",
        -9.771554621254541
      ],
      [
        "O3",
        -9.771685494651031
      ],
      [
        "port",
        -9.772993583036905
      ],
      [
        "Re",
        -9.77548568778987
      ],
      [
        "▁ibem",
        -9.776207480803627
      ],
      [
        "FQ",
        -9.776276816331134
      ],
      [
        "bem",
        -9.777122384090946
      ],
      [
        "ego",
        -9.777184182946907
      ],
      [
        "▁gaghị",
        -9.777213874845701
      ],
      [
        "25",
        -9.777233531911902
      ],
      [
        "▁Is",
        -9.777393287736725
      ],
      [
        "wara",
        -9.777579314137235
      ],
      [
        "▁♬",
        -9.778168152506142
      ],
      [
        "▁En",
        -9.778335960264203
      ],
      [
        "zy",
        -9.778746525305426
      ],
      [
        "▁nni",
        -9.779018055542313
      ],
      [
        "▁Pa",
        -9.77927325141053
      ],
      [
        "▁okpu",
        -9.77950316319913
      ],
      [
        "▁Aru",
        -9.783132978936733
      ],
      [
        "wetara",
        -9.784197733255509
      ],
      [
        "42",
        -9.784600177231027
      ],
      [
        "nia",
        -9.785028519818555
      ],
      [
        "▁Men",
        -9.785524202392907
      ],
      [
        "dinma",
        -9.785973011578951
      ],
      [
        "▁nyu",
        -9.786148901583893
      ],
      [
        "site",
        -9.786457662662936
      ],
      [
        "🎶🎶",
        -9.78651758508352
      ],
      [
        "▁Oro",
        -9.78734915768008
      ],
      [
        "▁All",
        -9.788311974909002
      ],
      [
        "ZI",
        -9.789650203908174
      ],
      [
        "▁Ogbe",
        -9.79054409415644
      ],
      [
        "app",
        -9.790822508456486
      ],
      [
        "On",
        -9.79364061636881
      ],
      [
        "▁Y",
        -9.793871250393515
      ],
      [
        "14",
        -9.794946932560583
      ],
      [
        "▁😭😭",
        -9.795991977276906
      ],
      [
        "▁ón",
        -9.79640766120731
      ],
      [
        "😭😭😭",
        -9.797333386456813
      ],
      [
        "▁GA",
        -9.797346174502712
      ],
      [
        "Ra",
        -9.797587964701105
      ],
      [
        "▁gosi",
        -9.797921648504357
      ],
      [
        "VE",
        -9.798880247439843
      ],
      [
        "▁Eb",
        -9.800721926570644
      ],
      [
        "▁kwụ",
        -9.80143785048166
      ],
      [
        "▁ON",
        -9.801474773602482
      ],
      [
        "▁#S",
        -9.802037105635616
      ],
      [
        "▁oria",
        -9.802214162469069
      ],
      [
        "S2",
        -9.806890340815347
      ],
      [
        "ries",
        -9.807235475343628
      ],
      [
        "▁g'e",
        -9.80816578210559
      ],
      [
        "sụsụ",
        -9.808283034387099
      ],
      [
        "▁Mad",
        -9.808494284068395
      ],
      [
        "kpe",
        -9.809425580853615
      ],
      [
        "gin",
        -9.809609079584467
      ],
      [
        "▁La",
        -9.810063694077197
      ],
      [
        "wè",
        -9.811068983001853
      ],
      [
        "🎷",
        -9.811329456206577
      ],
      [
        "par",
        -9.81184639382259
      ],
      [
        "maka",
        -9.812106350016714
      ],
      [
        "▁ogbu",
        -9.813094708221099
      ],
      [
        "Le",
        -9.813695204570138
      ],
      [
        "DE",
        -9.814194848001572
      ],
      [
        "▁ya....",
        -9.814315295203276
      ],
      [
        "9S",
        -9.814446868619667
      ],
      [
        "tor",
        -9.814666510160823
      ],
      [
        "▁igbu",
        -9.815053098340622
      ],
      [
        "biri",
        -9.816509974483473
      ],
      [
        "▁Oko",
        -9.816903344873408
      ],
      [
        "▁Kai",
        -9.817759484510184
      ],
      [
        "▁ite",
        -9.81778401422711
      ],
      [
        "▁ooooo",
        -9.818620514199461
      ],
      [
        "BS",
        -9.819490570227835
      ],
      [
        "▁ge",
        -9.820187306556367
      ],
      [
        "▁ball",
        -9.820321493473283
      ],
      [
        "▁ayi",
        -9.821889766907631
      ],
      [
        "▁bute",
        -9.824530677500489
      ],
      [
        "▁jo",
        -9.825079832292284
      ],
      [
        "ubochi",
        -9.825194157570756
      ],
      [
        "▁inye",
        -9.825986684926253
      ],
      [
        "🙌🙌🙌",
        -9.82601348121526
      ],
      [
        "putara",
        -9.82617903103539
      ],
      [
        "oku",
        -9.826258030848312
      ],
      [
        "Na",
        -9.826293178378544
      ],
      [
        "GU",
        -9.826536701863894
      ],
      [
        "😁😁",
        -9.826964986145414
      ],
      [
        "▁dighi",
        -9.82786718777439
      ],
      [
        "▁awa",
        -9.828051012014045
      ],
      [
        "ü",
        -9.828186316340592
      ],
      [
        "▁nma,",
        -9.82834899316591
      ],
      [
        "▁#R",
        -9.829603470191744
      ],
      [
        "▁lol",
        -9.830616038053396
      ],
      [
        "♪",
        -9.832650599449508
      ],
      [
        "🔊",
        -9.832697806230808
      ],
      [
        "▁ọmụmụ",
        -9.832697852571231
      ],
      [
        "▁ìhè",
        -9.832698930462431
      ],
      [
        "Listen",
        -9.83270043705371
      ],
      [
        "111",
        -9.832716562558693
      ],
      [
        "▁Ngozi",
        -9.83271894946315
      ],
      [
        "▁042",
        -9.83271905549453
      ],
      [
        "cause",
        -9.832721245030623
      ],
      [
        "▁nkita",
        -9.832730054901845
      ],
      [
        "▁onyinye",
        -9.832735349965596
      ],
      [
        "▁person",
        -9.83278936626134
      ],
      [
        "▁still",
        -9.83280969290943
      ],
      [
        "▁pass",
        -9.832914364994975
      ],
      [
        "2018",
        -9.833106851806697
      ],
      [
        "2016",
        -9.833213024442255
      ],
      [
        "▁rice",
        -9.833251472402253
      ],
      [
        "lagos",
        -9.833291727159375
      ],
      [
        "atter",
        -9.833378818326604
      ],
      [
        "▁n'ulo",
        -9.833438691076031
      ],
      [
        "▁jụọ",
        -9.833565314026783
      ],
      [
        "▁n'obodo",
        -9.83357331574912
      ],
      [
        "▁Akụkọ",
        -9.833654031296835
      ],
      [
        "▁nihi",
        -9.833818449759582
      ],
      [
        "▁n'azu",
        -9.834081320322916
      ],
      [
        "LA",
        -9.83417139511742
      ],
      [
        "▁zoba",
        -9.834194404651143
      ],
      [
        "▁abacha",
        -9.834407347500715
      ],
      [
        "▁She",
        -9.834598267961116
      ],
      [
        "▁nkwụ",
        -9.834689376624226
      ],
      [
        "▁Ogo",
        -9.834802470591917
      ],
      [
        "Tuesday",
        -9.835273457588686
      ],
      [
        "▁Before",
        -9.835895274494018
      ],
      [
        "▁acha",
        -9.835937772893605
      ],
      [
        "▁mme",
        -9.835942708710903
      ],
      [
        "▁change",
        -9.835957260981388
      ],
      [
        "land",
        -9.836000979359156
      ],
      [
        "▁Baby",
        -9.836040740038667
      ],
      [
        "▁morale",
        -9.83609507007166
      ],
      [
        "eji",
        -9.83666653110234
      ],
      [
        "▁agụ",
        -9.837043988920914
      ],
      [
        "▁uno",
        -9.837057688382899
      ],
      [
        "▁neme",
        -9.839220886064608
      ],
      [
        "▁Cc",
        -9.839523068796634
      ],
      [
        "▁Ugwu",
        -9.839706229142685
      ],
      [
        "▁hear",
        -9.839824911126014
      ],
      [
        "▁😝",
        -9.840070451116874
      ],
      [
        "▁voice",
        -9.840070985653004
      ],
      [
        "▁ebido",
        -9.840734292344518
      ],
      [
        "▁👏👏👏",
        -9.840784840985881
      ],
      [
        "BU",
        -9.840900930744473
      ],
      [
        "K'anyi",
        -9.841565760641156
      ],
      [
        "▁égb",
        -9.841996452275529
      ],
      [
        "▁ooo,",
        -9.84215845295817
      ],
      [
        "▁new",
        -9.842626049838296
      ],
      [
        "ñu",
        -9.843963618329918
      ],
      [
        "▁hapụ",
        -9.843968627029694
      ],
      [
        "March",
        -9.844238389988854
      ],
      [
        "▁odiro",
        -9.844378996387185
      ],
      [
        "dozie",
        -9.844712421769202
      ],
      [
        "▁Akwu",
        -9.845426953357201
      ],
      [
        "▁iti",
        -9.845708493862873
      ],
      [
        "nter",
        -9.846541024349436
      ],
      [
        "ịrị",
        -9.84667710264204
      ],
      [
        "▁ka'm",
        -9.846990417724609
      ],
      [
        "ie",
        -9.847331403761643
      ],
      [
        "▁n'eny",
        -9.847461761911935
      ],
      [
        "▁eme?",
        -9.8478766033694
      ],
      [
        "the",
        -9.848354372688744
      ],
      [
        "tọ",
        -9.848634079327846
      ],
      [
        "▁mehn",
        -9.849596866375858
      ],
      [
        "lugo",
        -9.850249868734243
      ],
      [
        "kene",
        -9.850283759742032
      ],
      [
        "57",
        -9.850825396585964
      ],
      [
        "▁keep",
        -9.852064175304337
      ],
      [
        "7B",
        -9.852847927209496
      ],
      [
        "▁àg",
        -9.853139815029074
      ],
      [
        "ess",
        -9.853238852663813
      ],
      [
        "oooo",
        -9.85330225505063
      ],
      [
        "ghara",
        -9.85343797143111
      ],
      [
        "kota",
        -9.853506091427791
      ],
      [
        "▁cheta",
        -9.85352057566621
      ],
      [
        "▁sam",
        -9.854060787610642
      ],
      [
        "▁ahụ.",
        -9.856823379263489
      ],
      [
        "AV",
        -9.858104364952027
      ],
      [
        "▁5",
        -9.85857992106445
      ],
      [
        "▁🙂",
        -9.859216307062704
      ],
      [
        "aaaaa",
        -9.859837982125908
      ],
      [
        "▁ukwuu",
        -9.859908232652597
      ],
      [
        "▁Ah",
        -9.859915378131532
      ],
      [
        "▁Lol...",
        -9.862001029215484
      ],
      [
        "▁nnu",
        -9.862293255654576
      ],
      [
        "diri",
        -9.862755810407727
      ],
      [
        "▁mi",
        -9.8630216982199
      ],
      [
        "▁achoro",
        -9.863316889334278
      ],
      [
        "pino",
        -9.86411568580625
      ],
      [
        "oji",
        -9.864367101918393
      ],
      [
        "ag",
        -9.86484668294148
      ],
      [
        "▁onye?",
        -9.864874564137226
      ],
      [
        "▁gara",
        -9.864950474273604
      ],
      [
        "emo",
        -9.86624276603872
      ],
      [
        "dL",
        -9.86889953870622
      ],
      [
        "ok",
        -9.870130919671979
      ],
      [
        "BG",
        -9.872261771184359
      ],
      [
        "🤗",
        -9.873091951732539
      ],
      [
        "ance",
        -9.873494582477845
      ],
      [
        "▁buzi",
        -9.874894370907999
      ],
      [
        "70",
        -9.875718710556159
      ],
      [
        "dy",
        -9.876300252228425
      ],
      [
        "▁akwado",
        -9.878349604771762
      ],
      [
        "rom",
        -9.879629590288227
      ],
      [
        "▁gbo",
        -9.879671167837191
      ],
      [
        "WJ",
        -9.880178329350212
      ],
      [
        "▁Nekwa",
        -9.882126210280715
      ],
      [
        "▁One",
        -9.882269754668341
      ],
      [
        "OG",
        -9.883418365783454
      ],
      [
        "kwuru",
        -9.8837575170457
      ],
      [
        "▁ad",
        -9.884712708675814
      ],
      [
        "▁agbawa",
        -9.885973341216662
      ],
      [
        "M5",
        -9.886043851252218
      ],
      [
        "king",
        -9.887091345535048
      ],
      [
        "eke",
        -9.887570940287755
      ],
      [
        "Ju",
        -9.888020966078706
      ],
      [
        "meri",
        -9.888500755489954
      ],
      [
        "!!!!!!",
        -9.889159981304829
      ],
      [
        "Dey",
        -9.889544311807448
      ],
      [
        "▁ukwa",
        -9.889902642473412
      ],
      [
        "▁ino",
        -9.890064858667927
      ],
      [
        "▁🤣🤣🤣🤣🤣",
        -9.890445249440173
      ],
      [
        "DJ",
        -9.890949411117415
      ],
      [
        "KO",
        -9.891616872243546
      ],
      [
        "▁ndu,",
        -9.891637537041005
      ],
      [
        "Rd",
        -9.892133092930585
      ],
      [
        "koro",
        -9.893069350830089
      ],
      [
        "iz",
        -9.894352274150474
      ],
      [
        "▁ndidi",
        -9.89628666372484
      ],
      [
        "tụọ",
        -9.899309066245495
      ],
      [
        "▁Ekwu",
        -9.901410586013842
      ],
      [
        "Do",
        -9.90196246813473
      ],
      [
        "▁mgbu.",
        -9.902014358424161
      ],
      [
        "BP",
        -9.902758100131779
      ],
      [
        "MI",
        -9.90305854777382
      ],
      [
        "▁OK",
        -9.903475330267167
      ],
      [
        "▁Nwokem",
        -9.903895999615587
      ],
      [
        "▁chai",
        -9.90419743077274
      ],
      [
        "▁Enwe",
        -9.90464079723608
      ],
      [
        "OC",
        -9.904715138368246
      ],
      [
        "▁ny",
        -9.904810609360329
      ],
      [
        "and",
        -9.904978384944421
      ],
      [
        "▁con",
        -9.905395782669697
      ],
      [
        "Hq",
        -9.907096654887765
      ],
      [
        "ton",
        -9.907444994676966
      ],
      [
        "nwé",
        -9.908548236567706
      ],
      [
        "▁Agad",
        -9.91113492711946
      ],
      [
        "You",
        -9.911382065371615
      ],
      [
        "wO",
        -9.911953829291903
      ],
      [
        "▁vi",
        -9.913377658558062
      ],
      [
        "Nigeria",
        -9.915430073286121
      ],
      [
        "45",
        -9.917280732894739
      ],
      [
        "▁😍😍😍",
        -9.917804916155266
      ],
      [
        "▁oooo.",
        -9.922551727894195
      ],
      [
        "▁then",
        -9.923548295200641
      ],
      [
        "▁ọnụ.",
        -9.924054074038445
      ],
      [
        "abiama",
        -9.92575373969775
      ],
      [
        "Gi",
        -9.925782431768614
      ],
      [
        "21",
        -9.927264083591886
      ],
      [
        "▁Zu",
        -9.92761091444048
      ],
      [
        "bero",
        -9.928515905748771
      ],
      [
        "Co",
        -9.928889441215532
      ],
      [
        "gom",
        -9.929381623153159
      ],
      [
        "ac",
        -9.929470882761779
      ],
      [
        "'u",
        -9.929491545220127
      ],
      [
        "▁#E",
        -9.930291042087356
      ],
      [
        "▁dim",
        -9.930552033946572
      ],
      [
        "HU",
        -9.931552070874213
      ],
      [
        "▁ukwu.",
        -9.93242149444986
      ],
      [
        "🍾",
        -9.932634081303643
      ],
      [
        "▁ñ",
        -9.932655955578996
      ],
      [
        "🤝",
        -9.93269780623158
      ],
      [
        "▁Arsenal",
        -9.93269780668713
      ],
      [
        "▁problem",
        -9.932697816227773
      ],
      [
        "▁pieces",
        -9.932697818558111
      ],
      [
        "World",
        -9.932698009542413
      ],
      [
        "▁ajụjụ",
        -9.932698269873182
      ],
      [
        "▁ikpeazu",
        -9.93269855850285
      ],
      [
        "▁Jizọs",
        -9.932699158337204
      ],
      [
        "▁after",
        -9.932707968247799
      ],
      [
        "▁Biafra",
        -9.93271268063403
      ],
      [
        "lways",
        -9.9327405438408
      ],
      [
        "▁enyo",
        -9.932760735436576
      ],
      [
        "▁swear",
        -9.932786739807112
      ],
      [
        "anambra",
        -9.932790411199184
      ],
      [
        "www",
        -9.932794106719037
      ],
      [
        "▁umuazi",
        -9.932811965914391
      ],
      [
        "▁school",
        -9.932828953079634
      ],
      [
        "▁woman",
        -9.932846595370124
      ],
      [
        "▁sugar",
        -9.932885501519975
      ],
      [
        "Merry",
        -9.932888022107953
      ],
      [
        "▁ụgbọ",
        -9.93289612770217
      ],
      [
        "▁rụọ",
        -9.93294175143943
      ],
      [
        "▁Dear",
        -9.932945824007577
      ],
      [
        "▁water",
        -9.932973614341847
      ],
      [
        "😜😜",
        -9.93302014747834
      ],
      [
        "▁boss",
        -9.933034712647267
      ],
      [
        "▁imi",
        -9.933052701080907
      ],
      [
        "▁hụ",
        -9.933083416168103
      ],
      [
        "▁really",
        -9.933146384701184
      ],
      [
        "▁Live",
        -9.933202702834514
      ],
      [
        "▁fine",
        -9.933242319296006
      ],
      [
        "▁post",
        -9.93328938179793
      ],
      [
        "▁idiot",
        -9.933368327791591
      ],
      [
        "▁n'ụbọch",
        -9.933389939345917
      ],
      [
        "Ndi",
        -9.933408387500856
      ],
      [
        "▁niine",
        -9.93348682932192
      ],
      [
        "▁o...",
        -9.933514351521241
      ],
      [
        "eligwe",
        -9.933528395842394
      ],
      [
        "2017",
        -9.93352889450412
      ],
      [
        "▁mma!",
        -9.933834848937504
      ],
      [
        "▁bula",
        -9.9338432346905
      ],
      [
        "▁Biri",
        -9.934163297586668
      ],
      [
        "▁Agụ",
        -9.934229297842908
      ],
      [
        "▁Ni",
        -9.934264095057198
      ],
      [
        "▁okay",
        -9.934276867477982
      ],
      [
        "▁own",
        -9.934487332391296
      ],
      [
        "▁#Saturday",
        -9.934686038598313
      ],
      [
        "▁Ijele",
        -9.934860235686376
      ],
      [
        "▁n'agba",
        -9.93508319765214
      ],
      [
        "▁hot",
        -9.935332529955101
      ],
      [
        "▁n'igwe",
        -9.93549888140136
      ],
      [
        "▁ogini",
        -9.935771000595718
      ],
      [
        "▁Abacha",
        -9.935824147585652
      ],
      [
        "▁akụkọ",
        -9.935842875464255
      ],
      [
        "▁Omo",
        -9.935956491346749
      ],
      [
        "▁play",
        -9.936309048370834
      ],
      [
        "▁yiri",
        -9.936363665145752
      ],
      [
        "▁motor",
        -9.93717293119088
      ],
      [
        "▁ichoro",
        -9.937268978940601
      ],
      [
        "▁ochichi",
        -9.9374041635082
      ],
      [
        "▁ìg",
        -9.937763752112506
      ],
      [
        "DAY",
        -9.937789197667477
      ],
      [
        "▁ebute",
        -9.93803793485197
      ],
      [
        "nR",
        -9.938099758716724
      ],
      [
        "▁Ume",
        -9.938181064922425
      ],
      [
        "▁mmili",
        -9.938181706593852
      ],
      [
        "🙄🙄🙄",
        -9.938288403189283
      ],
      [
        "▁nine",
        -9.938391867567237
      ],
      [
        "▁song",
        -9.938501087824784
      ],
      [
        "▁parts",
        -9.938582361669633
      ],
      [
        "▁nwanna",
        -9.938877671555078
      ],
      [
        "▁Iseee",
        -9.93901361861269
      ],
      [
        "▁oma...",
        -9.939015480642688
      ],
      [
        "24",
        -9.939309047573952
      ],
      [
        "ast",
        -9.940043151642499
      ],
      [
        "▁Akpo",
        -9.940468950794596
      ],
      [
        "▁Amara",
        -9.94087408537461
      ],
      [
        "▁😕",
        -9.940888167738951
      ],
      [
        "TC",
        -9.941005860459612
      ],
      [
        "▁😏😏",
        -9.941010003014693
      ],
      [
        "▁Ndo",
        -9.941203397469799
      ],
      [
        "▁NWA",
        -9.941293929038087
      ],
      [
        "▁odika",
        -9.94129476629853
      ],
      [
        "▁sọ",
        -9.942447882654935
      ],
      [
        "▁~",
        -9.94322784859115
      ],
      [
        "▁#Holy",
        -9.94322942082572
      ],
      [
        "▁Anaghi",
        -9.944334124499656
      ],
      [
        "▁nkwo",
        -9.944631974322885
      ],
      [
        "▁Jee",
        -9.944779560947614
      ],
      [
        "zJ",
        -9.945044330986423
      ],
      [
        "▁2020",
        -9.945575964002536
      ],
      [
        "4k",
        -9.946657014931606
      ],
      [
        "3D",
        -9.947367698841225
      ],
      [
        "▁+",
        -9.94793064624216
      ],
      [
        "▁boo",
        -9.948443820302197
      ],
      [
        "BE",
        -9.948584139629208
      ],
      [
        "▁ooo!",
        -9.949023585563129
      ],
      [
        "▁FC",
        -9.949150428625597
      ],
      [
        "😀😀",
        -9.950687376446098
      ],
      [
        "12",
        -9.95142692201218
      ],
      [
        "▁iso",
        -9.951763678615963
      ],
      [
        "▁Gbam",
        -9.952090143980715
      ],
      [
        "▁uba",
        -9.956065358673637
      ],
      [
        "Jo",
        -9.956869672918259
      ],
      [
        "▁ozo,",
        -9.957916958712532
      ],
      [
        "PM",
        -9.958443924173116
      ],
      [
        "▁Ele",
        -9.95899364421516
      ],
      [
        "▁dee",
        -9.959287143120054
      ],
      [
        "▁Lee",
        -9.959336503305828
      ],
      [
        "😁😁😁",
        -9.95936222900374
      ],
      [
        "▁ogu",
        -9.95972838707541
      ],
      [
        "▁10",
        -9.960178286221996
      ],
      [
        "5f",
        -9.96031905779482
      ],
      [
        "//",
        -9.96053482903741
      ],
      [
        "▁whe",
        -9.963109793830604
      ],
      [
        "▁alụ",
        -9.963640744198077
      ],
      [
        "nkà",
        -9.964327585150626
      ],
      [
        "▁biko!",
        -9.964787504097071
      ],
      [
        "▁ọcha",
        -9.965101823223872
      ],
      [
        "▁live",
        -9.96580279534442
      ],
      [
        "ord",
        -9.96628794090167
      ],
      [
        "▁bara",
        -9.966311467839034
      ],
      [
        "▁zuo",
        -9.96645404778874
      ],
      [
        "▁big",
        -9.967105754543049
      ],
      [
        "▁1.",
        -9.967449126334369
      ],
      [
        "▁ete",
        -9.967988270343074
      ],
      [
        "▁inu",
        -9.967992073111272
      ],
      [
        "rù",
        -9.96800019697887
      ],
      [
        "▁gbachi",
        -9.968227326573178
      ],
      [
        "▁3.",
        -9.96886541112824
      ],
      [
        "▁ga-adị",
        -9.96984407742655
      ],
      [
        "▁eziokwu.",
        -9.970594334596912
      ],
      [
        "▁abum",
        -9.971923801451991
      ],
      [
        "▁Man",
        -9.973603279565658
      ],
      [
        "KD",
        -9.974272547139446
      ],
      [
        "💃💃",
        -9.975384913749764
      ],
      [
        "tt",
        -9.975976625836278
      ],
      [
        "▁there.",
        -9.976605285213012
      ],
      [
        "▁racha",
        -9.976741842934306
      ],
      [
        "ilo",
        -9.977006225119517
      ],
      [
        "▁#o",
        -9.977153610986601
      ],
      [
        "▁isi.",
        -9.977220709343023
      ],
      [
        "▁Omum",
        -9.978109881946725
      ],
      [
        "▁#TheD",
        -9.97825352986346
      ],
      [
        "▁gawa",
        -9.978267190687962
      ],
      [
        "SV",
        -9.978859532301952
      ],
      [
        "▁ohi",
        -9.979473551241746
      ],
      [
        "▁belu",
        -9.98264806011881
      ],
      [
        "▁egwu!",
        -9.98316406572078
      ],
      [
        "0W",
        -9.983869658145764
      ],
      [
        "UB",
        -9.98395570750678
      ],
      [
        "▁😃",
        -9.984015615371192
      ],
      [
        "ld",
        -9.98545026802996
      ],
      [
        "doro",
        -9.985639883953834
      ],
      [
        "▁Sam",
        -9.986361778058487
      ],
      [
        "▁dia..",
        -9.986832117153487
      ],
      [
        "TS",
        -9.987484815955536
      ],
      [
        "▁kpoo",
        -9.987584764877347
      ],
      [
        "MG",
        -9.990530216897016
      ],
      [
        "ina",
        -9.991250318710355
      ],
      [
        "Midday",
        -9.991585405868642
      ],
      [
        "▁ike!",
        -9.992371609849116
      ],
      [
        "TG",
        -9.993970416800416
      ],
      [
        "😍😍😍",
        -9.996358202800959
      ],
      [
        "ctor",
        -9.996488983877613
      ],
      [
        "▁ado",
        -9.996534161609304
      ],
      [
        "kere",
        -9.996854077685128
      ],
      [
        "sọ",
        -9.997893104290366
      ],
      [
        "▁Th",
        -9.998000782462885
      ],
      [
        "It",
        -9.99872751671229
      ],
      [
        "x8",
        -10.0020153489145
      ],
      [
        "▁#No",
        -10.003755565142077
      ],
      [
        "▁faa",
        -10.004184670586953
      ],
      [
        "IK",
        -10.004758503664647
      ],
      [
        "▁ozo.",
        -10.007554078792843
      ],
      [
        "py",
        -10.00848120903305
      ],
      [
        "ation",
        -10.009014286946826
      ],
      [
        "▁adikwa",
        -10.009131639778394
      ],
      [
        "ili",
        -10.009201728985188
      ],
      [
        "ft",
        -10.009928629969274
      ],
      [
        "18",
        -10.010086953761697
      ],
      [
        "x2",
        -10.010563849811913
      ],
      [
        "▁💃",
        -10.011022448100462
      ],
      [
        "qk",
        -10.011129891328148
      ],
      [
        "▁she",
        -10.013228215261357
      ],
      [
        "☺️",
        -10.013390427164254
      ],
      [
        "PP",
        -10.014138787084018
      ],
      [
        "▁ume.",
        -10.014393258305098
      ],
      [
        "jK",
        -10.01646643006351
      ],
      [
        "😭😭",
        -10.017271162215764
      ],
      [
        "Love",
        -10.017442846899801
      ],
      [
        "10",
        -10.017760261506659
      ],
      [
        "chọ",
        -10.01889445791345
      ],
      [
        "🤣😂",
        -10.019187232042022
      ],
      [
        "😏",
        -10.01956906878246
      ],
      [
        "gburu",
        -10.019797881897826
      ],
      [
        "▁Of",
        -10.01992224872412
      ],
      [
        "zụ",
        -10.020232761481925
      ],
      [
        "ach",
        -10.020833496224173
      ],
      [
        "🚶",
        -10.020958765315093
      ],
      [
        "💪",
        -10.021275959893023
      ],
      [
        "kwá",
        -10.021620235690191
      ],
      [
        "Kz",
        -10.021697814890434
      ],
      [
        "|",
        -10.022097408842367
      ],
      [
        "▁😀😀",
        -10.02258189369556
      ],
      [
        "▁Osin",
        -10.022724012619252
      ],
      [
        "hhhh",
        -10.023187176996844
      ],
      [
        "▁mmadu,",
        -10.024000849757769
      ],
      [
        "▁owe",
        -10.024689246482293
      ],
      [
        "mmadu",
        -10.024848075118918
      ],
      [
        "IT",
        -10.024909939344937
      ],
      [
        "6K",
        -10.024968260713344
      ],
      [
        "som",
        -10.026940950169728
      ],
      [
        "hie",
        -10.028354923696984
      ],
      [
        "ls",
        -10.028694736692321
      ],
      [
        "lla",
        -10.028720599334711
      ],
      [
        "▁Haha",
        -10.029092350132748
      ],
      [
        "FR",
        -10.030118036791471
      ],
      [
        "you",
        -10.030598814160426
      ],
      [
        "▁....",
        -10.030909148681774
      ],
      [
        "▁nyelu",
        -10.031068079319391
      ],
      [
        "▁gote",
        -10.031323775932025
      ],
      [
        "YA",
        -10.031515159441284
      ],
      [
        "X2",
        -10.032622058289737
      ],
      [
        "▁pụta",
        -10.033138511975922
      ],
      [
        "▁Ì",
        -10.03345322207874
      ],
      [
        "🔥🔥🔥",
        -10.033583848563532
      ],
      [
        "31",
        -10.033666031840312
      ],
      [
        "ood",
        -10.033774406631506
      ],
      [
        "▁😂🤣",
        -10.034178774297525
      ],
      [
        "HE",
        -10.034259222597074
      ],
      [
        "vM",
        -10.03429841829672
      ],
      [
        "▁amam",
        -10.034305151696666
      ],
      [
        "▁Akam",
        -10.034464316645606
      ],
      [
        "cheta",
        -10.03491141718523
      ],
      [
        "one",
        -10.036604386671163
      ],
      [
        "hia",
        -10.037668260688534
      ],
      [
        "▁ogba",
        -10.037780732458357
      ],
      [
        "▁okwu!",
        -10.03783152379192
      ],
      [
        "BO",
        -10.037935950805817
      ],
      [
        "56",
        -10.03836310670706
      ],
      [
        "▁Za",
        -10.038661479023883
      ],
      [
        "BT",
        -10.038775771689814
      ],
      [
        "p0",
        -10.039511309161334
      ],
      [
        "ų",
        -10.039864441616063
      ],
      [
        "▁An",
        -10.03986986819555
      ],
      [
        "▁abi",
        -10.039978014856013
      ],
      [
        "ime",
        -10.040126175524142
      ],
      [
        "▁anya...",
        -10.04025998982836
      ],
      [
        "tue",
        -10.040553563563199
      ],
      [
        "▁#Urban",
        -10.041782489308341
      ],
      [
        "▁😒😒",
        -10.041790649167456
      ],
      [
        "ful",
        -10.04240623596951
      ],
      [
        "▁even",
        -10.042726197093637
      ],
      [
        "▁nkụ",
        -10.04320378626527
      ],
      [
        "👏",
        -10.043629104028135
      ],
      [
        "😔",
        -10.04372338984151
      ],
      [
        "😫",
        -10.043806786553823
      ],
      [
        "🤭",
        -10.043808917345167
      ],
      [
        "☹️",
        -10.043808918068326
      ],
      [
        "▁should",
        -10.04380891815417
      ],
      [
        "TwitterHangout",
        -10.043808975155939
      ],
      [
        "▁#First",
        -10.04380898899533
      ],
      [
        "Sultan",
        -10.043809035544564
      ],
      [
        "▁John",
        -10.043809155832587
      ],
      [
        "SUNDAY",
        -10.04380991019004
      ],
      [
        "▁small",
        -10.043812748885792
      ],
      [
        "▁(@user)",
        -10.043813676191313
      ],
      [
        "▁business",
        -10.043814330545029
      ],
      [
        "▁help",
        -10.043815609699974
      ],
      [
        "àjà",
        -10.043823688877742
      ],
      [
        "Monday",
        -10.043827271553326
      ],
      [
        "▁How",
        -10.043830662944558
      ],
      [
        "▁December",
        -10.043843073848183
      ],
      [
        "CommunionService",
        -10.04384413528251
      ],
      [
        "▁ready",
        -10.04384576211292
      ],
      [
        "▁ngozi",
        -10.043852429619207
      ],
      [
        "▁n’ile",
        -10.043858071581113
      ],
      [
        "▁omumu",
        -10.0438770788472
      ],
      [
        "iative",
        -10.043886800570837
      ],
      [
        "▁agwọ",
        -10.043919900689037
      ],
      [
        "▁Smh",
        -10.043957962113637
      ],
      [
        "spare",
        -10.043979215968239
      ],
      [
        "▁daalụ",
        -10.04398457766664
      ],
      [
        "▁how",
        -10.04405160282711
      ],
      [
        "▁Hian",
        -10.04411565147483
      ],
      [
        "▁Umuazi",
        -10.044123176787526
      ],
      [
        "Party",
        -10.04427127645921
      ],
      [
        "▁case",
        -10.044297167292141
      ],
      [
        "▁ndewo",
        -10.04435260260117
      ],
      [
        "dioha",
        -10.04441021177188
      ],
      [
        "▁n'afọ",
        -10.044508181980616
      ],
      [
        "▁Nzuzu",
        -10.04451313704704
      ],
      [
        "▁(You",
        -10.044544012792157
      ],
      [
        "▁egwuregwu",
        -10.044581453906943
      ],
      [
        "JAM",
        -10.044718315972716
      ],
      [
        "Chelsea",
        -10.044743596034595
      ],
      [
        "NYI",
        -10.044810445892544
      ],
      [
        "▁dance",
        -10.04486371260933
      ],
      [
        "▁imo",
        -10.045471976174776
      ],
      [
        "▁Nwachinemerie",
        -10.045546521835274
      ],
      [
        "▁ọnwụ",
        -10.045746626686471
      ],
      [
        "▁n'onu",
        -10.045794210070618
      ],
      [
        "onsense",
        -10.045846114154049
      ],
      [
        "▁ís",
        -10.04604408456912
      ],
      [
        "▁n'iru",
        -10.046074648869526
      ],
      [
        "▁sabi",
        -10.046160207808343
      ],
      [
        "▁blessing",
        -10.046359368117379
      ],
      [
        "▁stop",
        -10.046379971286225
      ],
      [
        "▁DI",
        -10.046426569618355
      ],
      [
        "▁un",
        -10.046437105346419
      ],
      [
        "JS",
        -10.046461401831376
      ],
      [
        "▁full",
        -10.04665742209892
      ],
      [
        "▁care",
        -10.046715607828014
      ],
      [
        "▁guru",
        -10.04676031220773
      ],
      [
        "Please",
        -10.04691005044057
      ],
      [
        "Night",
        -10.046918910473575
      ],
      [
        "▁bekee",
        -10.04703696828398
      ],
      [
        "▁oké",
        -10.047061688505815
      ],
      [
        "4j",
        -10.047184662038047
      ],
      [
        "▁anwuru",
        -10.047573069105553
      ],
      [
        "▁akwuna",
        -10.047747474891283
      ],
      [
        "▁Aunty",
        -10.047800264714798
      ],
      [
        "tú",
        -10.047811732010418
      ],
      [
        "hhh",
        -10.047898541881938
      ],
      [
        "▁Bros",
        -10.048012660116013
      ],
      [
        "▁emelu",
        -10.048548816702985
      ],
      [
        "▁fada",
        -10.048617544924852
      ],
      [
        "cI",
        -10.048751231351407
      ],
      [
        "tinye",
        -10.048795761303246
      ],
      [
        "BW",
        -10.048820588335266
      ],
      [
        "▁fit",
        -10.048934856771448
      ],
      [
        "▁bra",
        -10.04905632460856
      ],
      [
        "ence",
        -10.049211570560015
      ],
      [
        "▁share",
        -10.049297433974504
      ],
      [
        "aria",
        -10.049588205136992
      ],
      [
        "BBC",
        -10.049650507447378
      ],
      [
        "RA",
        -10.049914613613016
      ],
      [
        "▁#NowPlaying",
        -10.050455617069423
      ],
      [
        "▁nsi.",
        -10.051269322387826
      ],
      [
        "▁dat",
        -10.051296055307079
      ],
      [
        "▁na-aga",
        -10.05144236095726
      ],
      [
        "nweanyi",
        -10.051506629703788
      ],
      [
        "’eme",
        -10.05152614998477
      ],
      [
        "▁Madu",
        -10.051583327482518
      ],
      [
        "▁Mbanu",
        -10.051673835514643
      ],
      [
        "▁Achoro",
        -10.051724291798834
      ],
      [
        "▁man)",
        -10.05174483690618
      ],
      [
        "▁otuto",
        -10.051898638536732
      ],
      [
        "▁wepu",
        -10.05244841567929
      ],
      [
        "▁oriri",
        -10.052632454619976
      ],
      [
        "▁N’",
        -10.052659076403401
      ],
      [
        "🙄🙄",
        -10.052956516003551
      ],
      [
        "U2",
        -10.052969257843861
      ],
      [
        "▁ewere",
        -10.053355548896851
      ],
      [
        "▁Nso",
        -10.053404806866462
      ],
      [
        "▁take",
        -10.053423556509948
      ],
      [
        "▁some",
        -10.053834698423664
      ],
      [
        "▁Hmmmm",
        -10.054811367963906
      ],
      [
        "WX",
        -10.05494770957416
      ],
      [
        "▁Nwee",
        -10.05600108145678
      ],
      [
        "▁mezie",
        -10.056890052180814
      ],
      [
        "▁ego.",
        -10.057024804889908
      ],
      [
        "udo",
        -10.057480377911698
      ],
      [
        "▁taata",
        -10.057785910385752
      ],
      [
        "▁ug",
        -10.057898268852052
      ],
      [
        "▁😐",
        -10.05829672075653
      ],
      [
        "Aka",
        -10.058472425265673
      ],
      [
        "tal",
        -10.058541414441711
      ],
      [
        "b6",
        -10.05868004392429
      ],
      [
        "▁igu",
        -10.058702885153611
      ],
      [
        "dia",
        -10.05877534169403
      ],
      [
        "▁Chika",
        -10.058800791808592
      ],
      [
        "▁days",
        -10.059799198725424
      ],
      [
        "▁too.",
        -10.060771353495259
      ],
      [
        "QZn",
        -10.061475474375102
      ],
      [
        "Fb",
        -10.062858356657927
      ],
      [
        "kpụrụ",
        -10.062994345579462
      ],
      [
        "▁🙌🙌🙌",
        -10.063102364084724
      ],
      [
        "▁nekwa",
        -10.063541281399168
      ],
      [
        "▁Fe",
        -10.063843109053284
      ],
      [
        "▁Amaro",
        -10.063912125123469
      ],
      [
        "lv",
        -10.064544447710032
      ],
      [
        "sy",
        -10.06473277948881
      ],
      [
        "13",
        -10.065339038218388
      ],
      [
        "?🤷",
        -10.065444805925962
      ],
      [
        "▁Eze,",
        -10.066025823083052
      ],
      [
        "▁Love",
        -10.066383478959851
      ],
      [
        "fia",
        -10.066583957070602
      ],
      [
        "▁mba.",
        -10.066747472394024
      ],
      [
        "TY",
        -10.068865179863316
      ],
      [
        "▁kwere",
        -10.06922730354253
      ],
      [
        "Ya",
        -10.069295407576886
      ],
      [
        "▁laa",
        -10.069559057986647
      ],
      [
        "▁ala.",
        -10.070198461218377
      ],
      [
        "▁mmanwu",
        -10.07038862919575
      ],
      [
        "zienu",
        -10.07126601070036
      ],
      [
        "▁yard",
        -10.071469780908949
      ],
      [
        "EW",
        -10.072934301328308
      ],
      [
        "55",
        -10.0746012688736
      ],
      [
        "7K",
        -10.074667049192087
      ],
      [
        "WL",
        -10.074742439017204
      ],
      [
        "piawa",
        -10.075159853759615
      ],
      [
        "▁agbara",
        -10.075353608273904
      ],
      [
        "FL",
        -10.075638260288262
      ],
      [
        "▁Asim",
        -10.075829986166175
      ],
      [
        "Go",
        -10.076076987622232
      ],
      [
        "▁was",
        -10.076134314681237
      ],
      [
        "88",
        -10.076154234270946
      ],
      [
        "FK",
        -10.076282813000295
      ],
      [
        "64",
        -10.076384337693929
      ],
      [
        "▁muna",
        -10.0775764596086
      ],
      [
        "riri",
        -10.078090578892578
      ],
      [
        "▁huru",
        -10.07900124229447
      ],
      [
        "▁If",
        -10.079569974168022
      ],
      [
        "▁Gaa",
        -10.080614127251652
      ],
      [
        "▁😍😍",
        -10.080619072931826
      ],
      [
        "▁agbalu",
        -10.080968503201703
      ],
      [
        "▁ile",
        -10.082066819479072
      ],
      [
        "nodu",
        -10.083241465975345
      ],
      [
        "▁ene",
        -10.083243608343208
      ],
      [
        "bụ",
        -10.08330041697712
      ],
      [
        "▁esu",
        -10.0837447734511
      ],
      [
        "▁Kama",
        -10.083894953954982
      ],
      [
        "▁ole?",
        -10.087116238959577
      ],
      [
        "19",
        -10.087170464969777
      ],
      [
        "😂🤣",
        -10.087247047240119
      ],
      [
        "bQ",
        -10.087415493616907
      ],
      [
        "qua",
        -10.088952877838178
      ],
      [
        "Take",
        -10.089986172610267
      ],
      [
        "cent",
        -10.091222232350814
      ],
      [
        "vz",
        -10.091595651199132
      ],
      [
        "▁nje",
        -10.091832833148667
      ],
      [
        "7X",
        -10.092470089480663
      ],
      [
        "libe",
        -10.092597897777331
      ],
      [
        "0w",
        -10.092819811601007
      ],
      [
        "▁ahu.",
        -10.093583014492692
      ],
      [
        "ndu",
        -10.094544279770375
      ],
      [
        "▁Nkwo",
        -10.095940494604017
      ],
      [
        "▁Eri",
        -10.096196144869811
      ],
      [
        "mụta",
        -10.096559018139653
      ],
      [
        "▁n'ech",
        -10.097392545455655
      ],
      [
        "53",
        -10.097746667347952
      ],
      [
        "😍😍",
        -10.09780723115438
      ],
      [
        "▁Iga",
        -10.098983847966998
      ],
      [
        "\"\"\"\".",
        -10.10019592878273
      ],
      [
        "38",
        -10.101307555487725
      ],
      [
        "▁Ndia",
        -10.10198009102699
      ],
      [
        "▁Nk",
        -10.102122211235326
      ],
      [
        "▁gwam",
        -10.102183580867026
      ],
      [
        "ela",
        -10.10267550197193
      ],
      [
        "▁onwa",
        -10.103050215171042
      ],
      [
        "▁wuru",
        -10.103347178575278
      ],
      [
        "golu",
        -10.103984419371596
      ],
      [
        "hari",
        -10.104260302531394
      ],
      [
        "Fu",
        -10.104304427357604
      ],
      [
        "▁awo",
        -10.105042942936318
      ],
      [
        "▁Ahi",
        -10.10506044907821
      ],
      [
        "😂😂😂😂😂",
        -10.105777148608226
      ],
      [
        "oud",
        -10.107579080617269
      ],
      [
        "▁Doc",
        -10.108587545525678
      ],
      [
        "ino",
        -10.10873408854236
      ],
      [
        "▁😩😩😩",
        -10.109135430645921
      ],
      [
        "ies",
        -10.110707964391993
      ],
      [
        "▁oko",
        -10.112536769097826
      ],
      [
        "AP",
        -10.112891396898966
      ],
      [
        "bara",
        -10.113174184557622
      ],
      [
        "VF",
        -10.113281116683247
      ],
      [
        "▁12",
        -10.118940384422322
      ],
      [
        "Chineke",
        -10.119069315372629
      ],
      [
        "▁NO",
        -10.120651049284845
      ],
      [
        "way",
        -10.121206617995812
      ],
      [
        "99",
        -10.122492901438228
      ],
      [
        "▁Otua",
        -10.122873386509061
      ],
      [
        "▁Are",
        -10.123469060769681
      ],
      [
        "▁biko..",
        -10.123617443585498
      ],
      [
        "DR",
        -10.124041440799958
      ],
      [
        "▁Cha",
        -10.124613033653477
      ],
      [
        "▁wete",
        -10.124787684659251
      ],
      [
        "▁nk",
        -10.12576340554264
      ],
      [
        "No",
        -10.125972956341528
      ],
      [
        "ghim",
        -10.126117011840213
      ],
      [
        "▁Amam",
        -10.12664161600854
      ],
      [
        "▁\"\"\"\"O",
        -10.1272590321052
      ],
      [
        "▁sto",
        -10.127364036208089
      ],
      [
        "s0",
        -10.128390209454782
      ],
      [
        "UW",
        -10.12939541257742
      ],
      [
        "▁kpacha",
        -10.129646178010425
      ],
      [
        "▁nna.",
        -10.130146466210554
      ],
      [
        "que",
        -10.130746555066837
      ],
      [
        "ima",
        -10.13177883098127
      ],
      [
        "ari",
        -10.132807805250845
      ],
      [
        "only",
        -10.133789822556603
      ],
      [
        "▁\"\"",
        -10.134570255413838
      ],
      [
        "balu",
        -10.136676613769646
      ],
      [
        "cG",
        -10.138269782292213
      ],
      [
        "Qc",
        -10.138448914457642
      ],
      [
        "▁Bo",
        -10.138638240765738
      ],
      [
        "odu",
        -10.139698521473612
      ],
      [
        "KS",
        -10.141036205506932
      ],
      [
        "▁#P",
        -10.141874084237278
      ],
      [
        "😎",
        -10.142133175743949
      ],
      [
        "vk",
        -10.142974480441016
      ],
      [
        "▁#U",
        -10.144753491047563
      ],
      [
        "✊",
        -10.146046357681435
      ],
      [
        "pZ",
        -10.146357182590888
      ],
      [
        "▁MA",
        -10.146757758162535
      ],
      [
        "AH",
        -10.147198787910353
      ],
      [
        "Mix",
        -10.147297617445354
      ],
      [
        "▁apụ",
        -10.148181267129091
      ],
      [
        "obodo",
        -10.148996707398652
      ],
      [
        "taba",
        -10.149384237138927
      ],
      [
        "live",
        -10.149764197055013
      ],
      [
        "IGBO",
        -10.149847168949165
      ],
      [
        "UO",
        -10.150169187625025
      ],
      [
        "ani",
        -10.150558985454381
      ],
      [
        "8k",
        -10.15071920554517
      ],
      [
        "our",
        -10.150731021272485
      ],
      [
        "style",
        -10.150847645063568
      ],
      [
        "S7",
        -10.151162613664
      ],
      [
        "▁gha",
        -10.151702105290514
      ],
      [
        "xK",
        -10.15249582004448
      ],
      [
        "El",
        -10.153750828814493
      ],
      [
        "▁Aj",
        -10.153827243587344
      ],
      [
        "2T",
        -10.154339336793118
      ],
      [
        "t2",
        -10.154368535509093
      ],
      [
        "tation",
        -10.154637475714845
      ],
      [
        "nweghị",
        -10.154840388826457
      ],
      [
        "▁mma...",
        -10.155256407034555
      ],
      [
        "▁Ti",
        -10.155348213805857
      ],
      [
        "kwuo",
        -10.155405634571757
      ],
      [
        "zd",
        -10.155430178982996
      ],
      [
        "NL",
        -10.155588791422812
      ],
      [
        "▁kwenu",
        -10.156692459533526
      ],
      [
        "▁nsọ",
        -10.156982563438522
      ],
      [
        "▁ihere",
        -10.158860017312717
      ],
      [
        "▁eme.",
        -10.159229561471491
      ],
      [
        "▁odikwa",
        -10.15977187454984
      ],
      [
        "nwụ",
        -10.160272213405538
      ],
      [
        "😭😭😭😭",
        -10.16028235271115
      ],
      [
        "6P",
        -10.161511526889935
      ],
      [
        "IB",
        -10.161559479661872
      ],
      [
        "zuo",
        -10.162326768924956
      ],
      [
        "▁K'",
        -10.162640800739204
      ],
      [
        "▁Isee",
        -10.162996026501656
      ],
      [
        "▁Ru",
        -10.163414170259683
      ],
      [
        "▁Pe",
        -10.164042383549845
      ],
      [
        "Anyi",
        -10.16418834188961
      ],
      [
        "XH",
        -10.164196201076518
      ],
      [
        "ant",
        -10.164232492405421
      ],
      [
        "Wh",
        -10.164673774752561
      ],
      [
        "9L",
        -10.164725244554717
      ],
      [
        "able",
        -10.165040444225374
      ],
      [
        "😂😂😂😂😂😂",
        -10.165941931328476
      ],
      [
        "▁moto",
        -10.166235867981607
      ],
      [
        "bọchị",
        -10.167791717448353
      ],
      [
        "😘😘",
        -10.168329938203987
      ],
      [
        "▁Hehehe",
        -10.168630513602032
      ],
      [
        "🎸",
        -10.168718150263091
      ],
      [
        "▁sweet",
        -10.168723539854296
      ],
      [
        "▁#oge",
        -10.168733988179923
      ],
      [
        "👏👏",
        -10.168763013421454
      ],
      [
        "👇",
        -10.16876314929021
      ],
      [
        "🚀",
        -10.168806850835399
      ],
      [
        "🤡",
        -10.168808917354271
      ],
      [
        "–",
        -10.168808917354271
      ],
      [
        "▁#SweetPsalmist",
        -10.168808917354271
      ],
      [
        "▁♥️",
        -10.16880891737302
      ],
      [
        "▁Tụfịakwa",
        -10.1688089174146
      ],
      [
        "👁️",
        -10.168808918179518
      ],
      [
        "▁#worship",
        -10.168808920996982
      ],
      [
        "▁Michael",
        -10.16880892515493
      ],
      [
        "▁#iluigbo",
        -10.1688090597805
      ],
      [
        "▁Ejeagha",
        -10.168809110880584
      ],
      [
        "▁onitsha",
        -10.168809329492777
      ],
      [
        "▁first",
        -10.168809558033292
      ],
      [
        "▁ma-ọbu",
        -10.168809569630819
      ],
      [
        "Second",
        -10.16880973606984
      ],
      [
        "▁EGWU",
        -10.168810909189183
      ],
      [
        "▁celebrate",
        -10.168811119019022
      ],
      [
        "▁HBD",
        -10.168812288235324
      ],
      [
        "▁better",
        -10.168812364489526
      ],
      [
        "▁level",
        -10.168813833605574
      ],
      [
        "▁what",
        -10.16881859316582
      ],
      [
        "▁wahala",
        -10.168818651032243
      ],
      [
        "Lekki",
        -10.168820185207496
      ],
      [
        "▁When",
        -10.16882068403132
      ],
      [
        "▁ịhụ",
        -10.168827211075033
      ],
      [
        "▁Odumeje",
        -10.168828414688578
      ],
      [
        "▁ọjị",
        -10.168829674698973
      ],
      [
        "Remix",
        -10.168830880647741
      ],
      [
        "▁easy",
        -10.168834026952345
      ],
      [
        "▁njọ",
        -10.168839359765748
      ],
      [
        "▁izizi",
        -10.168842851370641
      ],
      [
        "▁Kita",
        -10.168844584361118
      ],
      [
        "▁gbajie",
        -10.168847147222003
      ],
      [
        "▁peace",
        -10.168849037163413
      ],
      [
        "▁office",
        -10.168851925754167
      ],
      [
        "▁olisa",
        -10.16886624947436
      ],
      [
        "▁Afọ",
        -10.168868097156519
      ],
      [
        "suru",
        -10.168873533544758
      ],
      [
        "▁ubosi",
        -10.168876034604587
      ],
      [
        "▁Why",
        -10.16889343953773
      ],
      [
        "▁fire",
        -10.168951862163738
      ],
      [
        "▁class",
        -10.168969132183074
      ],
      [
        "chichi",
        -10.168970557540806
      ],
      [
        "▁Hot",
        -10.16900904876588
      ],
      [
        "▁Uncle",
        -10.169014332307908
      ],
      [
        "▁uchu",
        -10.169046472352255
      ],
      [
        "▁Oyibo",
        -10.169051408655712
      ],
      [
        "▁aghota",
        -10.169070170664472
      ],
      [
        "kwú",
        -10.169128309578614
      ],
      [
        "Club",
        -10.169149083558315
      ],
      [
        "▁Nonso",
        -10.169168410073535
      ],
      [
        "▁Ònye",
        -10.169168844507332
      ],
      [
        "▁miss",
        -10.169200914883772
      ],
      [
        "court",
        -10.169220421502347
      ],
      [
        "▁ufu",
        -10.169236868142043
      ],
      [
        "▁Kelechi",
        -10.169253130493988
      ],
      [
        "▁ozigbo",
        -10.169262113309378
      ],
      [
        "▁City",
        -10.169323335082849
      ],
      [
        "▁hard",
        -10.16935155853836
      ],
      [
        "▁Ehen",
        -10.169364381375706
      ],
      [
        "▁Orji",
        -10.169410768320242
      ],
      [
        "▁bank",
        -10.169554484172147
      ],
      [
        "▁nwụrụ",
        -10.169682931517503
      ],
      [
        "▁k'i",
        -10.17013070078061
      ],
      [
        "▁anything",
        -10.170239933111532
      ],
      [
        "▁dalụ",
        -10.170348760588709
      ],
      [
        "▁Ó",
        -10.170479664453635
      ],
      [
        "▁Big",
        -10.170522972196379
      ],
      [
        "▁Umunne",
        -10.170526038476682
      ],
      [
        "▁🙏🙏🙏",
        -10.170595037985656
      ],
      [
        "▁Acho",
        -10.170627034457755
      ],
      [
        "▁ọgụ",
        -10.170700862734266
      ],
      [
        "▁Bụ",
        -10.170761923347339
      ],
      [
        "▁Dị",
        -10.170787905128861
      ],
      [
        "▁Umuaka",
        -10.171115233976321
      ],
      [
        "▁#Obi",
        -10.17112436006549
      ],
      [
        "▁account",
        -10.171135811739557
      ],
      [
        "▁banyi",
        -10.171282280236086
      ],
      [
        "Over",
        -10.171354212379512
      ],
      [
        "▁Abụ",
        -10.171366952632447
      ],
      [
        "▁mgbaka",
        -10.171718356352413
      ],
      [
        "▁afufu",
        -10.171754673225129
      ],
      [
        "ide",
        -10.171924281992249
      ],
      [
        "Yw",
        -10.172200482970133
      ],
      [
        "▁Muna",
        -10.172548505245544
      ],
      [
        "Star",
        -10.172582221113089
      ],
      [
        "▁ikuku",
        -10.17261283800894
      ],
      [
        "top",
        -10.172642095477247
      ],
      [
        "▁Ginwa",
        -10.172666526758846
      ],
      [
        "▁Ifeanyi",
        -10.172783602469945
      ],
      [
        "▁waste",
        -10.172869073411071
      ],
      [
        "▁ga-adi",
        -10.172898588880363
      ],
      [
        "ph",
        -10.173094231968838
      ],
      [
        "jd",
        -10.173298135877516
      ],
      [
        "▁about",
        -10.17336888997717
      ],
      [
        "▁place",
        -10.173468840028804
      ],
      [
        "▁papa",
        -10.173569676444933
      ],
      [
        "▁Let",
        -10.173628032668141
      ],
      [
        "▁Jiri",
        -10.173716337946823
      ],
      [
        "▁debe",
        -10.173848829625271
      ],
      [
        "jW",
        -10.17400356887806
      ],
      [
        "ident",
        -10.174376502123465
      ],
      [
        "▁#HO",
        -10.17439315990341
      ],
      [
        "▁owerri",
        -10.174479284523166
      ],
      [
        "▁meeting",
        -10.17452061609659
      ],
      [
        "sense",
        -10.174692509836573
      ],
      [
        "▁#Ada",
        -10.174912539001863
      ],
      [
        "▁osisi",
        -10.174931072237445
      ],
      [
        "▁okwukwe",
        -10.174964446715215
      ],
      [
        "▁Onweghi",
        -10.175451492436224
      ],
      [
        "▁Okay",
        -10.175682672174785
      ],
      [
        "▁Agwa",
        -10.175722093317132
      ],
      [
        "▁naira",
        -10.176164316715415
      ],
      [
        "▁weekend",
        -10.176362515096997
      ],
      [
        "Ga",
        -10.176636526502012
      ],
      [
        "V6",
        -10.176655134008577
      ],
      [
        "v9",
        -10.17707888995486
      ],
      [
        "▁Mụ",
        -10.177364787442086
      ],
      [
        "▁mbụ",
        -10.177677635459045
      ],
      [
        "67",
        -10.177781368431694
      ],
      [
        "▁al",
        -10.17829787484909
      ],
      [
        "▁chop",
        -10.17835079810849
      ],
      [
        "▁Agwu",
        -10.17839125863496
      ],
      [
        "▁Olil",
        -10.178417967647013
      ],
      [
        "▁🎈",
        -10.178586656922088
      ],
      [
        "word",
        -10.179116331600934
      ],
      [
        "ghọta",
        -10.179140078307878
      ],
      [
        "▁At",
        -10.179161661120881
      ],
      [
        "▁akwụ",
        -10.179413195907376
      ],
      [
        "werem",
        -10.179470505196349
      ],
      [
        "▁asụ",
        -10.179973193632117
      ],
      [
        "▁eburu",
        -10.18004257799674
      ],
      [
        "tụtụ",
        -10.180340552566898
      ],
      [
        "▁mgbede",
        -10.1804254185372
      ],
      [
        "▁Adiro",
        -10.180947149339328
      ],
      [
        "Good",
        -10.181156077651725
      ],
      [
        "▁nile.",
        -10.18126555396282
      ],
      [
        "▁marọ",
        -10.181327232001859
      ],
      [
        "n'al",
        -10.181670236991629
      ],
      [
        "ED",
        -10.181700803575861
      ],
      [
        "SP",
        -10.18176018696759
      ],
      [
        "▁dalu",
        -10.182186511926616
      ],
      [
        "▁kwulu",
        -10.183028675788059
      ],
      [
        "▁nko",
        -10.183176037572762
      ],
      [
        "▁kpuru",
        -10.18345445164162
      ],
      [
        "▁Zo",
        -10.183494137729106
      ],
      [
        "▁night",
        -10.183889878325482
      ],
      [
        "▁vu",
        -10.183947270708298
      ],
      [
        "d0",
        -10.184134746504236
      ],
      [
        "▁mass",
        -10.184243452446648
      ],
      [
        "rú",
        -10.184244769598932
      ],
      [
        "VJ",
        -10.184263555811599
      ],
      [
        "▁''",
        -10.18483952724293
      ],
      [
        "▁Pal",
        -10.185069161461897
      ],
      [
        "▁kuo",
        -10.185236580897639
      ],
      [
        "▁tie",
        -10.185357797399256
      ],
      [
        "▁✌️",
        -10.185367049940442
      ],
      [
        "▁puo",
        -10.185390941149956
      ],
      [
        "Ar",
        -10.185498746354185
      ],
      [
        "▁kedu?",
        -10.185542598869649
      ],
      [
        "▁#TGIF",
        -10.18570120253386
      ],
      [
        "▁kacha",
        -10.187050636759079
      ],
      [
        "3t",
        -10.18719923993966
      ],
      [
        "▁nko?",
        -10.187538148420114
      ],
      [
        "jT",
        -10.189061098848242
      ],
      [
        "▁wet",
        -10.18941299032324
      ],
      [
        "ahu",
        -10.189742168215968
      ],
      [
        "▁nchi",
        -10.19011298875667
      ],
      [
        "▁ịn",
        -10.190161056016825
      ],
      [
        "SC",
        -10.190461074593319
      ],
      [
        "▁7",
        -10.190470500682828
      ],
      [
        "▁Onwu",
        -10.190645926351188
      ],
      [
        "▁aki",
        -10.190830978447627
      ],
      [
        "EZ",
        -10.191283030093052
      ],
      [
        "6z",
        -10.19130138201945
      ],
      [
        "▁Dee",
        -10.191306430130247
      ],
      [
        "▁aturu",
        -10.191754992115742
      ],
      [
        "▁FT",
        -10.191759180258492
      ],
      [
        "▁Bro",
        -10.192038314008052
      ],
      [
        "▁nmanu",
        -10.192281571015302
      ],
      [
        "1R",
        -10.192709308971503
      ],
      [
        "▁goal",
        -10.192760792691693
      ],
      [
        "rity",
        -10.193341826824287
      ],
      [
        "▁Chuk",
        -10.193420073198435
      ],
      [
        "Ada",
        -10.193423906813507
      ],
      [
        "SR",
        -10.194948360332937
      ],
      [
        "▁mgbo",
        -10.194978593425398
      ],
      [
        "▁efi",
        -10.195001388952948
      ],
      [
        "▁Kwu",
        -10.195163819033688
      ],
      [
        "▁Ifu",
        -10.19525773285055
      ],
      [
        "▁dibia",
        -10.196100044614226
      ],
      [
        "HO",
        -10.196394605205048
      ],
      [
        "ochi",
        -10.196445380280153
      ],
      [
        "▁olee",
        -10.196586445799507
      ],
      [
        "▁enyere",
        -10.196874998029589
      ],
      [
        "▁mens",
        -10.196918390346422
      ],
      [
        "▁nuru",
        -10.197589771467035
      ],
      [
        "ap",
        -10.198138051708035
      ],
      [
        "▁Onwa",
        -10.198491030620644
      ],
      [
        "▁🤣😂",
        -10.198663387334271
      ],
      [
        "🙌🏾",
        -10.19885315201888
      ],
      [
        "echi",
        -10.199425692066512
      ],
      [
        "UI",
        -10.19966251375327
      ],
      [
        "▁meme",
        -10.199693558529164
      ],
      [
        "vide",
        -10.200028539135692
      ],
      [
        "▁Ọma",
        -10.200028660455384
      ],
      [
        "▁😂😂😂😂😂😂",
        -10.200103259586303
      ],
      [
        "late",
        -10.200904154681078
      ],
      [
        "'re",
        -10.20093894827686
      ],
      [
        "▁liv",
        -10.201118761832848
      ],
      [
        "PB",
        -10.201663993976172
      ],
      [
        "▁Ukwa",
        -10.201669416766972
      ],
      [
        "▁ooh.",
        -10.20182673748465
      ],
      [
        "OM",
        -10.202643535868386
      ],
      [
        "nger",
        -10.202730823653914
      ],
      [
        "cl",
        -10.202808619415743
      ],
      [
        "Q2",
        -10.203393701644528
      ],
      [
        "▁😄",
        -10.203692812050498
      ],
      [
        "▁tru",
        -10.203796124105688
      ],
      [
        "▁kote",
        -10.204160447360145
      ],
      [
        "▁Amen!",
        -10.204626765006939
      ],
      [
        "▁😉",
        -10.204723867464068
      ],
      [
        "75",
        -10.20498271022365
      ],
      [
        "▁ebea.",
        -10.205154584871092
      ],
      [
        "k6",
        -10.205302898108316
      ],
      [
        "Nq",
        -10.205626605065069
      ],
      [
        "▁give",
        -10.205864801255538
      ],
      [
        "▁ngi",
        -10.205925630713322
      ],
      [
        "▁nweghị",
        -10.206309082624545
      ],
      [
        "rpo",
        -10.206469209284556
      ],
      [
        "LX",
        -10.206514968912577
      ],
      [
        "-Igbo",
        -10.207331338667165
      ],
      [
        "RU",
        -10.209626809577253
      ],
      [
        "KY",
        -10.21162093904654
      ],
      [
        "ster",
        -10.21222648671209
      ],
      [
        "Hop",
        -10.212242127001984
      ],
      [
        "▁Ewe",
        -10.212791112370045
      ],
      [
        "fodu",
        -10.21284667538921
      ],
      [
        "15",
        -10.213021690041971
      ],
      [
        "😩",
        -10.213276212252898
      ],
      [
        "WW",
        -10.213585109221672
      ],
      [
        "▁form",
        -10.213908342006977
      ],
      [
        "ber",
        -10.213987244884917
      ],
      [
        "▁iya",
        -10.214010394939523
      ],
      [
        "ekwueme",
        -10.214360474968549
      ],
      [
        "IX",
        -10.214445534333647
      ],
      [
        "Out",
        -10.214592594525469
      ],
      [
        "ley",
        -10.215748250911972
      ],
      [
        "act",
        -10.215752725219948
      ],
      [
        "Bu",
        -10.217703807180664
      ],
      [
        "🙏🏽",
        -10.218134960254467
      ],
      [
        "b5",
        -10.21823072308164
      ],
      [
        "▁gị?",
        -10.218930421913992
      ],
      [
        "asi",
        -10.21950064469456
      ],
      [
        "5j",
        -10.219564931254755
      ],
      [
        "▁mkpa.",
        -10.21993259510551
      ],
      [
        "5U",
        -10.220940380966526
      ],
      [
        "▁egb",
        -10.222423718498915
      ],
      [
        "▁ekwent",
        -10.222505527695331
      ],
      [
        "MF",
        -10.223305490039628
      ],
      [
        "otu",
        -10.22422019564681
      ],
      [
        "▁uzo.",
        -10.22424331064724
      ],
      [
        "▁kwanu?",
        -10.225283601123843
      ],
      [
        "▁#To",
        -10.22547014409394
      ],
      [
        "vR",
        -10.226778996682237
      ],
      [
        "Ng",
        -10.22811810813094
      ],
      [
        "TV",
        -10.228584479027981
      ],
      [
        "uba",
        -10.228695021752486
      ],
      [
        "KW",
        -10.228948304508055
      ],
      [
        "▁Tu",
        -10.229171208951463
      ],
      [
        "▁Nno",
        -10.229370488995501
      ],
      [
        "ano",
        -10.229822499109272
      ],
      [
        "C8",
        -10.229827754653328
      ],
      [
        "▁ịgba",
        -10.230497020407226
      ],
      [
        "gheri",
        -10.230638662097663
      ],
      [
        "▁kowa",
        -10.231580075669525
      ],
      [
        "sign",
        -10.232143927239981
      ],
      [
        "▁asaa",
        -10.232850443742278
      ],
      [
        "▁ga-abụ",
        -10.233707589010292
      ],
      [
        "xF",
        -10.233749173338426
      ],
      [
        "▁kporo",
        -10.23395723966813
      ],
      [
        "kX",
        -10.234872028649004
      ],
      [
        "▁China",
        -10.235261777263908
      ],
      [
        "▁🎶🎶",
        -10.235764394409784
      ],
      [
        "😍😍😍😍😍",
        -10.236142555528188
      ],
      [
        "🔥🔥🔥🔥🔥",
        -10.236786163312962
      ],
      [
        "6G",
        -10.237594378230282
      ],
      [
        "lọ",
        -10.237614884811405
      ],
      [
        "my",
        -10.238789073045293
      ],
      [
        "ká",
        -10.239724204258676
      ],
      [
        "a?",
        -10.239742575485312
      ],
      [
        "pl",
        -10.242892324225316
      ],
      [
        "▁Wi",
        -10.243759203941549
      ],
      [
        "5Y",
        -10.243805952265738
      ],
      [
        "▁ara.",
        -10.24487433227012
      ],
      [
        "MB",
        -10.24502664728413
      ],
      [
        "PE",
        -10.245035408959186
      ],
      [
        "▁🤣🤣🤣🤣🤣🤣",
        -10.245112864653523
      ],
      [
        "▁#V",
        -10.247766563982566
      ],
      [
        "▁diro",
        -10.248130079020083
      ],
      [
        "▁ekpo",
        -10.248464483926252
      ],
      [
        "9Z",
        -10.248507293063279
      ],
      [
        "RV",
        -10.248652327445782
      ],
      [
        "▁Ekper",
        -10.248979382690575
      ],
      [
        "▁🤗",
        -10.249510349516253
      ],
      [
        "Nnamdi",
        -10.249589756988174
      ],
      [
        "Qp",
        -10.249938534041918
      ],
      [
        "🙌🙌🙌🙌",
        -10.249971576152262
      ],
      [
        "X6",
        -10.250067725258342
      ],
      [
        "C6",
        -10.250294817173723
      ],
      [
        "O6",
        -10.250327777946666
      ],
      [
        "▁eba",
        -10.250338642456095
      ],
      [
        "cL",
        -10.250436126706429
      ],
      [
        "▁ire",
        -10.252350917404081
      ],
      [
        "kwanụ",
        -10.252530060791887
      ],
      [
        "▁egwu...",
        -10.252594336343222
      ],
      [
        "bV",
        -10.252892934300723
      ],
      [
[...]
