{
  "version": "1.0",
  "truncation": null,
  "padding": null,
  "added_tokens": [
    {
      "id": 0,
      "content": "<pad>",
      "single_word": false,
      "lstrip": false,
      "rstrip": false,
      "normalized": false,
      "special": true
    },
    {
      "id": 1,
      "content": "<unk>",
      "single_word": false,
      "lstrip": false,
      "rstrip": false,
      "normalized": false,
      "special": true
    },
    {
      "id": 2,
      "content": "<cls>",
      "single_word": false,
      "lstrip": false,
      "rstrip": false,
      "normalized": false,
      "special": true
    }
  ],
  "normalizer": {
    "type": "Sequence",
    "normalizers": [
      {
        "type": "Nmt"
      },
      {
        "type": "NFKC"
      },
      {
        "type": "Replace",
        "pattern": {
          "Regex": " {2,}"
        },
        "content": " "
      }
    ]
  },
  "pre_tokenizer": {
    "type": "Metaspace",
    "replacement": "▁",
    "prepend_scheme": "always",
    "split": true
  },
  "post_processor": {
    "type": "TemplateProcessing",
    "single": [
      {
        "SpecialToken": {
          "id": "<cls>",
          "type_id": 0
        }
      },
      {
        "Sequence": {
          "id": "A",
          "type_id": 0
        }
      }
    ],
    "pair": [
      {
        "Sequence": {
          "id": "A",
          "type_id": 0
        }
      },
      {
        "Sequence": {
          "id": "B",
          "type_id": 1
        }
      }
    ],
    "special_tokens": {
      "<cls>": {
        "id": "<cls>",
        "ids": [
          2
        ],
        "tokens": [
          "<cls>"
        ]
      }
    }
  },
  "decoder": {
    "type": "Metaspace",
    "replacement": "▁",
    "prepend_scheme": "always",
    "split": true
  },
  "model": {
    "type": "Unigram",
    "unk_id": 1,
    "vocab": [
      [
        "<pad>",
        0.0
      ],
      [
        "<unk>",
        0.0
      ],
      [
        "<cls>",
        0.0
      ],
      [
        "s",
        -3.2458153540461314
      ],
      [
        "▁the",
        -3.3048113330853592
      ],
      [
        "▁to",
        -3.8527348666465375
      ],
      [
        "ing",
        -4.067295385317877
      ],
      [
        "▁",
        -4.1052270546949465
      ],
      [
        "▁i",
        -4.2224252572867425
      ],
      [
        "▁a",
        -4.241525307868507
      ],
      [
        "▁and",
        -4.306235425235757
      ],
      [
        "▁on",
        -4.350699509588058
      ],
      [
        "▁in",
        -4.371324442646797
      ],
      [
        "t",
        -4.417192258413708
      ],
      [
        "▁of",
        -4.606156394274111
      ],
      [
        "▁be",
        -4.625661685648329
      ],
      [
        "▁for",
        -4.630428848387827
      ],
      [
        "▁is",
        -4.720556966883709
      ],
      [
        "▁you",
        -4.790632008711911
      ],
      [
        "y",
        -4.806175641080142
      ],
      [
        "ed",
        -4.811875956008349
      ],
      [
        "▁with",
        -4.889785335606246
      ],
      [
        "▁it",
        -4.92484139609704
      ],
      [
        "e",
        -4.926664258295532
      ],
      [
        "▁may",
        -4.940233240348544
      ],
      [
        "d",
        -4.941090209003928
      ],
      [
        "▁tomorrow",
        -4.954759007013966
      ],
      [
        "▁at",
        -5.055806923560492
      ],
      [
        "▁th",
        -5.06770122650725
      ],
      [
        "▁go",
        -5.218484161672289
      ],
      [
        "a",
        -5.224971088904142
      ],
      [
        "▁that",
        -5.271571857601287
      ],
      [
        "▁my",
        -5.309993102399929
      ],
      [
        "▁have",
        -5.375943716168175
      ],
      [
        "m",
        -5.380471235824312
      ],
      [
        "▁day",
        -5.523739223158132
      ],
      [
        "▁just",
        -5.5563954195561145
      ],
      [
        "▁this",
        -5.568052286537691
      ],
      [
        "▁will",
        -5.594796548035864
      ],
      [
        "▁but",
        -5.650457322358463
      ],
      [
        "▁was",
        -5.669884293465979
      ],
      [
        "▁st",
        -5.688417695312248
      ],
      [
        "▁so",
        -5.715193293750245
      ],
      [
        "o",
        -5.719403637408924
      ],
      [
        "▁he",
        -5.730600435641076
      ],
      [
        "▁me",
        -5.758239417791684
      ],
      [
        "▁see",
        -5.779723894907895
      ],
      [
        "n",
        -5.792445443771732
      ],
      [
        "▁not",
        -5.807347401867084
      ],
      [
        "▁get",
        -5.822643949163404
      ],
      [
        "▁im",
        -5.830666509100331
      ],
      [
        "▁out",
        -5.88022125410722
      ],
      [
        "▁we",
        -5.892412924359649
      ],
      [
        "▁all",
        -5.9130289361744035
      ],
      [
        "▁if",
        -5.914900678168109
      ],
      [
        "▁time",
        -5.920991205958868
      ],
      [
        "uc",
        -5.938526219401999
      ],
      [
        "▁up",
        -5.939360495275686
      ],
      [
        "▁fro",
        -5.953523674062406
      ],
      [
        "▁friday",
        -5.985642602296198
      ],
      [
        "▁like",
        -6.009159238674532
      ],
      [
        "▁abou",
        -6.014175799666542
      ],
      [
        "▁sunday",
        -6.014568825862284
      ],
      [
        "▁night",
        -6.016867190213897
      ],
      [
        "i",
        -6.024824164491794
      ],
      [
        "ly",
        -6.031735511620344
      ],
      [
        "▁are",
        -6.048184448782985
      ],
      [
        "▁its",
        -6.0642950656245524
      ],
      [
        "▁saturday",
        -6.171238133735518
      ],
      [
        "▁an",
        -6.18710778170896
      ],
      [
        "▁game",
        -6.193853531221042
      ],
      [
        "▁your",
        -6.220960965325162
      ],
      [
        "▁new",
        -6.229378769309101
      ],
      [
        "us",
        -6.239173970341049
      ],
      [
        "▁can",
        -6.2438157390288715
      ],
      [
        "▁nd",
        -6.25105949891631
      ],
      [
        "▁as",
        -6.255908775600074
      ],
      [
        "▁what",
        -6.295409452403458
      ],
      [
        "▁one",
        -6.2970811981483115
      ],
      [
        "▁by",
        -6.315606016251754
      ],
      [
        "on",
        -6.336041970043974
      ],
      [
        "▁want",
        -6.3369640336124755
      ],
      [
        "▁watch",
        -6.363842550971408
      ],
      [
        "▁or",
        -6.369423200358868
      ],
      [
        "▁has",
        -6.405384879534731
      ],
      [
        "▁when",
        -6.41014034629199
      ],
      [
        "▁make",
        -6.425541077973826
      ],
      [
        "▁now",
        -6.457678608848883
      ],
      [
        "▁no",
        -6.458779254589039
      ],
      [
        "r",
        -6.460386644759632
      ],
      [
        "▁do",
        -6.461482694177096
      ],
      [
        "▁his",
        -6.479775498465005
      ],
      [
        "en",
        -6.483896140258006
      ],
      [
        "▁think",
        -6.4969256848518775
      ],
      [
        "▁rd",
        -6.505088230230386
      ],
      [
        "▁come",
        -6.520735920756932
      ],
      [
        "▁us",
        -6.521678479711655
      ],
      [
        "▁monday",
        -6.540227399695204
      ],
      [
        "h",
        -6.544185451003591
      ],
      [
        "▁good",
        -6.562448319056993
      ],
      [
        "▁play",
        -6.566345009783035
      ],
      [
        "▁back",
        -6.5748301429070395
      ],
      [
        "▁they",
        -6.589439848702229
      ],
      [
        "▁know",
        -6.614890902422844
      ],
      [
        "▁today",
        -6.618946692683362
      ],
      [
        "▁thursday",
        -6.620123971285919
      ],
      [
        "▁love",
        -6.632126251144494
      ],
      [
        "▁dont",
        -6.643371590678991
      ],
      [
        "▁u",
        -6.662260946128773
      ],
      [
        "▁last",
        -6.698991810055945
      ],
      [
        "er",
        -6.719069323631097
      ],
      [
        "▁who",
        -6.736242621433824
      ],
      [
        "▁sun",
        -6.74337199084941
      ],
      [
        "▁w",
        -6.753958794739995
      ],
      [
        "▁start",
        -6.782194994291178
      ],
      [
        "▁say",
        -6.783370132857555
      ],
      [
        "▁again",
        -6.786061412421456
      ],
      [
        "▁still",
        -6.786490014503768
      ],
      [
        "▁after",
        -6.7949833311283685
      ],
      [
        "▁b",
        -6.796212857237787
      ],
      [
        "▁more",
        -6.803968387227348
      ],
      [
        "▁she",
        -6.8041882604612445
      ],
      [
        "▁show",
        -6.815831845333106
      ],
      [
        "▁best",
        -6.825559621279571
      ],
      [
        "▁some",
        -6.845379813291771
      ],
      [
        "▁how",
        -6.856540269282961
      ],
      [
        "g",
        -6.863834006177488
      ],
      [
        "▁nex",
        -6.865313480651739
      ],
      [
        "▁am",
        -6.870561022205331
      ],
      [
        "▁there",
        -6.871754916976588
      ],
      [
        "▁cant",
        -6.883874615888542
      ],
      [
        "▁first",
        -6.886120211571169
      ],
      [
        "▁off",
        -6.8916936372065125
      ],
      [
        "▁tonight",
        -6.894921169536402
      ],
      [
        "▁got",
        -6.895026520894472
      ],
      [
        "al",
        -6.8974885722377826
      ],
      [
        "▁world",
        -6.933146962097271
      ],
      [
        "le",
        -6.939892627196238
      ],
      [
        "▁would",
        -6.9537776984986674
      ],
      [
        "▁pm",
        -6.959957868837546
      ],
      [
        "▁great",
        -6.966215719738595
      ],
      [
        "▁down",
        -6.972497100066276
      ],
      [
        "l",
        -6.9734511060879845
      ],
      [
        "▁sat",
        -6.976158137335143
      ],
      [
        "▁need",
        -6.976730119722641
      ],
      [
        "st",
        -6.979307559865439
      ],
      [
        "▁only",
        -6.981146802501327
      ],
      [
        "▁apple",
        -6.981584237951819
      ],
      [
        "▁our",
        -6.982749700522379
      ],
      [
        "▁take",
        -6.990056763509109
      ],
      [
        "▁man",
        -6.990822297685811
      ],
      [
        "▁wait",
        -6.993455888322738
      ],
      [
        "▁tuesday",
        -6.996980279785667
      ],
      [
        "▁look",
        -6.999236547970838
      ],
      [
        "▁then",
        -7.0130193226642
      ],
      [
        "▁over",
        -7.02998832768199
      ],
      [
        "nt",
        -7.03085607818194
      ],
      [
        "▁well",
        -7.032052301245238
      ],
      [
        "▁had",
        -7.034600127947462
      ],
      [
        "▁here",
        -7.038621031593346
      ],
      [
        "▁wednesday",
        -7.045068550167259
      ],
      [
        "▁her",
        -7.0568667150241495
      ],
      [
        "▁amazon",
        -7.05755856189269
      ],
      [
        "▁p",
        -7.087229988764193
      ],
      [
        "▁win",
        -7.088423545221003
      ],
      [
        "▁even",
        -7.096513788166341
      ],
      [
        "▁trump",
        -7.108755014182343
      ],
      [
        "ber",
        -7.109088225836528
      ],
      [
        "or",
        -7.11670046864688
      ],
      [
        "▁work",
        -7.117574652049689
      ],
      [
        "▁right",
        -7.1196206185547375
      ],
      [
        "happy",
        -7.126310481356171
      ],
      [
        "▁did",
        -7.130542700826456
      ],
      [
        "▁season",
        -7.146647234180742
      ],
      [
        "▁live",
        -7.155812151489839
      ],
      [
        "▁big",
        -7.159846660638683
      ],
      [
        "▁than",
        -7.163321133004559
      ],
      [
        "▁al",
        -7.164095142804796
      ],
      [
        "u",
        -7.170713614646207
      ],
      [
        "▁him",
        -7.173681253059925
      ],
      [
        "k",
        -7.183256650555254
      ],
      [
        "c",
        -7.194244739493174
      ],
      [
        "▁should",
        -7.212986542091651
      ],
      [
        "▁why",
        -7.218428137154831
      ],
      [
        "▁were",
        -7.222142380339034
      ],
      [
        "▁ill",
        -7.222560983218128
      ],
      [
        "▁obama",
        -7.2245218910338656
      ],
      [
        "cause",
        -7.242705974372453
      ],
      [
        "▁lol",
        -7.243447815005814
      ],
      [
        "es",
        -7.2526151888423325
      ],
      [
        "▁way",
        -7.255366874400938
      ],
      [
        "▁gonn",
        -7.2620108898152
      ],
      [
        "▁said",
        -7.26467187327433
      ],
      [
        "▁octo",
        -7.266571545390567
      ],
      [
        "▁positive",
        -7.274907590044829
      ],
      [
        "▁morning",
        -7.2754889210506795
      ],
      [
        "▁week",
        -7.290665021404055
      ],
      [
        "▁prime",
        -7.290682970834022
      ],
      [
        "▁hope",
        -7.294468157985943
      ],
      [
        "in",
        -7.296676922464233
      ],
      [
        "▁watching",
        -7.300872896422822
      ],
      [
        "▁david",
        -7.3279753715861835
      ],
      [
        "▁before",
        -7.3280922896101774
      ],
      [
        "▁people",
        -7.3282318437935885
      ],
      [
        "▁google",
        -7.333754110901957
      ],
      [
        "ce",
        -7.333984935728358
      ],
      [
        "▁m",
        -7.339377431495082
      ],
      [
        "▁their",
        -7.344910523760401
      ],
      [
        "▁coming",
        -7.357627517822172
      ],
      [
        "▁much",
        -7.373002105222819
      ],
      [
        "f",
        -7.380309997829403
      ],
      [
        "p",
        -7.384106697147251
      ],
      [
        "▁ever",
        -7.384700683499138
      ],
      [
        "▁miss",
        -7.388887452815753
      ],
      [
        "▁better",
        -7.395751732879597
      ],
      [
        "▁won",
        -7.398658870357303
      ],
      [
        "▁talk",
        -7.407339337780161
      ],
      [
        "▁birthday",
        -7.413377392773326
      ],
      [
        "▁year",
        -7.422893311185111
      ],
      [
        "re",
        -7.423309629655993
      ],
      [
        "▁black",
        -7.431213515174851
      ],
      [
        "w",
        -7.431493708721981
      ],
      [
        "▁star",
        -7.441548171841253
      ],
      [
        "▁school",
        -7.443837903322218
      ],
      [
        "▁could",
        -7.454568961577817
      ],
      [
        "is",
        -7.45848518466692
      ],
      [
        "▁since",
        -7.468275371685662
      ],
      [
        "▁party",
        -7.472678660290939
      ],
      [
        "▁into",
        -7.482386486582383
      ],
      [
        "▁valentine",
        -7.487128780034256
      ],
      [
        "▁ticket",
        -7.4872577567834115
      ],
      [
        "▁team",
        -7.5013512156949815
      ],
      [
        "▁any",
        -7.502069921783873
      ],
      [
        "▁set",
        -7.505518596071153
      ],
      [
        "▁march",
        -7.506989864844085
      ],
      [
        "▁open",
        -7.507112216121342
      ],
      [
        "▁vs",
        -7.513144590577404
      ],
      [
        "▁movie",
        -7.513278312526369
      ],
      [
        "▁september",
        -7.519601546829171
      ],
      [
        "z",
        -7.521100325007696
      ],
      [
        "▁weekend",
        -7.532959483390225
      ],
      [
        "▁november",
        -7.533210921636411
      ],
      [
        "▁home",
        -7.5332656222601075
      ],
      [
        "▁free",
        -7.539290484988636
      ],
      [
        "an",
        -7.542595622118523
      ],
      [
        "▁never",
        -7.542897496531995
      ],
      [
        "▁too",
        -7.546108603378522
      ],
      [
        "▁jur",
        -7.546495032915395
      ],
      [
        "ive",
        -7.5467245280995385
      ],
      [
        "▁same",
        -7.547659413319435
      ],
      [
        "▁r",
        -7.560311087600379
      ],
      [
        "▁real",
        -7.568227890806427
      ],
      [
        "▁does",
        -7.5773870741493985
      ],
      [
        "b",
        -7.577457868876941
      ],
      [
        "assic",
        -7.580806878828074
      ],
      [
        "▁try",
        -7.582244456398296
      ],
      [
        "▁reall",
        -7.590570922108437
      ],
      [
        "ers",
        -7.592805948878197
      ],
      [
        "▁als",
        -7.598543498339026
      ],
      [
        "▁video",
        -7.602254449777665
      ],
      [
        "donald",
        -7.609267391075382
      ],
      [
        "▁event",
        -7.623803663757227
      ],
      [
        "▁f",
        -7.625821284206784
      ],
      [
        "▁place",
        -7.639518742976098
      ],
      [
        "▁excited",
        -7.64010951976363
      ],
      [
        "▁made",
        -7.642570386791163
      ],
      [
        "▁dead",
        -7.653628670965225
      ],
      [
        "▁un",
        -7.65610154314155
      ],
      [
        "▁re",
        -7.661797530903057
      ],
      [
        "▁every",
        -7.6644552228821246
      ],
      [
        "▁episode",
        -7.668810519782146
      ],
      [
        "▁please",
        -7.669747599283493
      ],
      [
        "▁end",
        -7.6860535735553
      ],
      [
        "▁sure",
        -7.687710555942757
      ],
      [
        "▁park",
        -7.690303985691871
      ],
      [
        "▁august",
        -7.692516335732512
      ],
      [
        "▁other",
        -7.697729715424315
      ],
      [
        "est",
        -7.706529323771042
      ],
      [
        "▁chelsea",
        -7.7078777889848284
      ],
      [
        "▁chris",
        -7.708822462651494
      ],
      [
        "▁fuck",
        -7.711698855934201
      ],
      [
        "▁give",
        -7.712520658340566
      ],
      [
        "▁run",
        -7.72375437587087
      ],
      [
        "ll",
        -7.73097552810957
      ],
      [
        "▁top",
        -7.73651187742048
      ],
      [
        "▁check",
        -7.740996478200695
      ],
      [
        "▁long",
        -7.741195272196154
      ],
      [
        "▁iphone",
        -7.749138858856755
      ],
      [
        "ting",
        -7.751758433073647
      ],
      [
        "ve",
        -7.753195579936174
      ],
      [
        "▁call",
        -7.753201259500196
      ],
      [
        "▁two",
        -7.757218978434942
      ],
      [
        "▁them",
        -7.759059430946653
      ],
      [
        "▁beat",
        -7.7624098050503365
      ],
      [
        "▁nov",
        -7.763334112024633
      ],
      [
        "ment",
        -7.768779379034029
      ],
      [
        "ies",
        -7.771517216100519
      ],
      [
        "▁january",
        -7.7737449552005815
      ],
      [
        "▁ready",
        -7.779580425008331
      ],
      [
        "▁old",
        -7.782578679872198
      ],
      [
        "▁life",
        -7.792401802700897
      ],
      [
        "▁where",
        -7.80653033663798
      ],
      [
        "▁president",
        -7.810476599136786
      ],
      [
        "▁didn",
        -7.8139624373156
      ],
      [
        "▁release",
        -7.818035919057613
      ],
      [
        "out",
        -7.820418537500456
      ],
      [
        "▁most",
        -7.820910586763353
      ],
      [
        "▁anyone",
        -7.835529303489888
      ],
      [
        "▁meet",
        -7.8378107599028555
      ],
      [
        "▁neutral",
        -7.844258168573082
      ],
      [
        "▁galax",
        -7.844362875009874
      ],
      [
        "▁beach",
        -7.844420098393088
      ],
      [
        "▁join",
        -7.844432486366938
      ],
      [
        "▁michael",
        -7.844939478266778
      ],
      [
        "▁concert",
        -7.852432423963447
      ],
      [
        "▁$",
        -7.852798237500996
      ],
      [
        "▁everyone",
        -7.853616038676957
      ],
      [
        "▁digi",
        -7.863445190319908
      ],
      [
        "▁sign",
        -7.86627542664158
      ],
      [
        "ion",
        -7.86753393192172
      ],
      [
        "▁arsenal",
        -7.871995872898917
      ],
      [
        "▁news",
        -7.872456668376028
      ],
      [
        "▁g",
        -7.8727249632508345
      ],
      [
        "▁tell",
        -7.873269738898945
      ],
      [
        "very",
        -7.879085502232522
      ],
      [
        "▁half",
        -7.881674379194821
      ],
      [
        "▁listen",
        -7.882041874029133
      ],
      [
        "▁city",
        -7.88450541214406
      ],
      [
        "▁december",
        -7.890995322002385
      ],
      [
        "▁through",
        -7.89100069390212
      ],
      [
        "anna",
        -7.896999645075186
      ],
      [
        "ity",
        -7.897198608224468
      ],
      [
        "▁rick",
        -7.897355890125755
      ],
      [
        "ntil",
        -7.897787297879001
      ],
      [
        "▁con",
        -7.8987172582511755
      ],
      [
        "▁support",
        -7.899806364404061
      ],
      [
        "▁taylor",
        -7.900610714905456
      ],
      [
        "▁disneyland",
        -7.900652682651339
      ],
      [
        "▁window",
        -7.9008667906217385
      ],
      [
        "▁follow",
        -7.9018031348047115
      ],
      [
        "▁v",
        -7.904159346621364
      ],
      [
        "▁ask",
        -7.907409606736856
      ],
      [
        "▁teen",
        -7.909268817771392
      ],
      [
        "▁find",
        -7.9105489243722555
      ],
      [
        "▁note",
        -7.919594798030953
      ],
      [
        "▁let",
        -7.919997931487996
      ],
      [
        "▁saw",
        -7.920443641973358
      ],
      [
        "▁might",
        -7.920550813127758
      ],
      [
        "▁july",
        -7.920754083611051
      ],
      [
        "▁thought",
        -7.924334024293026
      ],
      [
        "+",
        -7.928429598725322
      ],
      [
        "▁ipad",
        -7.9300341609638645
      ],
      [
        "▁barca",
        -7.9301558378631345
      ],
      [
        "ready",
        -7.932274534071215
      ],
      [
        "▁c",
        -7.933679986716821
      ],
      [
        "▁shit",
        -7.938957619080071
      ],
      [
        "▁little",
        -7.940038794599499
      ],
      [
        "▁ma",
        -7.940187454645654
      ],
      [
        "▁perry",
        -7.940272333340436
      ],
      [
        "▁joe",
        -7.942273164448349
      ],
      [
        "▁bring",
        -7.943194060125546
      ],
      [
        "▁read",
        -7.945548523852709
      ],
      [
        "▁thing",
        -7.946111513434336
      ],
      [
        "▁oct",
        -7.946935956530933
      ],
      [
        "▁which",
        -7.9511921796972445
      ],
      [
        "▁feel",
        -7.954087486511896
      ],
      [
        "▁justin",
        -7.959892752724714
      ],
      [
        "▁face",
        -7.964401422352678
      ],
      [
        "▁football",
        -7.96450887869322
      ],
      [
        "▁tiger",
        -7.971258810235742
      ],
      [
        "▁phone",
        -7.97212103616931
      ],
      [
        "▁remember",
        -7.973115608348525
      ],
      [
        "▁guys",
        -7.9757418253462395
      ],
      [
        "▁hes",
        -7.9758997525814035
      ],
      [
        "▁state",
        -7.976860802372079
      ],
      [
        "▁album",
        -7.9811188449703385
      ],
      [
        "▁final",
        -7.988471097137209
      ],
      [
        "other",
        -7.990508204902456
      ],
      [
        "▁harper",
        -7.991596553365845
      ],
      [
        "▁harry",
        -7.992112945876609
      ],
      [
        "▁parade",
        -7.992114342141443
      ],
      [
        "▁thank",
        -7.997807425357592
      ],
      [
        "▁mean",
        -7.99966842793727
      ],
      [
        "▁help",
        -8.002427766589655
      ],
      [
        "▁h",
        -8.007863362641547
      ],
      [
        "▁brown",
        -8.009671740337806
      ],
      [
        "▁grade",
        -8.010326383599299
      ],
      [
        "▁church",
        -8.013165627655429
      ],
      [
        "▁break",
        -8.015630835222844
      ],
      [
        "▁netflix",
        -8.023842243862592
      ],
      [
        "▁something",
        -8.02389326076862
      ],
      [
        "▁earl",
        -8.02428620214253
      ],
      [
        "▁bush",
        -8.024574276574086
      ],
      [
        "▁head",
        -8.026029702049538
      ],
      [
        "▁vote",
        -8.034704716894696
      ],
      [
        "▁labor",
        -8.035135639310791
      ],
      [
        "▁done",
        -8.036827758362822
      ],
      [
        "▁deal",
        -8.041817865611307
      ],
      [
        "▁girl",
        -8.043828972460716
      ],
      [
        "▁swift",
        -8.04594281543315
      ],
      [
        "be",
        -8.046006825116727
      ],
      [
        "▁point",
        -8.047389232334051
      ],
      [
        "▁mac",
        -8.048695496595398
      ],
      [
        "▁house",
        -8.050554807015217
      ],
      [
        "▁hell",
        -8.05202245479989
      ],
      [
        "th",
        -8.053659932132534
      ],
      [
        "▁doesn",
        -8.056234135262972
      ],
      [
        "▁keep",
        -8.058343863110261
      ],
      [
        "▁ted",
        -8.062215493806354
      ],
      [
        "▁years",
        -8.062722322962198
      ],
      [
        "▁looks",
        -8.063666309025095
      ],
      [
        "▁bob",
        -8.06835410590921
      ],
      [
        "▁la",
        -8.070701463488266
      ],
      [
        "▁gra",
        -8.070721912796992
      ],
      [
        "▁fun",
        -8.078443880759373
      ],
      [
        "▁tv",
        -8.078664128001758
      ],
      [
        "▁happen",
        -8.080036231685277
      ],
      [
        "▁left",
        -8.080238553732968
      ],
      [
        "self",
        -8.080321507240372
      ],
      [
        "▁woods",
        -8.080988288678803
      ],
      [
        "▁tory",
        -8.082554523351426
      ],
      [
        "while",
        -8.088672654257397
      ],
      [
        "x",
        -8.088795818295402
      ],
      [
        "obil",
        -8.090659701203446
      ],
      [
        "able",
        -8.091798707483491
      ],
      [
        "▁wolf",
        -8.092198260131628
      ],
      [
        "▁put",
        -8.095402278952003
      ],
      [
        "▁hit",
        -8.097336835820972
      ],
      [
        "▁away",
        -8.098276117106693
      ],
      [
        "ation",
        -8.098596841420637
      ],
      [
        "▁change",
        -8.098715124159742
      ],
      [
        "▁tm",
        -8.100464863237445
      ],
      [
        "ward",
        -8.102062153884601
      ],
      [
        "▁hannibal",
        -8.103647196267287
      ],
      [
        "▁fans",
        -8.104085356487875
      ],
      [
        "▁yet",
        -8.105095765622652
      ],
      [
        "▁bill",
        -8.107606682099165
      ],
      [
        "▁wars",
        -8.10811835004614
      ],
      [
        "▁though",
        -8.10989807450089
      ],
      [
        "▁thanks",
        -8.110447635160844
      ],
      [
        "▁post",
        -8.112216351566857
      ],
      [
        "▁madonna",
        -8.115333872265044
      ],
      [
        "▁mike",
        -8.115384095380161
      ],
      [
        "▁biden",
        -8.115843020729539
      ],
      [
        "▁book",
        -8.117027170942855
      ],
      [
        "▁oh",
        -8.12221258073269
      ],
      [
        "▁round",
        -8.123657444122038
      ],
      [
        "▁match",
        -8.12637750977864
      ],
      [
        "▁jackson",
        -8.12740467195043
      ],
      [
        "▁wen",
        -8.127769538614327
      ],
      [
        "▁someone",
        -8.127885676781027
      ],
      [
        "▁pope",
        -8.129020322245008
      ],
      [
        "▁dur",
        -8.130067078411582
      ],
      [
        "ton",
        -8.132549452382325
      ],
      [
        "▁tom",
        -8.136085041652013
      ],
      [
        "▁minecraft",
        -8.139577730760855
      ],
      [
        "▁cameron",
        -8.139581948456062
      ],
      [
        "▁jindal",
        -8.139797712761842
      ],
      [
        "▁hillary",
        -8.139818549400644
      ],
      [
        "▁wish",
        -8.14108827281325
      ],
      [
        "▁doing",
        -8.141262087584895
      ],
      [
        "▁x",
        -8.147039416866953
      ],
      [
        "▁being",
        -8.150365621525236
      ],
      [
        "▁nintendo",
        -8.151922579277038
      ],
      [
        "▁marley",
        -8.151980576930303
      ],
      [
        "▁beckham",
        -8.15215398706141
      ],
      [
        "▁music",
        -8.15286841399704
      ],
      [
        "▁finish",
        -8.154233832948389
      ],
      [
        "▁bad",
        -8.154421036696949
      ],
      [
        "▁both",
        -8.157387220821446
      ],
      [
        "wood",
        -8.16374800603857
      ],
      [
        "▁merkel",
        -8.164422596385583
      ],
      [
        "▁cruise",
        -8.164587600080095
      ],
      [
        "▁bobby",
        -8.164798374393804
      ],
      [
        "▁sound",
        -8.165084363325928
      ],
      [
        "▁messi",
        -8.165509725990269
      ],
      [
        "▁prett",
        -8.165665808055516
      ],
      [
        "ride",
        -8.166872896644286
      ],
      [
        "ose",
        -8.172285451098773
      ],
      [
        "till",
        -8.173747530662574
      ],
      [
        "▁angel",
        -8.177061108205189
      ],
      [
        "▁mariah",
        -8.177114260989025
      ],
      [
        "▁jeb",
        -8.177206133242347
      ],
      [
        "▁magic",
        -8.177867367103845
      ],
      [
        "▁nike",
        -8.180461783986754
      ],
      [
        "▁part",
        -8.184461859481729
      ],
      [
        "▁class",
        -8.186040912313949
      ],
      [
        "▁lex",
        -8.186785307846051
      ],
      [
        "ative",
        -8.186793533027998
      ],
      [
        "▁ball",
        -8.187238787829578
      ],
      [
        "▁tsipras",
        -8.189901319386083
      ],
      [
        "▁potter",
        -8.18992199390578
      ],
      [
        "▁monsanto",
        -8.190131392173841
      ],
      [
        "▁veni",
        -8.190275337701191
      ],
      [
        "▁super",
        -8.19122663261524
      ],
      [
        "▁date",
        -8.192500281525328
      ],
      [
        "▁yes",
        -8.19585751189285
      ],
      [
        "▁carey",
        -8.195998091718476
      ],
      [
        "▁nokia",
        -8.202892199086705
      ],
      [
        "▁mcgregor",
        -8.20289481068092
      ],
      [
        "▁white",
        -8.202898447449538
      ],
      [
        "▁k",
        -8.202905414854342
      ],
      [
        "▁actual",
        -8.203064879152866
      ],
      [
        "▁film",
        -8.203192702265227
      ],
      [
        "id",
        -8.20324226228377
      ],
      [
        "▁stay",
        -8.203582179674841
      ],
      [
        "▁kerry",
        -8.203682134020664
      ],
      [
        "▁league",
        -8.203844149294554
      ],
      [
        "▁buy",
        -8.207069329340605
      ],
      [
        "▁late",
        -8.215129675449194
      ],
      [
        "▁snoop",
        -8.216046242184483
      ],
      [
        "▁juventus",
        -8.216046315096534
      ],
      [
        "▁parenthood",
        -8.216052586043835
      ],
      [
        "▁ukip",
        -8.21605674824866
      ],
      [
        "▁xbox",
        -8.216072725312142
      ],
      [
        "▁cmon",
        -8.216287758027075
      ],
      [
        "▁lets",
        -8.216843960524045
      ],
      [
        "▁green",
        -8.217101074200375
      ],
      [
        "ure",
        -8.217421452325128
      ],
      [
        "▁goal",
        -8.217576067819184
      ],
      [
        "ally",
        -8.221864439805916
      ],
      [
        "v",
        -8.22327483496577
      ],
      [
        "▁god",
        -8.223617566882938
      ],
      [
        "ic",
        -8.225661054562945
      ],
      [
        "▁high",
        -8.228129963546364
      ],
      [
        "▁under",
        -8.229433386500778
      ],
      [
        "▁john",
        -8.22951738982265
      ],
      [
        "▁throne",
        -8.229647549328472
      ],
      [
        "▁dogg",
        -8.230015520334081
      ],
      [
        "▁around",
        -8.230131994207163
      ],
      [
        "▁oracle",
        -8.243133305539224
      ],
      [
        "▁sony",
        -8.24588642783368
      ],
      [
        "▁walk",
        -8.246482491409655
      ],
      [
        "▁lot",
        -8.249880361340043
      ],
      [
        "▁move",
        -8.25076799842972
      ],
      [
        "▁sara",
        -8.251908366917391
      ],
      [
        "▁zlatan",
        -8.256591768276
      ],
      [
        "▁enjoy",
        -8.256591801307756
      ],
      [
        "▁halloween",
        -8.256593580780772
      ],
      [
        "▁metlife",
        -8.256601629493295
      ],
      [
        "▁michel",
        -8.256844033664452
      ],
      [
        "▁things",
        -8.257125731260723
      ],
      [
        "▁always",
        -8.257670933687361
      ],
      [
        "▁theres",
        -8.25944543128804
      ],
      [
        "▁pick",
        -8.260186679379729
      ],
      [
        "▁close",
        -8.264379063917534
      ],
      [
        "▁tak",
        -8.267954850841098
      ],
      [
        "and",
        -8.268238291288446
      ],
      [
        "▁scot",
        -8.27109744476554
      ],
      [
        "▁turn",
        -8.27206238134552
      ],
      [
        "▁lead",
        -8.27304653374025
      ],
      [
        "▁federer",
        -8.273272960934836
      ],
      [
        "▁use",
        -8.277741636765036
      ],
      [
        "▁announce",
        -8.282672739988541
      ],
      [
        "▁jun",
        -8.283715714693017
      ],
      [
        "▁ric",
        -8.283996456842686
      ],
      [
        "▁neg",
        -8.285085776906145
      ],
      [
        "▁tweet",
        -8.285222081272336
      ],
      [
        "ar",
        -8.292900950032998
      ],
      [
        "▁stop",
        -8.293189640588029
      ],
      [
        "▁red",
        -8.296675599404235
      ],
      [
        "▁flair",
        -8.298931074993082
      ],
      [
        "▁probabl",
        -8.299033799031855
      ],
      [
        "▁name",
        -8.299732010506652
      ],
      [
        "▁hav",
        -8.303099497563213
      ],
      [
        "▁came",
        -8.303785308091356
      ],
      [
        "▁hear",
        -8.31270373765575
      ],
      [
        "▁palin",
        -8.313435613549242
      ],
      [
        "▁few",
        -8.313543515362532
      ],
      [
        "teful",
        -8.313631105311746
      ],
      [
        "▁jayz",
        -8.31366594909481
      ],
      [
        "▁wonder",
        -8.314166488055534
      ],
      [
        "▁eric",
        -8.314604016117158
      ],
      [
        "▁friends",
        -8.317581972768771
      ],
      [
        "ok",
        -8.324647551272003
      ],
      [
        "▁mak",
        -8.32574917251094
      ],
      [
        "▁update",
        -8.326851937074172
      ],
      [
        "▁plan",
        -8.32755849513432
      ],
      [
        "age",
        -8.327975723286407
      ],
      [
        "▁seinfeld",
        -8.328049450299414
      ],
      [
        "▁tgif",
        -8.328078489201491
      ],
      [
        "▁believe",
        -8.328150318662022
      ],
      [
        "▁nice",
        -8.328502089964097
      ],
      [
        "▁hi",
        -8.328790939979276
      ],
      [
        "▁finally",
        -8.331305167711417
      ],
      [
        "▁song",
        -8.336346427067285
      ],
      [
        "▁speak",
        -8.340046672906965
      ],
      [
        "▁erdogan",
        -8.342974824275627
      ],
      [
        "▁fleet",
        -8.343773990552668
      ],
      [
        "▁car",
        -8.343814362795522
      ],
      [
        "ary",
        -8.348174335296456
      ],
      [
        "▁rock",
        -8.352028641997782
      ],
      [
        "▁club",
        -8.353761157676566
      ],
      [
        "▁bc",
        -8.354814374539867
      ],
      [
        "▁minute",
        -8.35812885107568
      ],
      [
        "▁de",
        -8.358373646374908
      ],
      [
        "▁order",
        -8.35864192189722
      ],
      [
        "▁+",
        -8.360578159647282
      ],
      [
        "day",
        -8.360840642110492
      ],
      [
        "ness",
        -8.362759512295476
      ],
      [
        "▁mom",
        -8.363774824240611
      ],
      [
        "▁guy",
        -8.366814087810635
      ],
      [
        "▁wear",
        -8.37012749131852
      ],
      [
        "▁chance",
        -8.373540831056776
      ],
      [
        "▁special",
        -8.373624219903682
      ],
      [
        "ether",
        -8.37551304794383
      ],
      [
        "een",
        -8.379093656770586
      ],
      [
        "▁hey",
        -8.380808533646734
      ],
      [
        "▁line",
        -8.381119595081675
      ],
      [
        "▁acdc",
        -8.389138142667647
      ],
      [
        "▁return",
        -8.38915960608724
      ],
      [
        "▁xxl",
        -8.389546094572179
      ],
      [
        "it",
        -8.390611321331292
      ],
      [
        "▁fact",
        -8.390744592919729
      ],
      [
        "ium",
        -8.393905257058453
      ],
      [
        "▁sept",
        -8.39520990782129
      ],
      [
        "▁sting",
        -8.395254690933786
      ],
      [
        "▁haha",
        -8.403540374553044
      ],
      [
        "▁friend",
        -8.40430905277
      ],
      [
        "▁edge",
        -8.405072121961567
      ],
      [
        "▁james",
        -8.405604323416753
      ],
      [
        "▁yeah",
        -8.409963555170863
      ],
      [
        "▁tour",
        -8.414127097812901
      ],
      [
        "▁cause",
        -8.414515661168519
      ],
      [
        "▁pass",
        -8.41687554950219
      ],
      [
        "▁pay",
        -8.42022166258802
      ],
      [
        "▁ok",
        -8.423255730378907
      ],
      [
        "▁race",
        -8.425802002798529
      ],
      [
        "▁uk",
        -8.435714124421462
      ],
      [
        "▁second",
        -8.43753812648572
      ],
      [
        "▁amazing",
        -8.43783187106831
      ],
      [
        "▁stream",
        -8.438469605552932
      ],
      [
        "▁united",
        -8.438734239533968
      ],
      [
        "▁true",
        -8.440789374925076
      ],
      [
        "▁score",
        -8.442108320916212
      ],
      [
        "▁rod",
        -8.442895725043472
      ],
      [
        "▁fan",
        -8.44796683181858
      ],
      [
        "▁cup",
        -8.448440553790288
      ],
      [
        "ish",
        -8.448615403593042
      ],
      [
        "up",
        -8.45249543475677
      ],
      [
        "▁cool",
        -8.454281949879306
      ],
      [
        "▁kur",
        -8.464554562771411
      ],
      [
        "▁heard",
        -8.465104940760334
      ],
      [
        "▁hate",
        -8.467120579055567
      ],
      [
        "▁yesterday",
        -8.471147327234533
      ],
      [
        "▁samsung",
        -8.47114832191156
      ],
      [
        "▁catch",
        -8.47141819913276
      ],
      [
        "▁seem",
        -8.472038918819997
      ],
      [
        "▁job",
        -8.472106188311912
      ],
      [
        "▁election",
        -8.472546933784209
      ],
      [
        "▁series",
        -8.473637491436588
      ],
      [
        "▁hard",
        -8.474020750675724
      ],
      [
        "▁care",
        -8.475158012177342
      ],
      [
        "▁dr",
        -8.475412882946529
      ],
      [
        "ful",
        -8.476124894753763
      ],
      [
        "▁far",
        -8.476190498529997
      ],
      [
        "▁planne",
        -8.48545446689634
      ],
      [
        "to",
        -8.488420107906123
      ],
      [
        "▁pro",
        -8.492250636387961
      ],
      [
        "▁forget",
        -8.493109732218654
      ],
      [
        "▁leave",
        -8.494039044366946
      ],
      [
        "▁di",
        -8.495620958049418
      ],
      [
        "▁kind",
        -8.500680829335034
      ],
      [
        "▁force",
        -8.5022910242669
      ],
      [
        "▁los",
        -8.503613818652065
      ],
      [
        "less",
        -8.503639837427734
      ],
      [
        "▁fight",
        -8.503668117093907
      ],
      [
        "▁batman",
        -8.505955025135476
      ],
      [
        "ight",
        -8.506272851367665
      ],
      [
        "▁must",
        -8.50642737194801
      ],
      [
        "▁center",
        -8.506434860710824
      ],
      [
        "co",
        -8.507266634336776
      ],
      [
        "▁games",
        -8.508716628923697
      ],
      [
        "▁|",
        -8.509439402524265
      ],
      [
        "▁boy",
        -8.513194353098363
      ],
      [
        "▁hours",
        -8.515537064816037
      ],
      [
        "▁own",
        -8.524397172010442
      ],
      [
        "▁interest",
        -8.52542000242088
      ],
      [
        "▁fair",
        -8.526354536726064
      ],
      [
        "▁mo",
        -8.528193560606953
      ],
      [
        "man",
        -8.531881717019388
      ],
      [
        "▁gott",
        -8.532276829841983
      ],
      [
        "▁soon",
        -8.533939964293335
      ],
      [
        "▁found",
        -8.53610818108083
      ],
      [
        "▁expect",
        -8.540681603911828
      ],
      [
        "ought",
        -8.541838025843578
      ],
      [
        "anniversary",
        -8.541971764425318
      ],
      [
        "▁omg",
        -8.542077878655412
      ],
      [
        "▁cry",
        -8.543554312655948
      ],
      [
        "▁days",
        -8.547791750749726
      ],
      [
        "all",
        -8.554227718123977
      ],
      [
        "line",
        -8.555246475531662
      ],
      [
        "▁perform",
        -8.560451185727448
      ],
      [
        "▁reason",
        -8.560491655478002
      ],
      [
        "▁title",
        -8.560493143739519
      ],
      [
        "▁cobain",
        -8.560495030845864
      ],
      [
        "▁record",
        -8.560504135958713
      ],
      [
        "▁holiday",
        -8.56083630723882
      ],
      [
        "▁bar",
        -8.560962533159074
      ],
      [
        "▁test",
        -8.561973463144003
      ],
      [
        "ull",
        -8.564335304537767
      ],
      [
        "▁add",
        -8.56468655860256
      ],
      [
        "▁american",
        -8.56512344491401
      ],
      [
        "ch",
        -8.566220672886342
      ],
      [
        "▁whole",
        -8.56667620132052
      ],
      [
        "ham",
        -8.57419804725923
      ],
      [
        "▁rest",
        -8.577006931411587
      ],
      [
        "▁campaign",
        -8.579357929206203
      ],
      [
        "▁money",
        -8.579597323540492
      ],
      [
        "▁women",
        -8.579724450816068
      ],
      [
        "▁jan",
        -8.57994869258874
      ],
      [
        "▁hot",
        -8.58345558893021
      ],
      [
        "▁dec",
        -8.589221498507943
      ],
      [
        "▁full",
        -8.592906795384078
      ],
      [
        "▁aug",
        -8.597590821381448
      ],
      [
        "▁college",
        -8.598588679353231
      ],
      [
        "▁april",
        -8.599449293328073
      ],
      [
        "▁cu",
        -8.603023671402013
      ],
      [
        "▁sad",
        -8.604791198472329
      ],
      [
        "more",
        -8.61133521360949
      ],
      [
        "▁kick",
        -8.615040815433707
      ],
      [
        "▁pre",
        -8.617200351116724
      ],
      [
        "▁fall",
        -8.617577574501912
      ],
      [
        "▁agree",
        -8.617729245850573
      ],
      [
        "▁called",
        -8.618160433813406
      ],
      [
        "▁question",
        -8.61819828162622
      ],
      [
        "▁nfl",
        -8.618200025778641
      ],
      [
        "▁betw",
        -8.619078008913387
      ],
      [
        "ian",
        -8.6198399030332
      ],
      [
        "▁due",
        -8.622399488379326
      ],
      [
        "ely",
        -8.623616908416844
      ],
      [
        "▁report",
        -8.624695630526821
      ],
      [
        "▁luck",
        -8.624890760428007
      ],
      [
        "hind",
        -8.628541437605541
      ],
      [
        "▁l",
        -8.629022955199245
      ],
      [
        "▁player",
        -8.629221363552066
      ],
      [
        "▁en",
        -8.629626219307577
      ],
      [
        "um",
        -8.632203614452726
      ],
      [
        "▁stuff",
        -8.638577946136596
      ],
      [
        "▁sorry",
        -8.638689026380035
      ],
      [
        "▁host",
        -8.639173415551536
      ],
      [
        "▁mad",
        -8.641507531505312
      ],
      [
        "▁ipo",
        -8.64343059565928
      ],
      [
        "▁bit",
        -8.644450393631288
      ],
      [
        "▁national",
        -8.644849137625386
      ],
      [
        "▁york",
        -8.64731328679639
      ],
      [
        "▁leader",
        -8.652684115961785
      ],
      [
        "▁drop",
        -8.653385767456651
      ],
      [
        "▁sit",
        -8.657689237097337
      ],
      [
        "▁awesome",
        -8.658958023248934
      ],
      [
        "▁everything",
        -8.658970956850164
      ],
      [
        "▁sleep",
        -8.66360078895971
      ],
      [
        "told",
        -8.66529631590123
      ],
      [
        "board",
        -8.665616510401287
      ],
      [
        "▁<",
        -8.665627298114233
      ],
      [
        "▁band",
        -8.668910307223173
      ],
      [
        "head",
        -8.67419109363474
      ],
      [
        "▁visit",
        -8.6784558289119
      ],
      [
        "▁dinner",
        -8.679443791810797
      ],
      [
        "dallas",
        -8.679462035358338
      ],
      [
        "▁family",
        -8.679793725760549
      ],
      [
        "▁mar",
        -8.68003795941057
      ],
      [
        "▁person",
        -8.680667924337099
      ],
      [
        "▁case",
        -8.681044324544263
      ],
      [
        "▁story",
        -8.682188059891537
      ],
      [
        "▁photo",
        -8.682574857753117
      ],
      [
        "▁act",
        -8.682702472983232
      ],
      [
        "most",
        -8.686492972534438
      ],
      [
        "▁cover",
        -8.68786582882037
      ],
      [
        "▁word",
        -8.688361692426225
      ],
      [
        "▁availab",
        -8.690193796711604
      ],
      [
        "▁hold",
        -8.69429843692559
      ],
      [
        "▁wrong",
        -8.700717070359245
      ],
      [
        "ry",
        -8.70671363860396
      ],
      [
        "▁bri",
        -8.710296206387346
      ],
      [
        "▁america",
        -8.71906960898198
      ],
      [
        "▁fail",
        -8.72261634860271
      ],
      [
        "▁running",
        -8.72266416550057
      ],
      [
        "nut",
        -8.722705273883543
      ],
      [
        "▁winning",
        -8.722780443263728
      ],
      [
        "▁drive",
        -8.722873314596795
      ],
      [
        "▁plus",
        -8.723689484423293
      ],
      [
        "▁gold",
        -8.724135201406202
      ],
      [
        "▁once",
        -8.725277157489854
      ],
      [
        "▁air",
        -8.726550747935207
      ],
      [
        "▁room",
        -8.72674802033458
      ],
      [
        "▁share",
        -8.726839308336865
      ],
      [
        "▁histor",
        -8.73438677634207
      ],
      [
        "ough",
        -8.737136711106817
      ],
      [
        "▁lad",
        -8.737694711552798
      ],
      [
        "▁link",
        -8.738359793811215
      ],
      [
        "▁ben",
        -8.738634641568703
      ],
      [
        "▁da",
        -8.73957922569604
      ],
      [
        "▁lea",
        -8.742864057689811
      ],
      [
        "▁strong",
        -8.743853436312408
      ],
      [
        "▁christmas",
        -8.74467613203789
      ],
      [
        "▁interview",
        -8.744677789985316
      ],
      [
        "▁number",
        -8.744716070735098
      ],
      [
        "▁dream",
        -8.745078882344453
      ],
      [
        "▁law",
        -8.752553866600707
      ],
      [
        "lost",
        -8.753035944870506
      ],
      [
        "▁ya",
        -8.758451248750056
      ],
      [
        "▁sell",
        -8.759274733176447
      ],
      [
        "▁launch",
        -8.76036872063759
      ],
      [
        "ke",
        -8.762504001991218
      ],
      [
        "▁kill",
        -8.763425723107613
      ],
      [
        "j",
        -8.764940499841417
      ],
      [
        "▁j",
        -8.765441853953925
      ],
      [
        "▁polic",
        -8.767160463605494
      ],
      [
        "▁february",
        -8.767403241630726
      ],
      [
        "▁hotel",
        -8.767549737241506
      ],
      [
        "▁else",
        -8.767639243377804
      ],
      [
        "▁patrick",
        -8.767819178154799
      ],
      [
        "▁co",
        -8.769329357488933
      ],
      [
        "▁shot",
        -8.769899691190295
      ],
      [
        "▁pic",
        -8.77071052557233
      ],
      [
        "▁trip",
        -8.772262881776053
      ],
      [
        "▁mark",
        -8.777030815995936
      ],
      [
        "▁del",
        -8.777260442539607
      ],
      [
        "ous",
        -8.779739319176716
      ],
      [
        "▁card",
        -8.781412697088898
      ],
      [
        "▁sing",
        -8.786539838541506
      ],
      [
        "▁disney",
        -8.79061347371168
      ],
      [
        "▁surprise",
        -8.790659656610057
      ],
      [
        "▁answer",
        -8.790661313176853
      ],
      [
        "▁spot",
        -8.790684560533911
      ],
      [
        "▁country",
        -8.79075589012179
      ],
      [
        "▁issue",
        -8.79075804008767
      ],
      [
        "▁app",
        -8.79179552157035
      ],
      [
        "▁dance",
        -8.792008696766912
      ],
      [
        "▁gone",
        -8.794152379098865
      ],
      [
        "▁practice",
        -8.794520813695707
      ],
      [
        "if",
        -8.794762563675988
      ],
      [
        "▁id",
        -8.795493674151238
      ],
      [
        "side",
        -8.796214887953298
      ],
      [
        "▁west",
        -8.797410516657722
      ],
      [
        "▁able",
        -8.7977376895453
      ],
      [
        "▁fri",
        -8.802044664936465
      ],
      [
        "▁brit",
        -8.805351003588221
      ],
      [
        "▁ten",
        -8.807192442007253
      ],
      [
        "gers",
        -8.809069087363826
      ],
      [
        "▁store",
        -8.813781261239583
      ],
      [
        "▁stra",
        -8.81407716229257
      ],
      [
        "▁media",
        -8.81466320917518
      ],
      [
        "▁labour",
        -8.814880533595462
      ],
      [
        "▁perfect",
        -8.814943852684394
      ],
      [
        "▁plann",
        -8.815770938781213
      ],
      [
        "▁celebrate",
        -8.815782599854849
      ],
      [
        "▁king",
        -8.817034323307938
      ],
      [
        "ashi",
        -8.821655526779796
      ],
      [
        "▁stage",
        -8.82281535474332
      ],
      [
        "▁na",
        -8.830328218342846
      ],
      [
        "▁hand",
        -8.831097730477197
      ],
      [
        "ter",
        -8.832487291279739
      ],
      [
        "ial",
        -8.833297741597498
      ],
      [
        "▁international",
        -8.838859652582478
      ],
      [
        "▁guess",
        -8.838865084330042
      ],
      [
        "▁times",
        -8.83886574274557
      ],
      [
        "▁twitter",
        -8.839268065689861
      ],
      [
        "▁afternoon",
        -8.839270547573348
      ],
      [
        "▁damn",
        -8.839763221219766
      ],
      [
        "▁single",
        -8.839834350469083
      ],
      [
        "▁wow",
        -8.841075087888537
      ],
      [
        "▁worth",
        -8.842125863656603
      ],
      [
        "ard",
        -8.843462897803684
      ],
      [
        "▁dad",
        -8.846684828656235
      ],
      [
        "▁hour",
        -8.850670081107685
      ],
      [
        "▁girls",
        -8.851633710405466
      ],
      [
        "▁sale",
        -8.853854843631868
      ],
      [
        "▁means",
        -8.854490100742922
      ],
      [
        "▁sa",
        -8.854785528620834
      ],
      [
        "▁meeting",
        -8.859989428388117
      ],
      [
        "▁grand",
        -8.862574360759819
      ],
      [
        "▁download",
        -8.864306440685864
      ],
      [
        "▁amendment",
        -8.86449222187575
      ],
      [
        "▁jose",
        -8.86514666975937
      ],
      [
        "▁list",
        -8.866264609724354
      ],
      [
        "▁se",
        -8.867255846640008
      ],
      [
        "way",
        -8.869932418289276
      ],
      [
        "▁press",
        -8.87061527576389
      ],
      [
        "▁side",
        -8.870917958874307
      ],
      [
        "▁missed",
        -8.871954261672
      ],
      [
        "▁roll",
        -8.873113801280917
      ],
      [
        "▁month",
        -8.875575457677654
      ],
      [
        "▁wors",
        -8.876914281716846
      ],
      [
        "▁ca",
        -8.883432957642162
      ],
      [
        "▁blood",
        -8.889584289878698
      ],
      [
        "▁four",
        -8.88968376572428
      ],
      [
        "▁coffee",
        -8.889834210536659
      ],
      [
        "▁near",
        -8.890003891982683
      ],
      [
        "▁official",
        -8.890919951672899
      ],
      [
        "▁summer",
        -8.891017891507456
      ],
      [
        "▁bowl",
        -8.891041264454909
      ],
      [
        "▁debate",
        -8.892469573197042
      ],
      [
        "▁power",
        -8.892782074918255
      ],
      [
        "▁welcome",
        -8.893741609039093
      ],
      [
        "▁mind",
        -8.894651943295301
      ],
      [
        "▁gop",
        -8.900382397401344
      ],
      [
        "ier",
        -8.909265564866772
      ],
      [
        "▁shin",
        -8.912075350044187
      ],
      [
        "cer",
        -8.914623286286117
      ],
      [
        "▁serena",
        -8.915815957181042
      ],
      [
        "▁problem",
        -8.915817390058116
      ],
      [
        "▁saving",
        -8.915821541616872
      ],
      [
        "▁championship",
        -8.915882834777536
      ],
      [
        "▁coach",
        -8.91620172708262
      ],
      [
        "▁definit",
        -8.916256182183929
      ],
      [
        "▁honest",
        -8.916269920616077
      ],
      [
        "▁choice",
        -8.916332894684876
      ],
      [
        "▁moment",
        -8.916648411110147
      ],
      [
        "▁fox",
        -8.917226790946899
      ],
      [
        "▁hug",
        -8.917855682682601
      ],
      [
        "▁modi",
        -8.917913715515429
      ],
      [
        "▁hang",
        -8.918020558052213
      ],
      [
        "▁baby",
        -8.919419102672315
      ],
      [
        "▁north",
        -8.924822803220447
      ],
      [
        "▁fly",
        -8.926386395655449
      ],
      [
        "▁dc",
        -8.927750576760955
      ],
      [
        "▁tim",
        -8.930459868531349
      ],
      [
        "▁months",
        -8.93134349857074
      ],
      [
        "▁songs",
        -8.931422267973673
      ],
      [
        "at",
        -8.934023156840311
      ],
      [
        "▁el",
        -8.936203682015236
      ],
      [
        "▁die",
        -8.93695404030473
      ],
      [
        "ba",
        -8.942411235606972
      ],
      [
        "▁extra",
        -8.942650522954658
      ],
      [
        "▁shirt",
        -8.942848472725801
      ],
      [
        "▁appear",
        -8.943021968882926
      ],
      [
        "▁decide",
        -8.945955504928572
      ],
      [
        "▁madr",
        -8.94761323292106
      ],
      [
        "▁ha",
        -8.950538161928097
      ],
      [
        "▁wed",
        -8.952080297942011
      ],
      [
        "▁mid",
        -8.954939586027704
      ],
      [
        "▁tog",
        -8.956862737094568
      ],
      [
        "gave",
        -8.958021102207372
      ],
      [
        "▁dj",
        -8.958640232459517
      ],
      [
        "▁mr",
        -8.961036387208747
      ],
      [
        "▁laugh",
        -8.962035627352297
      ],
      [
        "▁spen",
        -8.96602400539633
      ],
      [
        "the",
        -8.967503743386708
      ],
      [
        "hi",
        -8.967525269325371
      ],
      [
        "▁kid",
        -8.968744926389338
      ],
      [
        "▁stadium",
        -8.97067696708306
      ],
      [
        "▁crazy",
        -8.970757795682703
      ],
      [
        "▁save",
        -8.971963373354845
      ],
      [
        "▁bitch",
        -8.972348632468915
      ],
      [
        "▁feeling",
        -8.973832781807939
      ],
      [
        "▁thurs",
        -8.976409603369817
      ],
      [
        "▁bay",
        -8.976507362689231
      ],
      [
        "▁spend",
        -8.978535849214566
      ],
      [
        "sh",
        -8.980972509878466
      ],
      [
        "▁q",
        -8.981789361216965
      ],
      [
        "no",
        -8.982462809878916
      ],
      [
        "▁field",
        -8.982551452518175
      ],
      [
        "▁realize",
        -8.98471599933716
      ],
      [
        "▁lose",
        -8.985520880502628
      ],
      [
        "▁nothin",
        -8.98935540351323
      ],
      [
        "nd",
        -8.991517255805656
      ],
      [
        "▁tho",
        -8.991534449399918
      ],
      [
        "▁ends",
        -8.993500646031103
      ],
      [
        "▁gen",
        -8.99474016171053
      ],
      [
        "▁stand",
        -8.995339225790385
      ],
      [
        "by",
        -8.995848787094335
      ],
      [
        "go",
        -8.996178945036672
      ],
      [
        "▁ur",
        -8.998897237781728
      ],
      [
        "▁quarter",
        -8.999119024369637
      ],
      [
        "▁china",
        -8.999204035414447
      ],
      [
        "▁cena",
        -8.999232939268545
      ],
      [
        "▁market",
        -8.999376769627542
      ],
      [
        "stead",
        -8.999568685421387
      ],
      [
        "▁court",
        -8.999668227008657
      ],
      [
        "▁london",
        -8.99967124365518
      ],
      [
        "▁three",
        -8.999700554329795
      ],
      [
        "▁dress",
        -8.999704814696267
      ],
      [
        "▁radio",
        -8.999824966738316
      ],
      [
        "▁deliver",
        -8.999848460494608
      ],
      [
        "▁service",
        -8.999898911559336
      ],
      [
        "▁hopefully",
        -8.999981999540399
      ],
      [
        "▁favorite",
        -9.000270383631069
      ],
      [
        "book",
        -9.00042396329808
      ],
      [
        "▁iran",
        -9.002153311937398
      ],
      [
        "▁hall",
        -9.003375092930861
      ],
      [
        "▁yr",
        -9.003540637770433
      ],
      [
        "▁flo",
        -9.003674978748826
      ],
      [
        "▁heart",
        -9.003695954107254
      ],
      [
        "▁moon",
        -9.004246033869965
      ],
      [
        "▁later",
        -9.00441654395734
      ],
      [
        "daily",
        -9.00453631020019
      ],
      [
        "▁per",
        -9.01035859064042
      ],
      [
        "▁fire",
        -9.011095840228451
      ],
      [
        "▁continue",
        -9.01237925744691
      ],
      [
        "▁hop",
        -9.016328090263169
      ],
      [
        "▁yo",
        -9.020523538797738
      ],
      [
        "el",
        -9.02063630014083
      ],
      [
        "▁~",
        -9.023007182097615
      ],
      [
        "▁funn",
        -9.025619280796157
      ],
      [
        "▁glad",
        -9.028622044128829
      ],
      [
        "▁group",
        -9.028664858140841
      ],
      [
        "light",
        -9.02872618900101
      ],
      [
        "▁biggest",
        -9.028737728428789
      ],
      [
        "▁announcement",
        -9.029710047243782
      ],
      [
        "▁current",
        -9.03040078408388
      ],
      [
        "▁row",
        -9.030960641544958
      ],
      [
        "▁along",
        -9.031199988425769
      ],
      [
        "▁become",
        -9.031238260817416
      ],
      [
        "▁past",
        -9.03275474172213
      ],
      [
        "▁main",
        -9.033431410149092
      ],
      [
        "▁cut",
        -9.033854920212741
      ],
      [
        "▁ho",
        -9.034188828886013
      ],
      [
        "▁classic",
        -9.036656292756817
      ],
      [
        "▁heres",
        -9.038174690370834
      ],
      [
        "▁east",
        -9.040363429412892
      ],
      [
        "▁fast",
        -9.042724669586754
      ],
      [
        "▁mon",
        -9.04306498450568
      ],
      [
        "lly",
        -9.045476081427474
      ],
      [
        "cy",
        -9.045843650592483
      ],
      [
        "▁shows",
        -9.04787954137395
      ],
      [
        "▁canu",
        -9.049228710643218
      ],
      [
        "▁major",
        -9.058907425166181
      ],
      [
        "▁future",
        -9.058917656426056
      ],
      [
        "▁rule",
        -9.059003668985678
      ],
      [
        "▁brother",
        -9.05909931672971
      ],
      [
        "▁learn",
        -9.059418549476167
      ],
      [
        "gan",
        -9.060247735849384
      ],
      [
        "▁govern",
        -9.06032017133101
      ],
      [
        "ither",
        -9.060433024223085
      ],
      [
        "▁donut",
        -9.060895012587835
      ],
      [
        "▁road",
        -9.061132904145976
      ],
      [
        "▁kne",
        -9.062146765970823
      ],
      [
        "▁players",
        -9.063083213824228
      ],
      [
        "▁=",
        -9.064767280238586
      ],
      [
        "coming",
        -9.065348102533179
      ],
      [
        "▁ago",
        -9.069433114899503
      ],
      [
        "▁kids",
        -9.07060652352093
      ],
      [
        "ship",
        -9.072437212605008
      ],
      [
        "▁san",
        -9.0753553352394
      ],
      [
        "▁tri",
        -9.075603393508011
      ],
      [
        "▁texas",
        -9.077530217334358
      ],
      [
        "▁bolt",
        -9.08045044279093
      ],
      [
        "▁picture",
        -9.081964410759744
      ],
      [
        "ently",
        -9.08245683873634
      ],
      [
        "▁town",
        -9.086770582049006
      ],
      [
        "land",
        -9.087530762692653
      ],
      [
        "▁interesting",
        -9.088025879498558
      ],
      [
        "▁cowboy",
        -9.090159758094195
      ],
      [
        "▁japan",
        -9.090171874823316
      ],
      [
        "▁email",
        -9.09018016319298
      ],
      [
        "▁atleti",
        -9.090180962260764
      ],
      [
        "▁sick",
        -9.090261182345614
      ],
      [
        "▁human",
        -9.090289328590782
      ],
      [
        "▁marriage",
        -9.090291672357948
      ],
      [
        "▁raw",
        -9.090752824816155
      ],
      [
        "▁martin",
        -9.09135091923632
      ],
      [
        "▁term",
        -9.091688742853052
      ],
      [
        "▁complete",
        -9.094054844342082
      ],
      [
        "▁schedule",
        -9.094244921654028
      ],
      [
        "▁boys",
        -9.095493765957054
      ],
      [
        "ance",
        -9.104753439200833
      ],
      [
        "▁eat",
        -9.106380316551615
      ],
      [
        "▁tie",
        -9.112785598013733
      ],
      [
        "▁base",
        -9.113231274491412
      ],
      [
        "▁rain",
        -9.114579988436336
      ],
      [
        "▁short",
        -9.114796067290296
      ],
      [
        "▁award",
        -9.118771429769401
      ],
      [
        "▁fa",
        -9.119983621253073
      ],
      [
        "▁via",
        -9.120357267265348
      ],
      [
        "▁confirm",
        -9.122414853391508
      ],
      [
        "▁liverpool",
        -9.122415054056907
      ],
      [
        "▁beautiful",
        -9.122415267531924
      ],
      [
        "▁minister",
        -9.122449672797652
      ],
      [
        "▁debut",
        -9.122591290685406
      ],
      [
        "▁business",
        -9.1229537488935
      ],
      [
        "▁food",
        -9.123384058541967
      ],
      [
        "▁rose",
        -9.123390396251407
      ],
      [
        "giving",
        -9.12359297049545
      ],
      [
        "ki",
        -9.12374213162294
      ],
      [
        "▁course",
        -9.123864796481168
      ],
      [
        "▁son",
        -9.124259549342032
      ],
      [
        "▁gala",
        -9.127818700419734
      ],
      [
        "town",
        -9.131368162020856
      ],
      [
        "▁dropp",
        -9.132147402199731
      ],
      [
        "▁mine",
        -9.132596263072479
      ],
      [
        "▁wwa",
        -9.132993181881165
      ],
      [
        "▁ne",
        -9.133798879309085
      ],
      [
        "▁packer",
        -9.134884852641129
      ],
      [
        "▁throw",
        -9.138546389659613
      ],
      [
        "▁bless",
        -9.140269150306779
      ],
      [
        "▁carl",
        -9.140348370022794
      ],
      [
        "tion",
        -9.140643336664809
      ],
      [
        "▁ta",
        -9.141016344885717
      ],
      [
        "▁step",
        -9.148629479105985
      ],
      [
        "ters",
        -9.148634629421784
      ],
      [
        "▁washington",
        -9.149035160777794
      ],
      [
        "time",
        -9.151919205975856
      ],
      [
        "set",
        -9.152400519948582
      ],
      [
        "▁matt",
        -9.154940057024437
      ],
      [
        "▁annu",
        -9.15536326203375
      ],
      [
        "▁lmao",
        -9.155749977520113
      ],
      [
        "▁decision",
        -9.155771024407947
      ],
      [
        "▁smart",
        -9.15578175126458
      ],
      [
        "▁lunch",
        -9.155786119264233
      ],
      [
        "▁attend",
        -9.155844298621089
      ],
      [
        "▁liam",
        -9.156388147695557
      ],
      [
        "▁forgot",
        -9.157626088683642
      ],
      [
        "▁dude",
        -9.157968743647409
      ],
      [
        "▁jr",
        -9.159477354591905
      ],
      [
        "▁bo",
        -9.168641375321393
      ],
      [
        "where",
        -9.172325012051516
      ],
      [
        "ck",
        -9.172538232558193
      ],
      [
        "▁front",
        -9.173832277847401
      ],
      [
        "ather",
        -9.174133842771022
      ],
      [
        "▁rank",
        -9.17557646615795
      ],
      [
        "▁dog",
        -9.176304981684591
      ],
      [
        "▁consider",
        -9.180499107245522
      ],
      [
        "▁georg",
        -9.181333914573456
      ],
      [
        "▁bottom",
        -9.181560350607176
      ],
      [
        "▁reu",
        -9.18326239593657
      ],
      [
        "▁lights",
        -9.184571743550658
      ],
      [
        "▁lake",
        -9.185237174192544
      ],
      [
        "▁office",
        -9.186353814217025
      ],
      [
        "▁tune",
        -9.188080659264463
      ],
      [
        "▁present",
        -9.18925012908485
      ],
      [
        "▁death",
        -9.190248192049763
      ],
      [
        "▁crisis",
        -9.190310571323737
      ],
      [
        "▁republican",
        -9.190353581258893
      ],
      [
        "▁fine",
        -9.190593956967337
      ],
      [
        "▁mario",
        -9.190614023345617
      ],
      [
        "▁claim",
        -9.190838611654458
      ],
      [
        "▁secret",
        -9.190947110631011
      ],
      [
        "▁street",
        -9.191789861563496
      ],
      [
        "▁page",
        -9.192593380962418
      ],
      [
        "▁seriously",
        -9.19323415488331
      ],
      [
        "▁premier",
        -9.195086766583334
      ],
      [
        "such",
        -9.195138678977584
      ],
      [
        "▁wake",
        -9.19619259921802
      ],
      [
        "▁colts",
        -9.197724720545082
      ],
      [
        "▁ra",
        -9.20102709737789
      ],
      [
        "ide",
        -9.203903396526327
      ],
      [
        "▁inside",
        -9.20731414266782
      ],
      [
        "ything",
        -9.207419449755037
      ],
      [
        "▁young",
        -9.212151681933808
      ],
      [
        "pod",
        -9.212209828991067
      ],
      [
        "▁sep",
        -9.21236195643649
      ],
      [
        "▁leav",
        -9.215112008891179
      ],
      [
        "▁less",
        -9.217826760782794
      ],
      [
        "▁train",
        -9.220356757243541
      ],
      [
        "▁teams",
        -9.221600152488069
      ],
      [
        "▁te",
        -9.222013726631667
      ],
      [
        "▁lee",
        -9.2233081509679
      ],
      [
        "ted",
        -9.224433554868511
      ],
      [
        "▁remind",
        -9.224674938962114
      ],
      [
        "▁england",
        -9.225945372715149
      ],
      [
        "▁devil",
        -9.225971737405015
      ],
      [
        "▁jordan",
        -9.226004279153901
      ],
      [
        "▁basic",
        -9.226162628257786
      ],
      [
        "▁suck",
        -9.22647164548141
      ],
      [
        "▁voice",
        -9.226541492003546
      ],
      [
        "fer",
        -9.226962811679762
      ],
      [
        "▁feb",
        -9.226977381147517
      ],
      [
        "▁blue",
        -9.227616592485052
      ],
      [
        "▁floor",
        -9.228667472437975
      ],
      [
        "▁million",
        -9.228755428309361
      ],
      [
        "▁career",
        -9.229172141596312
      ],
      [
        "▁democrat",
        -9.22973005241152
      ],
      [
        "▁lsu",
        -9.229865155318091
      ],
      [
        "ire",
        -9.231575466014
      ],
      [
        "▁busy",
        -9.232796553121812
      ],
      [
        "▁awards",
        -9.237779407806922
      ],
      [
        "▁stopp",
        -9.243546366012804
      ],
      [
        "▁given",
        -9.243752202078138
      ],
      [
        "▁squa",
        -9.245103998187057
      ],
      [
        "▁upgrade",
        -9.248576799354797
      ],
      [
        "▁drink",
        -9.254831456169228
      ],
      [
        "▁patt",
        -9.255969177894134
      ],
      [
        "▁pac",
        -9.257057008561926
      ],
      [
        "▁microsoft",
        -9.25732294247465
      ],
      [
        "▁bed",
        -9.257976697020267
      ],
      [
        "ng",
        -9.259097913265741
      ],
      [
        "▁hat",
        -9.260832480990135
      ],
      [
        "▁ps",
        -9.262771446552417
      ],
      [
        "▁conference",
        -9.26298216292206
      ],
      [
        "▁entire",
        -9.262986069046415
      ],
      [
        "▁legend",
        -9.263042258610284
      ],
      [
        "▁couple",
        -9.263114900115044
      ],
      [
        "▁stupid",
        -9.263151097834507
      ],
      [
        "▁joke",
        -9.263265008326323
      ],
      [
        "▁transfer",
        -9.263627083847442
      ],
      [
        "▁german",
        -9.263680239315057
      ],
      [
        "▁royal",
        -9.263722394597123
      ],
      [
        "▁version",
        -9.263794608734948
      ],
      [
        "▁litera",
        -9.264350148484054
      ],
      [
        "▁trend",
        -9.264931513003367
      ],
      [
        "▁appar",
        -9.2657364395067
      ],
      [
        "▁five",
        -9.265934983017225
      ],
      [
        "▁matter",
        -9.266338373893792
      ],
      [
        "▁quit",
        -9.266853884864325
      ],
      [
        "▁europe",
        -9.267787713899544
      ],
      [
        "▁com",
        -9.267799001245073
      ],
      [
        "my",
        -9.271147357076984
      ],
      [
        "ney",
        -9.272092132069115
      ],
      [
        "▁giants",
        -9.272982198589421
      ],
      [
        "▁camp",
        -9.274960365054428
      ],
      [
        "▁lt",
        -9.281060177687273
      ],
      [
        "▁gt",
        -9.281304271260966
      ],
      [
        "▁land",
        -9.28220467893559
      ],
      [
        "ner",
        -9.285204827979577
      ],
      [
        "▁screen",
        -9.289175389679947
      ],
      [
        "▁results",
        -9.291543450388254
      ],
      [
        "▁bro",
        -9.292491111378713
      ],
      [
        "▁write",
        -9.29514923278208
      ],
      [
        "▁po",
        -9.297674755543083
      ],
      [
        "▁speech",
        -9.30144390597366
      ],
      [
        "▁tribute",
        -9.301444567590837
      ],
      [
        "▁newcastle",
        -9.30144484726658
      ],
      [
        "▁company",
        -9.301445576742518
      ],
      [
        "▁device",
        -9.301476735229116
      ],
      [
        "▁count",
        -9.301604529659615
      ],
      [
        "▁centre",
        -9.30164800167822
      ],
      [
        "▁third",
        -9.301679000864409
      ],
      [
        "▁invite",
        -9.301924164767437
      ],
      [
        "▁atlant",
        -9.303166082143548
      ],
      [
        "▁send",
        -9.303424662589965
      ],
      [
        "im",
        -9.303771857235722
      ],
      [
        "▁rally",
        -9.303882204537317
      ],
      [
        "▁action",
        -9.303917876236454
      ],
      [
        "▁injury",
        -9.30393122366169
      ],
      [
        "▁dome",
        -9.304449951227774
      ],
      [
        "▁gy",
        -9.304693152040645
      ],
      [
        "▁sweet",
        -9.30485089474211
      ],
      [
        "▁sold",
        -9.305250947378735
      ],
      [
        "▁mix",
        -9.306170329794373
      ],
      [
        "rida",
        -9.30709413278285
      ],
      [
        "▁abc",
        -9.307456442533182
      ],
      [
        "▁sand",
        -9.309144094805374
      ],
      [
        "▁festival",
        -9.310014967769144
      ],
      [
        "ole",
        -9.310434613263205
      ],
      [
        "▁safe",
        -9.310900802142697
      ],
      [
        "▁south",
        -9.312184092589415
      ],
      [
        "▁allow",
        -9.312381646975519
      ],
      [
        "▁vice",
        -9.315955906285865
      ],
      [
        "ro",
        -9.317014975053755
      ],
      [
        "▁ko",
        -9.317477691358317
      ],
      [
        "▁heat",
        -9.319762916380602
      ],
      [
        "▁gov",
        -9.321739810432259
      ],
      [
        "▁dis",
        -9.32421140017026
      ],
      [
        "down",
        -9.325742073104884
      ],
      [
        "▁pai",
        -9.32686708565153
      ],
      [
        "ries",
        -9.331267968564525
      ],
      [
        "▁roma",
        -9.336408834562738
      ],
      [
        "▁different",
        -9.341443706940144
      ],
      [
        "▁reveal",
        -9.341447366669131
      ],
      [
        "▁murder",
        -9.341453245819851
      ],
      [
        "▁weird",
        -9.341459851076477
      ],
      [
        "▁william",
        -9.341465948569658
      ],
      [
        "▁sister",
        -9.341477758998852
      ],
      [
        "▁sense",
        -9.341485272687454
      ],
      [
        "▁begin",
        -9.34152066211029
      ],
      [
        "▁mention",
        -9.341599877585548
      ],
      [
        "▁jersey",
        -9.341701216197308
      ],
      [
        "▁message",
        -9.342466946465084
      ],
      [
        "▁shopp",
        -9.342536785715179
      ],
      [
        "▁android",
        -9.34263879785164
      ],
      [
        "▁pull",
        -9.343509320452123
      ],
      [
        "▁search",
        -9.343735984313147
      ],
      [
        "▁original",
        -9.343935127591704
      ],
      [
        "▁eye",
        -9.344686432104496
      ],
      [
        "▁born",
        -9.345812443967874
      ],
      [
        "▁possible",
        -9.346614302356059
      ],
      [
        "▁pack",
        -9.350182901456995
      ],
      [
        "▁alex",
        -9.350220483020793
      ],
      [
        "ah",
        -9.350675492911202
      ],
      [
        "▁couldn",
        -9.35123911020662
      ],
      [
        "▁key",
        -9.352940723310024
      ],
      [
        "ley",
        -9.354273623577368
      ],
      [
        "rs",
        -9.355145930864579
      ],
      [
        "▁wh",
        -9.356810933313689
      ],
      [
        "▁stone",
        -9.360438969245957
      ],
      [
        "om",
        -9.361321875719273
      ],
      [
        "▁sports",
        -9.361661765190542
      ],
      [
        "me",
        -9.364645209757702
      ],
      [
        "▁equal",
        -9.368948182391819
      ],
      [
        "▁jason",
        -9.369637903557564
      ],
      [
        "▁nik",
        -9.375520772981142
      ],
      [
        "▁sam",
        -9.376112566240323
      ],
      [
        "▁indian",
        -9.37878043885657
      ],
      [
        "▁charge",
        -9.382324650560832
      ],
      [
        "▁pc",
        -9.382841507683215
      ],
      [
        "▁russell",
        -9.383110903003315
      ],
      [
        "▁candidate",
        -9.383118560498307
      ],
      [
        "▁preview",
        -9.383123075558997
      ],
      [
        "▁garden",
        -9.38313120462382
      ],
      [
        "▁congress",
        -9.383149745087742
      ],
      [
        "▁rumor",
        -9.383168952199046
      ],
      [
        "▁travel",
        -9.383209082916501
      ],
      [
        "▁adam",
        -9.383269089857372
      ],
      [
        "▁brand",
        -9.383620506457659
      ],
      [
        "▁dear",
        -9.383803914081142
      ],
      [
        "▁dumb",
        -9.384046988715351
      ],
      [
        "▁kun",
        -9.384375716293079
      ],
      [
        "▁price",
        -9.384469084132295
      ],
      [
        "▁supposed",
        -9.384636937447178
      ],
      [
        "▁winner",
        -9.384838566497187
      ],
      [
        "▁clear",
        -9.38501788826568
      ],
      [
        "▁total",
        -9.385084478297685
      ],
      [
        "▁ucla",
        -9.38541427959581
      ],
      [
        "▁battle",
        -9.386869316700613
      ],
      [
        "▁grow",
        -9.38854827540629
      ],
      [
        "▁triple",
        -9.38916648237716
      ],
      [
        "one",
        -9.389415964401712
      ],
      [
        "la",
        -9.39303902129054
      ],
      [
        "lton",
        -9.393098113054512
      ],
      [
        "▁imagine",
        -9.393185123072447
      ],
      [
        "not",
        -9.39702962225346
      ],
      [
        "▁liv",
        -9.400607342296482
      ],
      [
        "▁receive",
        -9.401512035840705
      ],
      [
        "▁intern",
        -9.40372298352618
      ],
      [
        "▁til",
        -9.406200592551022
      ],
      [
        "ler",
        -9.406473754220785
      ],
      [
        "▁sales",
        -9.406665992359807
      ],
      [
        "▁tru",
        -9.40716445076408
      ],
      [
        "tv",
        -9.407863386868913
      ],
      [
        "ut",
        -9.408203925400661
      ],
      [
        "▁asia",
        -9.410037773546124
      ],
      [
        "▁kat",
        -9.410803248931781
      ],
      [
        "▁bulls",
        -9.410923364258474
      ],
      [
        "▁fit",
        -9.412974335300923
      ],
      [
        "▁leg",
        -9.41503024108899
      ],
      [
        "king",
        -9.415783998794133
      ],
      [
        "▁rate",
        -9.41656593049353
      ],
      [
        "▁offer",
        -9.417260163076001
      ],
      [
        "▁horr",
        -9.417282530417285
      ],
      [
        "▁nation",
        -9.418198126036534
      ],
      [
        "▁hur",
        -9.421589150397963
      ],
      [
        "night",
        -9.424000296224186
      ],
      [
        "▁ancelotti",
        -9.426588608150016
      ],
      [
        "▁english",
        -9.426588608343891
      ],
      [
        "▁double",
        -9.42659018447983
      ],
      [
        "▁detail",
        -9.426593891263876
      ],
      [
        "▁murray",
        -9.426595387099445
      ],
      [
        "▁miami",
        -9.426607063847653
      ],
      [
        "▁turkey",
        -9.426614104259631
      ],
      [
        "▁beyonce",
        -9.426626217815873
      ],
      [
        "▁level",
        -9.4266392119382
      ],
      [
        "▁text",
        -9.426675381373245
      ],
      [
        "▁performance",
        -9.426844782167386
      ],
      [
        "▁terribl",
        -9.426895887310824
      ],
      [
        "▁public",
        -9.426906004445701
      ],
      [
        "▁federa",
        -9.427022642965467
      ],
      [
        "▁everybody",
        -9.427027657504759
      ],
      [
        "▁heavy",
        -9.42731640122649
      ],
      [
        "▁peace",
        -9.427322838976668
      ],
      [
        "▁hair",
        -9.427364581494166
      ],
      [
        "▁ladies",
        -9.427432238348478
      ],
      [
        "▁saint",
        -9.427458226675812
      ],
      [
        "▁golf",
        -9.42775681863047
      ],
      [
        "▁utd",
        -9.428017614866576
      ],
      [
        "▁bang",
        -9.428096942273296
      ],
      [
        "▁doubt",
        -9.428553107757129
      ],
      [
        "▁houston",
        -9.42855668259001
      ],
      [
        "▁serve",
        -9.430610222881366
      ],
      [
        "▁limit",
        -9.431016526854922
      ],
      [
        "▁gil",
        -9.43123396273829
      ],
      [
        "▁woman",
        -9.431268886748754
      ],
      [
        "▁kim",
        -9.432049701702056
      ],
      [
        "uve",
        -9.432234278933809
      ],
      [
        "▁mc",
        -9.432363433762115
      ],
      [
        "▁poll",
        -9.433252943838966
      ],
      [
        "▁light",
        -9.434124153142855
      ],
      [
        "▁mission",
        -9.4343309049241
      ],
      [
        "▁pr",
        -9.434714289751303
      ],
      [
        "▁cost",
        -9.434952749180813
      ],
      [
        "▁farm",
        -9.440090848995428
      ],
      [
        "▁art",
        -9.441043777339734
      ],
      [
        "▁info",
        -9.44243888399023
      ],
      [
        "▁sea",
        -9.442801397970468
      ],
      [
        "▁mile",
        -9.443610488993826
      ],
      [
        "▁whos",
        -9.444805773570328
      ],
      [
        "▁usa",
        -9.445091545858162
      ],
      [
        "▁cast",
        -9.44521765256759
      ],
      [
        "▁ny",
        -9.446186664351986
      ],
      [
        "▁box",
        -9.449777550729255
      ],
      [
        "▁le",
        -9.45373259436795
      ],
      [
        "ball",
        -9.453959767997336
      ],
      [
        "▁ass",
        -9.454347865734064
      ],
      [
        "▁stars",
        -9.454666269047697
      ],
      [
        "▁shar",
        -9.459875364740206
      ],
      [
        "▁eas",
        -9.460171262896171
      ],
      [
        "▁lots",
        -9.461325274326917
      ],
      [
        "▁men",
        -9.461359658947883
      ],
      [
        "▁hahaha",
        -9.463060311095479
      ],
      [
        "▁jenni",
        -9.464011890948484
      ],
      [
        "▁soc",
        -9.465185361664188
      ],
      [
        "▁tourn",
        -9.465439117977176
      ],
      [
        "▁bus",
        -9.466040494843744
      ],
      [
        "aka",
        -9.468247655739866
      ],
      [
        "▁impossible",
        -9.472043153016845
      ],
      [
        "▁afolayan",
        -9.4720431530467
      ],
      [
        "▁patriots",
        -9.472043292050188
      ],
      [
        "▁nigga",
        -9.472043436743887
      ],
      [
        "▁unveil",
        -9.4720436702916
      ],
      [
        "▁account",
        -9.472044944719254
      ],
      [
        "across",
        -9.472050756053024
      ],
      [
        "▁children",
        -9.472052146547819
      ],
      [
        "▁contact",
        -9.472059155622858
      ],
      [
        "▁generation",
        -9.472078910045193
      ],
      [
        "▁christian",
        -9.472088209722672
      ],
      [
        "▁protest",
        -9.472113716717312
      ],
      [
        "▁large",
        -9.47212372344785
      ],
      [
        "▁monster",
        -9.472141988057562
      ],
      [
        "▁edition",
        -9.472206026135847
      ],
      [
        "▁taco",
        -9.472241916691619
      ],
      [
        "▁mov",
        -9.472517855435065
      ],
      [
        "▁fix",
        -9.472659592235127
      ],
      [
        "▁enter",
        -9.472667349035204
      ],
      [
        "▁trail",
        -9.472877650625543
      ],
      [
        "▁block",
        -9.472917606957736
      ],
      [
        "▁paul",
        -9.472983730474972
      ],
      [
        "▁niall",
        -9.47303689341087
      ],
      [
        "▁defeat",
        -9.473061033512732
      ],
      [
        "▁nba",
        -9.47334056660421
      ],
      [
        "▁push",
        -9.473425957817641
      ],
      [
        "▁winter",
        -9.47373223701177
      ],
      [
        "▁solo",
        -9.474145902421164
      ],
      [
        "▁direction",
        -9.475176943155489
      ],
      [
        "▁jon",
        -9.475452660596549
      ],
      [
        "▁style",
        -9.476558177064218
      ],
      [
        "▁chill",
        -9.476578167049073
      ],
      [
        "▁qb",
        -9.478175139699102
      ],
      [
        "▁tech",
        -9.478816203044875
      ],
      [
        "▁ty",
        -9.47883102555409
      ],
      [
        "▁view",
        -9.479350272086949
      ],
      [
        "▁track",
        -9.47966103764673
      ],
      [
        "nson",
        -9.480686918175074
      ],
      [
        "▁jo",
        -9.480807289612477
      ],
      [
        "ament",
        -9.481028688956533
      ],
      [
        "▁pa",
        -9.483193839446319
      ],
      [
        "▁scar",
        -9.483985040224017
      ],
      [
        "her",
        -9.484637397228528
      ],
      [
        "▁dar",
        -9.485305024543369
      ],
      [
        "▁itu",
        -9.485679011681896
      ],
      [
        "▁seat",
        -9.488985464519432
      ],
      [
        "he",
        -9.494140357236896
      ],
      [
        "▁sl",
        -9.495777670146873
      ],
      [
        "▁mother",
        -9.49732522665299
      ],
      [
        "▁tb",
        -9.500429816752094
      ],
      [
        "get",
        -9.501388850216223
      ],
      [
        "ever",
        -9.502542864726728
      ],
      [
        "▁excit",
        -9.50387834622044
      ],
      [
        "am",
        -9.504693805242338
      ],
      [
        "▁beer",
        -9.505145984650191
      ],
      [
        "▁xd",
        -9.505558314026
      ],
      [
        "▁user",
        -9.508300748234332
      ],
      [
        "▁topic",
        -9.512903379309254
      ],
      [
        "▁table",
        -9.514131686687701
      ],
      [
        "ack",
        -9.5146306218959
      ],
      [
        "▁suggest",
        -9.518706069425635
      ],
      [
        "▁sky",
        -9.51874192741318
      ],
      [
        "▁cha",
        -9.51898045819056
      ],
      [
        "▁idea",
        -9.519527642970862
      ],
      [
        "▁lawrence",
        -9.519662509843783
      ],
      [
        "▁alonso",
        -9.519666017855535
      ],
      [
        "▁xmas",
        -9.519666427158413
      ],
      [
        "▁conservative",
        -9.519667051683827
      ],
      [
        "▁accept",
        -9.5196677861015
      ],
      [
        "▁beginning",
        -9.519739093827276
      ],
      [
        "▁draw",
        -9.519750386964297
      ],
      [
        "▁blast",
        -9.51985949276805
      ],
      [
        "▁kelly",
        -9.519991732264844
      ],
      [
        "▁elton",
        -9.520259552618004
      ],
      [
        "▁clinton",
        -9.520462363934252
      ],
      [
        "▁fantasy",
        -9.520466176657845
      ],
      [
        "▁explain",
        -9.520479497788303
      ],
      [
        "▁folk",
        -9.520488226442842
      ],
      [
        "▁jam",
        -9.520496312882798
      ],
      [
        "alone",
        -9.520549798782099
      ],
      [
        "▁rise",
        -9.520745593186561
      ],
      [
        "▁worry",
        -9.521183464003268
      ],
      [
        "▁cold",
        -9.521305445709636
      ],
      [
        "▁touch",
        -9.521661201559747
      ],
      [
        "▁goals",
        -9.522147194192918
      ],
      [
        "▁chic",
        -9.522429867041508
      ],
      [
        "▁blow",
        -9.522503713061678
      ],
      [
        "▁importan",
        -9.523125159561936
      ],
      [
        "▁angeles",
        -9.523363351991986
      ],
      [
        "▁kyl",
        -9.52361845799793
      ],
      [
        "▁vikings",
        -9.524684344576558
      ],
      [
        "▁attack",
        -9.524861886871719
      ],
      [
        "▁bu",
        -9.526127026418294
      ],
      [
        "▁experience",
        -9.526274923617017
      ],
      [
        "▁theater",
        -9.526359820403883
      ],
      [
        "▁gay",
        -9.526808515589964
      ],
      [
        "▁sir",
        -9.52753191529193
      ],
      [
        "▁bru",
        -9.52867542384916
      ],
      [
        "vision",
        -9.530275039157175
      ],
      [
        "smh",
        -9.533742826619031
      ],
      [
        "▁du",
        -9.53729976588149
      ],
      [
        "▁site",
        -9.539025431081862
      ],
      [
        "▁jimm",
        -9.539438262395986
      ],
      [
        "▁met",
        -9.543030502152112
      ],
      [
        "▁af",
        -9.543456157232352
      ],
      [
        "but",
        -9.544598343150225
      ],
      [
        "cca",
        -9.547486362429638
      ],
      [
        "▁sh",
        -9.548259126932152
      ],
      [
        "ph",
        -9.548262727460473
      ],
      [
        "▁fe",
        -9.548849099228686
      ],
      [
        "▁mins",
        -9.549412290725181
      ],
      [
        "ise",
        -9.550411602305886
      ],
      [
        "▁jim",
        -9.551544935970274
      ],
      [
        "ovic",
        -9.55369305040318
      ],
      [
        "▁states",
        -9.553788990482797
      ],
      [
        "▁cat",
        -9.555063145837796
      ],
      [
        "▁tan",
        -9.55542168803952
      ],
      [
        "▁vi",
        -9.557633847282759
      ],
      [
        "rick",
        -9.55812845903193
      ],
      [
        "▁z",
        -9.558984881880448
      ],
      [
        "ility",
        -9.561371984676919
      ],
      [
        "▁ww",
        -9.561634001865082
      ],
      [
        "▁eu",
        -9.56271428319485
      ],
      [
        "ix",
        -9.563501308499314
      ],
      [
        "▁haven",
        -9.564244285383934
      ],
      [
        "ble",
        -9.568162854855117
      ],
      [
        "▁small",
        -9.568317888796681
      ],
      [
        "▁arrive",
        -9.569172267630346
      ],
      [
        "▁except",
        -9.569273867713683
      ],
      [
        "▁hazard",
        -9.569662381449831
      ],
      [
        "▁each",
        -9.569666031474565
      ],
      [
        "▁junior",
        -9.569675020256557
      ],
      [
        "▁article",
        -9.569675400020715
      ],
      [
        "▁etc",
        -9.56969796670113
      ],
      [
        "▁diaries",
        -9.569708068817317
      ],
      [
        "▁random",
        -9.569733538453091
      ],
      [
        "especi",
        -9.569788931754042
      ],
      [
        "▁smith",
        -9.569811894022505
      ],
      [
        "▁understand",
        -9.569870454120723
      ],
      [
        "▁model",
        -9.569939467581277
      ],
      [
        "▁cruz",
        -9.569979874887421
      ],
      [
        "▁bomb",
        -9.570041179325264
      ],
      [
        "▁nash",
        -9.570470029553247
      ],
      [
        "▁comment",
        -9.57048348437177
      ],
      [
        "▁vancouver",
        -9.570503024170396
      ],
      [
        "▁kony",
        -9.570698724730914
      ],
      [
        "▁brillian",
        -9.570702338525715
      ],
      [
        "▁anyway",
        -9.570927296654657
      ],
      [
        "▁usual",
        -9.5709327325972
      ],
      [
        "▁jack",
        -9.571905063625529
      ],
      [
        "▁cake",
        -9.572340777101566
      ],
      [
        "▁penn",
        -9.572759320679037
      ],
      [
        "▁tre",
        -9.57420426017106
      ],
      [
        "▁held",
        -9.575484193951198
      ],
      [
        "▁obsess",
        -9.575700722611549
      ],
      [
        "▁smile",
        -9.57601534908845
      ],
      [
        "▁sever",
        -9.578771733606372
      ],
      [
        "▁queen",
        -9.580297552508837
      ],
      [
        "▁blog",
        -9.580487732976028
      ],
      [
        "▁forever",
        -9.580631065223981
      ],
      [
        "▁guest",
        -9.58090243420599
      ],
      [
        "il",
        -9.582701521116096
      ],
      [
        "▁george",
        -9.583004549805736
      ],
      [
        "▁result",
        -9.5840762522031
      ],
      [
        "▁hr",
        -9.584395813244885
      ],
      [
        "▁promise",
        -9.584995198512404
      ],
      [
        "ud",
        -9.586793312937258
      ],
      [
        "▁pls",
        -9.587695020012383
      ],
      [
        "▁wt",
        -9.588983431034302
      ],
      [
        "shall",
        -9.589568649687974
      ],
      [
        "▁trade",
        -9.590280725762161
      ],
      [
        "▁sec",
        -9.590742482950365
      ],
      [
        "▁ohi",
        -9.592097406278512
      ],
      [
        "season",
        -9.594725334977198
      ],
      [
        "nna",
        -9.5966776128957
      ],
      [
        "▁ba",
        -9.596821729581938
      ],
      [
        "▁pe",
        -9.597922970974714
      ],
      [
        "▁cute",
        -9.601624948507416
      ],
      [
        "▁ab",
        -9.603165333263656
      ],
      [
        "aint",
        -9.605073888807434
      ],
      [
        "▁sim",
        -9.605416021215667
      ],
      [
        "▁tvd",
        -9.605516726774121
      ],
      [
        "▁mag",
        -9.605843963734007
      ],
      [
        "▁treat",
        -9.6064633512355
      ],
      [
        "▁rid",
        -9.608095787119266
      ],
      [
        "▁paris",
        -9.60818609700477
      ],
      [
        "▁include",
        -9.611418773695705
      ],
      [
        "▁worse",
        -9.613652052611094
      ],
      [
        "▁jet",
        -9.614637257528777
      ],
      [
        "▁tea",
        -9.61530879647894
      ],
      [
        "▁ride",
        -9.617060436737711
      ],
      [
        "ago",
        -9.617106986801565
      ],
      [
        "▁personal",
        -9.62166785500928
      ],
      [
        "▁xx",
        -9.621900860702391
      ],
      [
        "▁parliament",
        -9.622293779990283
      ],
      [
        "▁econom",
        -9.622294184857054
      ],
      [
        "▁draft",
        -9.622295764176837
      ],
      [
        "▁robert",
        -9.622312267976154
      ],
      [
        "▁knock",
        -9.622315368265149
      ],
      [
        "▁jump",
        -9.622323908269415
      ],
      [
        "ko",
        -9.622332066681981
      ],
      [
        "▁redskin",
        -9.622333934282274
      ],
      [
        "▁talent",
        -9.622349282468646
      ],
      [
        "vamp",
        -9.622371065669727
      ],
      [
        "▁smash",
        -9.622378119930913
      ],
      [
        "▁clean",
        -9.622465329165
      ],
      [
        "▁odi",
        -9.622470585385614
      ],
      [
        "▁kesha",
        -9.622514616296352
      ],
      [
        "▁btw",
        -9.622528214660793
      ],
      [
        "▁seven",
        -9.62267006419292
      ],
      [
        "▁highlight",
        -9.622810353662892
      ],
      [
        "▁hunter",
        -9.622857355711139
      ],
      [
        "▁stock",
        -9.622974943264236
      ],
      [
        "▁stick",
        -9.62324027907735
      ],
      [
        "▁shoe",
        -9.623335509273662
      ],
      [
        "▁proud",
        -9.62333571457612
      ],
      [
        "▁lovato",
        -9.623584000664811
      ],
      [
        "▁bench",
        -9.623644601399157
      ],
      [
        "▁paper",
        -9.624016929941067
      ],
      [
        "▁sp",
        -9.624396516190854
      ],
      [
        "▁demi",
        -9.624447964197037
      ],
      [
        "▁studio",
        -9.624683521672152
      ],
      [
        "▁psg",
        -9.624904553126935
      ],
      [
        "▁francis",
        -9.625532707087487
      ],
      [
        "▁parent",
        -9.625677310886793
      ],
      [
        "▁copy",
        -9.626002982898086
      ],
      [
        "ware",
        -9.626356576499264
      ],
      [
        "▁gr",
        -9.62649015857735
      ],
      [
        "▁bike",
        -9.626820648570625
      ],
      [
        "▁tu",
        -9.62703429427641
      ],
      [
        "▁danc",
        -9.627283332694649
      ],
      [
        "▁stoke",
        -9.627373174952488
      ],
      [
        "▁protect",
        -9.62921439912954
      ],
      [
        "star",
        -9.629855251484464
      ],
      [
        "▁mi",
        -9.631063845425068
      ],
      [
        "▁kan",
        -9.632073746614257
      ],
      [
        "▁anna",
        -9.635466945090283
      ],
      [
        "▁champion",
        -9.636807655429264
      ],
      [
        "▁low",
        -9.637041442034535
      ],
      [
        "▁piece",
        -9.640885294514248
      ],
      [
        "▁dm",
        -9.641682883508974
      ],
      [
        "▁ex",
        -9.645313203350979
      ],
      [
        "▁ga",
        -9.647281698840642
      ],
      [
        "tina",
        -9.651888474914315
      ],
      [
        "▁mor",
        -9.652292963705122
      ],
      [
        "▁chat",
        -9.652889012518145
      ],
      [
        "▁fr",
        -9.656462493026067
      ],
      [
        "back",
        -9.659162961661448
      ],
      [
        "▁der",
        -9.661261740708458
      ],
      [
        "▁mann",
        -9.667375937002948
      ],
      [
        "▁address",
        -9.668185447252897
      ],
      [
        "▁van",
        -9.668354121678611
      ],
      [
        "well",
        -9.670823875767907
      ],
      [
        "▁que",
        -9.671131507374751
      ],
      [
        "aught",
        -9.671197841055223
      ],
      [
        "▁success",
        -9.671369596960364
      ],
      [
        "▁mp",
        -9.671716359308377
      ],
      [
        "ustin",
        -9.67241366994602
      ],
      [
        "▁ship",
        -9.672905043081574
      ],
      [
        "▁serious",
        -9.675546476833173
      ],
      [
        "▁despi",
        -9.677262568319582
      ],
      [
        "▁kris",
        -9.677843109698697
      ],
      [
        "▁disappoint",
        -9.677849335161104
      ],
      [
        "▁california",
        -9.677849344390266
      ],
      [
        "▁cundiff",
        -9.677849348628385
      ],
      [
        "▁kershaw",
        -9.677849439680731
      ],
      [
        "▁toyota",
        -9.67785023897482
      ],
      [
        "▁snap",
        -9.677850489889575
      ],
      [
        "▁chief",
        -9.677850611352266
      ],
      [
        "▁romney",
        -9.67785077844055
      ],
      [
        "▁selena",
        -9.677851081833788
      ],
      [
        "▁council",
        -9.677852339458028
      ],
      [
        "▁wilson",
        -9.677891045100333
      ],
      [
        "▁review",
        -9.677895220251322
      ],
      [
        "▁marathon",
        -9.677932798136071
      ],
      [
        "▁manchester",
        -9.677940498657083
      ],
      [
        "▁derby",
        -9.67797279653024
      ],
      [
        "▁local",
        -9.677979549676861
      ],
      [
        "▁jenner",
        -9.677984798017286
      ],
      [
        "▁obvious",
        -9.677991690256864
      ],
      [
        "▁honor",
        -9.678065591300129
      ],
      [
        "▁slow",
        -9.678151596267167
      ],
      [
        "▁coast",
        -9.678722322448511
      ],
      [
        "▁crush",
        -9.67875391202368
      ],
      [
        "▁korea",
        -9.678819557891757
      ],
      [
        "▁fell",
        -9.679005128337067
      ],
      [
        "ryan",
        -9.679351551001854
      ],
      [
        "rbi",
        -9.680055175282163
      ],
      [
        "▁dark",
        -9.680122883585014
      ],
      [
        "▁clock",
        -9.680721001128333
      ],
      [
        "▁tough",
        -9.680821280742853
      ],
      [
        "▁mail",
        -9.68085442269084
      ],
      [
        "np",
        -9.68129874280488
      ],
      [
        "▁body",
        -9.681638949476799
      ],
      [
        "old",
        -9.682215637315807
      ],
      [
        "▁cbs",
        -9.68222623669547
      ],
      [
        "▁cheer",
        -9.682326924806613
      ],
      [
        "▁rebe",
        -9.682506838904487
      ],
      [
        "▁wa",
        -9.683581974855425
      ],
      [
        "▁bell",
        -9.68467880104933
      ],
      [
        "za",
        -9.686336581042253
      ],
      [
        "▁icc",
        -9.687208065288601
      ],
      [
        "▁pey",
        -9.68809593144114
      ],
      [
        "▁led",
        -9.688202007887138
      ],
      [
        "▁reserve",
        -9.688441458943704
      ],
      [
        "▁feature",
        -9.690110116389715
      ],
      [
        "▁inning",
        -9.69098942107209
      ],
      [
        "we",
        -9.691208599618392
      ],
      [
        "▁burn",
        -9.691793707604047
      ],
      [
        "▁brough",
        -9.692242832729422
      ],
      [
        "▁venu",
        -9.693081455213575
      ],
      [
        "▁war",
        -9.695161235924145
      ],
      [
        "▁grader",
        -9.696868241107385
      ],
      [
        "▁govt",
        -9.696962222170242
      ],
      [
        "▁em",
        -9.697097463305628
      ],
      [
        "▁hol",
        -9.700409242307822
      ],
      [
        "weve",
        -9.702783464593514
      ],
      [
        "▁hung",
        -9.705943153247748
      ],
      [
        "▁wave",
        -9.707589788344658
      ],
      [
        "off",
        -9.7081232516721
      ],
      [
        "▁social",
        -9.711543871613166
      ],
      [
        "▁ib",
        -9.712114148949919
      ],
      [
        "▁control",
        -9.71249782007801
      ],
      [
        "▁tire",
        -9.713580047190732
      ],
      [
        "▁fm",
        -9.713667736692374
      ],
      [
        "▁bid",
        -9.713702973073813
      ],
      [
        "q",
        -9.715305575694982
      ],
      [
        "▁door",
        -9.7172072954461
      ],
      [
        "▁bur",
        -9.71887408828342
      ],
      [
        "shing",
        -9.721368538600018
      ],
      [
        "room",
        -9.723694208857566
      ],
      [
        "real",
        -9.724518222643567
      ],
      [
        "▁univers",
        -9.724932060593172
      ],
      [
        "ten",
        -9.725018186871768
      ],
      [
        "▁discuss",
        -9.728426170972394
      ],
      [
        "▁replace",
        -9.72869789587288
      ],
      [
        "▁cancel",
        -9.729220542635462
      ],
      [
        "▁prove",
        -9.72988273081705
      ],
      [
        "right",
        -9.73286984554294
      ],
      [
        "▁india",
        -9.733652627109347
      ],
      [
        "▁constitution",
        -9.735405253506716
      ],
      [
        "▁hype",
        -9.73561910688541
      ],
      [
        "▁difference",
        -9.73667288938708
      ],
      [
        "▁falcon",
        -9.736673374213778
      ],
      [
        "▁luther",
        -9.736673592955723
      ],
      [
        "▁alabama",
        -9.736675023350873
      ],
      [
        "▁jessica",
        -9.736675028998379
      ],
      [
        "▁earthqua",
        -9.736686909368633
      ],
      [
        "▁exclusive",
        -9.736687599230978
      ],
      [
        "▁community",
        -9.73668963464873
      ],
      [
        "▁prince",
        -9.736735093758025
      ],
      [
        "▁click",
        -9.736820129344748
      ],
      [
        "▁cfb",
        -9.736828602127385
      ],
      [
        "▁richard",
        -9.736831643523441
      ],
      [
        "▁hollywood",
        -9.73686755049765
      ],
      [
        "rigue",
        -9.736988311942575
      ],
      [
        "▁kiss",
        -9.73721345495636
      ],
      [
        "▁wife",
        -9.737241159470617
      ],
      [
        "▁sunny",
        -9.737393738538483
      ],
      [
        "▁aldo",
        -9.737501464276168
      ],
      [
        "▁hook",
        -9.737561345939696
      ],
      [
        "▁correct",
        -9.737664964977686
      ],
      [
        "▁absolute",
        -9.737670750742272
      ],
      [
        "▁attention",
        -9.737698892751887
      ],
      [
        "▁network",
        -9.737746479855561
      ],
      [
        "▁flight",
        -9.737790273815929
      ],
      [
        "▁liga",
        -9.737797748318119
      ],
      [
        "▁six",
        -9.73795785008463
      ],
      [
        "▁blues",
        -9.738122207647457
      ],
      [
        "▁uni",
        -9.738196438301843
      ],
      [
        "▁playoff",
        -9.738236237163147
      ],
      [
        "▁trial",
        -9.738929335387297
      ],
      [
        "dom",
        -9.738969710065263
      ],
      [
        "▁victory",
        -9.739554352257974
      ],
      [
        "▁je",
        -9.740467981427317
      ],
      [
        "▁luk",
        -9.74221020730946
      ],
      [
        "▁tues",
        -9.743129671250063
      ],
      [
        "▁nah",
        -9.74328185898878
      ],
      [
        "▁ml",
        -9.743680206799269
      ],
      [
        "na",
        -9.743693366713913
      ],
      [
        "▁dub",
        -9.744140371372405
      ],
      [
        "▁factor",
        -9.744499509137095
      ],
      [
        "▁fallon",
        -9.744709904400091
      ],
      [
        "▁notice",
        -9.747228327820427
      ],
      [
        "▁yard",
        -9.748782862771261
      ],
      [
        "▁math",
        -9.749985349017388
      ],
      [
        "ical",
        -9.75275403943823
      ],
      [
        "▁sight",
        -9.754625973798753
      ],
      [
        "▁normal",
        -9.755066272126871
      ],
      [
        "▁cl",
        -9.758200420241728
      ],
      [
        "▁sum",
        -9.758306527743358
      ],
      [
        "▁min",
        -9.758810430552844
      ],
      [
        "▁mu",
        -9.76063333262151
      ],
      [
        "ca",
        -9.761065518902946
      ],
      [
        "▁hands",
        -9.761382026257962
      ],
      [
        "▁reach",
        -9.76176025665735
      ],
      [
        "former",
        -9.761922076463946
      ],
      [
        "▁bull",
        -9.763699998601137
      ],
      [
        "▁ran",
        -9.766585976610553
      ],
      [
        "▁port",
        -9.768378560521642
      ],
      [
        "you",
        -9.769987440463755
      ],
      [
        "▁refugees",
        -9.770731997922358
      ],
      [
        "work",
        -9.771372346373887
      ],
      [
        "ux",
        -9.771374703744357
      ],
      [
        "▁bab",
        -9.772645932712553
      ],
      [
        "hara",
        -9.772843380899705
      ],
      [
        "ak",
        -9.773133455840991
      ],
      [
        "ence",
        -9.774205687722745
      ],
      [
        "▁plane",
        -9.774647269298685
      ],
      [
        "▁argu",
        -9.775401826413999
      ],
      [
        "▁trie",
        -9.776432581001544
      ],
      [
        "ring",
        -9.7771142757888
      ],
      [
        "▁board",
        -9.777844103079582
      ],
      [
        "▁swa",
        -9.779460495208227
      ],
      [
        "▁theme",
        -9.780747267309893
      ],
      [
        "▁build",
        -9.782789232655578
      ],
      [
        "▁mont",
        -9.7855151880985
      ],
      [
        "▁program",
        -9.785574971705257
      ],
      [
        "cade",
        -9.785885988375647
      ],
      [
        "▁gun",
        -9.789569287517558
      ],
      [
        "▁photos",
        -9.789592094900131
      ],
      [
        "▁fo",
        -9.790848529645068
      ],
      [
        "rate",
        -9.790958166259259
      ],
      [
        "▁possibl",
        -9.791060811791208
      ],
      [
        "▁polls",
        -9.791252560917393
      ],
      [
        "▁premiere",
        -9.79131510780931
      ],
      [
        "▁lock",
        -9.791348310412317
      ],
      [
        "▁staff",
        -9.79222606255705
      ],
      [
        "▁design",
        -9.793432001529023
      ],
      [
        "▁tomorrowuc",
        -9.795031370077043
      ],
      [
        "▁cd",
        -9.795310347551997
      ],
      [
        "▁project",
        -9.799172864512816
      ],
      [
        "▁character",
        -9.79917286539474
      ],
      [
        "▁anatomy",
        -9.79917290146804
      ],
      [
        "▁dahlia",
        -9.7991729017026
      ],
      [
        "▁opinion",
        -9.799173157312435
      ],
      [
        "▁rumour",
        -9.799177401763316
      ],
      [
        "▁franklin",
        -9.799179471858631
      ],
      [
        "▁channel",
        -9.799183689461987
      ],
      [
        "▁central",
        -9.799183867431367
      ],
      [
        "▁capitol",
        -9.799188060081924
      ],
      [
        "▁scene",
        -9.79919823032369
      ],
      [
        "▁annoy",
        -9.79921155173521
      ],
      [
        "▁retweet",
        -9.799229380540984
      ],
      [
        "▁respect",
        -9.79923418730865
      ],
      [
        "▁kanye",
        -9.799271919859038
      ],
      [
        "▁daniel",
        -9.799272118442712
      ],
      [
        "▁deserve",
        -9.799276108860598
      ],
      [
        "▁deep",
        -9.79927869189885
      ],
      [
        "▁hyung",
        -9.799297754424572
      ],
      [
        "▁upload",
        -9.799312334781089
      ],
      [
        "▁spur",
        -9.799360024417599
      ],
      [
        "▁selection",
        -9.799474877137001
      ],
      [
        "▁duck",
        -9.799541967584746
      ],
      [
        "▁machin",
        -9.799557261019153
      ],
      [
        "▁exactly",
        -9.799864333642152
      ],
      [
        "▁tax",
        -9.799911944354218
      ],
      [
        "▁ppl",
        -9.799920204722506
      ],
      [
        "▁code",
        -9.800187008474749
      ],
      [
        "▁somebody",
        -9.800389633534007
      ],
      [
        "▁direct",
        -9.800648395589176
      ],
      [
        "▁role",
        -9.80090300356953
      ],
      [
        "▁poor",
        -9.800947401017636
      ],
      [
        "▁trust",
        -9.801407682630007
      ],
      [
        "▁bag",
        -9.801543786180629
      ],
      [
        "ville",
        -9.801779230530535
      ],
      [
        "▁zayn",
        -9.801992301243187
      ],
      [
        "▁steel",
        -9.802054546323543
      ],
      [
        "▁wal",
        -9.80224574185155
      ],
      [
        "▁knot",
        -9.802459158265915
      ],
      [
        "▁twi",
        -9.802537038318249
      ],
      [
        "▁reminder",
        -9.802592840852652
      ],
      [
        "▁spoke",
        -9.802653239723506
      ],
      [
        "▁area",
        -9.802804158248044
      ],
      [
        "▁arian",
        -9.802870687228388
      ],
      [
        "▁africa",
        -9.80342772226604
      ],
      [
        "▁pair",
        -9.803763266268932
      ],
      [
        "▁imma",
        -9.804461895585728
      ],
      [
        "▁liars",
        -9.805860614241276
      ],
      [
        "▁ufc",
        -9.806111088391834
      ],
      [
        "▁water",
        -9.806377344991626
      ],
      [
        "▁nc",
        -9.807061457674898
      ],
      [
        "▁bout",
        -9.80858128549642
      ],
      [
        "▁def",
        -9.808901266339833
      ],
      [
        "▁wit",
        -9.809006433383521
      ],
      [
        "▁alive",
        -9.81086155274651
      ],
      [
        "▁ruto",
        -9.811451489431802
      ],
      [
        "▁primar",
        -9.81271084414565
      ],
      [
        "der",
        -9.815755923947286
      ],
      [
        "▁vol",
        -9.817992538035014
      ],
      [
        "▁island",
        -9.817995534575303
      ],
      [
        "▁fund",
        -9.820115852935949
      ],
      [
        "▁wall",
        -9.821015345173091
      ],
      [
        "clare",
        -9.821364973940701
      ],
      [
        "▁gettin",
        -9.821712074370867
      ],
      [
        "belle",
        -9.823747914091802
      ],
      [
        "range",
        -9.824890930857574
      ],
      [
        "▁theory",
        -9.825210301836682
      ],
      [
        "▁ro",
        -9.826347279169712
      ],
      [
        "▁texa",
        -9.826657146833464
      ],
      [
        "▁hiv",
        -9.826944873284386
      ],
      [
        "▁bank",
        -9.828202033318025
      ],
      [
        "▁bright",
        -9.829929107938842
      ],
      [
        "▁sent",
        -9.830357377758613
      ],
      [
        "▁sc",
        -9.830497152399506
      ],
      [
        "lex",
        -9.832536514636928
      ],
      [
        "ndra",
        -9.832603004988638
      ],
      [
        "▁ve",
        -9.837485500307608
      ],
      [
        "house",
        -9.838045803126567
      ],
      [
        "▁mothers",
        -9.838124183814335
      ],
      [
        "▁br",
        -9.838467919863266
      ],
      [
        "▁comed",
        -9.838633348044628
      ],
      [
        "just",
        -9.839335167647459
      ],
      [
        "▁lil",
        -9.841452198280736
      ],
      [
        "mous",
        -9.841883034894636
      ],
      [
        "ybody",
        -9.843775211196268
      ],
      [
        "▁gb",
        -9.845494041949095
      ],
      [
        "band",
        -9.845897019794876
      ],
      [
        "▁nat",
        -9.846080217606435
      ],
      [
        "ated",
        -9.848750689094862
      ],
      [
        "▁tip",
        -9.8490096643209
      ],
      [
        "▁independen",
        -9.851777660340778
      ],
      [
        "▁ang",
        -9.8521721653918
      ],
      [
        "▁announc",
        -9.854670583197931
      ],
      [
        "▁wayn",
        -9.854912133556043
      ],
      [
        "pe",
        -9.857227273828086
      ],
      [
        "▁gree",
        -9.857469010721818
      ],
      [
        "ped",
        -9.858012915348835
      ],
      [
        "nes",
        -9.859609014348372
      ],
      [
        "▁depend",
        -9.860229646536794
      ],
      [
        "▁europ",
        -9.860993475917244
      ],
      [
        "cast",
        -9.862488231701933
      ],
      [
        "▁nor",
        -9.86277718100169
      ],
      [
        "▁pi",
        -9.863986594097785
      ],
      [
        "▁dharamsala",
        -9.865839531099086
      ],
      [
        "▁response",
        -9.86583953131354
      ],
      [
        "▁trouble",
        -9.865839554647946
      ],
      [
        "▁advance",
        -9.86583960128293
      ],
      [
        "▁vettel",
        -9.865839888753914
      ],
      [
        "ronaldo",
        -9.865840156824458
      ],
      [
        "▁cinema",
        -9.865842902233819
      ],
      [
        "▁scandal",
        -9.865849013739544
      ],
      [
        "▁foreign",
        -9.865851485475194
      ],
      [
        "▁freak",
        -9.865854262392556
      ],
      [
        "▁attempt",
        -9.865864182726883
      ],
      [
        "▁foster",
        -9.865881531450956
      ],
      [
        "▁scream",
        -9.865883803422902
      ],
      [
        "▁eddie",
        -9.865890107844384
      ],
      [
        "▁curt",
        -9.865929997286992
      ],
      [
        "▁pump",
        -9.865941240506983
      ],
      [
        "▁wizards",
        -9.865946529219563
      ],
      [
        "▁odd",
        -9.865949319878798
      ],
      [
        "▁install",
        -9.866019747652595
      ],
      [
        "▁color",
        -9.866038213656488
      ],
      [
        "▁audi",
        -9.866062789325465
      ],
      [
        "▁rome",
        -9.86616740732456
      ],
      [
        "▁fool",
        -9.86623066531422
      ],
      [
        "▁crowd",
        -9.866236033855609
      ],
      [
        "▁wedding",
        -9.86624681658248
      ],
      [
        "▁donny",
        -9.866267102985324
      ],
      [
        "▁spx",
        -9.866277605693131
      ],
      [
        "▁costume",
        -9.866346308875743
      ],
      [
        "▁youtube",
        -9.866391672919242
      ],
      [
        "▁pssa",
        -9.86645764988194
      ],
      [
        "▁load",
        -9.86651056102089
      ],
      [
        "▁scout",
        -9.866604926889153
      ],
      [
        "▁fear",
        -9.866652233778776
      ],
      [
        "▁brain",
        -9.866718013029669
      ],
      [
        "▁study",
        -9.866966044134967
      ],
      [
        "▁catholic",
        -9.86697436859849
      ],
      [
        "▁health",
        -9.86697599614117
      ],
      [
        "▁certain",
        -9.866978368887269
      ],
      [
        "▁wild",
        -9.866995280409311
      ],
      [
        "▁charles",
        -9.867172332987789
      ],
      [
        "▁child",
        -9.867684722944395
      ],
      [
        "▁pop",
        -9.86787184094996
      ],
      [
        "▁clash",
        -9.868017120716878
      ],
      [
        "▁displa",
        -9.868882774883955
      ],
      [
        "▁gea",
        -9.868964298959675
      ],
      [
        "▁lenn",
        -9.86896558518639
      ],
      [
        "▁affle",
        -9.86906961110644
      ],
      [
        "▁brook",
        -9.869119386887455
      ],
      [
        "▁exist",
        -9.86921082971957
      ],
      [
        "▁brady",
        -9.870857216132244
      ],
      [
        "▁horn",
        -9.871604265853298
      ],
      [
        "▁yay",
        -9.872525339146177
      ],
      [
        "▁trick",
        -9.87311066690362
      ],
      [
        "▁members",
        -9.874070471157648
      ],
      [
        "▁idc",
        -9.874086462197845
      ],
      [
        "▁loss",
        -9.87439587359881
      ],
      [
        "▁scor",
        -9.875172370596262
      ],
      [
        "▁content",
        -9.876021152557437
      ],
      [
        "▁fec",
        -9.876852256065108
      ],
      [
        "mate",
        -9.877516746856758
      ],
      [
        "ez",
        -9.878246254130504
      ],
      [
        "▁nite",
        -9.880141503977518
      ],
      [
        "ur",
        -9.88051501478962
      ],
      [
        "▁includ",
        -9.88128512435237
      ],
      [
        "ice",
        -9.88549463576868
      ],
      [
        "▁wouldn",
        -9.886549860054155
      ],
      [
        "may",
        -9.887862118808895
      ],
      [
        "▁yea",
        -9.888173304598237
      ],
      [
        "▁figure",
        -9.88960197855628
      ],
      [
        "field",
        -9.890111110921886
      ],
      [
        "for",
        -9.891823181582506
      ],
      [
        "▁reg",
        -9.892409931412665
      ],
      [
        "▁cap",
        -9.894800513609695
      ],
      [
        "▁secur",
        -9.895727878736967
      ],
      [
        "▁don",
        -9.895895668814767
      ],
      [
        "▁fab",
        -9.89614554478031
      ],
      [
        "oops",
        -9.897119967694827
      ],
      [
        "▁refugee",
        -9.8971619006761
      ],
      [
        "▁bears",
        -9.897465000739972
      ],
      [
        "than",
        -9.898141061528383
      ],
      [
        "▁lie",
        -9.900476717180666
      ],
      [
        "▁par",
        -9.900548418702767
      ],
      [
        "▁lucky",
        -9.903769043126967
      ],
      [
        "ell",
        -9.905150191825708
      ],
      [
        "▁nick",
        -9.905623482551736
      ],
      [
        "bank",
        -9.908167057165468
      ],
      [
        "▁apps",
        -9.909238643405475
      ],
      [
        "▁za",
        -9.91091155723284
      ],
      [
        "▁pst",
        -9.911494218516715
      ],
      [
        "▁manage",
        -9.9115494643034
      ],
      [
        "▁vot",
        -9.911611235619775
      ],
      [
        "▁extend",
        -9.911885584428244
      ],
      [
        "▁fc",
        -9.91227131490941
      ],
      [
        "ne",
        -9.912705743713042
      ],
      [
        "▁cor",
        -9.916316772543052
      ],
      [
        "▁yu",
        -9.916617471430262
      ],
      [
        "▁wo",
        -9.919225429658487
      ],
      [
        "▁lov",
        -9.91967946037477
      ],
      [
        "▁inter",
        -9.92017611668733
      ],
      [
        "izer",
        -9.92319345373703
      ],
      [
        "▁finishe",
        -9.923604707447895
      ],
      [
        "▁boo",
        -9.924418601551617
      ],
      [
        "▁gar",
        -9.925761578076473
      ],
      [
        "▁isn",
        -9.927243607564959
      ],
      [
        "of",
        -9.928333372755239
      ],
      [
        "ul",
        -9.929217272428458
      ],
      [
        "▁sex",
        -9.931165425379607
      ],
      [
        "ession",
        -9.933367636509189
      ],
      [
        "▁bird",
        -9.934475022919354
      ],
      [
        "bola",
        -9.935373168562695
      ],
      [
        "▁hm",
        -9.936233213583666
      ],
      [
        "lo",
        -9.936794275593623
      ],
      [
        "▁singapore",
        -9.937268103130377
      ],
      [
        "▁welbeck",
        -9.937268111281263
      ],
      [
        "▁skylynn",
        -9.937268153630784
      ],
      [
        "▁french",
        -9.937268642694955
      ],
      [
        "▁destroy",
        -9.937268942682614
      ],
      [
        "▁orleans",
        -9.937269689577157
      ],
      [
        "▁suarez",
        -9.937276544434662
      ],
      [
        "▁purchase",
        -9.937286055685146
      ],
      [
        "▁source",
        -9.937330403346724
      ],
      [
        "▁arrival",
        -9.937441139443623
      ],
      [
        "▁exam",
        -9.937450097100651
      ],
      [
        "▁resign",
        -9.937525552215995
      ],
      [
        "▁demand",
        -9.937685137264776
      ],
      [
        "ventur",
        -9.937699588950945
      ],
      [
        "▁console",
        -9.937795416080771
      ],
      [
        "▁playlist",
        -9.937807480059334
      ],
      [
        "▁bunch",
        -9.93789824802092
      ],
      [
        "▁shout",
        -9.937948746702093
      ],
      [
        "▁bigger",
        -9.938121299725733
      ],
      [
        "▁competiti",
        -9.938441613575861
      ],
      [
        "▁document",
        -9.93849042115768
      ],
      [
        "▁concern",
        -9.938536018564704
      ],
      [
        "▁ashton",
        -9.93856319245086
      ],
      [
        "▁bbc",
        -9.938667992631709
      ],
      [
        "▁pitch",
        -9.938766251215702
      ],
      [
        "dida",
        -9.93894299878879
      ],
      [
        "▁milan",
        -9.93897826295257
      ],
      [
        "▁sack",
        -9.939241515575915
      ],
      [
        "▁route",
        -9.939416778319831
      ],
      [
        "▁roger",
        -9.939460667089966
      ],
      [
        "▁leak",
        -9.939686336275273
      ],
      [
        "▁judge",
        -9.939717421025417
      ],
      [
        "▁nak",
        -9.939879318977813
      ],
      [
        "▁self",
        -9.940825870793049
      ],
      [
        "▁broken",
        -9.94087073483072
      ],
      [
        "▁triang",
        -9.94115746278823
      ],
      [
        "▁father",
        -9.941166227364041
      ],
      [
        "ington",
        -9.941595738851884
      ],
      [
        "▁rub",
        -9.942006135174607
      ],
      [
        "▁arena",
        -9.94218630595375
      ],
      [
        "▁system",
        -9.942597601160141
      ],
      [
        "▁item",
        -9.942965415414816
      ],
      [
        "▁server",
        -9.943323303775601
      ],
      [
        "▁fb",
        -9.943529178084109
      ],
      [
        "▁lumi",
        -9.943720891848312
      ],
      [
        "▁cam",
        -9.943863929921072
      ],
      [
        "sara",
        -9.94423752440439
      ],
      [
        "▁dave",
        -9.944755009364055
      ],
      [
        "▁unc",
        -9.945351455724955
      ],
      [
        "▁warm",
        -9.9463407779694
      ],
      [
        "▁^^",
        -9.947222606882313
      ],
      [
        "▁louis",
        -9.947489870099965
      ],
      [
        "▁sub",
        -9.947708945794842
      ],
      [
        "▁carn",
        -9.948184739073476
      ],
      [
        "▁lv",
        -9.94822285167636
      ],
      [
        "▁jona",
        -9.948879108000805
      ],
      [
        "rote",
        -9.949134190366252
      ],
      [
        "ver",
        -9.949265711108254
      ],
      [
        "▁cuba",
        -9.949734376686218
      ],
      [
        "▁shame",
        -9.950219867765718
      ],
      [
        "▁dem",
        -9.950554714133675
      ],
      [
        "lies",
        -9.951669593279231
      ],
      [
        "▁easter",
        -9.952171452732333
      ],
      [
        "▁wi",
        -9.95400005072425
      ],
      [
        "oka",
        -9.955424387255128
      ],
      [
        "men",
        -9.957173247227617
      ],
      [
        "▁mary",
        -9.957177386244389
      ],
      [
        "▁steve",
        -9.957623503916995
      ],
      [
        "▁panth",
        -9.957888128099027
      ],
      [
        "▁station",
        -9.958622564123349
      ],
      [
        "▁hurt",
        -9.959013515357752
      ],
      [
        "▁abt",
        -9.959850254737043
      ],
      [
        "▁gunn",
        -9.9620842111825
      ],
      [
        "leed",
        -9.96225832801781
      ],
      [
        "▁linked",
        -9.963563531662903
      ],
      [
        "▁>",
        -9.964016369314336
      ],
      [
        "ol",
        -9.970218616471834
      ],
      [
        "▁screening",
        -9.970585436850824
      ],
      [
        "▁manager",
        -9.972206666337016
      ],
      [
        "▁pats",
        -9.972311037535993
      ],
      [
        "▁voter",
        -9.972338511948031
      ],
      [
        "▁mini",
        -9.972373431914999
      ],
      [
        "▁pres",
        -9.97360018590311
      ],
      [
        "▁student",
        -9.973806906636769
      ],
      [
        "▁politics",
        -9.975930269388886
      ],
      [
        "▁students",
        -9.976191173631806
      ],
      [
        "shop",
        -9.976212506375225
      ],
      [
        "▁hd",
        -9.976395650089973
      ],
      [
        "▁politic",
        -9.978159935814121
      ],
      [
        "▁arm",
        -9.978537082450359
      ],
      [
        "ari",
        -9.97880476335492
      ],
      [
        "ra",
        -9.978907806174334
      ],
      [
        "▁fam",
        -9.985172527815983
      ],
      [
        "ics",
        -9.985574588537734
      ],
      [
        "▁prepare",
        -9.986441309639199
      ],
      [
        "stic",
        -9.987747817121399
      ],
      [
        "▁pu",
        -9.98826541019279
      ],
      [
        "though",
        -9.98827896171386
      ],
      [
        "gen",
        -9.988478161220405
      ],
      [
        "rd",
        -9.989409708762345
      ],
      [
        "ular",
        -9.99523122881817
      ],
      [
        "iest",
        -9.998907896163134
      ],
      [
        "arod",
        -10.000134518185565
      ],
      [
        "▁su",
        -10.001677911318087
      ],
      [
        "▁memori",
        -10.003170375254738
      ],
      [
        "▁fi",
        -10.0043648028766
      ],
      [
        "its",
        -10.004533017069221
      ],
      [
        "▁showing",
        -10.004826573877745
      ],
      [
        "▁crack",
        -10.005047173665673
      ],
      [
        "▁cash",
        -10.005672270308756
      ],
      [
        "ival",
        -10.005829206399682
      ],
      [
        "over",
        -10.008829098248023
      ],
      [
        "▁cars",
        -10.009516625622876
      ],
      [
        "▁scott",
        -10.010348599573973
      ],
      [
        "▁fac",
        -10.01083978459097
      ],
      [
        "▁elect",
        -10.011089859855574
      ],
      [
        "lair",
        -10.011577807011996
      ],
      [
        "▁quick",
        -10.01345955793509
      ],
      [
        "▁champ",
        -10.014027679758112
      ],
      [
        "▁barcelona",
        -10.014191179784795
      ],
      [
        "▁santorum",
        -10.014191184441307
      ],
      [
        "▁kravitz",
        -10.014191188858137
      ],
      [
        "▁according",
        -10.014191264489275
      ],
      [
        "▁female",
        -10.014191303696233
      ],
      [
        "▁huntsman",
        -10.014194691740602
      ],
      [
        "▁process",
        -10.01419538974687
      ],
      [
        "▁dvd",
        -10.014202689513478
      ],
      [
        "▁thousand",
        -10.014203676907574
      ],
      [
        "▁artist",
        -10.014212429663338
      ],
      [
        "▁basketball",
        -10.01421293143966
      ],
      [
        "▁ruin",
        -10.014214278828735
      ],
      [
        "▁nlc",
        -10.014215016795841
      ],
      [
        "▁telecom",
        -10.014217469619169
      ],
      [
        "▁commercial",
        -10.014221367860394
      ],
      [
        "▁dublin",
        -10.014243066562974
      ],
      [
        "▁emotion",
        -10.014249605641869
      ],
      [
        "▁jesu",
        -10.01425050240715
      ],
      [
        "▁target",
        -10.01426776626866
      ],
      [
        "▁fantast",
        -10.014270604346068
      ],
      [
        "▁threat",
        -10.01428418894336
      ],
      [
        "▁cnn",
        -10.01430471660934
      ],
      [
        "▁grill",
        -10.01440315651748
      ],
      [
        "▁nobody",
        -10.014483483706188
      ],
      [
        "▁drake",
        -10.014488181241905
      ],
      [
        "▁camera",
        -10.014568557103141
      ],
      [
        "▁hover",
        -10.014732198216365
      ],
      [
        "▁dash",
        -10.014787116360928
      ],
      [
        "▁knight",
        -10.014812092204814
      ],
      [
        "▁computer",
        -10.01482708233149
      ],
      [
        "▁truth",
        -10.014879345742221
      ],
      [
        "▁espn",
        -10.015250617434031
      ],
      [
        "▁region",
        -10.015452509092658
      ],
      [
        "▁rating",
        -10.015700340029225
      ],
      [
        "ine",
        -10.015711371459059
      ],
      [
        "▁bond",
        -10.01571591704932
      ],
      [
        "▁painter",
        -10.015733960949337
      ],
      [
        "▁celebration",
        -10.015828951881183
      ],
      [
        "▁chair",
        -10.015937600515175
      ],
      [
        "▁bail",
        -10.016098276732455
      ],
      [
        "▁villa",
        -10.016263191356986
      ],
      [
        "▁sha",
        -10.016364482451138
      ],
      [
        "▁bryan",
        -10.016439654670496
      ],
      [
        "▁paley",
        -10.01651820508127
      ],
      [
        "▁broke",
        -10.016531840175446
      ],
      [
        "▁pri",
        -10.016729060289801
      ],
      [
        "▁tele",
        -10.016952515532537
      ],
      [
        "▁syrian",
        -10.017248363601725
      ],
      [
        "▁philly",
        -10.01743499227532
      ],
      [
        "▁daughter",
        -10.017626967961627
      ],
      [
        "▁blame",
        -10.01811558971791
      ],
      [
        "▁reed",
        -10.018288534801751
      ],
      [
        "▁milita",
        -10.01846425140204
      ],
      [
        "▁sang",
        -10.019570149683739
      ],
      [
        "▁shipp",
        -10.01994397222797
      ],
      [
        "▁space",
        -10.021062138772265
      ],
      [
        "▁tear",
        -10.021311993777973
      ],
      [
        "▁op",
        -10.022028954013727
      ],
      [
        "▁buck",
        -10.022263561607105
      ],
      [
        "▁disc",
        -10.022604314508236
      ],
      [
        "▁mika",
        -10.023022186766307
      ],
      [
        "▁nia",
        -10.0231560874703
      ],
      [
        "▁cancell",
        -10.024202957573715
      ],
      [
        "▁shooting",
        -10.024724944333135
      ],
      [
        "▁boss",
        -10.024991324556623
      ],
      [
        "▁natural",
        -10.026519209346723
      ],
      [
        "▁plays",
        -10.02738418994608
      ],
      [
        "▁fel",
        -10.027566801731858
      ],
      [
        "fully",
        -10.028792720347033
      ],
      [
        "ze",
        -10.029657041310976
      ],
      [
        "mons",
        -10.029669357564973
      ],
      [
        "ific",
        -10.030229814888877
      ],
      [
        "bb",
        -10.030791741890448
      ],
      [
        "▁promo",
        -10.032304789633763
      ],
      [
        "▁hire",
        -10.033743969371946
      ],
      [
        "▁aware",
        -10.034522164073495
      ],
      [
        "▁li",
        -10.03837003216636
      ],
      [
        "ant",
        -10.039987074853334
      ],
      [
        "un",
        -10.040194804826607
      ],
      [
        "ill",
        -10.041929534999479
      ],
      [
        "eating",
        -10.044253132060556
      ],
      [
        "▁indie",
        -10.044781674715958
      ],
      [
        "▁shell",
        -10.04929709298359
      ],
      [
        "tus",
        -10.050046551952585
      ],
      [
        "▁hole",
        -10.05359028568278
      ],
      [
        "▁isner",
        -10.053629808090703
      ],
      [
        "▁remain",
        -10.056293596602197
      ],
      [
        "timate",
        -10.057509941851425
      ],
      [
        "ray",
        -10.057587804520656
      ],
      [
        "verage",
        -10.058271786573888
      ],
      [
        "▁fl",
        -10.058803906770299
      ],
      [
        "ellen",
        -10.060776606428231
      ],
      [
        "▁product",
        -10.061960281626963
      ],
      [
        "ude",
        -10.064473109781153
      ],
      [
        "scar",
        -10.065454855770463
      ],
      [
        ">",
        -10.065848994930397
      ],
      [
        "~",
        -10.066923457433546
      ],
      [
        "▁simp",
        -10.067248090136161
      ],
      [
        "<",
        -10.068285037997933
      ],
      [
        "ps",
        -10.068437652191802
      ],
      [
        "▁create",
        -10.068861366397979
      ],
      [
        "▁bra",
        -10.06922109144135
      ],
      [
        "idit",
        -10.069460326565991
      ],
      [
        "eden",
        -10.070199038581709
      ],
      [
        "▁earn",
        -10.070728195955969
      ],
      [
        "gov",
        -10.071366572514156
      ],
      [
        "are",
        -10.07137839657582
      ],
      [
        "wear",
        -10.072229859679592
      ],
      [
        "▁ali",
        -10.072810355952633
      ],
      [
        "kin",
        -10.073253253228621
      ],
      [
        "▁gandhi",
        -10.074867811370789
      ],
      [
        "▁mg",
        -10.07576488494458
      ],
      [
        "▁woo",
        -10.079603487862675
      ],
      [
        "▁flag",
        -10.07973313247238
      ],
      [
        "▁file",
        -10.080508446279323
      ],
      [
        "oul",
        -10.080888826480757
      ],
      [
        "▁improv",
        -10.084525183670902
      ],
      [
        "▁rollin",
        -10.085087068323368
      ],
      [
        "▁challenge",
        -10.086837915408246
      ],
      [
        "▁member",
        -10.087545114409524
      ],
      [
        "▁babe",
        -10.088060364603477
      ],
      [
        "▁lit",
        -10.090216380144314
      ],
      [
        "▁offens",
        -10.090311146203147
      ],
      [
        "▁mistake",
        -10.092387540415023
      ],
      [
        "▁crash",
        -10.092463522304719
      ],
      [
        "note",
        -10.093613486419862
      ],
      [
        "▁recent",
        -10.095144341229584
      ],
      [
        "▁rush",
        -10.095209643477475
      ],
      [
        "▁pray",
        -10.095720239784788
      ],
      [
        "▁shine",
        -10.096175497117347
      ],
      [
        "▁crap",
        -10.096459784960429
      ],
      [
        "hur",
        -10.096520367098345
      ],
      [
        "▁poster",
        -10.096916408941295
      ],
      [
        "▁marri",
        -10.097266186019706
      ],
      [
        "▁philippines",
        -10.097524520465084
      ],
      [
        "▁research",
        -10.09752455035207
      ],
      [
        "▁afghan",
        -10.097524596470349
      ],
      [
        "▁bachelor",
        -10.097524678913839
      ],
      [
        "▁awkward",
        -10.097524757020544
      ],
      [
        "▁jealous",
        -10.097524779762672
      ],
      [
        "▁preorder",
        -10.09752487089324
      ],
      [
        "▁senior",
        -10.097525394351734
      ],
      [
        "▁traffic",
        -10.097525566759641
      ],
      [
        "▁volume",
        -10.097526587348579
      ],
      [
        "▁regret",
        -10.097534272938155
      ],
      [
        "▁wvu",
        -10.097534484960118
      ],
      [
        "▁colbert",
        -10.097538805879811
      ],
      [
        "▁science",
        -10.09754050149611
      ],
      [
        "▁hustle",
        -10.097548713497346
      ],
      [
        "▁consist",
        -10.09755004091787
      ],
      [
        "▁evil",
        -10.0975579886954
      ],
      [
        "▁loud",
        -10.097582941690952
      ],
      [
        "▁entertain",
        -10.097585555332252
      ],
      [
        "▁bayern",
        -10.097600204912123
      ],
      [
        "▁kevin",
        -10.097652724668688
      ],
      [
        "▁irish",
        -10.09766549864714
      ],
      [
        "▁option",
        -10.097670336800714
      ],
      [
        "▁recover",
        -10.097702436509678
      ],
      [
        "▁davis",
        -10.097742786570034
      ],
      [
        "▁switch",
        -10.097746179229084
      ],
      [
        "▁split",
        -10.097753123462523
      ],
      [
        "▁admit",
        -10.097756413604564
      ],
      [
        "rizon",
        -10.097798135911205
      ],
      [
        "▁chicken",
        -10.097850744048412
      ],
      [
        "▁general",
        -10.097876366848144
      ],
      [
        "▁decent",
        -10.097914110049157
      ],
      [
        "▁lame",
        -10.097979416633034
      ],
      [
        "▁senator",
        -10.098043096759671
      ],
      [
        "▁cell",
        -10.098214309609375
      ],
      [
        "▁unfortunat",
        -10.098231032352619
      ],
      [
        "▁partner",
        -10.09823323629103
      ],
      [
        "▁among",
        -10.098378643616483
      ],
      [
        "▁awaken",
        -10.098386743306442
      ],
      [
        "▁bottle",
        -10.098446842666458
      ],
      [
        "▁snow",
        -10.098570835138789
      ],
      [
        "▁sneak",
        -10.098948501503234
      ],
      [
        "▁village",
        -10.099050015922261
      ],
      [
        "▁crew",
        -10.099160769599496
      ],
      [
        "ponder",
        -10.099486205980867
      ],
      [
        "▁piss",
        -10.099957879393195
      ],
      [
        "▁laid",
        -10.100139637285084
      ],
      [
        "▁lax",
        -10.100256636474963
      ],
      [
        "dle",
        -10.100289296895001
      ],
      [
        "▁reply",
        -10.100772564481263
      ],
      [
        "▁statement",
        -10.10144060162629
      ],
      [
        "▁vip",
        -10.101461504130016
      ],
      [
        "▁position",
        -10.101632395383719
      ],
      [
        "▁goodnight",
        -10.102172616233092
      ],
      [
        "▁aja",
        -10.103691080790698
      ],
      [
        "▁conc",
        -10.10372578010303
      ],
      [
        "▁mass",
        -10.103726997871181
      ],
      [
        "▁wine",
        -10.103834052759451
      ],
      [
        "▁active",
        -10.104119978016065
      ],
      [
        "▁whatever",
        -10.105063708176518
      ],
      [
        "▁putt",
        -10.105713113120846
      ],
      [
        "▁cross",
        -10.106164907960778
      ],
      [
        "▁higher",
        -10.106477197317687
      ],
      [
        "▁anti",
        -10.106979776113938
      ],
      [
        "ener",
        -10.107222483623964
      ],
      [
        "▁crie",
        -10.10741292599449
      ],
      [
        "▁quote",
        -10.10843867527896
      ],
      [
        "laga",
        -10.108777287515808
      ],
      [
        "▁pat",
        -10.109612966013637
      ],
      [
        "▁fish",
        -10.109757624482834
      ],
      [
        "chase",
        -10.110217458739708
      ],
      [
        "▁joy",
        -10.113924804128684
      ],
      [
        "nica",
        -10.115220924367044
      ],
      [
        "▁tree",
        -10.115727480911765
      ],
      [
        "▁sprint",
        -10.117702595400598
      ],
      [
        "▁mess",
        -10.118382105358954
      ],
      [
        "▁creat",
        -10.118412196688878
      ],
      [
        "▁driver",
        -10.118708555313527
      ],
      [
        "▁building",
        -10.121506839706322
      ],
      [
        "red",
        -10.122448363211792
      ],
      [
        "▁vega",
        -10.125026401564261
      ],
      [
        "abbe",
        -10.125215243482096
      ],
      [
        "nare",
        -10.12765543007159
      ],
      [
        "ong",
        -10.128487182113105
      ],
      [
        "▁shop",
        -10.128609379170285
      ],
      [
        "▁prepar",
        -10.129187443383561
      ],
      [
        "avey",
        -10.130962075882994
      ],
      [
        "▁stor",
        -10.132115383919373
      ],
      [
        "▁ke",
        -10.133724892929042
      ],
      [
        "stal",
        -10.134664894601622
      ],
      [
        "▁chang",
        -10.135097947086358
      ],
      [
        "ireland",
        -10.135466068078948
      ],
      [
        "▁bye",
        -10.138237224532945
      ],
      [
        "air",
        -10.139850318131586
      ],
      [
        "arsh",
        -10.140567773374858
      ],
      [
        "▁den",
        -10.140839320402037
      ],
      [
        "▁struggle",
        -10.143093748982126
      ],
      [
        "▁clos",
        -10.144309007223228
      ],
      [
        "▁warn",
        -10.148667144700303
      ],
      [
        "lord",
        -10.15071327578656
      ],
      [
        "▁calle",
        -10.154071449711818
      ],
      [
        "▁compare",
        -10.155515996729784
      ],
      [
        "▁standing",
        -10.156232241914816
      ],
      [
        "▁sport",
        -10.156488157454737
      ],
      [
        "▁cab",
        -10.157840882723317
      ],
      [
        "fest",
        -10.158710623529624
      ],
      [
        "▁wor",
        -10.160117895445559
      ],
      [
        "club",
        -10.160357829676911
      ],
      [
        "▁bel",
        -10.16060426519967
      ],
      [
        "ld",
        -10.160890360606825
      ],
      [
        "▁kl",
        -10.161133376850934
      ],
      [
        "▁tag",
        -10.16131894716206
      ],
      [
        "▁hone",
        -10.163976121823461
      ],
      [
        "ations",
        -10.16445448731929
      ],
      [
        "cc",
        -10.165631454225203
      ],
      [
        "ent",
        -10.166257627613764
      ],
      [
        "▁similar",
        -10.166858159098279
      ],
      [
        "▁relax",
        -10.16842437625021
      ],
      [
        "mark",
        -10.169135800424826
      ],
      [
        "▁ye",
        -10.169762541560488
      ],
      [
        "nce",
        -10.169811027357309
      ],
      [
        "▁ideas",
        -10.171060667848577
      ],
      [
        "▁sw",
        -10.171556539160424
      ],
      [
        "▁shock",
        -10.171765432578457
      ],
      [
        "▁wonu",
        -10.172239260039825
      ],
      [
        "▁dig",
        -10.172845572558082
      ],
      [
        "stone",
        -10.173244064080556
      ],
      [
        "edia",
        -10.174581516386878
      ],
      [
        "iddle",
        -10.174835733146153
      ],
      [
        "▁mic",
        -10.180619230023908
      ],
      [
        "▁tar",
        -10.183040424842684
      ],
      [
        "▁tab",
        -10.18314735541528
      ],
      [
        "governor",
        -10.186466899089345
      ],
      [
        "▁immigra",
        -10.188410130212999
      ],
      [
        "▁disagree",
        -10.18843360519128
      ],
      [
        "▁incredibl",
        -10.188433667434852
      ],
      [
        "▁nabeel",
        -10.188433754540885
      ],
      [
        "▁involve",
        -10.188434185830763
      ],
      [
        "▁website",
        -10.1884347833099
      ],
      [
        "▁idiot",
        -10.188434875687314
      ],
      [
        "▁louisiana",
        -10.188435148712674
      ],
      [
        "▁complain",
        -10.188435501260834
      ],
      [
        "▁customer",
        -10.188437073183037
      ],
      [
        "▁russia",
        -10.188443339998166
      ],
      [
        "▁cousin",
        -10.188443476456124
      ],
      [
        "▁madison",
        -10.188445427753734
      ],
      [
        "▁titan",
        -10.188445775907628
      ],
      [
        "▁ruling",
        -10.18844616886175
      ],
      [
        "▁tennis",
        -10.188448211012291
      ],
      [
        "▁register",
        -10.188449033425112
      ],
      [
        "▁laptop",
        -10.188462422727588
      ],
      [
        "▁solid",
        -10.188462503986802
      ],
      [
        "▁gift",
        -10.188478366079861
      ],
      [
        "▁jail",
        -10.188508474828541
      ],
      [
        "▁screw",
        -10.188519387658433
      ],
      [
        "▁further",
        -10.188545931732445
      ],
      [
        "▁speed",
        -10.188549071234924
      ],
      [
        "▁boyfriend",
        -10.188617122779805
      ],
      [
        "▁executive",
        -10.188630684111818
      ],
      [
        "▁earth",
        -10.188663889650607
      ],
      [
        "▁focus",
        -10.188684172827209
      ],
      [
        "▁reform",
        -10.18877140305388
      ],
      [
        "▁carolina",
        -10.18880634471406
      ],
      [
        "▁pizza",
        -10.188821055346535
      ],
      [
        "▁dick",
        -10.188828433189924
      ],
      [
        "▁marshall",
        -10.188858853142431
      ],
      [
        "▁library",
        -10.188897608462153
      ],
      [
        "▁jerry",
        -10.188975607602014
      ],
      [
        "▁package",
        -10.18898030686395
      ],
      [
        "▁christie",
        -10.189032052439453
      ],
      [
        "▁pain",
        -10.18906576871275
      ],
      [
        "▁steal",
        -10.189234112069752
      ],
      [
        "▁depo",
        -10.189298355661629
      ],
      [
        "▁chip",
        -10.189504883863599
      ],
      [
        "kay",
        -10.189583138959401
      ],
      [
        "▁spani",
        -10.189693384835007
      ],
      [
        "▁director",
        -10.189771070722879
      ],
      [
        "▁dev",
        -10.190076004984903
      ],
      [
        "▁shore",
        -10.19008438404327
      ],
      [
        "▁ceo",
        -10.190202092154413
      ],
      [
        "▁chap",
        -10.190413075982411
      ],
      [
        "▁lower",
        -10.19044814689801
      ],
      [
        "▁younique",
        -10.19045265378511
      ],
      [
        "▁batter",
        -10.190556486950834
      ],
      [
        "▁clipper",
        -10.190744996650231
      ],
      [
        "▁striker",
        -10.190888174907462
      ],
      [
        "▁loan",
        -10.190902623423494
      ],
      [
        "▁flash",
        -10.19132213743764
      ],
      [
        "▁gain",
        -10.191536088539435
      ],
      [
        "▁sort",
        -10.19196810839312
      ],
      [
        "▁levi",
        -10.192385069351095
      ],
      [
        "▁corbyn",
        -10.192530142166563
      ],
      [
        "▁responsib",
        -10.192674953568233
      ],
      [
        "▁nh",
        -10.192907830393604
      ],
      [
        "▁racist",
        -10.19300494638222
      ],
      [
        "▁range",
        -10.193323496424561
      ],
      [
        "▁headline",
        -10.193784136463963
      ],
      [
        "uck",
        -10.193914534753173
      ],
      [
        "▁tumbl",
        -10.194035609095355
      ],
      [
        "▁appreciate",
        -10.19408350196022
      ],
      [
        "▁kirk",
        -10.194230790268659
      ],
      [
        "▁matche",
        -10.194819515940468
      ],
      [
        "journe",
        -10.195074517353834
      ],
      [
        "▁lang",
        -10.195266943322752
      ],
      [
        "tain",
        -10.195383225949884
      ],
      [
        "▁greys",
        -10.195898763601157
      ],
      [
        "▁supporter",
        -10.196399378681468
      ],
      [
        "muel",
        -10.196564566525803
      ],
      [
        "▁abo",
        -10.196623467395977
      ],
      [
        "▁helsin",
        -10.198055134848843
      ],
      [
        "▁mall",
        -10.198625615299225
      ],
      [
        "▁dre",
        -10.200337010681931
      ],
      [
        "▁pit",
        -10.200528131244855
      ],
      [
        "hbk",
        -10.2011743368675
      ],
      [
        "▁pitt",
        -10.201623467178988
      ],
      [
        "▁age",
        -10.202022727297363
      ],
      [
        "▁skyp",
        -10.202244347527788
      ],
      [
        "mer",
        -10.202337555516623
      ],
      [
        "▁taste",
        -10.202819416586959
      ],
      [
        "now",
        -10.204449140203213
      ],
      [
        "▁mouth",
        -10.204502318189439
      ],
      [
        "holm",
        -10.205173806416672
      ],
      [
        "hip",
        -10.20724195115578
      ],
      [
        "▁hawk",
        -10.207344850120005
      ],
      [
        "how",
        -10.207553252446814
      ],
      [
        "fake",
        -10.208379498063572
      ],
      [
        "▁belt",
        -10.208412649536315
      ],
      [
        "lah",
        -10.208450324957134
      ],
      [
        "▁mob",
        -10.209552354139083
      ],
      [
        "▁dye",
        -10.20998227493951
      ],
      [
        "▁pictures",
        -10.213423897029076
      ],
      [
        "▁prob",
        -10.21408122905977
      ],
      [
        "this",
        -10.214190938260524
      ],
      [
        "▁max",
        -10.214439633101255
      ],
      [
        "▁lay",
        -10.214581607782671
      ],
      [
        "▁gaz",
        -10.214885294006546
      ],
      [
        "▁bor",
        -10.215033715139509
      ],
      [
        "▁comic",
        -10.216534006675122
      ],
      [
        "▁relate",
        -10.217162116171812
      ],
      [
        "▁launche",
        -10.218299158487856
      ],
      [
        "▁gordon",
        -10.218553825365982
      ],
      [
        "▁sometimes",
        -10.218602192387955
      ],
      [
        "▁gate",
        -10.219288121365645
      ],
      [
        "▁bear",
        -10.219397845190898
      ],
      [
        "arent",
        -10.221192944888166
      ],
      [
        "▁rich",
        -10.224632753525125
      ],
      [
        "ru",
        -10.225197333008484
      ],
      [
        "▁upgrad",
        -10.226528482698969
      ],
      [
        "▁approve",
        -10.22760933076139
      ],
      [
        "pa",
        -10.227780002565574
      ],
      [
        "▁bigg",
        -10.228664649788303
      ],
      [
        "cuse",
        -10.229179332561758
      ],
      [
        "▁mate",
        -10.232383308593235
      ],
      [
        "▁beside",
        -10.234127826148539
      ],
      [
        "▁waste",
        -10.23519540901709
      ],
      [
        "ana",
        -10.23573081889888
      ],
      [
        "celtics",
        -10.235913613954107
      ],
      [
        "gate",
        -10.237604281402657
      ],
      [
        "▁credit",
        -10.237682185435085
      ],
      [
        "end",
        -10.242570530154556
      ],
      [
        "▁spring",
        -10.244228244153705
      ],
      [
        "▁ul",
        -10.245968956000056
      ],
      [
        "ha",
        -10.246798691466607
      ],
      [
        "nett",
        -10.24806796592733
      ],
      [
        "ga",
        -10.250167945106284
      ],
      [
        "▁hir",
        -10.251153915848326
      ],
      [
        "rising",
        -10.251297511215329
      ],
      [
        "▁ja",
        -10.253076640344553
      ],
      [
        "▁prefer",
        -10.253931552406263
      ],
      [
        "epic",
        -10.253956225282954
      ],
      [
        "▁fle",
        -10.255513522088139
      ],
      [
        "eld",
        -10.2561535767807
      ],
      [
        "ious",
        -10.256392818818103
      ],
      [
        "dal",
        -10.257088707539134
      ],
      [
        "follow",
        -10.259939705184301
      ],
      [
        "▁globe",
        -10.26065484401941
      ],
      [
        "▁liked",
        -10.26154976994254
      ],
      [
        "▁passe",
        -10.26550241452538
      ],
      [
        "▁bern",
        -10.267524686758588
      ],
      [
        "▁assist",
        -10.267660044078752
      ],
      [
        "▁easi",
        -10.26834872505341
      ],
      [
        "▁picks",
        -10.268386780567138
      ],
      [
        "▁fresh",
        -10.270146405368823
      ],
      [
        "▁pen",
        -10.270382822641126
      ],
      [
        "▁glob",
        -10.270395326287668
      ],
      [
        "$a",
        -10.270473176631949
      ],
      [
        "▁gal",
        -10.271256022432368
      ],
      [
        "▁ep",
        -10.271988918256145
      ],
      [
        "han",
        -10.273359998499995
      ],
      [
        "▁norma",
        -10.27350735937651
      ],
      [
        "▁hu",
        -10.273800191174805
      ],
      [
        "▁strip",
        -10.273989242528135
      ],
      [
        "ate",
        -10.27580193820063
      ],
      [
        "▁ch",
        -10.277334810183975
      ],
      [
        "▁ou",
        -10.278696565232664
      ],
      [
        "les",
        -10.280652489480236
      ],
      [
        "▁merc",
        -10.281603952248616
      ],
      [
        "▁rad",
        -10.282301302388902
      ],
      [
        "▁uf",
        -10.282432159832885
      ],
      [
        "quality",
        -10.28316849251701
      ],
      [
        "rican",
        -10.283375431097953
      ],
      [
        "▁nit",
        -10.284346047215445
      ],
      [
        "▁grab",
        -10.284415302620548
      ],
      [
        "▁syria",
        -10.284517268465262
      ],
      [
        "▁styl",
        -10.284965405220715
      ],
      [
        "▁comp",
        -10.285051257928792
      ],
      [
        "nope",
        -10.285182426086322
      ],
      [
        "▁soft",
        -10.285893030236
      ],
      [
        "▁chuck",
        -10.28691207890649
      ],
      [
        "▁ban",
        -10.287545631758755
      ],
      [
        "azine",
        -10.287716542073921
      ],
      [
        "▁colla",
        -10.288069714127248
      ],
      [
        "▁ridiculous",
        -10.288433603724311
      ],
      [
        "▁instagram",
        -10.288433603924855
      ],
      [
        "▁calendar",
        -10.28843361574097
      ],
      [
        "▁recommend",
        -10.288433631064397
      ],
      [
        "▁eternal",
        -10.288433680388835
      ],
      [
        "▁neymar",
        -10.288433715140313
      ],
      [
        "▁swansea",
        -10.288434409150208
      ],
      [
        "▁heaven",
        -10.288434825858413
      ],
      [
        "▁example",
        -10.288434969660436
      ],
      [
        "▁yahoo",
        -10.288435503420496
      ],
      [
        "▁liberal",
        -10.288435510992644
      ],
      [
        "▁snake",
        -10.288438269076135
      ],
      [
        "▁convince",
        -10.288438531316913
      ],
      [
        "▁favourite",
        -10.288445735665174
      ],
      [
        "▁tebow",
        -10.28844890064936
      ],
      [
        "▁hilarious",
        -10.288451165883277
      ],
      [
        "▁orlando",
        -10.288452392495588
      ],
      [
        "▁penalt",
        -10.28845270987532
      ],
      [
        "▁dudley",
        -10.288458680500844
      ],
      [
        "▁vacation",
        -10.288459172393825
      ],
      [
        "▁adult",
        -10.288459389455733
      ],
      [
        "▁desperate",
        -10.28846464863553
      ],
      [
        "▁relationship",
        -10.288466295322728
      ],
      [
        "▁gazette",
        -10.288489382864544
      ],
      [
        "▁justifi",
        -10.288562808688999
      ],
      [
        "▁charit",
        -10.288584065746672
      ],
      [
        "▁choos",
        -10.288613078131483
      ],
      [
        "▁buzz",
        -10.288644688018813
      ],
      [
        "▁midfield",
        -10.288649913375558
      ],
      [
        "▁risk",
        -10.288654214622152
      ],
      [
        "▁politician",
        -10.288658742959802
      ],
      [
        "▁cumon",
        -10.288663156032626
      ],
      [
        "▁dangerous",
        -10.288684030347845
      ],
      [
        "genda",
        -10.288713432960959
      ],
      [
        "▁decade",
        -10.288841684907405
      ],
      [
        "▁standard",
        -10.288888682034397
      ],
      [
        "▁nano",
        -10.288905574738697
      ],
      [
        "▁driv",
        -10.289012908168818
      ],
      [
        "▁johnson",
        -10.289231893093095
      ],
      [
        "▁che",
        -10.289240222421334
      ],
      [
        "▁soo",
        -10.289369365344808
      ],
      [
        "spa",
        -10.289446982526886
      ],
      [
        "▁zap",
        -10.289526815008653
      ],
      [
        "ezz",
        -10.289557770030827
      ],
      [
        "▁cheap",
        -10.289693542641604
      ],
      [
        "▁owen",
        -10.289754273191203
      ],
      [
        "▁amend",
        -10.2900590951999
      ],
      [
        "▁milk",
        -10.29009502599261
      ],
      [
        "▁spirit",
        -10.290166607895367
      ],
      [
        "▁solution",
        -10.290174623259436
      ],
      [
        "▁advantage",
        -10.290181769379172
      ],
      [
        "▁cloud",
        -10.290197841719266
      ],
      [
        "▁popular",
        -10.290272000029598
      ],
      [
        "▁foot",
        -10.290487774775835
      ],
      [
        "erseys",
        -10.290633418842624
      ],
      [
        "▁metro",
        -10.29063576292965
      ],
      [
        "▁agreement",
        -10.291007571470628
      ],
      [
        "▁edit",
        -10.29103683153626
      ],
      [
        "▁fav",
        -10.291140897128592
      ],
      [
        "▁whoever",
        -10.291233136728415
      ],
      [
        "▁graduate",
        -10.291429697417149
      ],
      [
        "▁brick",
        -10.29176989055948
      ],
      [
        "▁ghost",
        -10.291976826097091
      ],
      [
        "▁chart",
        -10.292167993151068
      ],
      [
        "▁ground",
        -10.292444616547046
      ],
      [
        "▁canada",
        -10.29325069029411
      ],
      [
        "▁dawn",
        -10.293256710743181
      ],
      [
        "▁dope",
        -10.293321556896483
      ],
      [
        "▁strike",
        -10.293395547286272
      ],
      [
        "ff",
        -10.293397332895776
      ],
      [
        "▁ugh",
        -10.293545175212433
      ],
      [
        "▁ol",
        -10.293765320277105
      ],
      [
        "▁italy",
        -10.293781741371859
      ],
      [
        "▁gig",
        -10.29387583262482
      ],
      [
        "▁peter",
        -10.293875949669166
      ],
      [
        "▁gear",
        -10.29390314494962
      ],
      [
        "▁bash",
        -10.294339851992902
      ],
      [
        "▁connect",
        -10.29468851110526
      ],
      [
        "mitt",
        -10.294761624308748
      ],
      [
        "▁charger",
        -10.295060874052513
      ],
      [
        "▁mende",
        -10.295954471647232
      ],
      [
        "▁non",
        -10.295956857086257
      ],
      [
        "ling",
        -10.296913977388769
      ],
      [
        "▁cac",
        -10.297617433781825
      ],
      [
        "▁trac",
        -10.298422012605887
      ],
      [
        "▁lab",
        -10.298492354559716
      ],
      [
        "▁stole",
        -10.298624918034822
      ],
      [
        "▁marc",
        -10.298915604112533
      ],
      [
        "top",
        -10.298921865324907
      ],
      [
        "oise",
        -10.299842198656485
      ],
      [
        "▁master",
        -10.30007787497412
      ],
      [
        "▁bud",
        -10.300243258094286
      ],
      [
        "▁budd",
        -10.30142203654025
      ],
      [
        "▁lack",
        -10.301522846368593
      ],
      [
        "▁tease",
        -10.301767519368948
      ],
      [
        "▁presents",
        -10.302621046495773
      ],
      [
        "▁writing",
        -10.302779263739145
      ],
      [
        "▁rare",
        -10.302912504572424
      ],
      [
        "ngent",
        -10.303282549905099
      ],
      [
        "▁boot",
        -10.30558989701118
      ],
      [
        "enne",
        -10.305800224889346
      ],
      [
        "▁tid",
        -10.306086516727877
      ],
      [
        "▁indiana",
        -10.30742845064077
      ],
      [
        "▁noon",
        -10.307863342520978
      ],
      [
        "laud",
        -10.309470268197355
      ],
      [
        "▁depart",
        -10.310999348282037
      ],
      [
        "▁web",
        -10.311506051662537
      ],
      [
        "▁shorts",
        -10.313305735032898
      ],
      [
        "ions",
        -10.313785575157633
      ],
      [
        "eau",
        -10.314002360485045
      ],
      [
        "sitor",
        -10.315091241561369
      ],
      [
        "leas",
        -10.316428699321813
      ],
      [
        "▁tablet",
        -10.318109945094815
      ],
      [
        "▁ches",
        -10.319032917899447
      ],
      [
        "▁lo",
        -10.319565995128642
      ],
      [
        "▁parker",
        -10.31965180737359
      ],
      [
        "▁scare",
        -10.322372505138773
      ],
      [
        "▁ph",
        -10.32357615929474
      ],
      [
        "▁upper",
        -10.323605948576112
      ],
      [
        "ford",
        -10.323810904004961
      ],
      [
        "▁wide",
        -10.324305383116478
      ],
      [
        "▁wrestle",
        -10.325961838346645
      ],
      [
        "▁refuse",
        -10.326045822948005
      ],
      [
        "▁hills",
        -10.3261106114044
      ],
      [
        "girl",
        -10.327037265722321
      ],
      [
        "ahs",
        -10.327841810128515
      ],
      [
        "▁bori",
        -10.333670923914216
      ],
      [
        "▁fest",
        -10.333939856860157
      ],
      [
        "▁oops",
        -10.334547212108083
      ],
      [
        "▁alb",
        -10.335759389973521
      ],
      [
        "▁djo",
        -10.33576731310274
      ],
      [
        "▁weight",
        -10.335807597814457
      ],
      [
        "▁dei",
        -10.339929696761917
      ],
      [
        "▁remains",
        -10.340806598063
      ],
      [
        "▁kurd",
        -10.340883950815499
      ],
      [
        "ac",
        -10.34093598973178
      ],
      [
        "▁struggl",
        -10.341049773770244
      ],
      [
        "▁hip",
        -10.341441427215841
      ],
      [
        "▁bal",
        -10.342068072900098
      ],
      [
        "▁qt",
        -10.342279884686391
      ],
      [
        "▁cr",
        -10.347494917754524
      ],
      [
        "net",
        -10.348464099483078
      ],
      [
        "ore",
        -10.349174778040563
      ],
      [
        "ogue",
        -10.350237575640811
      ],
      [
        "▁rep",
        -10.350696555202195
      ],
      [
        "▁si",
        -10.350818298360123
      ],
      [
        "▁sopa",
        -10.357838281701584
      ],
      [
        "▁gro",
        -10.358900651720534
      ],
      [
        "▁cont",
        -10.360495563314151
      ],
      [
        "▁nin",
        -10.367625426945352
      ],
      [
        "▁seo",
        -10.36822569220103
      ],
      [
        "tic",
        -10.36905085363531
      ],
      [
        "ory",
        -10.36942941738235
      ],
      [
        "acker",
        -10.370516865240768
      ],
      [
        "friend",
        -10.371162452908068
      ],
      [
        "ieber",
        -10.37152911876489
      ],
      [
        "sleep",
        -10.371563606706324
      ],
      [
        "▁nbc",
        -10.372350262268663
      ],
      [
        "came",
        -10.37277250478007
      ],
      [
        "▁kar",
        -10.37629540335
      ],
      [
        "▁hill",
        -10.376327369203901
      ],
      [
        "▁surviv",
        -10.378490477661588
      ],
      [
        "nich",
        -10.379612605073953
      ],
      [
        "▁books",
        -10.380828736375818
      ],
      [
        "cant",
        -10.38196953842784
      ],
      [
        "▁xxx",
        -10.385637814399391
      ],
      [
        "▁rip",
        -10.388647481359097
      ],
      [
        "▁lever",
        -10.390960064273084
      ],
      [
        "max",
        -10.391501685098483
      ],
      [
        "▁strateg",
        -10.39164436581319
      ],
      [
        "▁cook",
        -10.39207126793477
      ],
      [
        "pm",
        -10.392462129090237
      ],
      [
        "▁celebrat",
        -10.392734591285718
      ],
      [
        "mp",
        -10.392892629104184
      ],
      [
        "nca",
        -10.393411508865423
      ],
      [
        "▁broadcast",
        -10.393433452249825
      ],
      [
        "bu",
        -10.394516890850763
      ],
      [
        "▁ces",
        -10.394988314526534
      ],
      [
        "▁adri",
        -10.396867623641914
      ],
      [
        "romo",
        -10.396880785523832
      ],
      [
        "▁critic",
        -10.397087650161069
      ],
      [
        "▁cit",
        -10.397803167366963
      ],
      [
        "cia",
        -10.398171122567984
      ],
      [
        "erald",
        -10.398503801264376
      ],
      [
        "▁cent",
        -10.398574335192288
      ],
      [
        "▁brazil",
        -10.399384442687813
      ],
      [
        "▁encyclop",
        -10.399544714826327
      ],
      [
        "▁olympic",
        -10.399544716221987
      ],
      [
        "▁tshirt",
        -10.39954471628791
      ],
      [
        "▁exhibit",
        -10.399544718156815
      ],
      [
        "▁detroit",
        -10.399544718980575
      ],
      [
        "▁vanuatu",
        -10.399544723448914
      ],
      [
        "▁interpret",
        -10.399544764673507
      ],
      [
        "▁determine",
        -10.399544766994891
      ],
      [
        "▁cahsee",
        -10.3995450420817
      ],
      [
        "▁controvers",
        -10.399545388038597
      ],
      [
        "▁argentin",
        -10.399545762849801
      ],
      [
        "▁jefferson",
        -10.399545960631357
      ],
      [
        "▁plymouth",
        -10.399546181230754
      ],
      [
        "▁bound",
        -10.399548102310206
      ],
      [
        "▁pretend",
        -10.399552419473583
      ],
      [
        "▁opponent",
        -10.399556997958857
      ],
      [
        "▁express",
        -10.399564707992969
      ],
      [
        "▁appoint",
        -10.399567119559622
      ],
      [
        "▁cafe",
        -10.399583181112474
      ],
      [
        "▁debt",
        -10.399607660514295
      ],
      [
        "▁lyric",
        -10.399617674266258
      ],
      [
        "▁frank",
        -10.39962575037968
      ],
      [
        "▁dollar",
        -10.399626764971272
      ],
      [
        "▁quiet",
        -10.399639655180819
      ],
      [
        "▁barlow",
        -10.39965206828414
      ],
      [
        "▁iowa",
        -10.399664305447134
      ],
      [
        "▁arrest",
        -10.399673595078886
      ],
      [
        "▁roof",
        -10.399696972986439
      ],
      [
        "▁insane",
        -10.39972140405779
      ],
      [
        "▁holland",
        -10.39977204458004
      ],
      [
        "▁tattoo",
        -10.399795789422434
      ],
      [
        "▁wiki",
        -10.399858870712487
      ],
      [
        "▁prediction",
        -10.39996764478689
      ],
      [
        "▁doral",
        -10.40002517639168
      ],
      [
        "▁contest",
        -10.400082993877367
      ],
      [
        "▁cheek",
        -10.400110857688396
      ],
      [
        "▁pledge",
        -10.400147384575
      ],
      [
        "▁canadian",
        -10.400149981708196
      ],
      [
        "▁oppose",
        -10.400160378088136
      ],
      [
        "▁igle",
        -10.400180443175884
      ],
      [
        "▁sharp",
        -10.40019067264753
      ],
      [
        "▁settle",
        -10.4001973421128
      ],
      [
        "bc",
        -10.40022600049308
      ],
      [
        "▁profil",
        -10.400270468527527
      ],
      [
        "▁horse",
        -10.400369861305087
      ],
      [
        "▁buff",
        -10.400430397834857
      ],
      [
        "▁congrat",
        -10.400736500900207
      ],
      [
        "▁nx",
        -10.400742474063376
      ],
      [
        "▁pub",
        -10.400817873731567
      ],
      [
        "▁pipa",
        -10.400932269949354
      ],
      [
        "▁nhl",
        -10.40094212197879
      ],
      [
        "▁immigrants",
        -10.401029628582984
      ],
      [
        "▁kenny",
        -10.401109856599959
      ],
      [
        "▁fill",
        -10.401114120429051
      ],
      [
        "▁discover",
        -10.40120841601923
      ],
      [
        "▁corner",
        -10.401352323789634
      ],
      [
        "▁gap",
        -10.401496225365019
      ],
      [
        "▁fifa",
        -10.40154059465847
      ],
      [
        "▁profit",
        -10.40160678156545
      ],
      [
        "▁fundraiser",
        -10.401644256001816
      ],
      [
        "▁theatre",
        -10.401654611620458
      ],
      [
        "▁destin",
        -10.401656646474096
      ],
      [
        "▁valle",
        -10.401662410705109
      ],
      [
        "▁respond",
        -10.401738555290486
      ],
      [
        "▁nomination",
        -10.401787323352476
      ],
      [
        "▁border",
        -10.401790522854583
      ],
      [
        "▁net",
        -10.402045506784951
      ],
      [
        "▁digital",
        -10.402302951469212
      ],
      [
        "▁slide",
        -10.40274605234141
      ],
      [
        "▁recently",
        -10.402935058104838
      ],
      [
        "▁common",
        -10.403206649291839
      ],
      [
        "kid",
        -10.40374856783992
      ],
      [
        "▁data",
        -10.404316207040461
      ],
      [
        "▁defender",
        -10.404500989493185
      ],
      [
        "▁exce",
        -10.40455775104121
      ],
      [
        "▁spread",
        -10.404933353801862
      ],
      [
        "▁fx",
        -10.40500765041421
      ],
      [
        "▁lift",
        -10.405115053526137
      ],
      [
        "▁billion",
        -10.406076031134566
      ],
      [
        "▁mel",
        -10.406109351646013
      ],
      [
        "▁fee",
        -10.406471402840364
      ],
      [
        "▁teacher",
        -10.406479921881711
      ],
      [
        "▁alot",
        -10.407391531449639
      ],
      [
        "▁bow",
        -10.407821841367136
      ],
      [
        "▁kend",
        -10.409045996089683
      ],
      [
        "▁andrew",
        -10.409675169823565
      ],
      [
        "▁kep",
        -10.409865840872492
      ],
      [
        "▁jami",
        -10.409885084102218
      ],
      [
        "▁plant",
        -10.410268972255171
      ],
      [
        "delph",
        -10.410388034429193
      ],
      [
        "▁handle",
        -10.410589533956287
      ],
      [
        "▁lap",
        -10.410830905075606
      ],
      [
        "▁convers",
        -10.411246671074146
      ],
      [
        "▁jay",
        -10.41137815854659
      ],
      [
        "▁opposit",
        -10.411648053845802
      ],
      [
        "▁cali",
        -10.411843065056186
      ],
      [
        "sion",
        -10.412281690410492
      ],
      [
        "▁string",
        -10.412368068304765
      ],
      [
        "▁type",
        -10.413089731369649
      ],
      [
        "▁iron",
        -10.41344239114628
      ],
      [
        "azza",
        -10.414421551076845
      ],
      [
        "▁fed",
        -10.414547262803309
      ],
      [
        "▁lane",
        -10.414620366988142
      ],
      [
        "▁juli",
        -10.414839981204057
      ],
      [
        "▁tra",
        -10.41517094883567
      ],
      [
        "love",
        -10.415227471146995
      ],
      [
        "▁posts",
        -10.415588134866615
      ],
      [
        "▁successful",
        -10.415739052225106
      ],
      [
        "yrs",
        -10.416784340506107
      ],
      [
        "▁follower",
        -10.416873012140027
      ],
      [
        "buster",
        -10.417889452599155
      ],
      [
        "▁closer",
        -10.419331807290504
      ],
      [
        "lusci",
        -10.419584460072704
      ],
      [
        "▁hammers",
        -10.420401656884493
      ],
      [
        "ex",
        -10.420498879941903
      ],
      [
        "▁pool",
        -10.420670041954091
      ],
      [
        "▁river",
        -10.421793662562845
      ],
      [
        "▁guide",
        -10.422589777760955
      ],
      [
        "▁goin",
        -10.422643614228502
      ],
      [
        "pain",
        -10.423158773001582
      ],
      [
        "ho",
        -10.425064263079033
      ],
      [
        "▁feed",
        -10.428356299699326
      ],
      [
        "▁bol",
        -10.428430009761842
      ],
      [
        "▁atl",
        -10.429183458460948
      ],
      [
        "▁abu",
        -10.430295949718936
      ],
      [
        "▁aw",
        -10.431397255518112
      ],
      [
        "▁storm",
        -10.431622655566553
      ],
      [
        "▁raise",
        -10.431984082556273
      ],
      [
        "▁memor",
        -10.432079233055884
      ],
      [
        "heel",
        -10.432312496546341
      ],
      [
        "▁sooooo",
        -10.433133534877559
      ],
      [
        "▁bae",
        -10.433780132090746
      ],
      [
        "sque",
        -10.435385727073314
      ],
      [
        "▁fat",
        -10.436640764497888
      ],
      [
        "ugar",
        -10.436651274592549
      ],
      [
        "▁vid",
        -10.437994759588902
      ],
      [
        "▁suit",
        -10.438381460448516
      ],
      [
        "▁kidd",
        -10.439133353668753
      ],
      [
        "▁shower",
        -10.441444617836304
      ],
      [
        "sure",
        -10.442966944555824
      ],
      [
        "ette",
        -10.443814963382048
      ],
      [
        "▁pl",
        -10.444577657446759
      ],
      [
        "lana",
        -10.447562408083629
      ],
      [
        "▁informati",
        -10.447879710684965
      ],
      [
        "▁cop",
        -10.450387742424171
      ],
      [
        "$",
        -10.450650765131947
      ],
      [
        "▁ref",
        -10.450744290427021
      ],
      [
        "▁ages",
        -10.451261014537774
      ],
      [
        "▁bb",
        -10.452051173092721
      ],
      [
        "varo",
        -10.455211371479919
      ],
      [
        "pac",
        -10.457145863708156
      ],
      [
        "▁springs",
        -10.457223494849156
      ],
      [
        "▁anderson",
        -10.458155285657039
      ],
      [
        "osh",
        -10.462487255166678
      ],
      [
        "▁oom",
        -10.46373174510665
      ],
      [
        "▁rocky",
        -10.469412484444314
      ],
      [
        "nie",
        -10.469845760779604
      ],
      [
        "op",
        -10.472377636757688
      ],
      [
        "▁euro",
        -10.473161002930535
      ],
      [
        "▁hus",
        -10.473932910660707
      ],
      [
        "▁maths",
        -10.473958305800078
      ],
      [
        "▁lion",
        -10.475883061986778
      ],
      [
        "ira",
        -10.476220319071807
      ],
      [
        "▁cros",
        -10.477162846345594
      ],
      [
        "▁blu",
        -10.47835737964713
      ],
      [
        "▁smb",
        -10.478378439881935
      ],
      [
        "rash",
        -10.478995440141121
      ],
      [
        "▁hul",
        -10.479846278889537
      ],
      [
        "▁produce",
        -10.481440227864992
      ],
      [
        "▁rb",
        -10.482302890015987
      ],
      [
        "▁malik",
        -10.48307019570121
      ],
      [
        "▁singer",
        -10.483387197646838
      ],
      [
        "▁tail",
        -10.484341591745375
      ],
      [
        "organ",
        -10.486448028967562
      ],
      [
        "size",
        -10.487172666962913
      ],
      [
        "▁sometime",
        -10.488482237730494
      ],
      [
        "▁pieces",
        -10.489800702281327
      ],
      [
        "▁champions",
        -10.489937380920392
      ],
      [
        "▁fanc",
        -10.489965452334694
      ],
      [
        "▁apologi",
        -10.492243468372592
      ],
      [
        "ka",
        -10.49321917577223
      ],
      [
        "▁sigh",
        -10.494143745194823
      ],
      [
        "▁doc",
        -10.494755308711246
      ],
      [
        "▁bl",
        -10.494949120426497
      ],
      [
        "vega",
        -10.495347957718973
      ],
      [
        "festival",
        -10.496177575002104
      ],
      [
        "box",
        -10.496186050186822
      ],
      [
        "fast",
        -10.496379035792982
      ],
      [
        "word",
        -10.49667950709708
      ],
      [
        "break",
        -10.496703857505917
      ],
      [
        "think",
        -10.496752225175214
      ],
      [
        "who",
        -10.497900807061404
      ],
      [
        "weight",
        -10.498232261477323
      ],
      [
        "▁amr",
        -10.498407019831875
      ],
      [
        "watch",
        -10.498433972883063
      ],
      [
        "▁inde",
        -10.49876045147641
      ],
      [
        "hop",
        -10.501284306541997
      ],
      [
        "▁gam",
        -10.50159647671208
      ],
      [
        "do",
        -10.501667659359097
      ],
      [
        "hul",
        -10.501937708720444
      ],
      [
        "isco",
        -10.504036268958545
      ],
      [
        "kers",
        -10.504095171009201
      ],
      [
        "erba",
        -10.505154029929374
      ],
      [
        "city",
        -10.509700414321134
      ],
      [
        "▁shoot",
        -10.510537710040035
      ],
      [
        "▁era",
        -10.512193603773964
      ],
      [
        "mon",
        -10.51276342512401
      ],
      [
        "nger",
        -10.512966800359788
      ],
      [
        "▁galler",
        -10.513390365414953
      ],
      [
        "▁refer",
        -10.516596037361758
      ],
      [
        "gary",
        -10.516635137034156
      ],
      [
        "habi",
        -10.518000164747216
      ],
      [
        "▁injur",
        -10.518368468111994
      ],
      [
        "▁exi",
        -10.518754172093068
      ],
      [
        "▁teach",
        -10.51945525223632
      ],
      [
        "▁jou",
        -10.519625971206803
      ],
      [
        "▁kicks",
        -10.519677332915775
      ],
      [
        "▁skip",
        -10.519724714709502
      ],
      [
        "▁engine",
        -10.519764930246517
      ],
      [
        "▁momm",
        -10.519779870689543
      ],
      [
        "▁defend",
        -10.519854964761862
      ],
      [
        "▁ucl",
        -10.521107905815956
      ],
      [
        "▁qui",
        -10.521148771744102
      ],
      [
        "▁wifi",
        -10.521488929422047
      ],
      [
        "▁eyes",
        -10.521996777486626
      ],
      [
        "▁hale",
        -10.523094477336064
      ],
      [
        "▁migra",
        -10.523697328838495
      ],
      [
        "▁punch",
        -10.52421314609596
      ],
      [
        "ecutive",
        -10.524477597375004
      ],
      [
        "▁restaurant",
        -10.524544715024371
      ],
      [
        "▁wisconsin",
        -10.524544715128407
      ],
      [
        "▁chunji",
        -10.524544715524144
      ],
      [
        "▁guarantee",
        -10.524544716909737
      ],
      [
        "▁oklahoma",
        -10.524544734041307
      ],
      [
        "▁chalmers",
        -10.524544757428654
      ],
      [
        "petraeus",
        -10.524544785089878
      ],
      [
        "▁sunderland",
        -10.524545107738833
      ],
      [
        "▁kyiv",
        -10.524545517808534
      ],
      [
        "▁request",
        -10.524546343853949
      ],
      [
        "▁defund",
        -10.524546389889679
      ],
      [
        "▁error",
        -10.524546934723409
      ],
      [
        "▁suffer",
        -10.524547175705933
      ],
      [
        "▁gcse",
        -10.524549207974669
      ],
      [
        "▁cosatu",
        -10.524549257715515
      ],
      [
        "▁streak",
        -10.524550402999703
      ],
      [
        "▁dennis",
        -10.524550474500563
      ],
      [
        "▁dolph",
        -10.52455133231901
      ],
      [
        "▁gossip",
        -10.524552039985402
      ],
      [
        "▁illegal",
        -10.52455407507056
      ],
      [
        "▁sterling",
        -10.524555989843387
      ],
      [
        "nissan",
        -10.524557204085948
      ],
      [
        "▁taiwan",
        -10.524557221635122
      ],
      [
        "▁lebron",
        -10.524558365640429
      ],
      [
        "▁spotify",
        -10.524559502811616
      ],
      [
        "▁runaway",
        -10.52456381624396
      ],
      [
        "▁darwin",
        -10.52457168306024
      ],
      [
        "▁contract",
        -10.524577164884633
      ],
      [
        "▁nfc",
        -10.524578390683425
      ],
      [
        "▁brutal",
        -10.52458024634843
      ],
      [
        "▁alarm",
        -10.52458146450703
      ],
      [
        "▁snsd",
        -10.52458844098152
      ],
      [
        "▁bundle",
        -10.524588572943355
      ],
      [
        "▁playstation",
        -10.524590365862606
      ],
      [
        "▁bullshit",
        -10.524592807120547
      ],
      [
        "▁drunk",
        -10.524601747573794
      ],
      [
        "▁ogt",
        -10.524611695618276
      ],
      [
        "▁flynn",
        -10.524619958044276
      ],
      [
        "▁jeff",
        -10.524626823660522
      ],
      [
        "▁slot",
        -10.524642281195751
      ],
      [
        "▁reagan",
        -10.524653305428608
      ],
      [
        "▁nashville",
        -10.524696123830907
      ],
      [
        "▁ahhh",
        -10.524718501198535
      ],
      [
        "▁flav",
        -10.524728192915791
      ],
      [
        "▁odom",
        -10.524759156949436
      ],
      [
        "▁background",
        -10.524802613389145
      ],
      [
        "▁firework",
        -10.524834270198394
      ],
      [
        "▁melodi",
        -10.52485610264187
      ],
      [
        "▁shaker",
        -10.524903589978853
      ],
      [
        "▁bullet",
        -10.524919907047547
      ],
      [
        "▁replay",
        -10.524964386586607
      ],
      [
        "▁recall",
        -10.525008082730528
      ],
      [
        "cliff",
        -10.525028896869355
      ],
      [
        "▁purp",
        -10.525163638000912
      ],
      [
        "▁vince",
        -10.525185113805565
      ],
      [
        "▁falls",
        -10.525192059034744
      ],
      [
        "▁animal",
        -10.525214842504088
      ],
      [
        "▁wrap",
        -10.525268694524982
      ],
      [
        "▁ivor",
        -10.52527837226112
      ],
      [
        "▁terra",
        -10.525279970915493
      ],
      [
        "▁collect",
        -10.525299374317154
      ],
      [
        "▁valen",
        -10.52535423846224
      ],
      [
        "▁hq",
        -10.525398314503338
      ],
      [
        "▁alert",
        -10.52545797593699
      ],
      [
        "▁slip",
        -10.525520024550651
      ],
      [
        "▁bubble",
        -10.525571078694265
      ],
      [
        "▁mask",
        -10.525624905502404
      ],
      [
        "▁calif",
        -10.525777743186513
      ],
      [
        "▁development",
        -10.52584730184489
      ],
      [
        "▁gather",
        -10.5259798014682
      ],
      [
        "▁nominated",
        -10.526143953098682
      ],
      [
        "sias",
        -10.526145396966635
      ],
      [
        "▁carry",
        -10.526232635071455
      ],
      [
        "▁jean",
        -10.526264173199984
      ],
      [
        "▁opportunity",
        -10.526348919566272
      ],
      [
        "▁kenya",
        -10.526582981634235
      ],
      [
        "▁pacers",
        -10.526637728981667
      ],
      [
        "▁stats",
        -10.526658637342248
      ],
      [
        "▁pp",
        -10.526689807433517
      ],
      [
        "▁amount",
        -10.526753266785573
      ],
      [
        "▁ramcharan",
        -10.52678761858248
      ],
      [
        "▁expens",
        -10.526790197218258
      ],
      [
        "▁baylor",
        -10.52679736350126
      ],
      [
        "▁script",
        -10.526822245510292
      ],
      [
        "lenty",
        -10.526834035039922
      ],
      [
        "▁stress",
        -10.526848568450713
      ],
      [
        "▁cream",
        -10.526860622882227
      ],
      [
        "▁kina",
        -10.526915910135838
      ],
      [
        "▁bias",
        -10.526983134408354
      ],
      [
        "▁undertake",
        -10.527033654469019
      ],
      [
        "▁santa",
        -10.527035598921124
      ],
      [
        "▁bat",
        -10.527211361191881
      ],
      [
        "▁finger",
        -10.527235581872036
      ],
      [
        "▁michi",
        -10.527571835935175
      ],
      [
        "▁reb",
        -10.5276031303699
      ],
      [
        "▁mcgra",
        -10.527616880968731
      ],
      [
        "▁hopeful",
        -10.527822607185758
      ],
      [
        "▁hide",
        -10.528014515141493
      ],
      [
        "▁greece",
        -10.528050413051787
      ],
      [
        "▁verse",
        -10.528551999189416
      ],
      [
        "▁comeback",
        -10.528569383727895
      ],
      [
        "ency",
        -10.528613296616058
      ],
      [
        "▁prayer",
        -10.52886176586081
      ],
      [
        "▁ferr",
        -10.529089831639556
      ],
      [
        "▁command",
        -10.529129395299714
      ],
      [
        "▁priorit",
        -10.52921892601562
      ],
      [
        "▁analyst",
        -10.529316521907115
      ],
      [
        "taunt",
        -10.52942043611879
      ],
      [
        "▁calm",
        -10.529473024541142
      ],
      [
        "▁stewar",
        -10.529482612321232
      ],
      [
        "▁oak",
        -10.529772472790302
      ],
      [
        "llent",
        -10.529933625114241
      ],
      [
        "▁thunder",
        -10.529945632337393
      ],
      [
        "▁mil",
        -10.530001181145687
      ],
      [
        "ster",
        -10.530306049466096
      ],
      [
        "▁nuts",
        -10.530355652710904
      ],
      [
        "▁beast",
        -10.530629632245557
      ],
      [
        "▁activit",
        -10.530709907908953
      ],
      [
        "▁section",
        -10.530775331714393
      ],
      [
        "▁afc",
        -10.531360138849081
      ],
      [
        "▁truck",
        -10.531369580629741
      ],
      [
        "▁pog",
        -10.531849346310922
      ],
      [
        "▁deck",
        -10.531973022349414
      ],
      [
        "▁skipp",
        -10.532031386056152
      ],
      [
        "rock",
        -10.532491972628522
      ],
      [
        "browser",
        -10.532618956257888
      ],
      [
        "▁approach",
        -10.532659263673654
      ],
      [
        "▁bree",
        -10.533219850485022
      ],
      [
        "▁byrd",
        -10.533788546283423
      ],
      [
        "▁operat",
        -10.534269838556401
      ],
      [
        "key",
        -10.534516477596606
      ],
      [
        "▁drinks",
        -10.536066692889293
      ],
      [
        "▁setting",
        -10.536506356355789
      ],
      [
        "ric",
        -10.536814576621914
      ],
      [
        "▁realise",
        -10.53686133379868
      ],
      [
        "iva",
        -10.53734695835749
      ],
      [
        "▁heck",
        -10.537780808140392
      ],
      [
        "▁cal",
        -10.538156415548482
      ],
      [
        "▁wipe",
        -10.538205832281125
      ],
      [
        "▁defense",
        -10.538235367528113
      ],
      [
        "des",
        -10.538876788962604
      ],
      [
        "▁pant",
        -10.539315590329364
      ],
      [
        "▁hib",
        -10.539345339722487
      ],
      [
        "▁soak",
        -10.540901300459177
      ],
      [
        "▁bands",
        -10.54261188693635
      ],
      [
        "oney",
        -10.542793648361664
      ],
      [
        "▁cashe",
        -10.543215427010674
      ],
      [
        "come",
        -10.543711469236909
      ],
      [
        "iz",
        -10.544625054921092
      ],
      [
        "▁fighter",
        -10.545099086962693
      ],
      [
        "cape",
        -10.54802341385957
      ],
      [
        "▁ending",
        -10.548322010634145
      ],
      [
        "▁marin",
        -10.549196322734703
      ],
      [
        "▁fior",
        -10.549649867305273
      ],
      [
        "▁killer",
        -10.549662338731046
      ],
      [
        "tra",
        -10.549805133729338
      ],
      [
        "▁jak",
        -10.549952610762372
      ],
      [
        "▁lives",
        -10.550692501012191
      ],
      [
        "▁jung",
        -10.551245247475624
      ],
      [
        "▁pet",
        -10.552001191209564
      ],
      [
        "▁programm",
        -10.553213571315375
      ],
      [
        "our",
        -10.553425531894344
      ],
      [
        "▁pca",
        -10.55366532243502
      ],
      [
        "ize",
        -10.553826526678254
      ],
      [
        "|",
        -10.554519658626763
      ],
      [
        "igan",
        -10.55504754197881
      ],
      [
        "▁shi",
        -10.555056299876792
      ],
      [
        "▁sch",
        -10.556412859851514
      ],
      [
        "▁image",
        -10.561432536504611
      ],
      [
        "rtle",
        -10.561926753434495
      ],
      [
        "ania",
        -10.563627033040293
      ],
      [
        "▁vp",
        -10.564455882560075
      ],
      [
        "drew",
        -10.56701600679719
      ],
      [
        "aga",
        -10.567644938324298
      ],
      [
        "▁tails",
        -10.567953986890624
      ],
      [
        "▁sue",
        -10.573176075380415
      ],
      [
        "▁rem",
        -10.573719946605344
      ],
      [
        "▁jp",
        -10.574725736068347
      ],
      [
        "vert",
        -10.575890809653544
      ],
      [
        "▁nova",
        -10.578220057304705
      ],
      [
        "ords",
        -10.579373270424968
      ],
      [
        "▁reported",
        -10.579441177272994
      ],
      [
        "ami",
        -10.57969537772381
      ],
      [
        "▁ave",
        -10.581057883219168
      ],
      [
        "gar",
        -10.583573493643803
      ],
      [
        "peru",
        -10.584211576290594
      ],
      [
        "▁ku",
        -10.584707417959216
      ],
      [
        "them",
        -10.58685445738135
      ],
      [
        "▁tys",
        -10.588984044552394
      ],
      [
        "▁umb",
        -10.592621480302878
      ],
      [
        "▁kings",
        -10.592774902922903
      ],
      [
        "▁pot",
        -10.594227826442111
      ],
      [
        "▁ranking",
        -10.594774619823067
      ],
      [
        "vs",
        -10.5949200721399
      ],
      [
        "gg",
        -10.595706695030596
      ],
      [
        "▁funnie",
[...]
