{
  "version": "1.0",
  "truncation": null,
  "padding": null,
  "added_tokens": [
    {
      "id": 0,
      "content": "<pad>",
      "single_word": false,
      "lstrip": false,
      "rstrip": false,
      "normalized": false,
      "special": true
    },
    {
      "id": 1,
      "content": "<unk>",
      "single_word": false,
      "lstrip": false,
      "rstrip": false,
      "normalized": false,
      "special": true
    },
    {
      "id": 2,
      "content": "<cls>",
      "single_word": false,
      "lstrip": false,
      "rstrip": false,
      "normalized": false,
      "special": true
    }
  ],
  "normalizer": {
    "type": "Sequence",
    "normalizers": [
      {
        "type": "Nmt"
      },
      {
        "type": "NFKC"
      },
      {
        "type": "Replace",
        "pattern": {
          "Regex": " {2,}"
        },
        "content": " "
      }
    ]
  },
  "pre_tokenizer": {
    "type": "Metaspace",
    "replacement": "▁",
    "prepend_scheme": "always",
    "split": true
  },
  "post_processor": {
    "type": "TemplateProcessing",
    "single": [
      {
        "SpecialToken": {
          "id": "<cls>",
          "type_id": 0
        }
      },
      {
        "Sequence": {
          "id": "A",
          "type_id": 0
        }
      }
    ],
    "pair": [
      {
        "Sequence": {
          "id": "A",
          "type_id": 0
        }
      },
      {
        "Sequence": {
          "id": "B",
          "type_id": 1
        }
      }
    ],
    "special_tokens": {
      "<cls>": {
        "id": "<cls>",
        "ids": [
          2
        ],
        "tokens": [
          "<cls>"
        ]
      }
    }
  },
  "decoder": {
    "type": "Metaspace",
    "replacement": "▁",
    "prepend_scheme": "always",
    "split": true
  },
  "model": {
    "type": "Unigram",
    "unk_id": 1,
    "vocab": [
      [
        "<pad>",
        0.0
      ],
      [
        "<unk>",
        0.0
      ],
      [
        "<cls>",
        0.0
      ],
      [
        "▁",
        -2.4429754876940173
      ],
      [
        "▁dey",
        -3.7026143100169477
      ],
      [
        "e",
        -3.7818598502362875
      ],
      [
        "s",
        -3.8933418196244407
      ],
      [
        "i",
        -4.066077207961885
      ],
      [
        "▁na",
        -4.188893465140398
      ],
      [
        "▁you",
        -4.355878076642498
      ],
      [
        "▁no",
        -4.4686324103308595
      ],
      [
        "▁i",
        -4.486424929289058
      ],
      [
        "▁the",
        -4.516905142133691
      ],
      [
        "▁for",
        -4.518811164472538
      ],
      [
        "▁me",
        -4.523426020862177
      ],
      [
        "n",
        -4.549031340520917
      ],
      [
        "y",
        -4.584956002796983
      ],
      [
        "▁to",
        -4.597253069092062
      ],
      [
        "▁go",
        -4.64980437793075
      ],
      [
        "a",
        -4.699164860408378
      ],
      [
        "▁don",
        -4.70473975896107
      ],
      [
        "t",
        -4.730028434645048
      ],
      [
        "▁like",
        -4.74686329587411
      ],
      [
        "▁this",
        -4.776387224120072
      ],
      [
        "o",
        -4.795231954418356
      ],
      [
        "▁be",
        -4.826250043583058
      ],
      [
        "d",
        -4.930618518279791
      ],
      [
        "▁and",
        -4.93780076693353
      ],
      [
        "ing",
        -4.955801856526858
      ],
      [
        "▁my",
        -4.961192734670682
      ],
      [
        "▁wey",
        -5.060536082533595
      ],
      [
        "▁say",
        -5.089128775887732
      ],
      [
        "▁we",
        -5.24951696226276
      ],
      [
        "▁una",
        -5.340004927304468
      ],
      [
        "▁dem",
        -5.42972717320637
      ],
      [
        "▁make",
        -5.448745885709849
      ],
      [
        "▁that",
        -5.459836490486509
      ],
      [
        "▁of",
        -5.463418939597109
      ],
      [
        "u",
        -5.471033461716686
      ],
      [
        "▁see",
        -5.51237769704863
      ],
      [
        "▁do",
        -5.554611999757962
      ],
      [
        "▁your",
        -5.561946690337029
      ],
      [
        "▁am",
        -5.5648694636391784
      ],
      [
        "▁im",
        -5.567646175285198
      ],
      [
        "▁just",
        -5.635240620521373
      ],
      [
        "m",
        -5.653842907945228
      ],
      [
        "▁in",
        -5.739303043037474
      ],
      [
        "r",
        -5.746355759310152
      ],
      [
        "▁get",
        -5.749635704807652
      ],
      [
        "▁is",
        -5.78458826231249
      ],
      [
        "▁de",
        -5.787816170058451
      ],
      [
        "▁with",
        -5.8053899159888935
      ],
      [
        "▁so",
        -5.810097083232503
      ],
      [
        "▁sef",
        -5.814432741978939
      ],
      [
        "▁fit",
        -5.832888828886572
      ],
      [
        "▁abeg",
        -5.8366639691571764
      ],
      [
        "▁now",
        -5.870755560735208
      ],
      [
        "▁wan",
        -5.917488654725813
      ],
      [
        "▁but",
        -5.945581133199252
      ],
      [
        "▁if",
        -5.9503539789150555
      ],
      [
        "▁a",
        -6.010657410684824
      ],
      [
        "l",
        -6.022349703217174
      ],
      [
        "▁come",
        -6.035579212634134
      ],
      [
        "ed",
        -6.040497821526208
      ],
      [
        "▁one",
        -6.044873931044761
      ],
      [
        "▁people",
        -6.076181097514786
      ],
      [
        "▁all",
        -6.1234220975121145
      ],
      [
        "▁us",
        -6.154691197413496
      ],
      [
        "▁not",
        -6.158195721420477
      ],
      [
        "▁person",
        -6.159390428343066
      ],
      [
        "▁again",
        -6.159961326668367
      ],
      [
        "▁weti",
        -6.169706623965637
      ],
      [
        "▁on",
        -6.1768365329666794
      ],
      [
        "ly",
        -6.197349716995348
      ],
      [
        "▁them",
        -6.198364051009579
      ],
      [
        "▁even",
        -6.209052687903921
      ],
      [
        "▁u",
        -6.246751641355833
      ],
      [
        "▁money",
        -6.253914832133873
      ],
      [
        "on",
        -6.254423618574108
      ],
      [
        "▁️",
        -6.27021854516695
      ],
      [
        "▁dis",
        -6.2777457821544855
      ],
      [
        "▁god",
        -6.286698868148611
      ],
      [
        "still",
        -6.294614262572871
      ],
      [
        "▁as",
        -6.29842182648999
      ],
      [
        "▁know",
        -6.368693856684357
      ],
      [
        "▁m",
        -6.369591062216435
      ],
      [
        "▁him",
        -6.370165076477406
      ],
      [
        "▁when",
        -6.3707732527282115
      ],
      [
        "h",
        -6.371196604182271
      ],
      [
        "▁she",
        -6.398272212767766
      ],
      [
        "▁chop",
        -6.416125173487638
      ],
      [
        "▁how",
        -6.434132365841041
      ],
      [
        "▁love",
        -6.43927932184708
      ],
      [
        "▁b",
        -6.44696139530894
      ],
      [
        "▁d",
        -6.452267940910519
      ],
      [
        "▁too",
        -6.457200660225863
      ],
      [
        "▁use",
        -6.464225605555373
      ],
      [
        "▁up",
        -6.472590825942781
      ],
      [
        "na",
        -6.485492078120074
      ],
      [
        "▁man",
        -6.538474218016012
      ],
      [
        "k",
        -6.54076608245565
      ],
      [
        "▁guy",
        -6.549280203404373
      ],
      [
        "in",
        -6.556193257658566
      ],
      [
        "▁help",
        -6.58853566431395
      ],
      [
        "▁from",
        -6.595827412455082
      ],
      [
        "f",
        -6.599356495158862
      ],
      [
        "▁will",
        -6.603940616179092
      ],
      [
        "▁sha",
        -6.611232723615501
      ],
      [
        "▁why",
        -6.619987192478542
      ],
      [
        "g",
        -6.620670260217701
      ],
      [
        "▁talk",
        -6.626178850099541
      ],
      [
        "▁he",
        -6.6281298528928
      ],
      [
        "and",
        -6.662354166911803
      ],
      [
        "▁time",
        -6.6623965270064565
      ],
      [
        "▁they",
        -6.689411814510342
      ],
      [
        "▁give",
        -6.696595712298048
      ],
      [
        "w",
        -6.704027306932859
      ],
      [
        "▁who",
        -6.705712549181106
      ],
      [
        "▁are",
        -6.708857553873213
      ],
      [
        "▁e",
        -6.710215751648014
      ],
      [
        "▁her",
        -6.715822324378383
      ],
      [
        "▁what",
        -6.732962047830631
      ],
      [
        "▁can",
        -6.738824920012543
      ],
      [
        "dey",
        -6.745978506090775
      ],
      [
        "▁was",
        -6.746268188735341
      ],
      [
        "▁dat",
        -6.751925947707061
      ],
      [
        "▁it",
        -6.7636913407812385
      ],
      [
        "▁tell",
        -6.766134494515002
      ],
      [
        "▁life",
        -6.7686299088483315
      ],
      [
        "body",
        -6.78127193564444
      ],
      [
        "▁take",
        -6.782840442492274
      ],
      [
        "▁please",
        -6.791576335030561
      ],
      [
        "never",
        -6.792748158611042
      ],
      [
        "▁good",
        -6.793945438599776
      ],
      [
        "▁pass",
        -6.797099205943836
      ],
      [
        "▁fine",
        -6.80612816580942
      ],
      [
        "▁girl",
        -6.819729674981423
      ],
      [
        "▁want",
        -6.824392575418148
      ],
      [
        "p",
        -6.8285080960485285
      ],
      [
        "▁have",
        -6.834209461837902
      ],
      [
        "▁oh",
        -6.848434569003544
      ],
      [
        "▁back",
        -6.859188967733913
      ],
      [
        "▁out",
        -6.868599720451463
      ],
      [
        "▁onl",
        -6.871839818175073
      ],
      [
        "▁thing",
        -6.877241880259746
      ],
      [
        "▁play",
        -6.892310406915834
      ],
      [
        "▁look",
        -6.892590525509668
      ],
      [
        "▁small",
        -6.895323163516217
      ],
      [
        "▁call",
        -6.896250148883356
      ],
      [
        "▁today",
        -6.9172393465126
      ],
      [
        "▁house",
        -6.9193310106555606
      ],
      [
        "▁every",
        -6.921746919690631
      ],
      [
        "▁pain",
        -6.92315267087106
      ],
      [
        "b",
        -6.92332717294412
      ],
      [
        "▁lol",
        -6.926090291962065
      ],
      [
        "▁o",
        -6.9484449922164915
      ],
      [
        "▁sabi",
        -6.954041781788791
      ],
      [
        "▁buy",
        -6.955425865535469
      ],
      [
        "▁some",
        -6.957465174581632
      ],
      [
        "my",
        -6.963058904496842
      ],
      [
        "▁its",
        -6.966537264834185
      ],
      [
        "▁kind",
        -6.974051364262499
      ],
      [
        "▁omo",
        -6.97720765735216
      ],
      [
        "is",
        -6.997988290269116
      ],
      [
        "▁better",
        -7.011672408750693
      ],
      [
        "▁ooo",
        -7.0132776039856735
      ],
      [
        "c",
        -7.016543785091364
      ],
      [
        "▁baba",
        -7.0211883603145315
      ],
      [
        "▁or",
        -7.027472383125784
      ],
      [
        "▁work",
        -7.030035651736976
      ],
      [
        "▁vex",
        -7.044135648926845
      ],
      [
        "▁al",
        -7.049793445005225
      ],
      [
        "▁our",
        -7.056606190822058
      ],
      [
        "▁way",
        -7.06635048836513
      ],
      [
        "▁carry",
        -7.0877263755684625
      ],
      [
        "▁start",
        -7.092266602478084
      ],
      [
        "me",
        -7.097359420064134
      ],
      [
        "▁here",
        -7.109542990930165
      ],
      [
        "▁enter",
        -7.109794239277175
      ],
      [
        "▁finish",
        -7.1333656906065075
      ],
      [
        "st",
        -7.142334566814551
      ],
      [
        "▁reach",
        -7.14272678864373
      ],
      [
        "▁mad",
        -7.1482147103526446
      ],
      [
        "▁where",
        -7.149901166920124
      ],
      [
        "way",
        -7.153849632829103
      ],
      [
        "se",
        -7.157731413214651
      ],
      [
        "▁abi",
        -7.160690516174571
      ],
      [
        "▁before",
        -7.1671437725580915
      ],
      [
        "one",
        -7.1775600666116866
      ],
      [
        "er",
        -7.183187041548504
      ],
      [
        "▁n",
        -7.186419173958525
      ],
      [
        "▁any",
        -7.1877215684397635
      ],
      [
        "▁oo",
        -7.197421788498308
      ],
      [
        "▁at",
        -7.2072424057413365
      ],
      [
        "▁well",
        -7.215886160443577
      ],
      [
        "▁down",
        -7.220974393366609
      ],
      [
        "▁their",
        -7.2228331712185945
      ],
      [
        "▁s",
        -7.233296984205718
      ],
      [
        "▁since",
        -7.234728047075119
      ],
      [
        "▁wahala",
        -7.246139066699268
      ],
      [
        "thing",
        -7.2490713697935965
      ],
      [
        "▁day",
        -7.25738136458878
      ],
      [
        "▁sweet",
        -7.266899205524065
      ],
      [
        "▁happen",
        -7.27440060300042
      ],
      [
        "▁head",
        -7.282497067337211
      ],
      [
        "it",
        -7.3054648566932245
      ],
      [
        "▁w",
        -7.312515615614481
      ],
      [
        "▁win",
        -7.316363778460204
      ],
      [
        "or",
        -7.319675490127238
      ],
      [
        "▁ask",
        -7.325009552082557
      ],
      [
        "▁show",
        -7.325138991254461
      ],
      [
        "️",
        -7.326574862173076
      ],
      [
        "▁k",
        -7.326821296939864
      ],
      [
        "al",
        -7.328960575193587
      ],
      [
        "▁try",
        -7.336586782220358
      ],
      [
        "▁won",
        -7.339074750202077
      ],
      [
        "▁did",
        -7.346526814220105
      ],
      [
        "▁nah",
        -7.350293304265567
      ],
      [
        "▁boy",
        -7.351803675874922
      ],
      [
        "▁stop",
        -7.357320568198009
      ],
      [
        "▁need",
        -7.357927296821294
      ],
      [
        "▁own",
        -7.361703623769158
      ],
      [
        "▁after",
        -7.361943013800839
      ],
      [
        "about",
        -7.363621693793282
      ],
      [
        "am",
        -7.364446615403901
      ],
      [
        "▁babe",
        -7.376636065230619
      ],
      [
        "▁guys",
        -7.380036396020195
      ],
      [
        "▁lmao",
        -7.386116837823888
      ],
      [
        "▁think",
        -7.386355259293694
      ],
      [
        "▁there",
        -7.387087721246873
      ],
      [
        "▁die",
        -7.388695712529631
      ],
      [
        "▁twitter",
        -7.394927149723154
      ],
      [
        "▁con",
        -7.395178539144139
      ],
      [
        "if",
        -7.403650848756726
      ],
      [
        "▁t",
        -7.404564813771288
      ],
      [
        "▁hear",
        -7.4047239631753685
      ],
      [
        "▁kill",
        -7.408769559336609
      ],
      [
        "all",
        -7.411196729033184
      ],
      [
        "▁find",
        -7.420734291301518
      ],
      [
        "the",
        -7.421179191483765
      ],
      [
        "an",
        -7.4261950170548445
      ],
      [
        "▁happy",
        -7.434746421933057
      ],
      [
        "▁his",
        -7.440920176409254
      ],
      [
        "▁wen",
        -7.4455913342141935
      ],
      [
        "no",
        -7.449670036496039
      ],
      [
        "▁an",
        -7.453367450417645
      ],
      [
        "▁year",
        -7.454152981391133
      ],
      [
        "▁g",
        -7.465888907982188
      ],
      [
        "▁let",
        -7.466375984520557
      ],
      [
        "▁thank",
        -7.466689294741484
      ],
      [
        "▁nor",
        -7.467728716486587
      ],
      [
        "cause",
        -7.473036160247384
      ],
      [
        "▁morning",
        -7.481497755492107
      ],
      [
        "▁comot",
        -7.484330880889895
      ],
      [
        "▁bro",
        -7.4903544907367605
      ],
      [
        "▁last",
        -7.492712630302686
      ],
      [
        "▁nigeria",
        -7.497958995580085
      ],
      [
        "▁top",
        -7.509759687876677
      ],
      [
        "▁beg",
        -7.51230688387183
      ],
      [
        "▁pl",
        -7.518331918921074
      ],
      [
        "▁follow",
        -7.51971367706002
      ],
      [
        "▁wait",
        -7.521534531623065
      ],
      [
        "▁watch",
        -7.532886071180884
      ],
      [
        "nt",
        -7.534446983796284
      ],
      [
        "▁much",
        -7.536014225425518
      ],
      [
        "▁anything",
        -7.53800146336652
      ],
      [
        "you",
        -7.55127217684099
      ],
      [
        "ur",
        -7.566734143239125
      ],
      [
        "ment",
        -7.568071078260237
      ],
      [
        "▁tweet",
        -7.571989234217692
      ],
      [
        "to",
        -7.5752033200776285
      ],
      [
        "us",
        -7.58354259643408
      ],
      [
        "▁ma",
        -7.591291880409955
      ],
      [
        "▁send",
        -7.599868046446269
      ],
      [
        "▁cos",
        -7.603044617683671
      ],
      [
        "▁ur",
        -7.608623563387497
      ],
      [
        "▁re",
        -7.615054441574186
      ],
      [
        "▁should",
        -7.616240878603094
      ],
      [
        "▁already",
        -7.616765286552892
      ],
      [
        "▁enjoy",
        -7.6218161741979635
      ],
      [
        "▁ehn",
        -7.62311134199873
      ],
      [
        "▁shey",
        -7.633054595983879
      ],
      [
        "make",
        -7.640304479268085
      ],
      [
        "▁p",
        -7.641024383327641
      ],
      [
        "▁baby",
        -7.647579065065143
      ],
      [
        "▁hand",
        -7.653519478773075
      ],
      [
        "▁matter",
        -7.6604456147074815
      ],
      [
        "▁wa",
        -7.663410424533
      ],
      [
        "▁th",
        -7.669297729707532
      ],
      [
        "▁cry",
        -7.675754943208514
      ],
      [
        "▁face",
        -7.675981248958098
      ],
      [
        "▁which",
        -7.678244961751121
      ],
      [
        "self",
        -7.680834152422327
      ],
      [
        "▁inside",
        -7.690746100518818
      ],
      [
        "▁said",
        -7.703595691470906
      ],
      [
        "▁big",
        -7.71087274159695
      ],
      [
        "▁run",
        -7.712186117909116
      ],
      [
        "▁food",
        -7.713001005354458
      ],
      [
        "at",
        -7.715131621763686
      ],
      [
        "▁lagos",
        -7.7157138059526185
      ],
      [
        "▁ni",
        -7.7242466935613825
      ],
      [
        "▁leav",
        -7.727497702233182
      ],
      [
        "till",
        -7.727768637198138
      ],
      [
        "▁account",
        -7.7290779663068285
      ],
      [
        "ive",
        -7.732361772430322
      ],
      [
        "▁light",
        -7.732665305486154
      ],
      [
        "z",
        -7.7336067829691615
      ],
      [
        "▁sure",
        -7.739544482829412
      ],
      [
        "▁over",
        -7.744055257558461
      ],
      [
        "▁fan",
        -7.745918949027925
      ],
      [
        "▁bless",
        -7.747948357857468
      ],
      [
        "▁has",
        -7.75294431629765
      ],
      [
        "▁month",
        -7.75533627096448
      ],
      [
        "de",
        -7.755751685138833
      ],
      [
        "▁cant",
        -7.757658337676707
      ],
      [
        "▁more",
        -7.759791685951151
      ],
      [
        "▁thes",
        -7.763687521677243
      ],
      [
        "▁pay",
        -7.764583692969603
      ],
      [
        "▁real",
        -7.766556164742004
      ],
      [
        "▁fir",
        -7.767091573802522
      ],
      [
        "▁se",
        -7.780347893539488
      ],
      [
        "ce",
        -7.78728337399581
      ],
      [
        "▁new",
        -7.790483192330861
      ],
      [
        "▁country",
        -7.7975617691943855
      ],
      [
        "like",
        -7.806396860045854
      ],
      [
        "▁dear",
        -7.810973855570502
      ],
      [
        "tin",
        -7.827864975546661
      ],
      [
        "man",
        -7.833291569172557
      ],
      [
        "▁c",
        -7.839167868490183
      ],
      [
        "very",
        -7.841618487980431
      ],
      [
        "▁someone",
        -7.8434999427581245
      ],
      [
        "v",
        -7.847774643940718
      ],
      [
        "be",
        -7.848105601580311
      ],
      [
        "▁something",
        -7.8575371358858535
      ],
      [
        "▁post",
        -7.872100972183572
      ],
      [
        "▁reason",
        -7.877814225126296
      ],
      [
        "▁collect",
        -7.877842586457686
      ],
      [
        "▁end",
        -7.881856533591032
      ],
      [
        "▁mouth",
        -7.885638460434939
      ],
      [
        "▁things",
        -7.885675793801713
      ],
      [
        "▁retweet",
        -7.885991182892915
      ],
      [
        "▁school",
        -7.886041840554123
      ],
      [
        "▁rush",
        -7.888709282770362
      ],
      [
        "▁sell",
        -7.891832198993766
      ],
      [
        "im",
        -7.899652891677982
      ],
      [
        "don",
        -7.908812000656805
      ],
      [
        "▁put",
        -7.917223433357315
      ],
      [
        "▁bros",
        -7.919724481231789
      ],
      [
        "less",
        -7.920041485127938
      ],
      [
        "▁ha",
        -7.92338173739876
      ],
      [
        "▁suppose",
        -7.928999913519507
      ],
      [
        "time",
        -7.930740258459116
      ],
      [
        "▁feel",
        -7.932976961559123
      ],
      [
        "out",
        -7.934062020423478
      ],
      [
        "▁un",
        -7.935509375775904
      ],
      [
        "▁tey",
        -7.938962190278773
      ],
      [
        "▁mind",
        -7.942466106241679
      ],
      [
        "ally",
        -7.945391905820876
      ],
      [
        "for",
        -7.945561309742438
      ],
      [
        "▁water",
        -7.951890656079422
      ],
      [
        "▁turn",
        -7.956380414347905
      ],
      [
        "▁hope",
        -7.963298038257524
      ],
      [
        "▁phone",
        -7.966032201844517
      ],
      [
        "ve",
        -7.968295412542778
      ],
      [
        "▁name",
        -7.969574171873352
      ],
      [
        "▁self",
        -7.972072967028025
      ],
      [
        "▁sa",
        -7.973108799380963
      ],
      [
        "other",
        -7.976087167708458
      ],
      [
        "▁f",
        -7.9796484843191555
      ],
      [
        "▁tire",
        -7.981029193936118
      ],
      [
        "▁join",
        -7.9838859396848045
      ],
      [
        "▁oga",
        -7.985625899176828
      ],
      [
        "▁sense",
        -7.990856631048878
      ],
      [
        "▁las",
        -7.994257205142386
      ],
      [
        "una",
        -7.996812066888758
      ],
      [
        "▁true",
        -7.99880294625341
      ],
      [
        "▁by",
        -8.005736290883165
      ],
      [
        "▁bad",
        -8.012234308221155
      ],
      [
        "▁belle",
        -8.014737000100501
      ],
      [
        "▁best",
        -8.016731605513705
      ],
      [
        "▁sam",
        -8.022015239752887
      ],
      [
        "as",
        -8.022687032440265
      ],
      [
        "▁pikin",
        -8.029580700396593
      ],
      [
        "we",
        -8.031461755629223
      ],
      [
        "en",
        -8.033359381646584
      ],
      [
        "▁sleep",
        -8.034855339019678
      ],
      [
        "▁order",
        -8.037443961804826
      ],
      [
        "▁heart",
        -8.04961765929608
      ],
      [
        "re",
        -8.054470193976686
      ],
      [
        "▁place",
        -8.055445700159765
      ],
      [
        "▁off",
        -8.059239361277246
      ],
      [
        "▁co",
        -8.06136591612193
      ],
      [
        "le",
        -8.06641234137463
      ],
      [
        "x",
        -8.067486257035608
      ],
      [
        "▁gree",
        -8.067704083153146
      ],
      [
        "ija",
        -8.07236265981648
      ],
      [
        "▁fear",
        -8.07273757855295
      ],
      [
        "go",
        -8.07567244947176
      ],
      [
        "ion",
        -8.079528477494968
      ],
      [
        "▁miss",
        -8.083011533847184
      ],
      [
        "▁car",
        -8.083339563890169
      ],
      [
        "▁men",
        -8.08895740884469
      ],
      [
        "▁drink",
        -8.09132765327309
      ],
      [
        "▁catch",
        -8.091395441513924
      ],
      [
        "▁number",
        -8.091632136058331
      ],
      [
        "▁fight",
        -8.092120585624906
      ],
      [
        "▁understand",
        -8.092602133494555
      ],
      [
        "line",
        -8.09313379732332
      ],
      [
        "▁fall",
        -8.100398037083178
      ],
      [
        "▁days",
        -8.107762987874093
      ],
      [
        "▁spoil",
        -8.107764917471549
      ],
      [
        "▁beat",
        -8.111848418399505
      ],
      [
        "▁home",
        -8.113966174985297
      ],
      [
        "▁laugh",
        -8.116033313792517
      ],
      [
        "▁nex",
        -8.116235374723002
      ],
      [
        "▁mus",
        -8.11672313337625
      ],
      [
        "▁song",
        -8.123759519215684
      ],
      [
        "this",
        -8.125022049084345
      ],
      [
        "▁week",
        -8.129975791587828
      ],
      [
        "▁blow",
        -8.130064203545563
      ],
      [
        "▁di",
        -8.131625993010068
      ],
      [
        "▁becau",
        -8.136805027050492
      ],
      [
        "▁fuck",
        -8.139636207445703
      ],
      [
        "▁mean",
        -8.140146922742089
      ],
      [
        "▁cause",
        -8.140416406234705
      ],
      [
        "▁doing",
        -8.140979799028328
      ],
      [
        "▁break",
        -8.147025454621946
      ],
      [
        "oo",
        -8.160426635037377
      ],
      [
        "▁drop",
        -8.16435250000758
      ],
      [
        "▁night",
        -8.167499760184779
      ],
      [
        "▁remain",
        -8.170841964477763
      ],
      [
        "▁boss",
        -8.171785115893758
      ],
      [
        "ke",
        -8.172983372855988
      ],
      [
        "▁broke",
        -8.174237971741631
      ],
      [
        "▁change",
        -8.177009418828343
      ],
      [
        "▁mama",
        -8.177437438346203
      ],
      [
        "ever",
        -8.179503929098408
      ],
      [
        "▁brain",
        -8.179697951723147
      ],
      [
        "▁hot",
        -8.179885112362197
      ],
      [
        "ies",
        -8.181011376777121
      ],
      [
        "▁boys",
        -8.181172276800279
      ],
      [
        "ful",
        -8.181417744171826
      ],
      [
        "day",
        -8.191478883232774
      ],
      [
        "▁marry",
        -8.193138186028513
      ],
      [
        "▁mum",
        -8.194050846294532
      ],
      [
        "es",
        -8.194192499396923
      ],
      [
        "▁wear",
        -8.208343591304192
      ],
      [
        "▁hustle",
        -8.208780107185678
      ],
      [
        "▁funn",
        -8.210486712438756
      ],
      [
        "▁rest",
        -8.21077136345949
      ],
      [
        "▁brother",
        -8.213874443583396
      ],
      [
        "▁whole",
        -8.214430557697085
      ],
      [
        "▁two",
        -8.215616139058566
      ],
      [
        "▁right",
        -8.217508966385362
      ],
      [
        "▁suffer",
        -8.223899160451943
      ],
      [
        "▁wife",
        -8.223937067535257
      ],
      [
        "▁fi",
        -8.231365048750362
      ],
      [
        "▁tho",
        -8.233404047917356
      ],
      [
        "▁sir",
        -8.234968784084739
      ],
      [
        "▁move",
        -8.235428120030965
      ],
      [
        "▁many",
        -8.236300849878633
      ],
      [
        "▁oooo",
        -8.236985764769377
      ],
      [
        "▁keep",
        -8.237600167062824
      ],
      [
        "▁ah",
        -8.238247849880143
      ],
      [
        "▁other",
        -8.240932301614304
      ],
      [
        "▁friend",
        -8.241298811888413
      ],
      [
        "up",
        -8.24321435006281
      ],
      [
        "▁check",
        -8.243780443766983
      ],
      [
        "▁open",
        -8.248174128466559
      ],
      [
        "ll",
        -8.248642298566615
      ],
      [
        "▁swear",
        -8.251400716288686
      ],
      [
        "▁problem",
        -8.257027551644523
      ],
      [
        "▁team",
        -8.257839495013801
      ],
      [
        "our",
        -8.25998131991078
      ],
      [
        "▁wit",
        -8.260422755905276
      ],
      [
        "▁stay",
        -8.26415490221037
      ],
      [
        "had",
        -8.268848161192881
      ],
      [
        "▁strong",
        -8.26975083447894
      ],
      [
        "▁bring",
        -8.271452954176521
      ],
      [
        "▁hard",
        -8.272183289539637
      ],
      [
        "▁were",
        -8.27219489560446
      ],
      [
        "▁hin",
        -8.276161514448754
      ],
      [
        "hose",
        -8.27731882641438
      ],
      [
        "able",
        -8.279064080548144
      ],
      [
        "▁app",
        -8.282274982174737
      ],
      [
        "▁road",
        -8.296467476371717
      ],
      [
        "▁wo",
        -8.29961540241801
      ],
      [
        "king",
        -8.300893671087668
      ],
      [
        "get",
        -8.301290578120359
      ],
      [
        "▁smile",
        -8.31159585074412
      ],
      [
        "▁part",
        -8.312366078895057
      ],
      [
        "▁cook",
        -8.314613589214463
      ],
      [
        "▁chai",
        -8.316437164072525
      ],
      [
        "▁da",
        -8.318872385664923
      ],
      [
        "▁high",
        -8.324831646890752
      ],
      [
        "ation",
        -8.325675897869143
      ],
      [
        "waka",
        -8.327452182473975
      ],
      [
        "▁video",
        -8.329464644441567
      ],
      [
        "▁lie",
        -8.33777417547557
      ],
      [
        "▁cut",
        -8.343240802452673
      ],
      [
        "are",
        -8.344252884834237
      ],
      [
        "▁support",
        -8.348386924244469
      ],
      [
        "▁read",
        -8.354903172210776
      ],
      [
        "▁wake",
        -8.35701955134719
      ],
      [
        "▁going",
        -8.357039664524143
      ],
      [
        "▁free",
        -8.35833947310476
      ],
      [
        "▁beautiful",
        -8.360657525701036
      ],
      [
        "he",
        -8.36365646773084
      ],
      [
        "▁bee",
        -8.36723604770524
      ],
      [
        "▁market",
        -8.368245416119048
      ],
      [
        "▁world",
        -8.37592145335151
      ],
      [
        "▁remember",
        -8.376268610958466
      ],
      [
        "▁bank",
        -8.378557334730445
      ],
      [
        "▁yall",
        -8.3787021189498
      ],
      [
        "ish",
        -8.385492316657782
      ],
      [
        "▁level",
        -8.387802712483168
      ],
      [
        "abuja",
        -8.388116236653529
      ],
      [
        "ther",
        -8.38917423940509
      ],
      [
        "▁game",
        -8.390423492957058
      ],
      [
        "phone",
        -8.392670390267693
      ],
      [
        "▁commo",
        -8.398272886757116
      ],
      [
        "ness",
        -8.39839660316966
      ],
      [
        "▁full",
        -8.400314393094515
      ],
      [
        "▁pick",
        -8.401739994278884
      ],
      [
        "▁came",
        -8.415873660097931
      ],
      [
        "but",
        -8.416023759424066
      ],
      [
        "▁fire",
        -8.416245075390549
      ],
      [
        "▁jam",
        -8.416507757564062
      ],
      [
        "▁fa",
        -8.418416229763947
      ],
      [
        "▁burn",
        -8.420070267574777
      ],
      [
        "▁does",
        -8.42338276811353
      ],
      [
        "▁thanks",
        -8.431122373299006
      ],
      [
        "enal",
        -8.433747965678947
      ],
      [
        "dem",
        -8.434064073306999
      ],
      [
        "▁la",
        -8.434773437246495
      ],
      [
        "born",
        -8.434820274058632
      ],
      [
        "▁than",
        -8.436357741224514
      ],
      [
        "▁peace",
        -8.43700580239695
      ],
      [
        "▁burst",
        -8.440208026562521
      ],
      [
        "▁com",
        -8.441149717914847
      ],
      [
        "▁price",
        -8.441692215937634
      ],
      [
        "▁naira",
        -8.442513448447954
      ],
      [
        "orrow",
        -8.446061579345706
      ],
      [
        "not",
        -8.446438284546986
      ],
      [
        "ting",
        -8.448826677691281
      ],
      [
        "▁joke",
        -8.449094242035297
      ],
      [
        "▁years",
        -8.452181788047763
      ],
      [
        "▁papa",
        -8.455246169577727
      ],
      [
        "▁calm",
        -8.457597579277934
      ],
      [
        "▁ba",
        -8.459186095265308
      ],
      [
        "th",
        -8.466038961334363
      ],
      [
        "▁business",
        -8.468642264023245
      ],
      [
        "▁got",
        -8.472497140746357
      ],
      [
        "▁state",
        -8.480251082688886
      ],
      [
        "▁drag",
        -8.481589872701605
      ],
      [
        "▁wrong",
        -8.481772705445252
      ],
      [
        "▁learn",
        -8.481926527110824
      ],
      [
        "▁ones",
        -8.482661070506282
      ],
      [
        "▁around",
        -8.483067848851356
      ],
      [
        "▁family",
        -8.484413274626275
      ],
      [
        "▁somebody",
        -8.486450730276106
      ],
      [
        "▁street",
        -8.489511245519118
      ],
      [
        "▁add",
        -8.493109218996116
      ],
      [
        "▁shout",
        -8.494699507978272
      ],
      [
        "▁late",
        -8.497705030566554
      ],
      [
        "▁far",
        -8.498085025604668
      ],
      [
        "ice",
        -8.499066998113449
      ],
      [
        "▁tired",
        -8.500360407802063
      ],
      [
        "▁hold",
        -8.504116318009508
      ],
      [
        "▁chel",
        -8.50725366627355
      ],
      [
        "▁being",
        -8.509522225785986
      ],
      [
        "▁match",
        -8.51026231447306
      ],
      [
        "of",
        -8.510428030343947
      ],
      [
        "▁buhari",
        -8.510753466269055
      ],
      [
        "▁oya",
        -8.51102865120371
      ],
      [
        "▁birthday",
        -8.511397694337886
      ],
      [
        "▁block",
        -8.511562005896646
      ],
      [
        "▁worry",
        -8.512070415892465
      ],
      [
        "her",
        -8.517135459267424
      ],
      [
        "▁plan",
        -8.517317868531332
      ],
      [
        "▁lo",
        -8.517788870300855
      ],
      [
        "▁fun",
        -8.528719894723553
      ],
      [
        "ough",
        -8.531094903992026
      ],
      [
        "▁save",
        -8.532077636458123
      ],
      [
        "▁ch",
        -8.535484874898863
      ],
      [
        "rice",
        -8.53630346320064
      ],
      [
        "▁sub",
        -8.53755365987533
      ],
      [
        "do",
        -8.538260468936562
      ],
      [
        "night",
        -8.538290367235877
      ],
      [
        "▁would",
        -8.539634285126205
      ],
      [
        "▁message",
        -8.540721989378433
      ],
      [
        "▁settle",
        -8.54456470183188
      ],
      [
        "ge",
        -8.545505025078999
      ],
      [
        "▁score",
        -8.546249560215859
      ],
      [
        "▁through",
        -8.554270975590377
      ],
      [
        "▁ball",
        -8.55806416884393
      ],
      [
        "▁gan",
        -8.558518332423027
      ],
      [
        "ooo",
        -8.559467877444014
      ],
      [
        "▁per",
        -8.560063983386184
      ],
      [
        "▁meat",
        -8.56129949843551
      ],
      [
        "ill",
        -8.567905995134486
      ],
      [
        "▁speak",
        -8.568616987145733
      ],
      [
        "once",
        -8.569907081941317
      ],
      [
        "▁long",
        -8.570105897149114
      ],
      [
        "▁biko",
        -8.570407763878517
      ],
      [
        "▁music",
        -8.57152677229379
      ],
      [
        "▁live",
        -8.579168965454832
      ],
      [
        "▁rich",
        -8.581084240744351
      ],
      [
        "▁brea",
        -8.582092668449711
      ],
      [
        "▁pa",
        -8.582713338551613
      ],
      [
        "oman",
        -8.58637194326285
      ],
      [
        "▁sit",
        -8.588476471031008
      ],
      [
        "▁dm",
        -8.59103921109766
      ],
      [
        "▁customer",
        -8.591542740857554
      ],
      [
        "▁side",
        -8.591916140674286
      ],
      [
        "side",
        -8.594520941032073
      ],
      [
        "▁whats",
        -8.598572303429851
      ],
      [
        "▁season",
        -8.601662352696168
      ],
      [
        "▁heaven",
        -8.601750855295931
      ],
      [
        "▁anyhow",
        -8.602694758354435
      ],
      [
        "ar",
        -8.608840739052077
      ],
      [
        "use",
        -8.610553555605035
      ],
      [
        "▁picture",
        -8.612277728351327
      ],
      [
        "▁yet",
        -8.612619420640028
      ],
      [
        "▁pray",
        -8.613448332268405
      ],
      [
        "ch",
        -8.614877092804266
      ],
      [
        "allah",
        -8.620999393054133
      ],
      [
        "▁mi",
        -8.62513591173717
      ],
      [
        "ary",
        -8.626886952852445
      ],
      [
        "▁sh",
        -8.628061572503976
      ],
      [
        "own",
        -8.628399823710678
      ],
      [
        "▁wonder",
        -8.634003219958474
      ],
      [
        "▁women",
        -8.634777722080635
      ],
      [
        "▁friends",
        -8.637833303364811
      ],
      [
        "▁hate",
        -8.637960972022308
      ],
      [
        "▁bus",
        -8.637982731124314
      ],
      [
        "away",
        -8.639080443885813
      ],
      [
        "▁continue",
        -8.641886898944234
      ],
      [
        "down",
        -8.65164989044424
      ],
      [
        "▁eyes",
        -8.654345307621117
      ],
      [
        "▁word",
        -8.659859483244176
      ],
      [
        "▁curse",
        -8.666829036104865
      ],
      [
        "▁imagin",
        -8.667180550810642
      ],
      [
        "▁shakara",
        -8.667471929634308
      ],
      [
        "▁giveaway",
        -8.668344758655124
      ],
      [
        "▁eh",
        -8.668374003250012
      ],
      [
        "▁lock",
        -8.668464731044962
      ],
      [
        "▁everywhere",
        -8.668838378988415
      ],
      [
        "sh",
        -8.669519173242056
      ],
      [
        "▁may",
        -8.6720797596141
      ],
      [
        "▁h",
        -8.67509055813583
      ],
      [
        "est",
        -8.676783142411953
      ],
      [
        "▁meet",
        -8.679203097703377
      ],
      [
        "ready",
        -8.679989530383256
      ],
      [
        "▁clean",
        -8.681350592060115
      ],
      [
        "▁league",
        -8.681922870221229
      ],
      [
        "most",
        -8.68340098718658
      ],
      [
        "▁lose",
        -8.692136049165011
      ],
      [
        "▁ya",
        -8.692745412134684
      ],
      [
        "end",
        -8.694558300084148
      ],
      [
        "▁eat",
        -8.699329671884367
      ],
      [
        "▁question",
        -8.701936969123048
      ],
      [
        "▁l",
        -8.702024956317363
      ],
      [
        "▁actual",
        -8.702322090766955
      ],
      [
        "▁type",
        -8.704887880896232
      ],
      [
        "▁sign",
        -8.705007316314072
      ],
      [
        "▁sing",
        -8.708652749301043
      ],
      [
        "▁shit",
        -8.71210503778876
      ],
      [
        "▁super",
        -8.713234013567703
      ],
      [
        "say",
        -8.715051451060514
      ],
      [
        "▁sey",
        -8.718682103463227
      ],
      [
        "▁ok",
        -8.71985898533313
      ],
      [
        "▁scam",
        -8.720894162299484
      ],
      [
        "ry",
        -8.723960001678327
      ],
      [
        "▁kain",
        -8.725324320628713
      ],
      [
        "ity",
        -8.725410109887036
      ],
      [
        "▁fresh",
        -8.726002970736268
      ],
      [
        "▁eye",
        -8.72969264280179
      ],
      [
        "come",
        -8.732472249945168
      ],
      [
        "ions",
        -8.73402286326841
      ],
      [
        "▁air",
        -8.734688352544609
      ],
      [
        "▁slap",
        -8.736400308674995
      ],
      [
        "▁ars",
        -8.737160866609868
      ],
      [
        "hin",
        -8.737377582146628
      ],
      [
        "▁short",
        -8.737589631733176
      ],
      [
        "▁protest",
        -8.73763710305167
      ],
      [
        "▁warri",
        -8.738003984712709
      ],
      [
        "▁shock",
        -8.738378184460476
      ],
      [
        "▁reply",
        -8.738524394315725
      ],
      [
        "▁snap",
        -8.738846729785735
      ],
      [
        "▁concern",
        -8.739188521951887
      ],
      [
        "▁nigerian",
        -8.741969341421534
      ],
      [
        "▁mehn",
        -8.742113335533695
      ],
      [
        "▁lost",
        -8.74367191969485
      ],
      [
        "▁wish",
        -8.74448594098942
      ],
      [
        "▁wash",
        -8.746708767309567
      ],
      [
        "its",
        -8.749667439423419
      ],
      [
        "▁police",
        -8.754513220302602
      ],
      [
        "top",
        -8.758729958329143
      ],
      [
        "where",
        -8.75934361951187
      ],
      [
        "▁marri",
        -8.759619072431036
      ],
      [
        "▁room",
        -8.7597164257829
      ],
      [
        "▁player",
        -8.763220599932655
      ],
      [
        "so",
        -8.76469662953392
      ],
      [
        "▁leg",
        -8.771564755839503
      ],
      [
        "▁front",
        -8.774171514103307
      ],
      [
        "▁sometime",
        -8.776301364050711
      ],
      [
        "ose",
        -8.777180620938152
      ],
      [
        "▁ever",
        -8.779643417025188
      ],
      [
        "▁set",
        -8.783410212578703
      ],
      [
        "▁yourself",
        -8.784105156666365
      ],
      [
        "▁le",
        -8.785667209303176
      ],
      [
        "▁ex",
        -8.792044951619099
      ],
      [
        "▁allow",
        -8.792269804940089
      ],
      [
        "▁follower",
        -8.796242534643364
      ],
      [
        "nd",
        -8.799350889415027
      ],
      [
        "oluwa",
        -8.80115621927777
      ],
      [
        "j",
        -8.802686574568334
      ],
      [
        "▁area",
        -8.803968760815211
      ],
      [
        "sense",
        -8.805063756185309
      ],
      [
        "▁second",
        -8.812273426064497
      ],
      [
        "▁straight",
        -8.812872655693614
      ],
      [
        "▁relationship",
        -8.813486101551925
      ],
      [
        "▁teach",
        -8.813826386289715
      ],
      [
        "▁trend",
        -8.816442837210648
      ],
      [
        "▁old",
        -8.817420942659341
      ],
      [
        "▁husband",
        -8.825146775877812
      ],
      [
        "▁most",
        -8.825261830782548
      ],
      [
        "▁children",
        -8.828795480582249
      ],
      [
        "▁believe",
        -8.828915945247678
      ],
      [
        "▁thinking",
        -8.829609850866621
      ],
      [
        "▁fam",
        -8.83324948013299
      ],
      [
        "here",
        -8.836050286669423
      ],
      [
        "wey",
        -8.836914949345484
      ],
      [
        "▁bu",
        -8.837657760382218
      ],
      [
        "orry",
        -8.839112298241165
      ],
      [
        "bi",
        -8.839672813870054
      ],
      [
        "left",
        -8.8415868101903
      ],
      [
        "▁until",
        -8.84178251456774
      ],
      [
        "▁coming",
        -8.845017668615279
      ],
      [
        "▁shoot",
        -8.848231463886387
      ],
      [
        "▁serious",
        -8.8514262803636
      ],
      [
        "▁pepper",
        -8.852150322172431
      ],
      [
        "▁stupid",
        -8.852165020165502
      ],
      [
        "▁trouble",
        -8.852519673951873
      ],
      [
        "▁cash",
        -8.853372518573261
      ],
      [
        "ture",
        -8.85378073976708
      ],
      [
        "▁different",
        -8.854361698811033
      ],
      [
        "▁pes",
        -8.85634753479828
      ],
      [
        "▁pro",
        -8.856448984137264
      ],
      [
        "how",
        -8.858223353209116
      ],
      [
        "▁r",
        -8.860979226700188
      ],
      [
        "▁begin",
        -8.861628346382915
      ],
      [
        "▁rubb",
        -8.86230590167958
      ],
      [
        "ave",
        -8.862725781704766
      ],
      [
        "▁tom",
        -8.862769099456335
      ],
      [
        "▁werey",
        -8.86604965644081
      ],
      [
        "▁single",
        -8.866327161921921
      ],
      [
        "▁chill",
        -8.870340916204286
      ],
      [
        "▁kiss",
        -8.871312608077227
      ],
      [
        "▁kan",
        -8.872346102553015
      ],
      [
        "▁hair",
        -8.872692849927983
      ],
      [
        "she",
        -8.872905986819159
      ],
      [
        "▁wow",
        -8.87296984469012
      ],
      [
        "▁dance",
        -8.87826379002624
      ],
      [
        "▁land",
        -8.879732374080337
      ],
      [
        "▁job",
        -8.879839678826432
      ],
      [
        "sea",
        -8.883118968070956
      ],
      [
        "now",
        -8.883140791046758
      ],
      [
        "▁joy",
        -8.883311809417897
      ],
      [
        "▁office",
        -8.887376201821407
      ],
      [
        "special",
        -8.889669582365606
      ],
      [
        "ans",
        -8.889908218986665
      ],
      [
        "ake",
        -8.891176266213211
      ],
      [
        "▁fuel",
        -8.893021559686979
      ],
      [
        "▁black",
        -8.893420943755936
      ],
      [
        "▁wicked",
        -8.893721241370216
      ],
      [
        "▁smell",
        -8.893757890429736
      ],
      [
        "▁sister",
        -8.893912218146294
      ],
      [
        "▁pack",
        -8.89525323349243
      ],
      [
        "abeg",
        -8.89547671928563
      ],
      [
        "▁yest",
        -8.897672002050758
      ],
      [
        "▁stress",
        -8.900790389876642
      ],
      [
        "▁naso",
        -8.902408914495204
      ],
      [
        "▁story",
        -8.902529912189971
      ],
      [
        "▁saw",
        -8.903984319111053
      ],
      [
        "▁j",
        -8.905662698320063
      ],
      [
        "▁villa",
        -8.906199841116099
      ],
      [
        "▁easy",
        -8.911073564046859
      ],
      [
        "even",
        -8.916523528008353
      ],
      [
        "▁cloth",
        -8.9168616522402
      ],
      [
        "▁wet",
        -8.918175741643797
      ],
      [
        "▁goal",
        -8.918881704040396
      ],
      [
        "god",
        -8.920991594061045
      ],
      [
        "▁ill",
        -8.921829745492268
      ],
      [
        "▁kee",
        -8.926729759326477
      ],
      [
        "▁fo",
        -8.927836259935722
      ],
      [
        "▁rain",
        -8.930961792965693
      ],
      [
        "un",
        -8.934843262150835
      ],
      [
        "▁drive",
        -8.936726433812762
      ],
      [
        "▁english",
        -8.937370102310098
      ],
      [
        "▁celebrat",
        -8.937731425895553
      ],
      [
        "▁br",
        -8.938402535715811
      ],
      [
        "enty",
        -8.94503959591313
      ],
      [
        "▁nigga",
        -8.950698183827047
      ],
      [
        "city",
        -8.951418785699339
      ],
      [
        "▁pe",
        -8.951867839704851
      ],
      [
        "▁queen",
        -8.952898713728068
      ],
      [
        "▁wom",
        -8.954269848598681
      ],
      [
        "▁fu",
        -8.955898597515107
      ],
      [
        "that",
        -8.959489258506679
      ],
      [
        "con",
        -8.961542056343937
      ],
      [
        "imme",
        -8.964640388380099
      ],
      [
        "▁ti",
        -8.966446293828426
      ],
      [
        "rday",
        -8.977838136738107
      ],
      [
        "▁white",
        -8.982296300849589
      ],
      [
        "▁worth",
        -8.98237515622332
      ],
      [
        "▁client",
        -8.9824004398596
      ],
      [
        "▁sunday",
        -8.982446955198757
      ],
      [
        "▁chance",
        -8.98262403036996
      ],
      [
        "▁appreciat",
        -8.983141335577807
      ],
      [
        "▁father",
        -8.983832064154875
      ],
      [
        "ant",
        -8.984099518868595
      ],
      [
        "▁dash",
        -8.984595852525315
      ],
      [
        "▁spend",
        -8.98965739548714
      ],
      [
        "ance",
        -8.993125305429215
      ],
      [
        "▁treat",
        -8.99580885379217
      ],
      [
        "▁ear",
        -8.996780776288865
      ],
      [
        "▁blessing",
        -8.998194316253418
      ],
      [
        "ng",
        -8.999890762139279
      ],
      [
        "app",
        -9.00089841276035
      ],
      [
        "▁lady",
        -9.00410139054183
      ],
      [
        "▁min",
        -9.004999109916614
      ],
      [
        "▁ground",
        -9.00732216910671
      ],
      [
        "ester",
        -9.009317752251992
      ],
      [
        "see",
        -9.011375558009838
      ],
      [
        "▁form",
        -9.011550789627709
      ],
      [
        "▁mayb",
        -9.013328681376326
      ],
      [
        "▁forge",
        -9.013495410438432
      ],
      [
        "▁pictures",
        -9.014650999325145
      ],
      [
        "▁ga",
        -9.014839875706633
      ],
      [
        "▁trust",
        -9.01748743645318
      ],
      [
        "▁tears",
        -9.017950307539618
      ],
      [
        "▁unit",
        -9.017995351232528
      ],
      [
        "ic",
        -9.018798274553124
      ],
      [
        "age",
        -9.02327493280896
      ],
      [
        "▁plu",
        -9.024202206078039
      ],
      [
        "▁share",
        -9.02718911083259
      ],
      [
        "▁point",
        -9.028617657065722
      ],
      [
        "▁club",
        -9.02880646749578
      ],
      [
        "▁proud",
        -9.029454460287303
      ],
      [
        "▁alert",
        -9.029454830657954
      ],
      [
        "▁ticket",
        -9.030008436173675
      ],
      [
        "▁bo",
        -9.031427622881719
      ],
      [
        "▁tag",
        -9.03193634121145
      ],
      [
        "▁deliver",
        -9.032641833650656
      ],
      [
        "▁handle",
        -9.032690809029617
      ],
      [
        "▁soft",
        -9.032732130887133
      ],
      [
        "urch",
        -9.03491203961796
      ],
      [
        "▁thought",
        -9.036976927282296
      ],
      [
        "▁ko",
        -9.03825433069808
      ],
      [
        "▁whil",
        -9.04088909413735
      ],
      [
        "▁je",
        -9.042292798772106
      ],
      [
        "▁voice",
        -9.043261110225538
      ],
      [
        "rate",
        -9.045169903320588
      ],
      [
        "▁write",
        -9.045541549230785
      ],
      [
        "▁kuku",
        -9.04603464578578
      ],
      [
        "wa",
        -9.046301246073128
      ],
      [
        "▁arm",
        -9.047415519883595
      ],
      [
        "▁book",
        -9.04763848846718
      ],
      [
        "▁listen",
        -9.048087209105413
      ],
      [
        "▁waste",
        -9.049652923123581
      ],
      [
        "▁uncle",
        -9.050074172584067
      ],
      [
        "live",
        -9.050232307992445
      ],
      [
        "▁under",
        -9.058743965093859
      ],
      [
        "▁bi",
        -9.059625067631874
      ],
      [
        "▁mother",
        -9.059731263730349
      ],
      [
        "▁merc",
        -9.060565153940178
      ],
      [
        "ne",
        -9.061350230051193
      ],
      [
        "▁date",
        -9.062645814942815
      ],
      [
        "ordina",
        -9.06320219783975
      ],
      [
        "▁close",
        -9.064998026715852
      ],
      [
        "▁onto",
        -9.06695144020438
      ],
      [
        "▁st",
        -9.067716631679351
      ],
      [
        "▁po",
        -9.069896414651716
      ],
      [
        "▁ho",
        -9.071643530356726
      ],
      [
        "pe",
        -9.076042143898851
      ],
      [
        "▁football",
        -9.077570852946131
      ],
      [
        "▁govern",
        -9.078618849025233
      ],
      [
        "▁knw",
        -9.07892265319295
      ],
      [
        "▁choke",
        -9.079586903743692
      ],
      [
        "▁expect",
        -9.07962280136846
      ],
      [
        "▁hungry",
        -9.079793821461847
      ],
      [
        "▁star",
        -9.080057003415376
      ],
      [
        "▁grow",
        -9.08063486037238
      ],
      [
        "thief",
        -9.08184165859533
      ],
      [
        "▁vote",
        -9.082009399250591
      ],
      [
        "▁weeks",
        -9.082415058865454
      ],
      [
        "abi",
        -9.083605693336972
      ],
      [
        "▁fr",
        -9.08673358410812
      ],
      [
        "sha",
        -9.089534384717913
      ],
      [
        "ey",
        -9.089644662180085
      ],
      [
        "▁class",
        -9.091143515498462
      ],
      [
        "ja",
        -9.091143534984365
      ],
      [
        "▁card",
        -9.091421712771481
      ],
      [
        "▁shop",
        -9.092660413344948
      ],
      [
        "▁ppl",
        -9.093318008086314
      ],
      [
        "▁bill",
        -9.093375406685432
      ],
      [
        "▁power",
        -9.0937001530866
      ],
      [
        "▁ab",
        -9.094636283010434
      ],
      [
        "▁whe",
        -9.095339051594939
      ],
      [
        "▁manage",
        -9.095472158216092
      ],
      [
        "▁president",
        -9.095985678130717
      ],
      [
        "▁ac",
        -9.096783062302837
      ],
      [
        "▁congratulat",
        -9.097388707549328
      ],
      [
        "▁lay",
        -9.100071382955553
      ],
      [
        "bo",
        -9.100557171791202
      ],
      [
        "▁hour",
        -9.101771018923582
      ],
      [
        "▁party",
        -9.102235925302566
      ],
      [
        "▁human",
        -9.103858018910518
      ],
      [
        "▁act",
        -9.104527181608272
      ],
      [
        "▁v",
        -9.107348886745605
      ],
      [
        "▁hab",
        -9.109240729795168
      ],
      [
        "ers",
        -9.114550911708342
      ],
      [
        "▁tol",
        -9.11532468992747
      ],
      [
        "sapp",
        -9.117706425981957
      ],
      [
        "ate",
        -9.125699185788989
      ],
      [
        "▁serve",
        -9.128595651680142
      ],
      [
        "▁mak",
        -9.12902827819444
      ],
      [
        "▁col",
        -9.129246465908293
      ],
      [
        "▁uni",
        -9.131674978549356
      ],
      [
        "▁bastard",
        -9.132420782828598
      ],
      [
        "▁corona",
        -9.13307403636534
      ],
      [
        "▁touch",
        -9.1331785898256
      ],
      [
        "▁marriage",
        -9.133298393484123
      ],
      [
        "ra",
        -9.133699820010444
      ],
      [
        "▁boyfriend",
        -9.133704317196663
      ],
      [
        "▁visit",
        -9.133854930604794
      ],
      [
        "▁wanna",
        -9.136386051673126
      ],
      [
        "▁barc",
        -9.137357534643645
      ],
      [
        "▁pur",
        -9.137963597162297
      ],
      [
        "▁yes",
        -9.138570439328682
      ],
      [
        "▁craze",
        -9.13858806873682
      ],
      [
        "ward",
        -9.139166512573432
      ],
      [
        "▁hit",
        -9.141096111382762
      ],
      [
        "▁half",
        -9.143865346058247
      ],
      [
        "▁dad",
        -9.146427078498416
      ],
      [
        "▁into",
        -9.146499645520723
      ],
      [
        "▁ph",
        -9.147586541738958
      ],
      [
        "▁aunty",
        -9.149363430625485
      ],
      [
        "tch",
        -9.150301675488599
      ],
      [
        "▁hi",
        -9.155299051783171
      ],
      [
        "fit",
        -9.157446997616855
      ],
      [
        "broad",
        -9.161043857266534
      ],
      [
        "▁heat",
        -9.164387113129761
      ],
      [
        "▁okay",
        -9.164418699373636
      ],
      [
        "▁scare",
        -9.164700533798506
      ],
      [
        "▁wors",
        -9.166119628979217
      ],
      [
        "▁feeling",
        -9.166910388875625
      ],
      [
        "▁care",
        -9.166916771993586
      ],
      [
        "ure",
        -9.169102577831335
      ],
      [
        "▁gat",
        -9.174833652423779
      ],
      [
        "tweets",
        -9.174903403740448
      ],
      [
        "▁charge",
        -9.178605357053709
      ],
      [
        "▁stand",
        -9.180674573056542
      ],
      [
        "light",
        -9.181567652763855
      ],
      [
        "▁young",
        -9.18281759572875
      ],
      [
        "sef",
        -9.183624425214585
      ],
      [
        "▁gate",
        -9.183708176082668
      ],
      [
        "▁sup",
        -9.185503615563345
      ],
      [
        "▁lov",
        -9.185867870167664
      ],
      [
        "▁bag",
        -9.186548648339432
      ],
      [
        "▁jeje",
        -9.186615730156
      ],
      [
        "▁could",
        -9.186983143331096
      ],
      [
        "▁answer",
        -9.187441513238007
      ],
      [
        "▁social",
        -9.187473680561677
      ],
      [
        "▁chi",
        -9.187519859556756
      ],
      [
        "▁clear",
        -9.187897528751705
      ],
      [
        "▁thread",
        -9.189085765021073
      ],
      [
        "ext",
        -9.194826982164198
      ],
      [
        "▁vibe",
        -9.19526090328446
      ],
      [
        "ter",
        -9.19745735414678
      ],
      [
        "▁draw",
        -9.197948513350577
      ],
      [
        "▁fact",
        -9.198828249147844
      ],
      [
        "▁shine",
        -9.200419550849636
      ],
      [
        "old",
        -9.200524268510183
      ],
      [
        "might",
        -9.202029325500746
      ],
      [
        "▁hype",
        -9.205808385669451
      ],
      [
        "▁jump",
        -9.205951410727746
      ],
      [
        "▁luck",
        -9.209112133665279
      ],
      [
        "▁size",
        -9.211095546880507
      ],
      [
        "ted",
        -9.212528529413087
      ],
      [
        "ma",
        -9.213135052690504
      ],
      [
        "▁mo",
        -9.216477374709093
      ],
      [
        "▁dur",
        -9.218332456421024
      ],
      [
        "ku",
        -9.21860006831496
      ],
      [
        "won",
        -9.222466269945638
      ],
      [
        "ought",
        -9.233188730777117
      ],
      [
        "complete",
        -9.234476333750312
      ],
      [
        "▁ooooo",
        -9.236662988084973
      ],
      [
        "court",
        -9.236907283863399
      ],
      [
        "just",
        -9.239783305252983
      ],
      [
        "▁sent",
        -9.239838551692925
      ],
      [
        "▁christ",
        -9.241642518234006
      ],
      [
        "▁li",
        -9.24219056615096
      ],
      [
        "▁soup",
        -9.243853429524727
      ],
      [
        "▁link",
        -9.244765000029897
      ],
      [
        "▁para",
        -9.245870388329367
      ],
      [
        "▁health",
        -9.246163078111984
      ],
      [
        "▁scatter",
        -9.246351880402411
      ],
      [
        "▁balance",
        -9.246396678449289
      ],
      [
        "▁insult",
        -9.246464447202547
      ],
      [
        "▁hell",
        -9.247155873962988
      ],
      [
        "▁skin",
        -9.247512286415843
      ],
      [
        "▁walahi",
        -9.247515610083553
      ],
      [
        "▁moment",
        -9.247525733734424
      ],
      [
        "▁war",
        -9.248455682734562
      ],
      [
        "la",
        -9.248661323363745
      ],
      [
        "▁comment",
        -9.250950493622177
      ],
      [
        "ult",
        -9.256343509052089
      ],
      [
        "ars",
        -9.25838305889858
      ],
      [
        "fish",
        -9.259620143173294
      ],
      [
        "ight",
        -9.261185587291724
      ],
      [
        "▁davido",
        -9.261263664141705
      ],
      [
        "▁taste",
        -9.261592728890442
      ],
      [
        "▁wizkid",
        -9.263016114383623
      ],
      [
        "let",
        -9.265660675236855
      ],
      [
        "▁toast",
        -9.267107389483186
      ],
      [
        "▁lai",
        -9.269334204387546
      ],
      [
        "▁alone",
        -9.27046361635269
      ],
      [
        "▁bin",
        -9.270561507510223
      ],
      [
        "▁camp",
        -9.27146579676817
      ],
      [
        "pple",
        -9.27162266986615
      ],
      [
        "▁egg",
        -9.2727456851485
      ],
      [
        "orrect",
        -9.275231710637104
      ],
      [
        "▁buh",
        -9.27603073526916
      ],
      [
        "▁media",
        -9.278043741975385
      ],
      [
        "▁film",
        -9.280709432759078
      ],
      [
        "▁shame",
        -9.286870608851647
      ],
      [
        "▁shak",
        -9.28735644155341
      ],
      [
        "▁create",
        -9.28894726259549
      ],
      [
        "▁test",
        -9.290412669748124
      ],
      [
        "ense",
        -9.29140059417911
      ],
      [
        "▁en",
        -9.29231026594608
      ],
      [
        "ries",
        -9.292917342951224
      ],
      [
        "▁past",
        -9.293932932621546
      ],
      [
        "▁cover",
        -9.295036543605422
      ],
      [
        "grace",
        -9.297646630126007
      ],
      [
        "▁fat",
        -9.302284846582282
      ],
      [
        "cc",
        -9.303060730484603
      ],
      [
        "als",
        -9.304935390986387
      ],
      [
        "▁dia",
        -9.30600584551889
      ],
      [
        "▁argu",
        -9.307767123914234
      ],
      [
        "▁album",
        -9.307883378147977
      ],
      [
        "▁smoke",
        -9.307895167867304
      ],
      [
        "▁idiot",
        -9.307933921897003
      ],
      [
        "▁credit",
        -9.308352332974811
      ],
      [
        "▁receive",
        -9.30859442121718
      ],
      [
        "▁network",
        -9.308669282997537
      ],
      [
        "▁celebrit",
        -9.308873143770143
      ],
      [
        "▁hail",
        -9.309017057957085
      ],
      [
        "▁yeah",
        -9.309072694847185
      ],
      [
        "▁pastor",
        -9.309269962515769
      ],
      [
        "▁color",
        -9.309501870387688
      ],
      [
        "▁jesu",
        -9.311365657724194
      ],
      [
        "▁list",
        -9.313854496673116
      ],
      [
        "▁bestie",
        -9.315328358192577
      ],
      [
        "▁jo",
        -9.318785829890919
      ],
      [
        "▁awo",
        -9.323067264398558
      ],
      [
        "▁news",
        -9.324767180115778
      ],
      [
        "ay",
        -9.327650488427484
      ],
      [
        "▁fe",
        -9.328054468427265
      ],
      [
        "weti",
        -9.328188467498189
      ],
      [
        "▁surprise",
        -9.329630266164141
      ],
      [
        "▁wedding",
        -9.3296969791919
      ],
      [
        "▁ban",
        -9.32981899340197
      ],
      [
        "▁dr",
        -9.331102949831624
      ],
      [
        "▁yarn",
        -9.331397097172406
      ],
      [
        "▁notice",
        -9.33197296088711
      ],
      [
        "iz",
        -9.332322506500823
      ],
      [
        "▁everyday",
        -9.332548309270166
      ],
      [
        "▁️️",
        -9.334799062305393
      ],
      [
        "▁tear",
        -9.336629522337155
      ],
      [
        "shop",
        -9.33716883955824
      ],
      [
        "rs",
        -9.33787460858932
      ],
      [
        "▁confirm",
        -9.338503898456764
      ],
      [
        "raise",
        -9.339982407337946
      ],
      [
        "poor",
        -9.342417766656204
      ],
      [
        "▁jazzy",
        -9.344174809895256
      ],
      [
        "▁fee",
        -9.344609226360049
      ],
      [
        "▁ge",
        -9.344644980069727
      ],
      [
        "ard",
        -9.352134550403786
      ],
      [
        "ysc",
        -9.353348860745314
      ],
      [
        "▁cast",
        -9.3552813558682
      ],
      [
        "▁ja",
        -9.355794766460868
      ],
      [
        "utd",
        -9.35688342752594
      ],
      [
        "▁yah",
        -9.357613890901007
      ],
      [
        "▁chest",
        -9.366600113297592
      ],
      [
        "money",
        -9.367464300374092
      ],
      [
        "▁wi",
        -9.3691330812239
      ],
      [
        "▁earl",
        -9.371961403064933
      ],
      [
        "▁nengi",
        -9.374241556000129
      ],
      [
        "▁attack",
        -9.374544911680475
      ],
      [
        "▁ronald",
        -9.37465780430317
      ],
      [
        "ri",
        -9.374712825538417
      ],
      [
        "▁blood",
        -9.37474292900679
      ],
      [
        "▁minute",
        -9.37475591689853
      ],
      [
        "▁traffic",
        -9.374978636231004
      ],
      [
        "▁chicken",
        -9.375018630877593
      ],
      [
        "▁push",
        -9.375053871499471
      ],
      [
        "▁partner",
        -9.375106161263767
      ],
      [
        "▁incre",
        -9.375221869711764
      ],
      [
        "▁seriously",
        -9.37759473685286
      ],
      [
        "▁prayer",
        -9.378286271979423
      ],
      [
        "some",
        -9.38105724544112
      ],
      [
        "pa",
        -9.381135641617504
      ],
      [
        "sin",
        -9.382132068236686
      ],
      [
        "ember",
        -9.387423914375558
      ],
      [
        "gist",
        -9.388871345750358
      ],
      [
        "▁claim",
        -9.389144185083891
      ],
      [
        "▁kids",
        -9.391098224021867
      ],
      [
        "mas",
        -9.394288310845967
      ],
      [
        "▁lea",
        -9.395025207906906
      ],
      [
        "right",
        -9.395068032331219
      ],
      [
        "▁benin",
        -9.39546952068282
      ],
      [
        "head",
        -9.395866360919184
      ],
      [
        "▁great",
        -9.398346060843725
      ],
      [
        "▁artist",
        -9.398468496233496
      ],
      [
        "▁sex",
        -9.399206624248915
      ],
      [
        "ddle",
        -9.400459091930925
      ],
      [
        "▁near",
        -9.400481299317924
      ],
      [
        "▁cap",
        -9.40084155930246
      ],
      [
        "▁tru",
        -9.402599529441273
      ],
      [
        "▁ohh",
        -9.402768504513238
      ],
      [
        "▁grate",
        -9.402813786257068
      ],
      [
        "gba",
        -9.403161926651295
      ],
      [
        "ba",
        -9.404740612341334
      ],
      [
        "lock",
        -9.407652687289811
      ],
      [
        "▁poverty",
        -9.410123633488489
      ],
      [
        "▁tak",
        -9.410193890002502
      ],
      [
        "▁geh",
        -9.410541140339204
      ],
      [
        "coming",
        -9.414454630165768
      ],
      [
        "▁red",
        -9.416942327220728
      ],
      [
        "▁nep",
        -9.419758281517527
      ],
      [
        "▁jor",
        -9.421325407500326
      ],
      [
        "▁low",
        -9.421333199720682
      ],
      [
        "▁ju",
        -9.422477487538803
      ],
      [
        "▁mistake",
        -9.422648335287578
      ],
      [
        "▁hug",
        -9.423995410912704
      ],
      [
        "▁kai",
        -9.425263343847803
      ],
      [
        "▁gang",
        -9.425320147490243
      ],
      [
        "tic",
        -9.426409331363722
      ],
      [
        "gun",
        -9.426883740537482
      ],
      [
        "▁fly",
        -9.426976642305053
      ],
      [
        "ask",
        -9.427624498903462
      ],
      [
        "ence",
        -9.431581500686377
      ],
      [
        "▁fin",
        -9.43260043107313
      ],
      [
        "▁jus",
        -9.435038309466135
      ],
      [
        "▁sad",
        -9.43552488805536
      ],
      [
        "▁mate",
        -9.43820513852626
      ],
      [
        "▁pi",
        -9.438248812229157
      ],
      [
        "▁final",
        -9.439132487290204
      ],
      [
        "▁gb",
        -9.439716354272072
      ],
      [
        "▁gift",
        -9.44115712029615
      ],
      [
        "please",
        -9.44227168364778
      ],
      [
        "fair",
        -9.442849862690998
      ],
      [
        "▁law",
        -9.443239685424107
      ],
      [
        "▁quick",
        -9.443846941920471
      ],
      [
        "el",
        -9.444405503410845
      ],
      [
        "▁ugly",
        -9.44485350646692
      ],
      [
        "▁group",
        -9.44529920852746
      ],
      [
        "▁adult",
        -9.44544544410066
      ],
      [
        "▁stuff",
        -9.445647753244797
      ],
      [
        "ring",
        -9.44574479955862
      ],
      [
        "▁punish",
        -9.44580442998113
      ],
      [
        "▁honest",
        -9.446031676787083
      ],
      [
        "▁kitchen",
        -9.446099336644364
      ],
      [
        "▁complain",
        -9.446322914465213
      ],
      [
        "▁transfer",
        -9.44634167428281
      ],
      [
        "▁decide",
        -9.447062985890202
      ],
      [
        "▁stea",
        -9.447269044195373
      ],
      [
        "▁champion",
        -9.447302234659002
      ],
      [
        "da",
        -9.449288597897604
      ],
      [
        "▁offend",
        -9.45179420864123
      ],
      [
        "▁movie",
        -9.452026231474242
      ],
      [
        "wan",
        -9.452071489500801
      ],
      [
        "▁pic",
        -9.453860158439568
      ],
      [
        "▁normal",
        -9.455293405802268
      ],
      [
        "spit",
        -9.455376695973154
      ],
      [
        "▁pity",
        -9.455999216007843
      ],
      [
        "pl",
        -9.458020627112102
      ],
      [
        "rst",
        -9.459482278239198
      ],
      [
        "▁sound",
        -9.459600393788296
      ],
      [
        "shey",
        -9.46031440841181
      ],
      [
        "oooo",
        -9.462473447456972
      ],
      [
        "▁gen",
        -9.463169928671391
      ],
      [
        "▁train",
        -9.463761879943718
      ],
      [
        "▁fast",
        -9.465827778893209
      ],
      [
        "▁evil",
        -9.467166950059358
      ],
      [
        "rough",
        -9.470313570807956
      ],
      [
        "▁bbn",
        -9.47083359809756
      ],
      [
        "▁girlfriend",
        -9.47139555588604
      ],
      [
        "▁cup",
        -9.471616792367868
      ],
      [
        "▁yrs",
        -9.480100528545409
      ],
      [
        "▁view",
        -9.480795284488185
      ],
      [
        "work",
        -9.48171666555383
      ],
      [
        "▁pre",
        -9.4823937926511
      ],
      [
        "ship",
        -9.48275150299481
      ],
      [
        "▁shut",
        -9.483399727685619
      ],
      [
        "▁occ",
        -9.484007601862805
      ],
      [
        "▁record",
        -9.4850589414752
      ],
      [
        "▁parent",
        -9.48612219919011
      ],
      [
        "▁election",
        -9.48865436244875
      ],
      [
        "▁mid",
        -9.490390796194346
      ],
      [
        "▁gain",
        -9.493952492464174
      ],
      [
        "▁cu",
        -9.494976159194673
      ],
      [
        "uff",
        -9.495703623468117
      ],
      [
        "▁hung",
        -9.49575568167296
      ],
      [
        "▁student",
        -9.500178575190525
      ],
      [
        "▁har",
        -9.501217444994737
      ],
      [
        "▁bab",
        -9.501608509588095
      ],
      [
        "▁dec",
        -9.503406321836971
      ],
      [
        "▁ca",
        -9.50368322595224
      ],
      [
        "▁gra",
        -9.505675485013006
      ],
      [
        "▁pot",
        -9.514640495096568
      ],
      [
        "cus",
        -9.514955965009104
      ],
      [
        "under",
        -9.516279755317516
      ],
      [
        "▁walk",
        -9.51823482903638
      ],
      [
        "▁tin",
        -9.51833811358858
      ],
      [
        "▁flex",
        -9.521495668438721
      ],
      [
        "▁cat",
        -9.521921149419468
      ],
      [
        "▁judge",
        -9.521976917496696
      ],
      [
        "▁guess",
        -9.522189324328972
      ],
      [
        "▁return",
        -9.52256409699934
      ],
      [
        "▁current",
        -9.52271862614533
      ],
      [
        "▁both",
        -9.522840667408307
      ],
      [
        "land",
        -9.522928290444378
      ],
      [
        "▁transport",
        -9.523116109195634
      ],
      [
        "▁rock",
        -9.523589046030292
      ],
      [
        "▁child",
        -9.52608159164902
      ],
      [
        "▁whine",
        -9.527047214704465
      ],
      [
        "▁green",
        -9.529165974172361
      ],
      [
        "▁depress",
        -9.530970936579536
      ],
      [
        "▁local",
        -9.531252886992316
      ],
      [
        "▁cake",
        -9.532839416510498
      ],
      [
        "▁sharp",
        -9.533799756439768
      ],
      [
        "▁ozo",
        -9.534958316964286
      ],
      [
        "▁baff",
        -9.535287831404887
      ],
      [
        "▁dream",
        -9.536309030209768
      ],
      [
        "▁loud",
        -9.53642554753283
      ],
      [
        "▁cuz",
        -9.537507442971236
      ],
      [
        "▁trip",
        -9.538136232457418
      ],
      [
        "hide",
        -9.538713902767325
      ],
      [
        "press",
        -9.540714200112273
      ],
      [
        "▁ar",
        -9.541813032182526
      ],
      [
        "▁dress",
        -9.543630538069097
      ],
      [
        "▁knack",
        -9.545260127934597
      ],
      [
        "▁issue",
        -9.54899385284256
      ],
      [
        "▁shot",
        -9.549935680646534
      ],
      [
        "▁breath",
        -9.55039096053905
      ],
      [
        "▁origina",
        -9.550735799653273
      ],
      [
        "▁weak",
        -9.552387630779672
      ],
      [
        "hoo",
        -9.552634435456461
      ],
      [
        "▁case",
        -9.553269758450393
      ],
      [
        "▁product",
        -9.553651108372499
      ],
      [
        "▁cow",
        -9.555111609345504
      ],
      [
        "style",
        -9.557151123193904
      ],
      [
        "▁cheap",
        -9.557520142921588
      ],
      [
        "▁force",
        -9.559229722601808
      ],
      [
        "▁vs",
        -9.563607024631471
      ],
      [
        "▁giv",
        -9.563894689261293
      ],
      [
        "ible",
        -9.564547147169439
      ],
      [
        "▁laidi",
        -9.565918623841224
      ],
      [
        "ent",
        -9.566768838220735
      ],
      [
        "▁mil",
        -9.567033074393336
      ],
      [
        "▁ke",
        -9.568255563409895
      ],
      [
        "tori",
        -9.571117068650187
      ],
      [
        "boy",
        -9.571375997697539
      ],
      [
        "▁main",
        -9.572370297009828
      ],
      [
        "whil",
        -9.57250451875765
      ],
      [
        "▁lot",
        -9.573305955699842
      ],
      [
        "his",
        -9.574390744373394
      ],
      [
        "▁swi",
        -9.579877260194722
      ],
      [
        "peri",
        -9.582949918342706
      ],
      [
        "▁kpa",
        -9.583359164648241
      ],
      [
        "better",
        -9.585600117882045
      ],
      [
        "▁load",
        -9.588399225840876
      ],
      [
        "ju",
        -9.588994902784616
      ],
      [
        "▁dog",
        -9.589942643842367
      ],
      [
        "▁bayi",
        -9.590649142526072
      ],
      [
        "▁flog",
        -9.591098400053461
      ],
      [
        "▁deal",
        -9.591558414571836
      ],
      [
        "▁su",
        -9.593580679378068
      ],
      [
        "erica",
        -9.599961462354468
      ],
      [
        "▁bet",
        -9.600169316742747
      ],
      [
        "cent",
        -9.601388377600099
      ],
      [
        "▁drug",
        -9.604517691419629
      ],
      [
        "tting",
        -9.604793551685555
      ],
      [
        "▁loyal",
        -9.604908407595817
      ],
      [
        "▁robber",
        -9.605242462617916
      ],
      [
        "▁strike",
        -9.605257894931206
      ],
      [
        "▁female",
        -9.605260028349814
      ],
      [
        "▁laptop",
        -9.605261872105539
      ],
      [
        "ning",
        -9.60539314151032
      ],
      [
        "▁age",
        -9.605506985939284
      ],
      [
        "▁faint",
        -9.605538644461568
      ],
      [
        "▁release",
        -9.605609216349833
      ],
      [
        "▁tailor",
        -9.605727210986533
      ],
      [
        "▁unfortunate",
        -9.606332638807007
      ],
      [
        "▁subscription",
        -9.606441923920418
      ],
      [
        "▁coach",
        -9.606558902275442
      ],
      [
        "▁daughter",
        -9.606586012783648
      ],
      [
        "▁crush",
        -9.606691516847107
      ],
      [
        "ous",
        -9.606845707871848
      ],
      [
        "▁exam",
        -9.607175753798334
      ],
      [
        "▁deserve",
        -9.607860121937888
      ],
      [
        "▁fail",
        -9.607953909662271
      ],
      [
        "etc",
        -9.608191377963688
      ],
      [
        "▁crazy",
        -9.60971115667058
      ],
      [
        "▁ignore",
        -9.610436183152878
      ],
      [
        "▁three",
        -9.61051709228577
      ],
      [
        "dis",
        -9.610606442340794
      ],
      [
        "▁struggle",
        -9.610789986757085
      ],
      [
        "love",
        -9.611849522339773
      ],
      [
        "▁suck",
        -9.612115068290963
      ],
      [
        "experience",
        -9.612560575869832
      ],
      [
        "▁jare",
        -9.612567353666844
      ],
      [
        "▁liver",
        -9.616160011932816
      ],
      [
        "▁theres",
        -9.617352594990516
      ],
      [
        "ord",
        -9.617413446477013
      ],
      [
        "▁crim",
        -9.618677109151472
      ],
      [
        "▁ki",
        -9.619786813871356
      ],
      [
        "oil",
        -9.620000830586715
      ],
      [
        "▁unto",
        -9.622884500990953
      ],
      [
        "▁direct",
        -9.623992985717605
      ],
      [
        "▁covi",
        -9.625106257164015
      ],
      [
        "▁kon",
        -9.625672271595748
      ],
      [
        "▁blue",
        -9.629443671964054
      ],
      [
        "▁careful",
        -9.629664481656564
      ],
      [
        "▁devil",
        -9.629876281916363
      ],
      [
        "▁relate",
        -9.63064237244108
      ],
      [
        "▁boo",
        -9.630750174313977
      ],
      [
        "▁bla",
        -9.63212601302924
      ],
      [
        "▁spot",
        -9.632709441909372
      ],
      [
        "▁park",
        -9.633989898562543
      ],
      [
        "▁ooh",
        -9.634576662016272
      ],
      [
        "ekki",
        -9.638583117641122
      ],
      [
        "▁bco",
        -9.639970357397258
      ],
      [
        "▁em",
        -9.640260301132647
      ],
      [
        "▁bru",
        -9.642168784281697
      ],
      [
        "te",
        -9.642568044887414
      ],
      [
        "▁bor",
        -9.643171326734127
      ],
      [
        "why",
        -9.645407462943702
      ],
      [
        "▁dud",
        -9.651365540659196
      ],
      [
        "nger",
        -9.651851363716467
      ],
      [
        "▁glo",
        -9.652133653428791
      ],
      [
        "▁litt",
        -9.657868030799847
      ],
      [
        "▁fc",
        -9.658015248585693
      ],
      [
        "▁angr",
        -9.658041350306851
      ],
      [
        "ti",
        -9.658056229910386
      ],
      [
        "▁grand",
        -9.658593243590182
      ],
      [
        "▁bruh",
        -9.660330187131414
      ],
      [
        "▁flow",
        -9.660478878831235
      ],
      [
        "▁+",
        -9.663103953521931
      ],
      [
        "ha",
        -9.663262937144387
      ],
      [
        "▁respect",
        -9.663732281228057
      ],
      [
        "ric",
        -9.664435240297644
      ],
      [
        "▁africa",
        -9.664741391429397
      ],
      [
        "▁mental",
        -9.667568277739472
      ],
      [
        "ide",
        -9.669224654186293
      ],
      [
        "di",
        -9.669401036041602
      ],
      [
        "▁port",
        -9.669567473817464
      ],
      [
        "▁chin",
        -9.673275664661832
      ],
      [
        "▁pop",
        -9.673932911013832
      ],
      [
        "▁cr",
        -9.6740256054224
      ],
      [
        "him",
        -9.675068516520929
      ],
      [
        "▁beard",
        -9.677537072652992
      ],
      [
        "▁games",
        -9.678030845686486
      ],
      [
        "▁stan",
        -9.681447501978774
      ],
      [
        "ist",
        -9.689808071755758
      ],
      [
        "nal",
        -9.694632217461173
      ],
      [
        "▁pai",
        -9.694711225166492
      ],
      [
        "▁smart",
        -9.695245062206332
      ],
      [
        "▁dirty",
        -9.695281725668623
      ],
      [
        "▁public",
        -9.695677634916013
      ],
      [
        "▁vendor",
        -9.695687121899716
      ],
      [
        "▁course",
        -9.695768945022909
      ],
      [
        "▁talent",
        -9.695833207031594
      ],
      [
        "ling",
        -9.695929075656288
      ],
      [
        "▁disturb",
        -9.695995177462319
      ],
      [
        "▁instagram",
        -9.696441681149002
      ],
      [
        "▁stream",
        -9.69646415416516
      ],
      [
        "▁disappoint",
        -9.696652036085748
      ],
      [
        "▁sick",
        -9.696806731775224
      ],
      [
        "▁among",
        -9.696860148708966
      ],
      [
        "▁process",
        -9.696982558594591
      ],
      [
        "▁soap",
        -9.697116207280072
      ],
      [
        "rid",
        -9.698100120112938
      ],
      [
        "▁gather",
        -9.698367289541926
      ],
      [
        "▁sho",
        -9.698727765578397
      ],
      [
        "▁safe",
        -9.698727863286507
      ],
      [
        "title",
        -9.699669869784238
      ],
      [
        "▁patient",
        -9.700114896270398
      ],
      [
        "▁sweat",
        -9.701016067683966
      ],
      [
        "etin",
        -9.701528983610922
      ],
      [
        "▁glow",
        -9.701844314441427
      ],
      [
        "▁mates",
        -9.701927796808597
      ],
      [
        "▁round",
        -9.702643027724758
      ],
      [
        "▁remove",
        -9.703979894430248
      ],
      [
        "▁tr",
        -9.70525694236065
      ],
      [
        "▁amaz",
        -9.705838104149523
      ],
      [
        "▁slide",
        -9.705888878497131
      ],
      [
        "▁patronize",
        -9.706882728937035
      ],
      [
        "each",
        -9.70720444499114
      ],
      [
        "▁slay",
        -9.708517361642937
      ],
      [
        "▁confuse",
        -9.70865457337126
      ],
      [
        "▁invite",
        -9.708814360912822
      ],
      [
        "ener",
        -9.709746977953534
      ],
      [
        "ah",
        -9.711372941684694
      ],
      [
        "▁cross",
        -9.711376867857934
      ],
      [
        "form",
        -9.7116590356717
      ],
      [
        "▁joor",
        -9.711821752993783
      ],
      [
        "▁gramm",
        -9.712342290297745
      ],
      [
        "▁hands",
        -9.71320728213756
      ],
      [
        "▁else",
        -9.713640254133177
      ],
      [
        "▁gal",
        -9.713779693929576
      ],
      [
        "▁cru",
        -9.71708278639864
      ],
      [
        "▁interview",
        -9.717695886136546
      ],
      [
        "▁excite",
        -9.717719857015815
      ],
      [
        "port",
        -9.71836847106805
      ],
      [
        "▁hav",
        -9.71969229303267
      ],
      [
        "▁aswear",
        -9.722035670549493
      ],
      [
        "▁lor",
        -9.722172805769928
      ],
      [
        "ache",
        -9.722546416938815
      ],
      [
        "▁wh",
        -9.724237525422744
      ],
      [
        "omo",
        -9.726620955385496
      ],
      [
        "ouble",
        -9.727007043562738
      ],
      [
        "ver",
        -9.72771659618214
      ],
      [
        "shirt",
        -9.733548489187585
      ],
      [
        "▁master",
        -9.736077704381238
      ],
      [
        "▁pad",
        -9.738138132637394
      ],
      [
        "▁moto",
        -9.738958788406949
      ],
      [
        "uch",
        -9.739669400760292
      ],
      [
        "▁clothe",
        -9.740440997721151
      ],
      [
        "▁wella",
        -9.746383294754956
      ],
      [
        "acha",
        -9.749942936841446
      ],
      [
        "▁brod",
        -9.75001046978597
      ],
      [
        "ious",
        -9.750353105341757
      ],
      [
        "▁cons",
        -9.752013721631418
      ],
      [
        "▁bath",
        -9.752858375135872
      ],
      [
        "read",
        -9.753523854851622
      ],
      [
        "▁rape",
        -9.75590883768991
      ],
      [
        "▁mata",
        -9.757537616301041
      ],
      [
        "▁shi",
        -9.758321299317302
      ],
      [
        "ehind",
        -9.758838234542516
      ],
      [
        "selv",
        -9.759024057082842
      ],
      [
        "which",
        -9.75902699982627
      ],
      [
        "▁net",
        -9.759847605200878
      ],
      [
        "▁cost",
        -9.762633705634848
      ],
      [
        "men",
        -9.763281007454246
      ],
      [
        "room",
        -9.764753585146607
      ],
      [
        "▁tl",
        -9.766025724310204
      ],
      [
        "▁chat",
        -9.766104521428723
      ],
      [
        "▁nw",
        -9.767162912997623
      ],
      [
        "▁yard",
        -9.767352609592287
      ],
      [
        "nic",
        -9.767716616151484
      ],
      [
        "▁david",
        -9.769126501091513
      ],
      [
        "▁bed",
        -9.769137417126508
      ],
      [
        "▁mess",
        -9.770045420886643
      ],
      [
        "▁secur",
        -9.770831516073422
      ],
      [
        "obi",
        -9.771192878828472
      ],
      [
        "▁fool",
        -9.771321054804707
      ],
      [
        "▁yan",
        -9.771498067657069
      ],
      [
        "▁control",
        -9.772528449755574
      ],
      [
        "▁travel",
        -9.773421654616023
      ],
      [
        "▁jazz",
        -9.775256772984312
      ],
      [
        "stop",
        -9.777586095466514
      ],
      [
        "olve",
        -9.779239774290662
      ],
      [
        "▁sta",
        -9.779697642125653
      ],
      [
        "▁igbo",
        -9.78013268444824
      ],
      [
        "las",
        -9.780566595560728
      ],
      [
        "ddy",
        -9.780791471695993
      ],
      [
        "▁servi",
        -9.781066058591946
      ],
      [
        "▁non",
        -9.781173832559144
      ],
      [
        "▁advi",
        -9.782834276541184
      ],
      [
        "▁bra",
        -9.783214742080117
      ],
      [
        "ọ",
        -9.78622464506277
      ],
      [
        "▁du",
        -9.786359214671553
      ],
      [
        "▁goat",
        -9.786455649503075
      ],
      [
        "eat",
        -9.786937867583722
      ],
      [
        "▁inno",
        -9.787604413377066
      ],
      [
        "tain",
        -9.789325302463569
      ],
      [
        "▁shoe",
        -9.790034548981069
      ],
      [
        "ni",
        -9.790550945599582
      ],
      [
        "▁hes",
        -9.791806651820702
      ],
      [
        "▁lem",
        -9.792944652139663
      ],
      [
        "▁pig",
        -9.793832480470465
      ],
      [
        "▁avoid",
        -9.79469383289854
      ],
      [
        "▁journ",
        -9.794865714126594
      ],
      [
        "▁teeth",
        -9.794877826085647
      ],
      [
        "▁egbon",
        -9.795018823524526
      ],
      [
        "▁simpl",
        -9.795285859661348
      ],
      [
        "▁bitter",
        -9.795288113776014
      ],
      [
        "▁pretend",
        -9.79543654792757
      ],
      [
        "▁promise",
        -9.795446586306118
      ],
      [
        "▁oppress",
        -9.795453074196729
      ],
      [
        "▁auto",
        -9.795522998580495
      ],
      [
        "▁explain",
        -9.795530396064244
      ],
      [
        "▁saturday",
        -9.795678737491222
      ],
      [
        "▁walai",
        -9.795726386594662
      ],
      [
        "▁monday",
        -9.795855694868393
      ],
      [
        "▁attention",
        -9.79586260690146
      ],
      [
        "▁pull",
        -9.795967293868719
      ],
      [
        "▁opportunit",
        -9.796039542665827
      ],
      [
        "▁delete",
        -9.796189297680492
      ],
      [
        "thank",
        -9.796521909565548
      ],
      [
        "▁lu",
        -9.796571068278986
      ],
      [
        "▁neighbor",
        -9.79702386608688
      ],
      [
        "▁door",
        -9.79712289115961
      ],
      [
        "▁cool",
        -9.797976845201026
      ],
      [
        "▁hurt",
        -9.798033632246472
      ],
      [
        "▁wire",
        -9.799127565825643
      ],
      [
        "fine",
        -9.80153706679872
      ],
      [
        "▁package",
        -9.802002427682067
      ],
      [
        "▁swag",
        -9.802879722863203
      ],
      [
        "▁cum",
        -9.803182784847511
      ],
      [
        "dat",
        -9.803702079120091
      ],
      [
        "▁abuse",
        -9.80481270147642
      ],
      [
        "▁text",
        -9.807717601490154
      ],
      [
        "▁count",
        -9.808482726412288
      ],
      [
        "ender",
        -9.810365039207571
      ],
      [
        "load",
        -9.81071906909268
      ],
      [
        "▁taya",
        -9.811963037481274
      ],
      [
        "▁iko",
        -9.814177476138264
      ],
      [
        "▁za",
        -9.814567847730086
      ],
      [
        "them",
        -9.81650505354235
      ],
      [
        "▁si",
        -9.816700403255767
      ],
      [
        "▁bush",
        -9.818733702665423
      ],
      [
        "▁kne",
        -9.821787371886684
      ],
      [
        "bada",
        -9.821867784350415
      ],
      [
        "▁ahh",
        -9.822400974683143
      ],
      [
        "▁driver",
        -9.822958900751853
      ],
      [
        "▁interest",
        -9.822960467087146
      ],
      [
        "ike",
        -9.823565288418017
      ],
      [
        "▁billion",
        -9.823951173058699
      ],
      [
        "▁mosquito",
        -9.82459322537392
      ],
      [
        "▁messi",
        -9.824669918982128
      ],
      [
        "your",
        -9.825131378762965
      ],
      [
        "▁feed",
        -9.825442865397635
      ],
      [
        "▁building",
        -9.828190850535886
      ],
      [
        "▁benz",
        -9.828971624708316
      ],
      [
        "▁roman",
        -9.828995914740815
      ],
      [
        "▁ka",
        -9.829288948817677
      ],
      [
        "▁dam",
        -9.831505802116341
      ],
      [
        "▁track",
        -9.831591157170912
      ],
      [
        "▁proper",
        -9.831601899551679
      ],
      [
        "▁char",
        -9.83354533956784
      ],
      [
        "ast",
        -9.833641493517717
      ],
      [
        "cket",
        -9.834572306496407
      ],
      [
        "▁qualit",
        -9.836575186460461
      ],
      [
        "rd",
        -9.837327463541664
      ],
      [
        "▁loos",
        -9.83737567250672
      ],
      [
        "few",
        -9.839064677959646
      ],
      [
        "▁slow",
        -9.840596636341221
      ],
      [
        "when",
        -9.841242266738924
      ],
      [
        "▁oba",
        -9.842008024040672
      ],
      [
        "▁oko",
        -9.843588639979071
      ],
      [
        "▁become",
        -9.844063472496009
      ],
      [
        "▁rent",
        -9.844094774348607
      ],
      [
        "ix",
        -9.845524986385161
      ],
      [
        "ging",
        -9.848058625159815
      ],
      [
        "dies",
        -9.854589113723504
      ],
      [
        "▁wat",
        -9.857234859368068
      ],
      [
        "▁buying",
        -9.857630384246477
      ],
      [
        "▁breakfa",
        -9.859688059563958
      ],
      [
        "▁reduc",
        -9.86003910266866
      ],
      [
        "▁kilo",
        -9.860146150793497
      ],
      [
        "crui",
        -9.86276872195098
      ],
      [
        "▁odd",
        -9.870130007431404
      ],
      [
        "arent",
        -9.873659967164889
      ],
      [
        "mark",
        -9.874399066235522
      ],
      [
        "again",
        -9.874463421047981
      ],
      [
        "etting",
        -9.874469612752126
      ],
      [
        "▁smil",
        -9.874826325441735
      ],
      [
        "▁roll",
        -9.875382186824886
      ],
      [
        "▁bar",
        -9.87565521196614
      ],
      [
        "▁lmaooooo",
        -9.875863746797718
      ],
      [
        "▁deep",
        -9.876535155795471
      ],
      [
        "️️",
        -9.878385737475982
      ],
      [
        "red",
        -9.88040859992703
      ],
      [
        "▁landl",
        -9.882401966106862
      ],
      [
        "▁wil",
        -9.885199536877902
      ],
      [
        "et",
        -9.886099363178769
      ],
      [
        "bola",
        -9.886911670677968
      ],
      [
        "▁par",
        -9.886915854076296
      ],
      [
        "ki",
        -9.887152934021913
      ],
      [
        "▁press",
        -9.890010482954331
      ],
      [
        "▁pains",
        -9.892817519946409
      ],
      [
        "▁base",
        -9.892843484627893
      ],
      [
        "ps",
        -9.89299064941947
      ],
      [
        "▁pm",
        -9.893165573532075
      ],
      [
        "ok",
        -9.893985763065364
      ],
      [
        "̶",
        -9.897335756176357
      ],
      [
        "pupp",
        -9.897910569154192
      ],
      [
        "rodu",
        -9.898847390168019
      ],
      [
        "tar",
        -9.900425202741626
      ],
      [
        "▁nev",
        -9.902488765982438
      ],
      [
        "▁trek",
        -9.90513027790735
      ],
      [
        "▁quote",
        -9.905175236323991
      ],
      [
        "▁twerk",
        -9.905196248198834
      ],
      [
        "▁relax",
        -9.90520395043069
      ],
      [
        "▁exact",
        -9.905255107793248
      ],
      [
        "▁spirit",
        -9.905398760163072
      ],
      [
        "▁batter",
        -9.905541676056798
      ],
      [
        "▁kayode",
        -9.905603595791586
      ],
      [
        "▁humble",
        -9.90562218405381
      ],
      [
        "▁loool",
        -9.905624016716297
      ],
      [
        "▁staff",
        -9.905644303440798
      ],
      [
        "▁result",
        -9.905658991889892
      ],
      [
        "▁jollof",
        -9.905829955507865
      ],
      [
        "▁fellow",
        -9.905835027012522
      ],
      [
        "▁freak",
        -9.905852288584118
      ],
      [
        "▁perfume",
        -9.905901213665288
      ],
      [
        "▁arrest",
        -9.9059390609669
      ],
      [
        "▁content",
        -9.905990818091768
      ],
      [
        "▁contact",
        -9.905995082847767
      ],
      [
        "▁bridge",
        -9.906067996146913
      ],
      [
        "▁strength",
        -9.906134032866461
      ],
      [
        "▁available",
        -9.906327053476026
      ],
      [
        "▁engineer",
        -9.90657525218546
      ],
      [
        "▁trash",
        -9.906580278975312
      ],
      [
        "▁anymore",
        -9.906620829442828
      ],
      [
        "cation",
        -9.907639804172753
      ],
      [
        "▁death",
        -9.908562460510552
      ],
      [
        "▁leak",
        -9.909548475597347
      ],
      [
        "▁naked",
        -9.910647101755062
      ],
      [
        "well",
        -9.911327502096135
      ],
      [
        "▁bit",
        -9.911973340083838
      ],
      [
        "▁gas",
        -9.912455821906761
      ],
      [
        "▁except",
        -9.91287720765055
      ],
      [
        "▁design",
        -9.9129795286727
      ],
      [
        "▁fish",
        -9.912997579091991
      ],
      [
        "tail",
        -9.91384840395736
      ],
      [
        "▁survive",
        -9.914536843529437
      ],
      [
        "▁plate",
        -9.916832434072994
      ],
      [
        "stead",
        -9.916936531495718
      ],
      [
        "▁update",
        -9.919008640758559
      ],
      [
        "ise",
        -9.92187022959681
      ],
      [
        "▁amen",
        -9.922062196533492
      ],
      [
        "mission",
        -9.922500663378203
      ],
      [
        "▁award",
        -9.922682001493714
      ],
      [
        "▁calle",
        -9.923441270635713
      ],
      [
        "▁acct",
        -9.925168422900803
      ],
      [
        "beg",
        -9.92643729127635
      ],
      [
        "ikej",
        -9.926857691411861
      ],
      [
        "▁attend",
        -9.928411653069482
      ],
      [
        "oh",
        -9.929220220983286
      ],
      [
        "▁annoy",
        -9.92946814822935
      ],
      [
        "▁lips",
        -9.929799795951642
      ],
      [
        "run",
        -9.932080021870908
      ],
      [
        "▁knowing",
        -9.932520159048323
      ],
      [
        "▁dust",
        -9.93253578832853
      ],
      [
        "▁ago",
        -9.933085832075577
      ],
      [
        "▁sto",
        -9.934479192491104
      ],
      [
        "▁pipo",
        -9.934854752385279
      ],
      [
        "▁hausa",
        -9.934883671305599
      ],
      [
        "▁select",
        -9.935012410625811
      ],
      [
        "▁oyin",
        -9.93559149101528
      ],
      [
        "▁ministr",
        -9.939025679389843
      ],
      [
        "▁blend",
        -9.940086217820404
      ],
      [
        "▁general",
        -9.944400721182456
      ],
      [
        "▁bid",
        -9.946442059660619
      ],
      [
        "▁blu",
        -9.946972294314918
      ],
      [
        "▁shaa",
        -9.948876469203285
      ],
      [
        "em",
        -9.951926716721239
      ],
      [
        "▁extra",
        -9.953193310122659
      ],
      [
        "▁mek",
        -9.953489446168682
      ],
      [
        "▁soo",
        -9.954314976269503
      ],
      [
        "▁bik",
        -9.955369077847068
      ],
      [
        "ase",
        -9.956505677513086
      ],
      [
        "▁lead",
        -9.95718524511197
      ],
      [
        "ust",
        -9.95851133677745
      ],
      [
        "▁members",
        -9.960634986236036
      ],
      [
        "▁livin",
        -9.960967979281815
      ],
      [
        "▁ne",
        -9.961386801237392
      ],
      [
        "guy",
        -9.961566961394034
      ],
      [
        "▁epp",
        -9.962527362812095
      ],
      [
        "ole",
        -9.963755665735691
      ],
      [
        "onl",
        -9.964520690058368
      ],
      [
        "▁choi",
        -9.965414955193955
      ],
      [
        "▁ole",
        -9.96719851848723
      ],
      [
        "lion",
        -9.967224610697937
      ],
      [
        "▁son",
        -9.968672347001467
      ],
      [
        "▁mu",
        -9.969396692109619
      ],
      [
        "▁stor",
        -9.96967766696577
      ],
      [
        "▁ham",
        -9.971195753859881
      ],
      [
        "laye",
        -9.973430334651685
      ],
      [
        "▁box",
        -9.974022018186156
      ],
      [
        "ff",
        -9.974662747587029
      ],
      [
        "girl",
        -9.975959968866842
      ],
      [
        "aku",
        -9.976269561211856
      ],
      [
        "▁pri",
        -9.977097709843632
      ],
      [
        "▁mention",
        -9.97967251981247
      ],
      [
        "kwa",
        -9.982168357801173
      ],
      [
        "▁sote",
        -9.983304480853059
      ],
      [
        "▁thi",
        -9.983384676316213
      ],
      [
        "▁ram",
        -9.985013190685777
      ],
      [
        "dom",
        -9.986804498850862
      ],
      [
        "ccess",
        -9.98690071772651
      ],
      [
        "person",
        -9.987016642277332
      ],
      [
        "arse",
        -9.989916705283274
      ],
      [
        "have",
        -9.990737495778951
      ],
      [
        "▁chairm",
        -9.990907795864443
      ],
      [
        "▁cute",
        -9.995972548295105
      ],
      [
        "▁vir",
        -9.996322894950467
      ],
      [
        "grade",
        -9.996382359497114
      ],
      [
        "mi",
        -9.997470224108127
      ],
      [
        "rry",
        -9.997843756169955
      ],
      [
        "ily",
        -9.997891530661898
      ],
      [
        "▁frid",
        -9.999252121224917
      ],
      [
        "eral",
        -10.001012854835079
      ],
      [
        "▁wor",
        -10.002097955730228
      ],
      [
        "ature",
        -10.002218739797925
      ],
      [
        "chat",
        -10.002421907584692
      ],
      [
        "é",
        -10.004083213012443
      ],
      [
        "▁king",
        -10.004219251141429
      ],
      [
        "▁jack",
        -10.004697255574932
      ],
      [
        "▁mans",
        -10.004954500604896
      ],
      [
        "▁ta",
        -10.005655688084161
      ],
      [
        "people",
        -10.00699945172304
      ],
      [
        "▁haven",
        -10.007797222314734
      ],
      [
        "try",
        -10.008167170536563
      ],
      [
        "▁happi",
        -10.010426541171919
      ],
      [
        "fraud",
        -10.013658048023832
      ],
      [
        "▁boi",
        -10.013713540977117
      ],
      [
        "▁lmfao",
        -10.014139771020146
      ],
      [
        "▁pip",
        -10.014549883518658
      ],
      [
        "▁$",
        -10.014554735079203
      ],
      [
        "ject",
        -10.018254054695237
      ],
      [
        "by",
        -10.01843234748063
      ],
      [
        "▁statu",
        -10.019851333927518
      ],
      [
        "kind",
        -10.021594129794916
      ],
      [
        "▁writ",
        -10.021969199291796
      ],
      [
        "⁣",
        -10.022335756185461
      ],
      [
        "▁beta",
        -10.022544697291341
      ],
      [
        "bikonu",
        -10.024561645442233
      ],
      [
        "change",
        -10.025704576640562
      ],
      [
        "luck",
        -10.028224349115959
      ],
      [
        "cos",
        -10.029047828526092
      ],
      [
        "▁pump",
        -10.029087756447208
      ],
      [
        "▁lag",
        -10.0291608521749
      ],
      [
        "▁sugar",
        -10.029430485118223
      ],
      [
        "▁hush",
        -10.029632551054311
      ],
      [
        "▁sudden",
        -10.029834905357966
      ],
      [
        "▁yoruba",
        -10.029835858430005
      ],
      [
        "▁gossip",
        -10.029841865105801
      ],
      [
        "▁animal",
        -10.029866497416867
      ],
      [
        "▁window",
        -10.030027393586185
      ],
      [
        "▁regard",
        -10.030101757833311
      ],
      [
        "▁channel",
        -10.030133530516164
      ],
      [
        "▁jealous",
        -10.030144702267894
      ],
      [
        "▁choice",
        -10.030505452280234
      ],
      [
        "▁eviden",
        -10.030530037125114
      ],
      [
        "▁entire",
        -10.030577578459477
      ],
      [
        "▁build",
        -10.030670837415649
      ],
      [
        "▁compliment",
        -10.030710342140514
      ],
      [
        "▁million",
        -10.030805658798773
      ],
      [
        "lo",
        -10.030854156569898
      ],
      [
        "▁notification",
        -10.031307193396005
      ],
      [
        "▁peep",
        -10.031802253610278
      ],
      [
        "▁finger",
        -10.032308580578576
      ],
      [
        "▁soul",
        -10.033154495178563
      ],
      [
        "▁congrat",
        -10.033858762932596
      ],
      [
        "give",
        -10.03461824226115
      ],
      [
        "▁wah",
        -10.034809196329086
      ],
      [
        "▁brag",
        -10.035380617916802
      ],
      [
        "▁mood",
        -10.038365001106555
      ],
      [
        "▁page",
        -10.03907485734004
      ],
      [
        "ine",
        -10.039788679915091
      ],
      [
        "▁borrow",
        -10.040556027736898
      ],
      [
        "▁bored",
        -10.041306977270432
      ],
      [
        "▁prison",
        -10.045592880425595
      ],
      [
        "▁stead",
        -10.045799760057763
      ],
      [
        "▁diff",
        -10.04631418948249
      ],
      [
        "▁manager",
        -10.046494384754913
      ],
      [
        "kun",
        -10.04927673412791
      ],
      [
        "▁liter",
        -10.050579344620143
      ],
      [
        "▁trail",
        -10.05453803043047
      ],
      [
        "▁gold",
        -10.054723140359412
      ],
      [
        "▁den",
        -10.05475265952768
      ],
      [
        "▁glad",
        -10.055495072255608
      ],
      [
        "▁birth",
        -10.057324325858268
      ],
      [
        "▁rap",
        -10.058828264780715
      ],
      [
        "techn",
        -10.060145113627911
      ],
      [
        "▁fal",
        -10.06145564327203
      ],
      [
        "inho",
        -10.062246933868014
      ],
      [
        "▁sis",
        -10.062461015297902
      ],
      [
        "arri",
        -10.062727206204157
      ],
      [
        "▁beauty",
        -10.063066372379751
      ],
      [
        "▁comfortabl",
        -10.063351961073398
      ],
      [
        "▁maam",
        -10.063596772553291
      ],
      [
        "▁bigg",
        -10.063664131368576
      ],
      [
        "▁cream",
        -10.063995369348905
      ],
      [
        "▁chie",
        -10.064930156087824
      ],
      [
        "duba",
        -10.065942048671138
      ],
      [
        "hing",
        -10.066011171123183
      ],
      [
        "went",
        -10.066831790286201
      ],
      [
        "▁givin",
        -10.067809580491607
      ],
      [
        "▁jos",
        -10.068822687664746
      ],
      [
        "▁stre",
        -10.068852242089871
      ],
      [
        "▁students",
        -10.069072064724693
      ],
      [
        "▁atle",
        -10.071081038362527
      ],
      [
        "▁mix",
        -10.072765810014367
      ],
      [
        "▁throw",
        -10.072821618676022
      ],
      [
        "▁hol",
        -10.073095640190333
      ],
      [
        "co",
        -10.074620857332297
      ],
      [
        "om",
        -10.074904937715978
      ],
      [
        "▁mor",
        -10.075552252009976
      ],
      [
        "tion",
        -10.076781319038368
      ],
      [
        "▁corrupt",
        -10.078193286433189
      ],
      [
        "▁dun",
        -10.078381817561109
      ],
      [
        "▁behav",
        -10.079638026749517
      ],
      [
        "▁noise",
        -10.080856289509668
      ],
      [
        "cha",
        -10.08185708287462
      ],
      [
        "▁beef",
        -10.083763072610498
      ],
      [
        "▁popula",
        -10.084621421787103
      ],
      [
        "with",
        -10.085792475945452
      ],
      [
        "▁register",
        -10.08712060345325
      ],
      [
        "▁killing",
        -10.087545842682257
      ],
      [
        "▁trump",
        -10.088862638402873
      ],
      [
        "▁cance",
        -10.08895639206051
      ],
      [
        "oke",
        -10.089935250409557
      ],
      [
        "ess",
        -10.089983253838126
      ],
      [
        "▁leader",
        -10.09006303749416
      ],
      [
        "▁sp",
        -10.09010012530123
      ],
      [
        "▁appl",
        -10.092184717671778
      ],
      [
        "eye",
        -10.094421099587949
      ],
      [
        "ad",
        -10.096265516581916
      ],
      [
        "ummer",
        -10.099152087222096
      ],
      [
        "arth",
        -10.099183725326546
      ],
      [
        "uck",
        -10.099261065906752
      ],
      [
        "▁winn",
        -10.099425334437523
      ],
      [
        "▁gar",
        -10.099880116235973
      ],
      [
        "▁liv",
        -10.103944227233475
      ],
      [
        "book",
        -10.104242492249881
      ],
      [
        "▁nons",
        -10.104309929072006
      ],
      [
        "▁sap",
        -10.104822496832021
      ],
      [
        "▁toll",
        -10.106477603378359
      ],
      [
        "baba",
        -10.110276591044718
      ],
      [
        "▁cho",
        -10.110484993235296
      ],
      [
        "▁los",
        -10.11144143340831
      ],
      [
        "shes",
        -10.11459489146854
      ],
      [
        "late",
        -10.114880307781828
      ],
      [
        "▁cha",
        -10.115334184340615
      ],
      [
        "▁danc",
        -10.115390329576266
      ],
      [
        "over",
        -10.115707923767227
      ],
      [
        "too",
        -10.115892480770324
      ],
      [
        "um",
        -10.117002465469144
      ],
      [
        "▁mud",
        -10.118153147454954
      ],
      [
        "▁key",
        -10.121151598823882
      ],
      [
        "▁fed",
        -10.121480043506878
      ],
      [
        "▁bear",
        -10.121505642309739
      ],
      [
        "ttle",
        -10.122052630294977
      ],
      [
        "win",
        -10.122626729661112
      ],
      [
        "▁sar",
        -10.122983557383323
      ],
      [
        "ada",
        -10.124004059401482
      ],
      [
        "▁sigh",
        -10.125328283012761
      ],
      [
        "east",
        -10.125600193310865
      ],
      [
        "▁angel",
        -10.12754832916159
      ],
      [
        "▁greet",
        -10.130327741633383
      ],
      [
        "ont",
        -10.131066275510303
      ],
      [
        "ress",
        -10.13168665867705
      ],
      [
        "cast",
        -10.131700145225997
      ],
      [
        "ow",
        -10.131711719698023
      ],
      [
        "▁member",
        -10.132656943527252
      ],
      [
        "play",
        -10.132737570085323
      ],
      [
        "▁worker",
        -10.13393407461318
      ],
      [
        "▁wall",
        -10.13419827723084
      ],
      [
        "▁streets",
        -10.134413151482024
      ],
      [
        "ham",
        -10.136362692649186
      ],
      [
        "▁owe",
        -10.140071997167244
      ],
      [
        "▁sun",
        -10.140434979382297
      ],
      [
        "▁tay",
        -10.141006562671944
      ],
      [
        "pping",
        -10.142669753639328
      ],
      [
        "ck",
        -10.142888388997166
      ],
      [
        "enter",
        -10.143203709704412
      ],
      [
        "▁atti",
        -10.144662946378233
      ],
      [
        "▁feature",
        -10.145494275147335
      ],
      [
        "▁af",
        -10.146264712575903
      ],
      [
        "sing",
        -10.146897993624128
      ],
      [
        "oooooooo",
        -10.148432578760369
      ],
      [
        "▁sport",
        -10.148808504138763
      ],
      [
        "▁videos",
        -10.150293078437839
      ],
      [
        "▁piece",
        -10.15196521803526
      ],
      [
        "▁ehnn",
        -10.152683331047248
      ],
      [
        "▁ad",
        -10.157752778394855
      ],
      [
        "▁though",
        -10.161816885366731
      ],
      [
        "ame",
        -10.162146547717942
      ],
      [
        "back",
        -10.162522060052261
      ],
      [
        "ble",
        -10.162886318327637
      ],
      [
        "▁stag",
        -10.16505859238963
      ],
      [
        "~",
        -10.165192899042605
      ],
      [
        "▁stud",
        -10.165232611511192
      ],
      [
        "▁tagg",
        -10.166722970373149
      ],
      [
        "raki",
        -10.167879565516417
      ],
      [
        "▁lan",
        -10.168945966869147
      ],
      [
        "ka",
        -10.169991025784292
      ],
      [
        "▁secret",
        -10.170340973968216
      ],
      [
        "▁nose",
        -10.17044980721476
      ],
      [
        "▁print",
        -10.170790593028622
      ],
      [
        "▁engage",
        -10.171376486343679
      ],
      [
        "▁photo",
        -10.171453725639191
      ],
      [
        "▁pizza",
        -10.171506439341295
      ],
      [
        "▁advert",
        -10.171616759847769
      ],
      [
        "▁bomb",
        -10.171648593112359
      ],
      [
        "▁agbero",
        -10.17178445984947
      ],
      [
        "▁fabric",
        -10.171798683689083
      ],
      [
        "▁accept",
        -10.171811845809426
      ],
      [
        "▁agenda",
        -10.171825343413218
      ],
      [
        "▁couple",
        -10.171885588276776
      ],
      [
        "▁lawyer",
        -10.171894658365021
      ],
      [
        "▁bullet",
        -10.171920544764147
      ],
      [
        "▁alarm",
        -10.172006698590327
      ],
      [
        "▁obvious",
        -10.17207270445574
      ],
      [
        "▁otedola",
        -10.172074879414703
      ],
      [
        "▁admire",
        -10.172076595757515
      ],
      [
        "▁ramadan",
        -10.172093628543527
      ],
      [
        "▁awesome",
        -10.172096601816325
      ],
      [
        "▁soldier",
        -10.172097049962707
      ],
      [
        "▁certain",
        -10.172107751657851
      ],
      [
        "▁frame",
        -10.172220814369735
      ],
      [
        "▁lmaooo",
        -10.172221604549186
      ],
      [
        "▁threaten",
        -10.172304358540709
      ],
      [
        "▁positive",
        -10.17231375758821
      ],
      [
        "▁material",
        -10.172335047123033
      ],
      [
        "▁subscribe",
        -10.172425386748424
      ],
      [
        "▁embarrass",
        -10.172468243429332
      ],
      [
        "▁terribl",
        -10.172495532194747
      ],
      [
        "▁valentine",
        -10.172508761464492
      ],
      [
        "▁standard",
        -10.172780438750035
      ],
      [
        "▁salary",
        -10.172965510433293
      ],
      [
        "▁definit",
        -10.172966562957729
      ],
      [
        "▁pissed",
        -10.172972084737768
      ],
      [
        "son",
        -10.17300431592964
      ],
      [
        "▁persin",
        -10.173212099050012
      ],
      [
        "▁connection",
        -10.173414186056768
      ],
      [
        "mme",
        -10.173515842173599
      ],
      [
        "▁cus",
        -10.173941192273308
      ],
      [
        "▁peaceful",
        -10.17398807771019
      ],
      [
        "▁wound",
        -10.174483533902363
      ],
      [
        "ience",
        -10.174575660748937
      ],
      [
        "▁boxer",
        -10.174683100569725
      ],
      [
        "▁boko",
        -10.175020112003192
      ],
      [
        "▁dick",
        -10.175758806437155
      ],
      [
        "▁serv",
        -10.175897259397596
      ],
      [
        "apa",
        -10.176459382053725
      ],
      [
        "▁osun",
        -10.17669742982687
      ],
      [
        "▁destin",
        -10.176723727769094
      ],
      [
        "bless",
        -10.17767254064109
      ],
      [
        "▁ogbon",
        -10.178321356840307
      ],
      [
        "▁debit",
        -10.178350047956155
      ],
      [
        "stone",
        -10.180032110293855
      ],
      [
        "ather",
        -10.180275400044463
      ],
      [
        "▁womb",
        -10.180645629940962
      ],
      [
        "▁zoo",
        -10.181365688889086
      ],
      [
        "▁james",
        -10.18176342550386
      ],
      [
        "▁govt",
        -10.182945363225853
      ],
      [
        "lol",
        -10.183630546329523
      ],
      [
        "ol",
        -10.183706661928957
      ],
      [
        "tude",
        -10.186319118432248
      ],
      [
        "▁spending",
        -10.186857570995679
      ],
      [
        "▁enem",
        -10.186968579288466
      ],
      [
        "▁agba",
        -10.188713465524105
      ],
      [
        "▁intern",
        -10.189254100041765
      ],
      [
        "▁premi",
        -10.189849214628314
      ],
      [
        "▁supp",
        -10.19020792545691
      ],
      [
        "▁guar",
        -10.190948626169096
      ],
      [
        "▁ps",
        -10.191523618600389
      ],
      [
        "dgin",
        -10.191526622480495
      ],
      [
        "▁yab",
        -10.192157905542011
      ],
      [
        "what",
        -10.192162282863844
      ],
      [
        "▁bobo",
        -10.192605663100675
      ],
      [
        "lic",
        -10.193499450297564
      ],
      [
        "▁meeting",
        -10.194074622347863
      ],
      [
        "▁ahhh",
        -10.19465450212564
      ],
      [
        "▁position",
        -10.196990018211412
      ],
      [
        "▁dead",
        -10.197354010399025
      ],
      [
        "▁employ",
        -10.197809107754223
      ],
      [
        "▁hang",
        -10.197990343044774
      ],
      [
        "▁wise",
        -10.198862686619101
      ],
      [
        "▁youths",
        -10.199187763428359
      ],
      [
        "▁stopp",
        -10.200247819070656
      ],
      [
        "▁js",
        -10.200395742196202
      ],
      [
        "▁worrie",
        -10.201382604172384
      ],
      [
        "▁step",
        -10.202707613986105
      ],
      [
        "ties",
        -10.2036222040208
      ],
      [
        "ound",
        -10.20366586625393
      ],
      [
        "▁search",
        -10.204619898892814
      ],
      [
        "▁north",
        -10.20489238042246
      ],
      [
        "olog",
        -10.205065498353015
      ],
      [
        "▁arrange",
        -10.206286497702
      ],
      [
        "ze",
        -10.208454659064595
      ],
      [
        "▁officer",
        -10.208968519031473
      ],
      [
        "sland",
        -10.209396648537354
      ],
      [
        "rara",
        -10.21079323043491
      ],
      [
        "baj",
        -10.211118388400074
      ],
      [
        "▁gon",
        -10.212216509438749
      ],
      [
        "▁fave",
        -10.213576578450997
      ],
      [
        "▁cl",
        -10.21411306079302
      ],
      [
        "▁boom",
        -10.215926850771186
      ],
      [
        "▁taxi",
        -10.217948247531595
      ],
      [
        "▁ehh",
        -10.218807791128063
      ],
      [
        "lly",
        -10.219484080610352
      ],
      [
        "▁hid",
        -10.219614101017818
      ],
      [
        "▁lik",
        -10.219852528283358
      ],
      [
        "▁olo",
        -10.219989832649466
      ],
      [
        "mad",
        -10.220189346658946
      ],
      [
        "▁report",
        -10.220788560174963
      ],
      [
        "▁ugbo",
        -10.221601113699421
      ],
      [
        "▁mistaken",
        -10.22306604416665
      ],
      [
        "od",
        -10.223821985810066
      ],
      [
        "▁evening",
        -10.22455772725008
      ],
      [
        "▁stone",
        -10.226382466948095
      ],
      [
        "▁seat",
        -10.226428958082057
      ],
      [
        "il",
        -10.227220260375283
      ],
      [
        "▁shel",
        -10.227785928044892
      ],
      [
        "petition",
        -10.22783012516804
      ],
      [
        "▁site",
        -10.23017590155972
      ],
      [
        "list",
        -10.230793319668022
      ],
      [
        "▁fro",
        -10.231490264131336
      ],
      [
        "▁store",
        -10.231979089467407
      ],
      [
        "▁cab",
        -10.232096608516308
      ],
      [
        "▁gala",
        -10.232210024070046
      ],
      [
        "▁lives",
        -10.23235802036019
      ],
      [
        "ho",
        -10.232919373522947
      ],
      [
        "african",
        -10.234157137772588
      ],
      [
        "▁hello",
        -10.236616328615604
      ],
      [
        "▁cre",
        -10.237211051590336
      ],
      [
        "new",
        -10.2385339432066
      ],
      [
        "▁fel",
        -10.239271119939477
      ],
      [
        "take",
        -10.239339833835354
      ],
      [
        "▁prove",
        -10.239954925639058
      ],
      [
        "ming",
        -10.241544464141471
      ],
      [
        "▁haha",
        -10.241726316301289
      ],
      [
        "▁boot",
        -10.243553075817028
      ],
      [
        "gbo",
        -10.246321448317474
      ],
      [
        "▁stra",
        -10.246533798836893
      ],
      [
        "▁cuss",
        -10.24740712616213
      ],
      [
        "▁seri",
        -10.248395710965713
      ],
      [
        "▁whos",
        -10.249222593160242
      ],
      [
        "▁kin",
        -10.250103935533806
      ],
      [
        "▁sch",
        -10.251508409467263
      ],
      [
        "eck",
        -10.252984370442762
      ],
      [
        "▁icon",
        -10.253058030111966
      ],
      [
        "▁gbe",
        -10.253339876922231
      ],
      [
        "lie",
        -10.253686550147506
      ],
      [
        "▁shift",
        -10.253883395621278
      ],
      [
        "leas",
        -10.254426112922621
      ],
      [
        "▁obo",
        -10.254747399486552
      ],
      [
        "▁gi",
        -10.257590116794047
      ],
      [
        "hhh",
        -10.259805514303192
      ],
      [
        "ut",
        -10.259816015973918
      ],
      [
        "yin",
        -10.259969113775242
      ],
      [
        "ta",
        -10.260946703620068
      ],
      [
        "▁bante",
        -10.261807452749588
      ],
      [
        "▁fol",
        -10.262234941165056
      ],
      [
        "emi",
        -10.263207178425628
      ],
      [
        "▁loo",
        -10.263511078314236
      ],
      [
        "ile",
        -10.264216827973966
      ],
      [
        "▁ó",
        -10.26490267701724
      ],
      [
        "▁bigge",
        -10.265603038666564
      ],
      [
        "▁leaders",
        -10.265791503759903
      ],
      [
        "▁rep",
        -10.266203554949971
      ],
      [
        "▁ig",
        -10.269649582255411
      ],
      [
        "they",
        -10.270797827040521
      ],
      [
        "days",
        -10.271613906113988
      ],
      [
        "matic",
        -10.273206159759429
      ],
      [
        "▁betw",
        -10.273346341537849
      ],
      [
        "▁pant",
        -10.274015819512282
      ],
      [
        "thanks",
        -10.274231770158726
      ],
      [
        "gree",
        -10.275239312045638
      ],
      [
        "ain",
        -10.27629769145678
      ],
      [
        "▁wak",
        -10.277082279088608
      ],
      [
        "small",
        -10.279919449861238
      ],
      [
        "jo",
        -10.280380788711625
      ],
      [
        "repai",
        -10.281597074806278
      ],
      [
        "▁acc",
        -10.284949564711606
      ],
      [
        "rt",
        -10.285663721833613
      ],
      [
        "hip",
        -10.28846253864991
      ],
      [
        "tal",
        -10.292501866353321
      ],
      [
        "rich",
        -10.292608740390117
      ],
      [
        "tell",
        -10.293933971129695
      ],
      [
        "unch",
        -10.294560566988936
      ],
      [
        "hi",
        -10.296712049446018
      ],
      [
        "▁host",
        -10.29775518339431
      ],
      [
        "nah",
        -10.298281838307044
      ],
      [
        "chi",
        -10.299543074755071
      ],
      [
        "ical",
        -10.30000923197425
      ],
      [
        "▁dere",
        -10.300853691718618
      ],
      [
        "tor",
        -10.30221292517251
      ],
      [
        "▁che",
        -10.30221424709709
      ],
      [
        "ko",
        -10.30390460389371
      ],
      [
        "ves",
        -10.304816417231198
      ],
      [
        "cross",
        -10.305020913078884
      ],
      [
        "▁pan",
        -10.305031024796914
      ],
      [
        "li",
        -10.30573815016955
      ],
      [
        "▁dang",
        -10.307081871130357
      ],
      [
        "call",
        -10.307275424209138
      ],
      [
        "act",
        -10.308446644707907
      ],
      [
        "olish",
        -10.311520608653872
      ],
      [
        "long",
        -10.314190295191487
      ],
      [
        "ors",
        -10.314217809564564
      ],
      [
        "rsey",
        -10.314955834283213
      ],
      [
        "tension",
        -10.317104849631837
      ],
      [
        "▁deh",
        -10.3200681656551
      ],
      [
        "▁pin",
        -10.321783152685612
      ],
      [
        "▁shu",
        -10.322044152466926
      ],
      [
        "▁vers",
        -10.32405544159925
      ],
      [
        "▁ra",
        -10.326544288429643
      ],
      [
        "▁pr",
        -10.32710537709466
      ],
      [
        "▁peoples",
        -10.328361651596836
      ],
      [
        "▁defend",
        -10.328547440270093
      ],
      [
        "die",
        -10.330363565779276
      ],
      [
        "▁civil",
        -10.331866073570191
      ],
      [
        "cant",
        -10.331869333614415
      ],
      [
        "▁enugu",
        -10.33189347649323
      ],
      [
        "▁click",
        -10.331958471170202
      ],
      [
        "▁knock",
        -10.331969353311532
      ],
      [
        "smooth",
        -10.332034585484667
      ],
      [
        "▁floor",
        -10.332080840880877
      ],
      [
        "▁gurl",
        -10.332196709711944
      ],
      [
        "▁panic",
        -10.332724055775362
      ],
      [
        "▁kick",
        -10.332850205413834
      ],
      [
        "▁prett",
        -10.333032816499118
      ],
      [
        "▁draft",
        -10.333937724433472
      ],
      [
        "▁letter",
        -10.334129644074874
      ],
      [
        "▁studio",
        -10.334483676084425
      ],
      [
        "every",
        -10.335405308148164
      ],
      [
        "▁sack",
        -10.33605260099996
      ],
      [
        "▁heav",
        -10.336152298493825
      ],
      [
        "▁suspend",
        -10.336210685532503
      ],
      [
        "▁speech",
        -10.337382648826935
      ],
      [
        "▁pillow",
        -10.337404209935869
      ],
      [
        "▁kidney",
        -10.337439353978404
      ],
      [
        "▁budget",
        -10.337474883785877
      ],
      [
        "▁japa",
        -10.337484786655113
      ],
      [
        "▁politic",
        -10.337535748753124
      ],
      [
        "▁hashtag",
        -10.337668950677143
      ],
      [
        "▁diamond",
        -10.337673887571338
      ],
      [
        "▁katsina",
        -10.33767697472408
      ],
      [
        "▁quarrel",
        -10.33768141267966
      ],
      [
        "▁miracle",
        -10.337704656883886
      ],
      [
        "▁invest",
        -10.337769111602867
      ],
      [
        "▁success",
        -10.337823258967799
      ],
      [
        "▁rashford",
        -10.337876853699365
      ],
      [
        "▁mechanic",
        -10.337878494756037
      ],
      [
        "▁midfield",
        -10.337934366937128
      ],
      [
        "▁discuss",
        -10.338018897568027
      ],
      [
        "▁socie",
        -10.338019542998431
      ],
      [
        "▁confiden",
        -10.33802131793088
      ],
      [
        "▁challenge",
        -10.338048510005732
      ],
      [
        "▁immediate",
        -10.338048726067605
      ],
      [
        "▁bounce",
        -10.338088226809056
      ],
      [
        "▁realize",
        -10.338175502341183
      ],
      [
        "▁reject",
        -10.33822642586248
      ],
      [
        "▁craving",
        -10.338246368539043
      ],
      [
        "▁financial",
        -10.33828330532712
      ],
      [
        "▁contract",
        -10.33835914711355
      ],
      [
        "▁doctor",
        -10.338507795167391
      ],
      [
        "▁investment",
        -10.338558197186352
      ],
      [
        "▁spiritual",
        -10.338575466296984
      ],
      [
        "distanc",
        -10.338606176986557
      ],
      [
        "▁replace",
        -10.338612489913572
      ],
      [
        "▁slipper",
        -10.338746947833878
      ],
      [
        "▁brush",
        -10.338825978542623
      ],
      [
        "▁passport",
        -10.339367268723521
      ],
      [
        "▁improve",
        -10.340019857125501
      ],
      [
        "▁statement",
        -10.340232112337981
      ],
      [
        "gate",
        -10.340237667509474
      ],
      [
        "▁doubt",
        -10.34098681778367
      ],
      [
        "ot",
        -10.342610643766255
      ],
      [
        "▁feminis",
        -10.342951234512103
      ],
      [
        "▁influencer",
        -10.342975853952108
      ],
      [
        "▁winner",
        -10.34305877025251
      ],
      [
        "▁favor",
        -10.343254000224691
      ],
      [
        "▁ohhh",
        -10.34337711149436
      ],
      [
        "▁elder",
        -10.343497645126519
      ],
      [
        "water",
        -10.344193431314384
      ],
      [
        "▁response",
        -10.345077231824893
      ],
      [
        "ught",
        -10.345532731638581
      ],
      [
        "▁milit",
        -10.346076714902885
      ],
      [
        "▁outfit",
        -10.34615209507332
      ],
      [
        "▁cli",
        -10.346266609110259
      ],
      [
        "▁salt",
        -10.346898509563026
      ],
      [
        "▁ori",
        -10.347668683854389
      ],
      [
        "▁bright",
        -10.348013766973786
      ],
      [
        "link",
        -10.34840829375721
      ],
      [
        "▁₦",
        -10.348497818716758
      ],
      [
        "▁anyway",
        -10.348509321562274
      ],
      [
        "life",
        -10.348545248371929
      ],
      [
        "▁rule",
        -10.348766356188513
      ],
      [
        "▁nu",
        -10.34916364610075
      ],
      [
        "▁cray",
        -10.35098965935249
      ],
      [
        "▁gifts",
        -10.351959027503721
      ],
      [
        "bank",
        -10.352069834142242
      ],
      [
        "▁yen",
        -10.352246186208511
      ],
      [
        "piece",
        -10.352557796927531
      ],
      [
        "▁nurse",
        -10.35382651650287
      ],
      [
        "ear",
        -10.353861219958283
      ],
      [
        "▁tooth",
        -10.353971527124246
      ],
      [
        "gidi",
        -10.35776814042437
      ],
      [
        "▁logic",
        -10.357817694148988
      ],
      [
        "▁val",
        -10.358601233735415
      ],
      [
        "osho",
        -10.358622842862937
      ],
      [
        "wo",
        -10.3593839185464
      ],
      [
        "▁silen",
        -10.360156360702797
      ],
      [
        "▁tim",
        -10.361784154342885
      ],
      [
        "▁cheat",
        -10.362310273398153
      ],
      [
        "▁resume",
        -10.362357108797617
      ],
      [
        "▁vi",
        -10.36314724295575
      ],
      [
        "▁spec",
        -10.364417574549433
      ],
      [
        "▁fred",
        -10.365604168285051
      ],
      [
        "▁sponsor",
        -10.36647001236082
      ],
      [
        "▁prof",
        -10.366838293302191
      ],
      [
        "bru",
        -10.3668613833769
      ],
      [
        "▁abu",
        -10.36729281898283
      ],
      [
        "▁hahaha",
        -10.369196009600493
      ],
      [
        "▁audit",
        -10.369964377699556
      ],
      [
        "rise",
        -10.369978767603179
      ],
      [
        "ga",
        -10.37128751539807
      ],
      [
        "rain",
        -10.372474472858716
      ],
      [
        "who",
        -10.372644461483553
      ],
      [
        "▁four",
        -10.372801694779099
      ],
      [
        "▁bother",
        -10.373014978802102
      ],
      [
        "▁aza",
        -10.373870529785602
      ],
      [
        "▁joh",
        -10.374177265503826
      ],
      [
        "▁random",
        -10.37503893179207
      ],
      [
        "▁repost",
        -10.375985110033044
      ],
      [
        "+",
        -10.377445502684665
      ],
      [
        "sue",
        -10.377529042741907
      ],
      [
        "know",
        -10.378173140575763
      ],
      [
        "▁hel",
        -10.379136054371962
      ],
      [
        "order",
        -10.379148938616936
      ],
      [
        "iff",
        -10.37955402863264
      ],
      [
        "▁anon",
        -10.380632140737587
      ],
      [
        "cycl",
        -10.381884347817227
      ],
      [
        "▁owner",
        -10.382306660957777
      ],
      [
        "part",
        -10.384653476531462
      ],
      [
        "▁fur",
        -10.384680416749134
      ],
      [
        "ounge",
        -10.385517753375597
      ],
      [
        "zzy",
        -10.386922935199948
      ],
      [
        "▁bayii",
        -10.387126658370711
      ],
      [
        "▁okr",
        -10.387277502909392
      ],
      [
        "▁x",
        -10.388395015431866
      ],
      [
        "mach",
        -10.388772234898848
      ],
      [
        "▁pen",
        -10.390239427858178
      ],
      [
        "▁crow",
        -10.39072141935712
      ],
      [
        "▁hustler",
        -10.390865954776187
      ],
      [
        "▁ode",
        -10.391299132420116
      ],
      [
        "▁tune",
        -10.394269415573225
      ],
      [
        "▁teas",
        -10.394755880271527
      ],
      [
        "reeze",
        -10.395287610529758
      ],
      [
        "▁awar",
        -10.396699975668279
      ],
      [
        "▁onye",
        -10.39796477138365
      ],
      [
        "▁begg",
        -10.400467374593863
      ],
      [
        "sc",
        -10.401892168494324
      ],
      [
        "urger",
        -10.403115658511506
      ],
      [
        "pain",
        -10.403178628964906
      ],
      [
        "▁vic",
        -10.40403201817861
      ],
      [
        "done",
        -10.404628505556598
      ],
      [
        "ig",
        -10.40553867007466
      ],
      [
        "▁afford",
        -10.405714345700442
      ],
      [
        "fa",
        -10.406431434198716
      ],
      [
        "▁econom",
        -10.407265970420323
      ],
      [
        "▁exp",
        -10.409071523271397
      ],
      [
        "▁attract",
        -10.409235523777678
      ],
      [
        "ian",
        -10.409424638041543
      ],
      [
        "▁lack",
        -10.41072898982709
      ],
      [
        "▁av",
        -10.412088906049606
      ],
      [
        "dles",
        -10.412423629047035
      ],
      [
        "▁eeh",
        -10.41267779139496
      ],
      [
        "sabi",
        -10.412708587917404
      ],
      [
        "▁coro",
        -10.412826710087238
      ],
      [
        "▁ro",
        -10.41303371360539
      ],
      [
        "anger",
        -10.413159169317284
      ],
      [
        "▁mc",
        -10.416332883246305
      ],
      [
        "ld",
        -10.41687454479096
      ],
      [
        "▁sort",
        -10.418715163121243
      ],
      [
        "▁shay",
        -10.419367677588934
      ],
      [
        "▁mom",
        -10.419479386772833
      ],
      [
        "▁gu",
        -10.420695268931752
      ],
      [
        "▁risk",
        -10.423302208689178
      ],
      [
        "▁flogg",
        -10.423690433722333
      ],
      [
        "▁cop",
        -10.427006782921241
      ],
      [
        "▁laf",
        -10.427440023765698
      ],
      [
        "▁nko",
        -10.427862436224082
      ],
      [
        "arma",
        -10.428409337942359
      ],
      [
        "▁baye",
        -10.42959643256502
      ],
      [
        "▁fvck",
        -10.430169706801836
      ],
      [
        "▁shirt",
        -10.430933103131625
      ],
      [
        "▁nau",
        -10.431168730751754
      ],
      [
        "eeee",
        -10.431969775922289
      ],
      [
        "ession",
        -10.43340457079998
      ],
      [
        "▁lon",
        -10.434497523833887
      ],
      [
        "cil",
        -10.434640878240751
      ],
      [
        "▁mis",
        -10.43557389006623
      ],
      [
        "▁ru",
        -10.435935632974262
      ],
      [
        "ped",
        -10.436319196918953
      ],
      [
        "▁bum",
        -10.436592705189305
      ],
      [
        "▁beco",
        -10.44101380143519
      ],
      [
        "▁mini",
        -10.441405224841342
      ],
      [
        "chest",
        -10.442049043013384
      ],
      [
        "▁easi",
        -10.442603642036254
      ],
      [
        "▁mari",
        -10.444334453910244
      ],
      [
        "aka",
        -10.444422112626192
      ],
      [
        "▁upand",
        -10.444656711503617
      ],
      [
        "▁raise",
        -10.445134129726558
      ],
      [
        "ease",
        -10.447434831216427
      ],
      [
        "ro",
        -10.448588436036397
      ],
      [
        "▁action",
        -10.449469408039468
      ],
      [
        "off",
        -10.45060341123707
      ],
      [
        "▁meal",
        -10.45070142249537
      ],
      [
        "▁fund",
        -10.451986134556599
      ],
      [
        "▁radi",
        -10.45366471670266
      ],
      [
        "ving",
        -10.454834956115937
      ],
      [
        "▁talkin",
        -10.455640170529268
      ],
      [
        "▁tu",
        -10.456620742695861
      ],
      [
        "id",
        -10.45816084008392
      ],
      [
        "oya",
        -10.458555441130354
      ],
      [
        "▁propert",
        -10.459203137108043
      ],
      [
        "▁fry",
        -10.459820491574206
      ],
      [
        "ooooo",
        -10.459834656801512
      ],
      [
        "▁trie",
        -10.460405681971164
      ],
      [
        "▁ogu",
        -10.463001987034065
      ],
      [
        "▁youth",
        -10.463557255202605
      ],
      [
        "▁gun",
        -10.463600399246161
      ],
      [
        "mount",
        -10.464057619695573
      ],
      [
        "▁mot",
        -10.464326331688945
      ],
      [
        "▁enta",
        -10.464478609894387
      ],
      [
        "ool",
        -10.471528436123238
      ],
      [
        "▁bott",
        -10.47171435444808
      ],
      [
        "fund",
        -10.471825184934158
      ],
      [
        "▁ste",
        -10.47274481840022
      ],
      [
        "▁tow",
        -10.473790818855385
      ],
      [
        "▁jokes",
        -10.47384093215693
      ],
      [
        "wen",
        -10.474260571121729
      ],
      [
        "rrow",
        -10.475416565026766
      ],
      [
        "ping",
        -10.47613228010662
      ],
      [
        "▁bae",
        -10.476574673073085
      ],
      [
        "ty",
        -10.477876069540338
      ],
      [
        "▁awww",
        -10.477916831444553
      ],
      [
        "▁wiz",
        -10.479609429956128
      ],
      [
        "eally",
        -10.480949239813231
      ],
      [
        "▁naaa",
        -10.486977592942146
      ],
      [
        "▁lad",
        -10.48713045585779
      ],
      [
        "▁stock",
        -10.487891254199123
      ],
      [
        "▁hey",
        -10.488591278938445
      ],
      [
        "▁kwa",
        -10.48906500710369
      ],
      [
        "atch",
        -10.491641378571872
      ],
      [
        "▁bio",
        -10.493443176232589
      ],
      [
        "ee",
        -10.493631926284202
      ],
      [
        "▁gre",
        -10.493796373159075
      ],
      [
        "yond",
        -10.494036129368402
      ],
      [
        "bu",
        -10.49533614491567
      ],
      [
        "belle",
        -10.496753200762246
      ],
      [
        "zu",
        -10.498242897880978
      ],
      [
        "▁makin",
        -10.499274574264426
      ],
      [
        "▁anti",
        -10.501546993796861
      ],
      [
        "nce",
        -10.502223753381887
      ],
      [
        "view",
        -10.502697243916138
      ],
      [
        "▁typ",
        -10.502978015462713
      ],
      [
        "▁driv",
        -10.504478149722338
      ],
      [
        "ele",
        -10.504760062041438
      ],
      [
        "wear",
        -10.507282655531267
      ],
      [
        "▁cee",
        -10.508144493145586
      ],
      [
        "▁mums",
        -10.509245425500248
      ],
      [
        "help",
        -10.513278301355438
      ],
      [
        "▁gidi",
        -10.514659051808795
      ],
      [
        "ika",
        -10.516409694105118
      ],
      [
        "▁tue",
        -10.51697584813997
      ],
      [
        "▁america",
        -10.520568913637508
      ],
      [
        "poo",
        -10.522934084518834
      ],
      [
        "▁dip",
        -10.524052487837004
      ],
      [
        "sure",
        -10.526078324634103
      ],
      [
        "der",
        -10.52772941100853
      ],
      [
        "▁uk",
        -10.528560156736532
      ],
      [
        "▁pu",
        -10.52875030787042
      ],
      [
        "possible",
        -10.529614970170702
      ],
      [
        "▁disgu",
        -10.52989495225164
      ],
      [
        "▁connect",
        -10.530735958204703
      ],
      [
        "=",
        -10.531859565709272
      ],
      [
        "⛌",
        -10.531859565749231
      ],
      [
        "▁frustrate",
        -10.531859627752562
      ],
      [
        "▁conversation",
        -10.531859633612656
      ],
      [
        "▁stubborn",
        -10.531859721092783
      ],
      [
        "▁document",
        -10.531862401474154
      ],
      [
        "▁transaction",
        -10.531864368515132
      ],
      [
        "▁whisper",
        -10.531865800446102
      ],
      [
        "▁empty",
        -10.531868978679764
      ],
      [
        "▁indomie",
        -10.531872578221062
      ],
      [
        "▁akpors",
        -10.531879197714087
      ],
      [
        "▁lmafoooooooooo",
        -10.531880056141858
      ],
      [
        "▁swallow",
        -10.531912639058541
      ],
      [
        "▁effort",
        -10.53191372044252
      ],
      [
        "▁screen",
        -10.531918983790598
      ],
      [
        "▁butterfl",
        -10.531924814747416
      ],
      [
        "▁ankara",
        -10.531971243543218
      ],
      [
        "▁uganda",
        -10.531974970256204
      ],
      [
        "▁politician",
        -10.531989069074623
      ],
      [
        "▁dollar",
        -10.532020560122035
      ],
      [
        "quarter",
        -10.532035366391302
      ],
      [
        "▁quiet",
        -10.532046374551879
      ],
      [
        "▁education",
        -10.532062226137871
      ],
      [
        "▁chioma",
        -10.532103861184815
      ],
      [
        "▁skirt",
        -10.532144465289784
      ],
      [
        "▁tradition",
        -10.532169333944273
      ],
      [
        "▁address",
        -10.53223133670063
      ],
      [
        "▁observ",
        -10.532333516695003
      ],
      [
        "▁pep",
        -10.532375671370403
      ],
      [
        "▁recover",
        -10.532469585718173
      ],
      [
        "▁gaski",
        -10.532488429101331
      ],
      [
        "▁foreign",
        -10.532632165236528
      ],
      [
        "▁sanwo",
        -10.532672997426747
      ],
      [
        "▁tail",
        -10.532780838442465
      ],
      [
        "▁disrespect",
        -10.532793280292212
      ],
      [
        "▁trad",
        -10.532919785382482
      ],
      [
        "▁major",
        -10.532995939472073
      ],
      [
        "▁paul",
        -10.533110297589523
      ],
      [
        "▁legend",
        -10.533400085104569
      ],
      [
        "▁kolo",
        -10.53355570979635
      ],
      [
        "▁repent",
        -10.533629855569696
      ],
      [
        "▁scream",
        -10.533660496022321
      ],
      [
        "▁roast",
        -10.533851249391756
      ],
      [
        "▁respond",
        -10.53436760101237
      ],
      [
        "▁wlh",
        -10.53440720933228
      ],
      [
        "reign",
        -10.53460267910054
      ],
      [
        "field",
        -10.53473909664706
      ],
      [
        "nwanne",
        -10.53475278219016
      ],
      [
        "▁tra",
        -10.534996697055584
      ],
      [
        "▁commit",
        -10.535468555272324
      ],
      [
        "▁ohhhh",
        -10.535534108512795
      ],
      [
        "▁compare",
        -10.535565665252484
      ],
      [
        "▁lecturer",
        -10.535631641577213
      ],
      [
        "▁apc",
        -10.535896838938548
      ],
      [
        "▁hotel",
        -10.536298860603509
      ],
      [
        "▁abo",
        -10.536343956201335
      ],
      [
        "▁mock",
        -10.5366894503167
      ],
      [
        "break",
        -10.537255017061186
      ],
      [
        "▁comb",
        -10.537293094907572
      ],
      [
        "▁governor",
        -10.537303880078845
      ],
      [
        "▁ment",
        -10.5377089231842
      ],
      [
        "▁torch",
        -10.53791789785354
      ],
      [
        "house",
        -10.539097787232581
      ],
      [
        "▁deceiv",
        -10.539470342234623
      ],
      [
        "▁career",
        -10.539557909364447
      ],
      [
        "soup",
        -10.540900353587338
      ],
      [
        "ts",
        -10.542323675072124
      ],
      [
        "▁shaw",
        -10.542463878573646
      ],
      [
        "▁matches",
        -10.543493485947957
      ],
      [
        "ove",
        -10.544707238908817
      ],
      [
        "$",
        -10.544929584548418
      ],
      [
        "▁blah",
        -10.54558424117962
      ],
      [
        "▁graduat",
        -10.54560039284873
      ],
      [
        "▁kid",
        -10.546016971572877
      ],
      [
        "▁dodge",
        -10.546032737222454
      ],
      [
        "▁fut",
        -10.546540632121049
      ],
      [
        "▁ye",
        -10.5465601315056
      ],
      [
        "cut",
        -10.547984708651347
      ],
      [
        "▁luc",
        -10.548498628373775
      ],
      [
        "▁mtcheew",
        -10.548598523969257
      ],
      [
        "good",
        -10.549948076562096
      ],
      [
        "▁appoint",
        -10.549995244024958
      ],
      [
        "▁wal",
        -10.550054554013679
      ],
      [
        "▁pap",
        -10.550126244222312
      ],
      [
        "▁spag",
        -10.550415974216714
      ],
      [
        "▁onion",
        -10.550783948055146
      ],
      [
        "model",
        -10.551209182914521
      ],
      [
        "▁comp",
        -10.551772878488892
      ],
      [
        "zz",
        -10.551953130189464
      ],
      [
        "▁south",
        -10.552582238093848
      ],
      [
        "airs",
        -10.553680824207818
      ],
      [
        "po",
        -10.554306739231738
      ],
      [
        "cer",
        -10.554850447320408
      ],
      [
        "op",
        -10.554962432511207
      ],
      [
        "▁bod",
        -10.555736870262741
      ],
      [
        "▁evict",
        -10.555841056345285
      ],
      [
        "▁saving",
        -10.556212320079561
      ],
      [
        "▁crash",
        -10.556636048322506
      ],
      [
        "▁personal",
        -10.557602593088658
      ],
      [
        "▁signing",
        -10.557960650263542
      ],
      [
        "▁mb",
        -10.55861739384361
      ],
      [
        "▁chas",
        -10.558628935609939
      ],
      [
        "▁usual",
        -10.558914273024502
      ],
      [
        "▁battle",
        -10.559486180482942
      ],
      [
        "wood",
        -10.559947404289515
      ],
      [
        "▁american",
        -10.560186320984744
      ],
      [
        "▁gym",
        -10.560477573955575
      ],
      [
        "bump",
        -10.560491348449423
      ],
      [
        "▁alter",
        -10.56110096446972
      ],
      [
        "mb",
        -10.561419263462767
      ],
      [
        "▁react",
        -10.563318470267443
      ],
      [
        "▁aje",
        -10.563341878889716
      ],
      [
        "▁bone",
        -10.564694058453593
      ],
      [
        "▁spo",
        -10.565245513480976
      ],
      [
        "▁tall",
        -10.567500695597694
      ],
      [
        "ebuk",
        -10.567575114062896
      ],
      [
        "▁iya",
        -10.567864043399851
      ],
      [
        "▁broken",
        -10.567994207386604
      ],
      [
        "tl",
        -10.568144585526841
      ],
      [
        "▁ride",
        -10.56840433430752
      ],
      [
        "▁witch",
        -10.569647859710644
      ],
      [
        "ection",
        -10.569657570201464
      ],
      [
        "rest",
        -10.570455315626054
      ],
      [
        "ns",
        -10.57118761959199
      ],
      [
        "q",
        -10.571326699026265
      ],
      [
        "show",
        -10.571901123454552
      ],
      [
        "inner",
        -10.571992268459766
      ],
      [
        "▁simi",
        -10.572151130889553
      ],
      [
        "oko",
        -10.57220357926873
      ],
      [
        "▁boost",
        -10.573061703879347
      ],
      [
        "▁joll",
        -10.57496966075853
      ],
      [
        "▁edit",
        -10.575208462860129
      ],
      [
        "apri",
        -10.576443307780757
      ],
      [
        "ifer",
        -10.57792422231794
      ],
      [
        "lace",
        -10.578013161283165
      ],
      [
        "▁private",
        -10.579135456251384
      ],
      [
        "▁brand",
        -10.58130581332419
      ],
      [
        "ach",
        -10.581746603326899
      ],
      [
        "native",
        -10.581792158552533
      ],
      [
        "ss",
        -10.5819730225951
      ],
      [
        "aba",
        -10.582284285171205
      ],
      [
        "▁tast",
        -10.582706807986625
      ],
      [
        "▁shar",
        -10.582816525490271
      ],
      [
        "▁abay",
        -10.582842783114591
      ],
      [
        "ya",
        -10.583855234523604
      ],
      [
        "▁expens",
        -10.584418709943556
      ],
      [
        "reach",
        -10.58456740136028
      ],
      [
        "unle",
        -10.585306885662245
      ],
      [
        "▁meaning",
        -10.585645492202872
      ],
      [
        "▁lots",
        -10.586003545222292
      ],
      [
        "▁loan",
        -10.586224539905496
      ],
      [
        "▁perfect",
        -10.586976974107131
      ],
      [
        "▁nne",
        -10.586979828599887
      ],
      [
        "mport",
        -10.588077723801472
      ],
      [
        "▁twi",
        -10.588589480950995
      ],
      [
        "▁prec",
        -10.588846778379514
      ],
      [
        "▁hmmm",
        -10.590388854320327
      ],
      [
        "▁maka",
        -10.592575281349394
      ],
      [
        "key",
        -10.592953268936778
      ],
      [
        "lling",
        -10.593176897435754
      ],
      [
        "cult",
        -10.593844469167042
      ],
      [
        "sacr",
        -10.595518668356323
      ],
      [
        "▁alon",
        -10.597294362045632
      ],
      [
        "▁micro",
        -10.597778969530198
      ],
      [
        "can",
        -10.598490814651559
      ],
      [
        "ifice",
        -10.598612759790852
      ],
      [
        "▁cam",
        -10.600421174397592
      ],
      [
        "▁nack",
        -10.600536802420324
      ],
      [
        "▁guide",
        -10.601128201436065
      ],
      [
        "▁lols",
        -10.60215962319146
      ],
      [
        "▁cras",
        -10.602545181187555
      ],
      [
        "wise",
        -10.603031000112132
      ],
      [
        "aff",
        -10.603375153420938
      ],
      [
        "lor",
        -10.604045270844681
      ],
      [
        "▁wel",
        -10.604113226158246
      ],
      [
        "▁ref",
        -10.604351632009948
      ],
      [
        "▁worldw",
        -10.604600671285745
      ],
      [
        "▁paper",
        -10.60494554025882
      ],
      [
        "fi",
        -10.605396896636199
      ],
      [
        "▁cakes",
        -10.605764642099238
      ],
      [
        "▁ol",
        -10.606674190207862
      ],
      [
        "▁poly",
        -10.607169639523491
      ],
      [
        "▁mike",
        -10.607873514478793
      ],
      [
        "▁remind",
        -10.608333824768522
      ],
      [
        "brow",
        -10.609974746184704
      ],
      [
        "ir",
        -10.612837488005969
      ],
      [
        "▁present",
        -10.613105316356474
      ],
      [
        "▁drama",
        -10.613183843702265
      ],
      [
        "▁tomo",
        -10.613614558783814
      ],
      [
        "▁fla",
        -10.613942506829225
      ],
      [
        "▁pos",
        -10.614354359325652
      ],
      [
        "stock",
        -10.615409572315926
      ],
      [
        "▁matters",
        -10.617534643103438
      ],
      [
        "▁ku",
        -10.617884874422757
      ],
      [
        "ade",
        -10.618653451027198
      ],
      [
        "▁spa",
        -10.6188780350016
      ],
      [
        "▁mark",
        -10.619442255342753
      ],
      [
        "▁bob",
        -10.619596590646447
      ],
      [
        "nor",
        -10.620545311521914
      ],
      [
        "nch",
        -10.621071917054902
      ],
      [
        "▁adv",
        -10.622086631820453
      ],
      [
        "▁suc",
        -10.622341745023341
      ],
      [
        "pin",
        -10.622370436016562
      ],
      [
        "▁wed",
        -10.622712087917442
      ],
      [
        "oooooo",
        -10.625324690123147
      ],
      [
        "les",
        -10.625922180989518
      ],
      [
        "▁warn",
        -10.626458938598127
      ],
      [
        "▁stat",
        -10.62699022920242
      ],
      [
        "ab",
        -10.629349112020158
      ],
      [
        "itch",
        -10.629844290172645
      ],
      [
        "▁kep",
        -10.630240046652641
      ],
      [
        "ube",
        -10.630453159875005
      ],
      [
        "▁rat",
        -10.630620644094275
      ],
      [
        "laba",
        -10.631241553891082
      ],
      [
        "any",
        -10.631582278751004
      ],
      [
        "more",
        -10.63194629127053
      ],
      [
        "mail",
        -10.632557570524794
      ],
      [
        "gic",
        -10.633589136688457
      ],
      [
        "▁pres",
        -10.635399914698066
      ],
      [
        "▁mba",
        -10.640330586382287
      ],
      [
        "▁fl",
        -10.640871205255872
      ],
      [
        "bout",
        -10.640954840963735
      ],
      [
        "rrect",
        -10.64099398536801
      ],
      [
        "halla",
        -10.645665172204739
      ],
      [
        "▁bola",
        -10.647444907079967
      ],
      [
        "▁hyp",
        -10.650282101795518
      ],
      [
        "▁qualif",
        -10.651467250238131
      ],
      [
        "▁scar",
        -10.6516214335326
      ],
      [
        "▁bre",
        -10.652044811096305
      ],
      [
        "▁bc",
        -10.65228204623677
      ],
      [
        "▁emer",
        -10.655533644002045
      ],
      [
        "▁cas",
        -10.655768993339416
      ],
      [
        "▁dull",
        -10.65655618925792
      ],
      [
        "past",
        -10.659486316172478
      ],
      [
        "▁tb",
        -10.661589336372293
      ],
      [
        "mer",
        -10.66164173300421
      ],
      [
        "case",
        -10.662450720108922
      ],
      [
        "▁hub",
        -10.664333150159447
      ],
      [
        "raw",
        -10.664909788621966
      ],
      [
        "host",
        -10.665261336189314
      ],
      [
        "▁nwan",
        -10.666378455862995
      ],
      [
        "▁colli",
        -10.669931651845017
      ],
      [
        "▁pus",
        -10.670484012331475
      ],
      [
        "rely",
        -10.671203358350056
      ],
      [
        "ons",
        -10.671243376360271
      ],
      [
        "▁equi",
        -10.673146978460215
      ],
      [
        "law",
        -10.675277229081825
      ],
      [
        "arge",
        -10.679247772441324
      ],
      [
        "▁fac",
        -10.679522956232175
      ],
      [
        "▁weyre",
        -10.680613709187075
      ],
      [
        "ahahahaha",
        -10.683962754691674
      ],
      [
        "oooooooooooo",
        -10.684187236683723
      ],
      [
        "▁affect",
        -10.685802839890679
      ],
      [
        "▁mov",
        -10.687010403913389
      ],
      [
        "▁repe",
        -10.690177197048667
      ],
      [
        "▁pla",
        -10.691911564870527
      ],
      [
        "swear",
        -10.693726768670956
      ],
      [
        "▁fem",
        -10.694799696370158
      ],
      [
        "ass",
        -10.696653899335313
      ],
      [
        "▁transfo",
        -10.696830129066043
      ],
      [
        "oga",
        -10.697043219162294
      ],
      [
        "kpa",
        -10.69824863080041
      ],
      [
        "▁injur",
        -10.69859182063052
      ],
      [
        "▁eve",
        -10.699263978058708
      ],
      [
        "tabl",
        -10.700085353455924
      ],
      [
        "▁line",
        -10.703695296704757
      ],
      [
        "ash",
        -10.70450087158414
      ],
      [
        "nation",
        -10.705149864515388
      ],
      [
        "▁oooh",
        -10.70558456812211
      ],
      [
        "iron",
        -10.706299109605045
      ],
      [
        "▁squa",
        -10.709460284385077
      ],
      [
        "▁ass",
        -10.709911907680448
      ],
      [
        "▁propos",
        -10.710002495731857
      ],
      [
        "add",
        -10.710214499831025
      ],
      [
        "▁frie",
        -10.710476554175107
      ],
      [
        "ger",
        -10.710595390783975
      ],
      [
        "follow",
        -10.712009397317594
      ],
      [
        "rant",
        -10.712296384871225
      ],
      [
        "▁oyi",
        -10.712680320922946
      ],
      [
        "morning",
        -10.713376224108679
      ],
      [
        "▁doors",
        -10.714724087542075
      ],
      [
        "▁spar",
        -10.716519577260867
      ],
      [
        "ola",
        -10.717908072509827
      ],
      [
        "pose",
        -10.718172744025939
      ],
      [
        "▁event",
        -10.720750617208243
      ],
      [
        "lami",
        -10.721554418254016
      ],
      [
        "▁te",
        -10.722676655201273
      ],
      [
        "▁mour",
        -10.722769683836134
      ],
      [
        "▁oooooo",
        -10.723180397323528
      ],
      [
        "▁locate",
        -10.723549659000621
      ],
      [
        "▁inf",
        -10.72651225020054
      ],
      [
        "▁obi",
        -10.726713702697989
      ],
      [
        "air",
        -10.727201825135902
      ],
      [
        "▁verifi",
        -10.727548012227482
      ],
      [
        "akwa",
        -10.730277483663292
      ],
      [
        "ex",
        -10.73045833400602
      ],
      [
        "▁moni",
        -10.730472277573343
      ],
      [
        "pass",
        -10.730873841948133
      ],
      [
        "sa",
        -10.731275851596974
      ],
      [
        "nut",
        -10.732481216452006
      ],
      [
        "▁comman",
        -10.733457054047772
      ],
      [
        "zan",
        -10.734287350332833
      ],
      [
        "ala",
        -10.737595108092895
      ],
      [
        "ji",
        -10.737712213117215
      ],
      [
        "▁jer",
        -10.739850003699994
      ],
      [
        "▁refu",
        -10.740657719105666
      ],
      [
        "ize",
        -10.741437942576827
      ],
      [
        "️️️️",
        -10.743164662273754
      ],
      [
        "▁sincere",
        -10.747254342867414
      ],
      [
        "ec",
        -10.747441256279327
      ],
      [
        "inger",
        -10.747990155754476
      ],
      [
        "▁ev",
        -10.75012637179107
      ],
      [
        "▁ogben",
        -10.75035332209206
      ],
      [
        "▁capt",
        -10.752619164867745
      ],
      [
        "che",
        -10.755449978802826
      ],
      [
        "▁jin",
        -10.756444683697062
      ],
      [
        "rts",
        -10.758748304138756
      ],
      [
        "▁ric",
        -10.759223656375955
      ],
      [
        "▁laz",
        -10.760057998818622
      ],
      [
        "▁aja",
        -10.760175863725626
      ],
      [
        "mum",
        -10.76137573773712
      ],
      [
        "▁hehe",
        -10.76185972638095
      ],
      [
        "▁yo",
        -10.76346592218753
      ],
      [
        "▁vo",
        -10.765792081205438
      ],
      [
        "▁bran",
        -10.765800854832142
      ],
      [
        "chop",
        -10.766428916881674
      ],
      [
        "dear",
        -10.769945108945556
      ],
      [
        "real",
        -10.770480591585699
      ],
      [
        "anjo",
        -10.771946168635548
      ],
      [
        "ster",
        -10.77259345017483
      ],
      [
        "▁activ",
        -10.774365806876128
      ],
      [
        "talk",
        -10.775108614525003
      ],
      [
        "▁tea",
        -10.775802027018056
      ],
      [
        "▁entr",
        -10.775810111267557
      ],
      [
        "▁nation",
        -10.777526892035553
      ],
      [
        "▁champ",
        -10.778775290391042
      ],
      [
        "crac",
        -10.779266207548522
      ],
      [
        "▁withdraw",
        -10.780463302870828
      ],
      [
        "▁fav",
        -10.781063735497753
      ],
      [
        "£",
        -10.781859565709272
      ],
      [
        "ụ",
        -10.78185956574923
      ],
      [
        "í",
        -10.781859565749231
      ],
      [
        "à",
        -10.781859565749231
      ],
      [
        "▁patapata",
        -10.78185959670892
      ],
      [
        "▁vehicle",
        -10.781859648414258
      ],
      [
        "chocolate",
        -10.78185981588951
      ],
      [
        "▁biscuit",
        -10.781859888252447
      ],
      [
        "▁ẹ",
        -10.78185996432415
      ],
      [
        "▁tutorial",
        -10.781860047212529
      ],
      [
        "▁prescribe",
        -10.781860138261674
      ],
      [
        "▁recogni",
        -10.781860537208097
      ],
      [
        "▁associat",
        -10.781861977623215
      ],
      [
        "▁geograph",
        -10.781865963826359
      ],
      [
        "▁olohun",
        -10.781866955778522
      ],
      [
        "▁wallpaper",
        -10.781874312909727
      ],
      [
        "▁patronage",
        -10.781876086057355
      ],
      [
        "▁university",
        -10.78188619762129
      ],
      [
        "▁misbehav",
        -10.781893683996675
      ],
      [
        "▁conduct",
        -10.78189583771125
      ],
      [
        "▁dictat",
        -10.781897224616745
      ],
      [
        "▁warehouse",
        -10.781897303293947
      ],
      [
        "▁canvas",
        -10.78191422597235
      ],
      [
        "▁darling",
        -10.781920214559284
      ],
      [
        "▁victim",
        -10.781924801201164
      ],
      [
        "▁constant",
        -10.781935518739985
      ],
      [
        "▁industr",
        -10.781942998044247
      ],
      [
        "▁gutter",
        -10.781946191028156
      ],
      [
        "▁gesture",
        -10.78195673175783
      ],
      [
        "▁troph",
        -10.781979516886887
      ],
      [
        "▁terrorist",
        -10.781988054066437
      ],
      [
        "▁rihan",
        -10.781999325286375
      ],
      [
        "▁consider",
        -10.782005501194433
      ],
      [
        "▁reflect",
        -10.7820169838743
      ],
      [
        "▁senior",
        -10.782022532593974
      ],
      [
        "▁effect",
        -10.782176676501475
      ],
      [
        "▁corner",
        -10.782201963313966
      ],
      [
        "▁advertise",
        -10.782213123355369
      ],
      [
        "▁snail",
        -10.782429213728788
      ],
      [
        "▁switch",
        -10.78268705049533
      ],
      [
        "▁prefer",
        -10.782693109920487
      ],
      [
        "▁prepare",
        -10.782779706220996
      ],
      [
        "▁lasisi",
        -10.78279225083013
      ],
      [
        "▁niger",
        -10.782892426726452
      ],
      [
        "▁regular",
        -10.782905206784164
      ],
      [
        "▁momsi",
        -10.782950236617571
      ],
      [
        "ul",
        -10.783075923712499
      ],
      [
        "▁stink",
        -10.783129843774802
      ],
      [
        "▁slang",
        -10.783339145583643
      ],
      [
        "▁scammer",
        -10.783348383011052
      ],
      [
        "▁contain",
        -10.783487264924144
      ],
      [
        "▁speed",
        -10.783664109236078
      ],
      [
        "▁retire",
        -10.783700170209524
      ],
      [
        "▁dark",
        -10.783725606833888
      ],
      [
        "▁allawe",
        -10.783908124823363
      ],
      [
        "▁ahm",
        -10.784141626315966
      ],
      [
        "▁matric",
        -10.784151429511395
      ],
      [
        "▁afterward",
        -10.784152533386322
      ],
      [
        "▁emotion",
        -10.784167510332967
      ],
      [
        "▁abortion",
        -10.784233603363026
      ],
      [
        "▁disease",
        -10.784506551003972
      ],
      [
        "▁bribe",
        -10.784611103631502
      ],
      [
        "▁easter",
        -10.784686969006481
      ],
      [
        "▁glasses",
        -10.78481216948068
      ],
      [
        "▁impossible",
        -10.784924721227688
      ],
      [
        "▁lagosian",
        -10.78509222466656
      ],
      [
        "▁option",
        -10.785650194293293
      ],
      [
        "ational",
        -10.785825518366876
      ],
      [
        "▁akwu",
        -10.785874538053402
      ],
      [
        "▁hack",
        -10.785976065358225
      ],
      [
        "▁crack",
        -10.786337435621391
      ],
      [
        "▁therap",
        -10.78640042368753
      ],
      [
        "hhhhhh",
        -10.786853151406445
      ],
      [
        "▁craw",
        -10.786871989868054
      ],
      [
        "▁bird",
        -10.787050835467351
      ],
      [
        "▁curtai",
        -10.787171492442777
      ],
      [
        "▁wai",
        -10.787207031786075
      ],
      [
        "▁skul",
        -10.78721441105595
      ],
      [
        "▁horr",
        -10.787239214528013
      ],
      [
        "▁motivation",
        -10.7873998689514
      ],
      [
        "visa",
        -10.787864443210587
      ],
      [
        "▁flash",
        -10.788239452075892
      ],
      [
        "▁topic",
        -10.788689971690332
      ],
      [
        "llah",
        -10.78874242543615
      ],
      [
        "▁exten",
        -10.789074448027048
      ],
      [
        "▁virtu",
        -10.789323193395585
      ],
      [
        "▁upload",
        -10.789397678092357
      ],
      [
        "▁princes",
        -10.78969808323384
      ],
      [
        "▁advan",
        -10.79062060328038
      ],
      [
        "▁asap",
        -10.790756206909217
      ],
      [
        "tttt",
        -10.79095969352093
      ],
      [
        "▁disgust",
        -10.791079691551296
      ],
      [
        "charge",
        -10.791388707784321
      ],
      [
        "▁akon",
        -10.79143404238571
      ],
      [
        "ac",
        -10.791684708551617
      ],
      [
        "▁height",
        -10.791819157153782
      ],
      [
        "nglet",
        -10.792677077827827
      ],
      [
        "▁pedr",
        -10.792798336189298
      ],
      [
        "phant",
        -10.792917821382666
      ],
      [
        "▁slim",
        -10.793675573792928
      ],
      [
        "▁fle",
        -10.794320858180992
      ],
      [
        "▁lia",
        -10.794419713179533
      ],
      [
        "▁weldon",
        -10.794542482792796
      ],
      [
        "▁promo",
        -10.79467708363019
      ],
      [
        "tunne",
        -10.79476716408787
      ],
      [
        "▁india",
        -10.79589118528255
      ],
      [
        "▁rude",
        -10.795898080611192
      ],
      [
        "▁oohh",
        -10.796002080054654
      ],
      [
        "teddy",
        -10.796280581362511
      ],
      [
        "kiri",
        -10.797359165330345
      ],
      [
        "▁root",
        -10.79853067629006
      ],
      [
        "▁mich",
        -10.798635686269666
      ],
      [
        "▁depart",
        -10.79907138617606
      ],
      [
        "fest",
        -10.799129075395857
      ],
      [
        "▁depend",
        -10.799362292397406
      ],
      [
        "▁recording",
        -10.799418246445098
      ],
      [
        "last",
        -10.799747312714882
      ],
      [
        "▁audio",
        -10.800015717169424
      ],
      [
        "▁hara",
        -10.800037856733047
      ],
      [
        "▁inform",
        -10.800527292789852
      ],
      [
        "▁sega",
        -10.801111771549204
      ],
      [
        "ber",
        -10.801484819647394
      ],
      [
        "▁san",
        -10.801838641929383
      ],
      [
        "▁replie",
        -10.8026614084483
      ],
      [
        "▁walking",
        -10.805142216418417
      ],
      [
        "▁blast",
        -10.80522092663895
      ],
      [
        "▁prote",
        -10.805486608971444
      ],
      [
        "lá",
        -10.805515622429512
      ],
      [
        "▁sever",
        -10.806153112919173
      ],
      [
        "lé",
        -10.80687031993784
      ],
      [
        "▁inspire",
        -10.807354920762263
      ],
      [
        "▁christi",
        -10.808011037823887
      ],
      [
        "▁olu",
        -10.808451876936742
      ],
      [
        "▁kidd",
        -10.809011509502433
      ],
      [
        "▁lamp",
        -10.809022393297216
      ],
      [
        "▁dedicat",
        -10.809532268447992
      ],
      [
        "▁opposit",
        -10.809776092214637
      ],
      [
        "ogbo",
        -10.810373977831773
      ],
      [
        "▁lover",
        -10.811094030457602
      ],
      [
        "kan",
        -10.81160559951861
      ],
      [
        "rious",
        -10.811645188556996
      ],
      [
        "▁ehnnn",
        -10.811783378516665
      ],
      [
        "▁ahan",
        -10.812127307758972
      ],
      [
        "haj",
        -10.812314227888137
      ],
      [
        "bra",
        -10.812319176755437
      ],
      [
        "▁users",
        -10.812982532635736
      ],
      [
        "did",
        -10.813135752242953
      ],
      [
        "▁luk",
        -10.813182171979802
      ],
      [
        "min",
        -10.813457476369202
      ],
      [
        "ely",
        -10.813588451861316
      ],
      [
        "▁refuse",
        -10.814327547125133
      ],
      [
        "▁aka",
        -10.814584601835637
      ],
      [
        "▁lick",
        -10.81461051382035
      ],
      [
        "lay",
        -10.814648009657237
      ],
      [
        "▁va",
        -10.814687209998842
      ],
      [
        "▁ano",
        -10.815123461049884
      ],
      [
        "▁chivi",
        -10.815258527815656
      ],
      [
        "rypto",
        -10.815427410253847
      ],
      [
        "▁sanit",
        -10.816087445346355
      ],
      [
        "ferr",
        -10.816269328972055
      ],
      [
        "▁arriv",
        -10.81693320646775
      ],
      [
        "▁corp",
        -10.817016077618298
      ],
      [
        "uk",
        -10.817109474309701
      ],
      [
        "iest",
        -10.817109746109443
      ],
      [
        "▁hu",
        -10.818145798769123
      ],
      [
        "fresh",
        -10.81843592996705
      ],
      [
        "▁stil",
        -10.818784097815048
      ],
      [
        "▁butt",
        -10.819039896690192
      ],
      [
        "sign",
        -10.819118065020172
      ],
      [
        "▁defens",
        -10.819493591163496
      ],
      [
        "▁generati",
        -10.819941689079384
      ],
      [
        "jeb",
        -10.820356185781163
      ],
      [
        "▁swa",
        -10.820611837428832
      ],
      [
        "cle",
        -10.821794996571745
      ],
      [
        "smh",
        -10.822022405298645
      ],
      [
        "▁danu",
        -10.822198052745382
      ],
      [
        "▁van",
        -10.822241630149518
      ],
      [
        "▁sidd",
        -10.822474496453449
      ],
      [
        "▁centr",
        -10.82267335046238
      ],
      [
        "▁oshi",
        -10.82286909895068
      ],
      [
        "ari",
        -10.8237662076357
      ],
      [
        "▁gbag",
        -10.824613892096966
      ],
      [
        "▁sala",
        -10.825351998291438
      ],
      [
        "mate",
        -10.825542142846958
      ],
      [
        "▁helper",
        -10.827618195134992
      ],
      [
        "▁esp",
        -10.827699450259418
      ],
      [
        "▁moti",
        -10.828869523874056
      ],
      [
        "▁chew",
        -10.830409890753353
      ],
      [
        "▁swell",
        -10.83129933996433
      ],
      [
        "▁maj",
        -10.831894568679319
      ],
      [
        "▁engl",
        -10.833004775729226
      ],
      [
        "▁ele",
        -10.833092840654231
      ],
      [
        "▁speaker",
        -10.833096567974298
      ],
      [
        "ying",
        -10.833587711132772
      ],
      [
        "leyi",
        -10.833859196494434
      ],
      [
        "▁names",
        -10.834148384097684
      ],
      [
        "shi",
        -10.8347932246886
      ],
      [
        "▁cal",
        -10.835987378402091
      ],
      [
        "▁stick",
        -10.837006878173387
      ],
      [
        "▁delay",
        -10.837624643169812
      ],
      [
        "▁spra",
        -10.838487268724371
      ],
      [
        "ct",
        -10.839185559087785
      ],
      [
        "▁ij",
        -10.839396083453568
      ],
      [
        "▁blesse",
        -10.839784123356216
      ],
      [
        "natur",
        -10.839831479565287
      ],
      [
        "uzz",
        -10.840834819706703
      ],
      [
        "▁zero",
        -10.841228644201395
      ],
      [
        "▁rapper",
        -10.841640923065908
      ],
      [
        "ign",
        -10.841712798613818
      ],
      [
        "▁insha",
        -10.844953229616797
      ],
      [
        "▁troll",
        -10.845054606455566
      ],
      [
        "▁debt",
        -10.846299507614283
      ],
      [
        "▁zenith",
        -10.846599121950025
      ],
      [
        "▁malt",
        -10.847101486303128
      ],
      [
        "far",
        -10.847623314831619
      ],
      [
        "▁dy",
        -10.847709556903625
      ],
      [
        "▁dos",
        -10.848967871161973
      ],
      [
        "▁lift",
        -10.851176717081126
      ],
      [
        "gal",
        -10.852121921597112
      ],
      [
        "▁kam",
        -10.852292736110769
      ],
      [
        "▁aba",
        -10.853061086910108
      ],
      [
        "kill",
        -10.855847553590273
      ],
      [
        "▁sur",
        -10.856231801289157
      ],
      [
        "buy",
        -10.856576960966564
      ],
      [
        "olu",
        -10.857044719827359
      ],
      [
        "▁lite",
        -10.857341867481106
      ],
      [
        "ays",
        -10.85855970026054
      ],
      [
        "▁mat",
        -10.858675798905283
      ],
      [
        "orin",
        -10.858719199992077
      ],
      [
        "▁guyyy",
        -10.858781119989423
      ],
      [
        "▁pops",
        -10.859350783828654
      ],
      [
        "▁propose",
        -10.859434341225015
      ],
      [
        "▁kum",
        -10.85991250411927
      ],
      [
        "▁hall",
        -10.860614950804086
      ],
      [
        "▁plant",
        -10.861166681734979
      ],
      [
        "cott",
        -10.86371507793913
      ],
      [
        "▁cent",
        -10.863741300746279
      ],
      [
        "ste",
        -10.86379397159329
      ],
      [
        "wu",
        -10.865987359455616
      ],
      [
        "sleep",
        -10.866034867718115
      ],
      [
        "purs",
        -10.866305208626793
      ],
      [
        "cell",
        -10.86662046323604
      ],
      [
        "aje",
        -10.86663470319833
      ],
      [
        "▁ava",
        -10.866656448139974
      ],
      [
        "lot",
        -10.86697416034137
      ],
      [
        "▁ooooooo",
        -10.86834369106872
      ],
      [
        "aught",
        -10.870194613919463
      ],
      [
        "road",
        -10.87047448405454
      ],
      [
        "▁foc",
        -10.870831805513287
      ],
      [
        "▁dan",
        -10.871739872082347
      ],
      [
        "aaaa",
        -10.87190683869093
      ],
      [
        "▁offer",
        -10.872367678307347
      ],
      [
        "create",
        -10.874713232147991
      ],
      [
        "▁ego",
        -10.874979003620172
      ],
      [
        "▁gri",
        -10.87507205069717
      ],
      [
        "azzi",
        -10.875326398382008
      ],
      [
        "trust",
        -10.875331791528424
      ],
      [
        "papa",
        -10.875630498607116
      ],
      [
        "▁dri",
        -10.879239838456433
      ],
      [
        "flie",
        -10.879819695591447
      ],
      [
        "▁iran",
        -10.881140349245019
      ],
      [
        "maka",
        -10.882606960310358
      ],
      [
        "▁wild",
        -10.88266368937292
      ],
      [
        "ower",
        -10.883693203839783
      ],
      [
        "▁kim",
        -10.883817889195102
      ],
      [
        "fok",
        -10.884548077803235
      ],
      [
        "▁iwo",
        -10.88479812318851
      ],
      [
        "ench",
        -10.885351457195789
      ],
      [
        "▁gentle",
        -10.88624310191656
      ],
      [
        "hur",
        -10.886495695326225
      ],
      [
        "igbo",
        -10.8873314277617
      ],
      [
        "▁bal",
        -10.887332524944465
      ],
      [
        "locate",
        -10.887347262061837
      ],
      [
        "su",
        -10.888247983693452
      ],
      [
        "▁grade",
        -10.889152234668815
      ],
      [
        "rose",
        -10.89036155515451
      ],
      [
        "▁twin",
        -10.890499723424165
      ],
      [
        "▁umu",
        -10.890735604807112
      ],
      [
        "oxy",
        -10.892375140203123
      ],
      [
        "zon",
        -10.892454130384554
      ],
      [
        "were",
        -10.892521853469024
      ],
      [
        "▁injure",
        -10.892661239663004
      ],
      [
        "▁carr",
        -10.892854948295637
      ],
      [
        "▁hater",
        -10.893712721763778
      ],
      [
        "jack",
        -10.895150485567209
      ],
      [
        "▁ube",
        -10.895532710299365
      ],
      [
        "ffee",
        -10.897077404610524
      ],
      [
        "hand",
        -10.897382898735971
      ],
      [
        "hol",
        -10.897577594581325
      ],
      [
        "▁male",
        -10.900026295316945
      ],
      [
        "alcon",
        -10.900112682459033
      ],
      [
        "▁testi",
        -10.902363303824062
      ],
      [
        "▁official",
        -10.903208459894408
      ],
      [
        "▁bam",
        -10.903551249573608
      ],
      [
        "▁rack",
        -10.905279022895197
      ],
      [
        "▁aside",
        -10.905365871553347
      ],
      [
        "▁tap",
        -10.906775951704095
      ],
      [
        "job",
        -10.906786430111996
      ],
      [
        "▁pha",
        -10.907319291551282
      ],
      [
        "▁sim",
        -10.908254771019083
      ],
      [
        "konj",
        -10.908871141410906
      ],
      [
        "▁demand",
        -10.910133294499193
      ],
      [
        "▁laid",
        -10.912741438593104
      ],
      [
        "▁keh",
        -10.913030590844588
      ],
      [
        "▁slee",
        -10.91491345850443
      ],
      [
        "▁kar",
        -10.915713922191271
      ],
      [
        "▁absolute",
        -10.915891425310296
      ],
      [
        "▁scra",
        -10.916526108089158
      ],
      [
        "oursel",
        -10.91730698205406
      ],
      [
        "▁agree",
        -10.918022165412935
      ],
      [
        "mbass",
        -10.919129462360479
      ],
      [
        "▁anam",
        -10.91951345663846
      ],
      [
        "▁gba",
        -10.919572967924683
      ],
      [
        "laugh",
        -10.919997453751192
      ],
      [
        "ca",
        -10.920253375472015
      ],
      [
        "▁swee",
        -10.921014523402233
      ],
      [
        "▁cure",
        -10.923218274568784
      ],
      [
        "ction",
        -10.925697621549439
      ],
      [
        "ador",
        -10.92606891035693
      ],
      [
        "▁strt",
        -10.926209987661291
      ],
      [
        "▁gov",
        -10.927757691923057
      ],
      [
        "▁hahahaha",
        -10.93111792713575
      ],
      [
        "lori",
        -10.93168807541671
      ],
      [
        "icate",
        -10.932478181854446
      ],
      [
        "▁forgive",
        -10.93380233264832
      ],
      [
        "bid",
        -10.934457179282317
      ],
      [
        "ndeed",
        -10.935892884380864
      ],
      [
        "then",
        -10.936453593235097
      ],
      [
        "omina",
        -10.938091390393915
      ],
      [
        "per",
        -10.938351850351117
      ],
      [
        "▁hum",
        -10.938824550507208
      ],
      [
        "ywhere",
        -10.939905137383919
      ],
      [
        "ecess",
        -10.940670839684246
      ],
      [
        "ives",
        -10.943582611523272
      ],
      [
        "▁piss",
        -10.944045492836882
      ],
      [
        "▁pit",
        -10.944118833678882
      ],
      [
        "▁loc",
        -10.944564125909892
      ],
      [
        "ou",
        -10.945207937855653
      ],
      [
        "▁spen",
        -10.945391689563255
      ],
      [
        "chel",
        -10.94592353503251
      ],
      [
        "etti",
        -10.946709798615935
      ],
      [
        "ls",
        -10.947917613560078
      ],
      [
        "fir",
        -10.948567149788513
      ],
      [
        "epa",
        -10.948574959926122
      ],
      [
        "tach",
        -10.94876708706186
      ],
      [
        "▁forgot",
        -10.94909898186962
      ],
      [
        "▁choo",
        -10.949167534002967
      ],
      [
        "happy",
        -10.951966007512567
      ],
      [
        "▁osin",
        -10.952656647932946
      ],
      [
        "tche",
        -10.954619601191704
      ],
      [
        "since",
        -10.955609619972694
      ],
      [
        "rship",
        -10.95597347940541
      ],
      [
        "ie",
        -10.95624504022676
      ],
      [
        "▁kisse",
        -10.956671813645897
      ],
      [
        "boys",
        -10.956778959296097
      ],
      [
        "▁warm",
        -10.957248816460883
      ],
      [
        "▁lowo",
        -10.957900382222507
      ],
      [
        "risk",
        -10.958070495177331
      ],
      [
        "guys",
        -10.958656369535646
      ],
      [
        "▁suit",
        -10.959370015206257
      ],
      [
        "ball",
        -10.960084093108927
      ],
      [
        "▁convi",
        -10.960561318994648
      ],
      [
        "▁blan",
        -10.961077143841624
      ],
      [
        "inten",
        -10.96621339270537
      ],
      [
        "quenc",
        -10.967909022869705
      ],
      [
        "▁secure",
        -10.968723361608536
      ],
      [
        "▁bitc",
        -10.971225670300582
      ],
      [
        "▁izz",
        -10.972621548584055
      ],
      [
        "nder",
        -10.973837397680377
      ],
      [
        "▁bri",
        -10.974776020010165
      ],
      [
        "fact",
        -10.975599325660458
      ],
      [
        "▁yours",
        -10.976393227881598
      ],
      [
        "from",
        -10.977491208806873
      ],
      [
        "und",
        -10.977694030441198
      ],
      [
        "▁legal",
        -10.978766200033599
      ],
      [
        "mbia",
        -10.981006246447249
      ],
      [
        "mo",
        -10.981163297945244
      ],
      [
        "rugb",
        -10.982600587278643
      ],
      [
        "▁sale",
        -10.984253073831162
      ],
      [
        "▁ojo",
        -10.985252693855806
      ],
      [
        "bia",
        -10.985392217384216
      ],
      [
        "will",
        -10.986496716018573
      ],
      [
        "ire",
        -10.986522001898631
      ],
      [
        "▁shii",
        -10.988463651957982
      ],
      [
        "pikin",
        -10.988889171572316
      ],
      [
        "ept",
        -10.990689321528718
      ],
      [
        "▁olor",
        -10.990983804502278
      ],
      [
        "sheet",
        -10.99115752528888
      ],
      [
        "▁compa",
        -10.991701968154832
      ],
      [
        "gain",
        -10.991760630896692
      ],
      [
        "▁drip",
        -10.991918096109636
      ],
      [
        "hot",
        -10.99360754844041
      ],
      [
        "kin",
        -10.995017294399744
      ],
      [
        "cons",
        -10.995098916103371
      ],
      [
        "▁floggin",
        -10.995228060292249
      ],
      [
        "▁kille",
        -10.995423978701862
      ],
      [
        "ncy",
        -10.996187521190132
      ],
      [
        "neces",
        -10.996746650560858
      ],
      [
        "▁bas",
        -10.996785733446567
      ],
      [
        "▁ow",
        -10.999127903648828
      ],
      [
        "▁env",
        -10.99975209588234
      ],
      [
        "place",
        -10.999770393290454
      ],
      [
        "ap",
        -11.00085744919876
      ],
      [
        "urs",
        -11.003318682606714
      ],
      [
        "size",
        -11.003484261001244
      ],
      [
        "▁machi",
        -11.00464861382354
      ],
      [
        "▁hant",
        -11.004936735433235
      ],
      [
        "▁finishe",
        -11.005328489044846
      ],
      [
        "kada",
        -11.005663220416007
      ],
      [
        "▁idea",
        -11.005908628695755
      ],
      [
        "fu",
        -11.006124191676381
      ],
      [
        "file",
        -11.007223635687465
      ],
      [
        "ull",
        -11.00765595855754
      ],
      [
        "▁memor",
        -11.00803109727544
      ],
      [
        "lu",
        -11.008069731580566
      ],
      [
        "▁tax",
        -11.008318614811273
      ],
      [
        "▁naw",
        -11.008520163152456
      ],
      [
        "sweet",
        -11.009309078143673
      ],
      [
        "▁kil",
        -11.009924556879623
      ],
      [
        "round",
        -11.011031883597362
      ],
      [
        "band",
        -11.011752364354834
      ],
      [
        "▁dalo",
        -11.013764653169064
      ],
      [
        "iq",
        -11.014251771909445
      ],
      [
        "ote",
        -11.01635746000999
      ],
      [
        "fire",
        -11.01659357004748
      ],
      [
        "▁sheet",
        -11.016798501322814
      ],
      [
        "gger",
        -11.01691434120038
      ],
      [
        "tu",
        -11.017297559509734
      ],
      [
        "gbe",
        -11.017600626440814
      ],
      [
        "low",
        -11.019337041898503
      ],
      [
        "▁heads",
        -11.019748504896512
      ],
      [
        "market",
        -11.01989354973473
      ],
      [
        "▁gott",
        -11.020897415945292
      ],
      [
        "▁oooooi",
        -11.020903851075103
      ],
      [
        "lov",
        -11.021298226593352
      ],
      [
        "pound",
        -11.021598220201358
      ],
      [
        "▁seem",
        -11.023555476085162
      ],
      [
        "▁code",
        -11.023849469476602
      ],
      [
        "▁tem",
        -11.024899275145835
      ],
      [
        "▁cro",
        -11.025080604382218
      ],
      [
        "suk",
        -11.025171954976477
      ],
      [
        "easant",
        -11.025930624843982
      ],
      [
        "elep",
        -11.027379590181223
      ],
      [
        "▁chaii",
        -11.031309056852429
      ],
      [
        "ten",
        -11.031991976046644
      ],
      [
        "ode",
        -11.033954849866554
      ],
      [
        "afford",
        -11.035168093956269
      ],
      [
        "put",
        -11.035208482313363
      ],
      [
        "▁por",
        -11.035312561457934
      ],
      [
        "▁absolut",
        -11.035660203722628
      ],
      [
        "▁princ",
        -11.039237430496954
      ],
      [
        "een",
        -11.03985435840481
      ],
      [
        "bby",
        -11.041049898721951
      ],
      [
        "▁kp",
        -11.044520975748082
      ],
      [
        "▁creat",
        -11.044797837665328
      ],
      [
        "hop",
        -11.044904722487868
      ],
      [
        "ades",
        -11.04516855759601
      ],
      [
        "▁manu",
        -11.046268361504117
      ],
      [
        "▁boil",
        -11.046309201792432
      ],
      [
        "▁ji",
        -11.046910897392186
      ],
      [
        "▁airt",
        -11.048148179398858
      ],
      [
        "mber",
        -11.048279040820548
      ],
      [
        "▁oooooooo",
        -11.051162107896516
      ],
      [
        "kpo",
        -11.052142963671708
      ],
      [
        "▁ahn",
        -11.053815746672104
      ],
      [
        "after",
        -11.05390024757168
      ],
      [
        "fuck",
        -11.054324696762981
      ],
      [
        "▁apologi",
        -11.059117118307565
      ],
      [
        "ips",
        -11.059243603119551
      ],
      [
        "eeze",
        -11.059557223842072
      ],
      [
        "▁acce",
        -11.06137365774651
      ],
      [
        "▁y",
        -11.0617939515936
      ],
      [
        "▁bat",
        -11.062383214450676
      ],
      [
        "think",
        -11.063205110603077
      ],
      [
        "pita",
        -11.063236601849216
      ],
      [
        "▁ruf",
        -11.06453325923673
      ],
      [
        "▁hr",
        -11.065869538434287
      ],
      [
        "▁vee",
        -11.06666649353324
      ],
      [
        "nigerian",
        -11.066811958883136
      ],
      [
        "▁twit",
        -11.067424639881358
      ],
      [
        "▁looooooo",
        -11.067815533101546
      ],
      [
        "▁followe",
        -11.067911305200624
      ],
      [
        "▁willia",
        -11.068632364330163
      ],
      [
        "▁getti",
        -11.06913111128625
      ],
      [
        "je",
        -11.069571955994125
      ],
      [
        "fall",
        -11.070320174767216
      ],
      [
        "▁battl",
        -11.071486805873292
      ],
      [
        "agree",
        -11.07183205797537
      ],
      [
        "rival",
        -11.071852634286797
      ],
      [
        "▁nai",
        -11.072590709318314
      ],
      [
        "▁basi",
        -11.074723854288155
      ],
      [
        "ntain",
        -11.07560831948175
      ],
      [
        "▁som",
        -11.07654914146044
      ],
      [
        "customer",
        -11.077008571020531
      ],
      [
        "ambia",
        -11.078457894482003
      ],
      [
        "▁omoh",
        -11.08176997438204
      ],
      [
        "gation",
        -11.085213270834622
      ],
      [
        "emper",
        -11.085446679892726
      ],
      [
        "affle",
        -11.085504535703977
      ],
      [
        "onit",
        -11.087310680597138
      ],
      [
        "yen",
        -11.089930428249403
      ],
      [
        "▁nk",
        -11.092331788550455
      ],
      [
        "▁river",
        -11.092523963760234
      ],
      [
        "▁hotte",
        -11.093071397548483
      ],
      [
        "▁nurs",
        -11.094276938841766
      ],
      [
        "▁perce",
        -11.098868007630884
      ],
      [
        "▁admi",
        -11.098945542852203
      ],
      [
[...]
