{
  "version": "1.0",
  "truncation": null,
  "padding": null,
  "added_tokens": [
    {
      "id": 0,
      "content": "<pad>",
      "single_word": false,
      "lstrip": false,
      "rstrip": false,
      "normalized": false,
      "special": true
    },
    {
      "id": 1,
      "content": "<unk>",
      "single_word": false,
      "lstrip": false,
      "rstrip": false,
      "normalized": false,
      "special": true
    },
    {
      "id": 2,
      "content": "<cls>",
      "single_word": false,
      "lstrip": false,
      "rstrip": false,
      "normalized": false,
      "special": true
    }
  ],
  "normalizer": {
    "type": "Sequence",
    "normalizers": [
      {
        "type": "Nmt"
      },
      {
        "type": "NFKC"
      },
      {
        "type": "Replace",
        "pattern": {
          "Regex": " {2,}"
        },
        "content": " "
      }
    ]
  },
  "pre_tokenizer": {
    "type": "Metaspace",
    "replacement": "▁",
    "prepend_scheme": "always",
    "split": true
  },
  "post_processor": {
    "type": "TemplateProcessing",
    "single": [
      {
        "SpecialToken": {
          "id": "<cls>",
          "type_id": 0
        }
      },
      {
        "Sequence": {
          "id": "A",
          "type_id": 0
        }
      }
    ],
    "pair": [
      {
        "Sequence": {
          "id": "A",
          "type_id": 0
        }
      },
      {
        "Sequence": {
          "id": "B",
          "type_id": 1
        }
      }
    ],
    "special_tokens": {
      "<cls>": {
        "id": "<cls>",
        "ids": [
          2
        ],
        "tokens": [
          "<cls>"
        ]
      }
    }
  },
  "decoder": {
    "type": "Metaspace",
    "replacement": "▁",
    "prepend_scheme": "always",
    "split": true
  },
  "model": {
    "type": "Unigram",
    "unk_id": 1,
    "vocab": [
      [
        "<pad>",
        0.0
      ],
      [
        "<unk>",
        0.0
      ],
      [
        "<cls>",
        0.0
      ],
      [
        "a",
        -2.9372971364923988
      ],
      [
        "▁",
        -3.127530296715743
      ],
      [
        "▁ya",
        -3.7887122922186363
      ],
      [
        "▁na",
        -3.8955132853366052
      ],
      [
        "▁wa",
        -4.02533830108421
      ],
      [
        "i",
        -4.1471607792956755
      ],
      [
        "o",
        -4.198733437766632
      ],
      [
        "▁kwa",
        -4.34382413369447
      ],
      [
        "e",
        -4.379688507778088
      ],
      [
        "u",
        -4.525358455659592
      ],
      [
        "wa",
        -4.851671262900372
      ],
      [
        "▁ku",
        -4.854852478977332
      ],
      [
        "▁k",
        -4.920451111527601
      ],
      [
        "ni",
        -4.939288224697801
      ],
      [
        "▁m",
        -5.047558548229614
      ],
      [
        "▁ni",
        -5.069559348044951
      ],
      [
        "▁M",
        -5.173000899836185
      ],
      [
        "na",
        -5.3658724847917005
      ],
      [
        "▁za",
        -5.431837388583803
      ],
      [
        "▁sana",
        -5.712377175995187
      ],
      [
        "▁ma",
        -5.7417301936424465
      ],
      [
        "▁la",
        -5.765264077397064
      ],
      [
        "ka",
        -5.846503166873266
      ],
      [
        "▁cha",
        -5.874433867668685
      ],
      [
        "s",
        -5.874966687799283
      ],
      [
        "t",
        -5.896142685547376
      ],
      [
        "atika",
        -5.932968757169843
      ],
      [
        "▁yako",
        -5.933989615911217
      ],
      [
        "▁tu",
        -5.955820368364814
      ],
      [
        "▁kuwa",
        -5.962138013963807
      ],
      [
        "▁U",
        -6.002383068814774
      ],
      [
        "▁u",
        -6.02250240955073
      ],
      [
        "m",
        -6.03612883032457
      ],
      [
        "▁zaidi",
        -6.075019780475381
      ],
      [
        "y",
        -6.0874023033074725
      ],
      [
        "k",
        -6.116544036569791
      ],
      [
        "▁K",
        -6.1368080810011625
      ],
      [
        "ma",
        -6.1374886314782735
      ],
      [
        "zi",
        -6.14250892952145
      ],
      [
        "omba",
        -6.1440925760469165
      ],
      [
        "▁kama",
        -6.180102780962566
      ],
      [
        "▁Habari",
        -6.211118755322637
      ],
      [
        "n",
        -6.2271745945466455
      ],
      [
        "wenye",
        -6.240299083148661
      ],
      [
        "▁ki",
        -6.244284198121395
      ],
      [
        "▁tuna",
        -6.246747638544533
      ],
      [
        "ana",
        -6.254297107241947
      ],
      [
        "ke",
        -6.3292915840289385
      ],
      [
        "po",
        -6.344385765473974
      ],
      [
        "▁T",
        -6.365642601508147
      ],
      [
        "sha",
        -6.413036847983085
      ],
      [
        "▁S",
        -6.413105213523494
      ],
      [
        "▁Na",
        -6.421476261005282
      ],
      [
        "si",
        -6.470240936844191
      ],
      [
        "la",
        -6.472717336749628
      ],
      [
        "▁ili",
        -6.488813330742613
      ],
      [
        "▁wana",
        -6.495886582834172
      ],
      [
        "▁Wa",
        -6.507875421918458
      ],
      [
        "▁B",
        -6.520104172466805
      ],
      [
        "▁una",
        -6.523677067564825
      ],
      [
        "za",
        -6.534036233604329
      ],
      [
        "ji",
        -6.545988538461237
      ],
      [
        "A",
        -6.547494720970557
      ],
      [
        "▁A",
        -6.551067166435064
      ],
      [
        "▁namba",
        -6.5595351090906435
      ],
      [
        "▁sasa",
        -6.5688597648015445
      ],
      [
        "▁kazi",
        -6.585452258092838
      ],
      [
        "pata",
        -6.589276478791313
      ],
      [
        "▁kweny",
        -6.590267382724597
      ],
      [
        "▁siku",
        -6.591250765411187
      ],
      [
        "▁hii",
        -6.595323804769571
      ],
      [
        "ani",
        -6.59811204449569
      ],
      [
        "▁watu",
        -6.609412896586452
      ],
      [
        "we",
        -6.609467729983174
      ],
      [
        "▁leo",
        -6.648310961069883
      ],
      [
        "uri",
        -6.680538950977935
      ],
      [
        "mu",
        -6.680612995339093
      ],
      [
        "ia",
        -6.710164147048532
      ],
      [
        "▁au",
        -6.718862281273102
      ],
      [
        "▁Tuna",
        -6.724653943486513
      ],
      [
        "▁Ahsante",
        -6.731249984859461
      ],
      [
        "ya",
        -6.733831525530606
      ],
      [
        "adhali",
        -6.770102979708116
      ],
      [
        "▁changamoto",
        -6.772875029427185
      ],
      [
        "▁Kwa",
        -6.776732526847769
      ],
      [
        "li",
        -6.7800549397619765
      ],
      [
        "fanya",
        -6.78079099794248
      ],
      [
        "▁Ma",
        -6.783937290632649
      ],
      [
        "▁mtu",
        -6.785236317697745
      ],
      [
        "naweza",
        -6.794442534402032
      ],
      [
        "ti",
        -6.8084129277516094
      ],
      [
        "▁Ni",
        -6.809846892005519
      ],
      [
        "▁ha",
        -6.815141787744089
      ],
      [
        "▁Ku",
        -6.816955992433672
      ],
      [
        "▁wetu",
        -6.822216223189465
      ],
      [
        "▁huduma",
        -6.823116304300693
      ],
      [
        "ri",
        -6.825262520771307
      ],
      [
        "ta",
        -6.828188593729983
      ],
      [
        "▁n",
        -6.829963384454811
      ],
      [
        "▁vi",
        -6.834457600921887
      ],
      [
        "kuwa",
        -6.842369888820773
      ],
      [
        "▁wako",
        -6.845829755656762
      ],
      [
        "▁vya",
        -6.861174267927244
      ],
      [
        "tu",
        -6.87227406873777
      ],
      [
        "endelea",
        -6.87318423443203
      ],
      [
        "▁amba",
        -6.874238724852943
      ],
      [
        "sa",
        -6.877334389069422
      ],
      [
        "le",
        -6.890771589946139
      ],
      [
        "zo",
        -6.897818688331216
      ],
      [
        "▁kutoka",
        -6.907030778428467
      ],
      [
        "▁H",
        -6.923585309059576
      ],
      [
        "moja",
        -6.9247878663166915
      ],
      [
        "bwa",
        -6.92680530895416
      ],
      [
        "▁h",
        -6.928156428613993
      ],
      [
        "da",
        -6.935675491461161
      ],
      [
        "▁w",
        -6.936246072007875
      ],
      [
        "l",
        -6.947497121985866
      ],
      [
        "▁nchi",
        -6.949086974252053
      ],
      [
        "shi",
        -6.952262514808188
      ],
      [
        "▁N",
        -6.970396437721767
      ],
      [
        "isha",
        -6.97715443443498
      ],
      [
        "d",
        -6.97924974349066
      ],
      [
        "toto",
        -6.99914966375043
      ],
      [
        "simu",
        -7.009309639183357
      ],
      [
        "penda",
        -7.024139765823004
      ],
      [
        "▁P",
        -7.035306209554341
      ],
      [
        "r",
        -7.048392534800582
      ],
      [
        "sema",
        -7.049843993220049
      ],
      [
        "▁hapa",
        -7.054039392317971
      ],
      [
        "▁kil",
        -7.062207212925195
      ],
      [
        "▁Kama",
        -7.074563870365212
      ],
      [
        "ika",
        -7.076657405588769
      ],
      [
        "▁W",
        -7.086213716241832
      ],
      [
        "▁hiyo",
        -7.089502530957955
      ],
      [
        "▁mbali",
        -7.103955308282511
      ],
      [
        "I",
        -7.1059037455462075
      ],
      [
        "ki",
        -7.106163064911367
      ],
      [
        "▁YA",
        -7.115229948719781
      ],
      [
        "▁I",
        -7.115532374500075
      ],
      [
        "▁msaada",
        -7.119899638713907
      ],
      [
        "▁tatizo",
        -7.123410388519522
      ],
      [
        "▁z",
        -7.128041062131528
      ],
      [
        "▁baada",
        -7.1319890059893005
      ],
      [
        "w",
        -7.132982712034701
      ],
      [
        "▁saa",
        -7.133393288801862
      ],
      [
        "▁t",
        -7.13423460615569
      ],
      [
        "▁s",
        -7.134239759151863
      ],
      [
        "M",
        -7.1394309333856505
      ],
      [
        "▁pi",
        -7.140713083618828
      ],
      [
        "▁1",
        -7.144770089018619
      ],
      [
        "mbo",
        -7.146479301814619
      ],
      [
        "ungu",
        -7.152852207804926
      ],
      [
        "likuwa",
        -7.153337660084314
      ],
      [
        "▁taarifa",
        -7.164997249085794
      ],
      [
        "▁ana",
        -7.169912065765553
      ],
      [
        "▁ame",
        -7.173376575342841
      ],
      [
        "▁ndo",
        -7.175105820340467
      ],
      [
        "dogo",
        -7.176297475535144
      ],
      [
        "▁y",
        -7.17968347030708
      ],
      [
        "▁nasi",
        -7.186026561766569
      ],
      [
        "▁wame",
        -7.1903580895886545
      ],
      [
        "▁Le",
        -7.19236989993898
      ],
      [
        "▁a",
        -7.20727248974638
      ],
      [
        "▁Rais",
        -7.211746094396144
      ],
      [
        "▁Tanzania",
        -7.214445132685708
      ],
      [
        "▁2",
        -7.227193363153022
      ],
      [
        "▁hata",
        -7.233883402943263
      ],
      [
        "aji",
        -7.235359394095642
      ],
      [
        "▁taf",
        -7.238143195699719
      ],
      [
        "▁WA",
        -7.241480898168664
      ],
      [
        "ko",
        -7.245380677702292
      ],
      [
        "fu",
        -7.246643981487141
      ],
      [
        "jua",
        -7.252376869815411
      ],
      [
        "izi",
        -7.257538385000618
      ],
      [
        "to",
        -7.262469906482881
      ],
      [
        "▁si",
        -7.272849566500649
      ],
      [
        "h",
        -7.273376807307034
      ],
      [
        "▁J",
        -7.274618982083582
      ],
      [
        "▁sio",
        -7.276200653711663
      ],
      [
        "di",
        -7.282295041597794
      ],
      [
        "ba",
        -7.28489686383371
      ],
      [
        "ra",
        -7.301483326662684
      ],
      [
        "▁Mkuu",
        -7.316221243040899
      ],
      [
        "▁ndio",
        -7.316762315822409
      ],
      [
        "▁Ya",
        -7.319564618820655
      ],
      [
        "▁gani",
        -7.321023283894178
      ],
      [
        "▁C",
        -7.3227382095768565
      ],
      [
        "▁pole",
        -7.328639775980539
      ],
      [
        "▁ambay",
        -7.331901472652367
      ],
      [
        "▁kabisa",
        -7.340113434443087
      ],
      [
        "p",
        -7.340707347212497
      ],
      [
        "▁wote",
        -7.3472483984372206
      ],
      [
        "▁kupat",
        -7.355409104705489
      ],
      [
        "▁Kuna",
        -7.356875370498055
      ],
      [
        "▁kupit",
        -7.3570723281634525
      ],
      [
        "▁D",
        -7.37280833389117
      ],
      [
        "▁bad",
        -7.373221932621095
      ],
      [
        "▁hu",
        -7.375222463472601
      ],
      [
        "▁kuna",
        -7.377369872108265
      ],
      [
        "ila",
        -7.3963411589878945
      ],
      [
        "▁zetu",
        -7.398186119681478
      ],
      [
        "▁Je",
        -7.4026924639551925
      ],
      [
        "etu",
        -7.40359955912931
      ],
      [
        "afu",
        -7.411295348284017
      ],
      [
        "shukur",
        -7.412727252844015
      ],
      [
        "O",
        -7.414126096669184
      ],
      [
        "▁E",
        -7.415599890368669
      ],
      [
        "▁bil",
        -7.421101107115841
      ],
      [
        "ga",
        -7.422695297667572
      ],
      [
        "▁kufany",
        -7.427289637826894
      ],
      [
        "▁sa",
        -7.429826900527067
      ],
      [
        "ngo",
        -7.4305263036440685
      ],
      [
        "▁kuwasili",
        -7.431355088827889
      ],
      [
        "▁Tu",
        -7.4315660745842145
      ],
      [
        "▁Waziri",
        -7.432269557631919
      ],
      [
        "anza",
        -7.432403526471987
      ],
      [
        "▁mara",
        -7.4324185194003025
      ],
      [
        "▁ju",
        -7.433485117068075
      ],
      [
        "▁R",
        -7.434615938207402
      ],
      [
        "▁aki",
        -7.436194395366997
      ],
      [
        "▁maisha",
        -7.438031058683698
      ],
      [
        "▁3",
        -7.446118229367926
      ],
      [
        "▁ina",
        -7.446388210106779
      ],
      [
        "z",
        -7.446739417168599
      ],
      [
        "mbali",
        -7.452140301433841
      ],
      [
        "▁Hi",
        -7.453427748456463
      ],
      [
        "▁mwaka",
        -7.463425653142818
      ],
      [
        "ku",
        -7.468373278761418
      ],
      [
        "kati",
        -7.473357958651102
      ],
      [
        "▁nd",
        -7.481985351887079
      ],
      [
        "▁ime",
        -7.4835175427113585
      ],
      [
        "▁usumbufu",
        -7.4874167621963235
      ],
      [
        "▁kif",
        -7.489034935269392
      ],
      [
        "▁hawa",
        -7.489220301437826
      ],
      [
        "▁wake",
        -7.494540184714737
      ],
      [
        "▁yangu",
        -7.4964483551363355
      ],
      [
        "elim",
        -7.505519793571647
      ],
      [
        "ja",
        -7.506108173158644
      ],
      [
        "ajili",
        -7.508424636523119
      ],
      [
        "asi",
        -7.51380250658007
      ],
      [
        "▁V",
        -7.514776572123859
      ],
      [
        "▁kati",
        -7.515560413672205
      ],
      [
        "vu",
        -7.518940580680177
      ],
      [
        "▁lakini",
        -7.523525787881258
      ],
      [
        "▁lako",
        -7.523656796179932
      ],
      [
        "▁DM",
        -7.527683692994886
      ],
      [
        "▁hivi",
        -7.529531294346113
      ],
      [
        "kwa",
        -7.532746485170414
      ],
      [
        "U",
        -7.548932195514077
      ],
      [
        "te",
        -7.549807362164369
      ],
      [
        "▁pamoja",
        -7.5533382898255335
      ],
      [
        "▁mteja",
        -7.5563016927180975
      ],
      [
        "▁Pole",
        -7.557418033151723
      ],
      [
        "tumia",
        -7.55928814212574
      ],
      [
        "taka",
        -7.559771941975056
      ],
      [
        "▁mi",
        -7.561052662692856
      ],
      [
        "▁Asante",
        -7.564223615622828
      ],
      [
        "g",
        -7.567935620729013
      ],
      [
        "▁ume",
        -7.568138548310699
      ],
      [
        "ote",
        -7.571466240634744
      ],
      [
        "ili",
        -7.57529129966219
      ],
      [
        "▁Taifa",
        -7.587289927613089
      ],
      [
        "▁dunia",
        -7.587412979058213
      ],
      [
        "▁kuto",
        -7.5916892014362665
      ],
      [
        "▁tume",
        -7.596496428144191
      ],
      [
        "nda",
        -7.598855948094124
      ],
      [
        "enda",
        -7.60217618499024
      ],
      [
        "ari",
        -7.608109067242763
      ],
      [
        "B",
        -7.6083504689205315
      ],
      [
        "weza",
        -7.610258509233063
      ],
      [
        "▁ba",
        -7.611514314818989
      ],
      [
        "▁wanawak",
        -7.617530387514406
      ],
      [
        "▁F",
        -7.619480712557198
      ],
      [
        "▁uki",
        -7.620535962647576
      ],
      [
        "▁b",
        -7.6249073424589335
      ],
      [
        "▁uta",
        -7.625686809438957
      ],
      [
        "▁p",
        -7.626256678658455
      ],
      [
        "yo",
        -7.6273103674627265
      ],
      [
        "mo",
        -7.6318147208496825
      ],
      [
        "enzi",
        -7.653360303064783
      ],
      [
        "no",
        -7.655891518094827
      ],
      [
        "▁nyingi",
        -7.656392378387189
      ],
      [
        "▁Serikali",
        -7.66199443212933
      ],
      [
        "▁Wana",
        -7.662564486109222
      ],
      [
        "b",
        -7.663928702440922
      ],
      [
        "kutan",
        -7.673209184423524
      ],
      [
        "mbe",
        -7.6793882418047
      ],
      [
        "▁kitu",
        -7.684744092738718
      ],
      [
        "teja",
        -7.688522336297593
      ],
      [
        "f",
        -7.690608706625994
      ],
      [
        "▁j",
        -7.693562339914427
      ],
      [
        "▁huu",
        -7.695464242607352
      ],
      [
        "wahi",
        -7.695654533854432
      ],
      [
        "mba",
        -7.6964524964877015
      ],
      [
        "▁c",
        -7.699361188650671
      ],
      [
        "ndugu",
        -7.70015149620713
      ],
      [
        "▁Karibu",
        -7.702735192866012
      ],
      [
        "▁zangu",
        -7.703671530075072
      ],
      [
        "imu",
        -7.704039798634369
      ],
      [
        "▁wangu",
        -7.705925359350532
      ],
      [
        "▁Ha",
        -7.710609660217482
      ],
      [
        "▁Ki",
        -7.716293599903366
      ],
      [
        "▁wengi",
        -7.719525322792542
      ],
      [
        "▁kwamba",
        -7.719665485772409
      ],
      [
        "▁Una",
        -7.721143498267844
      ],
      [
        "▁yak",
        -7.725013572013637
      ],
      [
        "▁moja",
        -7.73059816424494
      ],
      [
        "urushi",
        -7.735063361229521
      ],
      [
        "▁20",
        -7.736020118845035
      ],
      [
        "ala",
        -7.739639182492567
      ],
      [
        "hili",
        -7.7463255539753435
      ],
      [
        "ge",
        -7.747036109732389
      ],
      [
        "▁hadi",
        -7.750320477456462
      ],
      [
        "go",
        -7.750803092674414
      ],
      [
        "KA",
        -7.757600591934993
      ],
      [
        "bu",
        -7.759772954884417
      ],
      [
        "usiku",
        -7.762876600234861
      ],
      [
        "v",
        -7.764254463100627
      ],
      [
        "elewa",
        -7.771366021552302
      ],
      [
        "▁huo",
        -7.772792053187489
      ],
      [
        "ishi",
        -7.773972994909608
      ],
      [
        "▁Z",
        -7.774126529187772
      ],
      [
        "▁matum",
        -7.77693890920936
      ],
      [
        "▁maji",
        -7.777927260396682
      ],
      [
        "▁G",
        -7.779096561336596
      ],
      [
        "ongoz",
        -7.780052522148204
      ],
      [
        "▁ka",
        -7.785864711334181
      ],
      [
        "toka",
        -7.786532859366555
      ],
      [
        "adhi",
        -7.787331577557722
      ],
      [
        "iwa",
        -7.788555476954161
      ],
      [
        "NI",
        -7.7901158858571
      ],
      [
        "nzi",
        -7.792000676352449
      ],
      [
        "sho",
        -7.7923172194182735
      ],
      [
        "▁zina",
        -7.794050660501048
      ],
      [
        "▁6",
        -7.794626322688205
      ],
      [
        "▁kub",
        -7.795877672980449
      ],
      [
        "ndi",
        -7.797370984027298
      ],
      [
        "▁L",
        -7.810254055546003
      ],
      [
        "▁Dk",
        -7.814339155739041
      ],
      [
        "toa",
        -7.814774241503484
      ],
      [
        "T",
        -7.819032417464806
      ],
      [
        "▁kuliko",
        -7.82400248781474
      ],
      [
        "▁be",
        -7.824145344391725
      ],
      [
        "▁wengine",
        -7.825344443373698
      ],
      [
        "▁mpya",
        -7.826562035181333
      ],
      [
        "▁kutumi",
        -7.826636407172488
      ],
      [
        "▁f",
        -7.826919564534817
      ],
      [
        "▁vifuru",
        -7.827243415324865
      ],
      [
        "▁hivyo",
        -7.827339722838401
      ],
      [
        "me",
        -7.828659286715341
      ],
      [
        "ewe",
        -7.830183272521583
      ],
      [
        "▁NA",
        -7.832444433714565
      ],
      [
        "▁ali",
        -7.8336642151505105
      ],
      [
        "▁kweli",
        -7.834249791239682
      ],
      [
        "ali",
        -7.83574967585545
      ],
      [
        "▁zako",
        -7.837389737311988
      ],
      [
        "▁karibu",
        -7.838078989479618
      ],
      [
        "▁miak",
        -7.8422299611408794
      ],
      [
        "▁10",
        -7.84780551792384
      ],
      [
        "ne",
        -7.849582033176019
      ],
      [
        "▁Hu",
        -7.8538388832280805
      ],
      [
        "▁Si",
        -7.853922301655918
      ],
      [
        "▁Taf",
        -7.858225154711245
      ],
      [
        "▁haya",
        -7.860327508094441
      ],
      [
        "rasa",
        -7.8604877157512565
      ],
      [
        "kazi",
        -7.8612691636174254
      ],
      [
        "er",
        -7.86834840220652
      ],
      [
        "ama",
        -7.869220678295475
      ],
      [
        "▁muda",
        -7.86997740297765
      ],
      [
        "▁Mimi",
        -7.87038106185712
      ],
      [
        "▁hilo",
        -7.871582350423042
      ],
      [
        "▁tena",
        -7.874239844702494
      ],
      [
        "▁mtandao",
        -7.874809531312244
      ],
      [
        "hemu",
        -7.877945502942847
      ],
      [
        "ume",
        -7.884218109468776
      ],
      [
        "▁kuanzi",
        -7.887279077094514
      ],
      [
        "▁hali",
        -7.890707118884743
      ],
      [
        "J",
        -7.890715899156749
      ],
      [
        "▁in",
        -7.89422619048535
      ],
      [
        "kufahamish",
        -7.89425872167224
      ],
      [
        "je",
        -7.894404273768727
      ],
      [
        "▁ye",
        -7.896581990935349
      ],
      [
        "▁ata",
        -7.8991607123321455
      ],
      [
        "c",
        -7.899837482356389
      ],
      [
        "S",
        -7.90551966795468
      ],
      [
        "es",
        -7.907694323644238
      ],
      [
        "nde",
        -7.911176641490963
      ],
      [
        "ha",
        -7.912894984942492
      ],
      [
        "▁Dodoma",
        -7.916435523409855
      ],
      [
        "▁akaunti",
        -7.916853812862624
      ],
      [
        "▁yenye",
        -7.919708197853598
      ],
      [
        "▁njia",
        -7.926437592459022
      ],
      [
        "▁nyumba",
        -7.926867349369414
      ],
      [
        "▁Mkoa",
        -7.930207822977108
      ],
      [
        "▁hatu",
        -7.938141923068629
      ],
      [
        "ona",
        -7.940591342707934
      ],
      [
        "▁Sana",
        -7.941414586460395
      ],
      [
        "husu",
        -7.942922479949689
      ],
      [
        "mi",
        -7.9457566891668225
      ],
      [
        "▁mwenye",
        -7.946922998117431
      ],
      [
        "▁tuta",
        -7.954401803999488
      ],
      [
        "▁Vi",
        -7.959925864396265
      ],
      [
        "▁l",
        -7.966793448110895
      ],
      [
        "▁mwisho",
        -7.966979476424475
      ],
      [
        "▁kwanz",
        -7.969452504652626
      ],
      [
        "bor",
        -7.969457314363343
      ],
      [
        "▁nini",
        -7.969675275055682
      ],
      [
        "hitaji",
        -7.975438212920027
      ],
      [
        "chi",
        -7.983716930321249
      ],
      [
        "eni",
        -7.983849013385267
      ],
      [
        "▁Cha",
        -7.987382004992451
      ],
      [
        "▁d",
        -7.988685297454547
      ],
      [
        "tembele",
        -7.989209156025704
      ],
      [
        "patikana",
        -7.992318236634549
      ],
      [
        "▁mku",
        -7.9932689030819155
      ],
      [
        "▁mpak",
        -7.994807799850045
      ],
      [
        "nge",
        -7.999981061063236
      ],
      [
        "▁we",
        -8.000505851428139
      ],
      [
        "vyo",
        -8.001966473918774
      ],
      [
        "ini",
        -8.009103755777385
      ],
      [
        "▁viz",
        -8.010813164400094
      ],
      [
        "▁wapi",
        -8.011976227142997
      ],
      [
        "enye",
        -8.014202457887276
      ],
      [
        "▁hel",
        -8.018388419214139
      ],
      [
        "sh",
        -8.018418698088917
      ],
      [
        "▁mitandao",
        -8.020982316931148
      ],
      [
        "nd",
        -8.027805635501249
      ],
      [
        "▁sahihi",
        -8.031140135304128
      ],
      [
        "eti",
        -8.03545762948056
      ],
      [
        "▁Watu",
        -8.0376186423719
      ],
      [
        "▁5",
        -8.037620617444947
      ],
      [
        "us",
        -8.038931393761773
      ],
      [
        "▁aliye",
        -8.043901765477862
      ],
      [
        "▁kum",
        -8.044193933459432
      ],
      [
        "▁Soma",
        -8.046520257866748
      ],
      [
        "▁CHA",
        -8.04874282791464
      ],
      [
        "▁haku",
        -8.050994587678055
      ],
      [
        "pa",
        -8.053180706301148
      ],
      [
        "▁se",
        -8.05322606733273
      ],
      [
        "▁huwa",
        -8.053234193785809
      ],
      [
        "▁walio",
        -8.059504185943116
      ],
      [
        "▁Me",
        -8.059805207654135
      ],
      [
        "hidi",
        -8.060545617779432
      ],
      [
        "▁4",
        -8.062989583351762
      ],
      [
        "▁usi",
        -8.0669440317298
      ],
      [
        "arehe",
        -8.067404507111007
      ],
      [
        "endo",
        -8.07053213020621
      ],
      [
        "ambo",
        -8.073451015322828
      ],
      [
        "▁picha",
        -8.075486613694697
      ],
      [
        "▁mimi",
        -8.075976380452508
      ],
      [
        "▁uliyo",
        -8.078213195173973
      ],
      [
        "▁kuji",
        -8.079412978759446
      ],
      [
        "▁kuni",
        -8.07967209663334
      ],
      [
        "▁mengi",
        -8.082593334815629
      ],
      [
        "▁wananchi",
        -8.082616907918515
      ],
      [
        "▁wiki",
        -8.083256377885444
      ],
      [
        "E",
        -8.08493743241771
      ],
      [
        "▁r",
        -8.08627616362627
      ],
      [
        "▁hiz",
        -8.090947255857442
      ],
      [
        "▁i",
        -8.09229106234341
      ],
      [
        "▁19",
        -8.093331058207578
      ],
      [
        "ye",
        -8.095540120018468
      ],
      [
        "▁uju",
        -8.098458050803373
      ],
      [
        "muhim",
        -8.099588096942705
      ],
      [
        "▁Siku",
        -8.100569271187569
      ],
      [
        "▁gtgt",
        -8.102019485536957
      ],
      [
        "soma",
        -8.102115148252667
      ],
      [
        "▁2019",
        -8.103000631330845
      ],
      [
        "tatu",
        -8.106825395213306
      ],
      [
        "ene",
        -8.107020922723974
      ],
      [
        "funz",
        -8.107750179817835
      ],
      [
        "ack",
        -8.11302700843329
      ],
      [
        "weze",
        -8.117144907452275
      ],
      [
        "taifa",
        -8.119631973489197
      ],
      [
        "cheza",
        -8.121575584884638
      ],
      [
        "▁kuku",
        -8.125954966066631
      ],
      [
        "▁bo",
        -8.128261649634418
      ],
      [
        "▁inayo",
        -8.129973946451424
      ],
      [
        "YA",
        -8.130709222785251
      ],
      [
        "piga",
        -8.133204001582662
      ],
      [
        "▁vijana",
        -8.13327462782939
      ],
      [
        "▁KWA",
        -8.136358197665494
      ],
      [
        "ipata",
        -8.137199459437605
      ],
      [
        "fiki",
        -8.137345336891089
      ],
      [
        "▁uku",
        -8.137461447842902
      ],
      [
        "▁CCM",
        -8.138033890218573
      ],
      [
        "be",
        -8.139339123066886
      ],
      [
        "▁nili",
        -8.146252167964507
      ],
      [
        "tanzania",
        -8.146818296787089
      ],
      [
        "pes",
        -8.146943505647789
      ],
      [
        "poke",
        -8.149617788678505
      ],
      [
        "▁husika",
        -8.152382927650969
      ],
      [
        "▁24",
        -8.153260813120609
      ],
      [
        "nunu",
        -8.153617431009412
      ],
      [
        "in",
        -8.156344981438579
      ],
      [
        "ita",
        -8.158890611319377
      ],
      [
        "jifunz",
        -8.160175805295744
      ],
      [
        "▁Uki",
        -8.160617872054036
      ],
      [
        "jibu",
        -8.161144660717643
      ],
      [
        "LI",
        -8.161297733098513
      ],
      [
        "▁mwana",
        -8.162425131752817
      ],
      [
        "▁Nime",
        -8.16282847959684
      ],
      [
        "▁nime",
        -8.164675008543895
      ],
      [
        "lewa",
        -8.17050130707235
      ],
      [
        "heria",
        -8.170582832148316
      ],
      [
        "▁Sa",
        -8.17335983421183
      ],
      [
        "umbe",
        -8.177071844123923
      ],
      [
        "pot",
        -8.178440073065811
      ],
      [
        "▁huku",
        -8.179378199486212
      ],
      [
        "▁wanao",
        -8.182614584684774
      ],
      [
        "▁shule",
        -8.189667657001678
      ],
      [
        "▁sek",
        -8.19010845569902
      ],
      [
        "▁pale",
        -8.196200323452514
      ],
      [
        "C",
        -8.197597620953596
      ],
      [
        "▁Tsh",
        -8.198786551923979
      ],
      [
        "ck",
        -8.19890897088533
      ],
      [
        "fanyia",
        -8.199477196831449
      ],
      [
        "▁nzur",
        -8.20028590398707
      ],
      [
        "▁mbili",
        -8.201404753019503
      ],
      [
        "nga",
        -8.208500862317571
      ],
      [
        "▁kw",
        -8.20943126113634
      ],
      [
        "asa",
        -8.210049239445084
      ],
      [
        "▁Afri",
        -8.212104882414344
      ],
      [
        "▁mkoa",
        -8.217353917042365
      ],
      [
        "ingi",
        -8.218363748689207
      ],
      [
        "lo",
        -8.219125070854613
      ],
      [
        "G",
        -8.219574188461685
      ],
      [
        "eza",
        -8.224102180336057
      ],
      [
        "takuwa",
        -8.22540291024953
      ],
      [
        "amani",
        -8.229607561982371
      ],
      [
        "ibu",
        -8.230891614095736
      ],
      [
        "uko",
        -8.232585325049365
      ],
      [
        "▁Mh",
        -8.232661024327486
      ],
      [
        "▁pe",
        -8.237833231352983
      ],
      [
        "mbi",
        -8.238408462210751
      ],
      [
        "▁14",
        -8.238813128150904
      ],
      [
        "kiwa",
        -8.239526959290766
      ],
      [
        "▁sawa",
        -8.240866298912287
      ],
      [
        "cha",
        -8.241040341177936
      ],
      [
        "▁Che",
        -8.241817157217856
      ],
      [
        "▁mda",
        -8.246275343892899
      ],
      [
        "N",
        -8.250666985242141
      ],
      [
        "▁zinazo",
        -8.252604585647752
      ],
      [
        "mani",
        -8.253824245466593
      ],
      [
        "ingine",
        -8.258098698751695
      ],
      [
        "▁uj",
        -8.259276151898986
      ],
      [
        "onyesha",
        -8.259573924680053
      ],
      [
        "kiti",
        -8.26013502263206
      ],
      [
        "▁kuhus",
        -8.262111912795792
      ],
      [
        "▁utaratibu",
        -8.262626999343489
      ],
      [
        "hapo",
        -8.263989911107764
      ],
      [
        "port",
        -8.264808296885823
      ],
      [
        "▁mimba",
        -8.265507249616956
      ],
      [
        "biashara",
        -8.269139414623218
      ],
      [
        "▁Afya",
        -8.269492749728723
      ],
      [
        "▁Katib",
        -8.269572907617619
      ],
      [
        "sajili",
        -8.271020552526133
      ],
      [
        "sabab",
        -8.272488965866893
      ],
      [
        "▁He",
        -8.276079155574928
      ],
      [
        "▁kufaham",
        -8.276507078118014
      ],
      [
        "shid",
        -8.277876123507985
      ],
      [
        "9",
        -8.277919804421975
      ],
      [
        "ambi",
        -8.279845472326572
      ],
      [
        "angali",
        -8.280769391620634
      ],
      [
        "et",
        -8.287862301348463
      ],
      [
        "▁umem",
        -8.289109151158986
      ],
      [
        "WA",
        -8.28928392768885
      ],
      [
        "▁ta",
        -8.293183581377605
      ],
      [
        "toke",
        -8.293527637651474
      ],
      [
        "ano",
        -8.293710027967865
      ],
      [
        "kuu",
        -8.294530610169005
      ],
      [
        "uni",
        -8.29584507470599
      ],
      [
        "▁Kil",
        -8.296264907928645
      ],
      [
        "MA",
        -8.298345604579655
      ],
      [
        "▁mbele",
        -8.299141781462016
      ],
      [
        "L",
        -8.302138625988585
      ],
      [
        "oto",
        -8.303143527356635
      ],
      [
        "am",
        -8.30888300792741
      ],
      [
        "▁Uta",
        -8.312305218647111
      ],
      [
        "▁bur",
        -8.31831881962564
      ],
      [
        "wasilian",
        -8.320347243706632
      ],
      [
        "aka",
        -8.320357951376536
      ],
      [
        "▁huru",
        -8.321635349094072
      ],
      [
        "▁kim",
        -8.3226346590864
      ],
      [
        "kosa",
        -8.32302104620528
      ],
      [
        "babu",
        -8.324975901111385
      ],
      [
        "▁fur",
        -8.325532320301875
      ],
      [
        "▁gha",
        -8.326173992221326
      ],
      [
        "kamili",
        -8.32668404504956
      ],
      [
        "ongo",
        -8.329167141660772
      ],
      [
        "sante",
        -8.329429081170762
      ],
      [
        "▁kushiriki",
        -8.333689489412542
      ],
      [
        "mech",
        -8.334359657013763
      ],
      [
        "▁nyingine",
        -8.335365797746958
      ],
      [
        "▁kufurahi",
        -8.335443219532559
      ],
      [
        "▁mkono",
        -8.335787471011882
      ],
      [
        "▁fedh",
        -8.336501303237188
      ],
      [
        "labu",
        -8.340031711988807
      ],
      [
        "re",
        -8.341698226667862
      ],
      [
        "ZA",
        -8.34211172879282
      ],
      [
        "▁mu",
        -8.342396009928944
      ],
      [
        "▁Ka",
        -8.342912597361165
      ],
      [
        "tari",
        -8.345268280886124
      ],
      [
        "▁Ch",
        -8.347005503074314
      ],
      [
        "amini",
        -8.348018406257115
      ],
      [
        "ida",
        -8.349436036053685
      ],
      [
        "▁akili",
        -8.3511619239505
      ],
      [
        "lazim",
        -8.351196241723384
      ],
      [
        "an",
        -8.355197808777532
      ],
      [
        "usha",
        -8.358913023755363
      ],
      [
        "rama",
        -8.359677741184294
      ],
      [
        "▁haki",
        -8.359987172566212
      ],
      [
        "▁huko",
        -8.36184762535655
      ],
      [
        "jwa",
        -8.36500481185714
      ],
      [
        "▁Jo",
        -8.365577014913235
      ],
      [
        "inter",
        -8.367370220697621
      ],
      [
        "▁amesem",
        -8.367720875179494
      ],
      [
        "▁vit",
        -8.369169004502666
      ],
      [
        "▁Usi",
        -8.370665942294124
      ],
      [
        "huru",
        -8.371619293685335
      ],
      [
        "▁uwe",
        -8.3819581920163
      ],
      [
        "2",
        -8.382389563776742
      ],
      [
        "ter",
        -8.384527237454861
      ],
      [
        "▁Hali",
        -8.384822820177032
      ],
      [
        "▁yote",
        -8.385311123908235
      ],
      [
        "damu",
        -8.391534969787706
      ],
      [
        "hi",
        -8.393243888372668
      ],
      [
        "ara",
        -8.393874787687656
      ],
      [
        "husian",
        -8.397109206540778
      ],
      [
        "liwa",
        -8.399912690814684
      ],
      [
        "j",
        -8.403040375243659
      ],
      [
        "▁uweze",
        -8.404991040900402
      ],
      [
        "kuta",
        -8.405005827856208
      ],
      [
        "sisi",
        -8.405441836816705
      ],
      [
        "net",
        -8.405560523812335
      ],
      [
        "▁lina",
        -8.409364849935777
      ],
      [
        "▁lugha",
        -8.410142137054056
      ],
      [
        "▁Dunia",
        -8.410501316506268
      ],
      [
        "zawadi",
        -8.411348613414738
      ],
      [
        "ima",
        -8.411958390291467
      ],
      [
        "▁hicho",
        -8.412138624813643
      ],
      [
        "chanj",
        -8.41251434202311
      ],
      [
        "▁kujiunga",
        -8.41448145065979
      ],
      [
        "▁nguvu",
        -8.414636470202463
      ],
      [
        "▁Tume",
        -8.41478568030274
      ],
      [
        "▁mwanam",
        -8.415173012504855
      ],
      [
        "nne",
        -8.415849717191389
      ],
      [
        "▁Kazi",
        -8.416897925064658
      ],
      [
        "▁uchum",
        -8.417375453736565
      ],
      [
        "▁Mw",
        -8.418534501591271
      ],
      [
        "furah",
        -8.418842391441933
      ],
      [
        "▁kamp",
        -8.419290332601449
      ],
      [
        "saidia",
        -8.420297705953853
      ],
      [
        "▁Mambo",
        -8.420515459370352
      ],
      [
        "erikali",
        -8.422343988689372
      ],
      [
        "is",
        -8.424122347842944
      ],
      [
        "▁kujenga",
        -8.42633050785398
      ],
      [
        "▁jina",
        -8.427210362394487
      ],
      [
        "▁lime",
        -8.429015394553055
      ],
      [
        "yu",
        -8.42937078846677
      ],
      [
        "▁bas",
        -8.429442676557265
      ],
      [
        "potez",
        -8.429888803978063
      ],
      [
        "iko",
        -8.434018877938088
      ],
      [
        "▁Ja",
        -8.434788731004947
      ],
      [
        "taki",
        -8.434916474178312
      ],
      [
        "6",
        -8.43680961521904
      ],
      [
        "▁kuendelea",
        -8.438366855775122
      ],
      [
        "▁Jana",
        -8.443048267372749
      ],
      [
        "▁uli",
        -8.443562588787907
      ],
      [
        "eka",
        -8.443895714265008
      ],
      [
        "▁Dar",
        -8.44436468291595
      ],
      [
        "ZI",
        -8.445017942673106
      ],
      [
        "amilia",
        -8.445846599938692
      ],
      [
        "fuatilia",
        -8.447870335560921
      ],
      [
        "▁Juma",
        -8.45016460198842
      ],
      [
        "zazi",
        -8.450197595036663
      ],
      [
        "▁2018",
        -8.455388076179274
      ],
      [
        "oni",
        -8.455468511853226
      ],
      [
        "Y",
        -8.455930966248957
      ],
      [
        "el",
        -8.456923745298559
      ],
      [
        "▁pa",
        -8.45884339594236
      ],
      [
        "▁taya",
        -8.46037803384192
      ],
      [
        "on",
        -8.461351481487863
      ],
      [
        "20",
        -8.465442453353667
      ],
      [
        "ro",
        -8.46545592209904
      ],
      [
        "AJI",
        -8.467780044153846
      ],
      [
        "▁Mu",
        -8.467836715173728
      ],
      [
        "▁uwez",
        -8.468144869635207
      ],
      [
        "ch",
        -8.470183572985867
      ],
      [
        "bari",
        -8.471640762925126
      ],
      [
        "▁to",
        -8.472836037769806
      ],
      [
        "▁on",
        -8.475067819582904
      ],
      [
        "▁um",
        -8.481780750653805
      ],
      [
        "▁mape",
        -8.482046992575306
      ],
      [
        "▁milion",
        -8.482732878368202
      ],
      [
        "▁wenye",
        -8.486679338514449
      ],
      [
        "▁wakat",
        -8.487886819681655
      ],
      [
        "▁maan",
        -8.4893520856302
      ],
      [
        "▁Al",
        -8.49248374777024
      ],
      [
        "▁Honger",
        -8.49356418316187
      ],
      [
        "▁Bo",
        -8.493673561513583
      ],
      [
        "ount",
        -8.494219286789583
      ],
      [
        "▁kulingan",
        -8.494620814499532
      ],
      [
        "ngu",
        -8.494743390426198
      ],
      [
        "▁iliyo",
        -8.495475962913668
      ],
      [
        "zindu",
        -8.497024910241073
      ],
      [
        "upo",
        -8.498281093793773
      ],
      [
        "▁wali",
        -8.498330558303332
      ],
      [
        "ndo",
        -8.500662072506545
      ],
      [
        "zee",
        -8.502507847311206
      ],
      [
        "▁Watoto",
        -8.504391123521593
      ],
      [
        "▁nje",
        -8.504624087141895
      ],
      [
        "▁Bara",
        -8.505072877556143
      ],
      [
        "▁mw",
        -8.50607820772399
      ],
      [
        "▁ZA",
        -8.507228507473897
      ],
      [
        "▁mwezi",
        -8.50747687094749
      ],
      [
        "ho",
        -8.507613788881823
      ],
      [
        "iashara",
        -8.51058081243486
      ],
      [
        "kula",
        -8.520824502215296
      ],
      [
        "de",
        -8.521273669850117
      ],
      [
        "▁waki",
        -8.521687260034982
      ],
      [
        "▁nam",
        -8.52209471906393
      ],
      [
        "▁12",
        -8.52605669999633
      ],
      [
        "ina",
        -8.526374896905061
      ],
      [
        "it",
        -8.527112127004266
      ],
      [
        "▁su",
        -8.529695506209833
      ],
      [
        "▁is",
        -8.529871388986392
      ],
      [
        "vi",
        -8.52998751552009
      ],
      [
        "▁rai",
        -8.533165527513656
      ],
      [
        "kuna",
        -8.534293166952734
      ],
      [
        "▁Ge",
        -8.535101607788974
      ],
      [
        "▁Ar",
        -8.537041563352075
      ],
      [
        "▁kuhakiki",
        -8.537314978055948
      ],
      [
        "▁kuona",
        -8.539942516184414
      ],
      [
        "faham",
        -8.540228374748168
      ],
      [
        "0",
        -8.54086760763505
      ],
      [
        "▁Da",
        -8.540885678381436
      ],
      [
        "R",
        -8.541593416385389
      ],
      [
        "000",
        -8.542218265588938
      ],
      [
        "▁App",
        -8.544888426629784
      ],
      [
        "ata",
        -8.548864964083762
      ],
      [
        "eleke",
        -8.551555892139364
      ],
      [
        "uzi",
        -8.552260283714077
      ],
      [
        "al",
        -8.552379422038008
      ],
      [
        "▁il",
        -8.55472124659229
      ],
      [
        "SI",
        -8.554981091061357
      ],
      [
        "pya",
        -8.560474657081748
      ],
      [
        "▁ulio",
        -8.563806799669543
      ],
      [
        "dala",
        -8.564797226294296
      ],
      [
        "ongez",
        -8.565887409516794
      ],
      [
        "▁LA",
        -8.565915314328628
      ],
      [
        "▁Re",
        -8.567753606514671
      ],
      [
        "tion",
        -8.569217037743254
      ],
      [
        "abari",
        -8.572560537621705
      ],
      [
        "pi",
        -8.573436511541763
      ],
      [
        "▁al",
        -8.579226131987419
      ],
      [
        "ds",
        -8.580764108605196
      ],
      [
        "engo",
        -8.582309067173597
      ],
      [
        "▁me",
        -8.582384715632568
      ],
      [
        "▁Wizara",
        -8.58455870682728
      ],
      [
        "▁madini",
        -8.585293464872167
      ],
      [
        "ESA",
        -8.586287349566174
      ],
      [
        "▁letu",
        -8.58766930641633
      ],
      [
        "▁mago",
        -8.587825203358864
      ],
      [
        "uli",
        -8.588659676445205
      ],
      [
        "ers",
        -8.588909573994332
      ],
      [
        "▁mwenyewe",
        -8.588963826303429
      ],
      [
        "▁peke",
        -8.589326677157661
      ],
      [
        "▁Be",
        -8.59300463942678
      ],
      [
        "▁Pa",
        -8.593753274968037
      ],
      [
        "shinda",
        -8.593790357195541
      ],
      [
        "onekan",
        -8.594133955502322
      ],
      [
        "lia",
        -8.59483536823687
      ],
      [
        "▁kut",
        -8.59636285652153
      ],
      [
        "▁Od",
        -8.596454365566395
      ],
      [
        "▁kiing",
        -8.59647264503425
      ],
      [
        "▁sh",
        -8.597008015750383
      ],
      [
        "ry",
        -8.598451761233102
      ],
      [
        "▁baba",
        -8.599582730951433
      ],
      [
        "▁ch",
        -8.60021276248405
      ],
      [
        "▁Y",
        -8.600837845498555
      ],
      [
        "ua",
        -8.601694509191965
      ],
      [
        "▁kab",
        -8.603677364826526
      ],
      [
        "nza",
        -8.603982888082427
      ],
      [
        "▁An",
        -8.604178356346795
      ],
      [
        "RU",
        -8.605295464861094
      ],
      [
        "gwa",
        -8.607783161662653
      ],
      [
        "▁Ru",
        -8.611425405615485
      ],
      [
        "itwa",
        -8.612701552190229
      ],
      [
        "▁ra",
        -8.613223738076213
      ],
      [
        "lipa",
        -8.615357253756015
      ],
      [
        "ilikuwa",
        -8.616639903081492
      ],
      [
        "unge",
        -8.616643747005202
      ],
      [
        "▁KU",
        -8.617060984614819
      ],
      [
        "▁ile",
        -8.617118971276122
      ],
      [
        "▁ukiwa",
        -8.621159084384676
      ],
      [
        "▁salam",
        -8.624631443883437
      ],
      [
        "W",
        -8.625842662275954
      ],
      [
        "ol",
        -8.62716936122714
      ],
      [
        "▁Ta",
        -8.628389915514628
      ],
      [
        "▁map",
        -8.628397207754999
      ],
      [
        "▁Mas",
        -8.629474918419403
      ],
      [
        "asisi",
        -8.629872710756
      ],
      [
        "ondo",
        -8.629986802633539
      ],
      [
        "tafuta",
        -8.629992562357579
      ],
      [
        "▁kuli",
        -8.631629990784282
      ],
      [
        "zungumz",
        -8.632830488802687
      ],
      [
        "▁kuju",
        -8.634612187306445
      ],
      [
        "afya",
        -8.63785295994736
      ],
      [
        "▁MB",
        -8.639052862764474
      ],
      [
        "▁kwen",
        -8.639942358871119
      ],
      [
        "singi",
        -8.64010033283544
      ],
      [
        "D",
        -8.64171068772038
      ],
      [
        "kuru",
        -8.643155950410582
      ],
      [
        "jali",
        -8.645303470621963
      ],
      [
        "kumbuka",
        -8.646521616584021
      ],
      [
        "dha",
        -8.647481253770305
      ],
      [
        "ment",
        -8.647601362128231
      ],
      [
        "ege",
        -8.647920308500655
      ],
      [
        "▁Kwani",
        -8.649224969673568
      ],
      [
        "▁mke",
        -8.65107470642157
      ],
      [
        "dawa",
        -8.654925156048128
      ],
      [
        "▁Ana",
        -8.656927235212915
      ],
      [
        "riki",
        -8.657974571725028
      ],
      [
        "▁kifu",
        -8.658070651933116
      ],
      [
        "boresha",
        -8.659989514304076
      ],
      [
        "▁uka",
        -8.661553719317345
      ],
      [
        "▁Ali",
        -8.662050260979559
      ],
      [
        "inga",
        -8.66307909523005
      ],
      [
        "▁ms",
        -8.66765726656715
      ],
      [
        "Ndugu",
        -8.668056641481188
      ],
      [
        "▁yanayo",
        -8.670093918061887
      ],
      [
        "K",
        -8.671264047296432
      ],
      [
        "▁swal",
        -8.67128603160611
      ],
      [
        "▁chu",
        -8.671959815431405
      ],
      [
        "▁De",
        -8.67361269356225
      ],
      [
        "oyo",
        -8.673630073465642
      ],
      [
        "▁kushind",
        -8.676219468187986
      ],
      [
        "mwambi",
        -8.67795293940025
      ],
      [
        "▁wilaya",
        -8.679228811931615
      ],
      [
        "▁wale",
        -8.681804206164225
      ],
      [
        "▁v",
        -8.68385675894492
      ],
      [
        "▁ujum",
        -8.684169787725182
      ],
      [
        "▁Live",
        -8.684940674295408
      ],
      [
        "▁mfan",
        -8.685542011549732
      ],
      [
        "▁8",
        -8.686694943732904
      ],
      [
        "▁Wilaya",
        -8.686854906247547
      ],
      [
        "▁kiswahili",
        -8.688029216616505
      ],
      [
        "▁lain",
        -8.688338551816276
      ],
      [
        "▁nyuma",
        -8.688869341969628
      ],
      [
        "one",
        -8.688935501292697
      ],
      [
        "miliki",
        -8.689358201602717
      ],
      [
        "▁Mwana",
        -8.68951652233348
      ],
      [
        "▁Mara",
        -8.691491148006323
      ],
      [
        "▁inbox",
        -8.691958598401444
      ],
      [
        "▁mwingi",
        -8.692294205363744
      ],
      [
        "▁kup",
        -8.692569900561645
      ],
      [
        "che",
        -8.695361851380124
      ],
      [
        "▁jamaa",
        -8.69584853827207
      ],
      [
        "V",
        -8.695970174374455
      ],
      [
        "▁vyet",
        -8.696966382858076
      ],
      [
        "▁Lig",
        -8.69718455540555
      ],
      [
        "▁Mi",
        -8.698336772915765
      ],
      [
        "itali",
        -8.699892386068866
      ],
      [
        "▁Poli",
        -8.701972650236211
      ],
      [
        "post",
        -8.702183414119633
      ],
      [
        "▁kina",
        -8.704724823047925
      ],
      [
        "▁zita",
        -8.706336298333952
      ],
      [
        "nusu",
        -8.706737880145832
      ],
      [
        "▁TA",
        -8.70868448038275
      ],
      [
        "▁vipi",
        -8.709089087432748
      ],
      [
        "etweet",
        -8.709702558620268
      ],
      [
        "ed",
        -8.71031368153969
      ],
      [
        "ing",
        -8.711485409956243
      ],
      [
        "▁Bi",
        -8.712448132998922
      ],
      [
        "▁Mhe",
        -8.714506058695173
      ],
      [
        "▁hi",
        -8.71611945317492
      ],
      [
        "oro",
        -8.716922584654649
      ],
      [
        "▁chin",
        -8.717415348346863
      ],
      [
        "▁kuwek",
        -8.71741988777689
      ],
      [
        "dau",
        -8.719592914728024
      ],
      [
        "leng",
        -8.720117979285945
      ],
      [
        "line",
        -8.720616581404146
      ],
      [
        "zuia",
        -8.720624849630415
      ],
      [
        "▁Ji",
        -8.721968071750963
      ],
      [
        "nasema",
        -8.722150308181847
      ],
      [
        "ema",
        -8.722572496007318
      ],
      [
        "▁mwali",
        -8.722892087195923
      ],
      [
        "700",
        -8.730976997167044
      ],
      [
        "▁g",
        -8.732479395074742
      ],
      [
        "hani",
        -8.732862535651249
      ],
      [
        "kumu",
        -8.733887897203628
      ],
      [
        "▁kutok",
        -8.734373079725998
      ],
      [
        "bali",
        -8.734888275445396
      ],
      [
        "▁yey",
        -8.73519608815445
      ],
      [
        "kani",
        -8.737543015322258
      ],
      [
        "P",
        -8.737898600453509
      ],
      [
        "tegeme",
        -8.739866767189149
      ],
      [
        "▁Hal",
        -8.745220168081445
      ],
      [
        "▁O",
        -8.74630346444856
      ],
      [
        "ache",
        -8.747929182061416
      ],
      [
        "▁Hatu",
        -8.748494204281737
      ],
      [
        "isi",
        -8.748639648492956
      ],
      [
        "ajiri",
        -8.749181029973961
      ],
      [
        "▁Mwenye",
        -8.749607277396871
      ],
      [
        "id",
        -8.750417393486261
      ],
      [
        "endelee",
        -8.751812842573822
      ],
      [
        "ujibu",
        -8.755788733285
      ],
      [
        "iongoz",
        -8.755853511973982
      ],
      [
        "▁Ba",
        -8.755969185558886
      ],
      [
        "iti",
        -8.756743983283561
      ],
      [
        "shindw",
        -8.758379268174934
      ],
      [
        "ziki",
        -8.758766212254866
      ],
      [
        "zito",
        -8.759970815682689
      ],
      [
        "▁Nd",
        -8.761536865981137
      ],
      [
        "▁kutu",
        -8.763664525409537
      ],
      [
        "biri",
        -8.76420157247807
      ],
      [
        "▁saf",
        -8.76479321535799
      ],
      [
        "pita",
        -8.765435483865756
      ],
      [
        "bunge",
        -8.77492194124938
      ],
      [
        "lea",
        -8.775416058590281
      ],
      [
        "▁chagu",
        -8.77712720405971
      ],
      [
        "▁zi",
        -8.777407690194561
      ],
      [
        "▁huy",
        -8.777902329487098
      ],
      [
        "▁wafanya",
        -8.779405516396576
      ],
      [
        "yote",
        -8.779872370780193
      ],
      [
        "ira",
        -8.780921589008793
      ],
      [
        "refu",
        -8.781406185245185
      ],
      [
        "▁Elim",
        -8.78140830190419
      ],
      [
        "▁kui",
        -8.782067785307227
      ],
      [
        "▁bar",
        -8.782319718466374
      ],
      [
        "▁nafa",
        -8.784081851296708
      ],
      [
        "▁Za",
        -8.784179904919483
      ],
      [
        "▁unam",
        -8.786042758284625
      ],
      [
        "itia",
        -8.786317624996812
      ],
      [
        "F",
        -8.787316672160651
      ],
      [
        "she",
        -8.787771531328639
      ],
      [
        "▁Tuta",
        -8.787910042090711
      ],
      [
        "ozi",
        -8.789117068736353
      ],
      [
        "kuongez",
        -8.789514243033654
      ],
      [
        "apo",
        -8.789592625716308
      ],
      [
        "uduma",
        -8.791281770586634
      ],
      [
        "cho",
        -8.792184792058247
      ],
      [
        "fari",
        -8.792340181124334
      ],
      [
        "▁kupungu",
        -8.792423752906812
      ],
      [
        "ARI",
        -8.792865519564511
      ],
      [
        "▁polisi",
        -8.795651826823907
      ],
      [
        "CO",
        -8.795659227991806
      ],
      [
        "▁ofisi",
        -8.795767257876273
      ],
      [
        "▁Wananchi",
        -8.7957958421608
      ],
      [
        "vuti",
        -8.796051984044077
      ],
      [
        "gufu",
        -8.796773791835921
      ],
      [
        "▁acc",
        -8.796873505905173
      ],
      [
        "▁Cit",
        -8.797236733749342
      ],
      [
        "▁tuandiki",
        -8.799278478692704
      ],
      [
        "▁Mare",
        -8.79929797653713
      ],
      [
        "▁Mbunge",
        -8.799722279935688
      ],
      [
        "igo",
        -8.801359185951355
      ],
      [
        "▁mzee",
        -8.801386182326008
      ],
      [
        "▁wilayani",
        -8.801418276079303
      ],
      [
        "x",
        -8.801887293099023
      ],
      [
        "▁intaneti",
        -8.802254180067957
      ],
      [
        "▁haja",
        -8.802414467148996
      ],
      [
        "▁300",
        -8.80289945225259
      ],
      [
        "▁chanel",
        -8.803346407078916
      ],
      [
        "▁Februar",
        -8.803970206702568
      ],
      [
        "urug",
        -8.805105250020802
      ],
      [
        "▁wenu",
        -8.805230924179476
      ],
      [
        "▁Nchi",
        -8.806604495736309
      ],
      [
        "▁Aza",
        -8.807591607484664
      ],
      [
        "▁uk",
        -8.808375176703406
      ],
      [
        "fa",
        -8.808846833676313
      ],
      [
        "ze",
        -8.809236140749531
      ],
      [
        "▁Mr",
        -8.809573488641519
      ],
      [
        "▁haraka",
        -8.810695711353238
      ],
      [
        "th",
        -8.810986937465247
      ],
      [
        "▁kwetu",
        -8.81146528447415
      ],
      [
        "una",
        -8.81171666471204
      ],
      [
        "DEM",
        -8.812635001564336
      ],
      [
        "▁us",
        -8.813405390669901
      ],
      [
        "▁shi",
        -8.813906044718479
      ],
      [
        "▁ny",
        -8.814240143437328
      ],
      [
        "janja",
        -8.815072399690491
      ],
      [
        "▁it",
        -8.815368408972427
      ],
      [
        "▁MA",
        -8.817706749287957
      ],
      [
        "baki",
        -8.81961351651341
      ],
      [
        "▁mzi",
        -8.820769878113776
      ],
      [
        "rahisi",
        -8.823216610037518
      ],
      [
        "8",
        -8.824272732301829
      ],
      [
        "usi",
        -8.824340900634798
      ],
      [
        "ataifa",
        -8.824781607605598
      ],
      [
        "hari",
        -8.826149373249883
      ],
      [
        "wek",
        -8.827542184591692
      ],
      [
        "▁Mk",
        -8.827556516199198
      ],
      [
        "▁mpang",
        -8.828596441516819
      ],
      [
        "shindi",
        -8.829167799108847
      ],
      [
        "H",
        -8.830430671382425
      ],
      [
        "ard",
        -8.831158339846473
      ],
      [
        "AIS",
        -8.832765602893538
      ],
      [
        "ru",
        -8.83649926713543
      ],
      [
        "KI",
        -8.838429258758172
      ],
      [
        "▁siju",
        -8.839073306202156
      ],
      [
        "▁he",
        -8.83930017926378
      ],
      [
        "nuari",
        -8.839392251608814
      ],
      [
        "il",
        -8.83977159156478
      ],
      [
        "dhi",
        -8.840212362652567
      ],
      [
        "5",
        -8.842245666518101
      ],
      [
        "▁lini",
        -8.842808261058781
      ],
      [
        "▁Au",
        -8.842990853493669
      ],
      [
        "▁kipa",
        -8.844946966214454
      ],
      [
        "pati",
        -8.846159317379893
      ],
      [
        "▁akiwa",
        -8.847228380444635
      ],
      [
        "ombe",
        -8.847593831776843
      ],
      [
        "punguz",
        -8.850209342096349
      ],
      [
        "▁tuki",
        -8.850634438003201
      ],
      [
        "▁18",
        -8.850651675817272
      ],
      [
        "ule",
        -8.851403027675133
      ],
      [
        "▁sina",
        -8.851642444867752
      ],
      [
        "▁30",
        -8.85196473947974
      ],
      [
        "hiyo",
        -8.853722518619632
      ],
      [
        "se",
        -8.857302720249882
      ],
      [
        "pe",
        -8.857433760172924
      ],
      [
        "▁ipo",
        -8.857917657015143
      ],
      [
        "▁25",
        -8.858601945795497
      ],
      [
        "tutumi",
        -8.859862846784056
      ],
      [
        "▁DS",
        -8.86280742298805
      ],
      [
        "ZO",
        -8.863397532175615
      ],
      [
        "adi",
        -8.86365164293803
      ],
      [
        "▁kipin",
        -8.866414411449979
      ],
      [
        "en",
        -8.866947297542136
      ],
      [
        "▁kasi",
        -8.867331961331763
      ],
      [
        "kia",
        -8.867516559097997
      ],
      [
        "▁Up",
        -8.868049942068044
      ],
      [
        "wi",
        -8.868522196916064
      ],
      [
        "fadhi",
        -8.869203157774056
      ],
      [
        "▁tofauti",
        -8.86921089585027
      ],
      [
        "▁fa",
        -8.869228993166418
      ],
      [
        "ly",
        -8.869262091274207
      ],
      [
        "chuku",
        -8.869930133678587
      ],
      [
        "pongez",
        -8.872165279672133
      ],
      [
        "subiri",
        -8.872862281398437
      ],
      [
        "▁masa",
        -8.875302277289734
      ],
      [
        "▁kwake",
        -8.875767570515462
      ],
      [
        "▁chak",
        -8.878454954185843
      ],
      [
        "▁inaku",
        -8.87878354460594
      ],
      [
        "afiki",
        -8.879275444252482
      ],
      [
        "▁zime",
        -8.880089355879665
      ],
      [
        "ondoka",
        -8.88122846261177
      ],
      [
        "ereza",
        -8.883101539938242
      ],
      [
        "▁upa",
        -8.884237324949378
      ],
      [
        "▁We",
        -8.885738312524929
      ],
      [
        "▁Mbe",
        -8.888076624365727
      ],
      [
        "ashiri",
        -8.888242623609292
      ],
      [
        "▁wanafu",
        -8.888485421192007
      ],
      [
        "▁13",
        -8.889485835551223
      ],
      [
        "▁the",
        -8.890122573179989
      ],
      [
        "▁ji",
        -8.89149811555524
      ],
      [
        "▁tuli",
        -8.893065107574515
      ],
      [
        "▁hal",
        -8.893574779292296
      ],
      [
        "▁wak",
        -8.894158231278215
      ],
      [
        "▁th",
        -8.89716891644273
      ],
      [
        "22",
        -8.897881880648374
      ],
      [
        "▁Ndi",
        -8.898746675769432
      ],
      [
        "▁mane",
        -8.899335580629984
      ],
      [
        "eno",
        -8.89946547093774
      ],
      [
        "tengeneza",
        -8.901329182473894
      ],
      [
        "▁31",
        -8.901348815523896
      ],
      [
        "▁mko",
        -8.90162158459837
      ],
      [
        "mb",
        -8.901872721557464
      ],
      [
        "amba",
        -8.902421851932894
      ],
      [
        "jiji",
        -8.902433588223321
      ],
      [
        "UNGU",
        -8.902585902892755
      ],
      [
        "▁hay",
        -8.902795525058963
      ],
      [
        "▁Li",
        -8.903215791080761
      ],
      [
        "aarifa",
        -8.903891996091446
      ],
      [
        "zaji",
        -8.904281330395367
      ],
      [
        "baya",
        -8.906845958252216
      ],
      [
        "▁Baad",
        -8.906932489057887
      ],
      [
        "▁mwa",
        -8.908203972482152
      ],
      [
        "▁ut",
        -8.90949079216049
      ],
      [
        "tia",
        -8.90994131182598
      ],
      [
        "mia",
        -8.910922712615182
      ],
      [
        "▁So",
        -8.91601744743063
      ],
      [
        "▁kuingi",
        -8.916897910245837
      ],
      [
        "▁yame",
        -8.918086768918986
      ],
      [
        "kabili",
        -8.918323560002628
      ],
      [
        "ovu",
        -8.918950419420122
      ],
      [
        "▁NI",
        -8.919842624883504
      ],
      [
        "020",
        -8.920420291005652
      ],
      [
        "▁Zantel",
        -8.920511342258704
      ],
      [
        "▁uliojitokeza",
        -8.920614095773118
      ],
      [
        "if",
        -8.920726050165984
      ],
      [
        "▁video",
        -8.92077817298836
      ],
      [
        "▁Zaidi",
        -8.92083047155015
      ],
      [
        "▁asubuh",
        -8.920876353903347
      ],
      [
        "▁michezo",
        -8.921184928871831
      ],
      [
        "▁maalum",
        -8.922654088720527
      ],
      [
        "▁500",
        -8.924014023816733
      ],
      [
        "UHU",
        -8.924109693749196
      ],
      [
        "au",
        -8.925225129066607
      ],
      [
        "▁Pi",
        -8.92537492697042
      ],
      [
        "▁jinsi",
        -8.925441763124702
      ],
      [
        "▁SS",
        -8.925667218192585
      ],
      [
        "fanikiwa",
        -8.925753685631946
      ],
      [
        "rushi",
        -8.926705465807519
      ],
      [
        "▁ajira",
        -8.927974998853436
      ],
      [
        "▁miundo",
        -8.928043233751623
      ],
      [
        "jiunga",
        -8.92823905682762
      ],
      [
        "wali",
        -8.929522061560291
      ],
      [
        "▁ulipo",
        -8.93013157987817
      ],
      [
        "▁Ume",
        -8.930170562689117
      ],
      [
        "funga",
        -8.930287667181616
      ],
      [
        "▁China",
        -8.930375971907795
      ],
      [
        "kama",
        -8.93088734257737
      ],
      [
        "▁bro",
        -8.932018422483004
      ],
      [
        "ar",
        -8.933031487722666
      ],
      [
        "epo",
        -8.935085004830851
      ],
      [
        "yari",
        -8.93546199186562
      ],
      [
        "▁kud",
        -8.935721377950967
      ],
      [
        "▁Tatiz",
        -8.935934652920515
      ],
      [
        "ati",
        -8.937769630757774
      ],
      [
        "▁vye",
        -8.937911924258186
      ],
      [
        "▁benki",
        -8.938428007463726
      ],
      [
        "▁Ile",
        -8.945079224810039
      ],
      [
        "▁Sp",
        -8.946502902221125
      ],
      [
        "sahau",
        -8.946604964120375
      ],
      [
        "▁Mwan",
        -8.946691281011313
      ],
      [
        "▁MO",
        -8.947673881226523
      ],
      [
        "ASI",
        -8.947935380160036
      ],
      [
        "push",
        -8.952164991359957
      ],
      [
        "kuja",
        -8.953496358381795
      ],
      [
        "▁wazi",
        -8.954538847737016
      ],
      [
        "RA",
        -8.955723442356115
      ],
      [
        "▁Nisha",
        -8.95580452926571
      ],
      [
        "sasa",
        -8.955946870308054
      ],
      [
        "▁Ro",
        -8.9566628546606
      ],
      [
        "▁Ga",
        -8.956767935998768
      ],
      [
        "▁Am",
        -8.957277884893948
      ],
      [
        "umbu",
        -8.95748037480967
      ],
      [
        "▁mz",
        -8.957597507678702
      ],
      [
        "tufahamish",
        -8.957761416126328
      ],
      [
        "▁kipi",
        -8.958429992336942
      ],
      [
        "tuna",
        -8.958439230215124
      ],
      [
        "mereje",
        -8.959482188488884
      ],
      [
        "endele",
        -8.959745752204446
      ],
      [
        "▁waju",
        -8.959901327893487
      ],
      [
        "ng",
        -8.960393356919354
      ],
      [
        "ifu",
        -8.960732775833609
      ],
      [
        "▁ujen",
        -8.961679369203198
      ],
      [
        "fupi",
        -8.961805387028896
      ],
      [
        "jami",
        -8.96216690385607
      ],
      [
        "▁tigo",
        -8.963840507996585
      ],
      [
        "chagu",
        -8.96386570781738
      ],
      [
        "let",
        -8.964284329433195
      ],
      [
        "ongoza",
        -8.965704386284894
      ],
      [
        "▁maen",
        -8.966102611290792
      ],
      [
        "amua",
        -8.966372627027079
      ],
      [
        "▁Ben",
        -8.966558374305308
      ],
      [
        "▁li",
        -8.968528328113315
      ],
      [
        "▁Nam",
        -8.96888977763045
      ],
      [
        "▁7",
        -8.970587986291271
      ],
      [
        "wanja",
        -8.970762507282185
      ],
      [
        "ogo",
        -8.972318897495006
      ],
      [
        "jumaa",
        -8.973511391046774
      ],
      [
        "▁kis",
        -8.974495066335828
      ],
      [
        "lingi",
        -8.974634599579776
      ],
      [
        "lima",
        -8.975130699101172
      ],
      [
        "▁Ten",
        -8.975619852388256
      ],
      [
        "▁Vij",
        -8.975623315184926
      ],
      [
        "▁humu",
        -8.975686206493839
      ],
      [
        "nyama",
        -8.975709221997217
      ],
      [
        "1",
        -8.97728068211795
      ],
      [
        "fanye",
        -8.977847469869998
      ],
      [
        "2018",
        -8.97791217393736
      ],
      [
        "▁hio",
        -8.979675922635968
      ],
      [
        "ss",
        -8.980432258130369
      ],
      [
        "▁Hata",
        -8.981470289081827
      ],
      [
        "▁kwako",
        -8.983358499542051
      ],
      [
        "IA",
        -8.983469935272156
      ],
      [
        "guzi",
        -8.983823144335656
      ],
      [
        "▁wao",
        -8.98462792571673
      ],
      [
        "tik",
        -8.985534747909345
      ],
      [
        "▁mchang",
        -8.986153087019542
      ],
      [
        "akiwa",
        -8.986365899377814
      ],
      [
        "▁Ny",
        -8.987252755578524
      ],
      [
        "▁muhi",
        -8.988265257214527
      ],
      [
        "wango",
        -8.989366025337723
      ],
      [
        "jui",
        -8.990399145613406
      ],
      [
        "▁Sh",
        -8.99107033826233
      ],
      [
        "salam",
        -8.992277263432728
      ],
      [
        "▁asili",
        -8.99263994980272
      ],
      [
        "oja",
        -8.995978161585303
      ],
      [
        "▁maele",
        -8.996062178467207
      ],
      [
        "▁Ms",
        -8.998427759277403
      ],
      [
        "▁ndiy",
        -9.000956121421433
      ],
      [
        "▁je",
        -9.00106288723429
      ],
      [
        "▁Bal",
        -9.001300417831153
      ],
      [
        "pira",
        -9.003200309345495
      ],
      [
        "ssan",
        -9.003268417350046
      ],
      [
        "tambu",
        -9.005151137142503
      ],
      [
        "▁Il",
        -9.007435159558582
      ],
      [
        "45",
        -9.007877344758082
      ],
      [
        "unga",
        -9.00853861745884
      ],
      [
        "▁201",
        -9.008630721928226
      ],
      [
        "▁Se",
        -9.009290701783936
      ],
      [
        "idi",
        -9.009953167121674
      ],
      [
        "▁Mag",
        -9.010122770999054
      ],
      [
        "▁aka",
        -9.011219855931834
      ],
      [
        "4",
        -9.015348412878192
      ],
      [
        "ocha",
        -9.016252602120332
      ],
      [
        "kubali",
        -9.016464574442113
      ],
      [
        "▁Nili",
        -9.017081080503061
      ],
      [
        "itiha",
        -9.018722613819572
      ],
      [
        "▁Lu",
        -9.01901510541148
      ],
      [
        "inu",
        -9.020253237367776
      ],
      [
        "aadhi",
        -9.020975015939621
      ],
      [
        "UU",
        -9.021000169603663
      ],
      [
        "▁Tun",
        -9.027865621500418
      ],
      [
        "lim",
        -9.028880123295476
      ],
      [
        "pend",
        -9.028939734920195
      ],
      [
        "▁ras",
        -9.02905880131194
      ],
      [
        "st",
        -9.029287734534538
      ],
      [
        "njo",
        -9.029499228947873
      ],
      [
        "follow",
        -9.030123433482892
      ],
      [
        "zingati",
        -9.030486801627884
      ],
      [
        "▁Cham",
        -9.030670046512633
      ],
      [
        "▁kija",
        -9.030782542283687
      ],
      [
        "▁Maji",
        -9.031358609139065
      ],
      [
        "▁kes",
        -9.032910907539621
      ],
      [
        "KO",
        -9.033060766262082
      ],
      [
        "LA",
        -9.03321408051028
      ],
      [
        "▁Mam",
        -9.03492112840335
      ],
      [
        "▁In",
        -9.035846064754049
      ],
      [
        "▁kik",
        -9.039203436971977
      ],
      [
        "bo",
        -9.040712233860212
      ],
      [
        "AZI",
        -9.041225026450247
      ],
      [
        "io",
        -9.041672005895405
      ],
      [
        "▁of",
        -9.042678254821363
      ],
      [
        "end",
        -9.04444111597651
      ],
      [
        "▁Mwak",
        -9.045506140508573
      ],
      [
        "▁kubadili",
        -9.045567964715353
      ],
      [
        "simam",
        -9.046679371517278
      ],
      [
        "ruhus",
        -9.048369870172225
      ],
      [
        "▁kumi",
        -9.048582028348001
      ],
      [
        "shwa",
        -9.048895361345632
      ],
      [
        "▁ja",
        -9.049143459426281
      ],
      [
        "▁Bu",
        -9.051339316205496
      ],
      [
        "kusaidia",
        -9.051472157850984
      ],
      [
        "va",
        -9.053477591316769
      ],
      [
        "uungan",
        -9.05781948448371
      ],
      [
        "ANI",
        -9.057838334844933
      ],
      [
        "eleza",
        -9.057893708433875
      ],
      [
        "▁maza",
        -9.058359471358493
      ],
      [
        "eo",
        -9.05846989473215
      ],
      [
        "FA",
        -9.059450005510191
      ],
      [
        "vumilivu",
        -9.06057654514126
      ],
      [
        "tengenez",
        -9.061612108556796
      ],
      [
        "wake",
        -9.0624720880928
      ],
      [
        "▁Vodacom",
        -9.063352263526847
      ],
      [
        "▁14800",
        -9.063357962855513
      ],
      [
        "▁Hosp",
        -9.063358267973376
      ],
      [
        "▁miguu",
        -9.063417121136096
      ],
      [
        "▁Coco",
        -9.063438935991885
      ],
      [
        "▁Whats",
        -9.063682665125445
      ],
      [
        "▁ufafanuz",
        -9.063686399541618
      ],
      [
        "▁Shukran",
        -9.06385566819251
      ],
      [
        "▁mp",
        -9.063904320713764
      ],
      [
        "▁Jam",
        -9.064241488199343
      ],
      [
        "RO",
        -9.064608777490266
      ],
      [
        "▁Sam",
        -9.064613553897901
      ],
      [
        "▁ziara",
        -9.064922443028586
      ],
      [
        "▁kip",
        -9.06494615534847
      ],
      [
        "fik",
        -9.065045199467615
      ],
      [
        "▁Jiji",
        -9.06626178304538
      ],
      [
        "▁Ndan",
        -9.066502165829215
      ],
      [
        "hsante",
        -9.066979161181385
      ],
      [
        "▁Makam",
        -9.067623272133819
      ],
      [
        "▁Sta",
        -9.069684380351143
      ],
      [
        "▁KWEND",
        -9.06969049841814
      ],
      [
        "mosi",
        -9.070975762799135
      ],
      [
        "▁promo",
        -9.07108059104558
      ],
      [
        "▁duka",
        -9.071120545966599
      ],
      [
        "ful",
        -9.071243841185387
      ],
      [
        "▁Ili",
        -9.071758993688857
      ],
      [
        "acha",
        -9.07353724990538
      ],
      [
        "▁unatak",
        -9.074436279006184
      ],
      [
        "iki",
        -9.074569971392055
      ],
      [
        "amuzi",
        -9.07507190159955
      ],
      [
        "▁and",
        -9.076397126860495
      ],
      [
        "▁endele",
        -9.07669805666032
      ],
      [
        "anda",
        -9.078645268743987
      ],
      [
        "▁liki",
        -9.07905983868108
      ],
      [
        "wasilish",
        -9.080884542823863
      ],
      [
        "▁kat",
        -9.081418684651613
      ],
      [
        "or",
        -9.082164834974073
      ],
      [
        "ere",
        -9.082341313622454
      ],
      [
        "nk",
        -9.082934678054391
      ],
      [
        "▁kulip",
        -9.0835613478389
      ],
      [
        "▁kufiki",
        -9.083620471015937
      ],
      [
        "▁mira",
        -9.08563532013165
      ],
      [
        "▁Pesa",
        -9.08630667392736
      ],
      [
        "wili",
        -9.086342919772447
      ],
      [
        "hibiti",
        -9.086995165728808
      ],
      [
        "▁kusom",
        -9.087297228899427
      ],
      [
        "▁unapat",
        -9.090134644685298
      ],
      [
        "▁kuf",
        -9.090566955681181
      ],
      [
        "▁you",
        -9.091772420522224
      ],
      [
        "gumu",
        -9.094314011391289
      ],
      [
        "ca",
        -9.095251241557664
      ],
      [
        "▁siri",
        -9.09601874490527
      ],
      [
        "TA",
        -9.096180298519657
      ],
      [
        "and",
        -9.096396883531465
      ],
      [
        "▁Un",
        -9.096704996870088
      ],
      [
        "▁Um",
        -9.097998269922295
      ],
      [
        "ele",
        -9.099330861724551
      ],
      [
        "fuata",
        -9.099345628972218
      ],
      [
        "▁kitab",
        -9.101073644836466
      ],
      [
        "▁Bus",
        -9.101101767428492
      ],
      [
        "zidi",
        -9.105175400890586
      ],
      [
        "▁Tanga",
        -9.107106810276461
      ],
      [
        "▁vido",
        -9.107588457696034
      ],
      [
        "19",
        -9.10815744879336
      ],
      [
        "▁kisa",
        -9.10818979610119
      ],
      [
        "tag",
        -9.10876742719413
      ],
      [
        "agiza",
        -9.108820034913105
      ],
      [
        "▁Zi",
        -9.10926991291137
      ],
      [
        "▁walim",
        -9.110338211396812
      ],
      [
        "▁ushind",
        -9.112081896882108
      ],
      [
        "▁sur",
        -9.112774722682776
      ],
      [
        "amu",
        -9.113492419550422
      ],
      [
        "▁Nji",
        -9.114240080082837
      ],
      [
        "▁mil",
        -9.114873847277387
      ],
      [
        "▁Ut",
        -9.115427284352425
      ],
      [
        "tangu",
        -9.115440775904336
      ],
      [
        "▁mme",
        -9.116006499167636
      ],
      [
        "▁upend",
        -9.116627585274397
      ],
      [
        "nu",
        -9.116674146895392
      ],
      [
        "▁tawi",
        -9.11735227998897
      ],
      [
        "gereza",
        -9.117399850774504
      ],
      [
        "▁Ke",
        -9.119476311192825
      ],
      [
        "rudi",
        -9.119564652271778
      ],
      [
        "▁Mku",
        -9.12004905757691
      ],
      [
        "▁Sim",
        -9.120329278755872
      ],
      [
        "tibu",
        -9.12167279239293
      ],
      [
        "abiri",
        -9.122836518381918
      ],
      [
        "▁mahal",
        -9.122953014697735
      ],
      [
        "wezi",
        -9.123402990108826
      ],
      [
        "▁nina",
        -9.123679848854128
      ],
      [
        "▁sup",
        -9.124972951094078
      ],
      [
        "kimbi",
        -9.12498877849593
      ],
      [
        "▁Fa",
        -9.126239209451104
      ],
      [
        "▁AF",
        -9.126308242418594
      ],
      [
        "WI",
        -9.127919647963054
      ],
      [
        "▁Hel",
        -9.12890337094172
      ],
      [
        "▁Bil",
        -9.12912236263079
      ],
      [
        "▁9",
        -9.129554028995846
      ],
      [
        "▁Uv",
        -9.131647699282647
      ],
      [
        "wanda",
        -9.131888215692793
      ],
      [
        "EMA",
        -9.132184838612606
      ],
      [
        "▁kuchagu",
        -9.134138717306325
      ],
      [
        "ile",
        -9.134308781872356
      ],
      [
        "eli",
        -9.134683425945994
      ],
      [
        "▁iwe",
        -9.135051483202076
      ],
      [
        "chezo",
        -9.136028530766916
      ],
      [
        "▁utapat",
        -9.13663743973737
      ],
      [
        "pole",
        -9.136662621208536
      ],
      [
        "sababish",
        -9.136733892100416
      ],
      [
        "▁fik",
        -9.137193235127526
      ],
      [
        "▁Mtu",
        -9.13766070931748
      ],
      [
        "kose",
        -9.138588364573055
      ],
      [
        "gu",
        -9.138939930582605
      ],
      [
        "sikiliza",
        -9.140146792691546
      ],
      [
        "ututumi",
        -9.141077767368397
      ],
      [
        "▁unapo",
        -9.141291695482153
      ],
      [
        "▁mk",
        -9.144152311759537
      ],
      [
        "TI",
        -9.145372162000388
      ],
      [
        "ivu",
        -9.145499145084095
      ],
      [
        "▁iki",
        -9.14673191763254
      ],
      [
        "▁Haki",
        -9.146841231830164
      ],
      [
        "lub",
        -9.149100129130527
      ],
      [
        "▁kijan",
        -9.152633532218815
      ],
      [
        "▁Usha",
        -9.152663461209121
      ],
      [
        "jitahidi",
        -9.152758892508947
      ],
      [
        "jana",
        -9.153031364005905
      ],
      [
        "laya",
        -9.154532011501662
      ],
      [
        "raha",
        -9.156529808533193
      ],
      [
        "moto",
        -9.158185968840275
      ],
      [
        "▁UM",
        -9.158324079451141
      ],
      [
        "hatuna",
        -9.159204449649295
      ],
      [
        "changia",
        -9.159800816051135
      ],
      [
        "atu",
        -9.15989398871796
      ],
      [
        "▁Bab",
        -9.163635045296285
      ],
      [
        "limo",
        -9.16372299580748
      ],
      [
        "▁Laki",
        -9.164615614934785
      ],
      [
        "▁wasi",
        -9.1646982679233
      ],
      [
        "▁Wanawa",
        -9.165610762322194
      ],
      [
        "ation",
        -9.165634739222746
      ],
      [
        "▁lita",
        -9.166597770602301
      ],
      [
        "indi",
        -9.167425156668555
      ],
      [
        "▁wat",
        -9.167547340527873
      ],
      [
        "▁st",
        -9.16838060319501
      ],
      [
        "ango",
        -9.17365178167659
      ],
      [
        "▁sher",
        -9.174590935607531
      ],
      [
        "2019",
        -9.175324717955837
      ],
      [
        "▁co",
        -9.175477960920077
      ],
      [
        "▁kubadilish",
        -9.176731130679242
      ],
      [
        "▁Dak",
        -9.17816245160601
      ],
      [
        "▁mazing",
        -9.178643115138529
      ],
      [
        "▁Men",
        -9.17938226294617
      ],
      [
        "▁gt",
        -9.180524897767306
      ],
      [
        "lse",
        -9.180781917450405
      ],
      [
        "nj",
        -9.181753366327623
      ],
      [
        "▁mchez",
        -9.18440746801479
      ],
      [
        "tofauti",
        -9.186608199866496
      ],
      [
        "kusany",
        -9.186636175431564
      ],
      [
        "heri",
        -9.186798586518087
      ],
      [
        "▁mafun",
        -9.18953026166224
      ],
      [
        "WE",
        -9.190457160448966
      ],
      [
        "▁mkata",
        -9.190674958486959
      ],
      [
        "▁Wak",
        -9.192771156565419
      ],
      [
        "▁Bina",
        -9.192894418712516
      ],
      [
        "▁11",
        -9.193410957526442
      ],
      [
        "▁PA",
        -9.193905671411315
      ],
      [
        "kadi",
        -9.193943718787207
      ],
      [
        "ongea",
        -9.197030631057142
      ],
      [
        "▁kuj",
        -9.197765500739749
      ],
      [
        "dhani",
        -9.199209532925114
      ],
      [
        "ungan",
        -9.199461006988528
      ],
      [
        "ce",
        -9.203797357702184
      ],
      [
        "tuzo",
        -9.204401542342971
      ],
      [
        "▁unao",
        -9.204553676745938
      ],
      [
        "nited",
        -9.206768716303678
      ],
      [
        "▁Uj",
        -9.206814498652205
      ],
      [
        "▁Sek",
        -9.207929781262651
      ],
      [
        "avyo",
        -9.209210392577923
      ],
      [
        "▁lililo",
        -9.210177940843586
      ],
      [
        "ngi",
        -9.211188457920287
      ],
      [
        "uliz",
        -9.21292100882124
      ],
      [
        "▁mal",
        -9.215724952212177
      ],
      [
        "hali",
        -9.215753974201172
      ],
      [
        "badilisha",
        -9.215789583186195
      ],
      [
        "wana",
        -9.21594979045083
      ],
      [
        "▁kuch",
        -9.216850117853891
      ],
      [
        "▁Man",
        -9.217856293744486
      ],
      [
        "ashindan",
        -9.219227140367842
      ],
      [
        "▁Rad",
        -9.220984517520012
      ],
      [
        "▁Jama",
        -9.221476249459476
      ],
      [
        "asema",
        -9.222596643203428
      ],
      [
        "pat",
        -9.223447891725732
      ],
      [
        "liza",
        -9.223900319458634
      ],
      [
        "▁Msi",
        -9.226298598072535
      ],
      [
        "▁usha",
        -9.22706403374859
      ],
      [
        "aadhimish",
        -9.227650236792456
      ],
      [
        "co",
        -9.228564088789575
      ],
      [
        "akati",
        -9.228586300982027
      ],
      [
        "▁mfu",
        -9.22871693008523
      ],
      [
        "▁kukupa",
        -9.229170391663192
      ],
      [
        "akala",
        -9.229382235597615
      ],
      [
        "▁Bon",
        -9.229454575143613
      ],
      [
        "▁MICHEZO",
        -9.230018949536976
      ],
      [
        "▁Joseph",
        -9.230018973763418
      ],
      [
        "▁tukuhudumie",
        -9.230023121191095
      ],
      [
        "▁Novemb",
        -9.230087895593524
      ],
      [
        "▁Barabara",
        -9.230110720062079
      ],
      [
        "▁ajabu",
        -9.230126581590923
      ],
      [
        "▁kutuandikia",
        -9.230267022003115
      ],
      [
        "tazam",
        -9.230525846386723
      ],
      [
        "▁twit",
        -9.23075556470902
      ],
      [
        "▁de",
        -9.230759501319557
      ],
      [
        "▁http",
        -9.230938261608532
      ],
      [
        "▁usafiri",
        -9.23094186661308
      ],
      [
        "ANA",
        -9.231036655259706
      ],
      [
        "▁LIVE",
        -9.231090532416655
      ],
      [
        "▁dhati",
        -9.231505415362575
      ],
      [
        "▁vyote",
        -9.231696565702368
      ],
      [
        "shiriki",
        -9.23174341794928
      ],
      [
        "▁uliopata",
        -9.232085439874382
      ],
      [
        "▁uwanja",
        -9.233300943998085
      ],
      [
        "▁kuandika",
        -9.233555580330655
      ],
      [
        "▁jioni",
        -9.233565271768867
      ],
      [
        "▁mwema",
        -9.234060910607909
      ],
      [
        "▁kam",
        -9.23448242817258
      ],
      [
        "▁amp",
        -9.235081723637046
      ],
      [
        "do",
        -9.235535589245393
      ],
      [
        "adhimish",
        -9.235854132462403
      ],
      [
        "uku",
        -9.236082613730122
      ],
      [
        "timiza",
        -9.236904144941583
      ],
      [
        "orogoro",
        -9.237045208859257
      ],
      [
        "▁20000",
        -9.237141351041606
      ],
      [
        "▁wataalam",
        -9.23746413644681
      ],
      [
        "▁msani",
        -9.238245732661685
      ],
      [
        "3",
        -9.238598351044423
      ],
      [
        "waji",
        -9.23861884733815
      ],
      [
        "▁hv",
        -9.238999282407448
      ],
      [
        "▁halisi",
        -9.23908999262082
      ],
      [
        "▁mwili",
        -9.239258235792374
      ],
      [
        "rpo",
        -9.239399791733181
      ],
      [
        "▁dat",
        -9.239555830766143
      ],
      [
        "▁unahitaji",
        -9.239684741674271
      ],
      [
        "uka",
        -9.239818195849729
      ],
      [
        "▁dakika",
        -9.240040422247453
      ],
      [
        "▁Kim",
        -9.24065806609699
      ],
      [
        "siku",
        -9.240929153050809
      ],
      [
        "▁maz",
        -9.240997313999609
      ],
      [
        "zoezi",
        -9.241529378257395
      ],
      [
        "▁kijiji",
        -9.242949160927061
      ],
      [
        "▁poa",
        -9.242953032356171
      ],
      [
        "▁Bro",
        -9.244143486626042
      ],
      [
        "▁anae",
        -9.245278405047655
      ],
      [
        "▁maon",
        -9.245535343220698
      ],
      [
        "▁utakao",
        -9.2465154428246
      ],
      [
        "IFA",
        -9.246583464899244
      ],
      [
        "alim",
        -9.24709660422012
      ],
      [
        "useme",
        -9.247749027402438
      ],
      [
        "mwi",
        -9.248110078348398
      ],
      [
        "huri",
        -9.248906482417425
      ],
      [
        "ukuma",
        -9.249104462725679
      ],
      [
        "kata",
        -9.249158416292516
      ],
      [
        "▁maswal",
        -9.249292938662029
      ],
      [
        "▁was",
        -9.250368680279488
      ],
      [
        "▁mada",
        -9.250882491749257
      ],
      [
        "▁Af",
        -9.25114011902232
      ],
      [
        "▁mas",
        -9.252668555960465
      ],
      [
        "▁tumbo",
        -9.25313077188857
      ],
      [
        "ezi",
        -9.253215988872583
      ],
      [
        "▁darasa",
        -9.253724233496525
      ],
      [
        "hudhuria",
        -9.254054084326878
      ],
      [
        "mika",
        -9.254756013868349
      ],
      [
        "▁ita",
        -9.254877544582124
      ],
      [
        "▁HA",
        -9.25534498243062
      ],
      [
        "▁man",
        -9.255548894406463
      ],
      [
        "▁kodi",
        -9.256709386772823
      ],
      [
        "ongele",
        -9.256832065046156
      ],
      [
        "▁wataku",
        -9.258016528059095
      ],
      [
        "RIKA",
        -9.258868937709037
      ],
      [
        "▁kupe",
        -9.259082485929365
      ],
      [
        "▁maum",
        -9.26129252322947
      ],
      [
        "timu",
        -9.26200996068528
      ],
      [
        "apenda",
        -9.26279942625495
      ],
      [
        "▁sita",
        -9.26566317295565
      ],
      [
        "soko",
        -9.266556455108429
      ],
      [
        "▁mam",
        -9.26663887263922
      ],
      [
        "gundu",
        -9.266670723289316
      ],
      [
        "embe",
        -9.26808238173921
      ],
      [
        "ate",
        -9.268557994946338
      ],
      [
        "jarib",
        -9.270103369209764
      ],
      [
        "▁Lazi",
        -9.270520737703208
      ],
      [
        "▁waku",
        -9.271648838855668
      ],
      [
        "lalamiki",
        -9.272598423365327
      ],
      [
        "▁an",
        -9.273639512726207
      ],
      [
        "PC",
        -9.27402356979062
      ],
      [
        "weke",
        -9.274352676807087
      ],
      [
        "▁Kuwa",
        -9.274369559583937
      ],
      [
        "▁alipo",
        -9.274958813783215
      ],
      [
        "kisha",
        -9.276365160920239
      ],
      [
        "▁mtaa",
        -9.277170459209636
      ],
      [
        "jitokeza",
        -9.278622183646288
      ],
      [
        "gombe",
        -9.279245917403667
      ],
      [
        "▁mipa",
        -9.279349791417769
      ],
      [
        "nyi",
        -9.280449322155917
      ],
      [
        "geni",
        -9.2807832289335
      ],
      [
        "ad",
        -9.280906840374508
      ],
      [
        "▁ufani",
        -9.282023819227971
      ],
      [
        "▁Sina",
        -9.282249023525779
      ],
      [
        "▁ser",
        -9.283288245321948
      ],
      [
        "▁kuvi",
        -9.284496542310576
      ],
      [
        "▁pili",
        -9.284771320089973
      ],
      [
        "▁kinacho",
        -9.285984091304584
      ],
      [
        "▁maso",
        -9.286750474378966
      ],
      [
        "utekeleza",
        -9.287000472125861
      ],
      [
        "▁nawe",
        -9.287718019038724
      ],
      [
        "ayansi",
        -9.289591666600323
      ],
      [
        "bar",
        -9.290019622094471
      ],
      [
        "▁kwani",
        -9.291404651862132
      ],
      [
        "awa",
        -9.293261737082009
      ],
      [
        "itaka",
        -9.294696425634923
      ],
      [
        "ongeze",
        -9.295164854247759
      ],
      [
        "▁kile",
        -9.29619558582268
      ],
      [
        "eja",
        -9.296249179990536
      ],
      [
        "hivi",
        -9.296810908309324
      ],
      [
        "▁ak",
        -9.297157572448269
      ],
      [
        "lezi",
        -9.297249007995438
      ],
      [
        "furahi",
        -9.298007700133056
      ],
      [
        "46",
        -9.298877048826576
      ],
      [
        "▁Sala",
        -9.299080270152118
      ],
      [
        "mii",
        -9.29971822729395
      ],
      [
        "umia",
        -9.30112308518812
      ],
      [
        "ongezek",
        -9.302090081533372
      ],
      [
        "kumbush",
        -9.305045849852018
      ],
      [
        "lah",
        -9.305573813810298
      ],
      [
        "▁kus",
        -9.306312110254257
      ],
      [
        "▁barak",
        -9.306847534368886
      ],
      [
        "ewa",
        -9.308572424180978
      ],
      [
        "ngine",
        -9.309106810493494
      ],
      [
        "▁mag",
        -9.309618224758449
      ],
      [
        "ndelea",
        -9.312781942676907
      ],
      [
        "▁ris",
        -9.316762708943152
      ],
      [
        "▁uja",
        -9.317662894018236
      ],
      [
        "bl",
        -9.318266774205155
      ],
      [
        "72",
        -9.319395057942087
      ],
      [
        "onesh",
        -9.320719379797541
      ],
      [
        "▁miez",
        -9.32207841565156
      ],
      [
        "fl",
        -9.323509550970488
      ],
      [
        "fya",
        -9.323680227444793
      ],
      [
        "▁Do",
        -9.323816884305055
      ],
      [
        "MBO",
        -9.324923660175049
      ],
      [
        "ime",
        -9.325024205654671
      ],
      [
        "▁bina",
        -9.326500724600654
      ],
      [
        "pumba",
        -9.32775548119868
      ],
      [
        "▁maku",
        -9.33045609472685
      ],
      [
        "tolew",
        -9.330836642776653
      ],
      [
        "tawi",
        -9.330891731194612
      ],
      [
        "▁Her",
        -9.331423915882738
      ],
      [
        "son",
        -9.333769447401579
      ],
      [
        "anasema",
        -9.33634132826047
      ],
      [
        "CR",
        -9.336678606603794
      ],
      [
        "akini",
        -9.336694441069994
      ],
      [
        "▁All",
        -9.337263921838606
      ],
      [
        "uonekan",
        -9.339904921835414
      ],
      [
        "▁Ngo",
        -9.341888501665931
      ],
      [
        "himu",
        -9.342070219891303
      ],
      [
        "▁1000",
        -9.343523637805859
      ],
      [
        "▁Waku",
        -9.34512306885529
      ],
      [
        "DB",
        -9.345197602975684
      ],
      [
        "▁tama",
        -9.347777274658906
      ],
      [
        "pindu",
        -9.348017902418015
      ],
      [
        "ikiwa",
        -9.350219011740911
      ],
      [
        "tangaz",
        -9.352628567303208
      ],
      [
        "rejesh",
        -9.354108805452782
      ],
      [
        "vile",
        -9.356699622434336
      ],
      [
        "▁hao",
        -9.357439111888661
      ],
      [
        "fi",
        -9.358484054666787
      ],
      [
        "umu",
        -9.360068978131212
      ],
      [
        "▁mt",
        -9.36049503826443
      ],
      [
        "▁saba",
        -9.36902912124946
      ],
      [
        "▁Kiku",
        -9.369295420741386
      ],
      [
        "angu",
        -9.36931989794558
      ],
      [
        "▁kumaliz",
        -9.370123447872901
      ],
      [
        "▁Th",
        -9.3701308808645
      ],
      [
        "▁kias",
        -9.370165922623341
      ],
      [
        "maanish",
        -9.370238838871071
      ],
      [
        "fanyi",
        -9.370290518706863
      ],
      [
        "makosa",
        -9.371062045353574
      ],
      [
        "▁kituo",
        -9.37170638508733
      ],
      [
        "▁kuu",
        -9.373191401824924
      ],
      [
        "lisha",
        -9.37535954895153
      ],
      [
        "ufundi",
        -9.375927568916696
      ],
      [
        "NGU",
        -9.37657014362141
      ],
      [
        "esh",
        -9.377240161917813
      ],
      [
        "▁50",
        -9.377505731985385
      ],
      [
        "▁da",
        -9.377879185384296
      ],
      [
        "▁kumbuk",
        -9.377892645572539
      ],
      [
        "▁kuanz",
        -9.37791372150222
      ],
      [
        "nzo",
        -9.379349780511944
      ],
      [
        "▁maad",
        -9.379625194047016
      ],
      [
        "▁re",
        -9.380058929556705
      ],
      [
        "kala",
        -9.38211364928841
      ],
      [
        "CHA",
        -9.382349797956115
      ],
      [
        "mrad",
        -9.383654509270048
      ],
      [
        "▁kush",
        -9.383709886193197
      ],
      [
        "jiuliz",
        -9.38421210416137
      ],
      [
        "▁naf",
        -9.384351225839973
      ],
      [
        "aswa",
        -9.384913075875826
      ],
      [
        "tumik",
        -9.385812254603461
      ],
      [
        "ur",
        -9.38685754111854
      ],
      [
        "▁uchungu",
        -9.387118183365736
      ],
      [
        "▁juma",
        -9.390990569108359
      ],
      [
        "▁mat",
        -9.391361346527344
      ],
      [
        "▁Tr",
        -9.391626366890678
      ],
      [
        "RE",
        -9.392773195095414
      ],
      [
        "▁Mus",
        -9.393041696189792
      ],
      [
        "▁mifu",
        -9.394856096247262
      ],
      [
        "MU",
        -9.395289855713763
      ],
      [
        "nal",
        -9.396111528521743
      ],
      [
        "kana",
        -9.396568940587537
      ],
      [
        "▁inato",
        -9.398977888259214
      ],
      [
        "▁Bw",
        -9.399789739339822
      ],
      [
        "▁Ra",
        -9.399945477918921
      ],
      [
        "▁Mwa",
        -9.402607919513587
      ],
      [
        "MB",
        -9.402677453675857
      ],
      [
        "ion",
        -9.403544483913322
      ],
      [
        "▁bin",
        -9.404127752902609
      ],
      [
        "▁hap",
        -9.405476781207964
      ],
      [
        "▁21",
        -9.406141445425687
      ],
      [
        "age",
        -9.406239363030604
      ],
      [
        "ipo",
        -9.406545583104744
      ],
      [
        "ako",
        -9.407144274345999
      ],
      [
        "wor",
        -9.407934264047459
      ],
      [
        "ilio",
        -9.410182900217592
      ],
      [
        "app",
        -9.411337141134362
      ],
      [
        "taf",
        -9.411780099440037
      ],
      [
        "afunz",
        -9.41383582868086
      ],
      [
        "MO",
        -9.414403037893987
      ],
      [
        "shughuli",
        -9.417037912493008
      ],
      [
        "▁tusi",
        -9.418521743468279
      ],
      [
        "tika",
        -9.41979434545353
      ],
      [
        "▁kufung",
        -9.420389733167614
      ],
      [
        "▁vy",
        -9.420909847383538
      ],
      [
        "mfum",
        -9.421052433632415
      ],
      [
        "wanga",
        -9.421278440501498
      ],
      [
        "zija",
        -9.42304402413848
      ],
      [
        "▁BI",
        -9.424100426483285
      ],
      [
        "▁kuwapat",
        -9.42411187497219
      ],
      [
        "naendelea",
        -9.42444589009025
      ],
      [
        "▁kukua",
        -9.425318693882229
      ],
      [
        "gua",
        -9.425561523052625
      ],
      [
        "anga",
        -9.426077813940271
      ],
      [
        "▁Mt",
        -9.426728951236175
      ],
      [
        "▁Ju",
        -9.427249301139556
      ],
      [
        "hiki",
        -9.427695113905031
      ],
      [
        "▁miko",
        -9.427743094783978
      ],
      [
        "live",
        -9.428963108102511
      ],
      [
        "15",
        -9.429255980774283
      ],
      [
        "▁un",
        -9.429596096258845
      ],
      [
        "▁Mahakama",
        -9.430032228219543
      ],
      [
        "samehe",
        -9.430047427174301
      ],
      [
        "▁barabara",
        -9.430066372252098
      ],
      [
        "▁mbi",
        -9.430093802352983
      ],
      [
        "▁ardhi",
        -9.430208638649761
      ],
      [
        "▁hususan",
        -9.430359543115454
      ],
      [
        "▁Shule",
        -9.430384026239848
      ],
      [
        "▁lin",
        -9.430413173125425
      ],
      [
        "▁2017",
        -9.430450804747055
      ],
      [
        "▁unaojitokeza",
        -9.430458948410227
      ],
      [
        "▁wafanyabiashara",
        -9.430608867005347
      ],
      [
        "▁Kenya",
        -9.430884567093004
      ],
      [
        "▁mwanzo",
        -9.431217726634669
      ],
      [
        "▁ziada",
        -9.431270552824364
      ],
      [
        "▁Shirik",
        -9.43133320845562
      ],
      [
        "▁NMB",
        -9.431461658326374
      ],
      [
        "kesh",
        -9.43169938666657
      ],
      [
        "▁mb",
        -9.431969856609701
      ],
      [
        "TL",
        -9.4321562550141
      ],
      [
        "kristo",
        -9.432192326232558
      ],
      [
        "▁Kat",
        -9.432531546206842
      ],
      [
        "▁bank",
        -9.432654808224918
      ],
      [
        "▁Mpaka",
        -9.43268151410081
      ],
      [
        "▁kulala",
        -9.433711940063354
      ],
      [
        "▁Kas",
        -9.433999998616258
      ],
      [
        "▁kupamban",
        -9.434368885814008
      ],
      [
        "▁Ofis",
        -9.43443501718828
      ],
      [
        "udu",
        -9.435340769216555
      ],
      [
        "▁wakul",
        -9.435364580002874
      ],
      [
        "▁njema",
        -9.435738466256133
      ],
      [
        "▁mvu",
        -9.4363753445234
      ],
      [
        "▁ufungu",
        -9.436609953046567
      ],
      [
        "▁wingi",
        -9.43661942939748
      ],
      [
        "EN",
        -9.436710882842423
      ],
      [
        "▁Simba",
        -9.436725004641634
      ],
      [
        "▁mkop",
        -9.437301958554198
      ],
      [
        "▁mtaji",
        -9.437499050767457
      ],
      [
        "endesha",
        -9.437571326750705
      ],
      [
        "▁23",
        -9.437682579540109
      ],
      [
        "ober",
        -9.437865352929117
      ],
      [
        "▁26",
        -9.438142288659588
      ],
      [
        "▁langu",
        -9.438496159215816
      ],
      [
        "▁kuchuku",
        -9.438525506495345
      ],
      [
        "▁kupi",
        -9.438783670963355
      ],
      [
        "▁Nafa",
        -9.44061892755205
      ],
      [
        "▁zaidiJ",
        -9.440881269996225
      ],
      [
        "▁Asili",
        -9.441341089570484
      ],
      [
        "dara",
        -9.443067903007506
      ],
      [
        "fungu",
        -9.443396481493092
      ],
      [
        "▁ngom",
        -9.443707316207533
      ],
      [
        "▁wawili",
        -9.443912154122273
      ],
      [
        "▁Juliu",
        -9.444182514803865
      ],
      [
        "▁Twit",
        -9.445930734428819
      ],
      [
        "▁MP",
        -9.446080000799776
      ],
      [
        "▁nen",
        -9.447325732623296
      ],
      [
        "▁kich",
        -9.447622156071168
      ],
      [
        "▁Mwenyezi",
        -9.448381656774476
      ],
      [
        "hara",
        -9.448421429550303
      ],
      [
        "▁kuamini",
        -9.448423793409676
      ],
      [
        "oezi",
        -9.44944101943948
      ],
      [
        "uliwa",
        -9.450978967105847
      ],
      [
        "▁tunao",
        -9.451167769297568
      ],
      [
        "NO",
        -9.451202240730485
      ],
      [
        "10",
        -9.452447967651326
      ],
      [
        "zipo",
        -9.452578314804729
      ],
      [
        "▁klabu",
        -9.45268661694533
      ],
      [
        "▁Kilim",
        -9.453380611655737
      ],
      [
        "▁Yak",
        -9.453733932080155
      ],
      [
        "▁tunakuta",
        -9.453772337923153
      ],
      [
        "GIA",
        -9.45385988602722
      ],
      [
        "are",
        -9.455322200111382
      ],
      [
        "▁Samah",
        -9.456318977088065
      ],
      [
        "▁ikiwe",
        -9.456481487012889
      ],
      [
        "▁anaye",
        -9.457043562655674
      ],
      [
        "ELE",
        -9.457573849742364
      ],
      [
        "▁Fur",
        -9.45836171518306
      ],
      [
        "aga",
        -9.459167890777296
      ],
      [
        "▁iyo",
        -9.459484693466468
      ],
      [
        "7",
        -9.460229063763812
      ],
      [
        "▁unayo",
        -9.46254117954463
      ],
      [
        "uzalisha",
        -9.462648946221591
      ],
      [
        "rehe",
        -9.464316137803634
      ],
      [
        "▁salio",
        -9.4645431655135
      ],
      [
        "chan",
        -9.466285546132035
      ],
      [
        "▁kusimami",
        -9.467445614170371
      ],
      [
        "aribu",
        -9.467866709149332
      ],
      [
        "▁bus",
        -9.46865704509669
      ],
      [
        "▁Ndo",
        -9.468805003313587
      ],
      [
        "ariki",
        -9.469792388019611
      ],
      [
        "isho",
        -9.46988461614314
      ],
      [
        "aina",
        -9.469894178474881
      ],
      [
        "▁ulikuw",
        -9.471475843642523
      ],
      [
        "▁TANZANIA",
        -9.47197380452671
      ],
      [
        "funguli",
        -9.47252494575504
      ],
      [
        "lioni",
        -9.472985849511034
      ],
      [
        "oga",
        -9.47393599715802
      ],
      [
        "kiongoz",
        -9.474242292303348
      ],
      [
        "est",
        -9.475906796831707
      ],
      [
        "wale",
        -9.476209181169622
      ],
      [
        "IKA",
        -9.47745882718284
      ],
      [
        "mbuzi",
        -9.478334991655995
      ],
      [
        "▁kuk",
        -9.478484979127298
      ],
      [
        "pamban",
        -9.482353920013347
      ],
      [
        "▁siwez",
        -9.482663734856143
      ],
      [
        "uma",
        -9.483644295984629
      ],
      [
        "▁BA",
        -9.484011415120271
      ],
      [
        "IWA",
        -9.484801746111645
      ],
      [
        "▁hai",
        -9.485582908526506
      ],
      [
        "▁pemben",
        -9.485656666067623
      ],
      [
        "▁cont",
        -9.48695498444733
      ],
      [
        "zama",
        -9.487732163656421
      ],
      [
        "osha",
        -9.489838138502986
      ],
      [
        "▁St",
        -9.490593958197294
      ],
      [
        "▁wata",
        -9.49106705441608
      ],
      [
        "uaji",
        -9.491148776513866
      ],
      [
        "50",
        -9.491774731307586
      ],
      [
        "▁Dia",
        -9.492366630421408
      ],
      [
        "▁hazi",
        -9.49338055177618
      ],
      [
        "sama",
        -9.493572356100382
      ],
      [
        "ger",
        -9.493730603012246
      ],
      [
        "▁MC",
        -9.494260124838851
      ],
      [
        "ngazi",
        -9.494566070373978
      ],
      [
        "▁mahari",
        -9.49639234531188
      ],
      [
        "bile",
        -9.497410285971942
      ],
      [
        "aendele",
        -9.498122307739205
      ],
      [
        "burud",
        -9.49829139846341
      ],
      [
        "▁Ask",
        -9.498305228048682
      ],
      [
        "▁dua",
        -9.498377768179617
      ],
      [
        "nayo",
        -9.499091075102008
      ],
      [
        "▁kuonge",
        -9.499885060565552
      ],
      [
        "ju",
        -9.500124746878576
      ],
      [
        "TT",
        -9.500181680162083
      ],
      [
        "ea",
        -9.501163500057118
      ],
      [
        "tangaza",
        -9.501381235404567
      ],
      [
        "kono",
        -9.5017272377411
      ],
      [
        "upand",
        -9.501847463391353
      ],
      [
        "zwa",
        -9.502548306400385
      ],
      [
        "chongo",
        -9.50274057435924
      ],
      [
        "▁mawasilia",
        -9.503213381158169
      ],
      [
        "▁ho",
        -9.503846965863007
      ],
      [
        "naanza",
        -9.504576378710132
      ],
      [
        "▁SI",
        -9.504688879483073
      ],
      [
        "chelew",
        -9.50472116423213
      ],
      [
        "wenyewe",
        -9.505762871153403
      ],
      [
        "Njoo",
        -9.507453790264005
      ],
      [
        "wani",
        -9.507650829979466
      ],
      [
        "▁ilivyo",
        -9.51008144999942
      ],
      [
        "shambulia",
        -9.510708461276566
      ],
      [
        "▁tweet",
        -9.511145047858758
      ],
      [
        "▁jam",
        -9.511160227968324
      ],
      [
        "▁mna",
        -9.512162103146263
      ],
      [
        "▁Chu",
        -9.512473219512035
      ],
      [
        "fundisha",
        -9.512651760407582
      ],
      [
        "anze",
        -9.512979826486365
      ],
      [
        "kub",
        -9.513315426218526
      ],
      [
        "iba",
        -9.513417272049063
      ],
      [
        "▁men",
        -9.514442914262773
      ],
      [
        "▁Ina",
        -9.51564822780865
      ],
      [
        "▁Tunaku",
        -9.51599703606086
      ],
      [
        "▁wan",
        -9.516065879009142
      ],
      [
        "▁mm",
        -9.516174221764704
      ],
      [
        "thon",
        -9.518513272669878
      ],
      [
        "ndle",
        -9.518568195726797
      ],
      [
        "CL",
        -9.519280478130783
      ],
      [
        "▁200",
        -9.51933736785231
      ],
      [
        "ester",
        -9.519350296785701
      ],
      [
        "▁Mar",
        -9.520384338828155
      ],
      [
        "ick",
        -9.523554456241163
      ],
      [
        "ans",
        -9.52357096130488
      ],
      [
        "nunuzi",
        -9.524022147897092
      ],
      [
        "ode",
        -9.525013255463023
      ],
      [
        "kamatwa",
        -9.52615094171316
      ],
      [
        "▁anaju",
        -9.526723889290087
      ],
      [
        "▁anani",
        -9.526930146321064
      ],
      [
        "▁Bor",
        -9.526961496557902
      ],
      [
        "▁viwan",
        -9.530107171611023
      ],
      [
        "masha",
        -9.53063684636816
      ],
      [
        "▁SE",
        -9.531215332803752
      ],
      [
        "IN",
        -9.531254254958203
      ],
      [
        "▁You",
        -9.53131142476775
      ],
      [
        "▁form",
        -9.531574476145037
      ],
      [
        "▁kupiga",
        -9.533165248733113
      ],
      [
        "by",
        -9.534594722125384
      ],
      [
        "bia",
        -9.536067879888261
      ],
      [
        "yumbani",
        -9.537451422230106
      ],
      [
        "mepoke",
        -9.537601981521501
      ],
      [
        "esti",
        -9.537950876246116
      ],
      [
        "▁Unapo",
        -9.539031315165486
      ],
      [
        "▁Haku",
        -9.539591241029605
      ],
      [
        "but",
        -9.539664378639399
      ],
      [
        "▁ref",
        -9.539912301142397
      ],
      [
        "wapo",
        -9.542130735657675
      ],
      [
        "▁kuja",
        -9.542693499432886
      ],
      [
        "saidie",
        -9.543476718955402
      ],
      [
        "so",
        -9.544906735152864
      ],
      [
        "▁Kis",
        -9.544944596435542
      ],
      [
        "▁Ndiy",
        -9.54594714783459
      ],
      [
        "tafut",
        -9.546599551424729
      ],
      [
        "▁ulicho",
        -9.546918743472787
      ],
      [
        "keka",
        -9.547174270223342
      ],
      [
        "shindan",
        -9.547284670406059
      ],
      [
        "▁kura",
        -9.54754757427474
      ],
      [
        "▁Jeng",
        -9.547873714412006
      ],
      [
        "kwe",
        -9.54883953871853
      ],
      [
        "▁vyao",
        -9.549394844983585
      ],
      [
        "tumi",
        -9.551000232565425
      ],
      [
        "▁yaliyo",
        -9.557349719416774
      ],
      [
        "boresh",
        -9.55812121030507
      ],
      [
        "▁Kika",
        -9.559373146036622
      ],
      [
        "ah",
        -9.559445916858477
      ],
      [
        "ILA",
        -9.560486771465227
      ],
      [
        "▁15",
        -9.562556400854879
      ],
      [
        "omo",
        -9.562791134980573
      ],
      [
        "ekana",
        -9.56360739436423
      ],
      [
        "▁rahisi",
        -9.564360270900108
      ],
      [
        "▁Mo",
        -9.56576759009373
      ],
      [
        "▁kata",
        -9.566001976472169
      ],
      [
        "▁waka",
        -9.566986566805546
      ],
      [
        "▁vime",
        -9.567158567919627
      ],
      [
        "▁kime",
        -9.567335123684035
      ],
      [
        "bidi",
        -9.567920511740844
      ],
      [
        "onge",
        -9.568357788521158
      ],
      [
        "▁Masa",
        -9.5698225398372
      ],
      [
        "▁tuk",
        -9.570009705275014
      ],
      [
        "lete",
        -9.570518839756962
      ],
      [
        "eke",
        -9.570839168946641
      ],
      [
        "uboresha",
        -9.570924827777489
      ],
      [
        "▁zak",
        -9.571573842079378
      ],
      [
        "▁AS",
        -9.571803689086666
      ],
      [
        "eva",
        -9.572917913193898
      ],
      [
        "▁yaki",
        -9.573359024314792
      ],
      [
        "▁maw",
        -9.574277276598924
      ],
      [
        "▁Em",
        -9.574514637233573
      ],
      [
        "▁pla",
        -9.574560879481036
      ],
      [
        "ure",
        -9.575215683813276
      ],
      [
        "aitwa",
        -9.575394548508413
      ],
      [
        "ER",
        -9.576044056793945
      ],
      [
        "ija",
        -9.576520596306107
      ],
      [
        "gram",
        -9.576557594748754
      ],
      [
        "▁kutembe",
        -9.577221561098895
      ],
      [
        "Soma",
        -9.57725454054975
      ],
      [
        "wezesha",
        -9.578286963589932
      ],
      [
        "▁Wata",
        -9.578804423320383
      ],
      [
        "samba",
        -9.580333735661522
      ],
      [
        "▁nyi",
        -9.580720021131427
      ],
      [
        "ofu",
        -9.581569475854923
      ],
      [
        "▁Pat",
        -9.581640606904571
      ],
      [
        "▁vir",
        -9.58254331518134
      ],
      [
        "bidh",
        -9.583993701009568
      ],
      [
        "▁ucha",
        -9.584936192226372
      ],
      [
        "AYA",
        -9.585273012547335
      ],
      [
        "tend",
        -9.585436322568457
      ],
      [
        "iyo",
        -9.585987887708034
      ],
      [
        "ANGA",
        -9.587229039369554
      ],
      [
        "▁Mad",
        -9.588576377982566
      ],
      [
        "mond",
        -9.588895918612614
      ],
      [
        "▁mcha",
        -9.58960405114567
      ],
      [
        "▁As",
        -9.589984228759896
      ],
      [
        "▁KI",
        -9.591591686128105
      ],
      [
        "kataa",
        -9.593596764630309
      ],
      [
        "▁imeto",
        -9.59479209413183
      ],
      [
        "▁mji",
        -9.596246481334388
      ],
      [
        "▁Maj",
        -9.596864489176527
      ],
      [
        "▁hawaja",
        -9.597109995032207
      ],
      [
        "▁zinatu",
        -9.597381090266932
      ],
      [
        "EO",
        -9.598564360109982
      ],
      [
        "▁amefa",
        -9.59878081105533
      ],
      [
        "App",
        -9.600076059775468
      ],
      [
        "RI",
        -9.60320355933184
      ],
      [
        "▁Barak",
        -9.605538882569775
      ],
      [
        "▁Kar",
        -9.60589781084526
      ],
      [
        "▁zilizop",
        -9.60622919897461
      ],
      [
        "▁mchan",
        -9.60707213114316
      ],
      [
        "LE",
        -9.607557686534859
      ],
      [
        "▁mwenza",
        -9.608221235753408
      ],
      [
        "siwe",
        -9.608388219047969
      ],
      [
        "esa",
        -9.609120671105057
      ],
      [
        "▁UTA",
        -9.609686471489162
      ],
      [
        "▁Uje",
        -9.61026219303774
      ],
      [
        "adili",
        -9.611327756833287
      ],
      [
        "ngia",
        -9.612201526642156
      ],
      [
        "ripoti",
        -9.612419922371371
      ],
      [
        "▁Kab",
        -9.614579466012408
      ],
      [
        "ul",
        -9.615198223216293
      ],
      [
        "▁Lip",
        -9.616091036521343
      ],
      [
        "meny",
        -9.616811919612358
      ],
      [
        "▁Kip",
        -9.621270567212262
      ],
      [
        "itambulisho",
        -9.621714598280294
      ],
      [
        "hamu",
        -9.622623638919773
      ],
      [
        "▁kutoku",
        -9.623031716760574
      ],
      [
        "eleze",
        -9.624824097135907
      ],
      [
        "siki",
        -9.62603048028647
      ],
      [
        "ANDA",
        -9.62635550358417
      ],
      [
        "SHA",
        -9.626700291561281
      ],
      [
        "0000",
        -9.627111317510119
      ],
      [
        "MIA",
        -9.627334375995826
      ],
      [
        "▁stre",
        -9.628068571045693
      ],
      [
        "man",
        -9.628770631943738
      ],
      [
        "▁inasem",
        -9.630505228927575
      ],
      [
        "iswahili",
        -9.633935421488093
      ],
      [
        "muuliz",
        -9.633989541350587
      ],
      [
        "▁Com",
        -9.634016502847203
      ],
      [
        "TO",
        -9.634436599661713
      ],
      [
        "▁Bas",
        -9.634847289072692
      ],
      [
        "washa",
        -9.6357046499033
      ],
      [
        "ILI",
        -9.636953603079174
      ],
      [
        "pelek",
        -9.637479339829685
      ],
      [
        "HUS",
        -9.637972365469588
      ],
      [
        "▁lab",
        -9.639880918612874
      ],
      [
        "rasi",
        -9.639915664683281
      ],
      [
        "▁07",
        -9.6408845236429
      ],
      [
        "▁Mwanam",
        -9.642571072129627
      ],
      [
        "pwa",
        -9.643285632677793
      ],
      [
        "▁At",
        -9.644610542924607
      ],
      [
        "bonyez",
        -9.646995814726562
      ],
      [
        "▁Dr",
        -9.649647691521126
      ],
      [
        "▁kit",
        -9.649976752467142
      ],
      [
        "uhakik",
        -9.650621586487947
      ],
      [
        "lifanyi",
        -9.65154364164081
      ],
      [
        "▁hat",
        -9.65170630477796
      ],
      [
        "her",
        -9.652213909710154
      ],
      [
        "▁maf",
        -9.652468522783673
      ],
      [
        "30",
        -9.652801561127854
      ],
      [
        "der",
        -9.655476467475493
      ],
      [
        "▁Kam",
        -9.656357181527044
      ],
      [
        "rush",
        -9.656997217538976
      ],
      [
        "▁kij",
        -9.6572207907872
      ],
      [
        "▁zaid",
        -9.657718075959965
      ],
      [
        "Mara",
        -9.658424488090674
      ],
      [
        "em",
        -9.658686926458977
      ],
      [
        "dadi",
        -9.658920391304964
      ],
      [
        "inali",
        -9.660472604419386
      ],
      [
        "um",
        -9.663086111481684
      ],
      [
        "▁wanaf",
        -9.667128150812982
      ],
      [
        "shanga",
        -9.667286070551803
      ],
      [
        "mbele",
        -9.667655270939205
      ],
      [
        "▁kuanga",
        -9.667749614904343
      ],
      [
        "dio",
        -9.668012019424545
      ],
      [
        "OK",
        -9.66914543583376
      ],
      [
        "▁Chapa",
        -9.670514375798424
      ],
      [
        "▁mak",
        -9.673396665074426
      ],
      [
        "▁ugo",
        -9.673647650743426
      ],
      [
        "▁hakik",
        -9.675998790855713
      ],
      [
        "at",
        -9.67716722276788
      ],
      [
        "AWA",
        -9.677704795975565
      ],
      [
        "ole",
        -9.678572265263556
      ],
      [
        "kate",
        -9.678777806475166
      ],
      [
        "faid",
        -9.678864100543574
      ],
      [
        "▁upat",
        -9.679214703146576
      ],
      [
        "hu",
        -9.67994696934505
      ],
      [
        "▁TARURA",
        -9.680018964997322
      ],
      [
        "▁Clouds",
        -9.680018995605824
      ],
      [
        "▁Follow",
        -9.68002020246253
      ],
      [
        "▁Iringa",
        -9.680036614689595
      ],
      [
        "roject",
        -9.68004122328984
      ],
      [
        "ambatanish",
        -9.680041596900832
      ],
      [
        "▁PICHA",
        -9.680061340578131
      ],
      [
        "▁Alhamis",
        -9.680062789749705
      ],
      [
        "▁USD",
        -9.680142825259875
      ],
      [
        "▁white",
        -9.680222065068795
      ],
      [
        "azo",
        -9.680288250226448
      ],
      [
        "taratibu",
        -9.680358297843881
      ],
      [
        "sisitiz",
        -9.6805660746354
      ],
      [
        "▁Paul",
        -9.680652444211143
      ],
      [
        "▁jero",
        -9.680967007964682
      ],
      [
        "▁teknolo",
        -9.680981751897257
      ],
      [
        "▁Familia",
        -9.6814141909999
      ],
      [
        "ford",
        -9.681557915151076
      ],
      [
        "▁For",
        -9.681660180089
      ],
      [
        "▁Jamii",
        -9.681742430269498
      ],
      [
        "BODA",
        -9.681842674520281
      ],
      [
        "oliki",
        -9.681897165872762
      ],
      [
        "promot",
        -9.681966075335863
      ],
      [
        "lipuko",
        -9.681985008587738
      ],
      [
        "NCHI",
        -9.682081129185862
      ],
      [
        "▁isiyo",
        -9.682092300547485
      ],
      [
        "alam",
        -9.682460271259936
      ],
      [
        "▁WANA",
        -9.682725605187892
      ],
      [
        "▁CHAN",
        -9.682814109284868
      ],
      [
        "▁Kager",
        -9.68284572308135
      ],
      [
        "arufu",
        -9.682957880948607
      ],
      [
        "▁Air",
        -9.682984497212958
      ],
      [
        "GR",
        -9.683195828589037
      ],
      [
        "▁vyombo",
        -9.683218615617145
      ],
      [
        "▁bi",
        -9.683221107742343
      ],
      [
        "IONGOZ",
        -9.683434068192367
      ],
      [
        "▁Prof",
        -9.683479577666478
      ],
      [
        "▁Abb",
        -9.68356709703881
      ],
      [
        "val",
        -9.683923757960732
      ],
      [
        "▁Adha",
        -9.684828309537805
      ],
      [
        "▁itakayo",
        -9.685018979214503
      ],
      [
        "SMS",
        -9.685595548328113
      ],
      [
        "▁kiwanda",
        -9.685865904114472
      ],
      [
        "IRI",
        -9.686204827152345
      ],
      [
        "▁WAZ",
        -9.686466571953998
      ],
      [
        "▁Mabin",
        -9.686474594989384
      ],
      [
        "andik",
        -9.686712378528822
      ],
      [
        "▁majin",
        -9.687519685890054
      ],
      [
        "▁Pr",
        -9.688004117213682
      ],
      [
        "amla",
        -9.688053706555738
      ],
      [
        "tali",
        -9.688381497072555
      ],
      [
        "▁unavyo",
        -9.688468206522089
      ],
      [
        "ahaba",
        -9.688834320126588
      ],
      [
        "oma",
        -9.689727219550333
      ],
      [
        "mna",
        -9.689824318229793
      ],
      [
        "▁kuoko",
        -9.690098900108739
      ],
      [
        "▁unalo",
        -9.69089154925189
      ],
      [
        "▁Said",
        -9.691186576279604
      ],
      [
        "imbo",
        -9.691653257469689
      ],
      [
        "▁Bongo",
        -9.69224040105069
      ],
      [
        "UGU",
        -9.692593625041674
      ],
      [
        "▁insta",
        -9.69303806143433
      ],
      [
        "somesha",
        -9.693104433843834
      ],
      [
        "pass",
        -9.693783754874291
      ],
      [
        "EME",
        -9.69388921264683
      ],
      [
        "▁mfanyabiashara",
        -9.694605684628433
      ],
      [
        "▁mbaya",
        -9.695224983281227
      ],
      [
        "▁Mbali",
        -9.695411012499411
      ],
      [
        "▁kikuu",
        -9.695569221960177
      ],
      [
        "DHA",
        -9.695726348683502
      ],
      [
        "mka",
        -9.695749624161289
      ],
      [
        "▁Im",
        -9.69629231449443
      ],
      [
        "zalisha",
        -9.696567400499202
      ],
      [
        "▁tumeku",
        -9.697702911467273
      ],
      [
        "ONYE",
        -9.697763025638993
      ],
      [
        "▁Bilion",
        -9.697907598133517
      ],
      [
        "▁2000",
        -9.699414622621886
      ],
      [
        "▁Walio",
        -9.699457771769051
      ],
      [
        "▁kiku",
        -9.699475501916329
      ],
      [
        "▁Mataifa",
        -9.699736161027818
      ],
      [
        "very",
        -9.700696506284999
      ],
      [
        "JI",
        -9.700741099407901
      ],
      [
        "▁fro",
        -9.701965378325543
      ],
      [
        "thamini",
        -9.701977867717275
      ],
      [
        "▁stori",
        -9.702190773442199
      ],
      [
        "▁walipe",
        -9.703148041385514
      ],
      [
        "IKI",
        -9.70370864040258
      ],
      [
        "▁maj",
        -9.705052217751843
      ],
      [
        "elez",
        -9.70649549662395
      ],
      [
        "ble",
        -9.706875220151499
      ],
      [
        "jisiki",
        -9.706931336971776
      ],
      [
        "jia",
        -9.707314224677237
      ],
      [
        "▁stor",
        -9.707456519551709
      ],
      [
        "umepoke",
        -9.708168824850945
      ],
      [
        "aboresh",
        -9.71072551165724
      ],
      [
        "▁tiba",
        -9.711239832982736
      ],
      [
        "▁Hapa",
        -9.711377980699925
      ],
      [
        "▁Mule",
        -9.711450076843432
      ],
      [
        "hisi",
        -9.711723427779571
      ],
      [
        "▁kule",
        -9.71200945575997
      ],
      [
        "Z",
        -9.712328983793533
      ],
      [
        "▁inaonyesh",
        -9.712883670068878
      ],
      [
        "afis",
        -9.71289635379608
      ],
      [
        "tembe",
        -9.713192050275401
      ],
      [
        "▁Mon",
        -9.713716163708801
      ],
      [
        "nt",
        -9.713864505328148
      ],
      [
        "ero",
        -9.71400806328474
      ],
      [
        "▁baj",
        -9.71417188099816
      ],
      [
        "▁cc",
        -9.714409687875941
      ],
      [
        "dharau",
        -9.714766070661895
      ],
      [
        "▁Er",
        -9.717032318249913
      ],
      [
        "▁mita",
        -9.717215620098933
      ],
      [
        "methibitish",
        -9.717479953920726
      ],
      [
        "low",
        -9.71802098931268
      ],
      [
        "RC",
        -9.71806565338396
      ],
      [
        "ngoj",
        -9.718617797190715
      ],
      [
        "ress",
        -9.718913848505315
      ],
      [
        "▁utup",
        -9.719052743154961
      ],
      [
        "IS",
        -9.719700258961694
      ],
      [
        "▁ametu",
        -9.72025001854622
      ],
      [
        "swahili",
        -9.722113387358435
      ],
      [
        "ent",
        -9.723034681284439
      ],
      [
        "prof",
        -9.723290220662204
      ],
      [
        "icha",
        -9.723393425482728
      ],
      [
        "ndan",
        -9.72433587225625
      ],
      [
        "NAF",
        -9.724389547827277
      ],
      [
        "semb",
        -9.724470348312213
      ],
      [
        "anada",
        -9.724528812198734
      ],
      [
        "▁Kumbuk",
        -9.72469889687888
      ],
      [
        "▁ninge",
        -9.725317514536872
      ],
      [
        "▁wadad",
        -9.726037027813868
      ],
      [
        "▁tha",
        -9.726294980027982
      ],
      [
        "ada",
        -9.727249318593461
      ],
      [
        "rd",
        -9.727753598739458
      ],
      [
        "▁dro",
        -9.72929873347781
      ],
      [
        "▁Bill",
        -9.729621586277688
      ],
      [
        "ish",
        -9.730427373906334
      ],
      [
        "▁Ushiriki",
        -9.73122546068651
      ],
      [
        "▁Uko",
        -9.731836879956052
      ],
      [
        "rika",
        -9.732430586418761
      ],
      [
        "pigw",
        -9.732493762136999
      ],
      [
        "▁KUWA",
        -9.73282961174503
      ],
      [
        "▁Rufa",
        -9.73299833852057
      ],
      [
        "▁Mko",
        -9.733107161456617
      ],
      [
        "JA",
        -9.734415151379569
      ],
      [
        "▁kuamk",
        -9.734620424937123
      ],
      [
        "iwezekan",
        -9.735815751520951
      ],
      [
        "▁Mdogo",
        -9.736001603608928
      ],
      [
        "▁Tusi",
        -9.737429115525355
      ],
      [
        "jito",
        -9.737514268897897
      ],
      [
        "TE",
        -9.7377695783521
      ],
      [
        "uluh",
        -9.737780606640214
      ],
      [
        "▁Mart",
        -9.737873846754939
      ],
      [
        "licha",
        -9.738778658363408
      ],
      [
        "▁watend",
        -9.739084720786705
      ],
      [
        "▁ndi",
        -9.739267174782087
      ],
      [
        "rs",
        -9.739292558790188
      ],
      [
        "▁usambaz",
        -9.739651308199074
      ],
      [
        "AJA",
        -9.740776232134383
      ],
      [
        "▁077",
        -9.74259831175283
      ],
      [
        "▁ukwel",
        -9.743188482361274
      ],
      [
        "▁UT",
        -9.743723940456954
      ],
      [
        "chote",
        -9.743953047988187
      ],
      [
        "op",
        -9.744780514638098
      ],
      [
        "▁wamesha",
        -9.745332353830609
      ],
      [
        "▁uongo",
        -9.745710367370263
      ],
      [
        "aalum",
        -9.745899597654706
      ],
      [
        "▁KUP",
        -9.746000177648733
      ],
      [
        "▁mbona",
        -9.74697179700587
      ],
      [
        "▁aibu",
        -9.747688332095564
      ],
      [
        "walim",
        -9.748239293042577
      ],
      [
        "pand",
        -9.748979924778759
      ],
      [
        "▁TUM",
        -9.749038298926912
      ],
      [
        "▁kuhu",
        -9.74943246294111
      ],
      [
        "▁kufanyi",
        -9.749945924896032
      ],
      [
        "▁nilipo",
        -9.750027011745642
      ],
      [
        "▁kwe",
        -9.750245762008843
      ],
      [
        "▁amani",
        -9.75072155806376
      ],
      [
        "nisha",
        -9.750857707470376
      ],
      [
        "▁Mbo",
        -9.751305971904145
      ],
      [
        "▁Tzs",
        -9.752468693447547
      ],
      [
        "▁Maka",
        -9.75302909572897
      ],
      [
        "atili",
        -9.753202139864182
      ],
      [
        "AR",
        -9.754422330191721
      ],
      [
        "ender",
        -9.754885324686343
      ],
      [
        "▁Fre",
        -9.755454545404149
      ],
      [
        "masiki",
        -9.75765987407702
      ],
      [
        "aliwa",
        -9.758561621440267
      ],
      [
        "▁imar",
        -9.759892704720226
      ],
      [
        "▁wanasema",
        -9.759959883853647
      ],
      [
        "▁sija",
        -9.760253827623242
      ],
      [
        "▁El",
        -9.760341563739331
      ],
      [
        "anch",
        -9.760364482776987
      ],
      [
        "ogop",
        -9.762056611953087
      ],
      [
        "over",
        -9.76333235111563
      ],
      [
        "▁Mashar",
        -9.764140157322233
      ],
      [
        "hukran",
        -9.767470510271655
      ],
      [
        "▁ham",
        -9.767552552947258
      ],
      [
        "afsi",
        -9.769010543494108
      ],
      [
        "DP",
        -9.76917807056941
      ],
      [
        "▁soko",
        -9.770259281412729
      ],
      [
        "fany",
        -9.771033670765892
      ],
      [
        "YO",
        -9.77273223751084
      ],
      [
        "▁imeanz",
        -9.772997861137002
      ],
      [
        "▁Gr",
        -9.77399948256459
      ],
      [
        "▁maand",
        -9.774273307495944
      ],
      [
        "▁usik",
        -9.774742511075162
      ],
      [
        "wamu",
        -9.776559559130733
      ],
      [
        "anja",
        -9.777303874311743
      ],
      [
        "▁Intern",
        -9.777998186280136
      ],
      [
        "kua",
        -9.778367919301806
      ],
      [
        "▁Tar",
        -9.780398047215334
      ],
      [
        "▁Mp",
        -9.781151708985403
      ],
      [
        "cja",
        -9.783584780476193
      ],
      [
        "▁Halm",
        -9.784415579903264
      ],
      [
        "meza",
        -9.785897705538463
      ],
      [
        "▁kuta",
        -9.78739795976431
      ],
      [
        "▁kuv",
        -9.787833035009399
      ],
      [
        "▁Naku",
        -9.788350135239138
      ],
      [
        "▁Kiba",
        -9.788868304933336
      ],
      [
        "ratib",
        -9.789466857527012
      ],
      [
        "▁kutuma",
        -9.790605579410819
      ],
      [
        "▁Kina",
        -9.792093758111191
      ],
      [
        "▁popo",
        -9.792158793796336
      ],
      [
        "▁tutaku",
        -9.792267633674543
      ],
      [
        "▁King",
        -9.79409504655867
      ],
      [
        "umba",
        -9.794685925147427
      ],
      [
        "gawa",
        -9.794729055233862
      ],
      [
        "takw",
        -9.795806874478743
      ],
      [
        "pili",
        -9.795852036233704
      ],
      [
        "▁090",
        -9.795873641008724
      ],
      [
        "mizi",
        -9.796405831922808
      ],
      [
        "mp",
        -9.798132106030092
      ],
      [
        "▁navyo",
        -9.798369904883575
      ],
      [
        "epush",
        -9.798944332842295
      ],
      [
        "▁aliyo",
        -9.799139121085803
      ],
      [
        "BO",
        -9.799304531541331
      ],
      [
        "▁uhu",
        -9.800780118554982
      ],
      [
        "▁has",
        -9.801410967799013
      ],
      [
        "engine",
        -9.801771289722357
      ],
      [
        "▁kiti",
        -9.801868773113444
      ],
      [
        "swa",
        -9.802046008617431
      ],
      [
        "▁wanacho",
        -9.802337370269608
      ],
      [
        "▁kijin",
        -9.80358441630911
      ],
      [
        "▁ulizo",
        -9.804075917480475
      ],
      [
        "tweet",
        -9.807011991547434
      ],
      [
        "▁kumshu",
        -9.807409686695681
      ],
      [
        "▁so",
        -9.808883730884716
      ],
      [
        "ujipati",
        -9.80981248268979
      ],
      [
        "▁Id",
        -9.80983201051307
      ],
      [
        "▁Kwan",
        -9.812276024419637
      ],
      [
        "▁using",
        -9.812302080864665
      ],
      [
        "▁kuondo",
        -9.812568597717586
      ],
      [
        "rejesha",
        -9.813135472165833
      ],
      [
        "▁FA",
        -9.814231451705385
      ],
      [
        "ULI",
        -9.814309559188201
      ],
      [
        "▁maju",
        -9.81528446468092
      ],
      [
        "watu",
        -9.817698436795228
      ],
      [
        "kupinga",
        -9.817714672178127
      ],
      [
        "▁muongo",
        -9.81973042843819
      ],
      [
        "▁Wali",
        -9.821680179183868
      ],
      [
        "▁hatuja",
        -9.822782149985741
      ],
      [
        "▁mch",
        -9.822932248085257
      ],
      [
        "▁End",
        -9.82507146551655
      ],
      [
        "anya",
        -9.826779897206615
      ],
      [
        "▁Lina",
        -9.828582950786176
      ],
      [
        "haha",
        -9.828588213219554
      ],
      [
        "▁SM",
        -9.828650119436034
      ],
      [
        "rug",
        -9.830912103019045
      ],
      [
        "IZI",
        -9.831957871884043
      ],
      [
        "▁mwan",
        -9.831993541022882
      ],
      [
        "▁100",
        -9.832104626322216
      ],
      [
        "▁banda",
        -9.832818049399323
      ],
      [
        "▁Sho",
        -9.833231534114317
      ],
      [
        "▁TU",
        -9.834093500010898
      ],
      [
        "NGE",
        -9.83470374530644
      ],
      [
        "yenu",
        -9.834842202584628
      ],
      [
        "▁ujaz",
        -9.836150374949211
      ],
      [
        "▁Eli",
        -9.837709849654082
      ],
      [
        "sio",
        -9.838714185484639
      ],
      [
        "eshi",
        -9.838775195115812
      ],
      [
        "▁muh",
        -9.839224655480752
      ],
      [
        "▁Shi",
        -9.839496803865057
      ],
      [
        "▁tut",
        -9.839591249501536
      ],
      [
        "▁kuchangi",
        -9.839791494529303
      ],
      [
        "▁kido",
        -9.839911970921012
      ],
      [
        "▁1500",
        -9.84071258051986
      ],
      [
        "futa",
        -9.841258897317399
      ],
      [
        "Ahsante",
        -9.84194430877194
      ],
      [
        "▁huwez",
        -9.842171866196196
      ],
      [
        "shaka",
        -9.84431793547335
      ],
      [
        "milion",
        -9.844721732876968
      ],
      [
        "▁amem",
        -9.845277391475372
      ],
      [
        "wasi",
        -9.845804124198791
      ],
      [
        "ach",
        -9.846323860236444
      ],
      [
        "amii",
        -9.846443811987033
      ],
      [
        "▁niki",
        -9.847144336827546
      ],
      [
        "▁Dis",
        -9.84912158469721
      ],
      [
        "zunguk",
        -9.849796740400533
      ],
      [
        "wara",
        -9.850025171798496
      ],
      [
        "▁vyu",
        -9.852457824548488
      ],
      [
        "bana",
        -9.85250569988325
      ],
      [
        "▁vip",
        -9.852505712161618
      ],
      [
        "▁mikoa",
        -9.852580344952372
      ],
      [
        "oko",
        -9.854454732872298
      ],
      [
        "book",
        -9.855587526211027
      ],
      [
        "iongo",
        -9.856181806966086
      ],
      [
        "▁KUBA",
        -9.856703246327445
      ],
      [
        "atangaz",
        -9.858491795061001
      ],
      [
        "SC",
        -9.858880069194097
      ],
      [
        "utupati",
        -9.858962415406102
      ],
      [
        "▁punguz",
        -9.859108552769198
      ],
      [
        "▁Mz",
        -9.859483272374534
      ],
      [
        "▁anapend",
        -9.861304719295848
      ],
      [
        "kujibu",
        -9.861540296548377
      ],
      [
        "wambi",
        -9.861797355080524
      ],
      [
        "▁made",
        -9.86245057729007
      ],
      [
        "rekebisha",
        -9.862577021586265
      ],
      [
        "sifa",
        -9.863782091461797
      ],
      [
        "▁32",
        -9.864425668866588
      ],
      [
        "ess",
        -9.865120338106998
      ],
      [
        "▁Hawa",
        -9.86634061807747
      ],
      [
        "wada",
        -9.867024447234105
      ],
      [
        "▁pl",
        -9.867546821533345
      ],
      [
        "▁akim",
        -9.867952064523262
      ],
      [
        "sambaza",
        -9.868632309581475
      ],
      [
        "▁kika",
        -9.868680921369618
      ],
      [
        "eta",
        -9.869663066473924
      ],
      [
        "▁inakupa",
        -9.870877349582535
      ],
      [
        "▁Bar",
        -9.871197361367576
      ],
      [
        "mpa",
        -9.872318756853376
      ],
      [
        "▁nika",
        -9.874002084933615
      ],
      [
        "▁Ame",
        -9.876302333387068
      ],
      [
        "chapish",
        -9.877975890969847
      ],
      [
        "▁Or",
        -9.879126136880839
      ],
      [
        "▁ac",
        -9.879208692045173
      ],
      [
        "▁sm",
        -9.87922321048768
      ],
      [
        "iliwa",
        -9.879259491464934
      ],
      [
        "reje",
        -9.880620923549145
      ],
      [
        "▁kidi",
        -9.880951228601777
      ],
      [
        "EMBE",
        -9.880964439027872
      ],
      [
        "vitu",
        -9.881095784874717
      ],
      [
        "fo",
        -9.881210091424936
      ],
      [
        "jivun",
        -9.883206293636176
      ],
      [
        "08201",
        -9.886943801302554
      ],
      [
        "ipimo",
        -9.888038190381195
      ],
      [
        "ny",
        -9.88832649217488
      ],
      [
        "▁17",
        -9.888523266017069
      ],
      [
        "Asante",
        -9.889136583819477
      ],
      [
        "natoka",
        -9.889552828331336
      ],
      [
        "▁MI",
        -9.889725896659279
      ],
      [
        "kt",
        -9.889887127987665
      ],
      [
        "▁msi",
        -9.890334987625007
      ],
      [
        "usambaza",
        -9.8910231687051
      ],
      [
        "▁kipo",
        -9.892569095140976
      ],
      [
        "▁wameji",
        -9.893641625904351
      ],
      [
        "▁Jumata",
        -9.893845277517016
      ],
      [
        "HE",
        -9.89428275141015
      ],
      [
        "▁up",
        -9.896832446780996
      ],
      [
        "hal",
        -9.89804035656502
      ],
      [
        "ipas",
        -9.899854111362934
      ],
      [
        "aki",
        -9.900035061122114
      ],
      [
        "▁hatuwe",
        -9.901291033060287
      ],
      [
        "iona",
        -9.902129707127804
      ],
      [
        "fafanu",
        -9.904009031852521
      ],
      [
        "▁Mada",
        -9.904263018846292
      ],
      [
        "▁unap",
        -9.905293217738382
      ],
      [
        "gh",
        -9.906687378592105
      ],
      [
        "▁amewa",
        -9.907078878585892
      ],
      [
        "▁viwa",
        -9.907100603465695
      ],
      [
        "husish",
        -9.907610014927192
      ],
      [
        "▁Kutoka",
        -9.907984550703052
      ],
      [
        "aelekez",
        -9.908551189621827
      ],
      [
        "han",
        -9.908763844334626
      ],
      [
        "karibu",
        -9.90914731176067
      ],
      [
        "▁Tuli",
        -9.910188117335226
      ],
      [
        "▁Mgo",
        -9.91100682409968
      ],
      [
        "safi",
        -9.911364135111299
      ],
      [
        "shiri",
        -9.914734414071052
      ],
      [
        "▁yana",
        -9.915409933988425
      ],
      [
        "irob",
        -9.917883774480865
      ],
      [
        "▁kutaza",
        -9.918410441677828
      ],
      [
        "▁Kin",
        -9.919555109331775
      ],
      [
        "kizungumz",
        -9.91958552183125
      ],
      [
        "▁kwan",
        -9.921146760094038
      ],
      [
        "▁Hakik",
        -9.921389966407338
      ],
      [
        "yang",
        -9.92141580762387
      ],
      [
        "▁Tak",
        -9.921748634640858
      ],
      [
        "OTO",
        -9.922492702354248
      ],
      [
        "piti",
        -9.923972451425069
      ],
      [
        "▁pro",
        -9.925610463818138
      ],
      [
        "bin",
        -9.925975129312063
      ],
      [
        "dhali",
        -9.928988659071221
      ],
      [
        "hamasisha",
        -9.930145697676435
      ],
      [
        "kunywa",
        -9.930253476890824
      ],
      [
        "sahihi",
        -9.930672095956231
      ],
      [
        "▁Mer",
        -9.931655308377376
      ],
      [
        "▁Ukim",
        -9.933176136754541
      ],
      [
        "17",
        -9.933794775983468
      ],
      [
        "ezaji",
        -9.934180046040636
      ],
      [
        "▁70",
        -9.934694946835906
      ],
      [
        "ct",
        -9.935506454375204
      ],
      [
        "▁Nyumba",
        -9.935639245005415
      ],
      [
        "ys",
        -9.93570822018242
      ],
      [
        "uwa",
        -9.936080638951589
      ],
      [
        "▁Don",
        -9.936585951470937
      ],
      [
        "vya",
        -9.93727656624331
      ],
      [
        "wote",
        -9.939173949861047
      ],
      [
        "▁Kuku",
        -9.939760674165424
      ],
      [
        "wangu",
        -9.941691188205708
      ],
      [
        "TANZANIA",
        -9.942565099808395
      ],
      [
        "utana",
        -9.94395412461149
      ],
      [
        "akula",
        -9.944208078835521
      ],
      [
        "▁fe",
        -9.945328264111033
      ],
      [
        "▁Mb",
        -9.946113751971266
      ],
      [
        "▁kuya",
        -9.946216411428363
      ],
      [
        "gine",
        -9.947827465835953
      ],
      [
        "fikiri",
        -9.947860994926156
      ],
      [
        "▁Wo",
        -9.949366994990227
      ],
      [
        "Uki",
        -9.950038186804086
      ],
      [
        "qui",
        -9.9512557787059
      ],
      [
        "HI",
        -9.951653422717406
      ],
      [
        "▁at",
        -9.9521526601163
      ],
      [
        "▁bon",
        -9.952450788265168
      ],
      [
        "mini",
        -9.953507903312142
      ],
      [
        "▁nja",
        -9.954044312718851
      ],
      [
        "nahitaji",
        -9.95408611294374
      ],
      [
        "▁Yu",
        -9.954687464000976
      ],
      [
        "UME",
        -9.955010519144908
      ],
      [
        "GO",
        -9.955103278956958
      ],
      [
        "NA",
        -9.955374005620948
      ],
      [
        "▁Nika",
        -9.955578258173588
      ],
      [
        "ace",
        -9.955960699484407
      ],
      [
        "▁Zan",
        -9.956337286655852
      ],
      [
        "▁ipi",
        -9.956417394074766
      ],
      [
        "▁kufa",
        -9.956588340482437
      ],
      [
        "ub",
        -9.956655443410437
      ],
      [
        "duma",
        -9.957885626439099
      ],
      [
        "▁utu",
        -9.958158130313535
      ],
      [
        "▁do",
        -9.958775012216476
      ],
      [
        "ls",
        -9.960125561821403
      ],
      [
        "ake",
        -9.960130390887535
      ],
      [
        "▁kwanin",
        -9.960405118127818
      ],
      [
        "idha",
        -9.960651622027969
      ],
      [
        "▁kid",
        -9.961013208379217
      ],
      [
        "edhi",
        -9.96181787034131
      ],
      [
        "sawa",
        -9.962812384809451
      ],
      [
        "twa",
        -9.96390537193609
      ],
      [
        "▁CD",
        -9.96394513734272
      ],
      [
        "▁tunafany",
        -9.963955263698107
      ],
      [
        "▁wek",
        -9.964282045622301
      ],
      [
        "▁Tam",
        -9.964524863175884
      ],
      [
        "ster",
        -9.964706283161414
      ],
      [
        "▁waj",
        -9.965407812709124
      ],
      [
        "liyeku",
        -9.96656733379213
      ],
      [
        "STA",
        -9.967586966998311
      ],
      [
        "▁MT",
        -9.968482373570804
      ],
      [
        "▁wanaku",
        -9.970570178124525
      ],
      [
        "▁Lug",
        -9.970664680561423
      ],
      [
        "mber",
        -9.971227039252446
      ],
      [
        "ht",
        -9.9713379832197
      ],
      [
        "▁baad",
        -9.972169595894739
      ],
      [
        "▁Uli",
        -9.972774617092561
      ],
      [
        "▁hapana",
        -9.974162644614607
      ],
      [
        "▁ngum",
        -9.974171303338887
      ],
      [
        "▁uweke",
        -9.975422140042097
      ],
      [
        "andaa",
        -9.975849081577051
      ],
      [
        "day",
        -9.976229390612628
      ],
      [
        "▁BE",
        -9.976414507402328
      ],
      [
        "DM",
        -9.97665499866045
      ],
      [
        "▁Awa",
        -9.977830692423352
      ],
      [
        "▁mso",
        -9.978127179903526
      ],
      [
        "changany",
        -9.978176931067019
      ],
      [
        "heshim",
        -9.979672536984843
      ],
      [
        "▁wanaum",
        -9.979688325692408
      ],
      [
        "bisha",
        -9.980034197927402
      ],
      [
        "chaguli",
        -9.98052471024158
      ],
      [
        "aching",
        -9.9805562084538
      ],
      [
        "▁DO",
        -9.980615374984966
      ],
      [
        "azi",
        -9.981462501168291
      ],
      [
        "▁tuku",
        -9.981826012848021
      ],
      [
        "▁cho",
        -9.981965386387154
      ],
      [
        "AL",
        -9.982563474240568
      ],
      [
        "gus",
        -9.983777110084631
      ],
      [
        "▁nawa",
        -9.985393564524356
      ],
      [
        "ving",
        -9.985468558562495
      ],
      [
        "jiran",
        -9.986171637284535
      ],
      [
        "akadiri",
        -9.986178307778186
      ],
      [
        "▁Fai",
        -9.987093621838197
      ],
      [
        "ora",
        -9.98711481332841
      ],
      [
        "warudishi",
        -9.990461880022758
      ],
      [
        "lishe",
        -9.990849244276632
      ],
      [
        "▁intanet",
        -9.990966595257005
      ],
      [
        "ep",
        -9.991334182854187
      ],
      [
        "▁kuzi",
        -9.99199255970574
      ],
      [
        "▁Mij",
        -9.992288278016813
      ],
      [
        "ap",
        -9.992794024072571
      ],
      [
        "uru",
        -9.993438615677999
      ],
      [
        "▁MTO",
        -9.993810079247975
      ],
      [
        "ud",
        -9.99544486890675
      ],
      [
        "▁Mis",
        -9.996648436227433
      ],
      [
        "afuta",
        -9.997496064882776
      ],
      [
        "sim",
        -9.99864397899711
      ],
      [
        "▁Mj",
        -9.998701189147827
      ],
      [
        "ahitaji",
        -9.998777430022264
      ],
      [
        "▁dh",
        -9.998978175286021
      ],
      [
        "▁aliyeku",
        -10.000628872078769
      ],
      [
        "ANGU",
        -10.001115599682013
      ],
      [
        "cial",
        -10.001566622624951
      ],
      [
        "uongoz",
        -10.002750819005202
      ],
      [
        "▁mwamb",
        -10.00275213096114
      ],
      [
        "oke",
        -10.003737814179976
      ],
      [
        "wele",
        -10.004067164760578
      ],
      [
        "AG",
        -10.0065209173044
      ],
      [
        "aambukiz",
        -10.007205057933293
      ],
      [
        "▁lili",
        -10.009097853109768
      ],
      [
        "ogope",
        -10.009199200175773
      ],
      [
        "ut",
        -10.010279068025444
      ],
      [
        "▁jan",
        -10.010505365055305
      ],
      [
        "fsi",
        -10.01133700447005
      ],
      [
        "ormal",
        -10.011940528440352
      ],
      [
        "eknolo",
        -10.012017967314984
      ],
      [
        "ufanikish",
        -10.012204714609586
      ],
      [
        "▁Alhamdulil",
        -10.013352256166309
      ],
      [
        "▁0774212121",
        -10.013352256196908
      ],
      [
        "▁Kigwangal",
        -10.013352283406547
      ],
      [
        "▁service",
        -10.013352684247817
      ],
      [
        "▁HUDUM",
        -10.013354043722584
      ],
      [
        "▁VIDEO",
        -10.013354334267415
      ],
      [
        "UELEKE",
        -10.01335570759141
      ],
      [
        "FURAH",
        -10.013359634104466
      ],
      [
        "STOR",
        -10.013360507770553
      ],
      [
        "mjasiliam",
        -10.01336063593699
      ],
      [
        "▁Kariako",
        -10.013368600222446
      ],
      [
        "▁April",
        -10.01337622807059
      ],
      [
        "▁062",
        -10.013420752219462
      ],
      [
        "tamaduni",
        -10.01342494915145
      ],
      [
        "▁mazu",
        -10.013437568774673
      ],
      [
        "▁Chadem",
        -10.013468760186612
      ],
      [
        "▁kuwez",
        -10.013486093492194
      ],
      [
        "▁histor",
        -10.013538025097777
      ],
      [
        "▁Kabisa",
        -10.01355429103168
      ],
      [
        "▁Edw",
        -10.013594361792292
      ],
      [
        "▁kujikinga",
        -10.01366555575775
      ],
      [
        "AIDI",
        -10.013675715229304
      ],
      [
        "▁Sup",
        -10.013690276568116
      ],
      [
        "▁think",
        -10.013745760449677
      ],
      [
        "▁Usafiri",
        -10.013765216551763
      ],
      [
        "▁Japan",
        -10.01387647672455
      ],
      [
        "kabidhi",
        -10.013912208166433
      ],
      [
        "jikunj",
        -10.013923168620089
      ],
      [
        "▁Bondia",
        -10.01404804781163
      ],
      [
        "88",
        -10.014119195777312
      ],
      [
        "▁suluh",
        -10.014133487067507
      ],
      [
        "▁htt",
        -10.014139802882891
      ],
      [
        "kifungu",
        -10.014180476648457
      ],
      [
        "▁TOT",
        -10.014228798909016
      ],
      [
        "hadithi",
        -10.014309818973608
      ],
      [
        "▁NEC",
        -10.014321565820362
      ],
      [
        "ropok",
        -10.014364787749152
      ],
      [
        "▁Goal",
        -10.014405615676434
      ],
      [
        "▁exper",
        -10.014560977875789
      ],
      [
        "▁UDSM",
        -10.014568914619566
      ],
      [
        "▁kitanda",
        -10.014633201993062
      ],
      [
        "▁KUTO",
        -10.014692530017243
      ],
      [
        "▁Post",
        -10.014882075522845
      ],
      [
        "▁hotel",
        -10.015097043921985
      ],
      [
        "▁KAMA",
        -10.01515586949232
      ],
      [
        "abati",
        -10.015266137450704
      ],
      [
        "▁mtaalam",
        -10.015356645225102
      ],
      [
        "LL",
        -10.015510470056247
      ],
      [
        "▁mwanangu",
        -10.015607674975849
      ],
      [
        "▁tuambie",
        -10.015672639126013
      ],
      [
        "▁Kijiji",
        -10.015765509206604
      ],
      [
        "▁Denge",
        -10.015782561514895
      ],
      [
        "wajibik",
        -10.015810431947362
      ],
      [
        "▁WAK",
        -10.015844800898066
      ],
      [
        "▁To",
        -10.015856127265058
      ],
      [
        "130",
        -10.015886647685873
      ],
      [
        "for",
        -10.015913723303226
      ],
      [
        "▁mioyo",
        -10.016066754464601
      ],
      [
        "ridhish",
        -10.016220614176426
      ],
      [
        "▁Moham",
        -10.01625783720882
      ],
      [
        "ons",
        -10.016720737125533
      ],
      [
        "▁Barc",
        -10.017225781247616
      ],
      [
        "▁usafi",
        -10.017519039800836
      ],
      [
        "▁Yote",
        -10.01752790602351
      ],
      [
        "zur",
        -10.017566429197258
      ],
      [
        "anashik",
        -10.017578671795462
      ],
      [
        "▁alivyo",
        -10.017761951111945
      ],
      [
        "▁Wabunge",
        -10.017766934891512
      ],
      [
        "▁KIK",
        -10.017774216751707
      ],
      [
        "▁Wal",
        -10.018066712342325
      ],
      [
        "sic",
        -10.018115396693569
      ],
      [
        "▁walivyo",
        -10.018379792786352
      ],
      [
        "▁Yes",
        -10.01864550209868
      ],
      [
        "▁part",
        -10.018880506876503
      ],
      [
        "▁makato",
        -10.019004662857556
      ],
      [
        "board",
        -10.019071608823808
      ],
      [
        "▁best",
        -10.019118681488559
      ],
      [
        "▁hivo",
        -10.019305789865289
      ],
      [
        "▁zilizo",
        -10.01976124711329
      ],
      [
        "NAYO",
        -10.019962591405543
      ],
      [
        "bio",
        -10.020067409503056
      ],
      [
        "cheke",
        -10.020244971990866
      ],
      [
        "▁ukaribu",
        -10.020252273655874
      ],
      [
        "▁buku",
        -10.020958751435458
      ],
      [
        "708",
        -10.021404549264759
      ],
      [
        "▁sheme",
        -10.021999844674399
      ],
      [
        "▁humo",
        -10.022535756869804
      ],
      [
        "road",
        -10.022643303451893
      ],
      [
        "▁Wiki",
        -10.022863716002675
      ],
      [
        "▁kijanja",
        -10.022880344701065
      ],
      [
        "▁kukamilish",
        -10.022887967274185
      ],
      [
        "▁Steve",
        -10.02296615037198
      ],
      [
        "▁yenyewe",
        -10.023071362663744
      ],
      [
        "▁anayeni",
        -10.023082583275531
      ],
      [
        "pumzik",
        -10.023126101624861
      ],
      [
        "MC",
        -10.023186766243375
      ],
      [
        "▁wanashik",
        -10.023198374592491
      ],
      [
        "▁MASH",
        -10.02333097540411
      ],
      [
        "uta",
        -10.023337902987015
      ],
      [
        "▁MATA",
        -10.023553032196828
      ],
      [
        "▁kuteng",
        -10.023720856494233
      ],
      [
        "158",
        -10.023865327561872
      ],
      [
        "view",
        -10.024854544073808
      ],
      [
        "▁Kamp",
        -10.02490067938094
      ],
      [
        "▁Mtandao",
        -10.025816586453457
      ],
      [
        "hats",
        -10.026921978662353
      ],
      [
        "▁kujadili",
        -10.027195881948018
      ],
      [
        "▁niliyo",
        -10.027291913723612
      ],
      [
        "▁like",
        -10.028082078902155
      ],
      [
        "▁papo",
        -10.029346648382024
      ],
      [
        "▁kutokuw",
        -10.029423094557448
      ],
      [
        "▁Hadi",
        -10.029736881026132
      ],
      [
        "▁ubo",
        -10.029815867495241
      ],
      [
        "▁Juni",
        -10.030128712853308
      ],
      [
        "▁Of",
        -10.030877328480647
      ],
      [
        "tamani",
        -10.031002505604178
      ],
      [
        "28",
        -10.031273727867902
      ],
      [
        "▁1490",
        -10.031578285648777
      ],
      [
        "UL",
        -10.03172091664457
      ],
      [
        "▁utufahamish",
        -10.031888782130912
      ],
      [
        "▁reli",
        -10.032292954227662
      ],
      [
        "▁unatumia",
        -10.032452322152034
      ],
      [
        "ulu",
        -10.032940721604106
      ],
      [
        "▁point",
        -10.033129840089082
      ],
      [
        "▁MAR",
        -10.033336651977024
      ],
      [
        "oll",
        -10.033535384769879
      ],
      [
        "▁ninayo",
        -10.03364166263157
      ],
      [
        "▁Nilikuwa",
        -10.03370574785631
      ],
      [
        "▁Lab",
        -10.033710093945526
      ],
      [
        "▁MKO",
        -10.033782915306114
      ],
      [
        "▁kusahau",
        -10.033817493283108
      ],
      [
        "ig",
        -10.033842259788573
      ],
      [
        "▁Bwana",
        -10.034078596571186
      ],
      [
        "▁Bin",
        -10.0341958576835
      ],
      [
        "takayow",
        -10.034577627086646
      ],
      [
        "BU",
        -10.035174986930109
      ],
      [
        "mas",
        -10.035258489858023
      ],
      [
        "▁sometime",
        -10.035863380240466
      ],
      [
        "▁kurudish",
        -10.035951886277633
      ],
      [
        "row",
        -10.03622771051477
      ],
      [
        "gawi",
        -10.036844229263826
      ],
      [
        "jumuish",
        -10.037368469378947
      ],
      [
        "miza",
        -10.03784969973852
      ],
      [
        "▁itakua",
        -10.03806322137296
      ],
      [
        "enjo",
        -10.038337686498638
      ],
      [
        "▁kuwajeng",
        -10.038360632387711
      ],
      [
        "▁Wame",
        -10.039010334902116
      ],
      [
        "▁tuwe",
        -10.039225013340383
      ],
      [
        "▁mlio",
        -10.04002776168977
      ],
      [
        "▁kushika",
        -10.04045730484104
      ],
      [
        "115",
        -10.040458688159912
      ],
      [
        "▁Gre",
        -10.041009460106531
      ],
      [
        "▁iliyofany",
        -10.041124076039168
      ],
      [
        "ALO",
        -10.041191910020089
      ],
      [
        "▁vilivyoto",
        -10.041313758548352
      ],
      [
        "SHUK",
        -10.041603390368525
      ],
      [
        "PH",
        -10.04188485278479
      ],
      [
        "igital",
        -10.041887780507928
      ],
      [
        "▁kinyum",
        -10.042249941956838
      ],
      [
        "inawezekana",
        -10.042404983789176
      ],
      [
        "▁Sanda",
        -10.042626524335397
      ],
      [
        "▁Thi",
        -10.043020714554125
      ],
      [
        "▁wal",
        -10.04356446111247
      ],
      [
        "▁ubin",
        -10.043602973057673
      ],
      [
        "▁mahakama",
        -10.043610648053047
      ],
      [
        "tuka",
        -10.04361484159112
      ],
      [
        "pote",
        -10.044402432804914
      ],
      [
        "▁AT",
        -10.04503861645825
      ],
      [
        "▁wanavyo",
        -10.045298056898213
      ],
      [
        "▁hatari",
        -10.045302484413776
      ],
      [
        "lipuka",
        -10.045621929887751
      ],
      [
        "▁makali",
        -10.0461037379262
      ],
      [
        "▁uangali",
        -10.0466367409765
      ],
      [
        "▁aende",
        -10.046991989129666
      ],
      [
        "temb",
        -10.047909156009165
      ],
      [
        "▁shuleni",
        -10.048554945506048
      ],
      [
        "▁dak",
        -10.048753059749815
      ],
      [
        "▁kira",
        -10.049315921111432
      ],
      [
        "panga",
        -10.049317799087044
      ],
      [
        "juli",
        -10.049764173445368
      ],
      [
        "▁Bashi",
        -10.049900809923555
      ],
      [
        "▁Day",
        -10.050182400476292
      ],
      [
        "▁wakimbi",
        -10.050530071770645
      ],
      [
        "ito",
        -10.050642981086591
      ],
      [
        "II",
        -10.050768999862408
      ],
      [
        "HAM",
        -10.051196720943166
      ],
      [
        "ondom",
        -10.051594205231021
      ],
      [
        "▁unasema",
        -10.05160221029559
      ],
      [
        "AMBA",
        -10.05181083152477
      ],
      [
        "simba",
        -10.052550256927363
      ],
      [
        "nzani",
        -10.0526929398892
      ],
      [
        "ipoti",
        -10.05355252281507
      ],
      [
        "▁ngapi",
        -10.054424989898997
      ],
      [
        "▁koro",
        -10.054555613055083
      ],
      [
        "oud",
        -10.054656359514812
      ],
      [
        "▁CHU",
        -10.055773830382405
      ],
      [
        "gara",
        -10.055860144274227
      ],
      [
        "▁MAZ",
        -10.056030146417353
      ],
      [
        "ushirikishwa",
        -10.056134808696992
      ],
      [
        "ller",
        -10.056351299377386
      ],
      [
        "▁wenzi",
        -10.056358171429567
      ],
      [
        "▁Imeku",
        -10.056572083767636
      ],
      [
        "ajenge",
        -10.056992512057557
      ],
      [
        "chumba",
        -10.05722694072647
      ],
      [
        "▁utaf",
        -10.057243503213925
      ],
      [
        "▁unazo",
        -10.057369902911732
      ],
      [
        "wafiki",
        -10.057629578304542
      ],
      [
        "▁Ubun",
        -10.05772680999582
      ],
      [
        "mbona",
        -10.05817757625997
      ],
      [
        "bariki",
        -10.058647829551187
      ],
      [
        "▁uamini",
        -10.058820094111743
      ],
      [
        "ato",
        -10.059324003290447
      ],
      [
        "kwamish",
        -10.059368075168484
      ],
      [
        "achi",
        -10.05960622693409
      ],
      [
        "▁upan",
        -10.059792252370546
      ],
      [
        "ukio",
        -10.060155351754204
      ],
      [
        "nye",
        -10.06155197018905
      ],
      [
        "▁Kinacho",
        -10.062325839238364
      ],
      [
        "shirikian",
        -10.062663151694723
      ],
      [
        "VI",
        -10.062814628379773
      ],
      [
        "sion",
        -10.063270925006476
      ],
      [
        "▁29",
        -10.06354726135669
      ],
      [
        "▁Mch",
        -10.063561894092725
      ],
      [
        "▁Mpe",
        -10.063643307888107
      ],
      [
        "AGU",
        -10.063672923378906
      ],
      [
        "JANA",
        -10.063762599208143
      ],
      [
        "ant",
        -10.06409915931954
      ],
      [
        "wakilish",
        -10.064628055449592
      ],
      [
        "▁wanafanya",
        -10.065060629066355
      ],
      [
        "chapa",
        -10.065429286775665
      ],
      [
        "▁wakan",
        -10.06543698957338
      ],
      [
        "▁X",
        -10.066721340859427
      ],
      [
        "tekelez",
        -10.06741209218086
      ],
      [
        "▁lipi",
        -10.067465861461152
      ],
      [
        "atiba",
        -10.068116304517607
      ],
      [
        "ikia",
        -10.068473756754443
      ],
      [
        "uz",
        -10.068504445203775
      ],
      [
        "simami",
        -10.06858063422287
      ],
      [
        "gaze",
        -10.068913749436609
      ],
      [
        "▁Rush",
        -10.068958011851226
      ],
      [
        "▁KWE",
        -10.069005061478864
      ],
      [
        "ee",
        -10.069385651536425
      ],
      [
        "kinga",
        -10.069520567080795
      ],
      [
        "▁Dec",
        -10.070634473719815
      ],
      [
        "ame",
        -10.07115166287417
      ],
      [
        "▁Fil",
        -10.07213911898952
      ],
      [
        "▁for",
        -10.072478024760114
      ],
      [
        "▁nik",
        -10.073024880478116
      ],
      [
        "▁Jina",
        -10.07311883473612
      ],
      [
        "▁anayo",
        -10.07427887891605
      ],
      [
        "▁fara",
        -10.074650723622524
      ],
      [
        "▁Kand",
        -10.075175601828585
      ],
      [
        "▁le",
        -10.075546525431992
      ],
      [
        "LAM",
        -10.077233617053636
      ],
      [
        "ende",
        -10.078325881592304
      ],
      [
        "▁back",
        -10.078636937185193
      ],
      [
        "VU",
        -10.078982947740105
      ],
      [
        "IPIG",
        -10.079697019693667
      ],
      [
        "tani",
        -10.080257939683227
      ],
      [
        "gia",
        -10.080802097398095
      ],
      [
        "▁nimesha",
        -10.08102433364652
      ],
      [
        "▁shirik",
        -10.081472934136446
      ],
      [
        "songa",
        -10.082324347385175
      ],
      [
        "▁Mark",
        -10.082504432075684
      ],
      [
        "▁ukat",
        -10.082524999589644
      ],
      [
        "▁unakuj",
        -10.082693118382208
      ],
      [
        "▁tunai",
        -10.082866185269
      ],
      [
        "halali",
        -10.082906366251166
      ],
      [
        "▁macho",
        -10.083255839897754
      ],
      [
        "▁Uwe",
        -10.083582967113806
      ],
      [
        "▁SA",
        -10.084620896432472
      ],
      [
        "▁kipenz",
        -10.084878128449306
      ],
      [
        "▁sto",
        -10.085564614321946
      ],
      [
        "fundi",
        -10.085679610626956
      ],
      [
        "▁Cor",
        -10.085908235297689
      ],
      [
        "milia",
        -10.086617872092509
      ],
      [
        "▁Ph",
        -10.086704162839983
      ],
      [
        "▁sista",
        -10.08691652634458
      ],
      [
        "tupati",
        -10.086990048806257
      ],
      [
        "▁kufikiri",
        -10.088349014572563
      ],
      [
        "jira",
        -10.089265955647907
      ],
      [
        "▁kufik",
        -10.090647646389552
      ],
      [
        "▁watumi",
        -10.091157180179133
      ],
      [
        "▁Epi",
        -10.091230936082649
      ],
      [
        "ASA",
        -10.091350914922765
      ],
      [
        "▁grou",
        -10.092216648612691
      ],
      [
        "MI",
        -10.092319364884672
      ],
      [
        "▁laki",
        -10.092354314197138
      ],
      [
        "▁28",
        -10.09301337353521
      ],
      [
        "ofa",
        -10.093026147812296
      ],
      [
        "▁mabin",
        -10.09313753088853
      ],
      [
        "▁mpe",
        -10.093882519248945
      ],
      [
        "▁mpenz",
        -10.094176914027871
      ],
      [
        "▁Mut",
        -10.094280393726219
      ],
      [
        "▁Ndug",
        -10.094899813809754
      ],
      [
        "kari",
        -10.095066965650913
      ],
      [
        "▁mo",
        -10.09522152021311
      ],
      [
        "yota",
        -10.095227488290934
      ],
      [
        "bad",
        -10.09531040260237
      ],
      [
        "▁kas",
        -10.095902012334399
      ],
      [
        "▁Kali",
        -10.096491003220132
      ],
      [
        "▁Saa",
        -10.096833562014714
      ],
      [
        "islam",
        -10.09742179979699
      ],
      [
        "▁Is",
        -10.09757691156729
      ],
      [
        "100",
        -10.097894976831757
      ],
      [
        "▁Chom",
        -10.098346997265512
      ],
      [
        "uchunguz",
        -10.098426571708726
      ],
      [
        "nch",
        -10.098668322499767
      ],
      [
        "ex",
        -10.099180302354043
      ],
      [
        "GU",
        -10.0996126650326
      ],
      [
        "mkwe",
        -10.10055349724849
      ],
      [
        "▁Tutakuw",
        -10.10066945321999
      ],
      [
        "▁bara",
        -10.100921973412099
      ],
      [
        "izara",
        -10.102118688784786
      ],
      [
        "andamiz",
        -10.102263484483842
      ],
      [
        "ahidi",
        -10.103989781577917
      ],
      [
        "97",
        -10.104514735552229
      ],
      [
        "▁wanayo",
        -10.104830948914575
      ],
      [
        "chom",
        -10.105161607777132
      ],
      [
        "iss",
        -10.105994632731935
      ],
      [
        "▁kujito",
        -10.107227937474159
      ],
      [
        "iwapo",
        -10.10921717976147
      ],
      [
        "▁Ura",
        -10.110045334402646
      ],
      [
        "IBU",
        -10.111280081916263
      ],
      [
        "▁hand",
        -10.111391045231299
      ],
      [
        "▁tas",
        -10.11142277675822
      ],
      [
        "▁hak",
        -10.112002592193315
      ],
      [
        "▁kula",
        -10.113696954017938
      ],
      [
        "▁Abd",
        -10.113905565713324
      ],
      [
        "chukia",
        -10.114200405048237
      ],
      [
        "▁Wek",
        -10.114457143247911
      ],
      [
        "jeng",
        -10.115431628790624
      ],
      [
        "AT",
        -10.115513696032403
      ],
      [
        "andika",
        -10.116352255849538
      ],
      [
        "▁muj",
        -10.116645425956111
      ],
      [
        "▁Pas",
        -10.117179460147149
      ],
      [
        "lika",
        -10.117226463971699
      ],
      [
        "RB",
        -10.118134237337813
      ],
      [
        "▁kushe",
        -10.118739458290088
      ],
      [
        "▁Chi",
        -10.119997680073126
      ],
      [
        "IP",
        -10.121297970660066
      ],
      [
        "pu",
        -10.121762801235665
      ],
      [
        "▁Ukwel",
        -10.122182080281497
      ],
      [
        "mchongo",
        -10.122643498897773
      ],
      [
        "wekwa",
        -10.122649743096773
      ],
      [
        "▁Miko",
        -10.122914091958927
      ],
      [
        "sumbu",
        -10.123205547801785
      ],
      [
        "▁waweke",
        -10.123354469187978
      ],
      [
        "all",
        -10.123435527971344
      ],
      [
        "sta",
        -10.12623903537726
      ],
      [
        "▁kufikish",
        -10.126685016703762
      ],
      [
        "itaji",
        -10.127109486069507
      ],
      [
        "▁chet",
        -10.127667923796183
      ],
      [
        "NES",
        -10.127836743464751
      ],
      [
        "DK",
        -10.128007785509018
      ],
      [
        "ive",
        -10.128180636449361
      ],
      [
        "▁tulim",
        -10.12832697216566
      ],
      [
        "▁Sha",
        -10.128961940654763
      ],
      [
        "mer",
        -10.128987954260403
      ],
      [
        "▁Kub",
        -10.128990125286233
      ],
      [
        "▁Nyama",
        -10.130283033174
      ],
      [
        "bla",
        -10.130527860496656
      ],
      [
        "iamal",
        -10.13056230571778
      ],
      [
        "king",
        -10.130753278311579
      ],
      [
        "SE",
        -10.13085399954971
      ],
      [
        "▁nikiwa",
        -10.1314040266717
      ],
      [
        "▁Kiko",
        -10.132257145965324
      ],
      [
        "nadhan",
        -10.134763468429966
      ],
      [
        "sipit",
        -10.134809968619265
      ],
      [
        "▁Mtaka",
        -10.135428703544136
      ],
      [
        "▁Hay",
        -10.136059690879073
      ],
      [
        "japo",
        -10.13608776121038
      ],
      [
        "▁kusem",
        -10.13615184833479
      ],
      [
        "▁Fah",
        -10.137491697078534
      ],
      [
        "▁vif",
        -10.137863380423118
      ],
      [
        "▁ufundi",
        -10.138153339062788
      ],
      [
        "up",
        -10.13853393504776
      ],
      [
        "▁wanatak",
        -10.138620529718672
      ],
      [
        "▁Mat",
        -10.138773392046863
      ],
      [
        "rudish",
        -10.139051182415345
      ],
      [
        "rid",
        -10.139481925789719
      ],
      [
        "▁ule",
        -10.13967191654206
      ],
      [
        "tenda",
        -10.141813054913206
      ],
      [
        "kosekan",
        -10.141965628818378
      ],
      [
        "▁Kamba",
        -10.142051453484635
      ],
      [
        "▁kufuat",
        -10.142218998288604
      ],
      [
        "▁Ak",
        -10.142238229963908
      ],
      [
        "alipo",
        -10.142690650387959
      ],
      [
        "▁uto",
        -10.14270880063003
      ],
      [
        "RAD",
        -10.143775954712762
      ],
      [
        "naruhus",
        -10.144529262071298
      ],
      [
        "▁bud",
        -10.14520992417092
      ],
      [
        "lipe",
        -10.145655682005803
      ],
      [
        "▁hau",
        -10.1459955442191
      ],
      [
        "▁tunawa",
        -10.146118591651556
      ],
      [
        "ico",
        -10.148075662716453
      ],
      [
        "▁Lin",
        -10.14819432980614
      ],
      [
        "om",
        -10.14890442909752
      ],
      [
        "siasa",
        -10.14903544520275
      ],
      [
        "ukose",
        -10.149375088981728
      ],
      [
        "wezeshw",
        -10.150395625717268
      ],
      [
        "hamish",
        -10.150829081548835
      ],
      [
        "TALI",
        -10.151354741855483
      ],
      [
        "▁YAK",
        -10.152178200353097
      ],
      [
        "▁vitaka",
        -10.1526425333691
      ],
      [
        "mke",
        -10.152928705517903
      ],
      [
        "chunguz",
        -10.153071858535572
      ],
      [
        "mtu",
        -10.158420876929535
      ],
      [
        "hana",
        -10.159712804111532
      ],
      [
        "▁Dee",
        -10.159816918328966
      ],
      [
        "ipenda",
        -10.16123678215437
      ],
      [
        "balo",
        -10.161393039093822
      ],
      [
        "chimb",
        -10.162872835803512
      ],
      [
        "ura",
        -10.163724331416814
      ],
      [
        "▁tunaku",
        -10.164023398891171
      ],
      [
        "bara",
        -10.164442932316309
      ],
      [
        "abadilik",
        -10.164597496916425
      ],
      [
        "shind",
        -10.165913391252694
      ],
      [
        "bili",
        -10.166279068560392
      ],
      [
        "hadhar",
        -10.166338524870866
      ],
      [
        "emi",
        -10.166572808291374
      ],
      [
        "EBO",
        -10.167187739656931
      ],
      [
        "▁BASH",
        -10.167371552243717
      ],
      [
        "TAN",
        -10.167563951143194
      ],
      [
        "cc",
        -10.167761681122158
      ],
      [
        "MISA",
        -10.167790255220703
      ],
      [
        "▁Jona",
        -10.167993558888538
      ],
      [
        "ATI",
        -10.16808084054116
      ],
      [
        "▁msim",
        -10.168375855891712
      ],
      [
        "▁Vye",
        -10.168461398109002
      ],
      [
        "ilishwa",
        -10.168828383763014
      ],
      [
        "▁day",
        -10.169292168785088
      ],
      [
        "▁Tembe",
        -10.169621469285104
      ],
      [
        "aje",
        -10.169723688252429
      ],
      [
        "badilik",
        -10.17188016901445
      ],
      [
        "▁Msan",
        -10.172617329730157
      ],
      [
        "fichi",
        -10.17288945610127
      ],
      [
        "aweza",
        -10.173449413799911
      ],
      [
        "BAR",
        -10.175019001659003
      ],
      [
        "▁kunawa",
        -10.175122081599577
      ],
      [
        "▁mawa",
        -10.175145995262909
      ],
      [
        "▁kuchom",
        -10.175315554084642
      ],
      [
        "▁Mchek",
        -10.175689298440737
      ],
      [
        "PO",
        -10.176194504702842
      ],
      [
        "cker",
        -10.177160305054294
      ],
      [
        "▁On",
        -10.177531131399714
      ],
      [
        "▁taa",
        -10.178394612895072
      ],
      [
        "▁KUO",
        -10.179667556044762
      ],
      [
        "elele",
        -10.180683110046852
      ],
      [
        "chor",
        -10.181864271632637
      ],
      [
        "▁Kati",
        -10.182036766992544
      ],
      [
        "▁wanapit",
        -10.18209932892779
      ],
      [
        "HA",
        -10.182244938931772
      ],
      [
        "ll",
        -10.184070467240849
      ],
      [
        "▁wanat",
        -10.18421937462057
      ],
      [
        "▁HU",
        -10.18424749675169
      ],
      [
        "▁miti",
        -10.184595314023301
      ],
      [
        "UF",
        -10.186775482171598
      ],
      [
        "▁Med",
        -10.187014445384095
      ],
      [
        "lipo",
        -10.18815312830145
      ],
      [
        "▁sab",
        -10.18827239571362
      ],
      [
        "MBA",
        -10.18843962613277
      ],
      [
        "▁kir",
        -10.18905187239234
      ],
      [
        "ola",
        -10.18983852111703
      ],
      [
        "igogo",
        -10.190113561881425
      ],
      [
        "▁Map",
        -10.19103488451336
      ],
      [
        "▁vika",
        -10.192240659317768
      ],
      [
        "jisajili",
        -10.193349546982482
      ],
      [
        "sem",
        -10.194015768149882
      ],
      [
        "vie",
        -10.19405301696309
      ],
      [
        "und",
        -10.194086716665375
      ],
      [
        "fan",
        -10.194556777523498
      ],
      [
        "▁Uga",
        -10.194648127687612
      ],
      [
        "lolo",
        -10.194704916225833
      ],
      [
        "usaidia",
        -10.195240476194764
      ],
      [
        "RUSH",
        -10.196851642117057
      ],
      [
        "▁wamek",
        -10.196959926541302
      ],
      [
        "▁Ukiwa",
        -10.197987254378324
      ],
      [
        "▁mnyam",
        -10.198079469788132
      ],
      [
        "▁UK",
        -10.198722641014308
      ],
      [
        "wapongez",
        -10.199625731772034
      ],
      [
        "▁alie",
        -10.199732327528164
      ],
      [
        "wisho",
        -10.199760851020054
      ],
      [
        "▁kulipi",
        -10.20259225106966
      ],
      [
        "un",
        -10.202897714221676
      ],
      [
        "sikiliz",
        -10.203986651530519
      ],
      [
        "ET",
        -10.2057614532614
      ],
      [
        "afaniki",
        -10.205763483180922
      ],
      [
        "im",
        -10.206540514900773
      ],
      [
        "▁Wanao",
        -10.206702125848464
      ],
      [
        "▁Gu",
        -10.206931037701565
      ],
      [
        "▁com",
        -10.207645391984414
      ],
      [
        "▁tumekuw",
        -10.208326521891388
      ],
      [
        "pres",
        -10.209162332425215
      ],
      [
        "pungu",
        -10.209332863824386
      ],
      [
        "as",
        -10.209434199846578
      ],
      [
        "▁sila",
        -10.209523170921374
      ],
      [
        "badilishwa",
        -10.210202804102707
      ],
      [
        "siyo",
        -10.211346237662246
      ],
      [
        "▁follow",
        -10.212442150625003
      ],
      [
        "▁Ubung",
        -10.212609804536198
      ],
      [
        "ria",
        -10.212666332858591
      ],
      [
        "UTA",
        -10.214508570041907
      ],
      [
        "AMU",
        -10.21463940794587
      ],
      [
        "hala",
        -10.215157307629136
      ],
      [
        "▁vipa",
        -10.215871274658436
      ],
      [
        "ituo",
        -10.215883176227381
      ],
      [
        "ip",
        -10.217216066410497
      ],
      [
        "hannel",
        -10.21767186951175
      ],
      [
        "enge",
        -10.217886818903231
      ],
      [
        "▁MAS",
        -10.218776764991546
      ],
      [
        "▁202",
        -10.220836418737992
      ],
      [
        "iji",
        -10.221025484486546
      ],
      [
        "▁tak",
        -10.221641557958963
      ],
      [
        "▁ziki",
        -10.221860448792869
      ],
      [
        "nce",
        -10.222427726586638
      ],
      [
        "HO",
        -10.223327609746457
      ],
      [
        "uji",
        -10.224231884069493
      ],
      [
        "▁Kutok",
        -10.225222578120682
      ],
      [
        "▁130",
        -10.225227527055655
      ],
      [
        "kaji",
        -10.225620041416972
      ],
      [
        "UHI",
        -10.225732470691149
      ],
      [
        "▁Nin",
        -10.226686627942938
      ],
      [
        "51",
        -10.226963198104645
      ],
      [
        "wazi",
        -10.227050236897322
      ],
      [
        "▁Tok",
        -10.227382310805305
      ],
      [
        "unde",
        -10.227400378413808
      ],
      [
        "abu",
        -10.2274674748736
      ],
      [
        "▁zin",
        -10.227988893878045
      ],
      [
        "▁kali",
        -10.23027993950072
      ],
      [
        "▁Fi",
        -10.231850605338334
      ],
      [
        "▁ND",
        -10.232175264891168
      ],
      [
        "ror",
        -10.232316822830688
      ],
      [
        "▁nta",
        -10.234310155776482
      ],
      [
        "▁DA",
        -10.234605845513052
      ],
      [
        "ok",
        -10.234615975040123
      ],
      [
        "nasi",
        -10.235951134400281
      ],
      [
        "ugu",
        -10.23610066420481
      ],
      [
        "▁Ok",
        -10.236111889287846
      ],
      [
        "ners",
        -10.238658222428992
      ],
      [
        "naye",
        -10.238700648749255
      ],
      [
        "metengenez",
        -10.238814236289006
      ],
      [
        "imarish",
        -10.239808573150443
      ],
      [
        "wema",
        -10.239946543701855
      ],
      [
        "adu",
        -10.241126466531501
      ],
      [
        "nya",
        -10.241534745388645
      ],
      [
        "ahoji",
        -10.241965192371852
      ],
      [
        "▁kilicho",
        -10.242417882267922
      ],
      [
        "▁AMA",
        -10.243039049448672
      ],
      [
        "▁nim",
        -10.24310500776244
      ],
      [
        "shirik",
        -10.243256171378464
      ],
      [
        "adha",
        -10.243732994301988
      ],
      [
        "▁NE",
        -10.244651871944228
      ],
      [
        "amb",
        -10.24503337825947
      ],
      [
        "pasw",
        -10.245610933745906
      ],
      [
        "▁bunge",
        -10.247701532063449
      ],
      [
        "▁kige",
        -10.247756057157801
      ],
      [
        "▁Ser",
        -10.248358542428
      ],
      [
        "▁Matu",
        -10.249170228572847
      ],
      [
        "abia",
        -10.250315512566804
      ],
      [
        "▁Alex",
        -10.25054711739095
      ],
      [
        "ell",
        -10.250595286422998
      ],
      [
        "kumbi",
        -10.25156758525201
      ],
      [
        "▁WATO",
        -10.253257963124854
      ],
      [
        "ipati",
        -10.253521037704246
      ],
      [
        "umwa",
        -10.253845715021257
      ],
      [
        "ik",
        -10.255366987772458
      ],
      [
        "genz",
        -10.25552544327676
      ],
      [
        "▁awa",
        -10.256153829672973
      ],
      [
        "upiga",
        -10.256187651108075
      ],
      [
        "kini",
        -10.256570688837437
      ],
      [
        "▁inafany",
        -10.256812228127192
      ],
      [
        "▁Can",
        -10.257957619867671
      ],
      [
        "▁Ul",
        -10.258880262688425
      ],
      [
        "▁inatok",
        -10.261340664870907
      ],
      [
        "▁Anga",
        -10.262375990423262
      ],
      [
        "NG",
        -10.262927086210608
      ],
      [
        "▁Tur",
        -10.2629698103032
      ],
      [
        "aju",
        -10.26340872745946
      ],
      [
        "chele",
        -10.263599668944103
      ],
      [
        "kubalian",
        -10.26402031443216
      ],
      [
        "▁Sir",
        -10.264034740381128
      ],
      [
        "▁160",
        -10.265024940483231
      ],
      [
        "iza",
        -10.266610239952763
      ],
      [
        "▁Kes",
        -10.267848176465149
      ],
      [
        "ataka",
        -10.268371297490368
      ],
      [
        "azungumz",
        -10.268422594017256
      ],
      [
        "sikitish",
        -10.268701643357007
      ],
      [
        "▁Waju",
        -10.268892177673612
      ],
      [
        "▁she",
        -10.269323221788818
      ],
      [
        "inaendelea",
        -10.269978258840286
      ],
      [
        "▁Tuliku",
        -10.27026695535771
      ],
      [
        "▁Mari",
        -10.270311974939311
      ],
      [
        "chuki",
        -10.27080321317103
      ],
      [
        "ms",
        -10.27130159940064
      ],
      [
        "▁mli",
        -10.271545499397622
      ],
      [
        "▁mwi",
        -10.271830867854135
      ],
      [
        "uti",
        -10.271884232013917
      ],
      [
        "▁JE",
        -10.272034941455454
      ],
      [
        "fukuz",
        -10.272246551046077
      ],
      [
        "▁anacho",
        -10.273121148673138
      ],
      [
        "hapa",
        -10.273248898404237
      ],
      [
        "▁Bos",
        -10.27407719118207
      ],
      [
        "ve",
        -10.27443129017034
      ],
      [
        "▁SIM",
        -10.274443085326002
      ],
      [
        "▁inayoku",
        -10.274542705446125
      ],
      [
        "imefik",
        -10.275183976375553
      ],
      [
        "▁tim",
        -10.275485410112154
      ],
      [
        "▁ke",
        -10.277289381571038
      ],
      [
        "▁band",
        -10.277359148594353
      ],
      [
        "fuko",
        -10.277375371652031
      ],
      [
        "eee",
        -10.277378590281444
      ],
      [
        "lue",
        -10.277819353482425
      ],
      [
        "25",
        -10.27887710613571
      ],
      [
        "▁uch",
        -10.279409448339162
      ],
      [
        "TZ",
        -10.279659319090978
      ],
      [
        "▁ht",
        -10.280397869405427
      ],
      [
        "rac",
        -10.282147207743046
      ],
      [
        "rahisish",
        -10.284175665314738
      ],
      [
        "ration",
        -10.284415471213716
      ],
      [
        "40",
        -10.284583244217714
      ],
      [
        "UKU",
        -10.284935603744442
      ],
      [
        "MILI",
        -10.286064457936643
      ],
      [
        "▁progr",
        -10.286232444481533
      ],
      [
        "▁Sal",
        -10.286869361472387
      ],
      [
        "▁kusa",
        -10.28710869535131
      ],
      [
        "▁Kup",
        -10.28761726016251
      ],
      [
        "ITI",
        -10.2881006912894
      ],
      [
        "▁WE",
        -10.288300573436294
      ],
      [
        "▁wakal",
        -10.289024773969388
      ],
      [
        "▁nzi",
        -10.289122413461172
      ],
      [
        "wapa",
        -10.289759177933567
      ],
      [
        "wataka",
        -10.290592390569351
      ],
      [
        "gt",
        -10.29073293633195
      ],
      [
        "▁Gha",
        -10.290929489194845
      ],
      [
        "adri",
        -10.29202417626035
      ],
      [
        "buni",
        -10.292975841596826
      ],
      [
        "wajulish",
        -10.293167561468614
      ],
      [
        "▁Kum",
        -10.29347393022894
      ],
      [
        "zungu",
        -10.294764060709944
      ],
      [
        "itabu",
        -10.295105314693986
      ],
      [
        "itatu",
        -10.296735116626127
      ],
      [
        "▁mazi",
        -10.296975729341243
      ],
      [
        "▁mach",
        -10.300218882901754
      ],
      [
        "▁end",
        -10.301733635786455
      ],
      [
        "▁yo",
        -10.302339639256957
      ],
      [
        "here",
        -10.303187459105276
      ],
      [
        "▁kizu",
        -10.303382491559573
      ],
      [
        "AKA",
        -10.303491074018472
      ],
      [
        "anunuzi",
        -10.303641959538282
      ],
      [
        "hudumia",
        -10.30389054341671
      ],
      [
        "▁msta",
        -10.304609965599687
      ],
      [
        "ACE",
        -10.304758231401161
      ],
      [
        "uali",
        -10.304869333283397
      ],
      [
        "peleke",
        -10.305460917660188
      ],
      [
        "ula",
        -10.30579609042933
      ],
      [
        "▁kun",
        -10.305926785727552
      ],
      [
        "IWE",
        -10.306069258356127
      ],
      [
        "▁mta",
        -10.306322023500973
      ],
      [
        "simamish",
        -10.307502659578342
      ],
      [
        "jione",
        -10.310683157793813
      ],
      [
        "kili",
        -10.31126413138226
      ],
      [
        "▁Milan",
        -10.31244538109884
      ],
      [
        "▁kima",
        -10.312640826186191
      ],
      [
        "▁ukim",
        -10.312703061798508
      ],
      [
        "▁kizaz",
        -10.314229604461076
      ],
      [
        "▁Kisa",
        -10.31556204364718
      ],
      [
        "▁hawata",
        -10.316475479062756
      ],
      [
        "awe",
        -10.316931797126742
      ],
      [
        "▁Mita",
        -10.317455032968303
      ],
      [
        "▁anatu",
        -10.317792975746483
      ],
      [
        "wetu",
        -10.318122709271293
      ],
      [
        "▁KUL",
        -10.318232826318637
      ],
      [
        "▁Rama",
        -10.319854601098829
      ],
      [
        "utu",
        -10.321633244080434
      ],
      [
        "▁mashin",
        -10.322398094431689
      ],
      [
        "ize",
        -10.322768300887585
      ],
      [
        "kufa",
        -10.323547945031647
      ],
      [
        "▁Inter",
        -10.323903348720265
      ],
      [
        "cheki",
        -10.324590833655147
      ],
      [
        "lu",
        -10.324682014818533
      ],
      [
        "▁Ib",
        -10.327691681037606
      ],
      [
        "uwez",
        -10.328195796903168
      ],
      [
        "▁Ujum",
[...]
