{
  "version": "1.0",
  "truncation": null,
  "padding": null,
  "added_tokens": [
    {
      "id": 0,
      "content": "<pad>",
      "single_word": false,
      "lstrip": false,
      "rstrip": false,
      "normalized": false,
      "special": true
    },
    {
      "id": 1,
      "content": "<unk>",
      "single_word": false,
      "lstrip": false,
      "rstrip": false,
      "normalized": false,
      "special": true
    },
    {
      "id": 2,
      "content": "<cls>",
      "single_word": false,
      "lstrip": false,
      "rstrip": false,
      "normalized": false,
      "special": true
    }
  ],
  "normalizer": {
    "type": "Sequence",
    "normalizers": [
      {
        "type": "Nmt"
      },
      {
        "type": "NFKC"
      },
      {
        "type": "Replace",
        "pattern": {
          "Regex": " {2,}"
        },
        "content": " "
      }
    ]
  },
  "pre_tokenizer": {
    "type": "Metaspace",
    "replacement": "▁",
    "prepend_scheme": "always",
    "split": true
  },
  "post_processor": {
    "type": "TemplateProcessing",
    "single": [
      {
        "SpecialToken": {
          "id": "<cls>",
          "type_id": 0
        }
      },
      {
        "Sequence": {
          "id": "A",
          "type_id": 0
        }
      }
    ],
    "pair": [
      {
        "Sequence": {
          "id": "A",
          "type_id": 0
        }
      },
      {
        "Sequence": {
          "id": "B",
          "type_id": 1
        }
      }
    ],
    "special_tokens": {
      "<cls>": {
        "id": "<cls>",
        "ids": [
          2
        ],
        "tokens": [
          "<cls>"
        ]
      }
    }
  },
  "decoder": {
    "type": "Metaspace",
    "replacement": "▁",
    "prepend_scheme": "always",
    "split": true
  },
  "model": {
    "type": "Unigram",
    "unk_id": 1,
    "vocab": [
      [
        "<pad>",
        0.0
      ],
      [
        "<unk>",
        0.0
      ],
      [
        "<cls>",
        0.0
      ],
      [
        ",",
        -3.606181542981453
      ],
      [
        ".",
        -3.6663243482482155
      ],
      [
        "▁",
        -3.916106916979235
      ],
      [
        "▁ni",
        -4.20456808157995
      ],
      [
        "▁@user",
        -4.246785624416628
      ],
      [
        "▁a",
        -4.600527080560173
      ],
      [
        "▁ní",
        -4.8342905370851055
      ],
      [
        "▁ti",
        -4.883832276249792
      ],
      [
        "▁tí",
        -4.936430766194138
      ],
      [
        "▁@user:",
        -4.972143132265158
      ],
      [
        "▁ń",
        -4.9984606801061355
      ],
      [
        "▁#Yoruba",
        -5.0185012530020945
      ],
      [
        "▁o",
        -5.030054495324234
      ],
      [
        "▁RT",
        -5.035479919532621
      ],
      [
        "s",
        -5.229842781034106
      ],
      [
        "n",
        -5.257107300046613
      ],
      [
        "▁ó",
        -5.281176160707151
      ],
      [
        "▁ṣe",
        -5.322451217974205
      ],
      [
        "▁A",
        -5.334712058518588
      ],
      [
        "▁wa",
        -5.344027397676151
      ],
      [
        "▁#",
        -5.364631967866164
      ],
      [
        "▁fi",
        -5.394680372052314
      ],
      [
        "a",
        -5.415592696140474
      ],
      [
        "...",
        -5.446023872802283
      ],
      [
        "▁bá",
        -5.453743250799527
      ],
      [
        "▁ò",
        -5.47445984872388
      ],
      [
        "?",
        -5.5107962385222535
      ],
      [
        "▁kí",
        -5.648019952914013
      ],
      [
        "i",
        -5.672203958669671
      ],
      [
        "▁sí",
        -5.697210745019081
      ],
      [
        "o",
        -5.701542485748079
      ],
      [
        "▁àwọn",
        -5.71485761503529
      ],
      [
        "▁Ẹ",
        -5.720750925934235
      ],
      [
        "▁mi",
        -5.744296109459727
      ],
      [
        "e",
        -5.807616782204906
      ],
      [
        "▁fún",
        -5.812938243936855
      ],
      [
        "!",
        -5.8371835366980696
      ],
      [
        "▁wọ́n",
        -5.875898767163803
      ],
      [
        "▁tó",
        -5.89215487917388
      ],
      [
        "-",
        -5.925656140229367
      ],
      [
        "▁mo",
        -5.9280198121071255
      ],
      [
        "▁O",
        -5.946203015372284
      ],
      [
        "▁n",
        -5.948877788229492
      ],
      [
        "u",
        -5.979734167387364
      ],
      [
        "▁à",
        -5.9930876677747325
      ],
      [
        "▁àti",
        -6.014273425931741
      ],
      [
        "▁ọmọ",
        -6.018190191879748
      ],
      [
        "▁ẹ",
        -6.022501020055434
      ],
      [
        "▁#yoruba",
        -6.049417238383338
      ],
      [
        "▁to",
        -6.078253745871736
      ],
      [
        "▁e",
        -6.079733901711463
      ],
      [
        "▁lo",
        -6.0955258123289155
      ],
      [
        "▁bí",
        -6.101331753796795
      ],
      [
        ":",
        -6.1104877948356195
      ],
      [
        "▁á",
        -6.140351836906815
      ],
      [
        "▁kò",
        -6.150578184195448
      ],
      [
        "▁kan",
        -6.150780092039342
      ],
      [
        "▁jẹ́",
        -6.155755947025139
      ],
      [
        "▁wá",
        -6.168505712485484
      ],
      [
        "▁se",
        -6.171877528236126
      ],
      [
        "▁o.",
        -6.19662997646826
      ],
      [
        "d",
        -6.198555070546111
      ],
      [
        "▁ma",
        -6.215366757492869
      ],
      [
        "▁ló",
        -6.217101752704612
      ],
      [
        "▁í",
        -6.226201582641134
      ],
      [
        ")",
        -6.246696973172229
      ],
      [
        "t",
        -6.247038752636309
      ],
      [
        "m",
        -6.259150744577703
      ],
      [
        "▁máa",
        -6.259969235027042
      ],
      [
        "▁-",
        -6.262885297010236
      ],
      [
        "▁ì",
        -6.262929496893577
      ],
      [
        "g",
        -6.291934293806669
      ],
      [
        "▁gbogbo",
        -6.306866205071343
      ],
      [
        "l",
        -6.310294214412828
      ],
      [
        "y",
        -6.328504700997986
      ],
      [
        "▁kú",
        -6.341804846720797
      ],
      [
        "'",
        -6.348925203726063
      ],
      [
        "▁la",
        -6.370504596990132
      ],
      [
        "A",
        -6.373609102705271
      ],
      [
        "▁ko",
        -6.373696956574322
      ],
      [
        "▁ba",
        -6.378195573901317
      ],
      [
        ";",
        -6.380774487393022
      ],
      [
        "▁pa",
        -6.381004423231762
      ],
      [
        "ni",
        -6.390051954985578
      ],
      [
        "le",
        -6.3920086481147225
      ],
      [
        "▁rí",
        -6.395204646948038
      ],
      [
        "▁I",
        -6.396401077956293
      ],
      [
        "▁náà",
        -6.397567195688675
      ],
      [
        "▁lọ",
        -6.401761328677257
      ],
      [
        "à",
        -6.411879298474784
      ],
      [
        "ra",
        -6.412681428186342
      ],
      [
        "▁E",
        -6.421590476545656
      ],
      [
        "▁À",
        -6.450133835014037
      ],
      [
        "re",
        -6.458682933419007
      ],
      [
        "▁pé",
        -6.460894702098451
      ],
      [
        "▁láti",
        -6.463606693563993
      ],
      [
        "▁(",
        -6.471204269620482
      ],
      [
        "▁si",
        -6.479119328930057
      ],
      [
        "▁di",
        -6.48108170184144
      ],
      [
        "▁fun",
        -6.482062402961361
      ],
      [
        "▁Ì",
        -6.482424539485546
      ],
      [
        "▁yìí",
        -6.514245811731526
      ],
      [
        "▁the",
        -6.515959196416389
      ],
      [
        "▁Yorùbá",
        -6.5228229119547825
      ],
      [
        "▁i",
        -6.523453007538634
      ],
      [
        "r",
        -6.528408285203853
      ],
      [
        "de",
        -6.551746766551767
      ],
      [
        "▁wọn",
        -6.5646301099871005
      ],
      [
        "▁Mo",
        -6.576862438312294
      ],
      [
        "O",
        -6.578186689070022
      ],
      [
        "mi",
        -6.602962630189668
      ],
      [
        "▁rẹ̀",
        -6.608791265761699
      ],
      [
        "▁ara",
        -6.609704659461421
      ],
      [
        "▁sì",
        -6.611301690658061
      ],
      [
        "▁le",
        -6.633616587214645
      ],
      [
        "▁ki",
        -6.637891545613029
      ],
      [
        "b",
        -6.649091836376886
      ],
      [
        "S",
        -6.656342390786271
      ],
      [
        "▁wà",
        -6.668504967168591
      ],
      [
        "p",
        -6.670519042241364
      ],
      [
        "▁gba",
        -6.6976305904337
      ],
      [
        "k",
        -6.697744903103613
      ],
      [
        "wo",
        -6.709210019154377
      ],
      [
        "\"\"\"\"\"\"\"\"",
        -6.714358835761336
      ],
      [
        "▁gbé",
        -6.7257489727340225
      ],
      [
        "▁...",
        -6.728595508048054
      ],
      [
        "f",
        -6.733083325992937
      ],
      [
        "N",
        -6.739443383379412
      ],
      [
        "▁pe",
        -6.741291814375813
      ],
      [
        "I",
        -6.741975657684184
      ],
      [
        "▁Ó",
        -6.751498987721219
      ],
      [
        "L",
        -6.753403087618383
      ],
      [
        "F",
        -6.758526352743362
      ],
      [
        "▁wo",
        -6.759594730314738
      ],
      [
        "▁is",
        -6.764751365702921
      ],
      [
        "h",
        -6.772779831492193
      ],
      [
        "w",
        -6.776040536968142
      ],
      [
        "se",
        -6.797760874459982
      ],
      [
        "c",
        -6.801474265663015
      ],
      [
        "▁o!",
        -6.813549154911627
      ],
      [
        "E",
        -6.815869884208233
      ],
      [
        "▁\"\"\"\"\"\"\"\"",
        -6.819913652968749
      ],
      [
        "wa",
        -6.81995404172011
      ],
      [
        "▁#Ibeere",
        -6.820016411919363
      ],
      [
        "▁Kí",
        -6.821081911725163
      ],
      [
        "▁lè",
        -6.8493489681155415
      ],
      [
        "▁jẹ",
        -6.849360887894426
      ],
      [
        "ti",
        -6.858273308302184
      ],
      [
        "▁ire",
        -6.861067078894197
      ],
      [
        "▁yóò",
        -6.880055836859423
      ],
      [
        "▁je",
        -6.880610209016804
      ],
      [
        "▁ẹni",
        -6.885381904297296
      ],
      [
        "T",
        -6.890973316672705
      ],
      [
        "▁nínú",
        -6.891232681033365
      ],
      [
        "▁sọ",
        -6.891680742878708
      ],
      [
        "▁fẹ́",
        -6.905194118700405
      ],
      [
        "x",
        -6.906511446379099
      ],
      [
        "j",
        -6.909368650242046
      ],
      [
        "B",
        -6.909663564405905
      ],
      [
        "ri",
        -6.91037325839708
      ],
      [
        "5",
        -6.911811290367314
      ],
      [
        "R",
        -6.91443930372255
      ],
      [
        "D",
        -6.9232386227344636
      ],
      [
        "la",
        -6.925791279075016
      ],
      [
        "▁ohun",
        -6.928961269488814
      ],
      [
        "▁kì",
        -6.938638480533722
      ],
      [
        "Y",
        -6.945747076783972
      ],
      [
        "▁kó",
        -6.946763403636149
      ],
      [
        "C",
        -6.948311427375346
      ],
      [
        "ro",
        -6.9488681154493035
      ],
      [
        "M",
        -6.949110197283932
      ],
      [
        "G",
        -6.951851707150814
      ],
      [
        "▁ati",
        -6.955251698480681
      ],
      [
        "▁re",
        -6.959044170770697
      ],
      [
        "K",
        -6.959950667638161
      ],
      [
        "2",
        -6.9716254511112465
      ],
      [
        "6",
        -6.999489083352614
      ],
      [
        "v",
        -7.006450550227224
      ],
      [
        "▁of",
        -7.008238255688341
      ],
      [
        "3",
        -7.011088330500443
      ],
      [
        "▁/",
        -7.017700232459813
      ],
      [
        "▁bi",
        -7.024426426347316
      ],
      [
        "▁Bí",
        -7.027913645628519
      ],
      [
        "J",
        -7.028494574407824
      ],
      [
        "▁mú",
        -7.029719955834876
      ],
      [
        "ta",
        -7.038589431544763
      ],
      [
        "▁ìlú",
        -7.038758822694225
      ],
      [
        "▁won",
        -7.039096348896145
      ],
      [
        "▁tún",
        -7.048248651260302
      ],
      [
        "nu",
        -7.055033213943377
      ],
      [
        "▁mọ̀",
        -7.0587655155568445
      ],
      [
        "▁ọjọ́",
        -7.058882753994588
      ],
      [
        "▁omo",
        -7.064747547856684
      ],
      [
        "lẹ̀",
        -7.067153846629887
      ],
      [
        "X",
        -7.069963102525404
      ],
      [
        "H",
        -7.0741668470715675
      ],
      [
        "▁mọ́",
        -7.074293315121016
      ],
      [
        "\"\"\"\"\"\"\"\"@user:",
        -7.075900906441522
      ],
      [
        "í",
        -7.076697216673645
      ],
      [
        "▁ọdún",
        -7.0821585779735985
      ],
      [
        "ì",
        -7.087714542503343
      ],
      [
        "▁ilé",
        -7.088491844096761
      ],
      [
        "9",
        -7.089746873916093
      ],
      [
        "kan",
        -7.089752105742491
      ],
      [
        "▁ẹ̀",
        -7.098144976788091
      ],
      [
        "▁dá",
        -7.1095842367261355
      ],
      [
        "ba",
        -7.113654739663751
      ],
      [
        "▁Àwọn",
        -7.122222613980294
      ],
      [
        "P",
        -7.125543561935116
      ],
      [
        "W",
        -7.137256777660644
      ],
      [
        "bi",
        -7.143921988042977
      ],
      [
        "ó",
        -7.149554861148248
      ],
      [
        "▁be",
        -7.1516727293882525
      ],
      [
        "▁so",
        -7.156414189917887
      ],
      [
        "7",
        -7.158366921519105
      ],
      [
        "U",
        -7.1597287573543404
      ],
      [
        "▁in",
        -7.161676127636077
      ],
      [
        "V",
        -7.167333803835066
      ],
      [
        "ò",
        -7.170501636430203
      ],
      [
        "lé",
        -7.173309274776855
      ],
      [
        "á",
        -7.177165167404434
      ],
      [
        "bo",
        -7.178962929644195
      ],
      [
        "8",
        -7.181411869954051
      ],
      [
        "▁lá",
        -7.18306906091078
      ],
      [
        "▁orí",
        -7.185249967023163
      ],
      [
        "▁W",
        -7.1854051856705485
      ],
      [
        "rí",
        -7.1855050649982655
      ],
      [
        "▁Ọba",
        -7.186131683092099
      ],
      [
        "q",
        -7.186722737365969
      ],
      [
        "▁Ò",
        -7.187168299165214
      ],
      [
        "▁mọ",
        -7.188428353672666
      ],
      [
        "ko",
        -7.188744254216736
      ],
      [
        "mo",
        -7.191561682370826
      ],
      [
        "▁yín",
        -7.202263739641916
      ],
      [
        "1",
        -7.202625495420622
      ],
      [
        "▁dé",
        -7.207595048728315
      ],
      [
        "/",
        -7.224204644454198
      ],
      [
        "4",
        -7.234211737813708
      ],
      [
        "Z",
        -7.237588799665757
      ],
      [
        "▁È",
        -7.247100888602445
      ],
      [
        "▁:)",
        -7.2482235180579
      ],
      [
        "▁wípé",
        -7.25037553515069
      ],
      [
        "▁da",
        -7.251427275260505
      ],
      [
        "▁lórí",
        -7.25169907451008
      ],
      [
        "Q",
        -7.253925996116791
      ],
      [
        "0",
        -7.2558032841653795
      ],
      [
        "ye",
        -7.258320748320167
      ],
      [
        "z",
        -7.259878868273958
      ],
      [
        "▁má",
        -7.260855946716752
      ],
      [
        "▁ká",
        -7.265528110072957
      ],
      [
        "▁o,",
        -7.265614759272956
      ],
      [
        "▁Ọmọ",
        -7.266486751763677
      ],
      [
        "▁Ọlọ́run",
        -7.278105364670439
      ],
      [
        "▁èdè",
        -7.279096844364421
      ],
      [
        "▁ọ̀rọ̀",
        -7.285685977893551
      ],
      [
        "▁Ẹ̀",
        -7.299531760959718
      ],
      [
        "▁là",
        -7.309666383018461
      ],
      [
        "▁ri",
        -7.3099395689676925
      ],
      [
        "si",
        -7.31137577095349
      ],
      [
        "▁bẹ́ẹ̀",
        -7.318183484253848
      ],
      [
        "▁ka",
        -7.32206386395378
      ],
      [
        "▁#Nigeria",
        -7.323816442352944
      ],
      [
        "ọ́n",
        -7.326149040372211
      ],
      [
        "▁Yoruba",
        -7.330089711253892
      ],
      [
        "awon",
        -7.330994572304194
      ],
      [
        "pa",
        -7.331061109484795
      ],
      [
        "▁ju",
        -7.332917294780027
      ],
      [
        "▁ilẹ̀",
        -7.342966898718736
      ],
      [
        "▁kọ́",
        -7.35116389941625
      ],
      [
        "▁iṣẹ́",
        -7.359035319338371
      ],
      [
        "je",
        -7.364317365452395
      ],
      [
        "da",
        -7.364356990905099
      ],
      [
        "▁é",
        -7.365126932635487
      ],
      [
        "ya",
        -7.365696376878956
      ],
      [
        "▁t'ó",
        -7.369598710201664
      ],
      [
        "▁ku",
        -7.370198081645289
      ],
      [
        "▁owó",
        -7.370735317435347
      ],
      [
        "▁gbe",
        -7.3759312267054495
      ],
      [
        "yin",
        -7.380415433624114
      ],
      [
        "rin",
        -7.382804075066916
      ],
      [
        "▁'",
        -7.399171159002559
      ],
      [
        "▁pè",
        -7.400844869270487
      ],
      [
        "▁gbà",
        -7.4032627896989895
      ],
      [
        "▁ibi",
        -7.404009946031943
      ],
      [
        "na",
        -7.406437227611904
      ],
      [
        "ka",
        -7.418514111703524
      ],
      [
        "▁=",
        -7.419122441422885
      ],
      [
        "lo",
        -7.434802848324835
      ],
      [
        "▁ta",
        -7.437306674338394
      ],
      [
        "▁ọ",
        -7.444253602232971
      ],
      [
        "un",
        -7.447130331370994
      ],
      [
        "ẹ̀",
        -7.4504818877555286
      ],
      [
        "▁ọba",
        -7.453906506352852
      ],
      [
        "▁gbọ́",
        -7.460161689823774
      ],
      [
        "ẹ",
        -7.462399112580954
      ],
      [
        "▁l'ó",
        -7.462554064230063
      ],
      [
        "won",
        -7.469064030556315
      ],
      [
        "▁rẹ",
        -7.478984604298122
      ],
      [
        "▁lọ́wọ́",
        -7.489214496017222
      ],
      [
        "▁ojú",
        -7.491295525143959
      ],
      [
        "po",
        -7.49159266483765
      ],
      [
        "ing",
        -7.49273133598389
      ],
      [
        "▁#ibeere",
        -7.493359921447596
      ],
      [
        "▁ile",
        -7.495968078434153
      ],
      [
        "lá",
        -7.496697495139415
      ],
      [
        "▁mu",
        -7.49695521164304
      ],
      [
        "pe",
        -7.5056446582474585
      ],
      [
        "bí",
        -7.507700538373032
      ],
      [
        "▁èèyàn",
        -7.512459493678674
      ],
      [
        "ọ̀",
        -7.517470965244464
      ],
      [
        "ní",
        -7.517965106358546
      ],
      [
        "ke",
        -7.521579059356094
      ],
      [
        "▁G",
        -7.52576395191086
      ],
      [
        "gun",
        -7.525909666855885
      ],
      [
        "▁#TweetinYoruba",
        -7.530889217745129
      ],
      [
        "jú",
        -7.536325319007456
      ],
      [
        "▁B",
        -7.536681496936949
      ],
      [
        "▁omi",
        -7.544018053625461
      ],
      [
        "▁lati",
        -7.546006605132834
      ],
      [
        "▁S",
        -7.546483803006375
      ],
      [
        "ru",
        -7.549551926245508
      ],
      [
        "▁kọ",
        -7.552634029056262
      ],
      [
        "▁Ire",
        -7.553939224920008
      ],
      [
        "▁yin",
        -7.563467166341135
      ],
      [
        "▁de",
        -7.566361205915268
      ],
      [
        "run",
        -7.56715656531139
      ],
      [
        "ku",
        -7.567265571970989
      ],
      [
        "▁Kò",
        -7.568649245966133
      ],
      [
        "▁bíi",
        -7.56999589135022
      ],
      [
        "ran",
        -7.578553173060765
      ],
      [
        "ọ",
        -7.58608503808771
      ],
      [
        "▁yẹ",
        -7.586198179865625
      ],
      [
        "▁mí",
        -7.588004715715649
      ],
      [
        "è",
        -7.589945938896862
      ],
      [
        "▁è",
        -7.5947409837136854
      ],
      [
        "▁#A",
        -7.5953434973102345
      ],
      [
        "ja",
        -7.59682540319519
      ],
      [
        "do",
        -7.597787307223292
      ],
      [
        "ọ́",
        -7.605739944074088
      ],
      [
        "▁ayé",
        -7.607014088536715
      ],
      [
        "di",
        -7.609913142900356
      ],
      [
        "é",
        -7.610879861042983
      ],
      [
        "▁inú",
        -7.61585003394696
      ],
      [
        "▁ogun",
        -7.62398030344752
      ],
      [
        "so",
        -7.626710083652522
      ],
      [
        "▁Ọ",
        -7.628921259652234
      ],
      [
        "▁ìyá",
        -7.639097163424607
      ],
      [
        "te",
        -7.640939177361557
      ],
      [
        "▁tàbí",
        -7.642134853065009
      ],
      [
        "ṣe",
        -7.6488765640771526
      ],
      [
        "▁f'",
        -7.662103123228962
      ],
      [
        "\"\"\"\"",
        -7.666747730467763
      ],
      [
        "Yoruba",
        -7.67404811219246
      ],
      [
        "▁l'",
        -7.674792845778444
      ],
      [
        "▁fe",
        -7.675917035625236
      ],
      [
        "we",
        -7.676224361455873
      ],
      [
        "in",
        -7.695615168519057
      ],
      [
        "▁Ọ̀",
        -7.697622203974695
      ],
      [
        "tí",
        -7.6992887932467
      ],
      [
        "▁pẹ̀lú",
        -7.699407788621755
      ],
      [
        "lu",
        -7.702460147578061
      ],
      [
        "ú",
        -7.708048777617944
      ],
      [
        "ed",
        -7.70901319801881
      ],
      [
        "▁L",
        -7.710383354631347
      ],
      [
        "jo",
        -7.713409332618172
      ],
      [
        "to",
        -7.720988157125256
      ],
      [
        "ji",
        -7.723176430448187
      ],
      [
        "ma",
        -7.725497692134301
      ],
      [
        "▁igi",
        -7.730684873438153
      ],
      [
        "▁T",
        -7.74040728771361
      ],
      [
        "sí",
        -7.750397397159262
      ],
      [
        "▁lé",
        -7.7509250673631644
      ],
      [
        "be",
        -7.7546232102297115
      ],
      [
        "st",
        -7.756683362748536
      ],
      [
        "▁N",
        -7.762083253922526
      ],
      [
        "▁Ní",
        -7.7658989312583975
      ],
      [
        "▁Omo",
        -7.767801462247157
      ],
      [
        "▁wa.",
        -7.767863787853725
      ],
      [
        "▁and",
        -7.777517703387283
      ],
      [
        "kun",
        -7.7806065836415295
      ],
      [
        "▁it",
        -7.785751124544787
      ],
      [
        "▁ilu",
        -7.795577100062339
      ],
      [
        "bá",
        -7.7961092325457795
      ],
      [
        "▁for",
        -7.7965868271138135
      ],
      [
        "▁eni",
        -7.7970016054549545
      ],
      [
        "mu",
        -7.803183154226064
      ],
      [
        "▁méjì",
        -7.80968901329158
      ],
      [
        "▁jí",
        -7.811270419988908
      ],
      [
        "▁K",
        -7.819561501852962
      ],
      [
        "▁pọ̀",
        -7.825349294536105
      ],
      [
        "▁you",
        -7.825846701038845
      ],
      [
        "▁bo",
        -7.827465454308363
      ],
      [
        "gba",
        -7.831290071191151
      ],
      [
        "▁tuntun",
        -7.832050718275043
      ],
      [
        "▁Ǹjẹ́",
        -7.833432665335335
      ],
      [
        "▁g",
        -7.8384475191687555
      ],
      [
        "▁ènìyàn",
        -7.842040412465092
      ],
      [
        "▁fa",
        -7.846007357533163
      ],
      [
        "▁ya",
        -7.846340271460084
      ],
      [
        "▁bọ̀",
        -7.84739438102477
      ],
      [
        "▁ọ́",
        -7.850025618046896
      ],
      [
        "▁un",
        -7.855661886107723
      ],
      [
        "gi",
        -7.8569100770194025
      ],
      [
        "▁Ni",
        -7.8575233957515245
      ],
      [
        "▁ojo",
        -7.858109254087686
      ],
      [
        "ṣẹ́",
        -7.865022644016383
      ],
      [
        "kò",
        -7.865735994178468
      ],
      [
        "▁ará",
        -7.866129516764223
      ],
      [
        "▁baba",
        -7.868238686680686
      ],
      [
        "▁orúkọ",
        -7.8701990330816765
      ],
      [
        "▁not",
        -7.8731312361834425
      ],
      [
        "▁wípé,",
        -7.874898009705194
      ],
      [
        "▁P",
        -7.875492983109607
      ],
      [
        "wọn",
        -7.8795572005177075
      ],
      [
        "▁na",
        -7.883456133172128
      ],
      [
        "kú",
        -7.8845296008772054
      ],
      [
        "▁yi",
        -7.88632819476819
      ],
      [
        "ẹ́",
        -7.886483038087226
      ],
      [
        "dá",
        -7.897890327393738
      ],
      [
        "hun",
        -7.9025697492762825
      ],
      [
        "▁#InYoruba",
        -7.903906216195334
      ],
      [
        "▁lọ.",
        -7.906902514656585
      ],
      [
        "▁Orí",
        -7.910727502427157
      ],
      [
        "▁http://t.co/",
        -7.914201454854569
      ],
      [
        "▁Ajé",
        -7.91430538006851
      ],
      [
        "▁ìgbà",
        -7.91438832485913
      ],
      [
        "Day",
        -7.917146593474417
      ],
      [
        "▁yí",
        -7.922169875951624
      ],
      [
        "▁Gbogbo",
        -7.922396747251347
      ],
      [
        "▁èyí",
        -7.9238518109359415
      ],
      [
        "mọ́",
        -7.930628578046438
      ],
      [
        "▁wí",
        -7.935307492270021
      ],
      [
        "▁The",
        -7.94412446158892
      ],
      [
        "ẹ̀yin",
        -7.94704717401971
      ],
      [
        "▁oko",
        -7.947471910370639
      ],
      [
        "▁oní",
        -7.947737393211422
      ],
      [
        "▁F",
        -7.948180824549678
      ],
      [
        "▁alá",
        -7.949857495370043
      ],
      [
        "▁gbo",
        -7.95172908846246
      ],
      [
        "gbà",
        -7.958675917408716
      ],
      [
        "▁jọ",
        -7.962483085719563
      ],
      [
        "▁wọ",
        -7.963809722734089
      ],
      [
        "ju",
        -7.968019086138231
      ],
      [
        "▁ọwọ́",
        -7.968882666516241
      ],
      [
        "▁nítorí",
        -7.969533664606581
      ],
      [
        "▁Ẹni",
        -7.975000067353282
      ],
      [
        "wá",
        -7.976130715010907
      ],
      [
        "rò",
        -7.978186226396316
      ],
      [
        "▁rere",
        -7.9787774206109345
      ],
      [
        "▁#proverb",
        -7.978788678513588
      ],
      [
        "▁Ṣé",
        -7.9795764967782326
      ],
      [
        "ge",
        -7.979631827724283
      ],
      [
        "dé",
        -7.983803002842031
      ],
      [
        "jà",
        -7.984444380520256
      ],
      [
        "er",
        -7.987779203932743
      ],
      [
        "▁#O",
        -7.9908398488428425
      ],
      [
        "▁#E",
        -7.992849108646205
      ],
      [
        "li",
        -7.995636230393568
      ],
      [
        "ró",
        -7.997955332669947
      ],
      [
        "▁#learnyoruba",
        -7.998216666098734
      ],
      [
        "▁Baba",
        -7.999213335837019
      ],
      [
        "▁ọ̀nà",
        -7.999505587094145
      ],
      [
        "▁#I",
        -8.00398788315327
      ],
      [
        "mọ",
        -8.01442472079109
      ],
      [
        "▁Oluwa",
        -8.02955804869628
      ],
      [
        "▁one",
        -8.030314143033857
      ],
      [
        "▁lọ́",
        -8.031132924726261
      ],
      [
        "▁lori",
        -8.031376147778726
      ],
      [
        "▁àgbà",
        -8.036160791252229
      ],
      [
        "▁oro",
        -8.0365399678067
      ],
      [
        "▁ninu",
        -8.037125428823066
      ],
      [
        "sa",
        -8.038816775357809
      ],
      [
        "▁Èkó",
        -8.039235483192467
      ],
      [
        "▁owo",
        -8.046615235567717
      ],
      [
        "wó",
        -8.053789281672962
      ],
      [
        "▁Ojú",
        -8.055750340794052
      ],
      [
        "du",
        -8.05640684818735
      ],
      [
        "▁M",
        -8.058097933397157
      ],
      [
        "▁mà",
        -8.059781840892516
      ],
      [
        "▁Ògún",
        -8.060089345698167
      ],
      [
        "jẹ́",
        -8.060520714095793
      ],
      [
        "▁oṣù",
        -8.061844319120285
      ],
      [
        "▁ọ̀",
        -8.06879458827229
      ],
      [
        "▁Yoòbá",
        -8.070381877079871
      ],
      [
        "▁kìí",
        -8.07251164427857
      ],
      [
        "▁Ki",
        -8.077040848135798
      ],
      [
        "▁padà",
        -8.078459436593981
      ],
      [
        "▁ori",
        -8.081313320173624
      ],
      [
        "▁wipe",
        -8.081322228375058
      ],
      [
        "▁#Owe",
        -8.08164790820162
      ],
      [
        "▁oni",
        -8.082468487867775
      ],
      [
        "▁mẹ́ta",
        -8.08398760950535
      ],
      [
        "▁sílẹ̀",
        -8.087548118323092
      ],
      [
        "lú",
        -8.091480627972508
      ],
      [
        "▁ise",
        -8.096527552174066
      ],
      [
        "rà",
        -8.100758732113595
      ],
      [
        "ki",
        -8.102614125009687
      ],
      [
        "▁Ọjọ́",
        -8.103419000366909
      ],
      [
        "kọ",
        -8.10352814883126
      ],
      [
        "▁báyìí",
        -8.103559435069062
      ],
      [
        "kà",
        -8.104874704713367
      ],
      [
        "dì",
        -8.106594906031333
      ],
      [
        "gbe",
        -8.108723463131364
      ],
      [
        "▁yá",
        -8.110275245466589
      ],
      [
        "rú",
        -8.110714950159382
      ],
      [
        "▁ede",
        -8.119199490795918
      ],
      [
        "▁odun",
        -8.12013183890569
      ],
      [
        "'s",
        -8.123266715583828
      ],
      [
        "▁D",
        -8.124523315342536
      ],
      [
        "▁mi.",
        -8.124700485241984
      ],
      [
        "▁bàbá",
        -8.12551722427686
      ],
      [
        "▁ìwé",
        -8.127142410089183
      ],
      [
        "fe",
        -8.129484894471718
      ],
      [
        "▁ga",
        -8.132822411465074
      ],
      [
        "yi",
        -8.133038398458936
      ],
      [
        "▁lẹ",
        -8.134616808942063
      ],
      [
        "fi",
        -8.135921053876654
      ],
      [
        "gbo",
        -8.138861784071677
      ],
      [
        "▁tán",
        -8.141791221358424
      ],
      [
        "▁we",
        -8.144635741417623
      ],
      [
        "▁#B",
        -8.144957898300309
      ],
      [
        "▁Awon",
        -8.146761892842841
      ],
      [
        "sẹ̀",
        -8.149236936979138
      ],
      [
        "▁#TweetYoruba",
        -8.149320402755453
      ],
      [
        "là",
        -8.15141879888604
      ],
      [
        "▁Ko",
        -8.153060781949272
      ],
      [
        "▁pẹ́",
        -8.1556543290514
      ],
      [
        "jẹ",
        -8.156134412201869
      ],
      [
        "▁dùn",
        -8.15916124943529
      ],
      [
        "▁bẹ",
        -8.160126084063204
      ],
      [
        "rọ̀",
        -8.160880986875267
      ],
      [
        "bọ̀",
        -8.161423604590087
      ],
      [
        "▁yọ",
        -8.165012073983192
      ],
      [
        "mí",
        -8.166716172752547
      ],
      [
        "▁that",
        -8.171632014560759
      ],
      [
        "▁k'á",
        -8.171773343362648
      ],
      [
        "▁nípa",
        -8.172279323318808
      ],
      [
        "▁ji",
        -8.172389415216195
      ],
      [
        "pọ̀",
        -8.174258476799505
      ],
      [
        "▁s",
        -8.178702931275762
      ],
      [
        "▁ṣé",
        -8.18234717998488
      ],
      [
        "wé",
        -8.182894446591483
      ],
      [
        "▁àṣà",
        -8.184914223047727
      ],
      [
        "▁òní",
        -8.185945533327779
      ],
      [
        "▁lára",
        -8.187962355788386
      ],
      [
        "▁t'",
        -8.192140712606493
      ],
      [
        "▁wọ̀nyí",
        -8.19554568656943
      ],
      [
        "bu",
        -8.199488022675597
      ],
      [
        "▁naa",
        -8.202133651116675
      ],
      [
        "wọ́",
        -8.207823118831222
      ],
      [
        "▁aṣọ",
        -8.213151084883046
      ],
      [
        "▁Ta",
        -8.214522403262432
      ],
      [
        "▁irú",
        -8.214842687176066
      ],
      [
        "ga",
        -8.214990015206977
      ],
      [
        "go",
        -8.216886068970044
      ],
      [
        "▁nkan",
        -8.219387560818587
      ],
      [
        "▁nǹkan",
        -8.219661201170412
      ],
      [
        "▁me",
        -8.225939053395669
      ],
      [
        "▁ja",
        -8.226939881802814
      ],
      [
        "▁ro",
        -8.228171729144606
      ],
      [
        "▁orin",
        -8.229046319059591
      ],
      [
        "n't",
        -8.23041276735084
      ],
      [
        "▁lò",
        -8.2375229063546
      ],
      [
        "▁Ti",
        -8.243480276055067
      ],
      [
        "kẹ́",
        -8.244329444681188
      ],
      [
        "▁kàn",
        -8.244347927951008
      ],
      [
        "jọ́",
        -8.249328842348785
      ],
      [
        "▁òkè",
        -8.250104279408655
      ],
      [
        "lẹ́",
        -8.25188530114362
      ],
      [
        "ll",
        -8.25188990299618
      ],
      [
        "bà",
        -8.252296032196796
      ],
      [
        "▁yii",
        -8.253164915573832
      ],
      [
        "▁san",
        -8.25347326446225
      ],
      [
        "ná",
        -8.255253531712015
      ],
      [
        "▁ṣ'",
        -8.25529524848513
      ],
      [
        "▁Olódùmarè",
        -8.258463638945745
      ],
      [
        "mọ̀",
        -8.259238918322353
      ],
      [
        "▁♫",
        -8.26080662304302
      ],
      [
        "▁|",
        -8.261582544506485
      ],
      [
        "▁ewé",
        -8.262321932458292
      ],
      [
        "gbé",
        -8.265741545696148
      ],
      [
        "▁òun",
        -8.2678944933512
      ],
      [
        "▁do",
        -8.273361845007507
      ],
      [
        "▁igba",
        -8.273597325571597
      ],
      [
        "san",
        -8.275746358331283
      ],
      [
        "▁t",
        -8.280798172834572
      ],
      [
        "tu",
        -8.283984195545688
      ],
      [
        "▁with",
        -8.284294697910678
      ],
      [
        "an",
        -8.292121583219139
      ],
      [
        "▁[",
        -8.295941107549343
      ],
      [
        "▁Olúwa",
        -8.298612923450591
      ],
      [
        "fa",
        -8.298815810385381
      ],
      [
        "▁wọn.",
        -8.301585736383359
      ],
      [
        "wò",
        -8.304441147831781
      ],
      [
        "\"\"\"\"\"\"\"\".",
        -8.309754057176047
      ],
      [
        "nà",
        -8.310263141837853
      ],
      [
        "▁yó",
        -8.310512113741733
      ],
      [
        "▁Ọ̀yọ́",
        -8.311776069055142
      ],
      [
        "▁maa",
        -8.316287906974386
      ],
      [
        "▁ṣá",
        -8.319880149980431
      ],
      [
        "▁will",
        -8.32487011880957
      ],
      [
        "▁tan",
        -8.32582790576621
      ],
      [
        "▁jù",
        -8.329623353343253
      ],
      [
        "▁ra",
        -8.3320930816539
      ],
      [
        "yà",
        -8.334804695986461
      ],
      [
        "!!!",
        -8.3356924010807
      ],
      [
        "▁b",
        -8.336681757026604
      ],
      [
        "▁títí",
        -8.33844086635202
      ],
      [
        "▁láyé",
        -8.339243404690155
      ],
      [
        "▁Ifá",
        -8.339677581677812
      ],
      [
        "▁sun",
        -8.33990254302016
      ],
      [
        "▁bẹ̀rẹ̀",
        -8.341424441567614
      ],
      [
        "▁no",
        -8.342190415696656
      ],
      [
        "▁tì",
        -8.345588831117027
      ],
      [
        "mú",
        -8.346291946183538
      ],
      [
        "pá",
        -8.349300134029324
      ],
      [
        "tun",
        -8.350489217646864
      ],
      [
        "(",
        -8.350802457320178
      ],
      [
        "▁Tí",
        -8.354400317342453
      ],
      [
        "▁dúpẹ́",
        -8.354603623225465
      ],
      [
        "ré",
        -8.354678457996227
      ],
      [
        "yoruba",
        -8.356053665599674
      ],
      [
        "day",
        -8.356816621475367
      ],
      [
        "▁po",
        -8.357698628759481
      ],
      [
        "▁Ma",
        -8.360077773468323
      ],
      [
        "ar",
        -8.361483726642307
      ],
      [
        "▁lowo",
        -8.364486562634443
      ],
      [
        "▁jo",
        -8.366620536828478
      ],
      [
        "▁ìjọba",
        -8.367568841846149
      ],
      [
        "▁ọkọ̀",
        -8.370825740133412
      ],
      [
        "▁àmọ́",
        -8.37087734953041
      ],
      [
        "bú",
        -8.371555040069847
      ],
      [
        "▁Kíni",
        -8.374979030533499
      ],
      [
        "À",
        -8.37614317201308
      ],
      [
        "▁p",
        -8.378814178152673
      ],
      [
        "▁#TweetInYoruba",
        -8.382257227117293
      ],
      [
        "me",
        -8.38304516759123
      ],
      [
        "▁on",
        -8.384146971095584
      ],
      [
        "▁obìnrin",
        -8.386139765467622
      ],
      [
        "▁an",
        -8.387009645698345
      ],
      [
        "já",
        -8.388364449541745
      ],
      [
        "▁mi,",
        -8.39200905595699
      ],
      [
        "kí",
        -8.39875805701605
      ],
      [
        "ká",
        -8.400943649046472
      ],
      [
        "▁ẹran",
        -8.401113406262265
      ],
      [
        "▁máà",
        -8.401347814466774
      ],
      [
        "dà",
        -8.403394404542286
      ],
      [
        "▁are",
        -8.406533688131624
      ],
      [
        "▁emi",
        -8.410402794134605
      ],
      [
        "▁d'",
        -8.41149676820347
      ],
      [
        "▁iya",
        -8.411622815586718
      ],
      [
        "▁Se",
        -8.412988368561205
      ],
      [
        "ho",
        -8.414600561107953
      ],
      [
        "▁dúró",
        -8.41463439876588
      ],
      [
        "▁tẹ",
        -8.419318858781613
      ],
      [
        "▁sa",
        -8.42456779771707
      ],
      [
        "▁oúnjẹ",
        -8.427740806066392
      ],
      [
        "▁dà",
        -8.429117687990843
      ],
      [
        "▁dun",
        -8.432294724420089
      ],
      [
        "yè",
        -8.43443099059708
      ],
      [
        "ce",
        -8.435733417991194
      ],
      [
        "yí",
        -8.435926875169987
      ],
      [
        "▁jáde",
        -8.436550081355241
      ],
      [
        "▁wò",
        -8.436920735162158
      ],
      [
        "kọ́",
        -8.437197200823466
      ],
      [
        "ng",
        -8.437891728896876
      ],
      [
        "▁ké",
        -8.439733110222322
      ],
      [
        "sì",
        -8.440637804137088
      ],
      [
        "ly",
        -8.441224444121595
      ],
      [
        "▁ńlá",
        -8.443464583045346
      ],
      [
        "Nigeria",
        -8.448232132271999
      ],
      [
        "▁abi",
        -8.448663189762176
      ],
      [
        "▁sá",
        -8.454368220828993
      ],
      [
        "▁mìíràn",
        -8.457297849702694
      ],
      [
        "▁#Isese",
        -8.45773832132835
      ],
      [
        "▁oun",
        -8.460279469458946
      ],
      [
        "▁nílé",
        -8.460356899461573
      ],
      [
        "▁egbe",
        -8.460574591199581
      ],
      [
        "ve",
        -8.462091515624047
      ],
      [
        "▁nígbà",
        -8.470076136130993
      ],
      [
        "▁Eni",
        -8.470244732812434
      ],
      [
        "ever",
        -8.470718550773185
      ],
      [
        "▁aye",
        -8.471188288938936
      ],
      [
        "ṣ",
        -8.471219701024287
      ],
      [
        "▁dára",
        -8.472604260332446
      ],
      [
        "lè",
        -8.473524515361778
      ],
      [
        "▁ẹyẹ",
        -8.474559737292545
      ],
      [
        "▁Ogun",
        -8.475579180478407
      ],
      [
        "▁#a",
        -8.476750858461546
      ],
      [
        "▁já",
        -8.476827640314228
      ],
      [
        "wà",
        -8.477055672245266
      ],
      [
        "al",
        -8.479745757305864
      ],
      [
        "▁àbí",
        -8.479817365635096
      ],
      [
        "▁yìí.",
        -8.48058974250344
      ],
      [
        "▁#EsinOro",
        -8.489299883505883
      ],
      [
        "▁#owe",
        -8.489649808361689
      ],
      [
        "▁Nàìjíríà",
        -8.490457762483757
      ],
      [
        "fo",
        -8.491167999183304
      ],
      [
        "▁funfun",
        -8.4913362235899
      ],
      [
        "▁Èmi",
        -8.493897128666797
      ],
      [
        "gbó",
        -8.493938686924665
      ],
      [
        "▁Ohun",
        -8.494049012501318
      ],
      [
        "▁ẹrú",
        -8.494618249861329
      ],
      [
        "▁can",
        -8.495154106632928
      ],
      [
        "th",
        -8.495914128343244
      ],
      [
        "̟",
        -8.498832920827798
      ],
      [
        "▁*",
        -8.49973677196438
      ],
      [
        "▁yé",
        -8.500175356278936
      ],
      [
        "tì",
        -8.501551221749908
      ],
      [
        "nd",
        -8.501555728482444
      ],
      [
        "ń",
        -8.502456670634974
      ],
      [
        "kó",
        -8.502805157270625
      ],
      [
        "▁lójú",
        -8.502990945808541
      ],
      [
        "yo",
        -8.507081527134753
      ],
      [
        "▁C",
        -8.51040190517216
      ],
      [
        "’",
        -8.516164134752728
      ],
      [
        "tà",
        -8.516359036206467
      ],
      [
        "▁#i",
        -8.521066542300055
      ],
      [
        "▁#iroyin",
        -8.52324726055641
      ],
      [
        "▁àwòrán",
        -8.523976053154174
      ],
      [
        "▁óò",
        -8.525302304246107
      ],
      [
        "▁Lá",
        -8.52595231973483
      ],
      [
        "wu",
        -8.532114906532783
      ],
      [
        "or",
        -8.534890413934328
      ],
      [
        "nú",
        -8.540158079930174
      ],
      [
        "▁ọjà",
        -8.541552511698747
      ],
      [
        "▁rè",
        -8.541795940286484
      ],
      [
        "▁Olorun",
        -8.543630351284584
      ],
      [
        "▁ìdí",
        -8.543738614472407
      ],
      [
        "▁bu",
        -8.543953092396453
      ],
      [
        "▁Ilé",
        -8.546417932966003
      ],
      [
        "▁tiwa",
        -8.547345582671975
      ],
      [
        "▁òwe",
        -8.549414523683716
      ],
      [
        "at",
        -8.551133810311516
      ],
      [
        "▁.@user",
        -8.556881540620202
      ],
      [
        "▁yo",
        -8.556947103545992
      ],
      [
        "▁olo",
        -8.557813377249888
      ],
      [
        "▁nìkan",
        -8.56065635912016
      ],
      [
        "yàn",
        -8.560792738918142
      ],
      [
        "fà",
        -8.564354355597189
      ],
      [
        "▁f",
        -8.565276238489787
      ],
      [
        "]",
        -8.565533166051793
      ],
      [
        "▁Ibi",
        -8.565870710806767
      ],
      [
        "▁awo",
        -8.566472018801997
      ],
      [
        "ù",
        -8.572154278574754
      ],
      [
        "pè",
        -8.573166370497173
      ],
      [
        "▁lọ́jọ́",
        -8.574553639079495
      ],
      [
        "▁#Yorùbá",
        -8.575252895831104
      ],
      [
        "rù",
        -8.575401016136631
      ],
      [
        "bẹ̀",
        -8.576997637246528
      ],
      [
        "▁your",
        -8.577453810580367
      ],
      [
        "▁Bi",
        -8.581001028132118
      ],
      [
        "ha",
        -8.581529480189001
      ],
      [
        "rì",
        -8.581540940574692
      ],
      [
        "Í",
        -8.583486271894264
      ],
      [
        "▁tun",
        -8.584970642148209
      ],
      [
        "tó",
        -8.585605193174914
      ],
      [
        "dun",
        -8.589404436273998
      ],
      [
        "▁ke",
        -8.590810608150012
      ],
      [
        "▁Aláàfin",
        -8.591978880851164
      ],
      [
        "▁lẹ́yìn",
        -8.592070045388876
      ],
      [
        "▁gẹ́gẹ́",
        -8.592163678313598
      ],
      [
        "▁ètò",
        -8.59245325517698
      ],
      [
        "▁Ifẹ̀",
        -8.593054703717437
      ],
      [
        "rè",
        -8.593345678311632
      ],
      [
        "▁dúdú",
        -8.593966796999037
      ],
      [
        "fin",
        -8.594003118467992
      ],
      [
        "▁ìwọ́",
        -8.595669342971076
      ],
      [
        "jì",
        -8.596690499795786
      ],
      [
        "▁epo",
        -8.59902006566561
      ],
      [
        "▁rẹ̀.",
        -8.599660432792465
      ],
      [
        "yan",
        -8.60099183033134
      ],
      [
        "▁l",
        -8.601831211470902
      ],
      [
        "▁lónìí",
        -8.602772720421473
      ],
      [
        "culture",
        -8.603012128843359
      ],
      [
        "▁ẹnu",
        -8.603349539721075
      ],
      [
        "▁#Asa",
        -8.608207920246587
      ],
      [
        "▁kúrò",
        -8.613463728307128
      ],
      [
        "gbá",
        -8.614429833371188
      ],
      [
        "▁yìí,",
        -8.614823262601202
      ],
      [
        "tò",
        -8.61838374870503
      ],
      [
        "yá",
        -8.621183086482569
      ],
      [
        "ch",
        -8.62244046736993
      ],
      [
        "ne",
        -8.62261844085062
      ],
      [
        "É",
        -8.62284525079966
      ],
      [
        "▁torí",
        -8.623838125799784
      ],
      [
        "#",
        -8.62677644151624
      ],
      [
        "”",
        -8.628651828902491
      ],
      [
        "2019",
        -8.6288168375658
      ],
      [
        "pé",
        -8.63022208497824
      ],
      [
        "▁pelu",
        -8.631685882648972
      ],
      [
        "kọ̀",
        -8.633862362464198
      ],
      [
        "▁ẹsẹ̀",
        -8.635629251328195
      ],
      [
        "▁te",
        -8.637448649990706
      ],
      [
        "▁Ka",
        -8.637608589473498
      ],
      [
        "▁GB",
        -8.640287194274286
      ],
      [
        "▁ye",
        -8.641027866837945
      ],
      [
        "su",
        -8.643618129267368
      ],
      [
        "rá",
        -8.644739803699995
      ],
      [
        "▁kà",
        -8.648000112377165
      ],
      [
        "▁YORÙBÁ",
        -8.648492874367523
      ],
      [
        "yẹ",
        -8.649038024106762
      ],
      [
        "kè",
        -8.65003722555428
      ],
      [
        "▁1.",
        -8.650409488233379
      ],
      [
        "jọ",
        -8.650457779391646
      ],
      [
        "rọ",
        -8.650583501298096
      ],
      [
        "▁gan",
        -8.651098464780471
      ],
      [
        "▁ẹ̀dá",
        -8.65168049681293
      ],
      [
        "▁fà",
        -8.653475168802448
      ],
      [
        "dò",
        -8.654570527078981
      ],
      [
        "ǹ",
        -8.660354652099873
      ],
      [
        "_",
        -8.660376478863895
      ],
      [
        "▁Oní",
        -8.660452174079113
      ],
      [
        "▁awa",
        -8.664183441690355
      ],
      [
        "▁níbi",
        -8.664213840069252
      ],
      [
        "▁Y",
        -8.66514493642386
      ],
      [
        "▁To",
        -8.665392151791456
      ],
      [
        "▁dáadáa",
        -8.666756344256022
      ],
      [
        "▁ìbílẹ̀",
        -8.667269116619282
      ],
      [
        "gbọdọ̀",
        -8.668175532233375
      ],
      [
        "júmọ́",
        -8.669363437070151
      ],
      [
        "▁nílẹ̀",
        -8.669413005713656
      ],
      [
        "▁rẹ̀,",
        -8.669995379647961
      ],
      [
        "▁yàtọ̀",
        -8.670126252582241
      ],
      [
        "▁lẹ́",
        -8.670219943126636
      ],
      [
        "dí",
        -8.670463568874052
      ],
      [
        "jí",
        -8.670948445513313
      ],
      [
        "▁#S",
        -8.676094523537827
      ],
      [
        "▁sin",
        -8.678948283952757
      ],
      [
        "▁ọkọ",
        -8.682286064866073
      ],
      [
        "▁Oba",
        -8.682871697430075
      ],
      [
        "es",
        -8.685733209926584
      ],
      [
        "▁ọ̀hún",
        -8.686496321549704
      ],
      [
        "▁ẹ̀rọ",
        -8.687043117629491
      ],
      [
        "▁ipinle",
        -8.687460510872114
      ],
      [
        "▁R",
        -8.688082428094082
      ],
      [
        "Ì",
        -8.688278295398876
      ],
      [
        "ké",
        -8.68947016823224
      ],
      [
        "ck",
        -8.689914798275641
      ],
      [
        "▁wọ̀",
        -8.690036747973668
      ],
      [
        "▁òjò",
        -8.690995793352815
      ],
      [
        "gbè",
        -8.693514640859576
      ],
      [
        "gbẹ́",
        -8.6937241251517
      ],
      [
        "▁ojúmọ́",
        -8.694447288841719
      ],
      [
        "kàn",
        -8.696193047387693
      ],
      [
        "rìn",
        -8.699624342570317
      ],
      [
        "bọ",
        -8.70259482917525
      ],
      [
        "▁Ile",
        -8.703023759779562
      ],
      [
        "▁Olú",
        -8.703503508732732
      ],
      [
        "▁wa,",
        -8.705002993672558
      ],
      [
        "▁gbólóhùn",
        -8.706397428108549
      ],
      [
        "▁♪",
        -8.70653391224197
      ],
      [
        "▁BÍ",
        -8.706990901401873
      ],
      [
        "▁Ká",
        -8.708886509497109
      ],
      [
        "▁yà",
        -8.70930652197313
      ],
      [
        "▁yoo",
        -8.709467118780221
      ],
      [
        "yé",
        -8.709787959329313
      ],
      [
        "▁ni?",
        -8.71009703077603
      ],
      [
        "̀",
        -8.71106345343631
      ],
      [
        "▁bó",
        -8.713131391838022
      ],
      [
        "dọ̀",
        -8.719989229636504
      ],
      [
        "▁If",
        -8.72170119915819
      ],
      [
        "▁#e",
        -8.724278413565937
      ],
      [
        "▁ṣeun",
        -8.724452367057367
      ],
      [
        "ún",
        -8.725196925477572
      ],
      [
        "▁kù",
        -8.726709440101214
      ],
      [
        "▁tèmi",
        -8.726767803167622
      ],
      [
        "▁this",
        -8.726804180290836
      ],
      [
        "OGBO",
        -8.726828256677361
      ],
      [
        "▁Má",
        -8.72736285650667
      ],
      [
        "▁Òkè",
        -8.729468870661076
      ],
      [
        "kún",
        -8.72964518028099
      ],
      [
        "▁sínú",
        -8.731005908149667
      ],
      [
        "▁God",
        -8.73324656991953
      ],
      [
        "▁Eyin",
        -8.734379844399054
      ],
      [
        "ry",
        -8.735892127415607
      ],
      [
        "▁loni",
        -8.740807938404625
      ],
      [
        "bìnrin",
        -8.741085677093043
      ],
      [
        "▁s'",
        -8.743320432142
      ],
      [
        "▁bọ́",
        -8.74606864537806
      ],
      [
        "▁Mi",
        -8.746090683249982
      ],
      [
        "▁jà",
        -8.746728448181644
      ],
      [
        "▁have",
        -8.74774758145762
      ],
      [
        "▁ìtàn",
        -8.748443505538699
      ],
      [
        "dùn",
        -8.749190322233407
      ],
      [
        "▁#Lagos",
        -8.749903604945889
      ],
      [
        "Mo",
        -8.753456676356777
      ],
      [
        "▁2.",
        -8.754644022589607
      ],
      [
        "▁titun",
        -8.758983098714747
      ],
      [
        "▁òkú",
        -8.759199780766512
      ],
      [
        "▁ṣì",
        -8.7618079603625
      ],
      [
        "▁láì",
        -8.76214057896831
      ],
      [
        ".\"\"\"\"\"\"\"\"",
        -8.763783107328948
      ],
      [
        "▁gbá",
        -8.764236415649282
      ],
      [
        "il",
        -8.765542325419855
      ],
      [
        "▁4",
        -8.768415499867046
      ],
      [
        "▁yẹn",
        -8.769273820701812
      ],
      [
        "▁👉",
        -8.769976567104003
      ],
      [
        "▁ikú",
        -8.771222050556307
      ],
      [
        "ràn",
        -8.771364756654481
      ],
      [
        "▁Bá",
        -8.771967977094947
      ],
      [
        "▁rọ̀",
        -8.77397376150099
      ],
      [
        "tv",
        -8.77444156825026
      ],
      [
        "Ọ",
        -8.774656312483664
      ],
      [
        "▁iná",
        -8.775312296344179
      ],
      [
        "▁2",
        -8.77675853412925
      ],
      [
        "àárín",
        -8.777187548665928
      ],
      [
        "rẹ́",
        -8.78057354730353
      ],
      [
        "▁eyin",
        -8.781538098847603
      ],
      [
        "▁tú",
        -8.781719373580167
      ],
      [
        "lọ́",
        -8.782137604153261
      ],
      [
        "sà",
        -8.78565629571355
      ],
      [
        "▁oló",
        -8.787766362838047
      ],
      [
        "dè",
        -8.787908302522798
      ],
      [
        "▁Bẹ́ẹ̀",
        -8.788866271112862
      ],
      [
        "▁ọ̀rẹ́",
        -8.790936725406025
      ],
      [
        "Ẹ",
        -8.791182969149654
      ],
      [
        "▁Orúkọ",
        -8.79157798714779
      ],
      [
        "▁l'a",
        -8.792044844660994
      ],
      [
        "▁Ìbàdàn",
        -8.79233019757646
      ],
      [
        "▁igbó",
        -8.792632694982316
      ],
      [
        "▁by",
        -8.793822556315497
      ],
      [
        "pẹ́",
        -8.794207299381373
      ],
      [
        "▁eré",
        -8.794284281463087
      ],
      [
        "ter",
        -8.797478669307786
      ],
      [
        "▁c",
        -8.798319962451913
      ],
      [
        "▁Ala",
        -8.80183328036262
      ],
      [
        "rùn",
        -8.802941063032087
      ],
      [
        "▁Oro",
        -8.803208202987319
      ],
      [
        "Ó",
        -8.811480062859697
      ],
      [
        "▁#Atelewo",
        -8.812837970495291
      ],
      [
        "ÁYÉ",
        -8.812838903553779
      ],
      [
        "▁ẹ̀mí",
        -8.814457350549034
      ],
      [
        "▁Ń",
        -8.814903282349414
      ],
      [
        "▁Ọ̀rọ̀",
        -8.81531631529568
      ],
      [
        "jó",
        -8.818310085942638
      ],
      [
        "▁H",
        -8.819252348502413
      ],
      [
        "▁o?",
        -8.81960813414863
      ],
      [
        "on",
        -8.820658856308546
      ],
      [
        "▁at",
        -8.820993640768956
      ],
      [
        "bẹ",
        -8.823500288414113
      ],
      [
        "▁agba",
        -8.824792567030208
      ],
      [
        "▁ìwọ",
        -8.826602069314546
      ],
      [
        "▁Emi",
        -8.82820638747007
      ],
      [
        "▁lu",
        -8.828494920846332
      ],
      [
        "▁#M",
        -8.828858518540022
      ],
      [
        "▁àfi",
        -8.829407631413948
      ],
      [
        "▁gbó",
        -8.830466759548827
      ],
      [
        "▁ṣí",
        -8.831341042802961
      ],
      [
        "▁Ìyá",
        -8.833851544504979
      ],
      [
        "▁oju",
        -8.834902857961893
      ],
      [
        "Quote",
        -8.835565556714489
      ],
      [
        "▁Nítorí",
        -8.83566208682507
      ],
      [
        "▁#Iwure",
        -8.836059418903547
      ],
      [
        "▁tọ́",
        -8.838570553082736
      ],
      [
        "▁nitori",
        -8.839394209968589
      ],
      [
        "oruko",
        -8.839604692303112
      ],
      [
        "▁rò",
        -8.8403470818478
      ],
      [
        "▁Ọdún",
        -8.841509411646738
      ],
      [
        "▁eku",
        -8.841584796736454
      ],
      [
        "▁Nigeria",
        -8.841958575366252
      ],
      [
        "wi",
        -8.842050383787958
      ],
      [
        "pò",
        -8.843441867899383
      ],
      [
        "▁ọmọdé",
        -8.84358229901617
      ],
      [
        "▁idi",
        -8.843606955344743
      ],
      [
        "▁Ba",
        -8.844774795854143
      ],
      [
        "▁Àwa",
        -8.847513098806832
      ],
      [
        "nì",
        -8.848395318683961
      ],
      [
        "gún",
        -8.84894271367652
      ],
      [
        "▁st",
        -8.848999643411675
      ],
      [
        "yín",
        -8.849632697351263
      ],
      [
        "▁Ṣ",
        -8.85015992829222
      ],
      [
        "sin",
        -8.850625657447786
      ],
      [
        "▁Amin",
        -8.855495520471797
      ],
      [
        "▁'ni",
        -8.856349967489844
      ],
      [
        "▁Alá",
        -8.857548711209464
      ],
      [
        "▁bọ",
        -8.859014686488475
      ],
      [
        "ló",
        -8.859429797570908
      ],
      [
        "▁#o",
        -8.859676063525196
      ],
      [
        "▁ọ̀run",
        -8.860004916532867
      ],
      [
        "▁èrò",
        -8.860056128319728
      ],
      [
        "▁Ẹ̀gbá",
        -8.861377302419001
      ],
      [
        "▁olórí",
        -8.861707665950028
      ],
      [
        "kù",
        -8.861912680975843
      ],
      [
        "▁èmi",
        -8.863769058933151
      ],
      [
        "▁hàn",
        -8.863869309868981
      ],
      [
        "▁ooo",
        -8.864178043603614
      ],
      [
        "▁Oni",
        -8.864345582871778
      ],
      [
        "▁ìran",
        -8.865870179076893
      ],
      [
        "▁#Ede",
        -8.867386315409387
      ],
      [
        "▁yio",
        -8.867845561118237
      ],
      [
        "▁dupe",
        -8.873237153698192
      ],
      [
        "▁ìmọ̀",
        -8.87587113449025
      ],
      [
        "èrè",
        -8.876169438788914
      ],
      [
        "▁ṣẹ",
        -8.877112811740433
      ],
      [
        "▁díẹ̀",
        -8.880272483592938
      ],
      [
        "▁#ekaaro",
        -8.881298037864106
      ],
      [
        "Ò",
        -8.881322932649809
      ],
      [
        "gà",
        -8.882236904417567
      ],
      [
        "😘🔥",
        -8.882632169010778
      ],
      [
        "▁#yorubawedding",
        -8.882833973046967
      ],
      [
        "▁lẹ́hìn",
        -8.882922893034728
      ],
      [
        "▁“",
        -8.883358789288327
      ],
      [
        "▁tẹ̀",
        -8.883439965530151
      ],
      [
        "▁🥰",
        -8.884843644141885
      ],
      [
        "▁ìkàn",
        -8.887531993600131
      ],
      [
        ").",
        -8.888119840756232
      ],
      [
        "▁#nigeria",
        -8.888288899870012
      ],
      [
        "dó",
        -8.888473425210524
      ],
      [
        "▁odò",
        -8.891077648322746
      ],
      [
        "▁yan",
        -8.891570608444585
      ],
      [
        "▁TV",
        -8.891943167257814
      ],
      [
        "▁oba",
        -8.89347063803681
      ],
      [
        "ir",
        -8.893879883722716
      ],
      [
        ".]",
        -8.894404826185923
      ],
      [
        "Oro",
        -8.896485546765621
      ],
      [
        "▁mọ́n",
        -8.89799392959784
      ],
      [
        "ṣẹ",
        -8.901031709866006
      ],
      [
        "gbon",
        -8.901762508926316
      ],
      [
        "▁k",
        -8.90318528847815
      ],
      [
        "ṣà",
        -8.904057280623821
      ],
      [
        "▁jó",
        -8.90407802242738
      ],
      [
        "▁òpó",
        -8.90586935963438
      ],
      [
        "▁Re",
        -8.906246204457462
      ],
      [
        "▁Nijeria",
        -8.90702073797724
      ],
      [
        "▁ÀWỌ",
        -8.907173568801138
      ],
      [
        "▁àṣẹ",
        -8.907392626720998
      ],
      [
        "▁ẹ̀sìn",
        -8.907557767932396
      ],
      [
        "▁Gẹ̀ẹ́sì",
        -8.907787751156409
      ],
      [
        "raẹni",
        -8.908262413120084
      ],
      [
        "▁ewu",
        -8.90861021748519
      ],
      [
        "▁ná",
        -8.90887241726742
      ],
      [
        "▁fo",
        -8.909359011232088
      ],
      [
        "▁Ṣe",
        -8.910288617368156
      ],
      [
        "▁kọjá",
        -8.910700955813587
      ],
      [
        "kùn",
        -8.911341940916255
      ],
      [
        "▁irun",
        -8.914166189420017
      ],
      [
        "▁gidi",
        -8.915309979095063
      ],
      [
        "▁ìdá",
        -8.917819969885993
      ],
      [
        "ẹ́hìn",
        -8.917940589054924
      ],
      [
        "sun",
        -8.919222131823254
      ],
      [
        "▁kii",
        -8.920811863258516
      ],
      [
        "▁fọ́",
        -8.920870878874755
      ],
      [
        "▁3.",
        -8.920911644819732
      ],
      [
        "UK",
        -8.924167192230746
      ],
      [
        "vi",
        -8.927201287622625
      ],
      [
        "▁m",
        -8.928478282773863
      ],
      [
        "▁lẹ́nu",
        -8.92915514468839
      ],
      [
        "▁púpọ̀",
        -8.932021045348318
      ],
      [
        "▁#Itan",
        -8.932283956886074
      ],
      [
        "▁Fún",
        -8.93250653501358
      ],
      [
        "▁Nínú",
        -8.932666626238099
      ],
      [
        "▁ẹnìkan",
        -8.932915905452344
      ],
      [
        "gbọ́n",
        -8.93332150250908
      ],
      [
        "▁ń'nú",
        -8.934124178753983
      ],
      [
        "▁#Ifa",
        -8.934260512207159
      ],
      [
        "sè",
        -8.93454358376699
      ],
      [
        "▁ìwà",
        -8.935107666988365
      ],
      [
        "▁ojumo",
        -8.935422063782195
      ],
      [
        "▁rántí",
        -8.935800297685557
      ],
      [
        "▁•",
        -8.935896905045068
      ],
      [
        "ale",
        -8.935979605471289
      ],
      [
        "▁Iṣẹ́",
        -8.93694952713924
      ],
      [
        "▁1",
        -8.937462364004933
      ],
      [
        "▁wọlé",
        -8.940370898055455
      ],
      [
        "oro",
        -8.941033453153763
      ],
      [
        "Á",
        -8.941403863469471
      ],
      [
        "▁l'o",
        -8.941930965437797
      ],
      [
        "ita",
        -8.942226693020116
      ],
      [
        "▁ala",
        -8.943170669066626
      ],
      [
        "▁ÀGB",
        -8.944002225757362
      ],
      [
        "gbò",
        -8.944359934013425
      ],
      [
        "▁eko",
        -8.946444541063318
      ],
      [
        "wọ",
        -8.94679219076507
      ],
      [
        "dù",
        -8.948292110935686
      ],
      [
        "▁#Y",
        -8.948601791261058
      ],
      [
        "▁Pa",
        -8.955476886730576
      ],
      [
        "▁Àṣẹ",
        -8.956118600601265
      ],
      [
        "▁rìn",
        -8.956874163045573
      ],
      [
        "▁̊",
        -8.957661472925253
      ],
      [
        "▁#iwure",
        -8.957662202204212
      ],
      [
        "▁OLÚW",
        -8.95766258466849
      ],
      [
        "▁ỌMỌ",
        -8.957747502210466
      ],
      [
        "▁Ṣàngó",
        -8.958469208047777
      ],
      [
        "▁ọ̀kan",
        -8.95977158722429
      ],
      [
        "he",
        -8.959832155755764
      ],
      [
        "lẹ",
        -8.960016555276201
      ],
      [
        "▁#yorubatv",
        -8.96059619095104
      ],
      [
        "▁Bó",
        -8.961105966119058
      ],
      [
        "bẹ́",
        -8.962200077919215
      ],
      [
        "▁tá",
        -8.96589029775675
      ],
      [
        "▁etí",
        -8.966053342231858
      ],
      [
        "lọ",
        -8.968164046068255
      ],
      [
        "bì",
        -8.969762311875764
      ],
      [
        "▁\"\"\"\"\"\"\"\"@user",
        -8.971274458060016
      ],
      [
        "ara",
        -8.977090583454826
      ],
      [
        "▁Irú",
        -8.97842610613976
      ],
      [
        "ee",
        -8.981164107236964
      ],
      [
        "▁ṣ",
        -8.981347801482725
      ],
      [
        "▁We",
        -8.982409695331306
      ],
      [
        "▁pada",
        -8.983808268437965
      ],
      [
        "🐎",
        -8.98397748068495
      ],
      [
        "▁k'ó",
        -8.984775968824792
      ],
      [
        "▁#ebi",
        -8.985090122710247
      ],
      [
        "▁#Ogun",
        -8.985455504575743
      ],
      [
        "▁dáa",
        -8.986104659129733
      ],
      [
        "▁ọkàn",
        -8.986239457662139
      ],
      [
        "▁tu",
        -8.986522370738045
      ],
      [
        "@user",
        -8.987075610862144
      ],
      [
        "▁has",
        -8.987446001165573
      ],
      [
        "ṣí",
        -8.987968519092313
      ],
      [
        "wú",
        -8.988253693802761
      ],
      [
        "fẹ́",
        -8.988435263607434
      ],
      [
        "yọ̀",
        -8.989922851950398
      ],
      [
        "▁ore",
        -8.992599912410009
      ],
      [
        "),",
        -8.993344822252718
      ],
      [
        "sá",
        -8.994592894914513
      ],
      [
        "ore",
        -8.994610305170314
      ],
      [
        "RT",
        -8.996878241401433
      ],
      [
        "ire",
        -8.99689554286678
      ],
      [
        "▁kankan",
        -8.998862906312391
      ],
      [
        "▁Igba",
        -8.999446610208514
      ],
      [
        "▁ran",
        -9.000088933104266
      ],
      [
        "yìn",
        -9.000466126829266
      ],
      [
        "▁òkun",
        -9.00164707960447
      ],
      [
        "▁ẹlẹ́",
        -9.002094804393936
      ],
      [
        "lò",
        -9.00216655690651
      ],
      [
        "▁osu",
        -9.002534769843868
      ],
      [
        "▁ajá",
        -9.002804161806512
      ],
      [
        "▁káàárọ̀",
        -9.003074829346252
      ],
      [
        "▁ng",
        -9.004377886458157
      ],
      [
        "▁obì",
        -9.006003843568138
      ],
      [
        "▁Sa",
        -9.007801677242854
      ],
      [
        "▁bà",
        -9.00889681917559
      ],
      [
        "hùn",
        -9.010229008663464
      ],
      [
        "▁#asoebi",
        -9.011004509886604
      ],
      [
        "▁Èdùmàrè",
        -9.011004682498887
      ],
      [
        "▁ẸGBẸ",
        -9.01100489309069
      ],
      [
        "▁dandan",
        -9.01106382605432
      ],
      [
        "▁Nígbà",
        -9.011097206380958
      ],
      [
        "▁see",
        -9.01145496154596
      ],
      [
        "▁ijoba",
        -9.011493468917966
      ],
      [
        "▁#Language",
        -9.011740275808602
      ],
      [
        "dan",
        -9.01175538027995
      ],
      [
        "▁lọ́dún",
        -9.011954421257188
      ],
      [
        "▁àgbẹ̀",
        -9.012634156095555
      ],
      [
        "▁àkọ́kọ́",
        -9.013264047266254
      ],
      [
        "ion",
        -9.014774179372736
      ],
      [
        "▁Ewé",
        -9.014814411198593
      ],
      [
        "▁wan",
        -9.015273056353301
      ],
      [
        "▁ọlọ́",
        -9.015379942408462
      ],
      [
        "▁NÍ",
        -9.015850378837452
      ],
      [
        "È",
        -9.017924723895817
      ],
      [
        "▁yìí?",
        -9.017953072968687
      ],
      [
        "▁làá",
        -9.019009045715908
      ],
      [
        "▁dara",
        -9.023331820842909
      ],
      [
        "tẹ̀",
        -9.024408295412272
      ],
      [
        "▁r'",
        -9.025400351005999
      ],
      [
        "▁ṣọ́",
        -9.025477569818053
      ],
      [
        "ojú",
        -9.027116387969512
      ],
      [
        "ṣọ",
        -9.027950681306857
      ],
      [
        "▁Eko",
        -9.028622116729984
      ],
      [
        "co",
        -9.029292549733354
      ],
      [
        "▁but",
        -9.031588913355073
      ],
      [
        "▁Á",
        -9.032035223901353
      ],
      [
        "ci",
        -9.034041742661628
      ],
      [
        "▁rán",
        -9.034722956330036
      ],
      [
        "lù",
        -9.035438340447966
      ],
      [
        "▁sile",
        -9.037683759038398
      ],
      [
        "🇳🇬🇹🇬🇧🇯🇧🇷🇨🇴🇨🇺🇬🇭🇨🇮",
        -9.038782285489756
      ],
      [
        "▁#ondo",
        -9.03878948510776
      ],
      [
        "▁gan-an",
        -9.038867316137882
      ],
      [
        "▁#Alaye",
        -9.03905674309168
      ],
      [
        "▁òrìṣà",
        -9.039569206096274
      ],
      [
        "▁Toò",
        -9.039911371073437
      ],
      [
        "▁gbàgbé",
        -9.040129919649367
      ],
      [
        "▁ìfẹ́",
        -9.040814359861448
      ],
      [
        "▁ẹranko",
        -9.041243746676736
      ],
      [
        "wọ̀",
        -9.041574166961196
      ],
      [
        "▁oo",
        -9.04216010162898
      ],
      [
        "▁ele",
        -9.042512471936124
      ],
      [
        "▁orile",
        -9.043399515179505
      ],
      [
        "Ọ̀",
        -9.044199021688058
      ],
      [
        "▁ayọ̀",
        -9.049635074239582
      ],
      [
        "▁dí",
        -9.050019997727153
      ],
      [
        "▁ẹní",
        -9.05005179171376
      ],
      [
        "▁La",
        -9.052117455701525
      ],
      [
        "▁Àti",
        -9.052922927006517
      ],
      [
        "▁go",
        -9.054913038920994
      ],
      [
        "▁kún",
        -9.055689348652017
      ],
      [
        "▁19",
        -9.060451495526728
      ],
      [
        "rk",
        -9.060602211540305
      ],
      [
        "▁Ẹkú",
        -9.0614139654153
      ],
      [
        "▁Ara",
        -9.06524321154788
      ],
      [
        "▁Olo",
        -9.065354656565257
      ],
      [
        "▁nì",
        -9.066108828674322
      ],
      [
        "▁pàtàkì",
        -9.06735373415238
      ],
      [
        "▁ọkùnrin",
        -9.067745326508513
      ],
      [
        "▁eniyan",
        -9.068037549569489
      ],
      [
        "▁lọ́nà",
        -9.068077373071459
      ],
      [
        "▁Ìjẹ̀bú",
        -9.068256143937683
      ],
      [
        "▁láṣẹ",
        -9.068276146800729
      ],
      [
        "fun",
        -9.06861905501592
      ],
      [
        "pin",
        -9.068741649383382
      ],
      [
        "▁people",
        -9.06884488049092
      ],
      [
        "▁dàgbà",
        -9.070779918244867
      ],
      [
        "▁ẹgbẹ́",
        -9.070937153442767
      ],
      [
        "▁he",
        -9.071321127892125
      ],
      [
        "▁tabi",
        -9.071745528624625
      ],
      [
        "▁Oruko",
        -9.072427867415442
      ],
      [
        "▁Aare",
        -9.074986282420388
      ],
      [
        "▁àtijọ́",
        -9.075102901980094
      ],
      [
        "▁Ilẹ̀",
        -9.07606734911758
      ],
      [
        "▁up",
        -9.080643547416672
      ],
      [
        "▁ebi",
        -9.08411823563669
      ],
      [
        "▁sùn",
        -9.08503031151687
      ],
      [
        "rẹ̀",
        -9.087813489520283
      ],
      [
        "▁our",
        -9.089492441647423
      ],
      [
        "et",
        -9.091937687387803
      ],
      [
        "▁Da",
        -9.09317040898923
      ],
      [
        "yẹ́",
        -9.095016416325777
      ],
      [
        "▁know",
        -9.096765953902302
      ],
      [
        "▁Bàbá",
        -9.096768872721352
      ],
      [
        "▁Jesu",
        -9.096836798662233
      ],
      [
        "yobamoodua",
        -9.09707666095129
      ],
      [
        "▁ìbéèrè",
        -9.097486961080627
      ],
      [
        "▁ìtumọ̀",
        -9.097543354211862
      ],
      [
        "▁https://t.co/q",
        -9.097931002541028
      ],
      [
        "▁🎶",
        -9.098300832274905
      ],
      [
        "▁Wa",
        -9.09887873277473
      ],
      [
        "▁Ìdí",
        -9.099152487238896
      ],
      [
        "▁jẹun",
        -9.102576593103684
      ],
      [
        "bò",
        -9.10470097710056
      ],
      [
        "!!",
        -9.105612898484933
      ],
      [
        "▁Olu",
        -9.106493720049155
      ],
      [
        "rọ́",
        -9.108654828585319
      ],
      [
        "▁►",
        -9.10871829975592
      ],
      [
        "kin",
        -9.109063750413348
      ],
      [
        "▁https://t.co/p",
        -9.109280570631547
      ],
      [
        "▁àt",
        -9.110196280572248
      ],
      [
        "rẹ",
        -9.111773109292221
      ],
      [
        "▁aje",
        -9.115582302184137
      ],
      [
        "lagba",
        -9.11636495704102
      ],
      [
        "it",
        -9.118459061531768
      ],
      [
        "nibi",
        -9.118959572953445
      ],
      [
        "▁l'á",
        -9.11942737604673
      ],
      [
        "▁nla",
        -9.120723265957055
      ],
      [
        "ṣin",
        -9.126061675764147
      ],
      [
        "▁gbè",
        -9.128652633827826
      ],
      [
        "▁ọrọ̀",
        -9.128661871762645
      ],
      [
        "▁ṣẹlẹ̀",
        -9.128675936109229
      ],
      [
        "▁https://t.co/0",
        -9.129107445873348
      ],
      [
        "▁Ọya",
        -9.129944534474216
      ],
      [
        "▁Ọ̀ṣun",
        -9.130012030398628
      ],
      [
        "ct",
        -9.130615965117343
      ],
      [
        "ers",
        -9.131154741480161
      ],
      [
        "▁Àmọ́",
        -9.132304108722295
      ],
      [
        "UN",
        -9.132407196465854
      ],
      [
        "▁ose",
        -9.134052887570686
      ],
      [
        "▁eto",
        -9.136884698196996
      ],
      [
        "*",
        -9.138251555785345
      ],
      [
        "▁aya",
        -9.139189218316899
      ],
      [
        "▁yoruba",
        -9.139642878544697
      ],
      [
        "▁tán,",
        -9.140305702797718
      ],
      [
        "▁ńkọ́",
        -9.140524225312978
      ],
      [
        "▁d",
        -9.14226194635685
      ],
      [
        "▁Awa",
        -9.145076355605758
      ],
      [
        "yì",
        -9.147074612997816
      ],
      [
        "kọ́kọ́",
        -9.148529471632992
      ],
      [
        "má",
        -9.149887377473702
      ],
      [
        "▁kan.",
        -9.152063945052939
      ],
      [
        "▁Oo",
        -9.152778517856698
      ],
      [
        "mó",
        -9.153134548098244
      ],
      [
        "▁pà",
        -9.15463867681283
      ],
      [
        "▁inu",
        -9.15798626366291
      ],
      [
        "Happy",
        -9.158318579676783
      ],
      [
        "▁from",
        -9.158322335240758
      ],
      [
        "▁who",
        -9.158698994988878
      ],
      [
        "▁Èdè",
        -9.159325256101939
      ],
      [
        "▁#tweet",
        -9.15964359158809
      ],
      [
        "▁ìjà",
        -9.159919168055502
      ],
      [
        "▁What",
        -9.159956883307176
      ],
      [
        "▁ṣiṣẹ́",
        -9.160156862704984
      ],
      [
        "▁gé",
        -9.16189785433571
      ],
      [
        "▁#language",
        -9.162278282088156
      ],
      [
        "▁Won",
        -9.162511762369002
      ],
      [
        "▁Lo",
        -9.163343046658945
      ],
      [
        "▁https://t.co/L",
        -9.163816187591882
      ],
      [
        "▁Agba",
        -9.165134299841974
      ],
      [
        "Ẹ̀",
        -9.165849276566462
      ],
      [
        "▁ohùn",
        -9.166105024238012
      ],
      [
        "▁all",
        -9.166147330806266
      ],
      [
        "▁gun",
        -9.166784188304566
      ],
      [
        "▁wi",
        -9.169613716683376
      ],
      [
        "▁ha",
        -9.169971021764727
      ],
      [
        "lẹ̀,",
        -9.170094215996414
      ],
      [
        "▁ẹja",
        -9.17022783171532
      ],
      [
        "hin",
        -9.172696216905615
      ],
      [
        "________________",
        -9.17282863080607
      ],
      [
        "kì",
        -9.17374269071351
      ],
      [
        "▁ipa",
        -9.173895620895339
      ],
      [
        "▁Ojo",
        -9.174343045472176
      ],
      [
        "▁#Ko",
        -9.176015065995141
      ],
      [
        "▁rọ",
        -9.176961723677143
      ],
      [
        "▁ase",
        -9.177450403869415
      ],
      [
        "▁kiri",
        -9.178364094935821
      ],
      [
        "yẹyẹ",
        -9.181001872668718
      ],
      [
        "ẹni",
        -9.182203357148138
      ],
      [
        "▁tà",
        -9.182328473550271
      ],
      [
        "▁iwo",
        -9.182503300489609
      ],
      [
        "▁gún",
        -9.184862387171023
      ],
      [
        "tù",
        -9.188115581318886
      ],
      [
        "▁olu",
        -9.190239889765964
      ],
      [
        "▁àsìkò",
        -9.190578657500371
      ],
      [
        "▁if",
        -9.190998746348061
      ],
      [
        "▁tẹ̀lé",
        -9.191654788580735
      ],
      [
        "▁https://t.co/5",
        -9.191903129690939
      ],
      [
        "▁+",
        -9.192932158288324
      ],
      [
        "mp",
        -9.19875436288596
      ],
      [
        "wọ̀n",
        -9.199252032719627
      ],
      [
        "ṣù",
        -9.200435491094844
      ],
      [
        "sùn",
        -9.201288311295182
      ],
      [
        "ẹ́ni",
        -9.203991354027782
      ],
      [
        "▁Adé",
        -9.205527509430356
      ],
      [
        "dupe",
        -9.205664886752121
      ],
      [
        "▁Aku",
        -9.210346784053645
      ],
      [
        "▁náà.",
        -9.212451814136708
      ],
      [
        "▁https://t.co/r",
        -9.212733374257319
      ],
      [
        "▁tò",
        -9.216416441998376
      ],
      [
        "yájọ́",
        -9.21710198610025
      ],
      [
        "▁fì",
        -9.217348682047012
      ],
      [
        "gbọ̀n",
        -9.22330104492504
      ],
      [
        "dẹ",
        -9.223501078719243
      ],
      [
        "▁àpẹẹrẹ",
        -9.223909952285656
      ],
      [
        "▁person",
        -9.223912332569624
      ],
      [
        "▁Translation",
        -9.223925523514959
      ],
      [
        "▁jọ̀wọ́",
        -9.224010838132337
      ],
      [
        "▁j'",
        -9.224255851948246
      ],
      [
        "▁ìyàwó",
        -9.224714595574348
      ],
      [
        "▁Ọ̀nà",
        -9.225084032164045
      ],
      [
        "ity",
        -9.225744121681728
      ],
      [
        "▁#Orin",
        -9.226106766186616
      ],
      [
        "▁aráyé",
        -9.226905740296367
      ],
      [
        "AN",
        -9.227516934775032
      ],
      [
        "▁Inú",
        -9.227736716828836
      ],
      [
        "▁ẹ́",
        -9.228384945876666
      ],
      [
        "▁tẹ́lẹ̀",
        -9.22904883129849
      ],
      [
        "▁Ade",
        -9.22945297884496
      ],
      [
        "▁Igi",
        -9.230738181341005
      ],
      [
        "ọmọ",
        -9.230915037975775
      ],
      [
        "▁oyin",
        -9.231345545109171
      ],
      [
        "▁ọpọlọ",
        -9.231369051699536
      ],
      [
        "▁amin",
        -9.231707038782247
      ],
      [
        "▁Àbí",
        -9.232839381757621
      ],
      [
        "▁irin",
        -9.23354867976813
      ],
      [
        "am",
        -9.233924410250385
      ],
      [
        "▁B.",
        -9.234894485524975
      ],
      [
        ".....",
        -9.236951576760216
      ],
      [
        "ìmọ̀",
        -9.23701989856966
      ],
      [
        "ṣì",
        -9.239822071257064
      ],
      [
        "▁J",
        -9.24050799344403
      ],
      [
        "tọ́",
        -9.244994543115082
      ],
      [
        "eni",
        -9.247522833771367
      ],
      [
        "dú",
        -9.252913120588543
      ],
      [
        "▁Ede",
        -9.256997217705731
      ],
      [
        "omi",
        -9.257494350717378
      ],
      [
        "□",
        -9.25839266554025
      ],
      [
        "▁should",
        -9.25839273752156
      ],
      [
        "▁#ekaaaro",
        -9.258392751419283
      ],
      [
        "▁burúkú",
        -9.25868086963179
      ],
      [
        "▁sugbon",
        -9.258789469460899
      ],
      [
        "#nigerianwedding",
        -9.258799889305983
      ],
      [
        "▁sọ̀rọ̀",
        -9.258886316030072
      ],
      [
        "pinle",
        -9.258911737335772
      ],
      [
        "▁does",
        -9.25891701061631
      ],
      [
        "▁ṣíṣe",
        -9.259151726761509
      ],
      [
        "▁òmìnira",
        -9.259376165889673
      ],
      [
        "▁Wọ",
        -9.259636653849668
      ],
      [
        "▁eyi",
        -9.260653150447943
      ],
      [
        "▁kin",
        -9.260669015985016
      ],
      [
        "▁Òwe",
        -9.262156088515397
      ],
      [
        "▁rara",
        -9.263253176965334
      ],
      [
        "▁ìyà",
        -9.263358217366763
      ],
      [
        "▁Ìlú",
        -9.263375720955413
      ],
      [
        "▁nù",
        -9.263856363374291
      ],
      [
        "yán",
        -9.26465729042969
      ],
      [
        "▁sha",
        -9.264726536379461
      ],
      [
        "▁kúkú",
        -9.265168885100456
      ],
      [
        "▁iwe",
        -9.265809547173728
      ],
      [
        "▁Ilu",
        -9.266460787595332
      ],
      [
        "▁»",
        -9.266663334928504
      ],
      [
        "▁Owó",
        -9.267403316606288
      ],
      [
        "▁Kú",
        -9.2689569528246
      ],
      [
        "▁Le",
        -9.269651465531316
      ],
      [
        "▁wu",
        -9.269795748496604
      ],
      [
        "'ni",
        -9.270613933989019
      ],
      [
        "one",
        -9.270660695631198
      ],
      [
        "▁ẹbí",
        -9.272713064905108
      ],
      [
        "▁D.",
        -9.273087158909417
      ],
      [
        "iye",
        -9.27311370342358
      ],
      [
        "▁my",
        -9.273574659349348
      ],
      [
        "gùn",
        -9.274154027661957
      ],
      [
        "fẹ",
        -9.275617429959375
      ],
      [
        "tan",
        -9.277151999257157
      ],
      [
        "______________",
        -9.281395332824891
      ],
      [
        "LE",
        -9.281614264123366
      ],
      [
        "nt",
        -9.281860311529194
      ],
      [
        "▁h",
        -9.2858883740185
      ],
      [
        "▁as",
        -9.28617533195495
      ],
      [
        "▁kíni",
        -9.286646508195457
      ],
      [
        "▁b'",
        -9.288168417809679
      ],
      [
        "▁Èy",
        -9.288417967580575
      ],
      [
        "us",
        -9.293562343705972
      ],
      [
        "ẹ́gẹ́",
        -9.293681645001078
      ],
      [
        "▁mélòó",
        -9.294106951353351
      ],
      [
        "▁gbìyànjú",
        -9.294121004400866
      ],
      [
        "▁good",
        -9.29432119422217
      ],
      [
        "▁ọdẹ",
        -9.294758175249711
      ],
      [
        "▁Òjò",
        -9.294878923313972
      ],
      [
        "▁ọ̀sẹ̀",
        -9.295153882037162
      ],
      [
        "▁òmíràn",
        -9.295168034544481
      ],
      [
        "▁ọbẹ̀",
        -9.295345293510884
      ],
      [
        "▁https://t.co/G",
        -9.295812063412521
      ],
      [
        "jò",
        -9.295964753222924
      ],
      [
        "▁Omi",
        -9.29728873963393
      ],
      [
        "▁ọ̀la",
        -9.297536165532255
      ],
      [
        "▁https://t.co/V",
        -9.297960461886495
      ],
      [
        "▁https://t.co/g",
        -9.29835466055012
      ],
      [
        "▁#african",
        -9.298426150109528
      ],
      [
        "àgbà",
        -9.299333229550776
      ],
      [
        "▁pàdé",
        -9.29937523235867
      ],
      [
        "ọ̀rọ̀",
        -9.300103198497087
      ],
      [
        "ate",
        -9.300300988940716
      ],
      [
        "man",
        -9.303468358736387
      ],
      [
        "▁Iya",
        -9.303514537670353
      ],
      [
        "▁https://t.co/Y",
        -9.304297030052926
      ],
      [
        "GB",
        -9.304360340276721
      ],
      [
        "bó",
        -9.304488162670545
      ],
      [
        "wájú",
        -9.305084054615458
      ],
      [
        "▁ejo",
        -9.305426268628187
      ],
      [
        "▁Eku",
        -9.305488267853494
      ],
      [
        "▁òwò",
        -9.305677258922165
      ],
      [
        "▁Ìbà",
        -9.305720106544804
      ],
      [
        "▁hun",
        -9.30688362763749
      ],
      [
        "▁Fa",
        -9.308286653282204
      ],
      [
        "Ẹ́",
        -9.309394363008236
      ],
      [
        "gan",
        -9.30969469080852
      ],
      [
        "ala",
        -9.309871125534457
      ],
      [
        "▁18",
        -9.312840548065104
      ],
      [
        "bù",
        -9.313213427038889
      ],
      [
        "ation",
        -9.313583095870126
      ],
      [
        "▁#P",
        -9.314263768635076
      ],
      [
        "sàn",
        -9.31455398101098
      ],
      [
        "▁sàn",
        -9.314759803797259
      ],
      [
        "▁WA",
        -9.315062697404922
      ],
      [
        "▁jẹ́.",
        -9.31614025640938
      ],
      [
        "ṣẹ̀",
        -9.316242072553463
      ],
      [
        "orí",
        -9.318107096692358
      ],
      [
        "wẹ̀",
        -9.318407272915959
      ],
      [
        "en",
        -9.319522460409496
      ],
      [
        "▁t'o",
        -9.319765017865302
      ],
      [
        "ín",
        -9.321695314014866
      ],
      [
        "fò",
        -9.321928693613094
      ],
      [
        "Abi",
        -9.324011837067093
      ],
      [
        "ny",
        -9.324105406632238
      ],
      [
        "▁Do",
        -9.324205380114636
      ],
      [
        "der",
        -9.324677356213463
      ],
      [
        "▁tọ̀",
        -9.324735870084211
      ],
      [
        "dìí",
        -9.325378335246484
      ],
      [
        "ts",
        -9.325853643509397
      ],
      [
        "sọ",
        -9.330647282608636
      ],
      [
        "▁🇳🇬",
        -9.331143988291572
      ],
      [
        "▁abínibí",
        -9.331144046501706
      ],
      [
        "▁Gomina",
        -9.331144388337787
      ],
      [
        "▁Èkìtì",
        -9.331144560440343
      ],
      [
        "▁ìyẹn",
        -9.331163271023868
      ],
      [
        "▁#lagos",
        -9.331599922008436
      ],
      [
        "▁pupo",
        -9.33160319850409
      ],
      [
        "▁https://t.co/Q",
        -9.332163619144927
      ],
      [
        "▁#asa",
        -9.33233522715981
      ],
      [
        "▁https://t.co/8",
        -9.332341100250629
      ],
      [
        "▁fẹ́ràn",
        -9.332968004207379
      ],
      [
        "▁Who",
        -9.333135184541689
      ],
      [
        "▁https://t.co/M",
        -9.333358398079833
      ],
      [
        "▁https://t.co/J",
        -9.333530035676727
      ],
      [
        "▁Ibadan",
        -9.33390783329212
      ],
      [
        "▁https://t.co/E",
        -9.334432518178767
      ],
      [
        "▁Ise",
        -9.335039545295617
      ],
      [
        "▁wà.",
        -9.336612301743454
      ],
      [
        "▁Odun",
        -9.336860187775546
      ],
      [
        "▁Àgbà",
        -9.337083493620677
      ],
      [
        "ment",
        -9.337808329003414
      ],
      [
        "▁àná",
        -9.338756356134748
      ],
      [
        "▁su",
        -9.340063853126278
      ],
      [
        "▁say",
        -9.340531221905966
      ],
      [
        "▁Co",
        -9.342078171195661
      ],
      [
        "▁dín",
        -9.342949310458721
      ],
      [
        "art",
        -9.343315006734809
      ],
      [
        "▁ìṣe",
        -9.343970840919132
      ],
      [
        "language",
        -9.34406670850635
      ],
      [
        "ìn",
        -9.344667207192447
      ],
      [
        "▁oke",
        -9.344675791818023
      ],
      [
        "RA",
        -9.344794716238228
      ],
      [
        "▁parí",
        -9.347308383767587
      ],
      [
        "▁ọ̀pọ̀",
        -9.347555845152968
      ],
      [
        "▁bayi",
        -9.349261292011924
      ],
      [
        "▁https://t.co/a",
        -9.351089437544772
      ],
      [
        "▁ona",
        -9.352048588100894
      ],
      [
        "▁Fi",
        -9.359392388924629
      ],
      [
        "▁alẹ́",
        -9.363106286170355
      ],
      [
        "lówó",
        -9.363476534733719
      ],
      [
        "▁àì",
        -9.363795588773142
      ],
      [
        "▁mọ́lẹ̀",
        -9.364230897077414
      ],
      [
        "pà",
        -9.365030679137186
      ],
      [
        "dúrà",
        -9.367352769968507
      ],
      [
        "}",
        -9.36960552675311
      ],
      [
        "▁♀️",
        -9.36960552675412
      ],
      [
        "▁{",
        -9.369605540126923
      ],
      [
        "▁“@user:",
        -9.369637990264325
      ],
      [
        "ṣọ́",
        -9.370129897014358
      ],
      [
        "▁https://t.co/7",
        -9.370242765093309
      ],
      [
        "▁ìbọn",
        -9.370266266065684
      ],
      [
        "▁fọ",
        -9.37093370302027
      ],
      [
        "▁ìlera",
        -9.371679049598837
      ],
      [
        "▁ẹ̀wà",
        -9.371757919840213
      ],
      [
        "▁Ọlá",
        -9.372823132724275
      ],
      [
        "▁ìgbẹ́",
        -9.37378117075166
      ],
      [
        "▁wáyé",
        -9.373801493409397
      ],
      [
        "ight",
        -9.373818154289967
      ],
      [
        "PA",
        -9.37383472400009
      ],
      [
        "▁Òní",
        -9.374507609603825
      ],
      [
        "▁ìgbé",
        -9.37507231067912
      ],
      [
        "mù",
        -9.375576231952643
      ],
      [
        "▁laa",
        -9.376080852629192
      ],
      [
        "▁https://t.co/k",
        -9.376800010843013
      ],
      [
        "▁Ìgbà",
        -9.376887897758218
      ],
      [
        "▁ija",
        -9.378019298060423
      ],
      [
        "▁ẹṣin",
        -9.37944634724017
      ],
      [
        "ise",
        -9.380234338478415
      ],
      [
        "ther",
        -9.380812593845121
      ],
      [
        "▁ìgb",
        -9.382814699493547
      ],
      [
        "how",
        -9.383006354836121
      ],
      [
        "kejì",
        -9.384332626218281
      ],
      [
        "'re",
        -9.38471755238404
      ],
      [
        "▁pọ́n",
        -9.385162637243305
      ],
      [
        "▁ọlá",
        -9.385542466265088
      ],
      [
        "▁àṣe",
        -9.385802831599365
      ],
      [
        "Ṣ",
        -9.385843718858622
      ],
      [
        "▁or",
        -9.387294579368172
      ],
      [
        "▁ṣẹ̀",
        -9.387800454294137
      ],
      [
        "-un",
        -9.388788613889545
      ],
      [
        "▁Abi",
        -9.389101419366966
      ],
      [
        "nce",
        -9.39022973313202
      ],
      [
        "nimi",
        -9.390888388068927
      ],
      [
        "jù",
        -9.39146509636009
      ],
      [
        "▁https://t.co/m",
        -9.391970467512564
      ],
      [
        "▁\"\"\"\"\"\"\"\"A",
        -9.392510382879257
      ],
      [
        "is",
        -9.393830391424
      ],
      [
        "▁òfin",
        -9.394918817956043
      ],
      [
        "▁Ase",
        -9.3962255488265
      ],
      [
        "▁#F",
        -9.396590412780126
      ],
      [
        "gbẹ̀",
        -9.398584590979677
      ],
      [
        "▁sọ́",
        -9.399121889627768
      ],
      [
        "▁ìrìn",
        -9.401992915271983
      ],
      [
        "▁ayo",
        -9.402233161133827
      ],
      [
        "▁#C",
        -9.403490157336794
      ],
      [
        "▁ru",
        -9.4040518275876
      ],
      [
        "sìn",
        -9.40449608569293
      ],
      [
        "rín",
        -9.406366415492979
      ],
      [
        "▁jẹ.",
        -9.407768270812113
      ],
      [
        "rán",
        -9.40844886961866
      ],
      [
        "▁nipa",
        -9.408624252299674
      ],
      [
        "▁Di",
        -9.408817922450375
      ],
      [
        "▁rárá",
        -9.409318301168405
      ],
      [
        "dún",
        -9.409448053283054
      ],
      [
        "▁#idahun",
        -9.40960615235208
      ],
      [
        "▁nìyẹn",
        -9.409606857588438
      ],
      [
        "sán",
        -9.409637296964661
      ],
      [
        "▁èèbó",
        -9.409686459146894
      ],
      [
        "yùn",
        -9.409721950708608
      ],
      [
        "▁sókè",
        -9.409781666827252
      ],
      [
        "▁Òrìṣà",
        -9.409812319035769
      ],
      [
        "▁♥",
        -9.410075062226728
      ],
      [
        "▁só",
        -9.410436060916567
      ],
      [
        "▁lédè",
        -9.410445927258994
      ],
      [
        "▁kaaro",
        -9.410463632390305
      ],
      [
        "▁Èṣù",
        -9.41046863552479
      ],
      [
        "▁orun",
        -9.411690675361726
      ],
      [
        "▁Torí",
        -9.411712638064234
      ],
      [
        "▁what",
        -9.411714455537847
      ],
      [
        "▁Naija",
        -9.411863154929277
      ],
      [
        "▁Àṣà",
        -9.412282028126723
      ],
      [
        "▁Fun",
        -9.41253912059747
      ],
      [
        "▁https://t.co/f",
        -9.412750649292713
      ],
      [
        "▁temi",
        -9.412793661182167
      ],
      [
        "▁àjà",
        -9.413162292965769
      ],
      [
        "▁https://t.co/1",
        -9.413308458749452
      ],
      [
        "bọ́",
        -9.413339917396476
      ],
      [
        "Ni",
        -9.413693495382642
      ],
      [
        "▁Jonathan",
        -9.414228458883262
      ],
      [
        "▁agbègbè",
        -9.414472669092874
      ],
      [
        "▁like",
        -9.41715457552985
      ],
      [
        "▁In",
        -9.417357377091898
      ],
      [
        "▁run",
        -9.418320078014892
      ],
      [
        "ṣè",
        -9.418410799820089
      ],
      [
        "wí",
        -9.418447361390864
      ],
      [
        "BA",
        -9.418538920297284
      ],
      [
        "▁Ayé",
        -9.419558520816027
      ],
      [
        "▁leyin",
        -9.420147923852198
      ],
      [
        "▁https://t.co/d",
        -9.420384625770781
      ],
      [
        "▁Gba",
        -9.420754654086219
      ],
      [
        "▁àmì",
        -9.421413607393397
      ],
      [
        "▁https://t.co/b",
        -9.421909625730958
      ],
      [
        "Wa",
        -9.42230480088896
      ],
      [
        "▁tele",
        -9.422724308102573
      ],
      [
        "RO",
        -9.425510096624587
      ],
      [
        "▁agbe",
        -9.426636772075671
      ],
      [
        "ance",
        -9.43139595697854
      ],
      [
        "▁THE",
        -9.431487566471336
      ],
      [
        "wù",
        -9.432049196101998
      ],
      [
        "▁15",
        -9.432742733552178
      ],
      [
        "▁oyè",
        -9.433059207379962
      ],
      [
        "AL",
        -9.433216873914436
      ],
      [
        "DE",
        -9.435073219078781
      ],
      [
        "▁pin",
        -9.435233922393333
      ],
      [
        ".\"\"\"\"",
        -9.436813767898869
      ],
      [
        "nìyàn",
        -9.436895736699604
      ],
      [
        "▁lówó",
        -9.439063039086458
      ],
      [
        "?\"\"\"\"\"\"\"\"",
        -9.439596867079288
      ],
      [
        "Te",
        -9.440158403738053
      ],
      [
        "▁\"\"\"\"",
        -9.441166098331799
      ],
      [
        "vo",
        -9.441360502495044
      ],
      [
        "Ù",
        -9.443988224711994
      ],
      [
        "ster",
        -9.448621324684034
      ],
      [
        "▁#R",
        -9.44865566389281
      ],
      [
        "▁Be",
        -9.448833627864873
      ],
      [
        "▁bee",
        -9.449751109630691
      ],
      [
        "▁✔️",
        -9.451272193420875
      ],
      [
        "▁ṣùgbọ́n",
        -9.451275636979977
      ],
      [
        "▁abbl",
        -9.451283788456937
      ],
      [
        "▁Àmín",
        -9.451305638253665
      ],
      [
        "▁mẹ́rin",
        -9.451607658168612
      ],
      [
        "▁méje",
        -9.451732429215014
      ],
      [
        "SI",
        -9.45181050762587
      ],
      [
        "▁#BokoHaram",
        -9.45199069213019
      ],
      [
        "▁b'ó",
        -9.452217525191406
      ],
      [
        "▁òwúrọ̀",
        -9.45233025900599
      ],
      [
        "▁dìde",
        -9.452704624718667
      ],
      [
        "áfíà",
        -9.453110123314033
      ],
      [
        "ola",
        -9.453322250033898
      ],
      [
        "▁àgbáyé",
        -9.45360520358501
      ],
      [
        "▁ẹyọ",
        -9.453721277516642
      ],
      [
        "▁https://t.co/H",
        -9.454078509977311
      ],
      [
        "▁https://t.co/U",
        -9.454186638395981
      ],
      [
        "fún",
        -9.454652740781228
      ],
      [
        "▁https://t.co/4",
        -9.45465510315417
      ],
      [
        "▁https://t.co/9",
        -9.455086287876986
      ],
      [
        "▁bayii",
        -9.455127829615376
      ],
      [
        "▁sún",
        -9.455134529791318
      ],
      [
        "▁agbo",
        -9.457261953574214
      ],
      [
        "▁https://t.co/v",
        -9.4586227905683
      ],
      [
        "▁bẹ̀",
        -9.459183374952564
      ],
      [
        "▁https://t.co/j",
        -9.45929458879966
      ],
      [
        "▁pọn",
        -9.461647713805473
      ],
      [
        "Let",
        -9.462288870780991
      ],
      [
        "gàn",
        -9.46260809427974
      ],
      [
        "▁ogún",
        -9.46355975489786
      ],
      [
        "▁ìbí",
        -9.463682435856855
      ],
      [
        "50",
        -9.465826319124305
      ],
      [
        "pínlẹ̀",
        -9.467078099255838
      ],
      [
        "ture",
        -9.46751120425613
      ],
      [
        "▁abẹ́",
        -9.467867235360405
      ],
      [
        "▁It",
        -9.467941779681903
      ],
      [
        "▁Àì",
        -9.46903522336202
      ],
      [
        "Lagos",
        -9.469181615541231
      ],
      [
        "▁níbẹ̀",
        -9.469519603511651
      ],
      [
        "▁ẹyin",
        -9.470059509194234
      ],
      [
        "gò",
        -9.470787931848864
      ],
      [
        "▁wù",
        -9.472704185334251
      ],
      [
        "▁Ja",
        -9.473417632271214
      ],
      [
        "TA",
        -9.473524380961013
      ],
      [
        "10",
        -9.474982579859688
      ],
      [
        "▁yen",
        -9.475251207258868
      ],
      [
        "àjò",
        -9.476279153872806
      ],
      [
        "-a",
        -9.476453353131404
      ],
      [
        "▁koko",
        -9.47817486263206
      ],
      [
        "▁kẹ́",
        -9.478717427372478
      ],
      [
        "gh",
        -9.479256886460874
      ],
      [
        "60",
        -9.481549354114385
      ],
      [
        "▁iye",
        -9.481848698267
      ],
      [
        "yọ",
        -9.481955880438083
      ],
      [
        "▁Ori",
        -9.482911191830876
      ],
      [
        "▁apá",
        -9.48292150491149
      ],
      [
        "per",
        -9.483548865446174
      ],
      [
        "bé",
        -9.485193695279966
      ],
      [
        "fọ̀n",
        -9.489424980272641
      ],
      [
        "▁ìta",
        -9.490553316992232
      ],
      [
        "▁#africa",
        -9.490669757542179
      ],
      [
        "▁bẹ́",
        -9.49304495153217
      ],
      [
        "ẹ́rẹ́",
        -9.493157961435898
      ],
      [
        "▁#T",
        -9.49359358883152
      ],
      [
        "️",
        -9.493977631322256
      ],
      [
        "▁Àfi",
        -9.49466503012377
      ],
      [
        "°",
        -9.494750065759643
      ],
      [
        "🏿",
        -9.494750454288008
      ],
      [
        "⏩",
        -9.494750454289344
      ],
      [
        "▁ìṣẹ̀ṣe",
        -9.494751806957868
      ],
      [
        "▁Ìlọrin",
        -9.49475209793084
      ],
      [
        "kọ̀ọ̀kan",
        -9.49475668579335
      ],
      [
        "▁#Ominira",
        -9.494760234466456
      ],
      [
        "▁Ṣùgbọ́n",
        -9.494770724950026
      ],
      [
        "▁ìgbàlódé",
        -9.49488391750984
      ],
      [
        "▁#LearnYoruba",
        -9.4948881123784
      ],
      [
        "▁#adura",
        -9.494900018239319
      ],
      [
        "▁#OjoAje",
        -9.494983407638085
      ],
      [
        "▁Yàt",
        -9.495138968952558
      ],
      [
        "▁bàjẹ́",
        -9.49529418254689
      ],
      [
        "▁#Naija",
        -9.495432480396778
      ],
      [
        "20",
        -9.495435621043116
      ],
      [
        "▁co",
        -9.495804966924112
      ],
      [
        "▁Ìwọ",
        -9.495820944129218
      ],
      [
        "▁olorun",
        -9.496079820714574
      ],
      [
        "▁iṣu",
        -9.49609056947096
      ],
      [
        "▁rèé",
        -9.496139840942899
      ],
      [
        "Bi",
        -9.496232717133893
      ],
      [
        "▁https://t.co/z",
        -9.496394654828002
      ],
      [
        "aaro",
        -9.496557563792763
      ],
      [
        "▁iwájú",
        -9.496591854628502
      ],
      [
        "kùnrin",
        -9.496968279985476
      ],
      [
        "▁oòrùn",
        -9.49709167923233
      ],
      [
        "▁ẹ̀kọ́",
        -9.497184133215786
      ],
      [
        "ction",
        -9.497301833130148
      ],
      [
        "ede",
        -9.497770670543217
      ],
      [
        "▁https://t.co/B",
        -9.498259685347016
      ],
      [
        "▁ònìí",
        -9.498373288371752
      ],
      [
        "▁us",
        -9.498976955746112
      ],
      [
        "▁https://t.co/T",
        -9.499055121891837
      ],
      [
        "▁https://t.co/S",
        -9.50019914087986
      ],
      [
        "▁https://t.co/W",
        -9.500450072800657
      ],
      [
        "▁https://t.co/l",
        -9.501068637412638
      ],
      [
        "▁gbẹ",
        -9.501121046392843
      ],
      [
        "▁https://t.co/i",
        -9.501133773653763
      ],
      [
        "▁name",
        -9.501175495118712
      ],
      [
        "gede",
        -9.502158286815135
      ],
      [
        "▁l'ọ",
        -9.502391426461006
      ],
      [
        "▁fẹ",
        -9.502911401378404
      ],
      [
        "▁ìró",
        -9.50303204298557
      ],
      [
        "▁rin",
        -9.503550511961716
      ],
      [
        "▁11",
        -9.503759888809398
      ],
      [
        "▁ìṣẹ́",
        -9.505027184735997
      ],
      [
        "she",
        -9.505062851052129
      ],
      [
        "▁~",
        -9.507227635620824
      ],
      [
        "gbẹ",
        -9.50908966617278
      ],
      [
        "▁10.",
        -9.509792776087277
      ],
      [
        "fí",
        -9.509984237134697
      ],
      [
        "▁make",
        -9.510057422942879
      ],
      [
        "▁lai",
        -9.510098130408696
      ],
      [
        "▁2015",
        -9.510751050704172
      ],
      [
        "▁Yorùbá,",
        -9.51180239543902
      ],
      [
        "▁Ìjọb",
        -9.512630542234815
      ],
      [
        "▁Ha",
        -9.513825276965017
      ],
      [
        "▁lónìí.",
        -9.514532324793828
      ],
      [
        "▁mì",
        -9.515325050562216
      ],
      [
        "▁she",
        -9.515596894661005
      ],
      [
        "▁m'",
        -9.518069179613907
      ],
      [
        "▁wọ́",
        -9.51882580267731
      ],
      [
        "▁Bo",
        -9.520105679045209
      ],
      [
        "yun",
        -9.520262229358817
      ],
      [
        "▁more",
        -9.521002626458117
      ],
      [
        "▁enu",
        -9.52216857825086
      ],
      [
        "▁li",
        -9.523192835178884
      ],
      [
        "abi",
        -9.523958221856287
      ],
      [
        "fu",
        -9.525938397777864
      ],
      [
        "▁Owo",
        -9.528787693695696
      ],
      [
        "▁ale",
        -9.530868558173331
      ],
      [
        "àá",
        -9.531724593800964
      ],
      [
        "▁TI",
        -9.533735270327789
      ],
      [
        "▁Gbà",
        -9.533895617148723
      ],
      [
        "rún",
        -9.534704500397474
      ],
      [
        "2013",
        -9.535283755302707
      ],
      [
        "▁Ọlọ́",
        -9.535889452358315
      ],
      [
        "▁kini",
        -9.536508958259331
      ],
      [
        "áyé",
        -9.538082188530973
      ],
      [
        "▁'re",
        -9.5394129666623
      ],
      [
        "▁____",
        -9.539802214810933
      ],
      [
        "&amp;",
        -9.540204999743889
      ],
      [
        "▁‘",
        -9.540205015661362
      ],
      [
        "▁rẹpẹtẹ",
        -9.540205023271758
      ],
      [
        "▁ìsàlẹ̀",
        -9.540209645952306
      ],
      [
        "▁ààrẹ",
        -9.540211527413964
      ],
      [
        "▁kòkòrò",
        -9.540245739491686
      ],
      [
        "▁his",
        -9.540386281412374
      ],
      [
        "▁#World",
        -9.540546816851446
      ],
      [
        "▁#oyo",
        -9.540640495490758
      ],
      [
        "▁lásán",
        -9.541105615546973
      ],
      [
        "▁#Eyo",
        -9.541175741590715
      ],
      [
        "▁Ògùn",
        -9.541215881095505
      ],
      [
        "pẹ",
        -9.541249133794247
      ],
      [
        "ent",
        -9.541313874489765
      ],
      [
        "▁ọgbọ́n",
        -9.541319644509676
      ],
      [
        "▁òyìnbó",
        -9.541682297970492
      ],
      [
        "▁ayélujára",
        -9.541904494490042
      ],
      [
        "▁https://t.co/Z",
        -9.542915401788903
      ],
      [
        "▁kókó",
        -9.542992601505343
      ],
      [
        "▁ipò",
        -9.543291374057596
      ],
      [
        "hún",
        -9.543614588427683
      ],
      [
        "▁gbádùn",
        -9.543932973646836
      ],
      [
        "▁ibẹ̀",
        -9.544225701185502
      ],
      [
        "17",
        -9.544320319691638
      ],
      [
        "▁dákun",
        -9.545087792875828
      ],
      [
        "▁lókè",
        -9.545101967872753
      ],
      [
        "▁láyọ̀",
        -9.545695076239783
      ],
      [
        "tá",
        -9.546164335492781
      ],
      [
        "▁end",
        -9.547456237471225
      ],
      [
        "▁K'á",
        -9.548254484469204
      ],
      [
        "▁pupa",
        -9.549134743012264
      ],
      [
        "rd",
        -9.550066126243056
      ],
      [
        "▁soro",
        -9.551673829008362
      ],
      [
        "▁burú",
        -9.551870907804123
      ],
      [
        "▁ẹ̀yìn",
        -9.5519813431461
      ],
      [
        "'lẹ̀",
        -9.552031355148547
      ],
      [
        "Ki",
        -9.552229871154445
      ],
      [
        "▁tútù",
        -9.552310477682388
      ],
      [
        "▁aiye",
        -9.553426783867268
      ],
      [
        "▁dì",
        -9.554810710602775
      ],
      [
        "▁nílò",
        -9.554906660086049
      ],
      [
        "▁du",
        -9.554943805314654
      ],
      [
        "fá",
        -9.55640972002456
      ],
      [
        "▁laye",
        -9.557674744107413
      ],
      [
        "Re",
        -9.558155280532759
      ],
      [
        "pó",
        -9.558275798806589
      ],
      [
        "sé",
        -9.559078889080704
      ],
      [
        "▁https://t.co/N",
        -9.560171112171345
      ],
      [
        "▁npe",
        -9.561567970493682
      ],
      [
        "túmọ̀",
        -9.562015292544041
      ],
      [
        "▁òhun",
        -9.562332079318793
      ],
      [
        "-in",
        -9.563563983119934
      ],
      [
        "▁kejì",
        -9.564308571873687
      ],
      [
        "▁olú",
        -9.564481268919346
      ],
      [
        "rn",
        -9.564638586290183
      ],
      [
        "▁iro",
        -9.564795879067333
      ],
      [
        "▁16",
        -9.565245199253766
      ],
      [
        "sinmi",
        -9.565872476973466
      ],
      [
        "tún",
        -9.566011166465431
      ],
      [
        "RE",
        -9.567612970109796
      ],
      [
        "#Yoruba",
        -9.569180404608735
      ],
      [
        "▁https://t.co/n",
        -9.572977139327662
      ],
      [
        "▁jẹ̀",
        -9.573437890763028
      ],
      [
        "tàn",
        -9.574055253328776
      ],
      [
        "▁rere.",
        -9.574805561097051
      ],
      [
        "and",
        -9.575889967668605
      ],
      [
        "kẹ̀",
        -9.575899936051318
      ],
      [
        "▁sílé",
        -9.576517155971821
      ],
      [
        "▁tóbi",
        -9.576749188932768
      ],
      [
        "NG",
        -9.579258333167505
      ],
      [
        "ori",
        -9.57967109387359
      ],
      [
        "án",
        -9.58053270958242
      ],
      [
        "▁wọn,",
        -9.583523251216162
      ],
      [
        "▁day",
        -9.585845040570055
      ],
      [
        "▁méjèèjì",
        -9.587824052311934
      ],
      [
        "▁#oduduwa",
        -9.58782416826699
      ],
      [
        "▁ìgbéyàwó",
        -9.587855732704249
      ],
      [
        "Thought",
        -9.587855822564979
      ],
      [
        "▁kékeré",
        -9.58787003992403
      ],
      [
        "-iṣẹ́",
        -9.587875669170634
      ],
      [
        "kere",
        -9.58803118489548
      ],
      [
        "▁Elédùà",
        -9.588110607944577
      ],
      [
        "ròhìn",
        -9.588117298316341
      ],
      [
        "▁ṣẹ́gun",
        -9.588365037078873
      ],
      [
        "▁ìṣ",
        -9.588480559745918
      ],
      [
        "▁sórí",
        -9.58873738220296
      ],
      [
        "▁get",
        -9.589134663637608
      ],
      [
        "YorubaDun",
        -9.5896303902455
      ],
      [
        "▁https://t.co/X",
        -9.58967351193856
      ],
      [
        "▁s'ó",
        -9.589707567022003
      ],
      [
        "NiI",
        -9.590064126508942
      ],
      [
        "▁Ọ̀rúnmìlà",
        -9.590355118108532
      ],
      [
        "▁Ikú",
        -9.591120528468606
      ],
      [
        "▁ijó",
        -9.591139008219491
      ],
      [
        "▁ìkà",
        -9.591161619525076
      ],
      [
        "▁#Oyo",
        -9.59160166536557
      ],
      [
        "▁https://t.co/u",
        -9.591686991575852
      ],
      [
        "▁jíire",
        -9.592086666556273
      ],
      [
        "bele",
        -9.592336594289721
      ],
      [
        "dy",
        -9.592431787926827
      ],
      [
        "ful",
        -9.592499147281142
      ],
      [
        "18",
        -9.592640567978975
      ],
      [
        "▁Ìwà",
        -9.592664074011985
      ],
      [
        "▁rọ́",
        -9.5934107838345
      ],
      [
        "▁https://t.co/o",
        -9.593630265413138
      ],
      [
        "right",
        -9.59407927806489
      ],
      [
        "jé",
        -9.595646531092198
      ],
      [
        "▁ìlà",
        -9.595791841729579
      ],
      [
        "▁agbára",
        -9.596619734745444
      ],
      [
        "▁olówó",
        -9.597025749012218
      ],
      [
        "▁https://t.co/c",
        -9.599439948625188
      ],
      [
        "▁ole",
        -9.599835668130577
      ],
      [
        "▁Ẹlẹ́",
        -9.600751291750942
      ],
      [
        "▁àrùn",
        -9.600849611940284
      ],
      [
        "▁òsì",
        -9.601499700071887
      ],
      [
        "30",
        -9.60170233791814
      ],
      [
        "PE",
        -9.602077767618766
      ],
      [
        "▁oluwa",
        -9.602102622575645
      ],
      [
        "▁mò",
        -9.60220314324234
      ],
      [
        "bala",
        -9.602608197244052
      ],
      [
        "▁àbá",
        -9.603212572047692
      ],
      [
        "▁4.",
        -9.603673827012594
      ],
      [
        "▁k'",
        -9.603831278088549
      ],
      [
        "írí",
        -9.604154222247985
      ],
      [
        "oto",
        -9.604564587464438
      ],
      [
        "ògùn",
        -9.608609506039624
      ],
      [
        "rt",
        -9.60964144362087
      ],
      [
        "▁erin",
        -9.611546289203796
      ],
      [
        "▁dè",
        -9.613375798923345
      ],
      [
        "▁Ará",
        -9.61338271169835
      ],
      [
        "▁5.",
        -9.613720868397863
      ],
      [
        "New",
        -9.613744078735438
      ],
      [
        "▁Ẹní",
        -9.614521561755664
      ],
      [
        "▁20",
        -9.614778682409339
      ],
      [
        "▁jàre.",
        -9.615399327015611
      ],
      [
        "▁ca",
        -9.616778537910218
      ],
      [
        "&gt;",
        -9.616790053694107
      ],
      [
        "►",
        -9.617620325159567
      ],
      [
        "bl",
        -9.61872968961422
      ],
      [
        "▁rá",
        -9.619287234660904
      ],
      [
        "birin",
        -9.619866790187048
      ],
      [
        "Ú",
        -9.620764204033058
      ],
      [
        "oni",
        -9.621059349331913
      ],
      [
        "▁ero",
        -9.621301358869559
      ],
      [
        "▁NI",
        -9.62142931741343
      ],
      [
        "▁jin",
        -9.621583734999877
      ],
      [
        "▁òbí",
        -9.622739530613202
      ],
      [
        "òfin",
        -9.62283494994158
      ],
      [
        "▁time",
        -9.622928138373736
      ],
      [
        "nger",
        -9.624297119549258
      ],
      [
        "ùn",
        -9.624366654499184
      ],
      [
        "▁sẹ́",
        -9.628112635706282
      ],
      [
        "pẹ̀",
        -9.628881959355734
      ],
      [
        "our",
        -9.631237176056484
      ],
      [
        "▁eran",
        -9.631638156063813
      ],
      [
        "son",
        -9.632217884254889
      ],
      [
        "▁Ope",
        -9.633873608435707
      ],
      [
        "▁àárín",
        -9.634392627632753
      ],
      [
        "ayé",
        -9.63515252417579
      ],
      [
        "aye",
        -9.635792185021389
      ],
      [
        "essons",
        -9.636197304700021
      ],
      [
        "sọ̀",
        -9.636866061942175
      ],
      [
        "▁#IWD",
        -9.637801507151913
      ],
      [
        "🤔",
        -9.637824047362937
      ],
      [
        "▁#Parioweyii",
        -9.637824047362937
      ],
      [
        "▁#Random",
        -9.637824056082547
      ],
      [
        "▁Eledumare",
        -9.6378242896308
      ],
      [
        "▁àtàtà",
        -9.637826220341745
      ],
      [
        "▁gbajúmọ̀",
        -9.637826717317617
      ],
      [
        "▁Àwòrán",
        -9.638147456771694
      ],
      [
        "KỌ",
        -9.638148494552837
      ],
      [
        "▁Oodua",
        -9.63824856384027
      ],
      [
        "▁Beeni",
        -9.638409937633655
      ],
      [
        "▁B'ó",
        -9.63849837764448
      ],
      [
        "▁niyen",
        -9.63871723420402
      ],
      [
        "▁àrà",
        -9.638806529877689
      ],
      [
        "▁Ọpẹ́",
        -9.638988809233936
      ],
      [
        "▁https://t.co/w",
        -9.639057157564363
      ],
      [
        "polongo",
        -9.63906731807803
      ],
      [
        "▁ọpẹ́",
        -9.63923495104582
      ],
      [
        "IAN",
        -9.639579863032454
      ],
      [
        "▁#Ijebu",
        -9.639684069081024
      ],
      [
        "▁https://t.co/A",
        -9.639837447283867
      ],
      [
        "▁Ọ̀pọ̀",
        -9.639849165464131
      ],
      [
        "▁https://t.co/O",
        -9.639893847667523
      ],
      [
        "▁kẹ",
        -9.640455860627839
      ],
      [
        "▁child",
        -9.640479967303312
      ],
      [
        "▁https://t.co/K",
        -9.640521139827644
      ],
      [
        "▁Máà",
        -9.64073569205399
      ],
      [
        "▁So",
        -9.641034634157716
      ],
      [
        "▁ejò",
        -9.641193923894058
      ],
      [
        "▁https://t.co/F",
        -9.64151658995812
      ],
      [
        "▁èso",
        -9.641808000094018
      ],
      [
        "▁#Ife",
        -9.6423278888292
      ],
      [
        "▁https://t.co/y",
        -9.642833639777955
      ],
      [
        "▁ọ̀sán",
        -9.644048919547105
      ],
      [
        "▁fò",
        -9.644340386211887
      ],
      [
        "▁Twitter",
        -9.64462821897551
      ],
      [
        "▁mí.",
        -9.644807075485023
      ],
      [
        "jinde",
        -9.644890101900451
      ],
      [
        "▁Odò",
        -9.645124939236283
      ],
      [
        "ness",
        -9.645194656578763
      ],
      [
        "▁😊",
        -9.645794279191932
      ],
      [
        "▁die",
        -9.646263945629848
      ],
      [
        "▁Iwo",
        -9.646478130919046
      ],
      [
        "▁https://t.co/P",
        -9.646603487200725
      ],
      [
        "Lo",
        -9.647030220496921
      ],
      [
        "▁délé",
        -9.647716510432556
      ],
      [
        "▁ibo",
        -9.650346139005634
      ],
      [
        "▁D)",
        -9.65041111019787
      ],
      [
        "▁L'",
        -9.650945080433333
      ],
      [
        "▁Dá",
        -9.651844841444754
      ],
      [
        "fẹ̀",
        -9.65206285326936
      ],
      [
        "▁#culture",
        -9.652650882752427
      ],
      [
        "olu",
        -9.652937871885875
      ],
      [
        "▁tẹ́",
        -9.65315161262165
      ],
      [
        "àwọn",
        -9.6547999820787
      ],
      [
        "▁yàn",
        -9.655721781766506
      ],
      [
        "▁seun",
        -9.657902119243975
      ],
      [
        "▁Bu",
        -9.658614569213508
      ],
      [
        "log",
        -9.65904219106845
      ],
      [
        "ugbon",
        -9.662321066686726
      ],
      [
        "▁iwa",
        -9.663270709971334
      ],
      [
        "▁n'",
        -9.663465176565126
      ],
      [
        "▁ṣà",
        -9.6637174907083
      ],
      [
        "nìí",
        -9.66422079937213
      ],
      [
        "▁ràn",
        -9.664698775878035
      ],
      [
        "▁Oló",
        -9.665086988427714
      ],
      [
        "▁sise",
        -9.666108214946092
      ],
      [
        "▁wé",
        -9.66668968388711
      ],
      [
        "shi",
        -9.666808545788378
      ],
      [
        "▁fu",
        -9.667342521297247
      ],
      [
        "egun",
        -9.667938168850958
      ],
      [
        "19",
        -9.66866468262375
      ],
      [
        "▁Oko",
        -9.66947943470089
      ],
      [
        "▁too",
        -9.67006611539302
      ],
      [
        "▁abo",
        -9.671787680091224
      ],
      [
        "ọ́dún",
        -9.67237652680338
      ],
      [
        "bè",
        -9.674284588884836
      ],
      [
        "▁orò",
        -9.67432047973151
      ],
      [
        "▁its",
        -9.676097966977455
      ],
      [
        "ṣé",
        -9.676429720347079
      ],
      [
        "▁oye",
        -9.676570893377816
      ],
      [
        "▁Ati",
        -9.678709497787137
      ],
      [
        "▁Ola",
        -9.67930860040548
      ],
      [
        "▁#nigerian",
        -9.67968375472952
      ],
      [
        "dìẹ",
        -9.68017072426543
      ],
      [
        "gbì",
        -9.680789523897698
      ],
      [
        "The",
        -9.683376807661114
      ],
      [
        "▁yín.",
        -9.684496830266566
      ],
      [
        "▁#N",
        -9.6848180989452
      ],
      [
        "yorùbá",
        -9.685452471085124
      ],
      [
        "KO",
        -9.685640087340555
      ],
      [
        "▁àgbá",
        -9.687466040128413
      ],
      [
        "daran",
        -9.687990078728781
      ],
      [
        "▁elé",
        -9.688552036457283
      ],
      [
        "▁Èjì",
        -9.69010093703743
      ],
      [
        "▁#Nigbatiwon",
        -9.690455626763393
      ],
      [
        "▁#hausa",
        -9.690455644900203
      ],
      [
        "▁ìlẹ̀kẹ̀",
        -9.690457491791955
      ],
      [
        "▁wọ̀nyìí",
        -9.69045750574962
      ],
      [
        "▁Àsìkò",
        -9.690457806855159
      ],
      [
        "▁ìrọ̀lẹ́",
        -9.690457969969621
      ],
      [
        "▁#Gele",
        -9.690459646576464
      ],
      [
        "▁Ekiti",
        -9.690464367479947
      ],
      [
        "▁oríṣi",
        -9.69046450170474
      ],
      [
        "síwájú",
        -9.690471835361926
      ],
      [
        "Fulani",
        -9.6904745133623
      ],
      [
        "▁asiko",
        -9.69054467808041
      ],
      [
        "▁ṣubú",
        -9.690642321511675
      ],
      [
        "▁pi",
        -9.690700791326964
      ],
      [
        "▁ọ̀tún",
        -9.690822190136386
      ],
      [
        "▁#Proverb",
        -9.690865876675735
      ],
      [
        "▁than",
        -9.690970164730448
      ],
      [
        "▁ìwádìí",
        -9.69133211744423
      ],
      [
        "▁ÀTI",
        -9.691750919658524
      ],
      [
        "▁daadaa",
        -9.691817655315367
      ],
      [
        "▁#naija",
        -9.691894442865072
      ],
      [
        "▁èyàn",
        -9.69203333607248
      ],
      [
        "▁Ẹlẹ́dàá",
        -9.692203527496275
      ],
      [
        "▁#oodua",
        -9.692345446253997
      ],
      [
        "▁gbin",
        -9.692554884907572
      ],
      [
        "▁ìsinmi",
        -9.692674994689874
      ],
      [
        "ow",
        -9.692837427582958
      ],
      [
        "▁ìdílé",
        -9.692945332199336
      ],
      [
        "▁Buhari",
        -9.693282295556687
      ],
      [
        "▁https://t.co/I",
        -9.693566057257383
      ],
      [
        "nal",
        -9.693575288095683
      ],
      [
        "▁agbara",
        -9.694508807590815
      ],
      [
        "▁[B",
        -9.69456211463248
      ],
      [
        "gb",
        -9.694628523676068
      ],
      [
        "▁ere",
        -9.694854714911683
      ],
      [
        "▁words",
        -9.695106816039463
      ],
      [
        "▁Tó",
        -9.695491031744107
      ],
      [
        "▁fìlà",
        -9.695972730294013
      ],
      [
        "▁take",
        -9.696098385105227
      ],
      [
        "▁ṣè",
        -9.696239313730423
      ],
      [
        "▁bi?",
        -9.697306953412474
      ],
      [
        "▁https://t.co/6",
        -9.697334944670082
      ],
      [
        "▁ago",
        -9.697542412448621
      ],
      [
        "ON",
        -9.69780722019991
      ],
      [
        "▁Obì",
        -9.697926890174514
      ],
      [
        "▁fẹ̀",
        -9.698201791866111
      ],
      [
        "▁#igbo",
        -9.698348701588863
      ],
      [
        "▁oorun",
        -9.69881848532905
      ],
      [
        "▁He",
        -9.700167285220225
      ],
      [
        "▁ìtẹ́",
        -9.702239520874201
      ],
      [
        "▁bímọ",
        -9.702958297724136
      ],
      [
        "▁T'",
        -9.70340663719108
      ],
      [
        "▁Oju",
        -9.705068567040318
      ],
      [
        "▁eye",
        -9.705394268559244
      ],
      [
        "ranti",
        -9.70760224902084
      ],
      [
        "▁ema",
        -9.708391415539893
      ],
      [
        "▁ré",
        -9.709400226336152
      ],
      [
        "▁ife",
        -9.71055313482719
      ],
      [
        "bìrin",
        -9.712915271964828
      ],
      [
        "▁síi",
        -9.713246582129031
      ],
      [
        "▁pá",
        -9.714216891961483
      ],
      [
        "▁iku",
        -9.714535172695896
      ],
      [
        "▁nii",
        -9.715010283924732
      ],
      [
        "rọra",
        -9.715274805432403
      ],
      [
        "▁sílẹ̀.",
        -9.718685777148714
      ],
      [
        "\"\"\"\"\"\"\"\"?",
        -9.718706706167858
      ],
      [
        "SA",
        -9.718739803975483
      ],
      [
        "▁oooo",
        -9.719813437223188
      ],
      [
        "▁Dok",
        -9.720021777947343
      ],
      [
        "▁ina",
        -9.72116686007956
      ],
      [
        "'ra",
        -9.72184805865485
      ],
      [
        "'bẹ̀",
        -9.723376928085274
      ],
      [
        "▁Elédùmarè",
        -9.723983842009051
      ],
      [
        "2015",
        -9.724450833025866
      ],
      [
        "IT",
        -9.724579469095312
      ],
      [
        "▁De",
        -9.725961273854253
      ],
      [
        "'lé",
        -9.726938593488448
      ],
      [
        "ọjọ́",
        -9.727442025938826
      ],
      [
        "▁mó",
        -9.728378411386851
      ],
      [
        "cu",
        -9.728430200503517
      ],
      [
        "keji",
        -9.728742083662642
      ],
      [
        "ty",
        -9.729042382795098
      ],
      [
        "not",
        -9.72907973700427
      ],
      [
        "▁tọ",
        -9.730648292530173
      ],
      [
        "Nile",
        -9.731755218012722
      ],
      [
        "pu",
        -9.731876621239099
      ],
      [
        "▁ilée",
        -9.732932316024133
      ],
      [
        "▁yọ̀",
        -9.733588506955137
      ],
      [
        "▁ṣẹ́",
        -9.73362380788844
      ],
      [
        "▁ese",
        -9.734840033811519
      ],
      [
        "▁(a",
        -9.735146339529825
      ],
      [
        "▁dán",
        -9.736247895067141
      ],
      [
        "ff",
        -9.736718661986576
      ],
      [
        "▁àlà",
        -9.737066295148741
      ],
      [
        "▁adú",
        -9.737757741068531
      ],
      [
        "jọba",
        -9.738076478379758
      ],
      [
        "lẹ̀.",
        -9.73917784216459
      ],
      [
        "▁#Da",
        -9.739219377593402
      ],
      [
        "▁bù",
        -9.742075627194552
      ],
      [
        "▁nse",
        -9.742317427466054
      ],
      [
        "▁#s",
        -9.745314683395232
      ],
      [
        "tán",
        -9.745475261868155
      ],
      [
        "▁Britain",
        -9.746011186714439
      ],
      [
        "▁Agẹmọ",
        -9.746011211817416
      ],
      [
        "▁#tweetinyoruba",
        -9.746011387248505
      ],
      [
        "▁Yèyé",
        -9.746011452848544
      ],
      [
        "▁#ibadan",
        -9.746011575055185
      ],
      [
        "▁Ààrẹ",
        -9.746016245778577
      ],
      [
        "▁#kaftantv",
        -9.746090057845246
      ],
      [
        "This",
        -9.746117158710447
      ],
      [
        "▁hope",
        -9.746148782589264
      ],
      [
        "èé",
        -9.746510987047131
      ],
      [
        "▁eégún",
        -9.746631912048949
      ],
      [
        "▁gbangba",
        -9.746664769174936
      ],
      [
        "▁#PariOweYii",
        -9.746673828758992
      ],
      [
        "▁Oríkì",
        -9.746696208987546
      ],
      [
        "▁#world",
        -9.74672248557209
      ],
      [
        "▁own",
        -9.746795039269479
      ],
      [
        "▁ǹ",
        -9.746828484307871
      ],
      [
        "▁Naijiria",
        -9.747021500442685
      ],
      [
        "▁dẹ́",
        -9.747044847350164
      ],
      [
        "▁èlò",
        -9.747143419970696
      ],
      [
        "▁https://t.co/x",
        -9.747224156450484
      ],
      [
        "ṣòwò",
        -9.747301864303937
      ],
      [
        "▁https://t.co/h",
        -9.747385445505728
      ],
      [
        "hìn",
        -9.747502240000765
      ],
      [
        "▁opolopo",
        -9.747592840918495
      ],
      [
        "▁àlàáfíà",
        -9.747768026389428
      ],
      [
        "▁—",
        -9.747815787566564
      ],
      [
        "▁Ìtàn",
        -9.747878196185946
      ],
      [
        "▁Ìpínlẹ̀",
        -9.748074051203584
      ],
      [
        "▁Ojumo",
        -9.749166698912296
      ],
      [
        "Ba",
        -9.749260920350332
      ],
      [
        "TÍ",
        -9.749802118461453
      ],
      [
        "oye",
        -9.75000703989203
      ],
      [
        "▁Oṣù",
        -9.750667884870293
      ],
      [
        "▁https://t.co/2",
        -9.750682100285408
      ],
      [
        "▁give",
        -9.751069458993149
      ],
      [
        "▁Benin",
        -9.751328472111895
      ],
      [
        "▁#Ewe",
        -9.751408252588169
      ],
      [
        "▁ṣẹ̀ṣẹ̀",
        -9.751513685285499
      ],
      [
        "▁beeni",
        -9.751515303389056
      ],
      [
        "▁#Ise",
        -9.751543246082946
      ],
      [
        "▁https://t.co/R",
        -9.751589699354726
      ],
      [
        "▁ẹgbẹ̀rún",
        -9.75193412190508
      ],
      [
        "▁p'",
        -9.752122392018903
      ],
      [
        "GÚN",
        -9.752603552664464
      ],
      [
        "▁https://t.co/D",
        -9.752973283861486
      ],
      [
        "▁Ají",
        -9.753554582742208
      ],
      [
        "▁ilà",
        -9.753712566190462
      ],
      [
        "▁eyan",
        -9.753718053127926
      ],
      [
        "▁ẹni.",
        -9.753720376635513
      ],
      [
        "tọ",
        -9.7539199989863
      ],
      [
        "▁back",
        -9.756262435431799
      ],
      [
        "▁nibi",
        -9.756304031100441
      ],
      [
        "▁U",
        -9.757115987253986
      ],
      [
        "▁síbẹ̀",
        -9.757217413561072
      ],
      [
        "Co",
        -9.759295567730971
      ],
      [
        "▁Wan",
        -9.760029284658144
      ],
      [
        "▁loju",
        -9.760258621471811
      ],
      [
        "est",
        -9.761745368890265
      ],
      [
        "▁meji",
        -9.76181781081567
      ],
      [
        "▁pẹ",
        -9.762088241610636
      ],
      [
        "▁Ìgb",
        -9.762379416246985
      ],
      [
        "JE",
        -9.762417371647256
      ],
      [
        "ṣu",
        -9.762602286693214
      ],
      [
        "▁#yorubal",
        -9.76262917769206
      ],
      [
        "▁ńbẹ",
        -9.762975255205243
      ],
      [
        "▁You",
        -9.763018931611816
      ],
      [
        "▁cc",
        -9.763692547865798
      ],
      [
        "▁ère",
        -9.763730284975333
      ],
      [
        "wuro",
        -9.764588181269078
      ],
      [
        "▁Kii",
        -9.764722508756785
      ],
      [
        "▁osi",
        -9.76481819241262
      ],
      [
        "▁rú",
        -9.764875442249103
      ],
      [
        "▁ola",
        -9.766771775906749
      ],
      [
        "▁iba",
        -9.766988067661666
      ],
      [
        "sofin",
        -9.76752559065417
      ],
      [
        "▁SE",
        -9.768174807345877
      ],
      [
        "▁7.",
        -9.768427605611603
      ],
      [
        "▁odo",
        -9.768533442134112
      ],
      [
        "▁Alẹ́",
        -9.768817939174076
      ],
      [
        "...\"\"\"\"\"\"\"\"",
        -9.769904648847234
      ],
      [
        "▁#U",
        -9.770419827222527
      ],
      [
        "rúkọ",
        -9.771869447302908
      ],
      [
        "▁IN",
        -9.772254392566218
      ],
      [
        "▁6.",
        -9.772622820754975
      ],
      [
        "▁Jo",
        -9.773348837693607
      ],
      [
        "▁ró",
        -9.774356474546671
      ],
      [
        "▁aba",
        -9.776153619157338
      ],
      [
        "▁YÍ",
        -9.777060981878249
      ],
      [
        "▁àjò",
        -9.777092562895422
      ],
      [
        "▁wú",
        -9.77727070061104
      ],
      [
        "Ti",
        -9.778066562527304
      ],
      [
        "RI",
        -9.779906507412036
      ],
      [
        "▁kaa",
        -9.780120119423305
      ],
      [
        "▁ọ̀pọ̀lọ",
        -9.780669581266018
      ],
      [
        "um",
        -9.782579270143453
      ],
      [
        "▁han",
        -9.782912599918086
      ],
      [
        "▁sir",
        -9.782932728039702
      ],
      [
        "ic",
        -9.783453937330059
      ],
      [
        "▁yẹ̀",
        -9.784709761968879
      ],
      [
        "▁é.",
        -9.784765673661095
      ],
      [
        "▁nà",
        -9.785038629350865
      ],
      [
        "▁Ife",
        -9.785590265157303
      ],
      [
        "ọ̀dọ̀",
        -9.785753295397368
      ],
      [
        "gbọn",
        -9.786421160420176
      ],
      [
        "▁gbọ́n",
        -9.787122980796187
      ],
      [
        "gidi",
        -9.79018124911004
      ],
      [
        "sẹ́",
        -9.790328138407727
      ],
      [
        "▁asa",
        -9.791308031497664
      ],
      [
        "mon",
        -9.791770007964857
      ],
      [
        "▁fara",
        -9.792243904009482
      ],
      [
        "iki",
        -9.793588567824187
      ],
      [
        "▁#Ki",
        -9.793653697218458
      ],
      [
        "less",
        -9.793966760852632
      ],
      [
        "jìn",
        -9.794129901935106
      ],
      [
        "▁Ele",
        -9.794760692525514
      ],
      [
        "ogun",
        -9.79525476653537
      ],
      [
        "▁ode",
        -9.795435621942243
      ],
      [
        "siti",
        -9.795908769943024
      ],
      [
        "mọlẹ̀",
        -9.796318447095782
      ],
      [
        "re.",
        -9.796628902164857
      ],
      [
        "▁Ewo",
        -9.798561732613738
      ],
      [
        "▁#L",
        -9.799570117609495
      ],
      [
        "rí,",
        -9.799976529594055
      ],
      [
        "▁Ọ̀gb",
        -9.800436011243193
      ],
      [
        "▁#Africa",
        -9.80205815492352
      ],
      [
        "▁àwọ̀",
        -9.802676527836171
      ],
      [
        "▁aṣ",
        -9.80309838680986
      ],
      [
        "abo",
        -9.803198755368712
      ],
      [
        "́",
        -9.803840449442928
      ],
      [
        "ÙN",
        -9.804611057551774
      ],
      [
        "▁#IMLD",
        -9.804834717890994
      ],
      [
        "▁#IseseLagba",
        -9.804834719076228
      ],
      [
        "▁Àfọ̀njá",
        -9.804835225691498
      ],
      [
        "▁alafia",
        -9.804838136131536
      ],
      [
        "▁(1)",
        -9.804883138615825
      ],
      [
        "▁#idanoripapa",
        -9.804895068592513
      ],
      [
        "▁wèrè",
        -9.804977212965184
      ],
      [
        "Osogbo",
        -9.80500366710905
      ],
      [
        "▁Ọlọ́run.",
        -9.805108751412872
      ],
      [
        "ought",
        -9.805133304391777
      ],
      [
        "▁13.",
        -9.805134150399349
      ],
      [
        "▁lágbára",
        -9.805270391014883
      ],
      [
        "▁Ìgbàgbọ́",
        -9.805745382756292
      ],
      [
        "▁ìbẹ̀rẹ̀",
        -9.805984921228108
      ],
      [
        "▁https://t.co/3",
        -9.805989812063151
      ],
      [
        "LÚ",
        -9.806322999703967
      ],
      [
        "▁ọrùn",
        -9.806506730802788
      ],
      [
        "Oriki",
        -9.806839492629297
      ],
      [
        "▁nílùú",
        -9.807070157344373
      ],
      [
        "▁Lati",
        -9.807138078801984
      ],
      [
        "▁iyán",
        -9.807498297623159
      ],
      [
        "▁ẹyẹlé",
        -9.8078406109591
      ],
      [
        "▁irọ́",
        -9.807997832816469
      ],
      [
        "▁Edumare",
        -9.807998518077444
      ],
      [
        "▁ẹ̀jẹ̀",
        -9.808010325845974
      ],
      [
        "▁#Osun",
        -9.80811122684534
      ],
      [
        "op",
        -9.808187394752132
      ],
      [
        "▁#Egun",
        -9.808241789722778
      ],
      [
        "▁lọ́lá",
        -9.808409336577109
      ],
      [
        "▁lálẹ́",
        -9.808619238229117
      ],
      [
        "▁létí",
        -9.808628324112028
      ],
      [
        "OR",
        -9.808865760490228
      ],
      [
        "▁#Orisa",
        -9.809210356557235
      ],
      [
        "▁#African",
        -9.810125565793857
      ],
      [
        "the",
        -9.810467830842638
      ],
      [
        "▁▶️",
        -9.81051233496756
      ],
      [
        "jọ̀",
        -9.81063711551868
      ],
      [
        "▁díẹ̀.",
        -9.810743720258756
      ],
      [
        "▁ẹkùn",
        -9.810921835077732
      ],
      [
        "▁idà",
        -9.811146021733787
      ],
      [
        "▁14",
        -9.811562405921054
      ],
      [
        "▁America",
        -9.81177520757223
      ],
      [
        "ting",
        -9.812206191549489
      ],
      [
        "▁😀",
        -9.812895431369007
      ],
      [
        "▁igbe",
        -9.813132821188338
      ],
      [
        "ẹ̀hìn",
        -9.813535578501577
      ],
      [
        "▁One",
        -9.81416391877541
      ],
      [
        "▁https://t.co/C",
        -9.814350760595946
      ],
      [
        "▁ṣi",
        -9.814597748379459
      ],
      [
        "▁jare",
        -9.814654381104301
      ],
      [
        "hu",
        -9.815973193190558
      ],
      [
        "▁Osun",
        -9.81623557174636
      ],
      [
        "▁🙏",
        -9.816340442062215
      ],
      [
        "my",
        -9.816688074166283
      ],
      [
        "▁orílẹ̀",
        -9.817052734101166
      ],
      [
        "há",
        -9.818034282240962
      ],
      [
        "▁Si",
        -9.819098512692424
      ],
      [
        "▁dede",
        -9.819816704673588
      ],
      [
        "▁gbadun",
        -9.820449764125303
      ],
      [
        "▁#Iya",
        -9.821508156910436
      ],
      [
        "▁call",
        -9.82189582858228
      ],
      [
        "▁B'",
        -9.822418957298922
      ],
      [
        "▁nigba",
        -9.82249414625517
      ],
      [
        "▁Ayo",
        -9.824511539438571
      ],
      [
        "-an",
        -9.825431259245665
      ],
      [
        "▁Asa",
        -9.827496779525344
      ],
      [
        "▁koja",
        -9.82760521724553
      ],
      [
        "▁Ibo",
        -9.828398130643329
      ],
      [
        "▁lóko",
        -9.8332272696211
      ],
      [
        "▁fee",
        -9.833703457900302
      ],
      [
        "De",
        -9.834452452868419
      ],
      [
        "▁kọ̀",
        -9.835241032005914
      ],
      [
        "s)",
        -9.835972269290016
      ],
      [
        "NI",
        -9.837366387234944
      ],
      [
        "▁hù",
        -9.839058793854582
      ],
      [
        "qu",
        -9.839291323917504
      ],
      [
        "▁gùn",
        -9.840211654542665
      ],
      [
        "ô",
        -9.840231790552192
      ],
      [
        "mer",
        -9.841420821913594
      ],
      [
        "▁wole",
        -9.842021792760464
      ],
      [
        "▁Ye",
        -9.842164765604494
      ],
      [
        "̀bùn",
        -9.842206627204792
      ],
      [
        "lóyè",
        -9.84284812576893
      ],
      [
        "gbin",
        -9.844730167244519
      ],
      [
        "▁th",
        -9.845112458677239
      ],
      [
        "▁míì",
        -9.845161929235756
      ],
      [
        "▁tóó",
        -9.845898153397949
      ],
      [
        "WE",
        -9.846515506442003
      ],
      [
        "▁okan",
        -9.846536522538681
      ],
      [
        "of",
        -9.846776513508981
      ],
      [
        "God",
        -9.847881918023742
      ],
      [
        "▁wò.",
        -9.849470571283472
      ],
      [
        "▁(I",
        -9.850658704561802
      ],
      [
        "▁afi",
        -9.852956028634232
      ],
      [
        "age",
        -9.853911822929499
      ],
      [
        "▁Ku",
        -9.854035375951652
      ],
      [
        "ep",
        -9.854477372115365
      ],
      [
        "kunrin",
        -9.854557957524811
      ],
      [
        "jáde",
        -9.854845877641623
      ],
      [
        "owó",
        -9.85609622274977
      ],
      [
        "▁para",
        -9.857273295261322
      ],
      [
        "land",
        -9.858187329518508
      ],
      [
        "▁lara",
        -9.858598183860535
      ],
      [
        "tẹ́",
        -9.858852547323181
      ],
      [
        "▁lóde",
        -9.859199840794963
      ],
      [
        "pọ́n",
        -9.86005266712328
      ],
      [
        "▁rà",
        -9.860303422405618
      ],
      [
        "...\"\"\"\"",
        -9.860663624203744
      ],
      [
        "▁Ya",
        -9.861251487695409
      ],
      [
        "ọ̀wọ̀",
        -9.86168079602515
      ],
      [
        "▁BA",
        -9.862803696744916
      ],
      [
        "tata",
        -9.863142223876114
      ],
      [
        "pọ",
        -9.864827886400246
      ],
      [
        "PO",
        -9.867225555698674
      ],
      [
        "▁hahaha",
        -9.867253058725131
      ],
      [
        "▁ọ̀dọ́",
        -9.867307230367436
      ],
      [
        "▁odi",
        -9.867331091601372
      ],
      [
        "▁Fúlàní",
        -9.86733471181287
      ],
      [
        "▁Tolulope",
        -9.867334712137973
      ],
      [
        "▁ṣàmọ́dún",
        -9.867334893181415
      ],
      [
        "▁#OwoEyo",
        -9.867334906568606
      ],
      [
        "ómìnà",
        -9.867335078816662
      ],
      [
        "▁̊°!",
        -9.867335275170046
      ],
      [
        "ringBackOurGirls",
        -9.867336486342856
      ],
      [
        "▁àtúnṣe",
        -9.867336523814078
      ],
      [
        "▁Fẹlá",
        -9.867337099025423
      ],
      [
        "▁Ekaaro",
        -9.86733786508054
      ],
      [
        "▁Ọọ̀ni",
        -9.867343586073515
      ],
      [
        "▁àkàrà",
        -9.867346721969177
      ],
      [
        "▁orílẹ̀-èdè",
        -9.867373399525395
      ],
      [
        "Friday",
        -9.86737528144283
      ],
      [
        "▁ọ̀gbìn",
        -9.867412871900118
      ],
      [
        "▁tree",
        -9.867416256153726
      ],
      [
        "▁Egbe",
        -9.867461144646589
      ],
      [
        "▁sẹ́yìn",
        -9.867493393321693
      ],
      [
        "▁ìdàgbàsókè",
        -9.867528166810875
      ],
      [
        "▁tutù",
        -9.867596544265918
      ],
      [
        "▁lánàá",
        -9.867784671577091
      ],
      [
        "▁àgbàlagbà",
        -9.867925452923703
      ],
      [
        "▁#OsuO",
        -9.868028150270828
      ],
      [
        "▁líl",
        -9.868210386281678
      ],
      [
        "▁lọ́rùn",
        -9.86832237775453
      ],
      [
        "▁ìlànà",
        -9.868421082092915
      ],
      [
        "▁ìyàtọ̀",
        -9.868511712763004
      ],
      [
        "▁osise",
        -9.868797821942382
      ],
      [
        "RÚ",
        -9.869182391731751
      ],
      [
        "▁èpè",
        -9.869240018770855
      ],
      [
        "▁ìròyìn",
        -9.869290182453586
      ],
      [
        "▁lábẹ́",
        -9.869292375490716
      ],
      [
        "▁alaafia",
        -9.869725289139346
      ],
      [
        "▁Ju",
        -9.86985308409356
      ],
      [
        "▁#Oruko",
        -9.870059188676038
      ],
      [
        "▁oníṣẹ́",
        -9.870059634910199
      ],
      [
        "▁àgbọn",
        -9.87018967684262
      ],
      [
        "ayo",
        -9.87042205319489
      ],
      [
        "ròyìn",
        -9.8707608221901
      ],
      [
        "▁Ìfẹ́",
        -9.871143947615229
      ],
      [
        "▁only",
        -9.87115575676386
      ],
      [
        "▁ẹbọ",
        -9.871526415750925
      ],
      [
        "ant",
        -9.871730272742397
      ],
      [
        "▁ìlù",
        -9.871835381650891
      ],
      [
        "Our",
        -9.871989867073852
      ],
      [
        "Le",
        -9.872098699519762
      ],
      [
        "▁àjọ",
        -9.872112392207152
      ],
      [
        "Ogbomoso",
        -9.87286153029293
      ],
      [
        "▁3",
        -9.872878865926005
      ],
      [
        "▁aiyé",
        -9.87297340006413
      ],
      [
        "saying",
        -9.873456666901442
      ],
      [
        "▁lọ́la",
        -9.873642330111338
      ],
      [
        "▁Ah!",
        -9.873749675554212
      ],
      [
        "▁obinrin",
        -9.873989181086623
      ],
      [
        "▁ìpè",
        -9.874265827438391
      ],
      [
        "▁Pe",
        -9.87462291828414
      ],
      [
        "▁lárugẹ",
        -9.874737643177149
      ],
      [
        "▁Eré",
        -9.8750416540917
      ],
      [
        "▁lọ̀",
        -9.876073527379182
      ],
      [
        "▁oo.",
        -9.876190831721367
      ],
      [
        "▁ẹdìẹ",
        -9.876232434325628
      ],
      [
        "yẹmí",
        -9.876455719897937
      ],
      [
        "▁yi.",
        -9.876537184571589
      ],
      [
        "▁aago",
        -9.877702427467733
      ],
      [
        "▁An",
        -9.877973887983845
      ],
      [
        "▁tuntun.",
        -9.878849083827562
      ],
      [
        "binrin",
        -9.879854476625754
      ],
      [
        "▁word",
        -9.880129348431945
      ],
      [
        "▁apa",
        -9.880738712305504
      ],
      [
        "▁adìyẹ",
        -9.881263908300236
      ],
      [
        "▁òǹ",
        -9.881577850019527
      ],
      [
        "oju",
        -9.882105133761899
      ],
      [
        "▁bínú",
        -9.883833122817276
      ],
      [
        "jire",
        -9.884265400758933
      ],
      [
        "▁ope",
        -9.884379073992312
      ],
      [
        "re,",
        -9.884485717221452
      ],
      [
        "ọdún",
        -9.885967266005332
      ],
      [
        "▁Igbe",
        -9.887805087940794
      ],
      [
        "▁kíkọ",
        -9.887915448419532
      ],
      [
        "up",
        -9.888217747884987
      ],
      [
        "▁Wo",
        -9.888794638601851
      ],
      [
        "▁níbí",
        -9.889322267333284
      ],
      [
        "▁ee",
        -9.889769129374384
      ],
      [
        "▁was",
        -9.890221166806182
      ],
      [
        "▁https://t.co/s",
        -9.890234579144005
      ],
      [
        "▁ṣeré",
        -9.890458121949601
      ],
      [
        "▁làgbà",
        -9.890530864854453
      ],
      [
        "FC",
        -9.891734530233983
      ],
      [
        "han",
        -9.891998572988784
      ],
      [
        "▁Oyo",
        -9.893572237656713
      ],
      [
        "hò",
        -9.893579561949958
      ],
      [
        "bun",
        -9.893993033168856
      ],
      [
        "sp",
        -9.89407051802164
      ],
      [
        "bale",
        -9.894362589349829
      ],
      [
        "▁l'ọ́",
        -9.89457663375071
      ],
      [
        "▁kẹ̀",
        -9.89547256783863
      ],
      [
        "ah",
        -9.895481028440106
      ],
      [
        "oko",
        -9.89594717481447
      ],
      [
        "ago",
        -9.897734848688533
      ],
      [
        "16",
        -9.898277757685253
      ],
      [
        "ence",
        -9.899431449702563
      ],
      [
        "pọ̀n",
        -9.899580627010518
      ],
      [
        "able",
        -9.899842615016192
      ],
      [
        "mì",
        -9.899881977040337
      ],
      [
        "▁Ra",
        -9.900188136147241
      ],
      [
        "▁OF",
        -9.900213192431526
      ],
      [
        "tú",
        -9.901296171092199
      ],
      [
        "jumo",
        -9.902832020379112
      ],
      [
        "che",
        -9.903800303609723
      ],
      [
        "▁àdá",
        -9.909833577087667
      ],
      [
        "kọ̀ọ́",
        -9.909926142430976
      ],
      [
        "ọlá",
        -9.909930131670597
      ],
      [
        "ẹ̀rẹ̀",
        -9.910642525825025
      ],
      [
        "▁#AyajoOjoI",
        -9.911046626205916
      ],
      [
        "▁pẹ̀",
        -9.911896462108853
      ],
      [
        "▁pele",
        -9.918834513322494
      ],
      [
        "pt",
        -9.92004586846638
      ],
      [
        "▁òde",
        -9.92206450993706
      ],
      [
        "▁Yorùbá?",
        -9.92322053669419
      ],
      [
        "▁sán",
        -9.927298175940884
      ],
      [
        "ùpà",
        -9.929305683744827
      ],
      [
        "ive",
        -9.93000655652494
      ],
      [
        "Mi",
        -9.930243529481606
      ],
      [
        "▁Ọ̀yọ́.",
        -9.930510485142712
      ],
      [
        "Aje",
        -9.932577136696239
      ],
      [
        "▁Mu",
        -9.933123819608566
      ],
      [
        "isi",
        -9.933552052372216
      ],
      [
        "🏾",
        -9.934001377881287
      ],
      [
        "▁#Saturday",
        -9.934001377946416
      ],
      [
        "▁akitiyan",
        -9.934001393873173
      ],
      [
        "▁ráńṣẹ́",
        -9.934001493340151
      ],
      [
        "▁ọ̀gẹ̀dẹ̀",
        -9.934001527517957
      ],
      [
        "▁mẹ́wàá",
        -9.934001601428598
      ],
      [
        "▁Àgbáyé",
        -9.93400254392208
      ],
      [
        "▁òṣèlú",
        -9.934003582887469
      ],
      [
        "▁#NigeriaAt5",
        -9.934004564698249
      ],
      [
        "▁#EndSARS",
        -9.934005283438406
      ],
      [
        "▁àlejò",
        -9.934009532962056
      ],
      [
        "▁would",
        -9.934015254419881
      ],
      [
        "▁pataki",
        -9.934017531439334
      ],
      [
        "▁Ẹṣeun",
        -9.93402134330013
      ],
      [
        "Tuntun",
        -9.93403073936896
      ],
      [
        "▁káàkiri",
        -9.934037000998133
      ],
      [
        "▁márùn-ún",
        -9.934047163778645
      ],
      [
        "❤️",
        -9.934052521126675
      ],
      [
        "▁gege",
        -9.934058192863624
      ],
      [
        "▁12.",
        -9.93407724139869
      ],
      [
        "▁Alágbára",
        -9.934095324156148
      ],
      [
        "▁dìbò",
        -9.934185245289793
      ],
      [
        "▁Ondo",
        -9.934190524057486
      ],
      [
        "▁pẹ̀lẹ́",
        -9.934280176931562
      ],
      [
        "▁kekere",
        -9.934290217396644
      ],
      [
        "▁come",
        -9.934562278180646
      ],
      [
        "▁bóyá",
        -9.934644094998724
      ],
      [
        "▁#H",
        -9.934655103819026
      ],
      [
        "▁#OjoI",
        -9.934794933697999
      ],
      [
        "dánwò",
        -9.934868691191912
      ],
      [
        "TI",
        -9.93494759407655
      ],
      [
        "▁Adam",
        -9.935122415209406
      ],
      [
        "koko",
        -9.935158022266265
      ],
      [
        "GEJ",
        -9.935335466309432
      ],
      [
        "▁ọyẹ́",
        -9.93542173945616
      ],
      [
        "▁ọṣẹ",
        -9.93572091653652
      ],
      [
        "▁pèsè",
        -9.935764283035502
      ],
      [
        "▁Ẹ̀yọ̀",
        -9.93582096963733
      ],
      [
        "▁edumare",
        -9.936192196957842
      ],
      [
        "▁ALÁ",
        -9.936328795300563
      ],
      [
        "▁ọmú",
        -9.936970030061651
      ],
      [
        "▁some",
        -9.93711323900796
      ],
      [
        "▁afẹ́fẹ́",
        -9.937274956823856
      ],
      [
        "▁eti",
        -9.937487722022698
      ],
      [
        "▁àgbàdo",
        -9.937536850672455
      ],
      [
        "▁ṣoṣo",
        -9.937618458419912
      ],
      [
        "dani",
        -9.937647890952501
      ],
      [
        "▁ariwo",
        -9.937791163084501
      ],
      [
        "▁àdúrà",
        -9.93859306924155
      ],
      [
        "▁Osu",
        -9.938715953896626
      ],
      [
        "▁Èrò",
        -9.938998182820848
      ],
      [
        "▁igbá",
        -9.93978943726729
      ],
      [
        "▁itan",
        -9.93985738198751
      ],
      [
        "Pa",
        -9.93986909071235
      ],
      [
        "▁Nje",
        -9.939912200901404
      ],
      [
        "tutu",
        -9.93992982597436
      ],
      [
        "▁Òkú",
        -9.939953718260584
      ],
      [
        "Orisa",
        -9.940271313995481
      ],
      [
        "▁Kó",
        -9.940355422868695
      ],
      [
        "papọ̀",
        -9.940358344915426
      ],
      [
        "▁tètè",
        -9.940366082061075
      ],
      [
        "▁Níbo",
        -9.94091531425611
      ],
      [
        "▁#ogun",
        -9.941327274481441
      ],
      [
        "▁🤷",
        -9.941934047803793
      ],
      [
        "▁jade",
        -9.942504035147833
      ],
      [
        "▁gb",
        -9.9426150852625
      ],
      [
        "▁oògùn",
        -9.94335819085174
      ],
      [
        "▁proverb",
        -9.943448390933014
      ],
      [
        "dura",
        -9.94365370683204
      ],
      [
        "▁òpin",
        -9.944357716529268
      ],
      [
        "▁\"\"\"\"\"\"\"\"I",
        -9.944374068836375
      ],
      [
        "ranko",
        -9.944553905526973
      ],
      [
        "▁head",
        -9.944734137552148
      ],
      [
        "sù",
        -9.944860089919317
      ],
      [
        "bàá",
        -9.944933293500803
      ],
      [
        "▁òwú",
        -9.945004185940185
      ],
      [
        "DA",
        -9.946555994345909
      ],
      [
        "via",
        -9.947265844659528
      ],
      [
        "wọlé",
        -9.947969244916292
      ],
      [
        "únjẹ",
        -9.948204657287432
      ],
      [
        "▁òkúta",
        -9.949261936688874
      ],
      [
        "ọ́lá",
        -9.951004977685965
      ],
      [
        "▁tù",
        -9.952243965251423
      ],
      [
        "lọ́wọ́",
        -9.953027233397044
      ],
      [
        "▁https://t.co/e",
        -9.953601233154803
      ],
      [
        "State",
        -9.953714894823428
      ],
      [
        "▁dan",
        -9.954025080786518
      ],
      [
        "yẹ̀",
        -9.954154457653367
      ],
      [
        "DiE",
        -9.955003622852518
      ],
      [
        "gogo",
        -9.955636233494545
      ],
      [
        "▁(A",
        -9.955996803551177
      ],
      [
        "ING",
        -9.956274780703453
      ],
      [
        "ics",
        -9.957153176414081
      ],
      [
        "▁Oga",
        -9.959080125277513
      ],
      [
        "eti",
        -9.959374512124548
      ],
      [
        "▁àbọ̀",
        -9.960301213410132
      ],
      [
        "'n",
        -9.960533724382094
      ],
      [
        "▁kalẹ̀",
        -9.961521933424134
      ],
      [
        "▁ire.",
        -9.961817105928175
      ],
      [
        "▁&gt;",
        -9.961990405121043
      ],
      [
        "va",
        -9.962657477713961
      ],
      [
        "▁8.",
        -9.963517258740268
      ],
      [
        "▁àlá",
        -9.963676166952519
      ],
      [
        "▁olè",
        -9.963834277669536
      ],
      [
        "▁land",
        -9.964218431302651
      ],
      [
        "▁ṣu",
        -9.964924391941029
      ],
      [
        "ice",
        -9.966661133575705
      ],
      [
        "▁eda",
        -9.966852383622422
      ],
      [
        "GE",
        -9.967773920195285
      ],
      [
        "TV",
        -9.968375806836772
      ],
      [
        "▁sé",
        -9.968566537706847
      ],
      [
        "▁LÁ",
        -9.968855139686035
      ],
      [
        "CO",
        -9.970322197785132
      ],
      [
        "▁ekun",
        -9.970877892645618
      ],
      [
        "ò̟",
        -9.970943495994046
      ],
      [
        "dudu",
        -9.971437233772892
      ],
      [
        "▁jàre",
        -9.97170557114411
      ],
      [
        "!\"\"\"\"\"\"\"\"",
        -9.971722720315306
      ],
      [
        "▁bí?",
        -9.972223812743255
      ],
      [
        "▁eba",
        -9.975289183243678
      ],
      [
        "sho",
        -9.975481492471243
      ],
      [
        "while",
        -9.976586163085146
      ],
      [
        "▁ìt",
        -9.976644100332447
      ],
      [
        "▁San",
        -9.97687881944344
      ],
      [
        "▁ìpín",
        -9.977053780814455
      ],
      [
        "▁báwo",
        -9.978217454118585
      ],
      [
        "pon",
        -9.978989579298565
      ],
      [
        "▁ẹ̀ka",
        -9.979159524122695
      ],
      [
        "▁lù",
        -9.980624049327092
      ],
      [
        "Yorùbá",
        -9.980694506182362
      ],
      [
        "▁Igbo",
        -9.982132757186847
      ],
      [
        "ph",
        -9.982208615388052
      ],
      [
        "▁200",
        -9.982720663455396
      ],
      [
        "-ọ",
        -9.982731611264683
      ],
      [
        "▁#Ala",
        -9.984224803102558
      ],
      [
        "~",
        -9.98498028605585
      ],
      [
        "ǹkan",
        -9.985232958852562
      ],
      [
        "|",
        -9.985470881391654
      ],
      [
        "▁wa?",
        -9.98598372161345
      ],
      [
        "ebu",
        -9.986682955672954
      ],
      [
        "▁gbẹ́",
        -9.987110525930149
      ],
      [
        "ẹ̀ẹ́",
        -9.987730301051489
      ],
      [
        "\"\"\"\"\"\"\"\",",
        -9.988393740930436
      ],
      [
        "RÍ",
        -9.988515994013754
      ],
      [
        "Good",
        -9.989139045929615
      ],
      [
        "▁Awo",
        -9.989994060462545
      ],
      [
        "▁yè",
        -9.98999954349781
      ],
      [
        "▁they",
        -9.990566580184975
      ],
      [
        "kilo",
        -9.991756731558672
      ],
      [
        "lérí",
        -9.993495127363595
      ],
      [
        "▁ooo.",
        -9.99533925848544
      ],
      [
        "▁mọ̀.",
        -9.995512320785046
      ],
      [
        "mba",
        -9.996120332170715
      ],
      [
        "buru",
        -9.997833162302019
      ],
      [
        "▁oríi",
        -9.99844321268873
      ],
      [
        "lt",
        -9.999024434462077
      ],
      [
        "làgbà",
        -10.002860669242116
      ],
      [
        "▁man",
        -10.003304406590647
      ],
      [
        "▁sú",
        -10.004298317545
      ],
      [
        "▁ńṣe",
        -10.004784692178896
      ],
      [
        "Motivation",
        -10.005064364736755
      ],
      [
        "▁Abẹ́òkúta",
        -10.00543036148646
      ],
      [
        "▁Ọ̀RỌ̀",
        -10.005431145637946
      ],
      [
        "▁#monday",
        -10.00543149295612
      ],
      [
        "▁Eledua",
        -10.005431840649269
      ],
      [
        "▁gíga",
        -10.005432309892086
      ],
      [
        "▁ìṣẹ̀lẹ̀",
        -10.005434049984512
      ],
      [
        "▁Ìṣẹ́gun",
        -10.005437176355983
      ],
      [
        "▁--&gt;",
        -10.005437918572714
      ],
      [
        "▁#SMW",
        -10.00544306179558
      ],
      [
        "▁Ọ̀gá",
        -10.005444529867631
      ],
      [
        "Keep",
        -10.005456247697065
      ],
      [
        "▁#àsà",
        -10.00545856522229
      ],
      [
        "when",
        -10.005472979685456
      ],
      [
        "▁ewì",
        -10.005480620956286
      ],
      [
        "For",
        -10.006021944037538
      ],
      [
        "▁Àìkú",
        -10.006107699251919
      ],
      [
        "yípadà",
        -10.006346318712742
      ],
      [
        "▁Kọ́lá",
        -10.00637971080469
      ],
      [
        "dẹ̀dẹ̀",
        -10.00671953363682
      ],
      [
        "▁#Ibadan",
        -10.006726830215577
      ],
      [
        "▁#Benin",
        -10.0069086558537
      ],
      [
        "Kakanf",
        -10.007007566914078
      ],
      [
        "▁lóòótọ́",
        -10.007090582217163
      ],
      [
        "▁ILÉ",
        -10.007162899221271
      ],
      [
        "▁tọ́jú",
        -10.007210045037969
      ],
      [
        "▁oyinbo",
        -10.007219830775771
      ],
      [
        "festival",
        -10.007244757974398
      ],
      [
        "2016",
        -10.007260749957783
      ],
      [
        "▁ẹ̀tọ́",
        -10.007297871767005
      ],
      [
        "▁#Owo",
        -10.007576338641144
      ],
      [
        "tumọ̀",
        -10.007658658316956
      ],
      [
        "▁every",
        -10.00777937013575
      ],
      [
        "▁means",
        -10.008000873134248
      ],
      [
        "▁Ìlà",
        -10.008030401958482
      ],
      [
        "▁agbabo",
        -10.008322949665834
      ],
      [
        "▁Ọwọ́",
        -10.008476402850892
      ],
      [
        "▁hand",
        -10.008813815227269
      ],
      [
        "▁ọ̀gá",
        -10.008902944310702
      ],
      [
        "▁#Eto",
        -10.008905776044106
      ],
      [
        "Year",
        -10.00905609498572
      ],
      [
        "▁Ọjà",
        -10.009276195951838
      ],
      [
        "▁week",
        -10.009332571032669
      ],
      [
        "ligen",
        -10.009666171033464
      ],
      [
        "▁#Olorun",
        -10.009683430070492
      ],
      [
        "▁koni",
        -10.00987311465388
      ],
      [
        "▁t'á",
        -10.010315282080962
      ],
      [
        "▁meta",
        -10.0109986565835
      ],
      [
        "▁màá",
        -10.011230250100857
      ],
      [
        "▁ọtí",
        -10.011626601579742
      ],
      [
        "Agbaye",
        -10.011767132168009
      ],
      [
        "Life",
        -10.01201131404789
      ],
      [
        "▁egbò",
        -10.01244050253089
      ],
      [
        "2014",
        -10.012551101665016
      ],
      [
        "SẸ̀",
        -10.012738111309831
      ],
      [
        "red",
        -10.01293447325923
      ],
      [
        "▁kuku",
        -10.013132007249519
      ],
      [
        "▁Odù",
        -10.013336687783534
      ],
      [
        "gìrì",
        -10.013401243718073
      ],
      [
        "▁àpò",
        -10.013816000039679
      ],
      [
        "__",
        -10.014251467697322
      ],
      [
        "▁9.",
        -10.01505227517106
      ],
      [
        "Ati",
        -10.015305451280199
      ],
      [
        "▁Gbo",
        -10.015312341558946
      ],
      [
        "▁😁",
        -10.015531935748715
      ],
      [
        "ET",
        -10.015639958895356
      ],
      [
        "▁lasan",
        -10.015651986060764
      ],
      [
        "nkan",
        -10.016163330530484
      ],
      [
        "▁love",
        -10.016430494937572
      ],
      [
        "▁https://t.co/t",
        -10.01648075863001
      ],
      [
        "▁ṢE",
        -10.016986718337003
      ],
      [
        "▁olù",
        -10.017533097845575
      ],
      [
        "▁#oris",
        -10.018329600182186
      ],
      [
        "▁Ẹyẹ",
        -10.018497696016606
      ],
      [
        "▁kuro",
        -10.019412655140869
      ],
      [
        "▁àlàyé",
        -10.019723644548
      ],
      [
        "▁jeun",
        -10.019878978759516
      ],
      [
        "ood",
        -10.019984726969893
      ],
      [
        "dínlógún",
        -10.020214939373675
      ],
      [
        "dio",
        -10.02032060973436
      ],
      [
        "▁Àbá",
        -10.020364465507987
      ],
      [
        "alu",
        -10.020657895872406
      ],
      [
        "▁rẹ́",
        -10.020803895847196
      ],
      [
        "▁ṣú",
        -10.020925981017818
      ],
      [
        "ṣọ̀",
        -10.021457375590447
      ],
      [
        "▁ana",
        -10.022074727082192
      ],
      [
        "▁af",
        -10.022401146903075
      ],
      [
        "▁yam",
        -10.02315182886649
      ],
      [
        "▁iran",
        -10.023369426361365
      ],
      [
        "▁Ìran",
        -10.023782524037625
      ],
      [
        "▁Aje",
        -10.024057200998453
      ],
      [
        "▁ibí",
        -10.024308758143171
      ],
      [
        "▁káà",
        -10.025094612583677
      ],
      [
        "▁ogbon",
        -10.025480772539348
      ],
      [
        "▁kọrin",
        -10.025700802813788
      ],
      [
        "▁Good",
        -10.026703711242648
      ],
      [
        "LÉ",
        -10.026894933283527
      ],
      [
        "▁ìjìnlẹ",
        -10.027085887033545
      ],
      [
        "BO",
        -10.027607430682025
      ],
      [
        "▁wàá",
        -10.027741387881864
      ],
      [
        "▁5",
        -10.028278834139568
      ],
      [
        "▁Oun",
        -10.028599873765407
      ],
      [
        "▁Ajá",
        -10.031276608982715
      ],
      [
        "AR",
        -10.031411627496016
      ],
      [
        "▁oore",
        -10.03142543912676
      ],
      [
        "jẹ̀ẹ́",
        -10.03195516196072
      ],
      [
        "▁ogo",
        -10.0323690372933
      ],
      [
        "▁Ore",
        -10.035990578666762
      ],
      [
        "paro",
        -10.036020626537736
      ],
      [
        "▁dún",
        -10.036390758543362
      ],
      [
        "▁Àádọ́",
        -10.036693865581874
      ],
      [
        "siwaju",
        -10.036700581993188
      ],
      [
        "▁múra",
        -10.03870793324214
      ],
      [
        "▁want",
        -10.041648765518028
      ],
      [
        "ojo",
        -10.041896871846914
      ],
      [
        "▁ipo",
        -10.042505805829375
      ],
      [
        "tọ̀",
        -10.043217882402097
      ],
      [
        "▁sìn",
        -10.043233930851049
      ],
      [
        "▁iyì",
        -10.043379422962705
      ],
      [
        "▁Inu",
        -10.043772682509331
      ],
      [
        "▁nje",
        -10.044302706251067
      ],
      [
        "▁gbì",
        -10.04432596720147
      ],
      [
        "▁language",
        -10.04586357777118
      ],
      [
        "Ifa",
        -10.046061285309332
      ],
      [
        "▁#learn",
        -10.047437400940053
      ],
      [
        "ÚN",
        -10.047466904779562
      ],
      [
        "▁Oye",
        -10.047979821408852
      ],
      [
        "▁o\"\"\"\"\"\"\"\"",
        -10.049768164282844
      ],
      [
        "tura",
        -10.05057969521177
      ],
      [
        "▁òní.",
        -10.051909751949651
      ],
      [
        "Eko",
        -10.052355271820783
      ],
      [
        "▁dẹ",
        -10.052485666297624
      ],
      [
        "▁#p",
        -10.052499878388328
      ],
      [
        "▁Orin",
        -10.05299948529724
      ],
      [
        "▁let",
        -10.053655257641552
      ],
      [
        "RIN",
        -10.053956605987299
      ],
      [
        "▁fá",
        -10.054758704185678
      ],
      [
        "▁oh",
        -10.054921878361483
      ],
      [
        "tútù",
        -10.057471085096548
      ],
      [
        "Idajo",
        -10.057625598890539
      ],
      [
        "oluwa",
        -10.058553942108983
      ],
      [
        "▁amo",
        -10.058993116262089
      ],
      [
        "morning",
        -10.061641597484263
      ],
      [
        "word",
        -10.061834960267468
      ],
      [
        "àrà",
        -10.061865777093606
      ],
      [
        "mẹ́ta",
        -10.06236266908633
      ],
      [
        "foju",
        -10.06284682906982
      ],
      [
        "very",
        -10.062895003259753
      ],
      [
        "▁okun",
        -10.068141396146935
      ],
      [
        "sha",
        -10.068621747876795
      ],
      [
        "'bi",
        -10.068640684137243
      ],
      [
        "ition",
        -10.068885853202342
      ],
      [
        "▁im",
        -10.06904810294086
      ],
      [
        "?\"\"\"\"",
        -10.069409402117222
      ],
      [
        "▁ọ̀bọ",
        -10.071893993208073
      ],
      [
        "ulture",
        -10.071894693883984
      ],
      [
        "▁My",
        -10.072227070945551
      ],
      [
        "pade",
        -10.073000921623057
      ],
      [
        "▁sè",
        -10.073422155994166
      ],
      [
        "aara",
        -10.073845342332872
      ],
      [
        "ẹ̀yà",
        -10.074833954186198
      ],
      [
        "Laye",
        -10.076796403767258
      ],
      [
        "Tweet",
        -10.07778506694267
      ],
      [
        "▁owe",
        -10.07796923737686
      ],
      [
        "InYoruba",
        -10.078142515508873
      ],
      [
        "ope",
        -10.079003876888471
      ],
      [
        "ìyá",
        -10.07963333888088
      ],
      [
        "▁#An",
        -10.079708713034377
      ],
      [
        "Aare",
        -10.08026318641788
      ],
      [
        "estival",
        -10.08039686435918
      ],
      [
        "▁\"\"\"\"\"\"\"\"À",
        -10.080463869480726
      ],
      [
        "kẹ",
        -10.080509296988986
      ],
      [
        "béèrè",
        -10.080694221589026
      ],
      [
        "òrò",
        -10.08215212717301
      ],
      [
        "▁#Ile",
        -10.08216518131983
      ],
      [
        "▁Àṣèyí",
        -10.082345932221422
      ],
      [
        "👍",
        -10.082353026296019
      ],
      [
        "▁#NigeriaDecides",
        -10.082353026297294
      ],
      [
        "▁♂️",
        -10.082353026298119
      ],
      [
        "▁#August",
        -10.082353026371733
      ],
      [
        "▁#MotherLanguage",
        -10.082353077673838
      ],
      [
        "▁Odùduwà",
        -10.082353102083896
      ],
      [
        "▁Lẹ́yìn",
        -10.08235356733049
      ],
      [
        "▁ọ̀daràn",
        -10.082353828614359
      ],
      [
        "▁ewúrẹ́",
        -10.082354120337028
      ],
      [
        "▁Oòduà",
        -10.082354250627018
      ],
      [
        "▁ìṣòro",
        -10.08235429898246
      ],
      [
        "▁Alaroye",
        -10.08235588088465
      ],
      [
        "twitter",
        -10.082356087241052
      ],
      [
        "▁ÌYÁ",
        -10.082357687594454
      ],
      [
        "▁#smw",
        -10.082357781831586
      ],
      [
        "▁àyíká",
        -10.082358102602942
      ],
      [
        "▁help",
        -10.082359790117943
      ],
      [
        "▁#COVID19",
        -10.082364099121328
      ],
      [
        "Music",
        -10.08236552141537
      ],
      [
        "▁mekunu",
        -10.082387719921321
      ],
      [
        "▁aja",
        -10.082401074884835
      ],
      [
        "▁jèrè",
        -10.082419925802771
      ],
      [
        "▁Ariwo",
        -10.08249581528828
      ],
      [
        "▁yẹ̀yẹ́",
        -10.082514517330821
      ],
      [
        "▁òṣìṣẹ́",
        -10.0825295291131
      ],
      [
        "ṢẸ́",
        -10.082537468641329
      ],
      [
        "▁mẹ́fà",
        -10.082551387332858
      ],
      [
        "▁fí",
        -10.082565512951279
      ],
      [
        "▁ayò",
        -10.082688699562356
      ],
      [
        "▁ìbùkún",
        -10.082895771850621
      ],
      [
        "▁ọ̀tá",
        -10.082939565188248
      ],
      [
        "òórọ̀",
        -10.082959445152888
      ],
      [
        "book",
        -10.083058932090868
      ],
      [
        "▁Atiku",
        -10.083242904127385
      ],
      [
        "▁Eniyan",
        -10.083338483147722
      ],
      [
        "▁ìkòkò",
        -10.083430494313424
      ],
      [
        "self",
        -10.083437123756951
      ],
      [
        "▁l’",
        -10.083462583820413
      ],
      [
        "▁#Ewi",
        -10.083597159671895
      ],
      [
        "▁ọ̀ràn",
        -10.083610667503653
      ],
      [
        "▁jíjẹ",
        -10.083751363525211
      ],
      [
        "▁bird",
        -10.084039244918655
      ],
      [
        "▁Ọ̀rẹ́",
        -10.08405836327131
      ],
      [
        "▁duro",
        -10.084199326359427
      ],
      [
        "▁Iwa",
        -10.084208439522916
      ],
      [
        "▁#Iroyin",
        -10.084405201835327
      ],
      [
        "▁Boko",
        -10.084474665866669
      ],
      [
        "▁#Oduduwa",
        -10.08451113832364
      ],
      [
        "▁igbadun",
        -10.084682587165073
      ],
      [
        "sango",
        -10.08485114766491
      ],
      [
        "▁ògbufọ̀",
        -10.084908214262484
      ],
      [
        "Books",
        -10.085083043756741
      ],
      [
        "▁Ogbeni",
        -10.0851121804399
      ],
      [
        "▁olóko",
        -10.0851596791561
      ],
      [
        "▁Ọbà",
        -10.08554773538942
      ],
      [
        "▁#con",
        -10.085969236360532
      ],
      [
        "▁ọ̀kẹ́",
        -10.085992792956908
      ],
      [
        "▁aso",
        -10.08599415031051
      ],
      [
        "▁adé",
        -10.0860878862512
      ],
      [
        "▁#Tweet",
        -10.086238616289316
      ],
      [
        "▁Òwu",
        -10.086307115019011
      ],
      [
        "WO",
        -10.086487310222704
      ],
      [
        "▁merin",
        -10.086571328570543
      ],
      [
        "▁where",
        -10.086614337449674
      ],
      [
        "Ọ́N",
        -10.086676716922135
      ],
      [
        "▁Sebi",
        -10.086739547804314
      ],
      [
        "▁gaan",
        -10.086828414677617
      ],
      [
        "▁mímọ́",
        -10.086878575690902
      ],
      [
        "▁darap",
        -10.08700940964919
      ],
      [
        "▁ako",
        -10.087850228324424
      ],
      [
        "Ede",
        -10.0879710199568
      ],
      [
        "▁mẹ́",
        -10.088045614399396
      ],
      [
        "▁Ṣá",
        -10.088631179733765
      ],
      [
        "Omo",
        -10.089351008784622
      ],
      [
        "uuru",
        -10.089392520168499
      ],
      [
        "dara",
        -10.090097035875974
      ],
      [
        "▁borí",
        -10.090631360416502
      ],
      [
        "▁ránṣẹ́",
        -10.09107838410551
      ],
      [
        "árá",
        -10.091131136842892
      ],
      [
        "AND",
        -10.091216814231078
      ],
      [
        "▁into",
        -10.091240764880984
      ],
      [
        "bùn",
        -10.091277064304503
      ],
      [
        "▁fẹ́ẹ́",
        -10.091548140510502
      ],
      [
        "▁júbà",
        -10.091622722701803
      ],
      [
        "com",
        -10.092358340922944
      ],
      [
        "mò",
        -10.092654687767164
      ],
      [
        "▁pur",
        -10.093010858770656
      ],
      [
        "ral",
        -10.093076835799986
      ],
      [
        "▁dájú",
        -10.09321922522851
      ],
      [
        "kán",
        -10.09322895095133
      ],
      [
        "▁#Odun",
        -10.093607796693565
      ],
      [
        "▁Ọdẹ",
        -10.093743636376031
      ],
      [
        "ES",
        -10.093774238234223
      ],
      [
        "CK",
        -10.093799896390962
      ],
      [
        "▁10",
        -10.093909871952409
      ],
      [
        "hara",
        -10.094069911001117
      ],
      [
        "▁jagun",
        -10.094105355745993
      ],
      [
        "▁No",
        -10.094271724377526
      ],
      [
        "▁Je",
        -10.094295400454392
      ],
      [
        "▁pon",
        -10.09446197058031
      ],
      [
        "▁adura",
        -10.094660008556751
      ],
      [
        "▁👇",
        -10.094770509387864
      ],
      [
        "▁npa",
        -10.095730811421497
      ],
      [
        "▁darí",
        -10.09578903950078
      ],
      [
        "▁tweet",
        -10.096886581254699
      ],
      [
        "Ye",
        -10.097212341169708
      ],
      [
        "▁New",
        -10.097575458035264
      ],
      [
        "▁ijo",
        -10.09787915831356
      ],
      [
        "aba",
        -10.098183207105272
      ],
      [
        "eko",
        -10.098438741033023
      ],
      [
        "urú",
        -10.099320912520696
      ],
      [
        "Àyájọ́",
        -10.09979270749678
      ],
      [
        "▁àá",
        -10.100653620085517
      ],
      [
        "▁#Ami",
        -10.100736150894551
      ],
      [
        "▁http://t.co/3",
        -10.10384418755341
      ],
      [
        "for",
        -10.104210692959787
      ],
      [
        "▁tirẹ̀",
        -10.104238515818123
      ],
      [
        "NT",
        -10.104428149849191
      ],
      [
        "14",
        -10.10446344949775
      ],
      [
        "▁#G",
        -10.104465957618999
      ],
      [
        "DS",
        -10.104779363864367
      ],
      [
        "gbeni",
        -10.105551391851368
      ],
      [
        "21",
        -10.107005281597223
      ],
      [
        "▁Eje",
        -10.107747930931826
      ],
      [
        "dagba",
        -10.108752589815008
      ],
      [
        "èjì",
        -10.10952654395747
      ],
      [
        "rere",
        -10.109609734437713
      ],
      [
        "cre",
        -10.109920083960574
      ],
      [
        "▁l'ẹ́",
        -10.11001891771356
      ],
      [
        "TE",
        -10.111376969176094
      ],
      [
        "ìtì",
        -10.11342051152521
      ],
      [
        "▁jìn",
        -10.113522267742116
      ],
      [
        "▁ọ̀gb",
        -10.113874178661343
      ],
      [
        "▁Ebi",
        -10.114565810823521
      ],
      [
        "gboro",
        -10.11611118144688
      ],
      [
        "▁jé",
        -10.11638335673442
      ],
      [
        "àmì",
        -10.116600476381644
      ],
      [
        "DP",
        -10.119565787054231
      ],
      [
        "àkà",
        -10.12004458819618
      ],
      [
        "▁Lagos",
        -10.120965391174249
      ],
      [
        "míì",
        -10.121698085328983
      ],
      [
        "▁sáà",
        -10.123992922043785
      ],
      [
        "cc",
        -10.125478173509215
      ],
      [
        "▁akọ",
        -10.125610128332834
      ],
      [
        "▁wẹ̀",
        -10.125709000244594
      ],
      [
        "gbọ́",
        -10.126487024142095
      ],
      [
        "ÀÁ",
        -10.126690394026618
      ],
      [
        "kuta",
        -10.127131058153253
      ],
      [
        "▁imo",
        -10.12717315565273
      ],
      [
        "sum",
        -10.127395172682151
      ],
      [
        "▁dó",
        -10.12805297825407
      ],
      [
        "▁Aja",
        -10.128540775252294
      ],
      [
        "ize",
        -10.129635985122603
      ],
      [
        "In",
        -10.130452577020593
      ],
      [
        "'nú",
        -10.131365820785273
      ],
      [
        "ally",
        -10.132098569499938
      ],
      [
        "▁àyà",
        -10.133926866312585
      ],
      [
        "▁_____",
        -10.134111775433839
      ],
      [
        "▁Po",
        -10.13419534715046
      ],
      [
        "emo",
        -10.134433210669801
      ],
      [
        "▁isu",
        -10.13483384460779
      ],
      [
        "Ife",
        -10.135167549929498
      ],
      [
        "▁r",
        -10.135975467280508
      ],
      [
        "ranslator",
        -10.139144372756583
      ],
      [
        "yìí",
        -10.139225065786377
      ],
      [
        "Olorun",
        -10.140669078963363
      ],
      [
        "67",
        -10.1410477249392
      ],
      [
        "ura",
        -10.14115113445505
      ],
      [
        "waju",
        -10.14123249651085
      ],
      [
        "»",
        -10.143139735696845
      ],
      [
        "pọn",
        -10.14335393653759
      ],
      [
        "▁Ona",
        -10.143379437262212
      ],
      [
        "ọ̀ọ́",
        -10.14399919217502
      ],
      [
        "2020",
        -10.144737648739875
      ],
      [
        "tion",
        -10.145778106624862
      ],
      [
        "hange",
        -10.146627075633951
      ],
      [
        "èè",
        -10.146639329771133
      ],
      [
        "Oyo",
        -10.147566888130351
      ],
      [
        "meji",
        -10.147937179158838
      ],
      [
        "dúró",
        -10.150678892531946
      ],
      [
        "pamo",
        -10.153763550098187
      ],
      [
        "burú",
        -10.15388930161268
      ],
      [
        "arri",
        -10.154173022547695
      ],
      [
        "mọ́lẹ̀",
        -10.155290930675172
      ],
      [
        "gbègbè",
        -10.156154367189444
      ],
      [
        "MO",
        -10.15968632610095
      ],
      [
        "nílé",
        -10.160262562143407
      ],
      [
        "▁ẹnì",
        -10.161343630184444
      ],
      [
        "▁Iro",
        -10.161460847562358
      ],
      [
        "▁fọ̀",
        -10.161940492031485
      ],
      [
        "NC",
        -10.162157306168552
      ],
      [
        "Is",
        -10.16232162916285
      ],
      [
        "▁MA",
        -10.163362444013343
      ],
      [
        "▁Kọ́",
        -10.16363320808826
      ],
      [
        "▁nu",
        -10.164280129896854
      ],
      [
        "read",
        -10.165094633357665
      ],
      [
        "👏",
        -10.165686359629449
      ],
      [
        "$",
        -10.165686359629458
      ],
      [
        "▁Emmanuel",
        -10.16568635966818
      ],
      [
        "▁#IAFEE",
        -10.16568635999604
      ],
      [
        "▁Ìkòròdú",
        -10.16568636035992
      ],
      [
        "▁birthday",
        -10.165686361856423
      ],
      [
        "▁biribiri",
        -10.165686378100352
      ],
      [
        "▁London",
        -10.165686501416218
      ],
      [
        "happy",
        -10.165686604105016
      ],
      [
        "▁#AwaLa",
        -10.165686606242264
      ],
      [
        "History",
        -10.1656867619456
      ],
      [
        "▁O'òduà",
        -10.165686930046048
      ],
      [
        "▁house",
        -10.165687063092022
      ],
      [
        "▁#QnA",
        -10.165687135437492
      ],
      [
        "▁Thank",
        -10.165687170674731
      ],
      [
        "▁òkùnkùn",
        -10.165688397261242
      ],
      [
        "▁èèwọ̀",
        -10.165689673773782
      ],
      [
        "▁gomina",
        -10.1656898434477
      ],
      [
        "▁òtítọ́",
        -10.165691425413193
      ],
      [
        "▁still",
        -10.16569407633947
      ],
      [
        "▁about",
        -10.16569594075863
      ],
      [
        "▁wealth",
        -10.165709175350928
      ],
      [
        "▁home",
        -10.165715924997084
      ],
      [
        "▁things",
        -10.165735923471988
      ],
      [
        "▁ọlọ́pàá",
        -10.165747364700795
      ],
      [
        "▁Yooba",
        -10.165753252221899
      ],
      [
        "▁giga",
        -10.16575510953825
      ],
      [
        "̀jọ̀gbọ́n",
        -10.165852776232557
      ],
      [
        "▁àìsàn",
        -10.165905997340568
      ],
      [
        "▁pátá",
        -10.165917538066525
      ],
      [
        "▁#OmoYoruba",
        -10.166087131767828
      ],
      [
        "▁LỌ́",
        -10.166161636722617
      ],
      [
        "▁Oyinbo",
        -10.166276472471527
      ],
      [
        "▁boolu",
        -10.166447916890558
      ],
      [
        "▁ẹlòmíràn",
        -10.166466610510145
      ],
      [
        "▁ẹnikẹ́ni",
        -10.166478790758099
      ],
      [
        "▁live",
        -10.16648990179088
      ],
      [
        "▁itumo",
        -10.166521996561425
      ],
      [
        "▁out",
        -10.166565882515817
      ],
      [
        "▁olólùfẹ́",
        -10.166602503577458
      ],
      [
        "▁òkèèrè",
        -10.166679090033982
      ],
      [
        "▁need",
        -10.166709718655401
      ],
      [
        "▁àbúrò",
        -10.166946437239925
      ],
      [
        "▁ìpàdé",
        -10.167033694007051
      ],
      [
        "▁Orísun",
        -10.167058825211111
      ],
      [
        "▁#eki",
        -10.167154930782866
      ],
      [
        "▁Òpó",
        -10.16717148977593
      ],
      [
        "▁tòní",
        -10.16737646134829
      ],
      [
        "▁sáyé",
        -10.167411099671336
      ],
      [
        "▁Láyé",
        -10.167491590701577
      ],
      [
        "▁Ọ̀ràn",
        -10.167635555393565
      ],
      [
        "bìtì",
        -10.167836205425187
      ],
      [
        "▁;)",
        -10.167848431331219
      ],
      [
        "▁ológun",
        -10.167874501693888
      ],
      [
        "▁òòṣà",
        -10.16800397494909
      ],
      [
        "▁YouTube",
        -10.168473187536929
      ],
      [
        "▁onírú",
        -10.168572099961986
      ],
      [
        "▁fura",
        -10.168800741458504
      ],
      [
        "tẹ",
        -10.168817651102227
      ],
      [
        "▁s'ọ́",
        -10.169084024276948
      ],
      [
        "▁Pẹ̀l",
        -10.169376416382043
      ],
      [
        "▁kun",
        -10.169619603761802
      ],
      [
        "▁fall",
        -10.169764809755362
      ],
      [
        "òótọ́",
        -10.169862067653394
      ],
      [
        "koro",
        -10.16991493488171
      ],
      [
        "▁video",
        -10.1703091034657
      ],
      [
        "tẹ́lẹwọ́",
        -10.170980434467644
      ],
      [
        "▁àt'",
        -10.171244403408357
      ],
      [
        "kọ̀wé",
        -10.172004017641807
      ],
      [
        "▁long",
        -10.172428293579125
      ],
      [
        "Ona",
        -10.172577286768972
      ],
      [
        "▁Bẹ́ẹ̀ni",
        -10.17264609860713
      ],
      [
        "▁#omo",
        -10.173258896058902
      ],
      [
        "làáfíà",
        -10.17352763721145
      ],
      [
        "▁Eyi",
        -10.17383913783597
      ],
      [
        "▁lọ?",
        -10.174301490522481
      ],
      [
        "▁aiku",
        -10.174541219743562
      ],
      [
        "▁Èè",
        -10.175335057318241
      ],
      [
        "▁Ogún",
        -10.175958366202774
      ],
      [
        "▁here",
        -10.176482163874507
      ],
      [
        "▁yún",
        -10.17686447708365
      ],
      [
        "▁Me",
        -10.176969600019985
      ],
      [
        "▁today",
        -10.177996947649984
      ],
      [
        "lì",
        -10.178205474519965
      ],
      [
        "▁jùlọ",
        -10.178472127118194
      ],
      [
        "▁Dahomey",
        -10.179478221489761
      ],
      [
        "▁Lori",
        -10.179488707250028
      ],
      [
        "▁were",
        -10.17957580027001
      ],
      [
        "▁#Ire",
        -10.179583491842218
      ],
      [
        "▁pín",
        -10.180077598905621
      ],
      [
        "▁Alagba",
        -10.182000191927498
      ],
      [
        "▁ìyè",
        -10.182093227718704
      ],
      [
        "▁#ede",
        -10.182204481834638
      ],
      [
        "▁adìẹ",
        -10.182948939210867
      ],
      [
        "▁con",
        -10.18446785580195
      ],
      [
        "▁ajé",
        -10.184601227545262
      ],
      [
        "àlà",
        -10.185244925648632
      ],
      [
        "▁oje",
        -10.185802130609556
      ],
      [
        "88",
        -10.18599504897366
      ],
      [
        "tọ̀ọ́",
        -10.186706820974148
      ],
      [
        "▁#Li",
        -10.187544587591105
      ],
      [
        "▁her",
        -10.188032452841199
      ],
      [
        "▁ike",
        -10.188075511198436
      ],
      [
        "dàá",
        -10.188269623412802
      ],
      [
        "OU",
        -10.188425289325952
      ],
      [
        "▁ńpa",
        -10.189038801249415
      ],
      [
        "▁gbà,",
        -10.189669337498
      ],
      [
        "▁http",
        -10.189931961461939
      ],
      [
        "▁Tii",
        -10.190398346223821
      ],
      [
        "▁pro",
        -10.190640183575724
      ],
      [
        "▁#Oro",
        -10.190700456813193
      ],
      [
        "News",
        -10.19129778055875
      ],
      [
        "▁ǹkan",
        -10.191929489053551
      ],
      [
        "IR",
        -10.192012992810508
      ],
      [
        "kiri",
        -10.19233284939234
      ],
      [
        "kuru",
        -10.192521309557913
      ],
      [
        "▁Yo",
        -10.192565730832733
      ],
      [
        "ṣán",
        -10.19331330344257
      ],
      [
        "ilu",
        -10.193587951395772
      ],
      [
        "▁larin",
        -10.195555229290735
      ],
      [
        "Ijoba",
        -10.196307296860503
      ],
      [
        "▁bò",
        -10.196944802346547
      ],
      [
        "iroyin",
        -10.198512948559086
      ],
      [
        "▁kúu",
        -10.1995137795549
      ],
      [
        "▁bíbí",
        -10.199626868494093
      ],
      [
        "▁eru",
        -10.19986591705424
      ],
      [
        "ide",
        -10.199992160080805
      ],
      [
        "▁Elédùmarè.",
        -10.200153090130488
      ],
      [
        "àbà",
        -10.200478713402427
      ],
      [
        "▁#K",
        -10.200608220608352
      ],
      [
        "▁\"\"\"\"\"\"\"\"O",
        -10.201191884254271
      ],
      [
        "▁nṣe",
        -10.201279874552382
      ],
      [
        "▁KÚ",
        -10.201517745990216
      ],
      [
        "▁àyè",
        -10.201759096100563
      ],
      [
        "▁Kan",
        -10.202468226416848
      ],
      [
        "her",
        -10.204953625595472
      ],
      [
        "▁títì",
        -10.20615046008815
      ],
      [
        "rb",
        -10.207301167773235
      ],
      [
        "fọ̀",
        -10.207758814815906
      ],
      [
        "nigbati",
        -10.208504288127969
      ],
      [
        "tele",
        -10.209288340009497
      ],
      [
        "aki",
        -10.210530745046986
      ],
      [
        "▁ofin",
        -10.211506047304141
      ],
      [
        "lọ́run",
        -10.212515975831755
      ],
      [
        "ec",
        -10.212570327474154
      ],
      [
        "ọ́kọ́",
        -10.212754416378822
      ],
      [
        "ME",
        -10.212928073827095
      ],
      [
        "▁new",
        -10.213768847462937
      ],
      [
        "Qu",
        -10.214001307909127
      ],
      [
        "fárá",
        -10.214836097569455
      ],
      [
        "ẹ̀yìn",
        -10.214947090426655
      ],
      [
        "wan",
        -10.215660589435064
      ],
      [
        "BI",
        -10.216477872300505
      ],
      [
        "cy",
        -10.216903787514948
      ],
      [
        "Ọ́",
        -10.21712275691849
      ],
      [
        "Si",
        -10.217261755706417
      ],
      [
        "gbọ",
        -10.217309952397635
      ],
      [
        "▁#iy",
        -10.217787917086797
      ],
      [
        "▁gbéra",
        -10.219242804032099
      ],
      [
        "gbani",
        -10.219308780329408
      ],
      [
        "▁àf",
        -10.220906192415475
      ],
      [
        "pasẹ̀",
        -10.221660814668347
      ],
      [
        "Di",
        -10.22224294678064
      ],
      [
        "Kini",
        -10.223376628796679
      ],
      [
        "ver",
        -10.223524905557857
      ],
      [
        "lohun",
        -10.224714948641937
      ],
      [
        "eta",
        -10.229193327247078
      ],
      [
        "▁ìbá",
        -10.229471640936072
      ],
      [
        "▁oró",
        -10.230041020051166
      ],
      [
        "▁Àjà",
        -10.230842610267217
      ],
      [
        "▁kill",
        -10.231285924881323
      ],
      [
        "jamba",
        -10.232987068338861
      ],
      [
        "▁Sí",
        -10.233684994247698
      ],
      [
        "Ọmọ",
        -10.234470767043483
      ],
      [
        "èyí",
        -10.2346670204258
      ],
      [
        "♫",
        -10.23657088236967
      ],
      [
        "▁bára",
        -10.236640018106595
      ],
      [
        "41",
        -10.238799935141936
      ],
      [
        "▁alo",
        -10.239872638980492
      ],
      [
        "hàn",
        -10.2402613327733
      ],
      [
        "▁She",
        -10.240750533091855
      ],
      [
        "▁Ro",
        -10.242779622937288
      ],
      [
        "jàpá",
        -10.24421644241789
      ],
      [
        "men",
        -10.244535223526334
      ],
      [
        "▁\"\"\"\"\"\"\"\"Ì",
        -10.244825814952936
      ],
      [
        "▁èrè",
        -10.244841849469378
      ],
      [
        "DI",
        -10.245447160037862
      ],
      [
        "ER",
        -10.245695573324202
      ],
      [
        "70",
        -10.246316062875474
      ],
      [
        "sc",
        -10.247026525085328
      ],
      [
        "ngbe",
        -10.247270685525573
      ],
      [
        "CC",
        -10.247744237691478
      ],
      [
        "▁Ose",
        -10.248089576373337
      ],
      [
        "▁balẹ̀",
        -10.24933727703645
      ],
      [
        "▁dẹ̀",
        -10.249754718521977
      ],
      [
        "▁#g",
        -10.250576553361565
      ],
      [
        "▁wẹ",
        -10.250900190035615
      ],
      [
        "cha",
        -10.251896432005278
      ],
      [
        "▁ọ̀pẹ",
        -10.253125389836466
      ],
      [
        "▁https://t.co/",
        -10.253175752232396
      ],
      [
        "▁Hmm",
        -10.253391393196697
      ],
      [
        "▁jọ̀",
        -10.256046933503335
      ],
      [
        "▁#EdeYoruba",
        -10.256180791038947
      ],
      [
        "aare",
        -10.256334761565851
      ],
      [
        "nira",
        -10.256351161711928
      ],
      [
        "Ǹ",
        -10.256589050286507
      ],
      [
        "▁#Brazil",
        -10.25659545052873
      ],
      [
        "❌",
        -10.256595450538816
      ],
      [
        "▁àǹfààní",
        -10.256595450541012
      ],
      [
        "▁mànàmáná",
        -10.256595450606255
      ],
      [
        "🌧️",
        -10.256595450666484
      ],
      [
        "▁sùúrù",
        -10.256595453153555
      ],
      [
        "▁#owambe",
        -10.25659545509619
      ],
      [
        "▁ribiribi",
        -10.256595462869587
      ],
      [
        "▁è̟tó̟",
        -10.256595478739603
      ],
      [
        "▁Ọ̀gbómọ̀ṣọ́",
        -10.256595566272043
      ],
      [
        "▁#Translate",
        -10.256595720321707
      ],
      [
        "▁#Sakara",
        -10.256595977565768
      ],
      [
        "▁eledumare",
        -10.25659610250783
      ],
      [
        "▁NAME",
        -10.256596893448972
      ],
      [
        "▁oloselu",
        -10.256598301051465
      ],
      [
        "▁jókòó",
        -10.256601540266244
      ],
      [
        "▁ure!",
        -10.256602033977671
      ],
      [
        "▁around",
        -10.256605220568254
      ],
      [
        "▁àparò",
        -10.256612204391718
      ],
      [
        "▁matter",
        -10.25661558424254
      ],
      [
        "▁Kakanfò",
        -10.256616111743789
      ],
[...]
